<?xml version="1.0"?>
<MethodSetup Method="BDT::BDTG">
  <GeneralInfo>
    <Info name="TMVA Release" value="4.2.1 [262657]"/>
    <Info name="ROOT Release" value="6.04/16 [394256]"/>
    <Info name="Creator" value="sakatsuk"/>
    <Info name="Date" value="Mon Oct  1 14:16:50 2018"/>
    <Info name="Host" value="Linux lcgapp-slc6-physical1.cern.ch 2.6.32-573.8.1.el6.x86_64 #1 SMP Wed Nov 11 15:27:45 CET 2015 x86_64 x86_64 x86_64 GNU/Linux"/>
    <Info name="Dir" value="/gpfs/fs6001/sakatsuk/PromptLeptonTagger/addToNtuple/script"/>
    <Info name="Training events" value="852225"/>
    <Info name="TrainingTime" value="3.70172689e+02"/>
    <Info name="AnalysisType" value="Classification"/>
  </GeneralInfo>
  <Options>
    <Option name="V" modified="Yes">False</Option>
    <Option name="VerbosityLevel" modified="No">Default</Option>
    <Option name="VarTransform" modified="No">None</Option>
    <Option name="H" modified="Yes">False</Option>
    <Option name="CreateMVAPdfs" modified="No">False</Option>
    <Option name="IgnoreNegWeightsInTraining" modified="No">False</Option>
    <Option name="NTrees" modified="Yes">100</Option>
    <Option name="MaxDepth" modified="Yes">7</Option>
    <Option name="MinNodeSize" modified="Yes">1.0</Option>
    <Option name="nCuts" modified="Yes">30</Option>
    <Option name="BoostType" modified="Yes">Grad</Option>
    <Option name="AdaBoostR2Loss" modified="No">quadratic</Option>
    <Option name="UseBaggedBoost" modified="No">True</Option>
    <Option name="Shrinkage" modified="Yes">5.000000e-02</Option>
    <Option name="AdaBoostBeta" modified="No">5.000000e-01</Option>
    <Option name="UseRandomisedTrees" modified="No">False</Option>
    <Option name="UseNvars" modified="No">3</Option>
    <Option name="UsePoissonNvars" modified="No">True</Option>
    <Option name="BaggedSampleFraction" modified="No">5.000000e-01</Option>
    <Option name="UseYesNoLeaf" modified="No">True</Option>
    <Option name="NegWeightTreatment" modified="No">ignorenegweightsintraining</Option>
    <Option name="Css" modified="No">1.000000e+00</Option>
    <Option name="Cts_sb" modified="No">1.000000e+00</Option>
    <Option name="Ctb_ss" modified="No">1.000000e+00</Option>
    <Option name="Cbb" modified="No">1.000000e+00</Option>
    <Option name="NodePurityLimit" modified="No">5.000000e-01</Option>
    <Option name="SeparationType" modified="No">giniindex</Option>
    <Option name="DoBoostMonitor" modified="No">False</Option>
    <Option name="UseFisherCuts" modified="No">False</Option>
    <Option name="MinLinCorrForFisher" modified="No">8.000000e-01</Option>
    <Option name="UseExclusiveVars" modified="No">False</Option>
    <Option name="DoPreselection" modified="No">False</Option>
    <Option name="SigToBkgFraction" modified="No">1.000000e+00</Option>
    <Option name="PruneMethod" modified="Yes">nopruning</Option>
    <Option name="PruneStrength" modified="No">0.000000e+00</Option>
    <Option name="PruningValFraction" modified="No">5.000000e-01</Option>
    <Option name="nEventsMin" modified="No">0</Option>
    <Option name="UseBaggedGrad" modified="Yes">True</Option>
    <Option name="GradBaggingFraction" modified="Yes">5.000000e-01</Option>
    <Option name="UseNTrainEvents" modified="No">0</Option>
    <Option name="NNodesMax" modified="No">0</Option>
  </Options>
  <Variables NVar="6">
    <Variable VarIndex="0" Expression="CorrPtvarcone30/Pt/1000" Label="CorrPtvarcone30/Pt/1000" Title="mytree.CorrPtvarcone30/mytree.Pt/1000" Unit="unit" Internal="CorrPtvarcone30_D_Pt_D_1000" Type="F" Min="-3.43586203e-06" Max="9.99848461e+00"/>
    <Variable VarIndex="1" Expression="CorrTopoetcone20/Pt" Label="CorrTopoetcone20/Pt" Title="mytree.CorrTopoetcone20/mytree.Pt" Unit="unit" Internal="CorrTopoetcone20_D_Pt" Type="F" Min="-5.74466057e+01" Max="9.98977661e+00"/>
    <Variable VarIndex="2" Expression="PLTInput_PtRel" Label="PLTInput_PtRel" Title="mytree.PLTInput_PtRel" Unit="unit" Internal="PLTInput_PtRel" Type="F" Min="0.00000000e+00" Max="2.16053027e+03"/>
    <Variable VarIndex="3" Expression="PLTInput_PtFrac" Label="PLTInput_PtFrac" Title="mytree.PLTInput_PtFrac" Unit="unit" Internal="PLTInput_PtFrac" Type="F" Min="1.11423498e-02" Max="1.99673855e+00"/>
    <Variable VarIndex="4" Expression="PLTInput_DRlj" Label="PLTInput_DRlj" Title="mytree.PLTInput_DRlj" Unit="unit" Internal="PLTInput_DRlj" Type="F" Min="5.44132295e-09" Max="3.99827272e-01"/>
    <Variable VarIndex="5" Expression="PLTInput_TrackJetNTrack" Label="PLTInput_TrackJetNTrack" Title="mytree.PLTInput_TrackJetNTrack" Unit="unit" Internal="PLTInput_TrackJetNTrack" Type="I" Min="1.00000000e+00" Max="2.80000000e+01"/>
  </Variables>
  <Spectators NSpec="0"/>
  <Classes NClass="2">
    <Class Name="Signal" Index="0"/>
    <Class Name="Background" Index="1"/>
  </Classes>
  <Transformations NTransformations="0"/>
  <MVAPdfs/>
  <Weights NTrees="100" AnalysisType="1">
    <BinaryTree type="DecisionTree" boostWeight="1.0000000000000000e+00" itree="0">
      <Node pos="s" depth="0" NCoef="0" IVar="3" Cut="6.5165728330612183e-01" cType="1" res="-1.7789738485589623e-03" rms="4.9999684095382690e-01" purity="4.9822100996971130e-01" nType="0">
        <Node pos="l" depth="1" NCoef="0" IVar="0" Cut="6.4371997117996216e-01" cType="1" res="-3.2872837781906128e-01" rms="3.7674614787101746e-01" purity="1.7127162218093872e-01" nType="0">
          <Node pos="l" depth="2" NCoef="0" IVar="3" Cut="4.8663705587387085e-01" cType="1" res="-2.0147837698459625e-01" rms="4.5760950446128845e-01" purity="2.9852163791656494e-01" nType="0">
            <Node pos="l" depth="3" NCoef="0" IVar="0" Cut="2.0760813727974892e-02" cType="1" res="-2.9725700616836548e-01" rms="4.0204262733459473e-01" purity="2.0274299383163452e-01" nType="0">
              <Node pos="l" depth="4" NCoef="0" IVar="3" Cut="3.6417618393898010e-01" cType="1" res="-2.5560697913169861e-01" rms="4.2972674965858459e-01" purity="2.4439300596714020e-01" nType="0">
                <Node pos="l" depth="5" NCoef="0" IVar="-1" Cut="0.0000000000000000e+00" cType="1" res="-2.8342120349407196e-02" rms="4.1866073012351990e-01" purity="2.2664459049701691e-01" nType="-99"/>
                <Node pos="r" depth="5" NCoef="0" IVar="-1" Cut="0.0000000000000000e+00" cType="1" res="-2.3157343268394470e-02" rms="4.4016385078430176e-01" purity="2.6281696557998657e-01" nType="-99"/>
              </Node>
              <Node pos="r" depth="4" NCoef="0" IVar="3" Cut="3.6527928709983826e-01" cType="1" res="-3.2590481638908386e-01" rms="3.7919130921363831e-01" purity="1.7409518361091614e-01" nType="0">
                <Node pos="l" depth="5" NCoef="0" IVar="-1" Cut="0.0000000000000000e+00" cType="1" res="-3.9476308971643448e-02" rms="3.4586298465728760e-01" purity="1.3891996443271637e-01" nType="-99"/>
                <Node pos="r" depth="5" NCoef="0" IVar="-1" Cut="0.0000000000000000e+00" cType="1" res="-3.0888583511114120e-02" rms="3.9817821979522705e-01" purity="1.9758620858192444e-01" nType="-99"/>
              </Node>
            </Node>
            <Node pos="r" depth="3" NCoef="0" IVar="0" Cut="2.0762814208865166e-02" cType="1" res="-1.4908781647682190e-01" rms="4.7725552320480347e-01" purity="3.5091218352317810e-01" nType="0">
              <Node pos="l" depth="4" NCoef="0" IVar="3" Cut="5.8780914545059204e-01" cType="1" res="-7.4194759130477905e-02" rms="4.9446448683738708e-01" purity="4.2580521106719971e-01" nType="0">
                <Node pos="l" depth="5" NCoef="0" IVar="-1" Cut="0.0000000000000000e+00" cType="1" res="-1.0410458780825138e-02" rms="4.8608297109603882e-01" purity="3.8285335898399353e-01" nType="-99"/>
                <Node pos="r" depth="5" NCoef="0" IVar="-1" Cut="0.0000000000000000e+00" cType="1" res="-2.9928199946880341e-03" rms="4.9877682328224182e-01" purity="4.6504759788513184e-01" nType="-99"/>
              </Node>
              <Node pos="r" depth="4" NCoef="0" IVar="0" Cut="4.4551292061805725e-01" cType="1" res="-1.9133412837982178e-01" rms="4.6194291114807129e-01" purity="3.0866587162017822e-01" nType="0">
                <Node pos="l" depth="5" NCoef="0" IVar="3" Cut="5.9309256076812744e-01" cType="1" res="-1.5495792031288147e-01" rms="4.7538200020790100e-01" purity="3.4504210948944092e-01" nType="0">
                  <Node pos="l" depth="6" NCoef="0" IVar="-1" Cut="0.0000000000000000e+00" cType="1" res="-1.8266212195158005e-02" rms="4.6160915493965149e-01" purity="3.0786204338073730e-01" nType="-99"/>
                  <Node pos="r" depth="6" NCoef="0" IVar="-1" Cut="0.0000000000000000e+00" cType="1" res="-1.0528529062867165e-02" rms="4.8698881268501282e-01" purity="3.8667795062065125e-01" nType="-99"/>
                </Node>
                <Node pos="r" depth="5" NCoef="0" IVar="2" Cut="1.5642057800292969e+02" cType="1" res="-2.3491069674491882e-01" rms="4.4138073921203613e-01" purity="2.6508930325508118e-01" nType="0">
                  <Node pos="l" depth="6" NCoef="0" IVar="-1" Cut="0.0000000000000000e+00" cType="1" res="-1.9639223814010620e-02" rms="4.5493441820144653e-01" purity="2.9255202412605286e-01" nType="-99"/>
                  <Node pos="r" depth="6" NCoef="0" IVar="-1" Cut="0.0000000000000000e+00" cType="1" res="-2.6070047169923782e-02" rms="4.2406281828880310e-01" purity="2.3510242998600006e-01" nType="-99"/>
                </Node>
              </Node>
            </Node>
          </Node>
          <Node pos="r" depth="2" NCoef="0" IVar="3" Cut="4.2437347769737244e-01" cType="1" res="-4.0951439738273621e-01" rms="2.8687623143196106e-01" purity="9.0485610067844391e-02" nType="0">
            <Node pos="l" depth="3" NCoef="0" IVar="4" Cut="1.6637989878654480e-01" cType="1" res="-4.3835979700088501e-01" rms="2.4050089716911316e-01" purity="6.1640195548534393e-02" nType="0">
              <Node pos="l" depth="4" NCoef="0" IVar="3" Cut="3.4577628970146179e-01" cType="1" res="-4.5009118318557739e-01" rms="2.1775656938552856e-01" purity="4.9908813089132309e-02" nType="0">
                <Node pos="l" depth="5" NCoef="0" IVar="5" Cut="5.0000000000000000e+00" cType="1" res="-4.5212370157241821e-01" rms="1.9898851215839386e-01" purity="3.7111390382051468e-02" nType="0">
                  <Node pos="l" depth="6" NCoef="0" IVar="4" Cut="8.6706586182117462e-02" cType="1" res="-4.4379615783691406e-01" rms="2.3031494021415710e-01" purity="5.6203838437795639e-02" nType="0">
                    <Node pos="l" depth="7" NCoef="0" IVar="-1" Cut="0.0000000000000000e+00" cType="1" res="-5.2506882697343826e-02" rms="2.2711575031280518e-01" purity="5.4558154195547104e-02" nType="-99"/>
                    <Node pos="r" depth="7" NCoef="0" IVar="-1" Cut="0.0000000000000000e+00" cType="1" res="-5.3485039621591568e-02" rms="2.3337389528751373e-01" purity="5.7804763317108154e-02" nType="-99"/>
                  </Node>
                  <Node pos="r" depth="6" NCoef="0" IVar="0" Cut="1.8482320308685303e+00" cType="1" res="-4.6891123056411743e-01" rms="1.7355762422084808e-01" purity="3.1088758260011673e-02" nType="0">
                    <Node pos="l" depth="7" NCoef="0" IVar="-1" Cut="0.0000000000000000e+00" cType="1" res="-5.1935717463493347e-02" rms="2.1021473407745361e-01" purity="4.6337384730577469e-02" nType="-99"/>
                    <Node pos="r" depth="7" NCoef="0" IVar="-1" Cut="0.0000000000000000e+00" cType="1" res="-5.6775603443384171e-02" rms="1.5483917295932770e-01" purity="2.4579308927059174e-02" nType="-99"/>
                  </Node>
                </Node>
                <Node pos="r" depth="5" NCoef="0" IVar="4" Cut="1.1285177618265152e-01" cType="1" res="-4.2430385947227478e-01" rms="2.6451131701469421e-01" purity="7.5696155428886414e-02" nType="0">
                  <Node pos="l" depth="6" NCoef="0" IVar="0" Cut="1.2600102424621582e+00" cType="1" res="-4.3567943572998047e-01" rms="2.4532312154769897e-01" purity="6.4320571720600128e-02" nType="0">
                    <Node pos="l" depth="7" NCoef="0" IVar="-1" Cut="0.0000000000000000e+00" cType="1" res="-4.5328035950660706e-02" rms="2.7799999713897705e-01" purity="8.4408864378929138e-02" nType="-99"/>
                    <Node pos="r" depth="7" NCoef="0" IVar="-1" Cut="0.0000000000000000e+00" cType="1" res="-4.9488782882690430e-02" rms="2.2265933454036713e-01" purity="5.2313927561044693e-02" nType="-99"/>
                  </Node>
                  <Node pos="r" depth="6" NCoef="0" IVar="-1" Cut="0.0000000000000000e+00" cType="1" res="-4.2978413403034210e-02" rms="3.0588108301162720e-01" purity="1.0447911918163300e-01" nType="-99"/>
                </Node>
              </Node>
              <Node pos="r" depth="4" NCoef="0" IVar="0" Cut="1.2459379434585571e+00" cType="1" res="-3.9454504847526550e-01" rms="3.0713874101638794e-01" purity="1.0545494407415390e-01" nType="0">
                <Node pos="l" depth="5" NCoef="0" IVar="-1" Cut="0.0000000000000000e+00" cType="1" res="-4.0924448519945145e-02" rms="3.3401799201965332e-01" purity="1.2793551385402679e-01" nType="-99"/>
                <Node pos="r" depth="5" NCoef="0" IVar="5" Cut="7.0000000000000000e+00" cType="1" res="-4.0672057867050171e-01" rms="2.8844055533409119e-01" purity="9.2371523380279541e-02" nType="0">
                  <Node pos="l" depth="6" NCoef="0" IVar="-1" Cut="0.0000000000000000e+00" cType="1" res="-4.5425064861774445e-02" rms="3.1255844235420227e-01" purity="1.0973440855741501e-01" nType="-99"/>
                  <Node pos="r" depth="6" NCoef="0" IVar="-1" Cut="0.0000000000000000e+00" cType="1" res="-4.9852821975946426e-02" rms="2.6377588510513306e-01" purity="7.5238555669784546e-02" nType="-99"/>
                </Node>
              </Node>
            </Node>
            <Node pos="r" depth="3" NCoef="0" IVar="3" Cut="5.1235425472259521e-01" cType="1" res="-3.3920663595199585e-01" rms="3.6734023690223694e-01" purity="1.6079336404800415e-01" nType="0">
              <Node pos="l" depth="4" NCoef="0" IVar="4" Cut="8.9046776294708252e-02" cType="1" res="-3.6748996376991272e-01" rms="3.3904442191123962e-01" purity="1.3251005113124847e-01" nType="0">
                <Node pos="l" depth="5" NCoef="0" IVar="2" Cut="1.1231263732910156e+02" cType="1" res="-3.8556253910064697e-01" rms="3.1834182143211365e-01" purity="1.1443745344877243e-01" nType="0">
                  <Node pos="l" depth="6" NCoef="0" IVar="-1" Cut="0.0000000000000000e+00" cType="1" res="-3.8482137024402618e-02" rms="3.4516432881355286e-01" purity="1.3825203478336334e-01" nType="-99"/>
                  <Node pos="r" depth="6" NCoef="0" IVar="-1" Cut="0.0000000000000000e+00" cType="1" res="-4.2234741151332855e-02" rms="2.9135873913764954e-01" purity="9.3662589788436890e-02" nType="-99"/>
                </Node>
                <Node pos="r" depth="5" NCoef="0" IVar="-1" Cut="0.0000000000000000e+00" cType="1" res="-3.5474352538585663e-02" rms="3.6684587597846985e-01" purity="1.6025876998901367e-01" nType="-99"/>
              </Node>
              <Node pos="r" depth="4" NCoef="0" IVar="3" Cut="5.6627982854843140e-01" cType="1" res="-2.9691913723945618e-01" rms="4.0229222178459167e-01" purity="2.0308087766170502e-01" nType="0">
                <Node pos="l" depth="5" NCoef="0" IVar="-1" Cut="0.0000000000000000e+00" cType="1" res="-3.2703477889299393e-02" rms="3.8389694690704346e-01" purity="1.7965154349803925e-01" nType="-99"/>
                <Node pos="r" depth="5" NCoef="0" IVar="-1" Cut="0.0000000000000000e+00" cType="1" res="-2.5837991386651993e-02" rms="4.2480954527854919e-01" purity="2.3630160093307495e-01" nType="-99"/>
              </Node>
            </Node>
          </Node>
        </Node>
        <Node pos="r" depth="1" NCoef="0" IVar="3" Cut="8.2521945238113403e-01" cType="1" res="1.9247257709503174e-01" rms="4.6146973967552185e-01" purity="6.9247257709503174e-01" nType="0">
          <Node pos="l" depth="2" NCoef="0" IVar="0" Cut="2.2979556024074554e-01" cType="1" res="4.9662090837955475e-02" rms="4.9752756953239441e-01" purity="5.4966211318969727e-01" nType="0">
            <Node pos="l" depth="3" NCoef="0" IVar="1" Cut="3.2800617814064026e-01" cType="1" res="9.9398314952850342e-02" rms="4.9002039432525635e-01" purity="5.9939831495285034e-01" nType="0">
              <Node pos="l" depth="4" NCoef="0" IVar="3" Cut="7.2445762157440186e-01" cType="1" res="1.2265835702419281e-01" rms="4.8472148180007935e-01" purity="6.2265837192535400e-01" nType="0">
                <Node pos="l" depth="5" NCoef="0" IVar="2" Cut="1.6304319763183594e+02" cType="1" res="6.8963490426540375e-02" rms="4.9522119760513306e-01" purity="5.6896346807479858e-01" nType="0">
                  <Node pos="l" depth="6" NCoef="0" IVar="-1" Cut="0.0000000000000000e+00" cType="1" res="7.8286696225404739e-03" rms="4.8990744352340698e-01" purity="5.9995341300964355e-01" nType="-99"/>
                  <Node pos="r" depth="6" NCoef="0" IVar="-1" Cut="0.0000000000000000e+00" cType="1" res="2.7140951715409756e-03" rms="4.9903649091720581e-01" purity="5.3102570772171021e-01" nType="-99"/>
                </Node>
                <Node pos="r" depth="5" NCoef="0" IVar="3" Cut="7.8296440839767456e-01" cType="1" res="1.4632998406887054e-01" rms="4.7810828685760498e-01" purity="6.4632999897003174e-01" nType="0">
                  <Node pos="l" depth="6" NCoef="0" IVar="5" Cut="3.0000000000000000e+00" cType="1" res="1.1352481693029404e-01" rms="4.6148186922073364e-01" purity="6.2308549880981445e-01" nType="0">
                    <Node pos="l" depth="7" NCoef="0" IVar="-1" Cut="0.0000000000000000e+00" cType="1" res="6.9675683043897152e-03" rms="4.9177032709121704e-01" purity="5.9034347534179688e-01" nType="-99"/>
                    <Node pos="r" depth="7" NCoef="0" IVar="-1" Cut="0.0000000000000000e+00" cType="1" res="1.2007244862616062e-02" rms="4.7981512546539307e-01" purity="6.4063227176666260e-01" nType="-99"/>
                  </Node>
                  <Node pos="r" depth="6" NCoef="0" IVar="1" Cut="2.0055670291185379e-02" cType="1" res="1.6999268531799316e-01" rms="4.7021535038948059e-01" purity="6.6999268531799316e-01" nType="0">
                    <Node pos="l" depth="7" NCoef="0" IVar="-1" Cut="0.0000000000000000e+00" cType="1" res="1.4371249824762344e-02" rms="4.6590495109558105e-01" purity="6.8147331476211548e-01" nType="-99"/>
                    <Node pos="r" depth="7" NCoef="0" IVar="-1" Cut="0.0000000000000000e+00" cType="1" res="1.2174670584499836e-02" rms="4.7650545835494995e-01" purity="6.5146797895431519e-01" nType="-99"/>
                  </Node>
                </Node>
              </Node>
              <Node pos="r" depth="4" NCoef="0" IVar="1" Cut="6.3761347532272339e-01" cType="1" res="1.2196691706776619e-02" rms="4.9985122680664062e-01" purity="5.1219671964645386e-01" nType="0">
                <Node pos="l" depth="5" NCoef="0" IVar="-1" Cut="0.0000000000000000e+00" cType="1" res="4.8654177226126194e-03" rms="4.9643418192863464e-01" purity="5.5960774421691895e-01" nType="-99"/>
                <Node pos="r" depth="5" NCoef="0" IVar="-1" Cut="0.0000000000000000e+00" cType="1" res="-4.0030651725828648e-03" rms="4.9771860241889954e-01" purity="4.5229041576385498e-01" nType="-99"/>
              </Node>
            </Node>
            <Node pos="r" depth="3" NCoef="0" IVar="0" Cut="4.5221060514450073e-01" cType="1" res="-2.9894072562456131e-02" rms="4.9910554289817810e-01" purity="4.7010594606399536e-01" nType="0">
              <Node pos="l" depth="4" NCoef="0" IVar="3" Cut="7.5803792476654053e-01" cType="1" res="9.5362549473065883e-05" rms="5.0000000000000000e-01" purity="5.0009536743164062e-01" nType="0">
                <Node pos="l" depth="5" NCoef="0" IVar="2" Cut="9.1225158691406250e+01" cType="1" res="-3.4475754946470261e-02" rms="4.9880999326705933e-01" purity="4.6552422642707825e-01" nType="0">
                  <Node pos="l" depth="6" NCoef="0" IVar="-1" Cut="0.0000000000000000e+00" cType="1" res="7.7431584941223264e-05" rms="4.9999916553497314e-01" purity="5.0091361999511719e-01" nType="-99"/>
                  <Node pos="r" depth="6" NCoef="0" IVar="-1" Cut="0.0000000000000000e+00" cType="1" res="-5.3224512375891209e-03" rms="4.9650853872299194e-01" purity="4.4101455807685852e-01" nType="-99"/>
                </Node>
                <Node pos="r" depth="5" NCoef="0" IVar="-1" Cut="0.0000000000000000e+00" cType="1" res="6.0257492586970329e-03" rms="4.9520948529243469e-01" purity="5.6904757022857666e-01" nType="-99"/>
              </Node>
              <Node pos="r" depth="4" NCoef="0" IVar="-1" Cut="0.0000000000000000e+00" cType="1" res="-1.0727404616773129e-02" rms="4.8551911115646362e-01" purity="3.8053789734840393e-01" nType="-99"/>
            </Node>
          </Node>
          <Node pos="r" depth="2" NCoef="0" IVar="0" Cut="5.4476183652877808e-01" cType="1" res="2.4935139715671539e-01" rms="4.3338653445243835e-01" purity="7.4935144186019897e-01" nType="0">
            <Node pos="l" depth="3" NCoef="0" IVar="1" Cut="9.0259879827499390e-01" cType="1" res="2.5804975628852844e-01" rms="4.2826431989669800e-01" purity="7.5804972648620605e-01" nType="0">
              <Node pos="l" depth="4" NCoef="0" IVar="3" Cut="9.0052574872970581e-01" cType="1" res="2.6703709363937378e-01" rms="4.2271882295608521e-01" purity="7.6703709363937378e-01" nType="0">
                <Node pos="l" depth="5" NCoef="0" IVar="1" Cut="1.6974540054798126e-01" cType="1" res="2.1047630906105042e-01" rms="4.5354130864143372e-01" purity="7.1047633886337280e-01" nType="0">
                  <Node pos="l" depth="6" NCoef="0" IVar="3" Cut="8.5436910390853882e-01" cType="1" res="2.2923547029495239e-01" rms="4.4435471296310425e-01" purity="7.2923547029495239e-01" nType="0">
                    <Node pos="l" depth="7" NCoef="0" IVar="-1" Cut="0.0000000000000000e+00" cType="1" res="1.5463835559785366e-02" rms="4.5962461829185486e-01" purity="6.9683796167373657e-01" nType="-99"/>
                    <Node pos="r" depth="7" NCoef="0" IVar="-1" Cut="0.0000000000000000e+00" cType="1" res="2.0432611927390099e-02" rms="4.3452993035316467e-01" purity="7.4735349416732788e-01" nType="-99"/>
                  </Node>
                  <Node pos="r" depth="6" NCoef="0" IVar="1" Cut="3.1156545877456665e-01" cType="1" res="1.6297857463359833e-01" rms="4.7269228100776672e-01" purity="6.6297858953475952e-01" nType="0">
                    <Node pos="l" depth="7" NCoef="0" IVar="-1" Cut="0.0000000000000000e+00" cType="1" res="1.6608964651823044e-02" rms="4.5729696750640869e-01" purity="7.0218676328659058e-01" nType="-99"/>
                    <Node pos="r" depth="7" NCoef="0" IVar="-1" Cut="0.0000000000000000e+00" cType="1" res="1.1048605665564537e-02" rms="4.8134571313858032e-01" purity="6.3530075550079346e-01" nType="-99"/>
                  </Node>
                </Node>
                <Node pos="r" depth="5" NCoef="0" IVar="0" Cut="2.6356923580169678e-01" cType="1" res="2.8476703166961670e-01" rms="4.1098386049270630e-01" purity="7.8476703166961670e-01" nType="0">
                  <Node pos="l" depth="6" NCoef="0" IVar="1" Cut="2.6303583756089211e-02" cType="1" res="2.8946554660797119e-01" rms="4.0768823027610779e-01" purity="7.8946554660797119e-01" nType="0">
                    <Node pos="l" depth="7" NCoef="0" IVar="-1" Cut="0.0000000000000000e+00" cType="1" res="2.3482527583837509e-02" rms="3.9560610055923462e-01" purity="8.0577081441879272e-01" nType="-99"/>
                    <Node pos="r" depth="7" NCoef="0" IVar="-1" Cut="0.0000000000000000e+00" cType="1" res="2.0953141152858734e-02" rms="4.2088124155998230e-01" purity="7.6992404460906982e-01" nType="-99"/>
                  </Node>
                  <Node pos="r" depth="6" NCoef="0" IVar="-1" Cut="0.0000000000000000e+00" cType="1" res="1.2305589392781258e-02" rms="4.7499868273735046e-01" purity="6.5612900257110596e-01" nType="-99"/>
                </Node>
              </Node>
              <Node pos="r" depth="4" NCoef="0" IVar="1" Cut="1.4877358675003052e+00" cType="1" res="9.2016883194446564e-02" rms="4.9145996570587158e-01" purity="5.9201687574386597e-01" nType="0">
                <Node pos="l" depth="5" NCoef="0" IVar="-1" Cut="0.0000000000000000e+00" cType="1" res="7.6453676447272301e-03" rms="4.9019843339920044e-01" purity="5.9851652383804321e-01" nType="-99"/>
                <Node pos="r" depth="5" NCoef="0" IVar="-1" Cut="0.0000000000000000e+00" cType="1" res="7.0387688465416431e-03" rms="4.9263766407966614e-01" purity="5.8548760414123535e-01" nType="-99"/>
              </Node>
            </Node>
            <Node pos="r" depth="3" NCoef="0" IVar="-1" Cut="0.0000000000000000e+00" cType="1" res="-8.3087980747222900e-03" rms="4.9110919237136841e-01" purity="4.0612900257110596e-01" nType="-99"/>
          </Node>
        </Node>
      </Node>
    </BinaryTree>
    <BinaryTree type="DecisionTree" boostWeight="1.0000000000000000e+00" itree="1">
      <Node pos="s" depth="0" NCoef="0" IVar="3" Cut="6.5165728330612183e-01" cType="1" res="1.2934436090290546e-03" rms="4.9246421456336975e-01" purity="4.9934634566307068e-01" nType="0">
        <Node pos="l" depth="1" NCoef="0" IVar="0" Cut="6.4430773258209229e-01" cType="1" res="-3.0775180459022522e-01" rms="3.7679040431976318e-01" purity="1.7431950569152832e-01" nType="0">
          <Node pos="l" depth="2" NCoef="0" IVar="3" Cut="5.0726479291915894e-01" cType="1" res="-1.8416531383991241e-01" rms="4.5974567532539368e-01" purity="3.0585533380508423e-01" nType="0">
            <Node pos="l" depth="3" NCoef="0" IVar="0" Cut="2.0779656246304512e-02" cType="1" res="-2.6873102784156799e-01" rms="4.1163080930709839e-01" purity="2.1675536036491394e-01" nType="0">
              <Node pos="l" depth="4" NCoef="0" IVar="1" Cut="2.3759033530950546e-02" cType="1" res="-2.2045665979385376e-01" rms="4.4250220060348511e-01" purity="2.6751866936683655e-01" nType="0">
                <Node pos="l" depth="5" NCoef="0" IVar="-1" Cut="0.0000000000000000e+00" cType="1" res="-1.7466101795434952e-02" rms="4.5945876836776733e-01" purity="3.0317693948745728e-01" nType="-99"/>
                <Node pos="r" depth="5" NCoef="0" IVar="-1" Cut="0.0000000000000000e+00" cType="1" res="-2.4726219475269318e-02" rms="4.2752900719642639e-01" purity="2.4097314476966858e-01" nType="-99"/>
              </Node>
              <Node pos="r" depth="4" NCoef="0" IVar="3" Cut="4.5978012681007385e-01" cType="1" res="-3.0142140388488770e-01" rms="3.8592377305030823e-01" purity="1.8237954378128052e-01" nType="0">
                <Node pos="l" depth="5" NCoef="0" IVar="4" Cut="1.6357639431953430e-01" cType="1" res="-3.1762319803237915e-01" rms="3.7097737193107605e-01" purity="1.6482204198837280e-01" nType="0">
                  <Node pos="l" depth="6" NCoef="0" IVar="-1" Cut="0.0000000000000000e+00" cType="1" res="-3.6426905542612076e-02" rms="3.4933388233184814e-01" purity="1.4242856204509735e-01" nType="-99"/>
                  <Node pos="r" depth="6" NCoef="0" IVar="-1" Cut="0.0000000000000000e+00" cType="1" res="-3.1106706708669662e-02" rms="3.8638201355934143e-01" purity="1.8271219730377197e-01" nType="-99"/>
                </Node>
                <Node pos="r" depth="5" NCoef="0" IVar="-1" Cut="0.0000000000000000e+00" cType="1" res="-2.6003705337643623e-02" rms="4.1655683517456055e-01" purity="2.2375340759754181e-01" nType="-99"/>
              </Node>
            </Node>
            <Node pos="r" depth="3" NCoef="0" IVar="0" Cut="4.1567465662956238e-01" cType="1" res="-1.2728282809257507e-01" rms="4.8116677999496460e-01" purity="3.6578774452209473e-01" nType="0">
              <Node pos="l" depth="4" NCoef="0" IVar="1" Cut="3.4979197382926941e-01" cType="1" res="-9.2427492141723633e-02" rms="4.9018347263336182e-01" purity="4.0258049964904785e-01" nType="0">
                <Node pos="l" depth="5" NCoef="0" IVar="2" Cut="2.5393151855468750e+02" cType="1" res="-6.7994952201843262e-02" rms="4.9439972639083862e-01" purity="4.2701414227485657e-01" nType="0">
                  <Node pos="l" depth="6" NCoef="0" IVar="0" Cut="2.6817670464515686e-01" cType="1" res="-3.6481086164712906e-02" rms="4.9804428219795227e-01" purity="4.5849102735519409e-01" nType="0">
                    <Node pos="l" depth="7" NCoef="0" IVar="-1" Cut="0.0000000000000000e+00" cType="1" res="-8.9954485883936286e-04" rms="4.9963423609733582e-01" purity="4.8552760481834412e-01" nType="-99"/>
                    <Node pos="r" depth="7" NCoef="0" IVar="-1" Cut="0.0000000000000000e+00" cType="1" res="-6.7428974434733391e-03" rms="4.9283993244171143e-01" purity="4.1616165637969971e-01" nType="-99"/>
                  </Node>
                  <Node pos="r" depth="6" NCoef="0" IVar="-1" Cut="0.0000000000000000e+00" cType="1" res="-1.1182394810020924e-02" rms="4.8379355669021606e-01" purity="3.7482059001922607e-01" nType="-99"/>
                </Node>
                <Node pos="r" depth="5" NCoef="0" IVar="-1" Cut="0.0000000000000000e+00" cType="1" res="-1.6488501802086830e-02" rms="4.6594893932342529e-01" purity="3.1915482878684998e-01" nType="-99"/>
              </Node>
              <Node pos="r" depth="4" NCoef="0" IVar="0" Cut="5.1158910989761353e-01" cType="1" res="-1.9650803506374359e-01" rms="4.5488652586936951e-01" purity="2.9271468520164490e-01" nType="0">
                <Node pos="l" depth="5" NCoef="0" IVar="-1" Cut="0.0000000000000000e+00" cType="1" res="-1.5138361603021622e-02" rms="4.6856254339218140e-01" purity="3.2576563954353333e-01" nType="-99"/>
                <Node pos="r" depth="5" NCoef="0" IVar="-1" Cut="0.0000000000000000e+00" cType="1" res="-2.1066887304186821e-02" rms="4.4398963451385498e-01" purity="2.7018609642982483e-01" nType="-99"/>
              </Node>
            </Node>
          </Node>
          <Node pos="r" depth="2" NCoef="0" IVar="3" Cut="4.6566683053970337e-01" cType="1" res="-3.8693657517433167e-01" rms="2.8539723157882690e-01" purity="9.0041428804397583e-02" nType="0">
            <Node pos="l" depth="3" NCoef="0" IVar="0" Cut="1.2470734119415283e+00" cType="1" res="-4.0827265381813049e-01" rms="2.4985776841640472e-01" purity="6.7143335938453674e-02" nType="0">
              <Node pos="l" depth="4" NCoef="0" IVar="0" Cut="8.1931608915328979e-01" cType="1" res="-3.7449082732200623e-01" rms="3.0535870790481567e-01" purity="1.0421329736709595e-01" nType="0">
                <Node pos="l" depth="5" NCoef="0" IVar="-1" Cut="0.0000000000000000e+00" cType="1" res="-3.6783613264560699e-02" rms="3.4073889255523682e-01" purity="1.3419355452060699e-01" nType="-99"/>
                <Node pos="r" depth="5" NCoef="0" IVar="4" Cut="8.8267818093299866e-02" cType="1" res="-3.8368296623229980e-01" rms="2.9291352629661560e-01" purity="9.4916351139545441e-02" nType="0">
                  <Node pos="l" depth="6" NCoef="0" IVar="-1" Cut="0.0000000000000000e+00" cType="1" res="-4.3748725205659866e-02" rms="2.6891794800758362e-01" purity="7.8568965196609497e-02" nType="-99"/>
                  <Node pos="r" depth="6" NCoef="0" IVar="3" Cut="3.8030597567558289e-01" cType="1" res="-3.7373384833335876e-01" rms="3.0649545788764954e-01" purity="1.0510081052780151e-01" nType="0">
                    <Node pos="l" depth="7" NCoef="0" IVar="-1" Cut="0.0000000000000000e+00" cType="1" res="-4.4523116201162338e-02" rms="2.8259643912315369e-01" purity="8.7662488222122192e-02" nType="-99"/>
                    <Node pos="r" depth="7" NCoef="0" IVar="-1" Cut="0.0000000000000000e+00" cType="1" res="-3.7316553294658661e-02" rms="3.3425891399383545e-01" purity="1.2815831601619720e-01" nType="-99"/>
                  </Node>
                </Node>
              </Node>
              <Node pos="r" depth="4" NCoef="0" IVar="4" Cut="1.6683189570903778e-01" cType="1" res="-4.2180371284484863e-01" rms="2.2236451506614685e-01" purity="5.2295245230197906e-02" nType="0">
                <Node pos="l" depth="5" NCoef="0" IVar="5" Cut="4.0000000000000000e+00" cType="1" res="-4.2293179035186768e-01" rms="2.1004685759544373e-01" purity="4.4315960258245468e-02" nType="0">
                  <Node pos="l" depth="6" NCoef="0" IVar="-1" Cut="0.0000000000000000e+00" cType="1" res="-4.5606523752212524e-02" rms="2.7110576629638672e-01" purity="7.9946428537368774e-02" nType="-99"/>
                  <Node pos="r" depth="6" NCoef="0" IVar="3" Cut="3.4874165058135986e-01" cType="1" res="-4.3648922443389893e-01" rms="1.8800717592239380e-01" purity="3.6764156073331833e-02" nType="0">
                    <Node pos="l" depth="7" NCoef="0" IVar="-1" Cut="0.0000000000000000e+00" cType="1" res="-5.2736289799213409e-02" rms="1.6973607242107391e-01" purity="2.9710063710808754e-02" nType="-99"/>
                    <Node pos="r" depth="7" NCoef="0" IVar="-1" Cut="0.0000000000000000e+00" cType="1" res="-4.4355642050504684e-02" rms="2.4667270481586456e-01" purity="6.5145857632160187e-02" nType="-99"/>
                  </Node>
                </Node>
                <Node pos="r" depth="5" NCoef="0" IVar="4" Cut="2.0401416718959808e-01" cType="1" res="-3.8368585705757141e-01" rms="2.8976798057556152e-01" purity="9.2550851404666901e-02" nType="0">
                  <Node pos="l" depth="6" NCoef="0" IVar="-1" Cut="0.0000000000000000e+00" cType="1" res="-4.6236936002969742e-02" rms="2.7663177251815796e-01" purity="8.3546087145805359e-02" nType="-99"/>
                  <Node pos="r" depth="6" NCoef="0" IVar="-1" Cut="0.0000000000000000e+00" cType="1" res="-4.3367877602577209e-02" rms="3.0152064561843872e-01" purity="1.0115673393011093e-01" nType="-99"/>
                </Node>
              </Node>
            </Node>
            <Node pos="r" depth="3" NCoef="0" IVar="3" Cut="5.4964929819107056e-01" cType="1" res="-3.0175703763961792e-01" rms="3.8512650132179260e-01" purity="1.8145689368247986e-01" nType="0">
              <Node pos="l" depth="4" NCoef="0" IVar="0" Cut="9.4474512338638306e-01" cType="1" res="-3.2540819048881531e-01" rms="3.6314269900321960e-01" purity="1.5640985965728760e-01" nType="0">
                <Node pos="l" depth="5" NCoef="0" IVar="-1" Cut="0.0000000000000000e+00" cType="1" res="-3.1599007546901703e-02" rms="3.7718468904495239e-01" purity="1.7186611890792847e-01" nType="-99"/>
                <Node pos="r" depth="5" NCoef="0" IVar="-1" Cut="0.0000000000000000e+00" cType="1" res="-3.7425644695758820e-02" rms="3.3530700206756592e-01" purity="1.2915834784507751e-01" nType="-99"/>
              </Node>
              <Node pos="r" depth="4" NCoef="0" IVar="-1" Cut="0.0000000000000000e+00" cType="1" res="-2.4806039407849312e-02" rms="4.2340344190597534e-01" purity="2.3413896560668945e-01" nType="-99"/>
            </Node>
          </Node>
        </Node>
        <Node pos="r" depth="1" NCoef="0" IVar="3" Cut="8.2521665096282959e-01" cType="1" res="1.8482661247253418e-01" rms="4.6025028824806213e-01" purity="6.9237053394317627e-01" nType="0">
          <Node pos="l" depth="2" NCoef="0" IVar="0" Cut="2.4024152755737305e-01" cType="1" res="4.6502031385898590e-02" rms="4.9692738056182861e-01" purity="5.4850327968597412e-01" nType="0">
            <Node pos="l" depth="3" NCoef="0" IVar="1" Cut="2.9146757721900940e-01" cType="1" res="9.6343405544757843e-02" rms="4.8949259519577026e-01" purity="6.0026192665100098e-01" nType="0">
              <Node pos="l" depth="4" NCoef="0" IVar="3" Cut="7.5803011655807495e-01" cType="1" res="1.2042855471372604e-01" rms="4.8385718464851379e-01" purity="6.2528657913208008e-01" nType="0">
                <Node pos="l" depth="5" NCoef="0" IVar="2" Cut="1.7693301391601562e+02" cType="1" res="8.1467434763908386e-02" rms="4.9258536100387573e-01" purity="5.8505761623382568e-01" nType="0">
                  <Node pos="l" depth="6" NCoef="0" IVar="1" Cut="-1.0152334580197930e-03" cType="1" res="1.0556206107139587e-01" rms="4.8773670196533203e-01" purity="6.0983830690383911e-01" nType="0">
                    <Node pos="l" depth="7" NCoef="0" IVar="-1" Cut="0.0000000000000000e+00" cType="1" res="1.0108388029038906e-02" rms="4.8161432147026062e-01" purity="6.3415557146072388e-01" nType="-99"/>
                    <Node pos="r" depth="7" NCoef="0" IVar="-1" Cut="0.0000000000000000e+00" cType="1" res="5.8614648878574371e-03" rms="4.9416962265968323e-01" purity="5.7583612203598022e-01" nType="-99"/>
                  </Node>
                  <Node pos="r" depth="6" NCoef="0" IVar="-1" Cut="0.0000000000000000e+00" cType="1" res="3.6531549412757158e-03" rms="4.9789503216743469e-01" purity="5.4466378688812256e-01" nType="-99"/>
                </Node>
                <Node pos="r" depth="5" NCoef="0" IVar="4" Cut="3.6087911576032639e-02" cType="1" res="1.5899159014225006e-01" rms="4.7190329432487488e-01" purity="6.6510444879531860e-01" nType="0">
                  <Node pos="l" depth="6" NCoef="0" IVar="-1" Cut="0.0000000000000000e+00" cType="1" res="1.0828263126313686e-02" rms="4.8069226741790771e-01" purity="6.3751351833343506e-01" nType="-99"/>
                  <Node pos="r" depth="6" NCoef="0" IVar="2" Cut="1.7278895568847656e+02" cType="1" res="1.7061959207057953e-01" rms="4.6768587827682495e-01" purity="6.7665314674377441e-01" nType="0">
                    <Node pos="l" depth="7" NCoef="0" IVar="-1" Cut="0.0000000000000000e+00" cType="1" res="1.3679921627044678e-02" rms="4.6363189816474915e-01" purity="6.8702906370162964e-01" nType="-99"/>
                    <Node pos="r" depth="7" NCoef="0" IVar="-1" Cut="0.0000000000000000e+00" cType="1" res="1.2864653952419758e-02" rms="4.7439599037170410e-01" purity="6.5777730941772461e-01" nType="-99"/>
                  </Node>
                </Node>
              </Node>
              <Node pos="r" depth="4" NCoef="0" IVar="3" Cut="7.3563390970230103e-01" cType="1" res="1.8114909529685974e-02" rms="4.9941486120223999e-01" purity="5.1898199319839478e-01" nType="0">
                <Node pos="l" depth="5" NCoef="0" IVar="-1" Cut="0.0000000000000000e+00" cType="1" res="-3.7719497922807932e-03" rms="4.9790701270103455e-01" purity="4.5661315321922302e-01" nType="-99"/>
                <Node pos="r" depth="5" NCoef="0" IVar="-1" Cut="0.0000000000000000e+00" cType="1" res="4.5061800628900528e-03" rms="4.9657094478607178e-01" purity="5.5670166015625000e-01" nType="-99"/>
              </Node>
            </Node>
            <Node pos="r" depth="3" NCoef="0" IVar="3" Cut="7.2443985939025879e-01" cType="1" res="-4.2947530746459961e-02" rms="4.9763363599777222e-01" purity="4.5561277866363525e-01" nType="0">
              <Node pos="l" depth="4" NCoef="0" IVar="2" Cut="9.5927452087402344e+01" cType="1" res="-9.1699190437793732e-02" rms="4.9079594016075134e-01" purity="4.0541717410087585e-01" nType="0">
                <Node pos="l" depth="5" NCoef="0" IVar="-1" Cut="0.0000000000000000e+00" cType="1" res="-5.1264697685837746e-03" rms="4.9615037441253662e-01" purity="4.3941044807434082e-01" nType="-99"/>
                <Node pos="r" depth="5" NCoef="0" IVar="-1" Cut="0.0000000000000000e+00" cType="1" res="-1.0633642785251141e-02" rms="4.8568919301033020e-01" purity="3.8162562251091003e-01" nType="-99"/>
              </Node>
              <Node pos="r" depth="4" NCoef="0" IVar="3" Cut="7.6670354604721069e-01" cType="1" res="7.9564759507775307e-03" rms="4.9962317943572998e-01" purity="5.0802445411682129e-01" nType="0">
                <Node pos="l" depth="5" NCoef="0" IVar="-1" Cut="0.0000000000000000e+00" cType="1" res="-1.7333636060357094e-03" rms="4.9937820434570312e-01" purity="4.7866624593734741e-01" nType="-99"/>
                <Node pos="r" depth="5" NCoef="0" IVar="-1" Cut="0.0000000000000000e+00" cType="1" res="3.0318268109112978e-03" rms="4.9839302897453308e-01" purity="5.3600686788558960e-01" nType="-99"/>
              </Node>
            </Node>
          </Node>
          <Node pos="r" depth="2" NCoef="0" IVar="0" Cut="5.2993136644363403e-01" cType="1" res="2.3925101757049561e-01" rms="4.3304416537284851e-01" purity="7.4897569417953491e-01" nType="0">
            <Node pos="l" depth="3" NCoef="0" IVar="1" Cut="4.1220322251319885e-01" cType="1" res="2.4778741598129272e-01" rms="4.2808178067207336e-01" purity="7.5786280632019043e-01" nType="0">
              <Node pos="l" depth="4" NCoef="0" IVar="3" Cut="9.3851178884506226e-01" cType="1" res="2.6435565948486328e-01" rms="4.1749620437622070e-01" purity="7.7492409944534302e-01" nType="0">
                <Node pos="l" depth="5" NCoef="0" IVar="3" Cut="8.6176717281341553e-01" cType="1" res="2.1608304977416992e-01" rms="4.4618520140647888e-01" purity="7.2546130418777466e-01" nType="0">
                  <Node pos="l" depth="6" NCoef="0" IVar="1" Cut="2.4569071829319000e-02" cType="1" res="1.8437261879444122e-01" rms="4.6143642067909241e-01" purity="6.9248372316360474e-01" nType="0">
                    <Node pos="l" depth="7" NCoef="0" IVar="-1" Cut="0.0000000000000000e+00" cType="1" res="1.5459609217941761e-02" rms="4.5536577701568604e-01" purity="7.0649176836013794e-01" nType="-99"/>
                    <Node pos="r" depth="7" NCoef="0" IVar="-1" Cut="0.0000000000000000e+00" cType="1" res="1.3029420748353004e-02" rms="4.6935728192329407e-01" purity="6.7222076654434204e-01" nType="-99"/>
                  </Node>
                  <Node pos="r" depth="6" NCoef="0" IVar="4" Cut="1.1310717090964317e-02" cType="1" res="2.3482024669647217e-01" rms="4.3584030866622925e-01" purity="7.4494719505310059e-01" nType="0">
                    <Node pos="l" depth="7" NCoef="0" IVar="-1" Cut="0.0000000000000000e+00" cType="1" res="1.6903528943657875e-02" rms="4.5120379328727722e-01" purity="7.1525269746780396e-01" nType="-99"/>
                    <Node pos="r" depth="7" NCoef="0" IVar="-1" Cut="0.0000000000000000e+00" cType="1" res="2.0536886528134346e-02" rms="4.3221539258956909e-01" purity="7.5129026174545288e-01" nType="-99"/>
                  </Node>
                </Node>
                <Node pos="r" depth="5" NCoef="0" IVar="0" Cut="1.8798781931400299e-01" cType="1" res="2.8486087918281555e-01" rms="4.0294852852821350e-01" purity="7.9593497514724731e-01" nType="0">
                  <Node pos="l" depth="6" NCoef="0" IVar="1" Cut="8.6791068315505981e-02" cType="1" res="2.8973019123077393e-01" rms="3.9925068616867065e-01" purity="8.0097258090972900e-01" nType="0">
                    <Node pos="l" depth="7" NCoef="0" IVar="-1" Cut="0.0000000000000000e+00" cType="1" res="2.2640885785222054e-02" rms="3.9274159073829651e-01" purity="8.0943763256072998e-01" nType="-99"/>
                    <Node pos="r" depth="7" NCoef="0" IVar="-1" Cut="0.0000000000000000e+00" cType="1" res="2.0812537521123886e-02" rms="4.1376537084579468e-01" purity="7.8071016073226929e-01" nType="-99"/>
                  </Node>
                  <Node pos="r" depth="6" NCoef="0" IVar="-1" Cut="0.0000000000000000e+00" cType="1" res="1.4782895334064960e-02" rms="4.6280980110168457e-01" purity="6.8888783454895020e-01" nType="-99"/>
                </Node>
              </Node>
              <Node pos="r" depth="4" NCoef="0" IVar="1" Cut="1.0297174453735352e+00" cType="1" res="1.5651381015777588e-01" rms="4.7193342447280884e-01" purity="6.6387289762496948e-01" nType="0">
                <Node pos="l" depth="5" NCoef="0" IVar="3" Cut="9.7283750772476196e-01" cType="1" res="1.8843847513198853e-01" rms="4.5923396944999695e-01" purity="6.9712179899215698e-01" nType="0">
                  <Node pos="l" depth="6" NCoef="0" IVar="-1" Cut="0.0000000000000000e+00" cType="1" res="1.0100163519382477e-02" rms="4.8301032185554504e-01" purity="6.2899947166442871e-01" nType="-99"/>
                  <Node pos="r" depth="6" NCoef="0" IVar="1" Cut="6.5114879608154297e-01" cType="1" res="2.2086015343666077e-01" rms="4.4349464774131775e-01" purity="7.3063158988952637e-01" nType="0">
                    <Node pos="l" depth="7" NCoef="0" IVar="-1" Cut="0.0000000000000000e+00" cType="1" res="1.7946394160389900e-02" rms="4.3211370706558228e-01" purity="7.5141811370849609e-01" nType="-99"/>
                    <Node pos="r" depth="7" NCoef="0" IVar="-1" Cut="0.0000000000000000e+00" cType="1" res="1.3921382836997509e-02" rms="4.6064069867134094e-01" purity="6.9415426254272461e-01" nType="-99"/>
                  </Node>
                </Node>
                <Node pos="r" depth="5" NCoef="0" IVar="-1" Cut="0.0000000000000000e+00" cType="1" res="5.4753697477281094e-03" rms="4.9499216675758362e-01" purity="5.7058447599411011e-01" nType="-99"/>
              </Node>
            </Node>
            <Node pos="r" depth="3" NCoef="0" IVar="-1" Cut="0.0000000000000000e+00" cType="1" res="-7.6664718799293041e-03" rms="4.9155297875404358e-01" purity="4.0934771299362183e-01" nType="-99"/>
          </Node>
        </Node>
      </Node>
    </BinaryTree>
    <BinaryTree type="DecisionTree" boostWeight="1.0000000000000000e+00" itree="2">
      <Node pos="s" depth="0" NCoef="0" IVar="3" Cut="6.5165728330612183e-01" cType="1" res="3.4690832253545523e-03" rms="4.8557624220848083e-01" purity="4.9985942244529724e-01" nType="0">
        <Node pos="l" depth="1" NCoef="0" IVar="0" Cut="6.4372068643569946e-01" cType="1" res="-2.9232132434844971e-01" rms="3.7324562668800354e-01" purity="1.7295539379119873e-01" nType="0">
          <Node pos="l" depth="2" NCoef="0" IVar="3" Cut="5.4844641685485840e-01" cType="1" res="-1.7719414830207825e-01" rms="4.5790299773216248e-01" purity="3.0375963449478149e-01" nType="0">
            <Node pos="l" depth="3" NCoef="0" IVar="3" Cut="4.4456797838211060e-01" cType="1" res="-2.3700679838657379e-01" rms="4.2471310496330261e-01" purity="2.3788109421730042e-01" nType="0">
              <Node pos="l" depth="4" NCoef="0" IVar="4" Cut="2.4217867851257324e-01" cType="1" res="-2.7187281847000122e-01" rms="3.9803534746170044e-01" purity="1.9813856482505798e-01" nType="0">
                <Node pos="l" depth="5" NCoef="0" IVar="0" Cut="2.4916800856590271e-01" cType="1" res="-2.9358920454978943e-01" rms="3.8050007820129395e-01" purity="1.7619904875755310e-01" nType="0">
                  <Node pos="l" depth="6" NCoef="0" IVar="-1" Cut="0.0000000000000000e+00" cType="1" res="-2.6987608522176743e-02" rms="4.0595865249633789e-01" purity="2.0833908021450043e-01" nType="-99"/>
                  <Node pos="r" depth="6" NCoef="0" IVar="-1" Cut="0.0000000000000000e+00" cType="1" res="-3.3456016331911087e-02" rms="3.5906425118446350e-01" purity="1.5225082635879517e-01" nType="-99"/>
                </Node>
                <Node pos="r" depth="5" NCoef="0" IVar="-1" Cut="0.0000000000000000e+00" cType="1" res="-2.1508926525712013e-02" rms="4.3732553720474243e-01" purity="2.5876736640930176e-01" nType="-99"/>
              </Node>
              <Node pos="r" depth="4" NCoef="0" IVar="0" Cut="2.0763945579528809e-01" cType="1" res="-2.0092764496803284e-01" rms="4.4781062006950378e-01" purity="2.7900642156600952e-01" nType="0">
                <Node pos="l" depth="5" NCoef="0" IVar="-1" Cut="0.0000000000000000e+00" cType="1" res="-1.3954825699329376e-02" rms="4.7095701098442078e-01" purity="3.3295500278472900e-01" nType="-99"/>
                <Node pos="r" depth="5" NCoef="0" IVar="0" Cut="4.7509849071502686e-01" cType="1" res="-2.2878658771514893e-01" rms="4.3166333436965942e-01" purity="2.4842241406440735e-01" nType="0">
                  <Node pos="l" depth="6" NCoef="0" IVar="-1" Cut="0.0000000000000000e+00" cType="1" res="-2.0155524834990501e-02" rms="4.4353976845741272e-01" purity="2.6984199881553650e-01" nType="-99"/>
                  <Node pos="r" depth="6" NCoef="0" IVar="-1" Cut="0.0000000000000000e+00" cType="1" res="-2.5338759645819664e-02" rms="4.1312378644943237e-01" purity="2.1882036328315735e-01" nType="-99"/>
                </Node>
              </Node>
            </Node>
            <Node pos="r" depth="3" NCoef="0" IVar="0" Cut="2.0762225612998009e-02" cType="1" res="-1.1061575263738632e-01" rms="4.8359876871109009e-01" purity="3.7709009647369385e-01" nType="0">
              <Node pos="l" depth="4" NCoef="0" IVar="3" Cut="6.0837620496749878e-01" cType="1" res="-3.9650160819292068e-02" rms="4.9739035964012146e-01" purity="4.5389080047607422e-01" nType="0">
                <Node pos="l" depth="5" NCoef="0" IVar="-1" Cut="0.0000000000000000e+00" cType="1" res="-6.9323810748755932e-03" rms="4.9199020862579346e-01" purity="4.1335713863372803e-01" nType="-99"/>
                <Node pos="r" depth="5" NCoef="0" IVar="-1" Cut="0.0000000000000000e+00" cType="1" res="7.4983387321481132e-07" rms="4.9965021014213562e-01" purity="4.9475365877151489e-01" nType="-99"/>
              </Node>
              <Node pos="r" depth="4" NCoef="0" IVar="0" Cut="4.7539311647415161e-01" cType="1" res="-1.5148425102233887e-01" rms="4.7064402699470520e-01" purity="3.3286124467849731e-01" nType="0">
                <Node pos="l" depth="5" NCoef="0" IVar="2" Cut="1.5755569458007812e+02" cType="1" res="-1.2267060577869415e-01" rms="4.8109310865402222e-01" purity="3.6500188708305359e-01" nType="0">
                  <Node pos="l" depth="6" NCoef="0" IVar="-1" Cut="0.0000000000000000e+00" cType="1" res="-9.0941498056054115e-03" rms="4.8704844713211060e-01" purity="3.8842785358428955e-01" nType="-99"/>
                  <Node pos="r" depth="6" NCoef="0" IVar="-1" Cut="0.0000000000000000e+00" cType="1" res="-1.3868327252566814e-02" rms="4.7340407967567444e-01" purity="3.3982282876968384e-01" nType="-99"/>
                </Node>
                <Node pos="r" depth="5" NCoef="0" IVar="-1" Cut="0.0000000000000000e+00" cType="1" res="-1.9305752590298653e-02" rms="4.4847500324249268e-01" purity="2.7902925014495850e-01" nType="-99"/>
              </Node>
            </Node>
          </Node>
          <Node pos="r" depth="2" NCoef="0" IVar="3" Cut="4.6567389369010925e-01" cType="1" res="-3.6569273471832275e-01" rms="2.8397032618522644e-01" purity="8.9592896401882172e-02" nType="0">
            <Node pos="l" depth="3" NCoef="0" IVar="0" Cut="1.2459907531738281e+00" cType="1" res="-3.8624498248100281e-01" rms="2.4723978340625763e-01" purity="6.5818741917610168e-02" nType="0">
              <Node pos="l" depth="4" NCoef="0" IVar="0" Cut="9.1575813293457031e-01" cType="1" res="-3.5438066720962524e-01" rms="3.0486428737640381e-01" purity="1.0391302406787872e-01" nType="0">
                <Node pos="l" depth="5" NCoef="0" IVar="-1" Cut="0.0000000000000000e+00" cType="1" res="-3.6271125078201294e-02" rms="3.3197507262229919e-01" purity="1.2631887197494507e-01" nType="-99"/>
                <Node pos="r" depth="5" NCoef="0" IVar="4" Cut="8.7141208350658417e-02" cType="1" res="-3.6761507391929626e-01" rms="2.8570768237113953e-01" purity="8.9819841086864471e-02" nType="0">
                  <Node pos="l" depth="6" NCoef="0" IVar="-1" Cut="0.0000000000000000e+00" cType="1" res="-4.2452950030565262e-02" rms="2.5607395172119141e-01" purity="7.0598341524600983e-02" nType="-99"/>
                  <Node pos="r" depth="6" NCoef="0" IVar="-1" Cut="0.0000000000000000e+00" cType="1" res="-3.9666071534156799e-02" rms="3.0255970358848572e-01" purity="1.0210456699132919e-01" nType="-99"/>
                </Node>
              </Node>
              <Node pos="r" depth="4" NCoef="0" IVar="4" Cut="1.4110337197780609e-01" cType="1" res="-3.9875411987304688e-01" rms="2.1927787363529205e-01" purity="5.0863906741142273e-02" nType="0">
                <Node pos="l" depth="5" NCoef="0" IVar="3" Cut="3.7896814942359924e-01" cType="1" res="-4.0838667750358582e-01" rms="1.9653128087520599e-01" purity="4.0382478386163712e-02" nType="0">
                  <Node pos="l" depth="6" NCoef="0" IVar="5" Cut="5.0000000000000000e+00" cType="1" res="-4.0480569005012512e-01" rms="1.8848991394042969e-01" purity="3.4722283482551575e-02" nType="0">
                    <Node pos="l" depth="7" NCoef="0" IVar="-1" Cut="0.0000000000000000e+00" cType="1" res="-4.8258464783430099e-02" rms="2.1372660994529724e-01" purity="4.8023879528045654e-02" nType="-99"/>
                    <Node pos="r" depth="7" NCoef="0" IVar="-1" Cut="0.0000000000000000e+00" cType="1" res="-4.9076501280069351e-02" rms="1.6858969628810883e-01" purity="2.9326952993869781e-02" nType="-99"/>
                  </Node>
                  <Node pos="r" depth="6" NCoef="0" IVar="-1" Cut="0.0000000000000000e+00" cType="1" res="-4.2468685656785965e-02" rms="2.5677958130836487e-01" purity="7.1058563888072968e-02" nType="-99"/>
                </Node>
                <Node pos="r" depth="5" NCoef="0" IVar="4" Cut="1.9892518222332001e-01" cType="1" res="-3.7110504508018494e-01" rms="2.7239805459976196e-01" purity="8.0949544906616211e-02" nType="0">
                  <Node pos="l" depth="6" NCoef="0" IVar="5" Cut="6.0000000000000000e+00" cType="1" res="-3.7289437651634216e-01" rms="2.5695154070854187e-01" purity="6.8871647119522095e-02" nType="0">
                    <Node pos="l" depth="7" NCoef="0" IVar="-1" Cut="0.0000000000000000e+00" cType="1" res="-4.2915057390928268e-02" rms="2.8630039095878601e-01" purity="9.0392515063285828e-02" nType="-99"/>
                    <Node pos="r" depth="7" NCoef="0" IVar="-1" Cut="0.0000000000000000e+00" cType="1" res="-4.8333059996366501e-02" rms="2.1246677637100220e-01" purity="4.7467146068811417e-02" nType="-99"/>
                  </Node>
                  <Node pos="r" depth="6" NCoef="0" IVar="-1" Cut="0.0000000000000000e+00" cType="1" res="-4.1087679564952850e-02" rms="3.0322310328483582e-01" purity="1.0245445370674133e-01" nType="-99"/>
                </Node>
              </Node>
            </Node>
            <Node pos="r" depth="3" NCoef="0" IVar="3" Cut="5.6764549016952515e-01" cType="1" res="-2.8503504395484924e-01" rms="3.8606926798820496e-01" purity="1.8289485573768616e-01" nType="0">
              <Node pos="l" depth="4" NCoef="0" IVar="1" Cut="3.1639832258224487e-01" cType="1" res="-3.0321100354194641e-01" rms="3.6876979470252991e-01" purity="1.6260977089405060e-01" nType="0">
                <Node pos="l" depth="5" NCoef="0" IVar="3" Cut="5.0844180583953857e-01" cType="1" res="-2.8186804056167603e-01" rms="3.8736593723297119e-01" purity="1.8409632146358490e-01" nType="0">
                  <Node pos="l" depth="6" NCoef="0" IVar="-1" Cut="0.0000000000000000e+00" cType="1" res="-3.0679881572723389e-02" rms="3.6944773793220520e-01" purity="1.6330273449420929e-01" nType="-99"/>
                  <Node pos="r" depth="6" NCoef="0" IVar="-1" Cut="0.0000000000000000e+00" cType="1" res="-2.6614140719175339e-02" rms="4.0363672375679016e-01" purity="2.0489341020584106e-01" nType="-99"/>
                </Node>
                <Node pos="r" depth="5" NCoef="0" IVar="-1" Cut="0.0000000000000000e+00" cType="1" res="-3.5081461071968079e-02" rms="3.3818542957305908e-01" purity="1.3197724521160126e-01" nType="-99"/>
              </Node>
              <Node pos="r" depth="4" NCoef="0" IVar="-1" Cut="0.0000000000000000e+00" cType="1" res="-2.2163927555084229e-02" rms="4.3191060423851013e-01" purity="2.4809531867504120e-01" nType="-99"/>
            </Node>
          </Node>
        </Node>
        <Node pos="r" depth="1" NCoef="0" IVar="3" Cut="8.2521665096282959e-01" cType="1" res="1.7772221565246582e-01" rms="4.5903196930885315e-01" purity="6.9244199991226196e-01" nType="0">
          <Node pos="l" depth="2" NCoef="0" IVar="1" Cut="5.7389616966247559e-01" cType="1" res="4.3701484799385071e-02" rms="4.9638703465461731e-01" purity="5.4742550849914551e-01" nType="0">
            <Node pos="l" depth="3" NCoef="0" IVar="3" Cut="7.2444331645965576e-01" cType="1" res="6.5917424857616425e-02" rms="4.9383449554443359e-01" purity="5.7047414779663086e-01" nType="0">
              <Node pos="l" depth="4" NCoef="0" IVar="0" Cut="2.1719118952751160e-01" cType="1" res="-1.0409038513898849e-03" rms="4.9911603331565857e-01" purity="4.9828019738197327e-01" nType="0">
                <Node pos="l" depth="5" NCoef="0" IVar="3" Cut="6.9157844781875610e-01" cType="1" res="4.9753591418266296e-02" rms="4.9679079651832581e-01" purity="5.5492180585861206e-01" nType="0">
                  <Node pos="l" depth="6" NCoef="0" IVar="-1" Cut="0.0000000000000000e+00" cType="1" res="1.8848828040063381e-03" rms="4.9903208017349243e-01" purity="5.2772229909896851e-01" nType="-99"/>
                  <Node pos="r" depth="6" NCoef="0" IVar="-1" Cut="0.0000000000000000e+00" cType="1" res="6.1971982941031456e-03" rms="4.9317646026611328e-01" purity="5.8139610290527344e-01" nType="-99"/>
                </Node>
                <Node pos="r" depth="5" NCoef="0" IVar="2" Cut="9.6388465881347656e+01" cType="1" res="-5.0678327679634094e-02" rms="4.9638155102729797e-01" purity="4.4292885065078735e-01" nType="0">
                  <Node pos="l" depth="6" NCoef="0" IVar="-1" Cut="0.0000000000000000e+00" cType="1" res="4.5483036956284195e-05" rms="4.9987444281578064e-01" purity="4.9683192372322083e-01" nType="-99"/>
                  <Node pos="r" depth="6" NCoef="0" IVar="-1" Cut="0.0000000000000000e+00" cType="1" res="-8.0605121329426765e-03" rms="4.9068322777748108e-01" purity="4.0482455492019653e-01" nType="-99"/>
                </Node>
              </Node>
              <Node pos="r" depth="4" NCoef="0" IVar="0" Cut="2.0266503095626831e-01" cType="1" res="1.0565795004367828e-01" rms="4.8633292317390442e-01" purity="6.1332207918167114e-01" nType="0">
                <Node pos="l" depth="5" NCoef="0" IVar="1" Cut="4.0907945483922958e-02" cType="1" res="1.3200187683105469e-01" rms="4.7899591922760010e-01" purity="6.4258217811584473e-01" nType="0">
                  <Node pos="l" depth="6" NCoef="0" IVar="2" Cut="1.5340766906738281e+02" cType="1" res="1.5427961945533752e-01" rms="4.7150886058807373e-01" purity="6.6601526737213135e-01" nType="0">
                    <Node pos="l" depth="7" NCoef="0" IVar="-1" Cut="0.0000000000000000e+00" cType="1" res="1.2842837721109390e-02" rms="4.6626982092857361e-01" purity="6.8041336536407471e-01" nType="-99"/>
                    <Node pos="r" depth="7" NCoef="0" IVar="-1" Cut="0.0000000000000000e+00" cType="1" res="1.0496584698557854e-02" rms="4.8106735944747925e-01" purity="6.3553839921951294e-01" nType="-99"/>
                  </Node>
                  <Node pos="r" depth="6" NCoef="0" IVar="3" Cut="7.7970355749130249e-01" cType="1" res="1.0015027225017548e-01" rms="4.8773741722106934e-01" purity="6.0907876491546631e-01" nType="0">
                    <Node pos="l" depth="7" NCoef="0" IVar="-1" Cut="0.0000000000000000e+00" cType="1" res="5.6521040387451649e-03" rms="4.9421444535255432e-01" purity="5.7452315092086792e-01" nType="-99"/>
                    <Node pos="r" depth="7" NCoef="0" IVar="-1" Cut="0.0000000000000000e+00" cType="1" res="1.0271592997014523e-02" rms="4.7984156012535095e-01" purity="6.4020276069641113e-01" nType="-99"/>
                  </Node>
                </Node>
                <Node pos="r" depth="5" NCoef="0" IVar="3" Cut="7.6994359493255615e-01" cType="1" res="5.3993310779333115e-02" rms="4.9636635184288025e-01" purity="5.5593830347061157e-01" nType="0">
                  <Node pos="l" depth="6" NCoef="0" IVar="-1" Cut="0.0000000000000000e+00" cType="1" res="2.5920455809682608e-03" rms="4.9881014227867126e-01" purity="5.2937412261962891e-01" nType="-99"/>
                  <Node pos="r" depth="6" NCoef="0" IVar="-1" Cut="0.0000000000000000e+00" cType="1" res="7.0487633347511292e-03" rms="4.9246269464492798e-01" purity="5.8414167165756226e-01" nType="-99"/>
                </Node>
              </Node>
            </Node>
            <Node pos="r" depth="3" NCoef="0" IVar="0" Cut="2.2979561984539032e-01" cType="1" res="-1.1088542640209198e-01" rms="4.8647353053092957e-01" purity="3.8704454898834229e-01" nType="0">
              <Node pos="l" depth="4" NCoef="0" IVar="-1" Cut="0.0000000000000000e+00" cType="1" res="-3.2065692357718945e-03" rms="4.9827846884727478e-01" purity="4.6097612380981445e-01" nType="-99"/>
              <Node pos="r" depth="4" NCoef="0" IVar="-1" Cut="0.0000000000000000e+00" cType="1" res="-1.8599800765514374e-02" rms="4.5836591720581055e-01" purity="3.0153146386146545e-01" nType="-99"/>
            </Node>
          </Node>
          <Node pos="r" depth="2" NCoef="0" IVar="0" Cut="5.1152980327606201e-01" cType="1" res="2.3021525144577026e-01" rms="4.3236649036407471e-01" purity="7.4924170970916748e-01" nType="0">
            <Node pos="l" depth="3" NCoef="0" IVar="1" Cut="6.3376551866531372e-01" cType="1" res="2.3847338557243347e-01" rms="4.2758899927139282e-01" purity="7.5820082426071167e-01" nType="0">
              <Node pos="l" depth="4" NCoef="0" IVar="3" Cut="9.3818557262420654e-01" cType="1" res="2.5053083896636963e-01" rms="4.1981753706932068e-01" purity="7.7110391855239868e-01" nType="0">
                <Node pos="l" depth="5" NCoef="0" IVar="3" Cut="8.6166501045227051e-01" cType="1" res="2.0288744568824768e-01" rms="4.4840171933174133e-01" purity="7.2068977355957031e-01" nType="0">
                  <Node pos="l" depth="6" NCoef="0" IVar="1" Cut="6.9265633821487427e-02" cType="1" res="1.7326673865318298e-01" rms="4.6311703324317932e-01" purity="6.8824768066406250e-01" nType="0">
                    <Node pos="l" depth="7" NCoef="0" IVar="-1" Cut="0.0000000000000000e+00" cType="1" res="1.4728846959769726e-02" rms="4.5646435022354126e-01" purity="7.0403522253036499e-01" nType="-99"/>
                    <Node pos="r" depth="7" NCoef="0" IVar="-1" Cut="0.0000000000000000e+00" cType="1" res="1.1757931672036648e-02" rms="4.7276362776756287e-01" purity="6.6248512268066406e-01" nType="-99"/>
                  </Node>
                  <Node pos="r" depth="6" NCoef="0" IVar="1" Cut="-9.0294301509857178e-02" cType="1" res="2.2091399133205414e-01" rms="4.3822616338729858e-01" purity="7.4043333530426025e-01" nType="0">
                    <Node pos="l" depth="7" NCoef="0" IVar="-1" Cut="0.0000000000000000e+00" cType="1" res="2.0089764147996902e-02" rms="4.2494446039199829e-01" purity="7.6342946290969849e-01" nType="-99"/>
                    <Node pos="r" depth="7" NCoef="0" IVar="-1" Cut="0.0000000000000000e+00" cType="1" res="1.8190842121839523e-02" rms="4.4315576553344727e-01" purity="7.3117369413375854e-01" nType="-99"/>
                  </Node>
                </Node>
                <Node pos="r" depth="5" NCoef="0" IVar="0" Cut="1.8144726753234863e-01" cType="1" res="2.7063515782356262e-01" rms="4.0547803044319153e-01" purity="7.9237747192382812e-01" nType="0">
                  <Node pos="l" depth="6" NCoef="0" IVar="1" Cut="2.8030219674110413e-01" cType="1" res="2.7491807937622070e-01" rms="4.0219414234161377e-01" purity="7.9697537422180176e-01" nType="0">
                    <Node pos="l" depth="7" NCoef="0" IVar="-1" Cut="0.0000000000000000e+00" cType="1" res="2.1542696282267570e-02" rms="3.9656046032905579e-01" purity="8.0450958013534546e-01" nType="-99"/>
                    <Node pos="r" depth="7" NCoef="0" IVar="-1" Cut="0.0000000000000000e+00" cType="1" res="1.7837231978774071e-02" rms="4.3004330992698669e-01" purity="7.5501155853271484e-01" nType="-99"/>
                  </Node>
                  <Node pos="r" depth="6" NCoef="0" IVar="-1" Cut="0.0000000000000000e+00" cType="1" res="1.4588835649192333e-02" rms="4.5984974503517151e-01" purity="6.9625139236450195e-01" nType="-99"/>
                </Node>
              </Node>
              <Node pos="r" depth="4" NCoef="0" IVar="3" Cut="9.7643154859542847e-01" cType="1" res="1.0870379954576492e-01" rms="4.8508313298225403e-01" purity="6.1933010816574097e-01" nType="0">
                <Node pos="l" depth="5" NCoef="0" IVar="-1" Cut="0.0000000000000000e+00" cType="1" res="3.1492768321186304e-03" rms="4.9761942028999329e-01" purity="5.4631984233856201e-01" nType="-99"/>
                <Node pos="r" depth="5" NCoef="0" IVar="-1" Cut="0.0000000000000000e+00" cType="1" res="1.1322379112243652e-02" rms="4.7384521365165710e-01" purity="6.5838998556137085e-01" nType="-99"/>
              </Node>
            </Node>
            <Node pos="r" depth="3" NCoef="0" IVar="-1" Cut="0.0000000000000000e+00" cType="1" res="-6.2249768525362015e-03" rms="4.9362203478813171e-01" purity="4.2328518629074097e-01" nType="-99"/>
          </Node>
        </Node>
      </Node>
    </BinaryTree>
    <BinaryTree type="DecisionTree" boostWeight="1.0000000000000000e+00" itree="3">
      <Node pos="s" depth="0" NCoef="0" IVar="3" Cut="6.5069407224655151e-01" cType="1" res="6.0211438685655594e-03" rms="4.7916203737258911e-01" purity="5.0072127580642700e-01" nType="0">
        <Node pos="l" depth="1" NCoef="0" IVar="0" Cut="6.4371997117996216e-01" cType="1" res="-2.7603864669799805e-01" rms="3.7147858738899231e-01" purity="1.7332059144973755e-01" nType="0">
          <Node pos="l" depth="2" NCoef="0" IVar="3" Cut="4.8580196499824524e-01" cType="1" res="-1.6861836612224579e-01" rms="4.5688009262084961e-01" purity="3.0357331037521362e-01" nType="0">
            <Node pos="l" depth="3" NCoef="0" IVar="0" Cut="2.0760813727974892e-02" cType="1" res="-2.5357782840728760e-01" rms="4.0218108892440796e-01" purity="2.0414035022258759e-01" nType="0">
              <Node pos="l" depth="4" NCoef="0" IVar="4" Cut="2.0444475114345551e-01" cType="1" res="-2.1549001336097717e-01" rms="4.3235668540000916e-01" purity="2.4934883415699005e-01" nType="0">
                <Node pos="l" depth="5" NCoef="0" IVar="-1" Cut="0.0000000000000000e+00" cType="1" res="-2.3608697578310966e-02" rms="4.2147749662399292e-01" purity="2.3171363770961761e-01" nType="-99"/>
                <Node pos="r" depth="5" NCoef="0" IVar="-1" Cut="0.0000000000000000e+00" cType="1" res="-1.9615219905972481e-02" rms="4.4242587685585022e-01" purity="2.6739481091499329e-01" nType="-99"/>
              </Node>
              <Node pos="r" depth="4" NCoef="0" IVar="3" Cut="4.2463481426239014e-01" cType="1" res="-2.8062322735786438e-01" rms="3.7696996331214905e-01" purity="1.7203868925571442e-01" nType="0">
                <Node pos="l" depth="5" NCoef="0" IVar="-1" Cut="0.0000000000000000e+00" cType="1" res="-3.2440744340419769e-02" rms="3.5861316323280334e-01" purity="1.5184392035007477e-01" nType="-99"/>
                <Node pos="r" depth="5" NCoef="0" IVar="-1" Cut="0.0000000000000000e+00" cType="1" res="-2.5407509878277779e-02" rms="4.0489357709884644e-01" purity="2.0695480704307556e-01" nType="-99"/>
              </Node>
            </Node>
            <Node pos="r" depth="3" NCoef="0" IVar="0" Cut="2.0763901993632317e-02" cType="1" res="-1.2258739024400711e-01" rms="4.7767022252082825e-01" purity="3.5744604468345642e-01" nType="0">
              <Node pos="l" depth="4" NCoef="0" IVar="2" Cut="2.6493692016601562e+02" cType="1" res="-5.7821273803710938e-02" rms="4.9440282583236694e-01" purity="4.3121302127838135e-01" nType="0">
                <Node pos="l" depth="5" NCoef="0" IVar="-1" Cut="0.0000000000000000e+00" cType="1" res="-1.5946114435791969e-03" rms="4.9861636757850647e-01" purity="4.7208419442176819e-01" nType="-99"/>
                <Node pos="r" depth="5" NCoef="0" IVar="-1" Cut="0.0000000000000000e+00" cType="1" res="-9.7821019589900970e-03" rms="4.8487171530723572e-01" purity="3.8050299882888794e-01" nType="-99"/>
              </Node>
              <Node pos="r" depth="4" NCoef="0" IVar="0" Cut="4.7467523813247681e-01" cType="1" res="-1.5917560458183289e-01" rms="4.6397387981414795e-01" purity="3.1577298045158386e-01" nType="0">
                <Node pos="l" depth="5" NCoef="0" IVar="3" Cut="5.4963231086730957e-01" cType="1" res="-1.3496249914169312e-01" rms="4.7458630800247192e-01" purity="3.4446889162063599e-01" nType="0">
                  <Node pos="l" depth="6" NCoef="0" IVar="-1" Cut="0.0000000000000000e+00" cType="1" res="-1.8788076937198639e-02" rms="4.4831135869026184e-01" purity="2.7881279587745667e-01" nType="-99"/>
                  <Node pos="r" depth="6" NCoef="0" IVar="4" Cut="6.4331881701946259e-02" cType="1" res="-1.1204277724027634e-01" rms="4.8244884610176086e-01" purity="3.6993226408958435e-01" nType="0">
                    <Node pos="l" depth="7" NCoef="0" IVar="-1" Cut="0.0000000000000000e+00" cType="1" res="-1.2919388711452484e-02" rms="4.7497794032096863e-01" purity="3.4487685561180115e-01" nType="-99"/>
                    <Node pos="r" depth="7" NCoef="0" IVar="-1" Cut="0.0000000000000000e+00" cType="1" res="-8.4466719999909401e-03" rms="4.8700582981109619e-01" purity="3.8851296901702881e-01" nType="-99"/>
                  </Node>
                </Node>
                <Node pos="r" depth="5" NCoef="0" IVar="2" Cut="1.4394982910156250e+02" cType="1" res="-1.9725494086742401e-01" rms="4.4411167502403259e-01" purity="2.7064362168312073e-01" nType="0">
                  <Node pos="l" depth="6" NCoef="0" IVar="-1" Cut="0.0000000000000000e+00" cType="1" res="-1.6359319910407066e-02" rms="4.5727410912513733e-01" purity="2.9783976078033447e-01" nType="-99"/>
                  <Node pos="r" depth="6" NCoef="0" IVar="-1" Cut="0.0000000000000000e+00" cType="1" res="-2.1800618618726730e-02" rms="4.3006169795989990e-01" purity="2.4519309401512146e-01" nType="-99"/>
                </Node>
              </Node>
            </Node>
          </Node>
          <Node pos="r" depth="2" NCoef="0" IVar="3" Cut="4.6653109788894653e-01" cType="1" res="-3.4449589252471924e-01" rms="2.8438141942024231e-01" purity="9.0312555432319641e-02" nType="0">
            <Node pos="l" depth="3" NCoef="0" IVar="0" Cut="1.5470457077026367e+00" cType="1" res="-3.6352422833442688e-01" rms="2.4834705889225006e-01" purity="6.6585466265678406e-02" nType="0">
              <Node pos="l" depth="4" NCoef="0" IVar="4" Cut="1.2803679704666138e-01" cType="1" res="-3.4225445985794067e-01" rms="2.9106009006500244e-01" purity="9.3832522630691528e-02" nType="0">
                <Node pos="l" depth="5" NCoef="0" IVar="0" Cut="1.2847588062286377e+00" cType="1" res="-3.5687008500099182e-01" rms="2.6826086640357971e-01" purity="7.8362457454204559e-02" nType="0">
                  <Node pos="l" depth="6" NCoef="0" IVar="2" Cut="1.4261773681640625e+02" cType="1" res="-3.4591817855834961e-01" rms="2.8861135244369507e-01" purity="9.1893039643764496e-02" nType="0">
                    <Node pos="l" depth="7" NCoef="0" IVar="-1" Cut="0.0000000000000000e+00" cType="1" res="-3.6975312978029251e-02" rms="3.1163293123245239e-01" purity="1.0920749604701996e-01" nType="-99"/>
                    <Node pos="r" depth="7" NCoef="0" IVar="-1" Cut="0.0000000000000000e+00" cType="1" res="-3.9088699966669083e-02" rms="2.6938009262084961e-01" purity="7.8951999545097351e-02" nType="-99"/>
                  </Node>
                  <Node pos="r" depth="6" NCoef="0" IVar="-1" Cut="0.0000000000000000e+00" cType="1" res="-4.2948205024003983e-02" rms="2.2065500915050507e-01" purity="5.1425673067569733e-02" nType="-99"/>
                </Node>
                <Node pos="r" depth="5" NCoef="0" IVar="3" Cut="3.5084903240203857e-01" cType="1" res="-3.1855612993240356e-01" rms="3.2324090600013733e-01" purity="1.1891625821590424e-01" nType="0">
                  <Node pos="l" depth="6" NCoef="0" IVar="-1" Cut="0.0000000000000000e+00" cType="1" res="-3.8645781576633453e-02" rms="3.0032187700271606e-01" purity="1.0049688071012497e-01" nType="-99"/>
                  <Node pos="r" depth="6" NCoef="0" IVar="-1" Cut="0.0000000000000000e+00" cType="1" res="-3.1320702284574509e-02" rms="3.5586506128311157e-01" purity="1.4901977777481079e-01" nType="-99"/>
                </Node>
              </Node>
              <Node pos="r" depth="4" NCoef="0" IVar="5" Cut="4.0000000000000000e+00" cType="1" res="-3.7963280081748962e-01" rms="2.0708286762237549e-01" purity="4.4976811856031418e-02" nType="0">
                <Node pos="l" depth="5" NCoef="0" IVar="-1" Cut="0.0000000000000000e+00" cType="1" res="-4.0846902877092361e-02" rms="2.7603211998939514e-01" purity="8.3276852965354919e-02" nType="-99"/>
                <Node pos="r" depth="5" NCoef="0" IVar="4" Cut="1.5355609357357025e-01" cType="1" res="-3.8623440265655518e-01" rms="1.9186532497406006e-01" purity="3.8429904729127884e-02" nType="0">
                  <Node pos="l" depth="6" NCoef="0" IVar="0" Cut="1.8190050125122070e+00" cType="1" res="-3.9133015275001526e-01" rms="1.7486377060413361e-01" purity="3.1640253961086273e-02" nType="0">
                    <Node pos="l" depth="7" NCoef="0" IVar="-1" Cut="0.0000000000000000e+00" cType="1" res="-4.3618906289339066e-02" rms="2.1072068810462952e-01" purity="4.6665336936712265e-02" nType="-99"/>
                    <Node pos="r" depth="7" NCoef="0" IVar="-1" Cut="0.0000000000000000e+00" cType="1" res="-4.7985278069972992e-02" rms="1.6515974700450897e-01" purity="2.8097955510020256e-02" nType="-99"/>
                  </Node>
                  <Node pos="r" depth="6" NCoef="0" IVar="-1" Cut="0.0000000000000000e+00" cType="1" res="-4.4957339763641357e-02" rms="2.4241818487644196e-01" purity="6.2803216278553009e-02" nType="-99"/>
                </Node>
              </Node>
            </Node>
            <Node pos="r" depth="3" NCoef="0" IVar="3" Cut="5.4969882965087891e-01" cType="1" res="-2.6930615305900574e-01" rms="3.8683706521987915e-01" purity="1.8406926095485687e-01" nType="0">
              <Node pos="l" depth="4" NCoef="0" IVar="4" Cut="8.8807128369808197e-02" cType="1" res="-2.8969329595565796e-01" rms="3.6612221598625183e-01" purity="1.5976862609386444e-01" nType="0">
                <Node pos="l" depth="5" NCoef="0" IVar="-1" Cut="0.0000000000000000e+00" cType="1" res="-3.1741045415401459e-02" rms="3.5052341222763062e-01" purity="1.4367909729480743e-01" nType="-99"/>
                <Node pos="r" depth="5" NCoef="0" IVar="-1" Cut="0.0000000000000000e+00" cType="1" res="-2.6915313675999641e-02" rms="3.9086338877677917e-01" purity="1.8845492601394653e-01" nType="-99"/>
              </Node>
              <Node pos="r" depth="4" NCoef="0" IVar="-1" Cut="0.0000000000000000e+00" cType="1" res="-2.2153820842504501e-02" rms="4.2406883835792542e-01" purity="2.3535867035388947e-01" nType="-99"/>
            </Node>
          </Node>
        </Node>
        <Node pos="r" depth="1" NCoef="0" IVar="3" Cut="8.2382816076278687e-01" cType="1" res="1.7291426658630371e-01" rms="4.5702105760574341e-01" purity="6.9444239139556885e-01" nType="0">
          <Node pos="l" depth="2" NCoef="0" IVar="0" Cut="2.8460487723350525e-01" cType="1" res="4.2056761682033539e-02" rms="4.9575859308242798e-01" purity="5.4715627431869507e-01" nType="0">
            <Node pos="l" depth="3" NCoef="0" IVar="1" Cut="6.5976142883300781e-01" cType="1" res="7.5905628502368927e-02" rms="4.9142217636108398e-01" purity="5.8570098876953125e-01" nType="0">
              <Node pos="l" depth="4" NCoef="0" IVar="3" Cut="7.2330313920974731e-01" cType="1" res="8.8612891733646393e-02" rms="4.8909857869148254e-01" purity="5.9969812631607056e-01" nType="0">
                <Node pos="l" depth="5" NCoef="0" IVar="1" Cut="4.8111793585121632e-03" cType="1" res="3.1533889472484589e-02" rms="4.9817878007888794e-01" purity="5.3613889217376709e-01" nType="0">
                  <Node pos="l" depth="6" NCoef="0" IVar="-1" Cut="0.0000000000000000e+00" cType="1" res="4.9106706865131855e-03" rms="4.9529579281806946e-01" purity="5.6511813402175903e-01" nType="-99"/>
                  <Node pos="r" depth="6" NCoef="0" IVar="-1" Cut="0.0000000000000000e+00" cType="1" res="4.3511926196515560e-04" rms="4.9951088428497314e-01" purity="5.0825840234756470e-01" nType="-99"/>
                </Node>
                <Node pos="r" depth="5" NCoef="0" IVar="0" Cut="9.1802608221769333e-03" cType="1" res="1.1415990442037582e-01" rms="4.8279833793640137e-01" purity="6.2814551591873169e-01" nType="0">
                  <Node pos="l" depth="6" NCoef="0" IVar="1" Cut="2.7383354306221008e-01" cType="1" res="1.2838886678218842e-01" rms="4.7855633497238159e-01" purity="6.4370012283325195e-01" nType="0">
                    <Node pos="l" depth="7" NCoef="0" IVar="-1" Cut="0.0000000000000000e+00" cType="1" res="1.0924071073532104e-02" rms="4.7522574663162231e-01" purity="6.5483742952346802e-01" nType="-99"/>
                    <Node pos="r" depth="7" NCoef="0" IVar="-1" Cut="0.0000000000000000e+00" cType="1" res="6.5466058440506458e-03" rms="4.9172550439834595e-01" purity="5.8947020769119263e-01" nType="-99"/>
                  </Node>
                  <Node pos="r" depth="6" NCoef="0" IVar="-1" Cut="0.0000000000000000e+00" cType="1" res="5.5498103611171246e-03" rms="4.9479046463966370e-01" purity="5.6957167387008667e-01" nType="-99"/>
                </Node>
              </Node>
              <Node pos="r" depth="4" NCoef="0" IVar="-1" Cut="0.0000000000000000e+00" cType="1" res="-4.9697617068886757e-03" rms="4.9588757753372192e-01" purity="4.3855878710746765e-01" nType="-99"/>
            </Node>
            <Node pos="r" depth="3" NCoef="0" IVar="3" Cut="7.1212965250015259e-01" cType="1" res="-4.0914352983236313e-02" rms="4.9656534194946289e-01" purity="4.5267456769943237e-01" nType="0">
              <Node pos="l" depth="4" NCoef="0" IVar="5" Cut="3.0000000000000000e+00" cType="1" res="-7.5469404458999634e-02" rms="4.8832178115844727e-01" purity="4.0909698605537415e-01" nType="0">
                <Node pos="l" depth="5" NCoef="0" IVar="-1" Cut="0.0000000000000000e+00" cType="1" res="-9.5746815204620361e-03" rms="4.8465356230735779e-01" purity="3.7966588139533997e-01" nType="-99"/>
                <Node pos="r" depth="5" NCoef="0" IVar="-1" Cut="0.0000000000000000e+00" cType="1" res="-4.6829013153910637e-03" rms="4.9546340107917786e-01" purity="4.3766129016876221e-01" nType="-99"/>
              </Node>
              <Node pos="r" depth="4" NCoef="0" IVar="2" Cut="9.7092788696289062e+01" cType="1" res="-5.0722607411444187e-03" rms="4.9898481369018555e-01" purity="4.9290689826011658e-01" nType="0">
                <Node pos="l" depth="5" NCoef="0" IVar="-1" Cut="0.0000000000000000e+00" cType="1" res="1.6439988976344466e-03" rms="4.9876350164413452e-01" purity="5.1943719387054443e-01" nType="-99"/>
                <Node pos="r" depth="5" NCoef="0" IVar="-1" Cut="0.0000000000000000e+00" cType="1" res="-2.3992729838937521e-03" rms="4.9813374876976013e-01" purity="4.6963375806808472e-01" nType="-99"/>
              </Node>
            </Node>
          </Node>
          <Node pos="r" depth="2" NCoef="0" IVar="0" Cut="3.0660334229469299e-01" cType="1" res="2.2373151779174805e-01" rms="4.3046841025352478e-01" purity="7.5163954496383667e-01" nType="0">
            <Node pos="l" depth="3" NCoef="0" IVar="1" Cut="8.5035222768783569e-01" cType="1" res="2.3494438827037811e-01" rms="4.2373371124267578e-01" purity="7.6408261060714722e-01" nType="0">
              <Node pos="l" depth="4" NCoef="0" IVar="3" Cut="9.3692147731781006e-01" cType="1" res="2.4351291358470917e-01" rms="4.1799342632293701e-01" purity="7.7364093065261841e-01" nType="0">
                <Node pos="l" depth="5" NCoef="0" IVar="1" Cut="2.5238361954689026e-01" cType="1" res="1.9684588909149170e-01" rms="4.4737541675567627e-01" purity="7.2245121002197266e-01" nType="0">
                  <Node pos="l" depth="6" NCoef="0" IVar="3" Cut="8.5665756464004517e-01" cType="1" res="2.0896691083908081e-01" rms="4.4062954187393188e-01" purity="7.3590713739395142e-01" nType="0">
                    <Node pos="l" depth="7" NCoef="0" IVar="-1" Cut="0.0000000000000000e+00" cType="1" res="1.4088479802012444e-02" rms="4.5794722437858582e-01" purity="7.0063400268554688e-01" nType="-99"/>
                    <Node pos="r" depth="7" NCoef="0" IVar="-1" Cut="0.0000000000000000e+00" cType="1" res="1.8899327144026756e-02" rms="4.3109771609306335e-01" purity="7.5320547819137573e-01" nType="-99"/>
                  </Node>
                  <Node pos="r" depth="6" NCoef="0" IVar="3" Cut="8.6762237548828125e-01" cType="1" res="1.4719942212104797e-01" rms="4.7075921297073364e-01" purity="6.6733705997467041e-01" nType="0">
                    <Node pos="l" depth="7" NCoef="0" IVar="-1" Cut="0.0000000000000000e+00" cType="1" res="9.8387924954295158e-03" rms="4.7903472185134888e-01" purity="6.4253318309783936e-01" nType="-99"/>
                    <Node pos="r" depth="7" NCoef="0" IVar="-1" Cut="0.0000000000000000e+00" cType="1" res="1.4522918500006199e-02" rms="4.6195426583290100e-01" purity="6.9049173593521118e-01" nType="-99"/>
                  </Node>
                </Node>
                <Node pos="r" depth="5" NCoef="0" IVar="1" Cut="2.8915174771100283e-03" cType="1" res="2.6333245635032654e-01" rms="4.0323963761329651e-01" purity="7.9538130760192871e-01" nType="0">
                  <Node pos="l" depth="6" NCoef="0" IVar="3" Cut="1.0050401687622070e+00" cType="1" res="2.7869510650634766e-01" rms="3.9045432209968567e-01" purity="8.1228440999984741e-01" nType="0">
                    <Node pos="l" depth="7" NCoef="0" IVar="-1" Cut="0.0000000000000000e+00" cType="1" res="2.1091267466545105e-02" rms="3.9263552427291870e-01" purity="8.0953735113143921e-01" nType="-99"/>
                    <Node pos="r" depth="7" NCoef="0" IVar="-1" Cut="0.0000000000000000e+00" cType="1" res="2.1374989300966263e-02" rms="3.8434255123138428e-01" purity="8.1977647542953491e-01" nType="-99"/>
                  </Node>
                  <Node pos="r" depth="6" NCoef="0" IVar="1" Cut="3.8559886813163757e-01" cType="1" res="2.4728520214557648e-01" rms="4.1556945443153381e-01" purity="7.7772504091262817e-01" nType="0">
                    <Node pos="l" depth="7" NCoef="0" IVar="-1" Cut="0.0000000000000000e+00" cType="1" res="2.0060136914253235e-02" rms="4.0673956274986267e-01" purity="7.9069328308105469e-01" nType="-99"/>
                    <Node pos="r" depth="7" NCoef="0" IVar="-1" Cut="0.0000000000000000e+00" cType="1" res="1.5767160803079605e-02" rms="4.4096165895462036e-01" purity="7.3539388179779053e-01" nType="-99"/>
                  </Node>
                </Node>
              </Node>
              <Node pos="r" depth="4" NCoef="0" IVar="1" Cut="1.4398878812789917e+00" cType="1" res="8.6698293685913086e-02" rms="4.8979422450065613e-01" purity="5.9871137142181396e-01" nType="0">
                <Node pos="l" depth="5" NCoef="0" IVar="-1" Cut="0.0000000000000000e+00" cType="1" res="8.2355178892612457e-03" rms="4.8535546660423279e-01" purity="6.1866790056228638e-01" nType="-99"/>
                <Node pos="r" depth="5" NCoef="0" IVar="-1" Cut="0.0000000000000000e+00" cType="1" res="5.4066781885921955e-03" rms="4.9402910470962524e-01" purity="5.7546347379684448e-01" nType="-99"/>
              </Node>
            </Node>
            <Node pos="r" depth="3" NCoef="0" IVar="-1" Cut="0.0000000000000000e+00" cType="1" res="1.3177104992792010e-03" rms="4.9640193581581116e-01" purity="5.2090859413146973e-01" nType="-99"/>
          </Node>
        </Node>
      </Node>
    </BinaryTree>
    <BinaryTree type="DecisionTree" boostWeight="1.0000000000000000e+00" itree="4">
      <Node pos="s" depth="0" NCoef="0" IVar="3" Cut="6.5137040615081787e-01" cType="1" res="7.2411969304084778e-03" rms="4.7345200181007385e-01" purity="5.0067007541656494e-01" nType="0">
        <Node pos="l" depth="1" NCoef="0" IVar="0" Cut="6.4506030082702637e-01" cType="1" res="-2.6022005081176758e-01" rms="3.7022095918655396e-01" purity="1.7405359447002411e-01" nType="0">
          <Node pos="l" depth="2" NCoef="0" IVar="3" Cut="5.4820370674133301e-01" cType="1" res="-1.5736636519432068e-01" rms="4.5738059282302856e-01" purity="3.0642476677894592e-01" nType="0">
            <Node pos="l" depth="3" NCoef="0" IVar="3" Cut="4.6167775988578796e-01" cType="1" res="-2.1369314193725586e-01" rms="4.2406579852104187e-01" purity="2.3820392787456512e-01" nType="0">
              <Node pos="l" depth="4" NCoef="0" IVar="4" Cut="2.4387948215007782e-01" cType="1" res="-2.4091702699661255e-01" rms="4.0078869462013245e-01" purity="2.0237736403942108e-01" nType="0">
                <Node pos="l" depth="5" NCoef="0" IVar="3" Cut="3.8910195231437683e-01" cType="1" res="-2.5609192252159119e-01" rms="3.8828837871551514e-01" purity="1.8601557612419128e-01" nType="0">
                  <Node pos="l" depth="6" NCoef="0" IVar="-1" Cut="0.0000000000000000e+00" cType="1" res="-3.0848113819956779e-02" rms="3.6115199327468872e-01" purity="1.5505677461624146e-01" nType="-99"/>
                  <Node pos="r" depth="6" NCoef="0" IVar="-1" Cut="0.0000000000000000e+00" cType="1" res="-2.2804426029324532e-02" rms="4.1239717602729797e-01" purity="2.1806213259696960e-01" nType="-99"/>
                </Node>
                <Node pos="r" depth="5" NCoef="0" IVar="-1" Cut="0.0000000000000000e+00" cType="1" res="-1.9565440714359283e-02" rms="4.3587628006935120e-01" purity="2.5652062892913818e-01" nType="-99"/>
              </Node>
              <Node pos="r" depth="4" NCoef="0" IVar="0" Cut="2.0806880667805672e-02" cType="1" res="-1.7821194231510162e-01" rms="4.5014533400535583e-01" purity="2.8489711880683899e-01" nType="0">
                <Node pos="l" depth="5" NCoef="0" IVar="-1" Cut="0.0000000000000000e+00" cType="1" res="-1.2602018192410469e-02" rms="4.7168824076652527e-01" purity="3.3654943108558655e-01" nType="-99"/>
                <Node pos="r" depth="5" NCoef="0" IVar="3" Cut="5.0913149118423462e-01" cType="1" res="-1.9955068826675415e-01" rms="4.3687298893928528e-01" purity="2.5771102309226990e-01" nType="0">
                  <Node pos="l" depth="6" NCoef="0" IVar="-1" Cut="0.0000000000000000e+00" cType="1" res="-2.2089008241891861e-02" rms="4.2183116078376770e-01" purity="2.3173741996288300e-01" nType="-99"/>
                  <Node pos="r" depth="6" NCoef="0" IVar="-1" Cut="0.0000000000000000e+00" cType="1" res="-1.7065936699509621e-02" rms="4.4970846176147461e-01" purity="2.8223377466201782e-01" nType="-99"/>
                </Node>
              </Node>
            </Node>
            <Node pos="r" depth="3" NCoef="0" IVar="1" Cut="2.9778820276260376e-01" cType="1" res="-9.3749940395355225e-02" rms="4.8449170589447021e-01" purity="3.8347455859184265e-01" nType="0">
              <Node pos="l" depth="4" NCoef="0" IVar="0" Cut="4.1612300276756287e-01" cType="1" res="-6.2314234673976898e-02" rms="4.9139028787612915e-01" purity="4.1633856296539307e-01" nType="0">
                <Node pos="l" depth="5" NCoef="0" IVar="3" Cut="6.1809641122817993e-01" cType="1" res="-3.2614093273878098e-02" rms="4.9715211987495422e-01" purity="4.5271548628807068e-01" nType="0">
                  <Node pos="l" depth="6" NCoef="0" IVar="-1" Cut="0.0000000000000000e+00" cType="1" res="-4.9308338202536106e-03" rms="4.9423068761825562e-01" purity="4.2772915959358215e-01" nType="-99"/>
                  <Node pos="r" depth="6" NCoef="0" IVar="-1" Cut="0.0000000000000000e+00" cType="1" res="2.0653143292292953e-04" rms="4.9944776296615601e-01" purity="4.9009919166564941e-01" nType="-99"/>
                </Node>
                <Node pos="r" depth="5" NCoef="0" IVar="-1" Cut="0.0000000000000000e+00" cType="1" res="-1.2272067368030548e-02" rms="4.7048094868659973e-01" purity="3.3159151673316956e-01" nType="-99"/>
              </Node>
              <Node pos="r" depth="4" NCoef="0" IVar="-1" Cut="0.0000000000000000e+00" cType="1" res="-1.6426295042037964e-02" rms="4.5742869377136230e-01" purity="3.0127838253974915e-01" nType="-99"/>
            </Node>
          </Node>
          <Node pos="r" depth="2" NCoef="0" IVar="3" Cut="4.8614844679832458e-01" cType="1" res="-3.2564303278923035e-01" rms="2.8314638137817383e-01" purity="8.9855141937732697e-02" nType="0">
            <Node pos="l" depth="3" NCoef="0" IVar="0" Cut="1.2485291957855225e+00" cType="1" res="-3.4094959497451782e-01" rms="2.5302353501319885e-01" purity="6.9534473121166229e-02" nType="0">
              <Node pos="l" depth="4" NCoef="0" IVar="4" Cut="1.4045664668083191e-01" cType="1" res="-3.1377077102661133e-01" rms="3.1041076779365540e-01" purity="1.0846143960952759e-01" nType="0">
                <Node pos="l" depth="5" NCoef="0" IVar="2" Cut="1.8380029296875000e+02" cType="1" res="-3.2528021931648254e-01" rms="2.9519805312156677e-01" purity="9.6857897937297821e-02" nType="0">
                  <Node pos="l" depth="6" NCoef="0" IVar="4" Cut="6.3598632812500000e-02" cType="1" res="-3.0881503224372864e-01" rms="3.1640863418579102e-01" purity="1.1322943121194839e-01" nType="0">
                    <Node pos="l" depth="7" NCoef="0" IVar="-1" Cut="0.0000000000000000e+00" cType="1" res="-3.5866454243659973e-02" rms="2.9817265272140503e-01" purity="9.8875291645526886e-02" nType="-99"/>
                    <Node pos="r" depth="7" NCoef="0" IVar="-1" Cut="0.0000000000000000e+00" cType="1" res="-3.3151533454656601e-02" rms="3.3448085188865662e-01" purity="1.2886336445808411e-01" nType="-99"/>
                  </Node>
                  <Node pos="r" depth="6" NCoef="0" IVar="-1" Cut="0.0000000000000000e+00" cType="1" res="-3.7409756332635880e-02" rms="2.6903536915779114e-01" purity="7.9007945954799652e-02" nType="-99"/>
                </Node>
                <Node pos="r" depth="5" NCoef="0" IVar="-1" Cut="0.0000000000000000e+00" cType="1" res="-3.2076928764581680e-02" rms="3.3976352214813232e-01" purity="1.3364593684673309e-01" nType="-99"/>
              </Node>
              <Node pos="r" depth="4" NCoef="0" IVar="4" Cut="1.5360823273658752e-01" cType="1" res="-3.5359728336334229e-01" rms="2.2016036510467529e-01" purity="5.1419802010059357e-02" nType="0">
                <Node pos="l" depth="5" NCoef="0" IVar="2" Cut="8.6245651245117188e+01" cType="1" res="-3.6075788736343384e-01" rms="2.0198124647140503e-01" purity="4.2850542813539505e-02" nType="0">
                  <Node pos="l" depth="6" NCoef="0" IVar="3" Cut="2.9557529091835022e-01" cType="1" res="-3.3924970030784607e-01" rms="2.4496425688266754e-01" purity="6.4475260674953461e-02" nType="0">
                    <Node pos="l" depth="7" NCoef="0" IVar="-1" Cut="0.0000000000000000e+00" cType="1" res="-4.4947955757379532e-02" rms="2.2003410756587982e-01" purity="5.1223665475845337e-02" nType="-99"/>
                    <Node pos="r" depth="7" NCoef="0" IVar="-1" Cut="0.0000000000000000e+00" cType="1" res="-3.9348069578409195e-02" rms="2.6567941904067993e-01" purity="7.6741181313991547e-02" nType="-99"/>
                  </Node>
                  <Node pos="r" depth="6" NCoef="0" IVar="4" Cut="1.0435563325881958e-01" cType="1" res="-3.6644443869590759e-01" rms="1.8858034908771515e-01" purity="3.7133164703845978e-02" nType="0">
                    <Node pos="l" depth="7" NCoef="0" IVar="-1" Cut="0.0000000000000000e+00" cType="1" res="-4.4264584779739380e-02" rms="1.6933198273181915e-01" purity="2.9680820181965828e-02" nType="-99"/>
                    <Node pos="r" depth="7" NCoef="0" IVar="-1" Cut="0.0000000000000000e+00" cType="1" res="-4.3431919068098068e-02" rms="2.1569460630416870e-01" purity="4.9233060330152512e-02" nType="-99"/>
                  </Node>
                </Node>
                <Node pos="r" depth="5" NCoef="0" IVar="5" Cut="6.0000000000000000e+00" cType="1" res="-3.2450726628303528e-01" rms="2.7724421024322510e-01" purity="8.3902642130851746e-02" nType="0">
                  <Node pos="l" depth="6" NCoef="0" IVar="-1" Cut="0.0000000000000000e+00" cType="1" res="-3.7080779671669006e-02" rms="3.0586498975753784e-01" purity="1.0469282418489456e-01" nType="-99"/>
                  <Node pos="r" depth="6" NCoef="0" IVar="-1" Cut="0.0000000000000000e+00" cType="1" res="-4.1055198758840561e-02" rms="2.5657761096954346e-01" purity="7.1067921817302704e-02" nType="-99"/>
                </Node>
              </Node>
            </Node>
            <Node pos="r" depth="3" NCoef="0" IVar="3" Cut="5.5010700225830078e-01" cType="1" res="-2.4581608176231384e-01" rms="3.9599049091339111e-01" purity="1.9583180546760559e-01" nType="0">
              <Node pos="l" depth="4" NCoef="0" IVar="2" Cut="1.5476988220214844e+02" cType="1" res="-2.6838377118110657e-01" rms="3.7270885705947876e-01" purity="1.6712291538715363e-01" nType="0">
                <Node pos="l" depth="5" NCoef="0" IVar="-1" Cut="0.0000000000000000e+00" cType="1" res="-2.5487307459115982e-02" rms="3.8996452093124390e-01" purity="1.8753348290920258e-01" nType="-99"/>
                <Node pos="r" depth="5" NCoef="0" IVar="-1" Cut="0.0000000000000000e+00" cType="1" res="-3.0419928953051567e-02" rms="3.5425761342048645e-01" purity="1.4758148789405823e-01" nType="-99"/>
              </Node>
              <Node pos="r" depth="4" NCoef="0" IVar="-1" Cut="0.0000000000000000e+00" cType="1" res="-2.1041104570031166e-02" rms="4.2578184604644775e-01" purity="2.3807537555694580e-01" nType="-99"/>
            </Node>
          </Node>
        </Node>
        <Node pos="r" depth="1" NCoef="0" IVar="3" Cut="8.2485187053680420e-01" cType="1" res="1.6476218402385712e-01" rms="4.5662528276443481e-01" purity="6.9303047657012939e-01" nType="0">
          <Node pos="l" depth="2" NCoef="0" IVar="0" Cut="2.8154516220092773e-01" cType="1" res="4.0557075291872025e-02" rms="4.9511834979057312e-01" purity="5.4743015766143799e-01" nType="0">
            <Node pos="l" depth="3" NCoef="0" IVar="1" Cut="2.4831423163414001e-01" cType="1" res="7.5955994427204132e-02" rms="4.9051570892333984e-01" purity="5.8896803855895996e-01" nType="0">
              <Node pos="l" depth="4" NCoef="0" IVar="3" Cut="7.1852415800094604e-01" cType="1" res="1.0217449814081192e-01" rms="4.8483997583389282e-01" purity="6.1866801977157593e-01" nType="0">
                <Node pos="l" depth="5" NCoef="0" IVar="2" Cut="1.5592146301269531e+02" cType="1" res="4.6529006212949753e-02" rms="4.9664860963821411e-01" purity="5.5380600690841675e-01" nType="0">
                  <Node pos="l" depth="6" NCoef="0" IVar="-1" Cut="0.0000000000000000e+00" cType="1" res="5.3331968374550343e-03" rms="4.9394640326499939e-01" purity="5.7460939884185791e-01" nType="-99"/>
                  <Node pos="r" depth="6" NCoef="0" IVar="-1" Cut="0.0000000000000000e+00" cType="1" res="2.1363988053053617e-03" rms="4.9887236952781677e-01" purity="5.2970588207244873e-01" nType="-99"/>
                </Node>
                <Node pos="r" depth="5" NCoef="0" IVar="0" Cut="1.7253617942333221e-01" cType="1" res="1.2306541949510574e-01" rms="4.7866445779800415e-01" purity="6.4301902055740356e-01" nType="0">
                  <Node pos="l" depth="6" NCoef="0" IVar="3" Cut="7.9398524761199951e-01" cType="1" res="1.3530763983726501e-01" rms="4.7440850734710693e-01" purity="6.5725189447402954e-01" nType="0">
                    <Node pos="l" depth="7" NCoef="0" IVar="-1" Cut="0.0000000000000000e+00" cType="1" res="9.9005252122879028e-03" rms="4.7868642210960388e-01" purity="6.4374947547912598e-01" nType="-99"/>
                    <Node pos="r" depth="7" NCoef="0" IVar="-1" Cut="0.0000000000000000e+00" cType="1" res="1.2086566537618637e-02" rms="4.6611633896827698e-01" purity="6.8079191446304321e-01" nType="-99"/>
                  </Node>
                  <Node pos="r" depth="6" NCoef="0" IVar="-1" Cut="0.0000000000000000e+00" cType="1" res="6.8267397582530975e-03" rms="4.9217706918716431e-01" purity="5.8665907382965088e-01" nType="-99"/>
                </Node>
              </Node>
              <Node pos="r" depth="4" NCoef="0" IVar="1" Cut="5.5511069297790527e-01" cType="1" res="4.8850453458726406e-03" rms="4.9869561195373535e-01" purity="5.0845968723297119e-01" nType="0">
                <Node pos="l" depth="5" NCoef="0" IVar="-1" Cut="0.0000000000000000e+00" cType="1" res="3.6575114354491234e-03" rms="4.9649620056152344e-01" purity="5.5333995819091797e-01" nType="-99"/>
                <Node pos="r" depth="5" NCoef="0" IVar="-1" Cut="0.0000000000000000e+00" cType="1" res="-3.9796074852347374e-03" rms="4.9691668152809143e-01" purity="4.4942262768745422e-01" nType="-99"/>
              </Node>
            </Node>
            <Node pos="r" depth="3" NCoef="0" IVar="3" Cut="7.2410655021667480e-01" cType="1" res="-4.4846195727586746e-02" rms="4.9575203657150269e-01" purity="4.4721600413322449e-01" nType="0">
              <Node pos="l" depth="4" NCoef="0" IVar="5" Cut="3.0000000000000000e+00" cType="1" res="-7.6732873916625977e-02" rms="4.8584505915641785e-01" purity="4.0328761935234070e-01" nType="0">
                <Node pos="l" depth="5" NCoef="0" IVar="-1" Cut="0.0000000000000000e+00" cType="1" res="-9.7343977540731430e-03" rms="4.8347291350364685e-01" purity="3.7502914667129517e-01" nType="-99"/>
                <Node pos="r" depth="5" NCoef="0" IVar="-1" Cut="0.0000000000000000e+00" cType="1" res="-4.9572535790503025e-03" rms="4.9476060271263123e-01" purity="4.3234622478485107e-01" nType="-99"/>
              </Node>
              <Node pos="r" depth="4" NCoef="0" IVar="2" Cut="9.8902183532714844e+01" cType="1" res="1.5518955187872052e-03" rms="4.9897953867912292e-01" purity="5.0085568428039551e-01" nType="0">
                <Node pos="l" depth="5" NCoef="0" IVar="-1" Cut="0.0000000000000000e+00" cType="1" res="2.2769831120967865e-03" rms="4.9834489822387695e-01" purity="5.2907073497772217e-01" nType="-99"/>
                <Node pos="r" depth="5" NCoef="0" IVar="-1" Cut="0.0000000000000000e+00" cType="1" res="-2.0315814763307571e-03" rms="4.9831640720367432e-01" purity="4.7491118311882019e-01" nType="-99"/>
              </Node>
            </Node>
          </Node>
          <Node pos="r" depth="2" NCoef="0" IVar="0" Cut="5.4476195573806763e-01" cType="1" res="2.1343380212783813e-01" rms="4.3097132444381714e-01" purity="7.5008624792098999e-01" nType="0">
            <Node pos="l" depth="3" NCoef="0" IVar="1" Cut="9.1477900743484497e-01" cType="1" res="2.2099150717258453e-01" rms="4.2664209008216858e-01" purity="7.5884330272674561e-01" nType="0">
              <Node pos="l" depth="4" NCoef="0" IVar="5" Cut="2.0000000000000000e+00" cType="1" res="2.1992568671703339e-01" rms="4.0862342715263367e-01" purity="7.6713848114013672e-01" nType="0">
                <Node pos="l" depth="5" NCoef="0" IVar="0" Cut="2.4591143429279327e-01" cType="1" res="2.4669800698757172e-01" rms="4.0838077664375305e-01" purity="7.8789430856704712e-01" nType="0">
                  <Node pos="l" depth="6" NCoef="0" IVar="1" Cut="3.8677230477333069e-01" cType="1" res="2.5041818618774414e-01" rms="4.0541422367095947e-01" purity="7.9230207204818726e-01" nType="0">
                    <Node pos="l" depth="7" NCoef="0" IVar="-1" Cut="0.0000000000000000e+00" cType="1" res="1.9837230443954468e-02" rms="3.9946025609970093e-01" purity="8.0061912536621094e-01" nType="-99"/>
                    <Node pos="r" depth="7" NCoef="0" IVar="-1" Cut="0.0000000000000000e+00" cType="1" res="1.4954137615859509e-02" rms="4.4313505291938782e-01" purity="7.3113185167312622e-01" nType="-99"/>
                  </Node>
                  <Node pos="r" depth="6" NCoef="0" IVar="-1" Cut="0.0000000000000000e+00" cType="1" res="1.2038436718285084e-02" rms="4.6816152334213257e-01" purity="6.7499911785125732e-01" nType="-99"/>
                </Node>
                <Node pos="r" depth="5" NCoef="0" IVar="0" Cut="1.7570662498474121e-01" cType="1" res="1.8025310337543488e-01" rms="4.5142629742622375e-01" purity="7.1363627910614014e-01" nType="0">
                  <Node pos="l" depth="6" NCoef="0" IVar="1" Cut="2.4088878929615021e-01" cType="1" res="1.8956030905246735e-01" rms="4.4677180051803589e-01" purity="7.2346735000610352e-01" nType="0">
                    <Node pos="l" depth="7" NCoef="0" IVar="-1" Cut="0.0000000000000000e+00" cType="1" res="1.6796406358480453e-02" rms="4.3882423639297485e-01" purity="7.3921638727188110e-01" nType="-99"/>
                    <Node pos="r" depth="7" NCoef="0" IVar="-1" Cut="0.0000000000000000e+00" cType="1" res="1.1613987386226654e-02" rms="4.7103804349899292e-01" purity="6.6663479804992676e-01" nType="-99"/>
                  </Node>
                  <Node pos="r" depth="6" NCoef="0" IVar="-1" Cut="0.0000000000000000e+00" cType="1" res="7.9701179638504982e-03" rms="4.8531207442283630e-01" purity="6.1753660440444946e-01" nType="-99"/>
                </Node>
              </Node>
              <Node pos="r" depth="4" NCoef="0" IVar="-1" Cut="0.0000000000000000e+00" cType="1" res="6.1844987794756889e-03" rms="4.9100887775421143e-01" purity="5.9228307008743286e-01" nType="-99"/>
            </Node>
            <Node pos="r" depth="3" NCoef="0" IVar="-1" Cut="0.0000000000000000e+00" cType="1" res="-7.3147076182067394e-03" rms="4.9113839864730835e-01" purity="4.0627005696296692e-01" nType="-99"/>
          </Node>
        </Node>
      </Node>
    </BinaryTree>
    <BinaryTree type="DecisionTree" boostWeight="1.0000000000000000e+00" itree="5">
      <Node pos="s" depth="0" NCoef="0" IVar="3" Cut="6.5238207578659058e-01" cType="1" res="7.1103423833847046e-03" rms="4.6824729442596436e-01" purity="4.9919968843460083e-01" nType="0">
        <Node pos="l" depth="1" NCoef="0" IVar="3" Cut="4.8717558383941650e-01" cType="1" res="-2.4718762934207916e-01" rms="3.6794912815093994e-01" purity="1.7310473322868347e-01" nType="0">
          <Node pos="l" depth="2" NCoef="0" IVar="0" Cut="9.6646493673324585e-01" cType="1" res="-3.0117920041084290e-01" rms="2.9444932937622070e-01" purity="9.8881386220455170e-02" nType="0">
            <Node pos="l" depth="3" NCoef="0" IVar="0" Cut="2.4939066171646118e-01" cType="1" res="-2.4716140329837799e-01" rms="3.7959140539169312e-01" purity="1.7670528590679169e-01" nType="0">
              <Node pos="l" depth="4" NCoef="0" IVar="4" Cut="2.0460623502731323e-01" cType="1" res="-2.0540779829025269e-01" rms="4.2384907603263855e-01" purity="2.3576840758323669e-01" nType="0">
                <Node pos="l" depth="5" NCoef="0" IVar="-1" Cut="0.0000000000000000e+00" cType="1" res="-2.3849800229072571e-02" rms="4.0598192811012268e-01" purity="2.0920665562152863e-01" nType="-99"/>
                <Node pos="r" depth="5" NCoef="0" IVar="-1" Cut="0.0000000000000000e+00" cType="1" res="-1.7748424783349037e-02" rms="4.4095844030380249e-01" purity="2.6508504152297974e-01" nType="-99"/>
              </Node>
              <Node pos="r" depth="4" NCoef="0" IVar="3" Cut="3.6573913693428040e-01" cType="1" res="-2.6433733105659485e-01" rms="3.5839921236038208e-01" purity="1.5240882337093353e-01" nType="0">
                <Node pos="l" depth="5" NCoef="0" IVar="4" Cut="2.0495083928108215e-01" cType="1" res="-2.8520375490188599e-01" rms="3.3317908644676208e-01" purity="1.2800568342208862e-01" nType="0">
                  <Node pos="l" depth="6" NCoef="0" IVar="-1" Cut="0.0000000000000000e+00" cType="1" res="-3.5759743303060532e-02" rms="2.9656571149826050e-01" purity="9.7843252122402191e-02" nType="-99"/>
                  <Node pos="r" depth="6" NCoef="0" IVar="-1" Cut="0.0000000000000000e+00" cType="1" res="-2.8617452830076218e-02" rms="3.6526331305503845e-01" purity="1.5917675197124481e-01" nType="-99"/>
                </Node>
                <Node pos="r" depth="5" NCoef="0" IVar="4" Cut="1.3894216716289520e-01" cType="1" res="-2.5239303708076477e-01" rms="3.7154006958007812e-01" purity="1.6637763381004333e-01" nType="0">
                  <Node pos="l" depth="6" NCoef="0" IVar="2" Cut="1.8650859069824219e+02" cType="1" res="-2.6964315772056580e-01" rms="3.5340520739555359e-01" purity="1.4727933704853058e-01" nType="0">
                    <Node pos="l" depth="7" NCoef="0" IVar="-1" Cut="0.0000000000000000e+00" cType="1" res="-2.6513429358601570e-02" rms="3.7409192323684692e-01" purity="1.6941137611865997e-01" nType="-99"/>
                    <Node pos="r" depth="7" NCoef="0" IVar="-1" Cut="0.0000000000000000e+00" cType="1" res="-3.1742155551910400e-02" rms="3.2897165417671204e-01" purity="1.2429555505514145e-01" nType="-99"/>
                  </Node>
                  <Node pos="r" depth="6" NCoef="0" IVar="-1" Cut="0.0000000000000000e+00" cType="1" res="-2.2504115477204323e-02" rms="4.0479344129562378e-01" purity="2.0672224462032318e-01" nType="-99"/>
                </Node>
              </Node>
            </Node>
            <Node pos="r" depth="3" NCoef="0" IVar="4" Cut="1.4116869866847992e-01" cType="1" res="-3.2792279124259949e-01" rms="2.3691317439079285e-01" purity="6.0351688414812088e-02" nType="0">
              <Node pos="l" depth="4" NCoef="0" IVar="3" Cut="4.1154539585113525e-01" cType="1" res="-3.3602190017700195e-01" rms="2.1803748607635498e-01" purity="5.0601791590452194e-02" nType="0">
                <Node pos="l" depth="5" NCoef="0" IVar="2" Cut="1.0603248596191406e+02" cType="1" res="-3.4363576769828796e-01" rms="1.9480587542057037e-01" purity="3.9747051894664764e-02" nType="0">
                  <Node pos="l" depth="6" NCoef="0" IVar="5" Cut="6.0000000000000000e+00" cType="1" res="-3.2209366559982300e-01" rms="2.2595870494842529e-01" purity="5.3362723439931870e-02" nType="0">
                    <Node pos="l" depth="7" NCoef="0" IVar="-1" Cut="0.0000000000000000e+00" cType="1" res="-4.0982715785503387e-02" rms="2.4322262406349182e-01" purity="6.3374266028404236e-02" nType="-99"/>
                    <Node pos="r" depth="7" NCoef="0" IVar="-1" Cut="0.0000000000000000e+00" cType="1" res="-4.3056838214397430e-02" rms="1.9676069915294647e-01" purity="4.0571838617324829e-02" nType="-99"/>
                  </Node>
                  <Node pos="r" depth="6" NCoef="0" IVar="3" Cut="3.2274600863456726e-01" cType="1" res="-3.4912651777267456e-01" rms="1.8121886253356934e-01" purity="3.4213673323392868e-02" nType="0">
                    <Node pos="l" depth="7" NCoef="0" IVar="-1" Cut="0.0000000000000000e+00" cType="1" res="-4.4280670583248138e-02" rms="1.5710809826850891e-01" purity="2.5396307930350304e-02" nType="-99"/>
                    <Node pos="r" depth="7" NCoef="0" IVar="-1" Cut="0.0000000000000000e+00" cType="1" res="-3.9475444704294205e-02" rms="2.1432755887508392e-01" purity="4.8483446240425110e-02" nType="-99"/>
                  </Node>
                </Node>
                <Node pos="r" depth="5" NCoef="0" IVar="2" Cut="1.5785752868652344e+02" cType="1" res="-2.9937848448753357e-01" rms="3.0344286561012268e-01" purity="1.0284265875816345e-01" nType="0">
                  <Node pos="l" depth="6" NCoef="0" IVar="-1" Cut="0.0000000000000000e+00" cType="1" res="-3.2278861850500107e-02" rms="3.1920373439788818e-01" purity="1.1542896926403046e-01" nType="-99"/>
                  <Node pos="r" depth="6" NCoef="0" IVar="-1" Cut="0.0000000000000000e+00" cType="1" res="-3.4159231930971146e-02" rms="2.8601995110511780e-01" purity="9.0072132647037506e-02" nType="-99"/>
                </Node>
              </Node>
              <Node pos="r" depth="4" NCoef="0" IVar="5" Cut="5.0000000000000000e+00" cType="1" res="-3.0307802557945251e-01" rms="2.8296747803688049e-01" purity="8.8401302695274353e-02" nType="0">
                <Node pos="l" depth="5" NCoef="0" IVar="-1" Cut="0.0000000000000000e+00" cType="1" res="-3.1687479466199875e-02" rms="3.3255350589752197e-01" purity="1.2688241899013519e-01" nType="-99"/>
                <Node pos="r" depth="5" NCoef="0" IVar="0" Cut="1.8307054042816162e+00" cType="1" res="-3.1682628393173218e-01" rms="2.6207122206687927e-01" purity="7.4703894555568695e-02" nType="0">
                  <Node pos="l" depth="6" NCoef="0" IVar="-1" Cut="0.0000000000000000e+00" cType="1" res="-3.5031989216804504e-02" rms="2.9723137617111206e-01" purity="9.8335728049278259e-02" nType="-99"/>
                  <Node pos="r" depth="6" NCoef="0" IVar="-1" Cut="0.0000000000000000e+00" cType="1" res="-4.2896661907434464e-02" rms="2.2353537380695343e-01" purity="5.2993159741163254e-02" nType="-99"/>
                </Node>
              </Node>
            </Node>
          </Node>
          <Node pos="r" depth="2" NCoef="0" IVar="0" Cut="5.5802166461944580e-01" cType="1" res="-1.4698489010334015e-01" rms="4.5857632160186768e-01" purity="3.1085547804832458e-01" nType="0">
            <Node pos="l" depth="3" NCoef="0" IVar="0" Cut="1.7999881878495216e-02" cType="1" res="-1.0492325574159622e-01" rms="4.7983238101005554e-01" purity="3.6676943302154541e-01" nType="0">
              <Node pos="l" depth="4" NCoef="0" IVar="2" Cut="1.8898435974121094e+02" cType="1" res="-6.3338652253150940e-02" rms="4.9204599857330322e-01" purity="4.1933375597000122e-01" nType="0">
                <Node pos="l" depth="5" NCoef="0" IVar="-1" Cut="0.0000000000000000e+00" cType="1" res="-8.4185291780158877e-04" rms="4.9864816665649414e-01" purity="4.7738432884216309e-01" nType="-99"/>
                <Node pos="r" depth="5" NCoef="0" IVar="-1" Cut="0.0000000000000000e+00" cType="1" res="-9.1852517798542976e-03" rms="4.8424708843231201e-01" purity="3.8009425997734070e-01" nType="-99"/>
              </Node>
              <Node pos="r" depth="4" NCoef="0" IVar="1" Cut="3.8158467411994934e-01" cType="1" res="-1.3387611508369446e-01" rms="4.6896949410438538e-01" purity="3.3017203211784363e-01" nType="0">
                <Node pos="l" depth="5" NCoef="0" IVar="3" Cut="5.6178456544876099e-01" cType="1" res="-1.1173674464225769e-01" rms="4.7697365283966064e-01" purity="3.5390406847000122e-01" nType="0">
                  <Node pos="l" depth="6" NCoef="0" IVar="-1" Cut="0.0000000000000000e+00" cType="1" res="-1.5388014726340771e-02" rms="4.5541223883628845e-01" purity="2.9455408453941345e-01" nType="-99"/>
                  <Node pos="r" depth="6" NCoef="0" IVar="2" Cut="1.5635209655761719e+02" cType="1" res="-8.5613816976547241e-02" rms="4.8594582080841064e-01" purity="3.8523992896080017e-01" nType="0">
                    <Node pos="l" depth="7" NCoef="0" IVar="-1" Cut="0.0000000000000000e+00" cType="1" res="-5.6741740554571152e-03" rms="4.9115300178527832e-01" purity="4.0904068946838379e-01" nType="-99"/>
                    <Node pos="r" depth="7" NCoef="0" IVar="-1" Cut="0.0000000000000000e+00" cType="1" res="-1.0596729815006256e-02" rms="4.7821417450904846e-01" purity="3.5659843683242798e-01" nType="-99"/>
                  </Node>
                </Node>
                <Node pos="r" depth="5" NCoef="0" IVar="-1" Cut="0.0000000000000000e+00" cType="1" res="-2.0129064098000526e-02" rms="4.3451681733131409e-01" purity="2.5357091426849365e-01" nType="-99"/>
              </Node>
            </Node>
            <Node pos="r" depth="3" NCoef="0" IVar="1" Cut="9.2742182314395905e-02" cType="1" res="-2.1725051105022430e-01" rms="4.1119027137756348e-01" purity="2.1744902431964874e-01" nType="0">
              <Node pos="l" depth="4" NCoef="0" IVar="3" Cut="5.5112212896347046e-01" cType="1" res="-1.6783592104911804e-01" rms="4.4183880090713501e-01" purity="2.6865097880363464e-01" nType="0">
                <Node pos="l" depth="5" NCoef="0" IVar="-1" Cut="0.0000000000000000e+00" cType="1" res="-2.0941343158483505e-02" rms="4.1368120908737183e-01" purity="2.1990883350372314e-01" nType="-99"/>
                <Node pos="r" depth="5" NCoef="0" IVar="-1" Cut="0.0000000000000000e+00" cType="1" res="-1.2127935886383057e-02" rms="4.6492719650268555e-01" purity="3.1726059317588806e-01" nType="-99"/>
              </Node>
              <Node pos="r" depth="4" NCoef="0" IVar="1" Cut="4.1202357411384583e-01" cType="1" res="-2.5180804729461670e-01" rms="3.8456732034683228e-01" purity="1.8164154887199402e-01" nType="0">
                <Node pos="l" depth="5" NCoef="0" IVar="-1" Cut="0.0000000000000000e+00" cType="1" res="-2.2895928472280502e-02" rms="4.0346449613571167e-01" purity="2.0610535144805908e-01" nType="-99"/>
                <Node pos="r" depth="5" NCoef="0" IVar="-1" Cut="0.0000000000000000e+00" cType="1" res="-2.8667578473687172e-02" rms="3.6562043428421021e-01" purity="1.5976063907146454e-01" nType="-99"/>
              </Node>
            </Node>
          </Node>
        </Node>
        <Node pos="r" depth="1" NCoef="0" IVar="3" Cut="8.2584828138351440e-01" cType="1" res="1.5799428522586823e-01" rms="4.5594134926795959e-01" purity="6.9268333911895752e-01" nType="0">
          <Node pos="l" depth="2" NCoef="0" IVar="0" Cut="2.8460496664047241e-01" cType="1" res="4.1931353509426117e-02" rms="4.9423155188560486e-01" purity="5.5078768730163574e-01" nType="0">
            <Node pos="l" depth="3" NCoef="0" IVar="1" Cut="3.9445519447326660e-01" cType="1" res="7.5534507632255554e-02" rms="4.8962634801864624e-01" purity="5.9187734127044678e-01" nType="0">
              <Node pos="l" depth="4" NCoef="0" IVar="3" Cut="7.4750530719757080e-01" cType="1" res="9.5614410936832428e-02" rms="4.8534229397773743e-01" purity="6.1543202400207520e-01" nType="0">
                <Node pos="l" depth="5" NCoef="0" IVar="3" Cut="6.9226914644241333e-01" cType="1" res="5.3692750632762909e-02" rms="4.9475282430648804e-01" purity="5.6610631942749023e-01" nType="0">
                  <Node pos="l" depth="6" NCoef="0" IVar="-1" Cut="0.0000000000000000e+00" cType="1" res="1.2647807598114014e-03" rms="4.9889585375785828e-01" purity="5.2263766527175903e-01" nType="-99"/>
                  <Node pos="r" depth="6" NCoef="0" IVar="1" Cut="-3.9697242900729179e-03" cType="1" res="7.4218936264514923e-02" rms="4.9131175875663757e-01" purity="5.8906102180480957e-01" nType="0">
                    <Node pos="l" depth="7" NCoef="0" IVar="-1" Cut="0.0000000000000000e+00" cType="1" res="8.1083709374070168e-03" rms="4.8601031303405762e-01" purity="6.1445569992065430e-01" nType="-99"/>
                    <Node pos="r" depth="7" NCoef="0" IVar="-1" Cut="0.0000000000000000e+00" cType="1" res="4.0243910625576973e-03" rms="4.9596717953681946e-01" purity="5.5992561578750610e-01" nType="-99"/>
                  </Node>
                </Node>
                <Node pos="r" depth="5" NCoef="0" IVar="0" Cut="2.0197528600692749e-01" cType="1" res="1.2723866105079651e-01" rms="4.7568225860595703e-01" purity="6.5264171361923218e-01" nType="0">
                  <Node pos="l" depth="6" NCoef="0" IVar="1" Cut="2.0232424139976501e-02" cType="1" res="1.3962608575820923e-01" rms="4.7108846902847290e-01" purity="6.6705155372619629e-01" nType="0">
                    <Node pos="l" depth="7" NCoef="0" IVar="-1" Cut="0.0000000000000000e+00" cType="1" res="1.1895098723471165e-02" rms="4.6579027175903320e-01" purity="6.8146395683288574e-01" nType="-99"/>
                    <Node pos="r" depth="7" NCoef="0" IVar="-1" Cut="0.0000000000000000e+00" cType="1" res="9.7359400242567062e-03" rms="4.7811430692672729e-01" purity="6.4608138799667358e-01" nType="-99"/>
                  </Node>
                  <Node pos="r" depth="6" NCoef="0" IVar="-1" Cut="0.0000000000000000e+00" cType="1" res="6.4442874863743782e-03" rms="4.9224644899368286e-01" purity="5.8646428585052490e-01" nType="-99"/>
                </Node>
              </Node>
              <Node pos="r" depth="4" NCoef="0" IVar="3" Cut="7.6427501440048218e-01" cType="1" res="-2.0853228867053986e-02" rms="4.9855542182922363e-01" purity="4.7880974411964417e-01" nType="0">
                <Node pos="l" depth="5" NCoef="0" IVar="-1" Cut="0.0000000000000000e+00" cType="1" res="-3.9606522768735886e-03" rms="4.9679243564605713e-01" purity="4.5170122385025024e-01" nType="-99"/>
                <Node pos="r" depth="5" NCoef="0" IVar="-1" Cut="0.0000000000000000e+00" cType="1" res="5.3334218682721257e-04" rms="4.9909320473670959e-01" purity="5.0894683599472046e-01" nType="-99"/>
              </Node>
            </Node>
            <Node pos="r" depth="3" NCoef="0" IVar="3" Cut="7.1393406391143799e-01" cType="1" res="-4.2831081897020340e-02" rms="4.9564182758331299e-01" purity="4.4714099168777466e-01" nType="0">
              <Node pos="l" depth="4" NCoef="0" IVar="5" Cut="3.0000000000000000e+00" cType="1" res="-7.4393160641193390e-02" rms="4.8734372854232788e-01" purity="4.0364021062850952e-01" nType="0">
                <Node pos="l" depth="5" NCoef="0" IVar="-1" Cut="0.0000000000000000e+00" cType="1" res="-9.6745565533638000e-03" rms="4.8228624463081360e-01" purity="3.7015321850776672e-01" nType="-99"/>
                <Node pos="r" depth="5" NCoef="0" IVar="-1" Cut="0.0000000000000000e+00" cType="1" res="-4.4852686114609241e-03" rms="4.9531152844429016e-01" purity="4.3571558594703674e-01" nType="-99"/>
              </Node>
              <Node pos="r" depth="4" NCoef="0" IVar="2" Cut="9.8650894165039062e+01" cType="1" res="-1.0221189819276333e-02" rms="4.9863761663436890e-01" purity="4.8705404996871948e-01" nType="0">
                <Node pos="l" depth="5" NCoef="0" IVar="-1" Cut="0.0000000000000000e+00" cType="1" res="1.6972400480881333e-03" rms="4.9849763512611389e-01" purity="5.2128136157989502e-01" nType="-99"/>
                <Node pos="r" depth="5" NCoef="0" IVar="-1" Cut="0.0000000000000000e+00" cType="1" res="-3.5294548142701387e-03" rms="4.9698889255523682e-01" purity="4.5444926619529724e-01" nType="-99"/>
              </Node>
            </Node>
          </Node>
          <Node pos="r" depth="2" NCoef="0" IVar="0" Cut="2.7238082885742188e-01" cType="1" res="2.0394705235958099e-01" rms="4.3131497502326965e-01" purity="7.4886405467987061e-01" nType="0">
            <Node pos="l" depth="3" NCoef="0" IVar="1" Cut="8.0569756031036377e-01" cType="1" res="2.1511116623878479e-01" rms="4.2454174160957336e-01" purity="7.6222085952758789e-01" nType="0">
              <Node pos="l" depth="4" NCoef="0" IVar="3" Cut="9.7292500734329224e-01" cType="1" res="2.2276666760444641e-01" rms="4.1917195916175842e-01" purity="7.7156275510787964e-01" nType="0">
                <Node pos="l" depth="5" NCoef="0" IVar="1" Cut="2.6729920506477356e-01" cType="1" res="1.8542018532752991e-01" rms="4.4393998384475708e-01" purity="7.2881454229354858e-01" nType="0">
                  <Node pos="l" depth="6" NCoef="0" IVar="3" Cut="8.7803500890731812e-01" cType="1" res="1.9613748788833618e-01" rms="4.3737310171127319e-01" purity="7.4162977933883667e-01" nType="0">
                    <Node pos="l" depth="7" NCoef="0" IVar="-1" Cut="0.0000000000000000e+00" cType="1" res="1.3714144006371498e-02" rms="4.5250239968299866e-01" purity="7.1233540773391724e-01" nType="-99"/>
                    <Node pos="r" depth="7" NCoef="0" IVar="-1" Cut="0.0000000000000000e+00" cType="1" res="1.8223216757178307e-02" rms="4.2283576726913452e-01" purity="7.6671332120895386e-01" nType="-99"/>
                  </Node>
                  <Node pos="r" depth="6" NCoef="0" IVar="1" Cut="4.4094437360763550e-01" cType="1" res="1.3403232395648956e-01" rms="4.7078806161880493e-01" purity="6.6736733913421631e-01" nType="0">
                    <Node pos="l" depth="7" NCoef="0" IVar="-1" Cut="0.0000000000000000e+00" cType="1" res="1.2500642798841000e-02" rms="4.6273520588874817e-01" purity="6.8857347965240479e-01" nType="-99"/>
                    <Node pos="r" depth="7" NCoef="0" IVar="-1" Cut="0.0000000000000000e+00" cType="1" res="9.2809544876217842e-03" rms="4.7884106636047363e-01" purity="6.4366453886032104e-01" nType="-99"/>
                  </Node>
                </Node>
                <Node pos="r" depth="5" NCoef="0" IVar="1" Cut="2.8643679618835449e-01" cType="1" res="2.4289332330226898e-01" rms="4.0376684069633484e-01" purity="7.9460042715072632e-01" nType="0">
                  <Node pos="l" depth="6" NCoef="0" IVar="3" Cut="1.0369776487350464e+00" cType="1" res="2.5055211782455444e-01" rms="3.9712849259376526e-01" purity="8.0370402336120605e-01" nType="0">
                    <Node pos="l" depth="7" NCoef="0" IVar="-1" Cut="0.0000000000000000e+00" cType="1" res="1.9527789205312729e-02" rms="3.9623579382896423e-01" purity="8.0487829446792603e-01" nType="-99"/>
                    <Node pos="r" depth="7" NCoef="0" IVar="-1" Cut="0.0000000000000000e+00" cType="1" res="1.7827583476901054e-02" rms="4.0782028436660767e-01" purity="7.8904384374618530e-01" nType="-99"/>
                  </Node>
                  <Node pos="r" depth="6" NCoef="0" IVar="1" Cut="5.5445617437362671e-01" cType="1" res="2.0675902068614960e-01" rms="4.3189010024070740e-01" purity="7.5164949893951416e-01" nType="0">
                    <Node pos="l" depth="7" NCoef="0" IVar="-1" Cut="0.0000000000000000e+00" cType="1" res="1.6461523249745369e-02" rms="4.2549684643745422e-01" purity="7.6251417398452759e-01" nType="-99"/>
                    <Node pos="r" depth="7" NCoef="0" IVar="-1" Cut="0.0000000000000000e+00" cType="1" res="1.3662206009030342e-02" rms="4.4710150361061096e-01" purity="7.2359132766723633e-01" nType="-99"/>
                  </Node>
                </Node>
              </Node>
              <Node pos="r" depth="4" NCoef="0" IVar="1" Cut="1.3978339433670044e+00" cType="1" res="9.3118421733379364e-02" rms="4.8643106222152710e-01" purity="6.1335635185241699e-01" nType="0">
                <Node pos="l" depth="5" NCoef="0" IVar="-1" Cut="0.0000000000000000e+00" cType="1" res="8.2200933247804642e-03" rms="4.8270875215530396e-01" purity="6.2828987836837769e-01" nType="-99"/>
                <Node pos="r" depth="5" NCoef="0" IVar="-1" Cut="0.0000000000000000e+00" cType="1" res="6.4008673653006554e-03" rms="4.9080446362495422e-01" purity="5.9387177228927612e-01" nType="-99"/>
              </Node>
            </Node>
            <Node pos="r" depth="3" NCoef="0" IVar="0" Cut="5.3602379560470581e-01" cType="1" res="2.6519870385527611e-02" rms="4.9467143416404724e-01" purity="5.3658831119537354e-01" nType="0">
              <Node pos="l" depth="4" NCoef="0" IVar="-1" Cut="0.0000000000000000e+00" cType="1" res="7.7431905083358288e-03" rms="4.8420172929763794e-01" purity="6.2302637100219727e-01" nType="-99"/>
              <Node pos="r" depth="4" NCoef="0" IVar="-1" Cut="0.0000000000000000e+00" cType="1" res="-5.7088593021035194e-03" rms="4.9369356036186218e-01" purity="4.2141771316528320e-01" nType="-99"/>
            </Node>
          </Node>
        </Node>
      </Node>
    </BinaryTree>
    <BinaryTree type="DecisionTree" boostWeight="1.0000000000000000e+00" itree="6">
      <Node pos="s" depth="0" NCoef="0" IVar="3" Cut="6.5137040615081787e-01" cType="1" res="9.7331106662750244e-03" rms="4.6311593055725098e-01" purity="5.0075715780258179e-01" nType="0">
        <Node pos="l" depth="1" NCoef="0" IVar="0" Cut="6.4506101608276367e-01" cType="1" res="-2.3409663140773773e-01" rms="3.6590886116027832e-01" purity="1.7260451614856720e-01" nType="0">
          <Node pos="l" depth="2" NCoef="0" IVar="3" Cut="5.0798338651657104e-01" cType="1" res="-1.4552932977676392e-01" rms="4.5420747995376587e-01" purity="3.0263006687164307e-01" nType="0">
            <Node pos="l" depth="3" NCoef="0" IVar="0" Cut="2.9130309820175171e-01" cType="1" res="-2.0987248420715332e-01" rms="4.0816980600357056e-01" purity="2.1384368836879730e-01" nType="0">
              <Node pos="l" depth="4" NCoef="0" IVar="3" Cut="4.2866581678390503e-01" cType="1" res="-1.8257942795753479e-01" rms="4.3172150850296021e-01" purity="2.4987734854221344e-01" nType="0">
                <Node pos="l" depth="5" NCoef="0" IVar="-1" Cut="0.0000000000000000e+00" cType="1" res="-2.0759604871273041e-02" rms="4.1863131523132324e-01" purity="2.2754715383052826e-01" nType="-99"/>
                <Node pos="r" depth="5" NCoef="0" IVar="-1" Cut="0.0000000000000000e+00" cType="1" res="-1.5038870275020599e-02" rms="4.5214092731475830e-01" purity="2.8875163197517395e-01" nType="-99"/>
              </Node>
              <Node pos="r" depth="4" NCoef="0" IVar="3" Cut="4.4454321265220642e-01" cType="1" res="-2.3640488088130951e-01" rms="3.8202735781669617e-01" purity="1.7881427705287933e-01" nType="0">
                <Node pos="l" depth="5" NCoef="0" IVar="-1" Cut="0.0000000000000000e+00" cType="1" res="-2.8394518420100212e-02" rms="3.5965672135353088e-01" purity="1.5323895215988159e-01" nType="-99"/>
                <Node pos="r" depth="5" NCoef="0" IVar="-1" Cut="0.0000000000000000e+00" cType="1" res="-2.0867105573415756e-02" rms="4.1473993659019470e-01" purity="2.2132030129432678e-01" nType="-99"/>
              </Node>
            </Node>
            <Node pos="r" depth="3" NCoef="0" IVar="0" Cut="3.7454321980476379e-01" cType="1" res="-1.0160607844591141e-01" rms="4.7817477583885193e-01" purity="3.6323919892311096e-01" nType="0">
              <Node pos="l" depth="4" NCoef="0" IVar="3" Cut="6.0974144935607910e-01" cType="1" res="-6.6591158509254456e-02" rms="4.8967435956001282e-01" purity="4.0800064802169800e-01" nType="0">
                <Node pos="l" depth="5" NCoef="0" IVar="2" Cut="1.7956138610839844e+02" cType="1" res="-9.4880826771259308e-02" rms="4.8280048370361328e-01" purity="3.7560224533081055e-01" nType="0">
                  <Node pos="l" depth="6" NCoef="0" IVar="-1" Cut="0.0000000000000000e+00" cType="1" res="-4.5054461807012558e-03" rms="4.9225270748138428e-01" purity="4.2298060655593872e-01" nType="-99"/>
                  <Node pos="r" depth="6" NCoef="0" IVar="-1" Cut="0.0000000000000000e+00" cType="1" res="-1.1875870637595654e-02" rms="4.7359064221382141e-01" purity="3.4197491407394409e-01" nType="-99"/>
                </Node>
                <Node pos="r" depth="5" NCoef="0" IVar="-1" Cut="0.0000000000000000e+00" cType="1" res="-1.8938082503154874e-03" rms="4.9709871411323547e-01" purity="4.5944920182228088e-01" nType="-99"/>
              </Node>
              <Node pos="r" depth="4" NCoef="0" IVar="2" Cut="2.0795394897460938e+02" cType="1" res="-1.5556193888187408e-01" rms="4.5464292168617249e-01" purity="2.9426461458206177e-01" nType="0">
                <Node pos="l" depth="5" NCoef="0" IVar="4" Cut="5.5259533226490021e-02" cType="1" res="-1.3614311814308167e-01" rms="4.6361154317855835e-01" purity="3.1552210450172424e-01" nType="0">
                  <Node pos="l" depth="6" NCoef="0" IVar="-1" Cut="0.0000000000000000e+00" cType="1" res="-1.7034349963068962e-02" rms="4.4603618979454041e-01" purity="2.7567800879478455e-01" nType="-99"/>
                  <Node pos="r" depth="6" NCoef="0" IVar="-1" Cut="0.0000000000000000e+00" cType="1" res="-8.8369818404316902e-03" rms="4.7708067297935486e-01" purity="3.5492554306983948e-01" nType="-99"/>
                </Node>
                <Node pos="r" depth="5" NCoef="0" IVar="-1" Cut="0.0000000000000000e+00" cType="1" res="-1.8725469708442688e-02" rms="4.3545767664909363e-01" purity="2.5525060296058655e-01" nType="-99"/>
              </Node>
            </Node>
          </Node>
          <Node pos="r" depth="2" NCoef="0" IVar="3" Cut="4.6549600362777710e-01" cType="1" res="-2.9026427865028381e-01" rms="2.8255200386047363e-01" purity="9.0144887566566467e-02" nType="0">
            <Node pos="l" depth="3" NCoef="0" IVar="0" Cut="1.5502732992172241e+00" cType="1" res="-3.0471819639205933e-01" rms="2.4867714941501617e-01" purity="6.7172676324844360e-02" nType="0">
              <Node pos="l" depth="4" NCoef="0" IVar="4" Cut="1.3846673071384430e-01" cType="1" res="-2.8829157352447510e-01" rms="2.9146656394004822e-01" purity="9.4429247081279755e-02" nType="0">
                <Node pos="l" depth="5" NCoef="0" IVar="2" Cut="1.0384037780761719e+02" cType="1" res="-2.9931443929672241e-01" rms="2.7183735370635986e-01" purity="8.0856457352638245e-02" nType="0">
                  <Node pos="l" depth="6" NCoef="0" IVar="-1" Cut="0.0000000000000000e+00" cType="1" res="-3.1713422387838364e-02" rms="3.1314963102340698e-01" purity="1.1078262329101562e-01" nType="-99"/>
                  <Node pos="r" depth="6" NCoef="0" IVar="0" Cut="1.2873272895812988e+00" cType="1" res="-3.1053563952445984e-01" rms="2.5325515866279602e-01" purity="6.9334827363491058e-02" nType="0">
                    <Node pos="l" depth="7" NCoef="0" IVar="-1" Cut="0.0000000000000000e+00" cType="1" res="-3.4444715827703476e-02" rms="2.7462902665138245e-01" purity="8.2387596368789673e-02" nType="-99"/>
                    <Node pos="r" depth="7" NCoef="0" IVar="-1" Cut="0.0000000000000000e+00" cType="1" res="-3.9135284721851349e-02" rms="2.0205469429492950e-01" purity="4.2842354625463486e-02" nType="-99"/>
                  </Node>
                </Node>
                <Node pos="r" depth="5" NCoef="0" IVar="3" Cut="3.3357721567153931e-01" cType="1" res="-2.6572948694229126e-01" rms="3.2684457302093506e-01" purity="1.2221057713031769e-01" nType="0">
                  <Node pos="l" depth="6" NCoef="0" IVar="-1" Cut="0.0000000000000000e+00" cType="1" res="-3.3673126250505447e-02" rms="3.0225959420204163e-01" purity="1.0206594318151474e-01" nType="-99"/>
                  <Node pos="r" depth="6" NCoef="0" IVar="-1" Cut="0.0000000000000000e+00" cType="1" res="-2.6727296411991119e-02" rms="3.5713163018226624e-01" purity="1.5044125914573669e-01" nType="-99"/>
                </Node>
              </Node>
              <Node pos="r" depth="4" NCoef="0" IVar="5" Cut="4.0000000000000000e+00" cType="1" res="-3.1728050112724304e-01" rms="2.0742902159690857e-01" purity="4.5259587466716766e-02" nType="0">
                <Node pos="l" depth="5" NCoef="0" IVar="-1" Cut="0.0000000000000000e+00" cType="1" res="-3.4527752548456192e-02" rms="2.8860661387443542e-01" purity="9.2065669596195221e-02" nType="-99"/>
                <Node pos="r" depth="5" NCoef="0" IVar="4" Cut="1.5316329896450043e-01" cType="1" res="-3.2448157668113708e-01" rms="1.8917413055896759e-01" purity="3.7407919764518738e-02" nType="0">
                  <Node pos="l" depth="6" NCoef="0" IVar="4" Cut="9.8938532173633575e-02" cType="1" res="-3.3015638589859009e-01" rms="1.6818864643573761e-01" purity="2.9213920235633850e-02" nType="0">
                    <Node pos="l" depth="7" NCoef="0" IVar="-1" Cut="0.0000000000000000e+00" cType="1" res="-4.2633648961782455e-02" rms="1.5452782809734344e-01" purity="2.4535076692700386e-02" nType="-99"/>
                    <Node pos="r" depth="7" NCoef="0" IVar="-1" Cut="0.0000000000000000e+00" cType="1" res="-4.1991662234067917e-02" rms="1.9080555438995361e-01" purity="3.7951625883579254e-02" nType="-99"/>
                  </Node>
                  <Node pos="r" depth="6" NCoef="0" IVar="-1" Cut="0.0000000000000000e+00" cType="1" res="-3.9286822080612183e-02" rms="2.4856306612491608e-01" purity="6.6376544535160065e-02" nType="-99"/>
                </Node>
              </Node>
            </Node>
            <Node pos="r" depth="3" NCoef="0" IVar="3" Cut="5.6742626428604126e-01" cType="1" res="-2.3207360506057739e-01" rms="3.8478115200996399e-01" purity="1.8262974917888641e-01" nType="0">
              <Node pos="l" depth="4" NCoef="0" IVar="2" Cut="1.5390228271484375e+02" cType="1" res="-2.4963219463825226e-01" rms="3.6552026867866516e-01" purity="1.5963216125965118e-01" nType="0">
                <Node pos="l" depth="5" NCoef="0" IVar="-1" Cut="0.0000000000000000e+00" cType="1" res="-2.4246072396636009e-02" rms="3.8391730189323425e-01" purity="1.8029552698135376e-01" nType="-99"/>
                <Node pos="r" depth="5" NCoef="0" IVar="-1" Cut="0.0000000000000000e+00" cType="1" res="-2.8900833800435066e-02" rms="3.4640982747077942e-01" purity="1.4031451940536499e-01" nType="-99"/>
              </Node>
              <Node pos="r" depth="4" NCoef="0" IVar="-1" Cut="0.0000000000000000e+00" cType="1" res="-1.7373740673065186e-02" rms="4.3648400902748108e-01" purity="2.5690400600433350e-01" nType="-99"/>
            </Node>
          </Node>
        </Node>
        <Node pos="r" depth="1" NCoef="0" IVar="3" Cut="8.2485258579254150e-01" cType="1" res="1.5383163094520569e-01" rms="4.5409449934959412e-01" purity="6.9468879699707031e-01" nType="0">
          <Node pos="l" depth="2" NCoef="0" IVar="0" Cut="2.7377742528915405e-01" cType="1" res="4.0632162243127823e-02" rms="4.9370899796485901e-01" purity="5.5086290836334229e-01" nType="0">
            <Node pos="l" depth="3" NCoef="0" IVar="1" Cut="6.7560499906539917e-01" cType="1" res="7.4898265302181244e-02" rms="4.8889487981796265e-01" purity="5.9432804584503174e-01" nType="0">
              <Node pos="l" depth="4" NCoef="0" IVar="3" Cut="7.4091029167175293e-01" cType="1" res="8.7098002433776855e-02" rms="4.8647141456604004e-01" purity="6.0926616191864014e-01" nType="0">
                <Node pos="l" depth="5" NCoef="0" IVar="3" Cut="6.9180691242218018e-01" cType="1" res="4.3261602520942688e-02" rms="4.9591270089149475e-01" purity="5.5592393875122070e-01" nType="0">
                  <Node pos="l" depth="6" NCoef="0" IVar="-1" Cut="0.0000000000000000e+00" cType="1" res="6.3891458557918668e-04" rms="4.9918732047080994e-01" purity="5.1506543159484863e-01" nType="-99"/>
                  <Node pos="r" depth="6" NCoef="0" IVar="1" Cut="5.2833646535873413e-02" cType="1" res="6.4937017858028412e-02" rms="4.9265581369400024e-01" purity="5.8068054914474487e-01" nType="0">
                    <Node pos="l" depth="7" NCoef="0" IVar="-1" Cut="0.0000000000000000e+00" cType="1" res="7.0172674022614956e-03" rms="4.8820385336875916e-01" purity="6.0572957992553711e-01" nType="-99"/>
                    <Node pos="r" depth="7" NCoef="0" IVar="-1" Cut="0.0000000000000000e+00" cType="1" res="3.1247178558260202e-03" rms="4.9726614356040955e-01" purity="5.4648929834365845e-01" nType="-99"/>
                  </Node>
                </Node>
                <Node pos="r" depth="5" NCoef="0" IVar="1" Cut="2.5722749531269073e-02" cType="1" res="1.1563389748334885e-01" rms="4.7807064652442932e-01" purity="6.4398998022079468e-01" nType="0">
                  <Node pos="l" depth="6" NCoef="0" IVar="2" Cut="8.1874000549316406e+01" cType="1" res="1.3746163249015808e-01" rms="4.6991956233978271e-01" purity="6.7001259326934814e-01" nType="0">
                    <Node pos="l" depth="7" NCoef="0" IVar="-1" Cut="0.0000000000000000e+00" cType="1" res="1.2215035967528820e-02" rms="4.6142023801803589e-01" purity="6.9193130731582642e-01" nType="-99"/>
                    <Node pos="r" depth="7" NCoef="0" IVar="-1" Cut="0.0000000000000000e+00" cType="1" res="1.0101370513439178e-02" rms="4.7599974274635315e-01" purity="6.5222573280334473e-01" nType="-99"/>
                  </Node>
                  <Node pos="r" depth="6" NCoef="0" IVar="3" Cut="7.8694343566894531e-01" cType="1" res="8.9939273893833160e-02" rms="4.8623713850975037e-01" purity="6.1335730552673340e-01" nType="0">
                    <Node pos="l" depth="7" NCoef="0" IVar="-1" Cut="0.0000000000000000e+00" cType="1" res="5.4277395829558372e-03" rms="4.9178317189216614e-01" purity="5.8646535873413086e-01" nType="-99"/>
                    <Node pos="r" depth="7" NCoef="0" IVar="-1" Cut="0.0000000000000000e+00" cType="1" res="8.9853731915354729e-03" rms="4.8039162158966064e-01" purity="6.3637202978134155e-01" nType="-99"/>
                  </Node>
                </Node>
              </Node>
              <Node pos="r" depth="4" NCoef="0" IVar="-1" Cut="0.0000000000000000e+00" cType="1" res="-4.3689142912626266e-03" rms="4.9598067998886108e-01" purity="4.3967285752296448e-01" nType="-99"/>
            </Node>
            <Node pos="r" depth="3" NCoef="0" IVar="3" Cut="7.1291655302047729e-01" cType="1" res="-3.8353320211172104e-02" rms="4.9568855762481689e-01" purity="4.5067301392555237e-01" nType="0">
              <Node pos="l" depth="4" NCoef="0" IVar="2" Cut="1.4267225646972656e+02" cType="1" res="-7.5037091970443726e-02" rms="4.8971381783485413e-01" purity="4.0386328101158142e-01" nType="0">
                <Node pos="l" depth="5" NCoef="0" IVar="-1" Cut="0.0000000000000000e+00" cType="1" res="-4.4833146966993809e-03" rms="4.9414366483688354e-01" purity="4.2999041080474854e-01" nType="-99"/>
                <Node pos="r" depth="5" NCoef="0" IVar="-1" Cut="0.0000000000000000e+00" cType="1" res="-1.0111994110047817e-02" rms="4.8181480169296265e-01" purity="3.6854064464569092e-01" nType="-99"/>
              </Node>
              <Node pos="r" depth="4" NCoef="0" IVar="2" Cut="9.8943656921386719e+01" cType="1" res="-6.5558082424104214e-03" rms="4.9863106012344360e-01" purity="4.9124768376350403e-01" nType="0">
                <Node pos="l" depth="5" NCoef="0" IVar="-1" Cut="0.0000000000000000e+00" cType="1" res="1.6870445106178522e-03" rms="4.9837705492973328e-01" purity="5.2258533239364624e-01" nType="-99"/>
                <Node pos="r" depth="5" NCoef="0" IVar="-1" Cut="0.0000000000000000e+00" cType="1" res="-2.7736171614378691e-03" rms="4.9759259819984436e-01" purity="4.6265658736228943e-01" nType="-99"/>
              </Node>
            </Node>
          </Node>
          <Node pos="r" depth="2" NCoef="0" IVar="0" Cut="2.7856886386871338e-01" cType="1" res="1.9821795821189880e-01" rms="4.2951694130897522e-01" purity="7.5108397006988525e-01" nType="0">
            <Node pos="l" depth="3" NCoef="0" IVar="1" Cut="6.3376551866531372e-01" cType="1" res="2.0942558348178864e-01" rms="4.2265596985816956e-01" purity="7.6487183570861816e-01" nType="0">
              <Node pos="l" depth="4" NCoef="0" IVar="3" Cut="9.3615514039993286e-01" cType="1" res="2.1976836025714874e-01" rms="4.1513451933860779e-01" purity="7.7768129110336304e-01" nType="0">
                <Node pos="l" depth="5" NCoef="0" IVar="1" Cut="2.5263068079948425e-01" cType="1" res="1.7925789952278137e-01" rms="4.4395750761032104e-01" purity="7.2887736558914185e-01" nType="0">
                  <Node pos="l" depth="6" NCoef="0" IVar="3" Cut="8.6434638500213623e-01" cType="1" res="1.8879052996635437e-01" rms="4.3804168701171875e-01" purity="7.4047237634658813e-01" nType="0">
                    <Node pos="l" depth="7" NCoef="0" IVar="-1" Cut="0.0000000000000000e+00" cType="1" res="1.3198275119066238e-02" rms="4.5259091258049011e-01" purity="7.1231228113174438e-01" nType="-99"/>
                    <Node pos="r" depth="7" NCoef="0" IVar="-1" Cut="0.0000000000000000e+00" cType="1" res="1.7520029097795486e-02" rms="4.2724207043647766e-01" purity="7.5959944725036621e-01" nType="-99"/>
                  </Node>
                  <Node pos="r" depth="6" NCoef="0" IVar="-1" Cut="0.0000000000000000e+00" cType="1" res="1.0979133658111095e-02" rms="4.6928158402442932e-01" purity="6.7154902219772339e-01" nType="-99"/>
                </Node>
                <Node pos="r" depth="5" NCoef="0" IVar="3" Cut="9.6966689825057983e-01" cType="1" res="2.3647075891494751e-01" rms="4.0146222710609436e-01" purity="7.9780310392379761e-01" nType="0">
                  <Node pos="l" depth="6" NCoef="0" IVar="-1" Cut="0.0000000000000000e+00" cType="1" res="1.6256727278232574e-02" rms="4.2232942581176758e-01" purity="7.6723873615264893e-01" nType="-99"/>
                  <Node pos="r" depth="6" NCoef="0" IVar="3" Cut="1.0020962953567505e+00" cType="1" res="2.3862701654434204e-01" rms="3.9982300996780396e-01" purity="8.0001598596572876e-01" nType="0">
                    <Node pos="l" depth="7" NCoef="0" IVar="-1" Cut="0.0000000000000000e+00" cType="1" res="1.8410312011837959e-02" rms="4.0228751301765442e-01" purity="7.9670631885528564e-01" nType="-99"/>
                    <Node pos="r" depth="7" NCoef="0" IVar="-1" Cut="0.0000000000000000e+00" cType="1" res="1.8602859228849411e-02" rms="3.9549160003662109e-01" purity="8.0570125579833984e-01" nType="-99"/>
                  </Node>
                </Node>
              </Node>
              <Node pos="r" depth="4" NCoef="0" IVar="3" Cut="9.6906638145446777e-01" cType="1" res="9.8278403282165527e-02" rms="4.8254710435867310e-01" purity="6.2721669673919678e-01" nType="0">
                <Node pos="l" depth="5" NCoef="0" IVar="-1" Cut="0.0000000000000000e+00" cType="1" res="2.4639631155878305e-03" rms="4.9678459763526917e-01" purity="5.5224066972732544e-01" nType="-99"/>
                <Node pos="r" depth="5" NCoef="0" IVar="-1" Cut="0.0000000000000000e+00" cType="1" res="1.0225121863186359e-02" rms="4.7163668274879456e-01" purity="6.6417902708053589e-01" nType="-99"/>
              </Node>
            </Node>
            <Node pos="r" depth="3" NCoef="0" IVar="0" Cut="5.4826533794403076e-01" cType="1" res="1.4390350319445133e-02" rms="4.9449989199638367e-01" purity="5.2493572235107422e-01" nType="0">
              <Node pos="l" depth="4" NCoef="0" IVar="-1" Cut="0.0000000000000000e+00" cType="1" res="6.9257616996765137e-03" rms="4.8563545942306519e-01" purity="6.1605221033096313e-01" nType="-99"/>
              <Node pos="r" depth="4" NCoef="0" IVar="-1" Cut="0.0000000000000000e+00" cType="1" res="-7.3790368624031544e-03" rms="4.8994556069374084e-01" purity="4.0017306804656982e-01" nType="-99"/>
            </Node>
          </Node>
        </Node>
      </Node>
    </BinaryTree>
    <BinaryTree type="DecisionTree" boostWeight="1.0000000000000000e+00" itree="7">
      <Node pos="s" depth="0" NCoef="0" IVar="3" Cut="6.5238207578659058e-01" cType="1" res="9.1286282986402512e-03" rms="4.5871749520301819e-01" purity="4.9917766451835632e-01" nType="0">
        <Node pos="l" depth="1" NCoef="0" IVar="0" Cut="6.4430773258209229e-01" cType="1" res="-2.2161401808261871e-01" rms="3.6429107189178467e-01" purity="1.7257134616374969e-01" nType="0">
          <Node pos="l" depth="2" NCoef="0" IVar="3" Cut="5.4912680387496948e-01" cType="1" res="-1.3645492494106293e-01" rms="4.5435449481010437e-01" purity="3.0457898974418640e-01" nType="0">
            <Node pos="l" depth="3" NCoef="0" IVar="0" Cut="2.0779656246304512e-02" cType="1" res="-1.8611833453178406e-01" rms="4.2096608877182007e-01" purity="2.3517864942550659e-01" nType="0">
              <Node pos="l" depth="4" NCoef="0" IVar="3" Cut="4.4520142674446106e-01" cType="1" res="-1.5148851275444031e-01" rms="4.4862836599349976e-01" purity="2.8377908468246460e-01" nType="0">
                <Node pos="l" depth="5" NCoef="0" IVar="-1" Cut="0.0000000000000000e+00" cType="1" res="-1.8400628119707108e-02" rms="4.2834818363189697e-01" purity="2.4295304715633392e-01" nType="-99"/>
                <Node pos="r" depth="5" NCoef="0" IVar="-1" Cut="0.0000000000000000e+00" cType="1" res="-1.1050620116293430e-02" rms="4.7091645002365112e-01" purity="3.3536657691001892e-01" nType="-99"/>
              </Node>
              <Node pos="r" depth="4" NCoef="0" IVar="3" Cut="4.8040747642517090e-01" cType="1" res="-2.0785115659236908e-01" rms="4.0111246705055237e-01" purity="2.0467822253704071e-01" nType="0">
                <Node pos="l" depth="5" NCoef="0" IVar="0" Cut="4.7578218579292297e-01" cType="1" res="-2.3160164058208466e-01" rms="3.7285438179969788e-01" purity="1.6770181059837341e-01" nType="0">
                  <Node pos="l" depth="6" NCoef="0" IVar="-1" Cut="0.0000000000000000e+00" cType="1" res="-2.3441961035132408e-02" rms="3.8582640886306763e-01" purity="1.8278211355209351e-01" nType="-99"/>
                  <Node pos="r" depth="6" NCoef="0" IVar="-1" Cut="0.0000000000000000e+00" cType="1" res="-2.8242366388440132e-02" rms="3.5210159420967102e-01" purity="1.4571546018123627e-01" nType="-99"/>
                </Node>
                <Node pos="r" depth="5" NCoef="0" IVar="-1" Cut="0.0000000000000000e+00" cType="1" res="-1.6776023432612419e-02" rms="4.3917742371559143e-01" purity="2.6258820295333862e-01" nType="-99"/>
              </Node>
            </Node>
            <Node pos="r" depth="3" NCoef="0" IVar="1" Cut="2.3955836892127991e-01" cType="1" res="-8.0126374959945679e-02" rms="4.8333784937858582e-01" purity="3.8329330086708069e-01" nType="0">
              <Node pos="l" depth="4" NCoef="0" IVar="0" Cut="3.3251887559890747e-01" cType="1" res="-4.8204962164163589e-02" rms="4.9138489365577698e-01" purity="4.1942575573921204e-01" nType="0">
                <Node pos="l" depth="5" NCoef="0" IVar="2" Cut="2.3456430053710938e+02" cType="1" res="-1.7925720661878586e-02" rms="4.9762916564941406e-01" purity="4.6184289455413818e-01" nType="0">
                  <Node pos="l" depth="6" NCoef="0" IVar="-1" Cut="0.0000000000000000e+00" cType="1" res="7.4043287895619869e-04" rms="4.9943298101425171e-01" purity="4.9286586046218872e-01" nType="-99"/>
                  <Node pos="r" depth="6" NCoef="0" IVar="-1" Cut="0.0000000000000000e+00" cType="1" res="-5.2102049812674522e-03" rms="4.9239307641983032e-01" purity="4.1644543409347534e-01" nType="-99"/>
                </Node>
                <Node pos="r" depth="5" NCoef="0" IVar="-1" Cut="0.0000000000000000e+00" cType="1" res="-8.0540487542748451e-03" rms="4.8020765185356140e-01" purity="3.6388099193572998e-01" nType="-99"/>
              </Node>
              <Node pos="r" depth="4" NCoef="0" IVar="1" Cut="5.4262071847915649e-01" cType="1" res="-1.4543206989765167e-01" rms="4.5958593487739563e-01" purity="3.0937254428863525e-01" nType="0">
                <Node pos="l" depth="5" NCoef="0" IVar="-1" Cut="0.0000000000000000e+00" cType="1" res="-9.1729778796434402e-03" rms="4.7652965784072876e-01" purity="3.5797068476676941e-01" nType="-99"/>
                <Node pos="r" depth="5" NCoef="0" IVar="-1" Cut="0.0000000000000000e+00" cType="1" res="-1.9641892984509468e-02" rms="4.3257451057434082e-01" purity="2.5208497047424316e-01" nType="-99"/>
              </Node>
            </Node>
          </Node>
          <Node pos="r" depth="2" NCoef="0" IVar="3" Cut="4.8730364441871643e-01" cType="1" res="-2.7583071589469910e-01" rms="2.7966254949569702e-01" purity="8.8528431951999664e-02" nType="0">
            <Node pos="l" depth="3" NCoef="0" IVar="4" Cut="1.4121992886066437e-01" cType="1" res="-2.8852725028991699e-01" rms="2.4909065663814545e-01" purity="6.7631915211677551e-02" nType="0">
              <Node pos="l" depth="4" NCoef="0" IVar="3" Cut="4.1076985001564026e-01" cType="1" res="-2.9772266745567322e-01" rms="2.2776487469673157e-01" purity="5.5789273232221603e-02" nType="0">
                <Node pos="l" depth="5" NCoef="0" IVar="5" Cut="4.0000000000000000e+00" cType="1" res="-2.9949694871902466e-01" rms="1.9991868734359741e-01" purity="4.1158571839332581e-02" nType="0">
                  <Node pos="l" depth="6" NCoef="0" IVar="-1" Cut="0.0000000000000000e+00" cType="1" res="-3.5462908446788788e-02" rms="2.6044926047325134e-01" purity="7.3137126863002777e-02" nType="-99"/>
                  <Node pos="r" depth="6" NCoef="0" IVar="3" Cut="3.4657770395278931e-01" cType="1" res="-3.0951741337776184e-01" rms="1.8615968525409698e-01" purity="3.6295164376497269e-02" nType="0">
                    <Node pos="l" depth="7" NCoef="0" IVar="-1" Cut="0.0000000000000000e+00" cType="1" res="-4.1502073407173157e-02" rms="1.6033945977687836e-01" purity="2.6471164077520370e-02" nType="-99"/>
                    <Node pos="r" depth="7" NCoef="0" IVar="-1" Cut="0.0000000000000000e+00" cType="1" res="-3.5255264490842819e-02" rms="2.4241971969604492e-01" purity="6.3047111034393311e-02" nType="-99"/>
                  </Node>
                </Node>
                <Node pos="r" depth="5" NCoef="0" IVar="4" Cut="8.2438722252845764e-02" cType="1" res="-2.7263894677162170e-01" rms="3.0224594473838806e-01" purity="1.0206198692321777e-01" nType="0">
                  <Node pos="l" depth="6" NCoef="0" IVar="-1" Cut="0.0000000000000000e+00" cType="1" res="-3.2726373523473740e-02" rms="2.8513285517692566e-01" purity="8.9637540280818939e-02" nType="-99"/>
                  <Node pos="r" depth="6" NCoef="0" IVar="-1" Cut="0.0000000000000000e+00" cType="1" res="-2.9299495741724968e-02" rms="3.2376027107238770e-01" purity="1.1920046061277390e-01" nType="-99"/>
                </Node>
              </Node>
              <Node pos="r" depth="4" NCoef="0" IVar="3" Cut="3.3478048443794250e-01" cType="1" res="-2.6413905620574951e-01" rms="2.9698190093040466e-01" purity="9.9041052162647247e-02" nType="0">
                <Node pos="l" depth="5" NCoef="0" IVar="4" Cut="2.2385066747665405e-01" cType="1" res="-2.7713298797607422e-01" rms="2.7258622646331787e-01" purity="8.1536732614040375e-02" nType="0">
                  <Node pos="l" depth="6" NCoef="0" IVar="3" Cut="2.5350919365882874e-01" cType="1" res="-2.9195496439933777e-01" rms="2.4420458078384399e-01" purity="6.4103752374649048e-02" nType="0">
                    <Node pos="l" depth="7" NCoef="0" IVar="-1" Cut="0.0000000000000000e+00" cType="1" res="-4.0210664272308350e-02" rms="2.2241312265396118e-01" purity="5.2544679492712021e-02" nType="-99"/>
                    <Node pos="r" depth="7" NCoef="0" IVar="-1" Cut="0.0000000000000000e+00" cType="1" res="-3.5575971007347107e-02" rms="2.6665252447128296e-01" purity="7.7312409877777100e-02" nType="-99"/>
                  </Node>
                  <Node pos="r" depth="6" NCoef="0" IVar="-1" Cut="0.0000000000000000e+00" cType="1" res="-2.9980132356286049e-02" rms="3.2249623537063599e-01" purity="1.1857052892446518e-01" nType="-99"/>
                </Node>
                <Node pos="r" depth="5" NCoef="0" IVar="-1" Cut="0.0000000000000000e+00" cType="1" res="-2.4767789989709854e-02" rms="3.6205598711967468e-01" purity="1.5601281821727753e-01" nType="-99"/>
              </Node>
            </Node>
            <Node pos="r" depth="3" NCoef="0" IVar="3" Cut="5.7249021530151367e-01" cType="1" res="-2.0960195362567902e-01" rms="3.9661741256713867e-01" purity="1.9753085076808929e-01" nType="0">
              <Node pos="l" depth="4" NCoef="0" IVar="4" Cut="7.9066030681133270e-02" cType="1" res="-2.2860835492610931e-01" rms="3.7686306238174438e-01" purity="1.7207822203636169e-01" nType="0">
                <Node pos="l" depth="5" NCoef="0" IVar="-1" Cut="0.0000000000000000e+00" cType="1" res="-2.6276776567101479e-02" rms="3.6069753766059875e-01" purity="1.5435473620891571e-01" nType="-99"/>
                <Node pos="r" depth="5" NCoef="0" IVar="-1" Cut="0.0000000000000000e+00" cType="1" res="-2.1769870072603226e-02" rms="3.9642861485481262e-01" purity="1.9602377712726593e-01" nType="-99"/>
              </Node>
              <Node pos="r" depth="4" NCoef="0" IVar="-1" Cut="0.0000000000000000e+00" cType="1" res="-1.5628175809979439e-02" rms="4.4057616591453552e-01" purity="2.6459905505180359e-01" nType="-99"/>
            </Node>
          </Node>
        </Node>
        <Node pos="r" depth="1" NCoef="0" IVar="3" Cut="8.2585465908050537e-01" cType="1" res="1.4605875313282013e-01" rms="4.5408600568771362e-01" purity="6.9299638271331787e-01" nType="0">
          <Node pos="l" depth="2" NCoef="0" IVar="0" Cut="2.8154513239860535e-01" cType="1" res="3.6319527775049210e-02" rms="4.9362128973007202e-01" purity="5.4831337928771973e-01" nType="0">
            <Node pos="l" depth="3" NCoef="0" IVar="3" Cut="7.5870656967163086e-01" cType="1" res="6.5774090588092804e-02" rms="4.8975518345832825e-01" purity="5.8813798427581787e-01" nType="0">
              <Node pos="l" depth="4" NCoef="0" IVar="0" Cut="9.0817306190729141e-03" cType="1" res="3.3608041703701019e-02" rms="4.9599468708038330e-01" purity="5.4792445898056030e-01" nType="0">
                <Node pos="l" depth="5" NCoef="0" IVar="1" Cut="1.0055496543645859e-01" cType="1" res="4.6349085867404938e-02" rms="4.9447080492973328e-01" purity="5.6265687942504883e-01" nType="0">
                  <Node pos="l" depth="6" NCoef="0" IVar="2" Cut="1.6737191772460938e+02" cType="1" res="0.0000000000000000e+00" rms="0.0000000000000000e+00" purity="5.9761106967926025e-01" nType="0">
                    <Node pos="l" depth="7" NCoef="0" IVar="-1" Cut="0.0000000000000000e+00" cType="1" res="7.5454181060194969e-03" rms="4.8412615060806274e-01" purity="6.2287592887878418e-01" nType="-99"/>
                    <Node pos="r" depth="7" NCoef="0" IVar="-1" Cut="0.0000000000000000e+00" cType="1" res="3.5787599626928568e-03" rms="4.9606311321258545e-01" purity="5.6003004312515259e-01" nType="-99"/>
                  </Node>
                  <Node pos="r" depth="6" NCoef="0" IVar="2" Cut="1.6314277648925781e+02" cType="1" res="6.6005764529109001e-03" rms="4.9839615821838379e-01" purity="5.1328545808792114e-01" nType="0">
                    <Node pos="l" depth="7" NCoef="0" IVar="-1" Cut="0.0000000000000000e+00" cType="1" res="9.9149660672992468e-04" rms="4.9786138534545898e-01" purity="5.2052336931228638e-01" nType="-99"/>
                    <Node pos="r" depth="7" NCoef="0" IVar="-1" Cut="0.0000000000000000e+00" cType="1" res="1.0040886991191655e-04" rms="4.9887144565582275e-01" purity="5.0604182481765747e-01" nType="-99"/>
                  </Node>
                </Node>
                <Node pos="r" depth="5" NCoef="0" IVar="-1" Cut="0.0000000000000000e+00" cType="1" res="-1.4982779975980520e-03" rms="4.9879342317581177e-01" purity="4.9049460887908936e-01" nType="-99"/>
              </Node>
              <Node pos="r" depth="4" NCoef="0" IVar="1" Cut="3.3169686794281006e-01" cType="1" res="9.7202017903327942e-02" rms="4.8151019215583801e-01" purity="6.2742871046066284e-01" nType="0">
                <Node pos="l" depth="5" NCoef="0" IVar="1" Cut="4.6019643545150757e-02" cType="1" res="1.2071663886308670e-01" rms="4.7432404756546021e-01" purity="6.5702855587005615e-01" nType="0">
                  <Node pos="l" depth="6" NCoef="0" IVar="2" Cut="1.1865848541259766e+02" cType="1" res="1.3003510236740112e-01" rms="4.7060906887054443e-01" purity="6.6820484399795532e-01" nType="0">
                    <Node pos="l" depth="7" NCoef="0" IVar="-1" Cut="0.0000000000000000e+00" cType="1" res="1.0969659313559532e-02" rms="4.6676164865493774e-01" purity="6.7858892679214478e-01" nType="-99"/>
                    <Node pos="r" depth="7" NCoef="0" IVar="-1" Cut="0.0000000000000000e+00" cType="1" res="9.7416453063488007e-03" rms="4.7611626982688904e-01" purity="6.5210425853729248e-01" nType="-99"/>
                  </Node>
                  <Node pos="r" depth="6" NCoef="0" IVar="-1" Cut="0.0000000000000000e+00" cType="1" res="8.3842622116208076e-03" rms="4.8117676377296448e-01" purity="6.3450157642364502e-01" nType="-99"/>
                </Node>
                <Node pos="r" depth="5" NCoef="0" IVar="-1" Cut="0.0000000000000000e+00" cType="1" res="5.2702485118061304e-04" rms="4.9800071120262146e-01" purity="5.1299887895584106e-01" nType="-99"/>
              </Node>
            </Node>
            <Node pos="r" depth="3" NCoef="0" IVar="3" Cut="7.0832532644271851e-01" cType="1" res="-3.6130923777818680e-02" rms="4.9561116099357605e-01" purity="4.5035541057586670e-01" nType="0">
              <Node pos="l" depth="4" NCoef="0" IVar="5" Cut="3.0000000000000000e+00" cType="1" res="-7.5917206704616547e-02" rms="4.8616188764572144e-01" purity="3.9584249258041382e-01" nType="0">
                <Node pos="l" depth="5" NCoef="0" IVar="-1" Cut="0.0000000000000000e+00" cType="1" res="-9.8939724266529083e-03" rms="4.7962671518325806e-01" purity="3.6098325252532959e-01" nType="-99"/>
                <Node pos="r" depth="5" NCoef="0" IVar="-1" Cut="0.0000000000000000e+00" cType="1" res="-4.6965824440121651e-03" rms="4.9399492144584656e-01" purity="4.2750665545463562e-01" nType="-99"/>
              </Node>
              <Node pos="r" depth="4" NCoef="0" IVar="2" Cut="1.3783444213867188e+02" cType="1" res="-2.8337491676211357e-03" rms="4.9883365631103516e-01" purity="4.9248480796813965e-01" nType="0">
                <Node pos="l" depth="5" NCoef="0" IVar="-1" Cut="0.0000000000000000e+00" cType="1" res="1.0216555092483759e-03" rms="4.9883875250816345e-01" purity="5.1127243041992188e-01" nType="-99"/>
                <Node pos="r" depth="5" NCoef="0" IVar="-1" Cut="0.0000000000000000e+00" cType="1" res="-2.4021889548748732e-03" rms="4.9786794185638428e-01" purity="4.6252626180648804e-01" nType="-99"/>
              </Node>
            </Node>
          </Node>
          <Node pos="r" depth="2" NCoef="0" IVar="0" Cut="2.6778465509414673e-01" cType="1" res="1.8891994655132294e-01" rms="4.3013894557952881e-01" purity="7.4950563907623291e-01" nType="0">
            <Node pos="l" depth="3" NCoef="0" IVar="1" Cut="8.0569756031036377e-01" cType="1" res="1.9923433661460876e-01" rms="4.2371666431427002e-01" purity="7.6290887594223022e-01" nType="0">
              <Node pos="l" depth="4" NCoef="0" IVar="3" Cut="9.0045064687728882e-01" cType="1" res="2.0646296441555023e-01" rms="4.1843214631080627e-01" purity="7.7235114574432373e-01" nType="0">
                <Node pos="l" depth="5" NCoef="0" IVar="1" Cut="2.6737737655639648e-01" cType="1" res="1.5616968274116516e-01" rms="4.5266374945640564e-01" purity="7.1089792251586914e-01" nType="0">
                  <Node pos="l" depth="6" NCoef="0" IVar="3" Cut="8.8119971752166748e-01" cType="1" res="1.6515238583087921e-01" rms="4.4716319441795349e-01" purity="7.2297781705856323e-01" nType="0">
                    <Node pos="l" depth="7" NCoef="0" IVar="-1" Cut="0.0000000000000000e+00" cType="1" res="1.2471191585063934e-02" rms="4.5333623886108398e-01" purity="7.1041804552078247e-01" nType="-99"/>
                    <Node pos="r" depth="7" NCoef="0" IVar="-1" Cut="0.0000000000000000e+00" cType="1" res="1.7180867493152618e-02" rms="4.2713305354118347e-01" purity="7.5981801748275757e-01" nType="-99"/>
                  </Node>
                  <Node pos="r" depth="6" NCoef="0" IVar="-1" Cut="0.0000000000000000e+00" cType="1" res="9.5875756815075874e-03" rms="4.7413614392280579e-01" purity="6.5763074159622192e-01" nType="-99"/>
                </Node>
                <Node pos="r" depth="5" NCoef="0" IVar="1" Cut="2.7437400817871094e-01" cType="1" res="2.2200024127960205e-01" rms="4.0601789951324463e-01" purity="7.9133611917495728e-01" nType="0">
                  <Node pos="l" depth="6" NCoef="0" IVar="3" Cut="9.7023415565490723e-01" cType="1" res="2.2902505099773407e-01" rms="3.9972814917564392e-01" purity="8.0024337768554688e-01" nType="0">
                    <Node pos="l" depth="7" NCoef="0" IVar="-1" Cut="0.0000000000000000e+00" cType="1" res="1.6982907429337502e-02" rms="4.1973167657852173e-01" purity="7.7167546749114990e-01" nType="-99"/>
                    <Node pos="r" depth="7" NCoef="0" IVar="-1" Cut="0.0000000000000000e+00" cType="1" res="1.8198555335402489e-02" rms="3.9599019289016724e-01" purity="8.0520373582839966e-01" nType="-99"/>
                  </Node>
                  <Node pos="r" depth="6" NCoef="0" IVar="3" Cut="9.9423593282699585e-01" cType="1" res="1.8885329365730286e-01" rms="4.3293449282646179e-01" purity="7.4930673837661743e-01" nType="0">
                    <Node pos="l" depth="7" NCoef="0" IVar="-1" Cut="0.0000000000000000e+00" cType="1" res="1.2029662728309631e-02" rms="4.5473185181617737e-01" purity="7.0637315511703491e-01" nType="-99"/>
                    <Node pos="r" depth="7" NCoef="0" IVar="-1" Cut="0.0000000000000000e+00" cType="1" res="1.5579866245388985e-02" rms="4.2325517535209656e-01" purity="7.6577299833297729e-01" nType="-99"/>
                  </Node>
                </Node>
              </Node>
              <Node pos="r" depth="4" NCoef="0" IVar="3" Cut="9.9723136425018311e-01" cType="1" res="8.2141630351543427e-02" rms="4.8689606785774231e-01" purity="6.0995888710021973e-01" nType="0">
                <Node pos="l" depth="5" NCoef="0" IVar="-1" Cut="0.0000000000000000e+00" cType="1" res="3.1727429013699293e-03" rms="4.9522966146469116e-01" purity="5.6262469291687012e-01" nType="-99"/>
                <Node pos="r" depth="5" NCoef="0" IVar="-1" Cut="0.0000000000000000e+00" cType="1" res="1.0268553160130978e-02" rms="4.7110021114349365e-01" purity="6.6696339845657349e-01" nType="-99"/>
              </Node>
            </Node>
            <Node pos="r" depth="3" NCoef="0" IVar="0" Cut="5.2697348594665527e-01" cType="1" res="2.7064215391874313e-02" rms="4.9315726757049561e-01" purity="5.3917938470840454e-01" nType="0">
              <Node pos="l" depth="4" NCoef="0" IVar="-1" Cut="0.0000000000000000e+00" cType="1" res="7.3750060983002186e-03" rms="4.8284769058227539e-01" purity="6.2768042087554932e-01" nType="-99"/>
              <Node pos="r" depth="4" NCoef="0" IVar="-1" Cut="0.0000000000000000e+00" cType="1" res="-4.8558320850133896e-03" rms="4.9391666054725647e-01" purity="4.2502930760383606e-01" nType="-99"/>
            </Node>
          </Node>
        </Node>
      </Node>
    </BinaryTree>
    <BinaryTree type="DecisionTree" boostWeight="1.0000000000000000e+00" itree="8">
      <Node pos="s" depth="0" NCoef="0" IVar="3" Cut="7.1639901399612427e-01" cType="1" res="9.7021851688623428e-03" rms="4.5457842946052551e-01" purity="4.9864900112152100e-01" nType="0">
        <Node pos="l" depth="1" NCoef="0" IVar="3" Cut="5.3467011451721191e-01" cType="1" res="-1.8551331758499146e-01" rms="3.8848102092742920e-01" purity="2.1173587441444397e-01" nType="0">
          <Node pos="l" depth="2" NCoef="0" IVar="0" Cut="9.6534436941146851e-01" cType="1" res="-2.4600178003311157e-01" rms="3.1028613448143005e-01" purity="1.1385536938905716e-01" nType="0">
            <Node pos="l" depth="3" NCoef="0" IVar="0" Cut="3.1135786324739456e-02" cType="1" res="-1.9990366697311401e-01" rms="3.9238131046295166e-01" purity="1.9485081732273102e-01" nType="0">
              <Node pos="l" depth="4" NCoef="0" IVar="3" Cut="4.5040196180343628e-01" cType="1" res="-1.5147258341312408e-01" rms="4.4382563233375549e-01" purity="2.7341631054878235e-01" nType="0">
                <Node pos="l" depth="5" NCoef="0" IVar="-1" Cut="0.0000000000000000e+00" cType="1" res="-1.7641400918364525e-02" rms="4.2851591110229492e-01" purity="2.4329589307308197e-01" nType="-99"/>
                <Node pos="r" depth="5" NCoef="0" IVar="-1" Cut="0.0000000000000000e+00" cType="1" res="-1.1477195657789707e-02" rms="4.6678057312965393e-01" purity="3.2355239987373352e-01" nType="-99"/>
              </Node>
              <Node pos="r" depth="4" NCoef="0" IVar="1" Cut="3.5207551717758179e-01" cType="1" res="-2.1551978588104248e-01" rms="3.7295064330101013e-01" purity="1.6951814293861389e-01" nType="0">
                <Node pos="l" depth="5" NCoef="0" IVar="2" Cut="1.9793765258789062e+02" cType="1" res="-2.0097373425960541e-01" rms="3.8620492815971375e-01" purity="1.8542307615280151e-01" nType="0">
                  <Node pos="l" depth="6" NCoef="0" IVar="4" Cut="7.4333466589450836e-02" cType="1" res="-1.6898337006568909e-01" rms="4.1183406114578247e-01" purity="2.2058342397212982e-01" nType="0">
                    <Node pos="l" depth="7" NCoef="0" IVar="-1" Cut="0.0000000000000000e+00" cType="1" res="-2.1494438871741295e-02" rms="3.8685902953147888e-01" purity="1.8774360418319702e-01" nType="-99"/>
                    <Node pos="r" depth="7" NCoef="0" IVar="-1" Cut="0.0000000000000000e+00" cType="1" res="-1.4658463187515736e-02" rms="4.3137517571449280e-01" purity="2.5090506672859192e-01" nType="-99"/>
                  </Node>
                  <Node pos="r" depth="6" NCoef="0" IVar="0" Cut="5.2899456024169922e-01" cType="1" res="-2.1925848722457886e-01" rms="3.6951941251754761e-01" purity="1.6532646119594574e-01" nType="0">
                    <Node pos="l" depth="7" NCoef="0" IVar="-1" Cut="0.0000000000000000e+00" cType="1" res="-2.1040095016360283e-02" rms="3.9702102541923523e-01" purity="1.9772331416606903e-01" nType="-99"/>
                    <Node pos="r" depth="7" NCoef="0" IVar="-1" Cut="0.0000000000000000e+00" cType="1" res="-2.6386972516775131e-02" rms="3.4548008441925049e-01" purity="1.3976129889488220e-01" nType="-99"/>
                  </Node>
                </Node>
                <Node pos="r" depth="5" NCoef="0" IVar="4" Cut="1.2750226259231567e-01" cType="1" res="-2.4786628782749176e-01" rms="3.3941131830215454e-01" purity="1.3414984941482544e-01" nType="0">
                  <Node pos="l" depth="6" NCoef="0" IVar="-1" Cut="0.0000000000000000e+00" cType="1" res="-2.9831148684024811e-02" rms="3.2152286171913147e-01" purity="1.1850520968437195e-01" nType="-99"/>
                  <Node pos="r" depth="6" NCoef="0" IVar="-1" Cut="0.0000000000000000e+00" cType="1" res="-2.5175929069519043e-02" rms="3.6413666605949402e-01" purity="1.5847614407539368e-01" nType="-99"/>
                </Node>
              </Node>
            </Node>
            <Node pos="r" depth="3" NCoef="0" IVar="4" Cut="1.6700300574302673e-01" cType="1" res="-2.7650615572929382e-01" rms="2.3615384101867676e-01" purity="6.0258492827415466e-02" nType="0">
              <Node pos="l" depth="4" NCoef="0" IVar="3" Cut="3.9998796582221985e-01" cType="1" res="-2.8153073787689209e-01" rms="2.2346852719783783e-01" purity="5.3626477718353271e-02" nType="0">
                <Node pos="l" depth="5" NCoef="0" IVar="5" Cut="4.0000000000000000e+00" cType="1" res="-2.8236448764801025e-01" rms="1.9642236828804016e-01" purity="3.9825920015573502e-02" nType="0">
                  <Node pos="l" depth="6" NCoef="0" IVar="-1" Cut="0.0000000000000000e+00" cType="1" res="-3.4240014851093292e-02" rms="2.5938054919242859e-01" purity="7.2537824511528015e-02" nType="-99"/>
                  <Node pos="r" depth="6" NCoef="0" IVar="4" Cut="8.1136263906955719e-02" cType="1" res="-2.9193243384361267e-01" rms="1.8308399617671967e-01" purity="3.4938901662826538e-02" nType="0">
                    <Node pos="l" depth="7" NCoef="0" IVar="-1" Cut="0.0000000000000000e+00" cType="1" res="-3.9260644465684891e-02" rms="1.6328509151935577e-01" purity="2.7496116235852242e-02" nType="-99"/>
                    <Node pos="r" depth="7" NCoef="0" IVar="-1" Cut="0.0000000000000000e+00" cType="1" res="-3.8368552923202515e-02" rms="1.9775548577308655e-01" purity="4.1059937328100204e-02" nType="-99"/>
                  </Node>
                </Node>
                <Node pos="r" depth="5" NCoef="0" IVar="1" Cut="2.2907927632331848e-01" cType="1" res="-2.5737625360488892e-01" rms="3.0110457539558411e-01" purity="1.0152173787355423e-01" nType="0">
                  <Node pos="l" depth="6" NCoef="0" IVar="-1" Cut="0.0000000000000000e+00" cType="1" res="-2.7202432975172997e-02" rms="3.2744202017784119e-01" purity="1.2272750586271286e-01" nType="-99"/>
                  <Node pos="r" depth="6" NCoef="0" IVar="-1" Cut="0.0000000000000000e+00" cType="1" res="-3.2418645918369293e-02" rms="2.7617731690406799e-01" purity="8.3865463733673096e-02" nType="-99"/>
                </Node>
              </Node>
              <Node pos="r" depth="4" NCoef="0" IVar="4" Cut="2.0416118204593658e-01" cType="1" res="-2.5067517161369324e-01" rms="2.9145398736000061e-01" purity="9.4353064894676208e-02" nType="0">
                <Node pos="l" depth="5" NCoef="0" IVar="-1" Cut="0.0000000000000000e+00" cType="1" res="-3.4051172435283661e-02" rms="2.7163100242614746e-01" purity="8.0993369221687317e-02" nType="-99"/>
                <Node pos="r" depth="5" NCoef="0" IVar="-1" Cut="0.0000000000000000e+00" cType="1" res="-3.0489303171634674e-02" rms="3.0774581432342529e-01" purity="1.0632333904504776e-01" nType="-99"/>
              </Node>
            </Node>
          </Node>
          <Node pos="r" depth="2" NCoef="0" IVar="0" Cut="5.5802154541015625e-01" cType="1" res="-7.5964644551277161e-02" rms="4.8088142275810242e-01" purity="3.8900405168533325e-01" nType="0">
            <Node pos="l" depth="3" NCoef="0" IVar="0" Cut="3.6000385880470276e-01" cType="1" res="-5.0344485789537430e-02" rms="4.9061620235443115e-01" purity="4.2699259519577026e-01" nType="0">
              <Node pos="l" depth="4" NCoef="0" IVar="3" Cut="6.3433456420898438e-01" cType="1" res="-2.7498686686158180e-02" rms="4.9520474672317505e-01" purity="4.5934361219406128e-01" nType="0">
                <Node pos="l" depth="5" NCoef="0" IVar="2" Cut="1.9916316223144531e+02" cType="1" res="-7.0892676711082458e-02" rms="4.8754164576530457e-01" purity="3.9794132113456726e-01" nType="0">
                  <Node pos="l" depth="6" NCoef="0" IVar="-1" Cut="0.0000000000000000e+00" cType="1" res="-3.4358627162873745e-03" rms="4.9409031867980957e-01" purity="4.3577572703361511e-01" nType="-99"/>
                  <Node pos="r" depth="6" NCoef="0" IVar="-1" Cut="0.0000000000000000e+00" cType="1" res="-9.3968352302908897e-03" rms="4.7952461242675781e-01" purity="3.6286321282386780e-01" nType="-99"/>
                </Node>
                <Node pos="r" depth="5" NCoef="0" IVar="1" Cut="3.0264535546302795e-01" cType="1" res="3.3463966101408005e-03" rms="4.9828797578811646e-01" purity="5.0298929214477539e-01" nType="0">
                  <Node pos="l" depth="6" NCoef="0" IVar="2" Cut="8.2344383239746094e+01" cType="1" res="2.4367259815335274e-02" rms="4.9824702739715576e-01" purity="5.2819806337356567e-01" nType="0">
                    <Node pos="l" depth="7" NCoef="0" IVar="-1" Cut="0.0000000000000000e+00" cType="1" res="4.7179576940834522e-03" rms="4.9510839581489563e-01" purity="5.6552445888519287e-01" nType="-99"/>
                    <Node pos="r" depth="7" NCoef="0" IVar="-1" Cut="0.0000000000000000e+00" cType="1" res="9.0865074889734387e-04" rms="4.9884888529777527e-01" purity="5.1292526721954346e-01" nType="-99"/>
                  </Node>
                  <Node pos="r" depth="6" NCoef="0" IVar="-1" Cut="0.0000000000000000e+00" cType="1" res="-5.6396718136966228e-03" rms="4.9234765768051147e-01" purity="4.2172655463218689e-01" nType="-99"/>
                </Node>
              </Node>
              <Node pos="r" depth="4" NCoef="0" IVar="2" Cut="1.8083782958984375e+02" cType="1" res="-1.0415221005678177e-01" rms="4.7531646490097046e-01" purity="3.5079774260520935e-01" nType="0">
                <Node pos="l" depth="5" NCoef="0" IVar="4" Cut="5.1396451890468597e-02" cType="1" res="-8.5398524999618530e-02" rms="4.8195755481719971e-01" purity="3.7294685840606689e-01" nType="0">
                  <Node pos="l" depth="6" NCoef="0" IVar="-1" Cut="0.0000000000000000e+00" cType="1" res="-1.0740104131400585e-02" rms="4.7311270236968994e-01" purity="3.4270203113555908e-01" nType="-99"/>
                  <Node pos="r" depth="6" NCoef="0" IVar="-1" Cut="0.0000000000000000e+00" cType="1" res="-4.8367036506533623e-03" rms="4.8891761898994446e-01" purity="4.0378239750862122e-01" nType="-99"/>
                </Node>
                <Node pos="r" depth="5" NCoef="0" IVar="-1" Cut="0.0000000000000000e+00" cType="1" res="-1.3064417056739330e-02" rms="4.6190333366394043e-01" purity="3.1272637844085693e-01" nType="-99"/>
              </Node>
            </Node>
            <Node pos="r" depth="3" NCoef="0" IVar="3" Cut="6.0501533746719360e-01" cType="1" res="-1.6886159777641296e-01" rms="4.3121394515037537e-01" purity="2.5126013159751892e-01" nType="0">
              <Node pos="l" depth="4" NCoef="0" IVar="4" Cut="6.8035155534744263e-02" cType="1" res="-1.8880230188369751e-01" rms="4.1351556777954102e-01" purity="2.2066693007946014e-01" nType="0">
                <Node pos="l" depth="5" NCoef="0" IVar="-1" Cut="0.0000000000000000e+00" cType="1" res="-2.2042224183678627e-02" rms="3.9459359645843506e-01" purity="1.9453024864196777e-01" nType="-99"/>
                <Node pos="r" depth="5" NCoef="0" IVar="-1" Cut="0.0000000000000000e+00" cType="1" res="-1.6529617831110954e-02" rms="4.2971020936965942e-01" purity="2.4620456993579865e-01" nType="-99"/>
              </Node>
              <Node pos="r" depth="4" NCoef="0" IVar="-1" Cut="0.0000000000000000e+00" cType="1" res="-1.3039316982030869e-02" rms="4.5851972699165344e-01" purity="3.0490359663963318e-01" nType="-99"/>
            </Node>
          </Node>
        </Node>
        <Node pos="r" depth="1" NCoef="0" IVar="3" Cut="8.4030741453170776e-01" cType="1" res="1.5794450044631958e-01" rms="4.4501930475234985e-01" purity="7.1652454137802124e-01" nType="0">
          <Node pos="l" depth="2" NCoef="0" IVar="1" Cut="6.3417464494705200e-01" cType="1" res="7.0882365107536316e-02" rms="4.8712107539176941e-01" purity="5.9770780801773071e-01" nType="0">
            <Node pos="l" depth="3" NCoef="0" IVar="0" Cut="2.0298233628273010e-01" cType="1" res="8.5813760757446289e-02" rms="4.8399531841278076e-01" purity="6.1638498306274414e-01" nType="0">
              <Node pos="l" depth="4" NCoef="0" IVar="3" Cut="7.8035360574722290e-01" cType="1" res="1.0734336823225021e-01" rms="4.7681528329849243e-01" purity="6.4754337072372437e-01" nType="0">
                <Node pos="l" depth="5" NCoef="0" IVar="1" Cut="4.4513791799545288e-02" cType="1" res="8.2853198051452637e-02" rms="4.8569735884666443e-01" purity="6.1526602506637573e-01" nType="0">
                  <Node pos="l" depth="6" NCoef="0" IVar="-1" Cut="0.0000000000000000e+00" cType="1" res="8.0779055133461952e-03" rms="4.8013937473297119e-01" purity="6.3802224397659302e-01" nType="-99"/>
                  <Node pos="r" depth="6" NCoef="0" IVar="-1" Cut="0.0000000000000000e+00" cType="1" res="5.0092060118913651e-03" rms="4.9232363700866699e-01" purity="5.8395975828170776e-01" nType="-99"/>
                </Node>
                <Node pos="r" depth="5" NCoef="0" IVar="1" Cut="2.2563552483916283e-02" cType="1" res="1.2499472498893738e-01" rms="4.6951800584793091e-01" purity="6.7080736160278320e-01" nType="0">
                  <Node pos="l" depth="6" NCoef="0" IVar="1" Cut="-1.0173085331916809e-01" cType="1" res="1.3737106323242188e-01" rms="4.6320426464080811e-01" purity="6.8788278102874756e-01" nType="0">
                    <Node pos="l" depth="7" NCoef="0" IVar="-1" Cut="0.0000000000000000e+00" cType="1" res="9.7014782950282097e-03" rms="4.6805837750434875e-01" purity="6.7561012506484985e-01" nType="-99"/>
                    <Node pos="r" depth="7" NCoef="0" IVar="-1" Cut="0.0000000000000000e+00" cType="1" res="1.1634321883320808e-02" rms="4.5817387104034424e-01" purity="6.9970512390136719e-01" nType="-99"/>
                  </Node>
                  <Node pos="r" depth="6" NCoef="0" IVar="-1" Cut="0.0000000000000000e+00" cType="1" res="8.6383186280727386e-03" rms="4.7693818807601929e-01" purity="6.4916813373565674e-01" nType="-99"/>
                </Node>
              </Node>
              <Node pos="r" depth="4" NCoef="0" IVar="2" Cut="1.2975839233398438e+02" cType="1" res="3.9994310587644577e-02" rms="4.9582999944686890e-01" purity="5.5007344484329224e-01" nType="0">
                <Node pos="l" depth="5" NCoef="0" IVar="4" Cut="4.0253333747386932e-02" cType="1" res="6.0504171997308731e-02" rms="4.9357983469963074e-01" purity="5.7338362932205200e-01" nType="0">
                  <Node pos="l" depth="6" NCoef="0" IVar="-1" Cut="0.0000000000000000e+00" cType="1" res="3.0183100607246161e-03" rms="4.9648833274841309e-01" purity="5.4923433065414429e-01" nType="-99"/>
                  <Node pos="r" depth="6" NCoef="0" IVar="-1" Cut="0.0000000000000000e+00" cType="1" res="7.4952896684408188e-03" rms="4.8828336596488953e-01" purity="6.0197031497955322e-01" nType="-99"/>
                </Node>
                <Node pos="r" depth="5" NCoef="0" IVar="-1" Cut="0.0000000000000000e+00" cType="1" res="6.1297096544876695e-04" rms="4.9766293168067932e-01" purity="5.1232135295867920e-01" nType="-99"/>
              </Node>
            </Node>
            <Node pos="r" depth="3" NCoef="0" IVar="-1" Cut="0.0000000000000000e+00" cType="1" res="-4.8329676501452923e-03" rms="4.9501740932464600e-01" purity="4.3813747167587280e-01" nType="-99"/>
          </Node>
          <Node pos="r" depth="2" NCoef="0" IVar="0" Cut="3.0660334229469299e-01" cType="1" res="1.8579165637493134e-01" rms="4.2695397138595581e-01" purity="7.5452846288681030e-01" nType="0">
            <Node pos="l" depth="3" NCoef="0" IVar="1" Cut="1.0076247453689575e+00" cType="1" res="1.9476673007011414e-01" rms="4.2118170857429504e-01" purity="7.6681798696517944e-01" nType="0">
              <Node pos="l" depth="4" NCoef="0" IVar="3" Cut="9.5180708169937134e-01" cType="1" res="2.0066380500793457e-01" rms="4.1684693098068237e-01" purity="7.7462381124496460e-01" nType="0">
                <Node pos="l" depth="5" NCoef="0" IVar="1" Cut="4.2514944076538086e-01" cType="1" res="1.6228514909744263e-01" rms="4.4468468427658081e-01" purity="7.2688204050064087e-01" nType="0">
                  <Node pos="l" depth="6" NCoef="0" IVar="3" Cut="8.8346815109252930e-01" cType="1" res="1.7019760608673096e-01" rms="4.3963545560836792e-01" purity="7.3741304874420166e-01" nType="0">
                    <Node pos="l" depth="7" NCoef="0" IVar="-1" Cut="0.0000000000000000e+00" cType="1" res="1.2730044312775135e-02" rms="4.4959250092506409e-01" purity="7.1825343370437622e-01" nType="-99"/>
                    <Node pos="r" depth="7" NCoef="0" IVar="-1" Cut="0.0000000000000000e+00" cType="1" res="1.6335463151335716e-02" rms="4.2789143323898315e-01" purity="7.5844687223434448e-01" nType="-99"/>
                  </Node>
                  <Node pos="r" depth="6" NCoef="0" IVar="-1" Cut="0.0000000000000000e+00" cType="1" res="7.7260690741240978e-03" rms="4.8150351643562317e-01" purity="6.3354760408401489e-01" nType="-99"/>
                </Node>
                <Node pos="r" depth="5" NCoef="0" IVar="1" Cut="4.8138523101806641e-01" cType="1" res="2.1554103493690491e-01" rms="4.0456420183181763e-01" purity="7.9313057661056519e-01" nType="0">
                  <Node pos="l" depth="6" NCoef="0" IVar="1" Cut="-2.7460217475891113e-02" cType="1" res="2.2055771946907043e-01" rms="3.9986565709114075e-01" purity="7.9991638660430908e-01" nType="0">
                    <Node pos="l" depth="7" NCoef="0" IVar="-1" Cut="0.0000000000000000e+00" cType="1" res="1.7828801646828651e-02" rms="3.9136555790901184e-01" purity="8.1107938289642334e-01" nType="-99"/>
                    <Node pos="r" depth="7" NCoef="0" IVar="-1" Cut="0.0000000000000000e+00" cType="1" res="1.6762305051088333e-02" rms="4.0723341703414917e-01" purity="7.8979706764221191e-01" nType="-99"/>
                  </Node>
                  <Node pos="r" depth="6" NCoef="0" IVar="1" Cut="6.5099608898162842e-01" cType="1" res="1.6341973841190338e-01" rms="4.4717231392860413e-01" purity="7.2262811660766602e-01" nType="0">
                    <Node pos="l" depth="7" NCoef="0" IVar="-1" Cut="0.0000000000000000e+00" cType="1" res="1.3899445533752441e-02" rms="4.3296191096305847e-01" purity="7.4995261430740356e-01" nType="-99"/>
                    <Node pos="r" depth="7" NCoef="0" IVar="-1" Cut="0.0000000000000000e+00" cType="1" res="1.0749389417469501e-02" rms="4.6138715744018555e-01" purity="6.9237327575683594e-01" nType="-99"/>
                  </Node>
                </Node>
              </Node>
              <Node pos="r" depth="4" NCoef="0" IVar="-1" Cut="0.0000000000000000e+00" cType="1" res="4.7897780314087868e-03" rms="4.9187582731246948e-01" purity="5.8653068542480469e-01" nType="-99"/>
            </Node>
            <Node pos="r" depth="3" NCoef="0" IVar="-1" Cut="0.0000000000000000e+00" cType="1" res="1.7669127555564046e-03" rms="4.9344605207443237e-01" purity="5.2924007177352905e-01" nType="-99"/>
          </Node>
        </Node>
      </Node>
    </BinaryTree>
    <BinaryTree type="DecisionTree" boostWeight="1.0000000000000000e+00" itree="9">
      <Node pos="s" depth="0" NCoef="0" IVar="3" Cut="7.1639901399612427e-01" cType="1" res="1.0164462961256504e-02" rms="4.5098707079887390e-01" purity="4.9831050634384155e-01" nType="0">
        <Node pos="l" depth="1" NCoef="0" IVar="3" Cut="5.3467142581939697e-01" cType="1" res="-1.7448490858078003e-01" rms="3.8768380880355835e-01" purity="2.1283458173274994e-01" nType="0">
          <Node pos="l" depth="2" NCoef="0" IVar="0" Cut="6.4488947391510010e-01" cType="1" res="-2.3172815144062042e-01" rms="3.1067198514938354e-01" purity="1.1476775258779526e-01" nType="0">
            <Node pos="l" depth="3" NCoef="0" IVar="0" Cut="2.0799405872821808e-02" cType="1" res="-1.6985583305358887e-01" rms="4.1727128624916077e-01" purity="2.2969932854175568e-01" nType="0">
              <Node pos="l" depth="4" NCoef="0" IVar="3" Cut="4.5039436221122742e-01" cType="1" res="-1.3429814577102661e-01" rms="4.4850930571556091e-01" purity="2.8324228525161743e-01" nType="0">
                <Node pos="l" depth="5" NCoef="0" IVar="-1" Cut="0.0000000000000000e+00" cType="1" res="-1.5479964204132557e-02" rms="4.3413189053535461e-01" purity="2.5318112969398499e-01" nType="-99"/>
                <Node pos="r" depth="5" NCoef="0" IVar="-1" Cut="0.0000000000000000e+00" cType="1" res="-9.8923370242118835e-03" rms="4.7028449177742004e-01" purity="3.3344700932502747e-01" nType="-99"/>
              </Node>
              <Node pos="r" depth="4" NCoef="0" IVar="3" Cut="4.5161885023117065e-01" cType="1" res="-1.9295679032802582e-01" rms="3.9394113421440125e-01" purity="1.9491378962993622e-01" nType="0">
                <Node pos="l" depth="5" NCoef="0" IVar="1" Cut="1.1876763403415680e-01" cType="1" res="-2.1533749997615814e-01" rms="3.6403375864028931e-01" purity="1.5812449157238007e-01" nType="0">
                  <Node pos="l" depth="6" NCoef="0" IVar="-1" Cut="0.0000000000000000e+00" cType="1" res="-2.1711343899369240e-02" rms="3.8255789875984192e-01" purity="1.7907291650772095e-01" nType="-99"/>
                  <Node pos="r" depth="6" NCoef="0" IVar="-1" Cut="0.0000000000000000e+00" cType="1" res="-2.7417182922363281e-02" rms="3.4206709265708923e-01" purity="1.3593085110187531e-01" nType="-99"/>
                </Node>
                <Node pos="r" depth="5" NCoef="0" IVar="-1" Cut="0.0000000000000000e+00" cType="1" res="-1.6961989924311638e-02" rms="4.2600899934768677e-01" purity="2.3978699743747711e-01" nType="-99"/>
              </Node>
            </Node>
            <Node pos="r" depth="3" NCoef="0" IVar="0" Cut="9.4655179977416992e-01" cType="1" res="-2.5246435403823853e-01" rms="2.6229262351989746e-01" purity="7.6248981058597565e-02" nType="0">
              <Node pos="l" depth="4" NCoef="0" IVar="1" Cut="2.3053270578384399e-01" cType="1" res="-2.1889984607696533e-01" rms="3.4617882966995239e-01" purity="1.4068789780139923e-01" nType="0">
                <Node pos="l" depth="5" NCoef="0" IVar="3" Cut="4.5143479108810425e-01" cType="1" res="-1.9743184745311737e-01" rms="3.6852547526359558e-01" purity="1.6405560076236725e-01" nType="0">
                  <Node pos="l" depth="6" NCoef="0" IVar="-1" Cut="0.0000000000000000e+00" cType="1" res="-2.5751419365406036e-02" rms="3.3989027142524719e-01" purity="1.3423718512058258e-01" nType="-99"/>
                  <Node pos="r" depth="6" NCoef="0" IVar="-1" Cut="0.0000000000000000e+00" cType="1" res="-1.8777459859848022e-02" rms="3.9672324061393738e-01" purity="1.9711714982986450e-01" nType="-99"/>
                </Node>
                <Node pos="r" depth="5" NCoef="0" IVar="-1" Cut="0.0000000000000000e+00" cType="1" res="-2.9100744053721428e-02" rms="3.1442332267761230e-01" purity="1.1185385286808014e-01" nType="-99"/>
              </Node>
              <Node pos="r" depth="4" NCoef="0" IVar="4" Cut="1.2798039615154266e-01" cType="1" res="-2.6003351807594299e-01" rms="2.3869533836841583e-01" purity="6.1717305332422256e-02" nType="0">
                <Node pos="l" depth="5" NCoef="0" IVar="3" Cut="4.1806286573410034e-01" cType="1" res="-2.6777738332748413e-01" rms="2.1937358379364014e-01" purity="5.1633525639772415e-02" nType="0">
                  <Node pos="l" depth="6" NCoef="0" IVar="5" Cut="4.0000000000000000e+00" cType="1" res="-2.6773002743721008e-01" rms="1.9395649433135986e-01" purity="3.8958162069320679e-02" nType="0">
                    <Node pos="l" depth="7" NCoef="0" IVar="-1" Cut="0.0000000000000000e+00" cType="1" res="-3.4054007381200790e-02" rms="2.4845598638057709e-01" purity="6.6099561750888824e-02" nType="-99"/>
                    <Node pos="r" depth="7" NCoef="0" IVar="-1" Cut="0.0000000000000000e+00" cType="1" res="-3.7426367402076721e-02" rms="1.8193979561328888e-01" purity="3.4530527889728546e-02" nType="-99"/>
                  </Node>
                  <Node pos="r" depth="6" NCoef="0" IVar="2" Cut="1.6580522155761719e+02" cType="1" res="-2.4686928093433380e-01" rms="3.0238449573516846e-01" purity="1.0234617441892624e-01" nType="0">
                    <Node pos="l" depth="7" NCoef="0" IVar="-1" Cut="0.0000000000000000e+00" cType="1" res="-2.7392389252781868e-02" rms="3.2125306129455566e-01" purity="1.1770676821470261e-01" nType="-99"/>
                    <Node pos="r" depth="7" NCoef="0" IVar="-1" Cut="0.0000000000000000e+00" cType="1" res="-3.0722508206963539e-02" rms="2.7777206897735596e-01" purity="8.4369994699954987e-02" nType="-99"/>
                  </Node>
                </Node>
                <Node pos="r" depth="5" NCoef="0" IVar="3" Cut="3.4978193044662476e-01" cType="1" res="-2.4304781854152679e-01" rms="2.7562448382377625e-01" purity="8.3835430443286896e-02" nType="0">
                  <Node pos="l" depth="6" NCoef="0" IVar="4" Cut="1.9721704721450806e-01" cType="1" res="-2.4959526956081390e-01" rms="2.5875946879386902e-01" purity="7.2782039642333984e-02" nType="0">
                    <Node pos="l" depth="7" NCoef="0" IVar="-1" Cut="0.0000000000000000e+00" cType="1" res="-3.5771142691373825e-02" rms="2.3260037600994110e-01" purity="5.7726252824068069e-02" nType="-99"/>
                    <Node pos="r" depth="7" NCoef="0" IVar="-1" Cut="0.0000000000000000e+00" cType="1" res="-3.0125496909022331e-02" rms="2.9924958944320679e-01" purity="9.9835284054279327e-02" nType="-99"/>
                  </Node>
                  <Node pos="r" depth="6" NCoef="0" IVar="-1" Cut="0.0000000000000000e+00" cType="1" res="-2.5526309385895729e-02" rms="3.3642637729644775e-01" purity="1.3064247369766235e-01" nType="-99"/>
                </Node>
              </Node>
            </Node>
          </Node>
          <Node pos="r" depth="2" NCoef="0" IVar="0" Cut="2.7901086211204529e-01" cType="1" res="-7.0743121206760406e-02" rms="4.8069342970848083e-01" purity="3.9056089520454407e-01" nType="0">
            <Node pos="l" depth="3" NCoef="0" IVar="3" Cut="5.9916073083877563e-01" cType="1" res="-1.4880402944982052e-02" rms="4.9589774012565613e-01" purity="4.7491046786308289e-01" nType="0">
              <Node pos="l" depth="4" NCoef="0" IVar="-1" Cut="0.0000000000000000e+00" cType="1" res="-7.2912685573101044e-03" rms="4.8438170552253723e-01" purity="3.8259539008140564e-01" nType="-99"/>
              <Node pos="r" depth="4" NCoef="0" IVar="0" Cut="1.8000134825706482e-01" cType="1" res="5.1735667511820793e-03" rms="4.9765497446060181e-01" purity="5.0320583581924438e-01" nType="0">
                <Node pos="l" depth="5" NCoef="0" IVar="1" Cut="2.2851519286632538e-01" cType="1" res="1.7563438042998314e-02" rms="4.9755522608757019e-01" purity="5.1805144548416138e-01" nType="0">
                  <Node pos="l" depth="6" NCoef="0" IVar="2" Cut="1.2203891754150391e+02" cType="1" res="3.9907127618789673e-02" rms="4.9644717574119568e-01" purity="5.4677802324295044e-01" nType="0">
                    <Node pos="l" depth="7" NCoef="0" IVar="-1" Cut="0.0000000000000000e+00" cType="1" res="6.0305013321340084e-03" rms="4.9045470356941223e-01" purity="5.9349983930587769e-01" nType="-99"/>
                    <Node pos="r" depth="7" NCoef="0" IVar="-1" Cut="0.0000000000000000e+00" cType="1" res="1.3941021170467138e-03" rms="4.9859368801116943e-01" purity="5.1811969280242920e-01" nType="-99"/>
                  </Node>
                  <Node pos="r" depth="6" NCoef="0" IVar="-1" Cut="0.0000000000000000e+00" cType="1" res="-2.9711143579334021e-03" rms="4.9624222517013550e-01" purity="4.5115908980369568e-01" nType="-99"/>
                </Node>
                <Node pos="r" depth="5" NCoef="0" IVar="-1" Cut="0.0000000000000000e+00" cType="1" res="-4.2095920071005821e-03" rms="4.9495017528533936e-01" purity="4.4368788599967957e-01" nType="-99"/>
              </Node>
            </Node>
            <Node pos="r" depth="3" NCoef="0" IVar="0" Cut="5.4904079437255859e-01" cType="1" res="-1.1468100547790527e-01" rms="4.6368351578712463e-01" purity="3.2421717047691345e-01" nType="0">
              <Node pos="l" depth="4" NCoef="0" IVar="3" Cut="5.9917128086090088e-01" cType="1" res="-8.2909300923347473e-02" rms="4.8151966929435730e-01" purity="3.7319731712341309e-01" nType="0">
                <Node pos="l" depth="5" NCoef="0" IVar="-1" Cut="0.0000000000000000e+00" cType="1" res="-1.2654544785618782e-02" rms="4.6144375205039978e-01" purity="3.0911529064178467e-01" nType="-99"/>
                <Node pos="r" depth="5" NCoef="0" IVar="1" Cut="6.7184075713157654e-02" cType="1" res="-6.3980303704738617e-02" rms="4.8781988024711609e-01" purity="3.9819243550300598e-01" nType="0">
                  <Node pos="l" depth="6" NCoef="0" IVar="-1" Cut="0.0000000000000000e+00" cType="1" res="-1.6234761569648981e-03" rms="4.9579164385795593e-01" purity="4.4738945364952087e-01" nType="-99"/>
                  <Node pos="r" depth="6" NCoef="0" IVar="-1" Cut="0.0000000000000000e+00" cType="1" res="-9.9606569856405258e-03" rms="4.7629484534263611e-01" purity="3.5215729475021362e-01" nType="-99"/>
                </Node>
              </Node>
              <Node pos="r" depth="4" NCoef="0" IVar="2" Cut="1.4158088684082031e+02" cType="1" res="-1.6223806142807007e-01" rms="4.3127125501632690e-01" purity="2.5090187788009644e-01" nType="0">
                <Node pos="l" depth="5" NCoef="0" IVar="-1" Cut="0.0000000000000000e+00" cType="1" res="-1.3127339072525501e-02" rms="4.4695040583610535e-01" purity="2.8133827447891235e-01" nType="-99"/>
                <Node pos="r" depth="5" NCoef="0" IVar="-1" Cut="0.0000000000000000e+00" cType="1" res="-1.9710302352905273e-02" rms="4.1326719522476196e-01" purity="2.2067311406135559e-01" nType="-99"/>
              </Node>
            </Node>
          </Node>
        </Node>
        <Node pos="r" depth="1" NCoef="0" IVar="3" Cut="8.4030735492706299e-01" cType="1" res="1.5032692253589630e-01" rms="4.4515460729598999e-01" purity="7.1500778198242188e-01" nType="0">
          <Node pos="l" depth="2" NCoef="0" IVar="1" Cut="1.6820482909679413e-01" cType="1" res="6.5006814897060394e-02" rms="4.8715153336524963e-01" purity="5.9448283910751343e-01" nType="0">
            <Node pos="l" depth="3" NCoef="0" IVar="0" Cut="2.8154513239860535e-01" cType="1" res="9.7488872706890106e-02" rms="4.7926497459411621e-01" purity="6.3503205776214600e-01" nType="0">
              <Node pos="l" depth="4" NCoef="0" IVar="3" Cut="7.8435164690017700e-01" cType="1" res="1.0951589047908783e-01" rms="4.7444060444831848e-01" purity="6.5496277809143066e-01" nType="0">
                <Node pos="l" depth="5" NCoef="0" IVar="2" Cut="1.6681874084472656e+02" cType="1" res="8.6350366473197937e-02" rms="4.8356100916862488e-01" purity="6.2422841787338257e-01" nType="0">
                  <Node pos="l" depth="6" NCoef="0" IVar="-1" Cut="0.0000000000000000e+00" cType="1" res="8.2345828413963318e-03" rms="4.7892147302627563e-01" purity="6.4078438282012939e-01" nType="-99"/>
                  <Node pos="r" depth="6" NCoef="0" IVar="-1" Cut="0.0000000000000000e+00" cType="1" res="4.8515652306377888e-03" rms="4.9143958091735840e-01" purity="5.9046763181686401e-01" nType="-99"/>
                </Node>
                <Node pos="r" depth="5" NCoef="0" IVar="4" Cut="4.8882406204938889e-02" cType="1" res="1.2785772979259491e-01" rms="4.6627736091613770e-01" purity="6.7929744720458984e-01" nType="0">
                  <Node pos="l" depth="6" NCoef="0" IVar="4" Cut="3.1718470156192780e-02" cType="1" res="1.1145854741334915e-01" rms="4.7217240929603577e-01" purity="6.6254067420959473e-01" nType="0">
                    <Node pos="l" depth="7" NCoef="0" IVar="-1" Cut="0.0000000000000000e+00" cType="1" res="8.2902135327458382e-03" rms="4.7639513015747070e-01" purity="6.5023797750473022e-01" nType="-99"/>
                    <Node pos="r" depth="7" NCoef="0" IVar="-1" Cut="0.0000000000000000e+00" cType="1" res="9.9800368770956993e-03" rms="4.6780842542648315e-01" purity="6.7423468828201294e-01" nType="-99"/>
                  </Node>
                  <Node pos="r" depth="6" NCoef="0" IVar="-1" Cut="0.0000000000000000e+00" cType="1" res="1.1489004828035831e-02" rms="4.5835363864898682e-01" purity="6.9934815168380737e-01" nType="-99"/>
                </Node>
              </Node>
              <Node pos="r" depth="4" NCoef="0" IVar="-1" Cut="0.0000000000000000e+00" cType="1" res="3.5901097580790520e-03" rms="4.9683818221092224e-01" purity="5.4516196250915527e-01" nType="-99"/>
            </Node>
            <Node pos="r" depth="3" NCoef="0" IVar="1" Cut="7.8816354274749756e-01" cType="1" res="4.4934931211173534e-03" rms="4.9587112665176392e-01" purity="5.1894080638885498e-01" nType="0">
              <Node pos="l" depth="4" NCoef="0" IVar="0" Cut="2.0298227667808533e-01" cType="1" res="3.5029001533985138e-02" rms="4.9430254101753235e-01" purity="5.5587935447692871e-01" nType="0">
                <Node pos="l" depth="5" NCoef="0" IVar="3" Cut="7.8435087203979492e-01" cType="1" res="6.7427054047584534e-02" rms="4.8950299620628357e-01" purity="5.9652298688888550e-01" nType="0">
                  <Node pos="l" depth="6" NCoef="0" IVar="-1" Cut="0.0000000000000000e+00" cType="1" res="2.7739421930164099e-03" rms="4.9651628732681274e-01" purity="5.5300098657608032e-01" nType="-99"/>
                  <Node pos="r" depth="6" NCoef="0" IVar="-1" Cut="0.0000000000000000e+00" cType="1" res="7.3816291987895966e-03" rms="4.8173010349273682e-01" purity="6.3276886940002441e-01" nType="-99"/>
                </Node>
                <Node pos="r" depth="5" NCoef="0" IVar="-1" Cut="0.0000000000000000e+00" cType="1" res="-2.2817163262516260e-03" rms="4.9752599000930786e-01" purity="4.7996386885643005e-01" nType="-99"/>
              </Node>
              <Node pos="r" depth="4" NCoef="0" IVar="-1" Cut="0.0000000000000000e+00" cType="1" res="-9.5599824562668800e-03" rms="4.8538354039192200e-01" purity="3.8331398367881775e-01" nType="-99"/>
            </Node>
          </Node>
          <Node pos="r" depth="2" NCoef="0" IVar="0" Cut="2.7856871485710144e-01" cType="1" res="1.7772340774536133e-01" rms="4.2720270156860352e-01" purity="7.5370860099792480e-01" nType="0">
            <Node pos="l" depth="3" NCoef="0" IVar="1" Cut="6.2209284305572510e-01" cType="1" res="1.8689960241317749e-01" rms="4.2117524147033691e-01" purity="7.6664960384368896e-01" nType="0">
              <Node pos="l" depth="4" NCoef="0" IVar="3" Cut="9.4563919305801392e-01" cType="1" res="1.9577132165431976e-01" rms="4.1410750150680542e-01" purity="7.7910524606704712e-01" nType="0">
                <Node pos="l" depth="5" NCoef="0" IVar="1" Cut="1.3410407304763794e-01" cType="1" res="1.6254512965679169e-01" rms="4.4057983160018921e-01" purity="7.3517918586730957e-01" nType="0">
                  <Node pos="l" depth="6" NCoef="0" IVar="3" Cut="8.7768346071243286e-01" cType="1" res="1.7400424182415009e-01" rms="4.3264910578727722e-01" purity="7.4995148181915283e-01" nType="0">
                    <Node pos="l" depth="7" NCoef="0" IVar="-1" Cut="0.0000000000000000e+00" cType="1" res="1.2557126581668854e-02" rms="4.4665244221687317e-01" purity="7.2440159320831299e-01" nType="-99"/>
                    <Node pos="r" depth="7" NCoef="0" IVar="-1" Cut="0.0000000000000000e+00" cType="1" res="1.6595894470810890e-02" rms="4.1959404945373535e-01" purity="7.7186107635498047e-01" nType="-99"/>
                  </Node>
                  <Node pos="r" depth="6" NCoef="0" IVar="4" Cut="2.9540166258811951e-02" cType="1" res="1.3306277990341187e-01" rms="4.5904386043548584e-01" purity="6.9717252254486084e-01" nType="0">
                    <Node pos="l" depth="7" NCoef="0" IVar="-1" Cut="0.0000000000000000e+00" cType="1" res="9.6148103475570679e-03" rms="4.6682375669479370e-01" purity="6.7742031812667847e-01" nType="-99"/>
                    <Node pos="r" depth="7" NCoef="0" IVar="-1" Cut="0.0000000000000000e+00" cType="1" res="1.2511076405644417e-02" rms="4.5198839902877808e-01" purity="7.1291041374206543e-01" nType="-99"/>
                  </Node>
                </Node>
                <Node pos="r" depth="5" NCoef="0" IVar="3" Cut="9.7735178470611572e-01" cType="1" res="2.0815435051918030e-01" rms="4.0309795737266541e-01" purity="7.9547601938247681e-01" nType="0">
                  <Node pos="l" depth="6" NCoef="0" IVar="3" Cut="9.6609890460968018e-01" cType="1" res="1.8683025240898132e-01" rms="4.1864088177680969e-01" purity="7.7274626493453979e-01" nType="0">
                    <Node pos="l" depth="7" NCoef="0" IVar="-1" Cut="0.0000000000000000e+00" cType="1" res="1.4549235813319683e-02" rms="4.2061787843704224e-01" purity="7.6954418420791626e-01" nType="-99"/>
                    <Node pos="r" depth="7" NCoef="0" IVar="-1" Cut="0.0000000000000000e+00" cType="1" res="1.4745506457984447e-02" rms="4.1660818457603455e-01" purity="7.7600318193435669e-01" nType="-99"/>
                  </Node>
                  <Node pos="r" depth="6" NCoef="0" IVar="1" Cut="-2.4505965411663055e-01" cType="1" res="2.1027219295501709e-01" rms="4.0145960450172424e-01" purity="7.9773348569869995e-01" nType="0">
                    <Node pos="l" depth="7" NCoef="0" IVar="-1" Cut="0.0000000000000000e+00" cType="1" res="1.4036632142961025e-02" rms="4.1264152526855469e-01" purity="7.8225058317184448e-01" nType="-99"/>
                    <Node pos="r" depth="7" NCoef="0" IVar="-1" Cut="0.0000000000000000e+00" cType="1" res="1.6788454726338387e-02" rms="4.0055269002914429e-01" purity="7.9892396926879883e-01" nType="-99"/>
                  </Node>
                </Node>
              </Node>
              <Node pos="r" depth="4" NCoef="0" IVar="3" Cut="9.8252904415130615e-01" cType="1" res="9.3140706419944763e-02" rms="4.7974637150764465e-01" purity="6.3501423597335815e-01" nType="0">
                <Node pos="l" depth="5" NCoef="0" IVar="-1" Cut="0.0000000000000000e+00" cType="1" res="1.7476206412538886e-03" rms="4.9649518728256226e-01" purity="5.5215525627136230e-01" nType="-99"/>
                <Node pos="r" depth="5" NCoef="0" IVar="-1" Cut="0.0000000000000000e+00" cType="1" res="9.9668707698583603e-03" rms="4.6706107258796692e-01" purity="6.7605906724929810e-01" nType="-99"/>
              </Node>
            </Node>
            <Node pos="r" depth="3" NCoef="0" IVar="0" Cut="5.4825508594512939e-01" cType="1" res="2.4967368692159653e-02" rms="4.9283999204635620e-01" purity="5.3828060626983643e-01" nType="0">
              <Node pos="l" depth="4" NCoef="0" IVar="-1" Cut="0.0000000000000000e+00" cType="1" res="6.9572646170854568e-03" rms="4.8318478465080261e-01" purity="6.2625724077224731e-01" nType="-99"/>
              <Node pos="r" depth="4" NCoef="0" IVar="-1" Cut="0.0000000000000000e+00" cType="1" res="-5.0807441584765911e-03" rms="4.9361383914947510e-01" purity="4.2034214735031128e-01" nType="-99"/>
            </Node>
          </Node>
        </Node>
      </Node>
    </BinaryTree>
    <BinaryTree type="DecisionTree" boostWeight="1.0000000000000000e+00" itree="10">
      <Node pos="s" depth="0" NCoef="0" IVar="3" Cut="7.1570873260498047e-01" cType="1" res="1.2058504857122898e-02" rms="4.4738009572029114e-01" purity="4.9941080808639526e-01" nType="0">
        <Node pos="l" depth="1" NCoef="0" IVar="3" Cut="5.5660873651504517e-01" cType="1" res="-1.6472636163234711e-01" rms="3.8634133338928223e-01" purity="2.1277679502964020e-01" nType="0">
          <Node pos="l" depth="2" NCoef="0" IVar="0" Cut="6.4506113529205322e-01" cType="1" res="-2.1382461488246918e-01" rms="3.2029527425765991e-01" purity="1.2433391809463501e-01" nType="0">
            <Node pos="l" depth="3" NCoef="0" IVar="3" Cut="4.8689052462577820e-01" cType="1" res="-1.5556339919567108e-01" rms="4.2385974526405334e-01" purity="2.4159772694110870e-01" nType="0">
              <Node pos="l" depth="4" NCoef="0" IVar="4" Cut="2.0353314280509949e-01" cType="1" res="-1.7607559263706207e-01" rms="4.0124696493148804e-01" purity="2.0445659756660461e-01" nType="0">
                <Node pos="l" depth="5" NCoef="0" IVar="3" Cut="3.9588397741317749e-01" cType="1" res="-1.9526995718479156e-01" rms="3.8487905263900757e-01" purity="1.8306149542331696e-01" nType="0">
                  <Node pos="l" depth="6" NCoef="0" IVar="-1" Cut="0.0000000000000000e+00" cType="1" res="-2.5502923876047134e-02" rms="3.5258537530899048e-01" purity="1.4619225263595581e-01" nType="-99"/>
                  <Node pos="r" depth="6" NCoef="0" IVar="0" Cut="3.5374119877815247e-01" cType="1" res="-1.8073835968971252e-01" rms="4.0143966674804688e-01" purity="2.0412029325962067e-01" nType="0">
                    <Node pos="l" depth="7" NCoef="0" IVar="-1" Cut="0.0000000000000000e+00" cType="1" res="-1.7124949023127556e-02" rms="4.2086553573608398e-01" purity="2.3176591098308563e-01" nType="-99"/>
                    <Node pos="r" depth="7" NCoef="0" IVar="-1" Cut="0.0000000000000000e+00" cType="1" res="-2.1656991913914680e-02" rms="3.7964594364166260e-01" purity="1.7561560869216919e-01" nType="-99"/>
                  </Node>
                </Node>
                <Node pos="r" depth="5" NCoef="0" IVar="-1" Cut="0.0000000000000000e+00" cType="1" res="-1.5305371023714542e-02" rms="4.2569896578788757e-01" purity="2.4089917540550232e-01" nType="-99"/>
              </Node>
              <Node pos="r" depth="4" NCoef="0" IVar="1" Cut="1.9849561154842377e-02" cType="1" res="-1.2057565897703171e-01" rms="4.5775562524795532e-01" purity="3.0494949221611023e-01" nType="0">
                <Node pos="l" depth="5" NCoef="0" IVar="-1" Cut="0.0000000000000000e+00" cType="1" res="-7.6751480810344219e-03" rms="4.7395223379135132e-01" purity="3.4721884131431580e-01" nType="-99"/>
                <Node pos="r" depth="5" NCoef="0" IVar="-1" Cut="0.0000000000000000e+00" cType="1" res="-1.4446145854890347e-02" rms="4.4415774941444397e-01" purity="2.7551516890525818e-01" nType="-99"/>
              </Node>
            </Node>
            <Node pos="r" depth="3" NCoef="0" IVar="3" Cut="4.3342387676239014e-01" cType="1" res="-2.3559303581714630e-01" rms="2.6842436194419861e-01" purity="8.0520063638687134e-02" nType="0">
              <Node pos="l" depth="4" NCoef="0" IVar="4" Cut="1.9198320806026459e-01" cType="1" res="-2.4397687613964081e-01" rms="2.3907071352005005e-01" purity="6.2039487063884735e-02" nType="0">
                <Node pos="l" depth="5" NCoef="0" IVar="5" Cut="4.0000000000000000e+00" cType="1" res="-2.4744205176830292e-01" rms="2.2325812280178070e-01" purity="5.3491715341806412e-02" nType="0">
                  <Node pos="l" depth="6" NCoef="0" IVar="-1" Cut="0.0000000000000000e+00" cType="1" res="-3.0253354460000992e-02" rms="2.7957415580749512e-01" purity="8.5736967623233795e-02" nType="-99"/>
                  <Node pos="r" depth="6" NCoef="0" IVar="3" Cut="3.3844378590583801e-01" cType="1" res="-2.5363618135452271e-01" rms="2.1215078234672546e-01" purity="4.8122607171535492e-02" nType="0">
                    <Node pos="l" depth="7" NCoef="0" IVar="-1" Cut="0.0000000000000000e+00" cType="1" res="-3.7414859980344772e-02" rms="1.7718477547168732e-01" purity="3.2621480524539948e-02" nType="-99"/>
                    <Node pos="r" depth="7" NCoef="0" IVar="-1" Cut="0.0000000000000000e+00" cType="1" res="-3.0014643445611000e-02" rms="2.6678377389907837e-01" purity="7.8253157436847687e-02" nType="-99"/>
                  </Node>
                </Node>
                <Node pos="r" depth="5" NCoef="0" IVar="0" Cut="1.5393927097320557e+00" cType="1" res="-2.0587781071662903e-01" rms="3.2042005658149719e-01" purity="1.1706792563199997e-01" nType="0">
                  <Node pos="l" depth="6" NCoef="0" IVar="-1" Cut="0.0000000000000000e+00" cType="1" res="-2.3377440869808197e-02" rms="3.4777355194091797e-01" purity="1.4128078520298004e-01" nType="-99"/>
                  <Node pos="r" depth="6" NCoef="0" IVar="-1" Cut="0.0000000000000000e+00" cType="1" res="-3.0160611495375633e-02" rms="2.8830724954605103e-01" purity="9.1808959841728210e-02" nType="-99"/>
                </Node>
              </Node>
              <Node pos="r" depth="4" NCoef="0" IVar="4" Cut="1.0072498768568039e-01" cType="1" res="-2.0622904598712921e-01" rms="3.5088261961936951e-01" purity="1.4524738490581512e-01" nType="0">
                <Node pos="l" depth="5" NCoef="0" IVar="2" Cut="9.5776283264160156e+01" cType="1" res="-2.2164089977741241e-01" rms="3.3376750349998474e-01" purity="1.2888015806674957e-01" nType="0">
                  <Node pos="l" depth="6" NCoef="0" IVar="-1" Cut="0.0000000000000000e+00" cType="1" res="-2.1432545036077499e-02" rms="3.6928236484527588e-01" purity="1.6423960030078888e-01" nType="-99"/>
                  <Node pos="r" depth="6" NCoef="0" IVar="4" Cut="7.1431994438171387e-02" cType="1" res="-2.4048487842082977e-01" rms="3.1009167432785034e-01" purity="1.0867541283369064e-01" nType="0">
                    <Node pos="l" depth="7" NCoef="0" IVar="-1" Cut="0.0000000000000000e+00" cType="1" res="-2.9147112742066383e-02" rms="2.9226037859916687e-01" purity="9.5030561089515686e-02" nType="-99"/>
                    <Node pos="r" depth="7" NCoef="0" IVar="-1" Cut="0.0000000000000000e+00" cType="1" res="-2.6080157607793808e-02" rms="3.2825526595115662e-01" purity="1.2385494261980057e-01" nType="-99"/>
                  </Node>
                </Node>
                <Node pos="r" depth="5" NCoef="0" IVar="-1" Cut="0.0000000000000000e+00" cType="1" res="-1.8736595287919044e-02" rms="3.8848030567169189e-01" purity="1.8709211051464081e-01" nType="-99"/>
              </Node>
            </Node>
          </Node>
          <Node pos="r" depth="2" NCoef="0" IVar="0" Cut="2.5642979145050049e-01" cType="1" res="-5.7703699916601181e-02" rms="4.8402687907218933e-01" purity="4.0556150674819946e-01" nType="0">
            <Node pos="l" depth="3" NCoef="0" IVar="3" Cut="6.6949737071990967e-01" cType="1" res="-9.4427622389048338e-04" rms="4.9670371413230896e-01" purity="4.9171289801597595e-01" nType="0">
              <Node pos="l" depth="4" NCoef="0" IVar="2" Cut="2.0212831115722656e+02" cType="1" res="-2.6388918980956078e-02" rms="4.9550709128379822e-01" purity="4.5345604419708252e-01" nType="0">
                <Node pos="l" depth="5" NCoef="0" IVar="-1" Cut="0.0000000000000000e+00" cType="1" res="-1.1574041855055839e-04" rms="4.9821907281875610e-01" purity="4.8748338222503662e-01" nType="-99"/>
                <Node pos="r" depth="5" NCoef="0" IVar="-1" Cut="0.0000000000000000e+00" cType="1" res="-4.6483902260661125e-03" rms="4.9156522750854492e-01" purity="4.1983747482299805e-01" nType="-99"/>
              </Node>
              <Node pos="r" depth="4" NCoef="0" IVar="2" Cut="1.6326136779785156e+02" cType="1" res="3.7025365978479385e-02" rms="4.9606302380561829e-01" purity="5.4880160093307495e-01" nType="0">
                <Node pos="l" depth="5" NCoef="0" IVar="-1" Cut="0.0000000000000000e+00" cType="1" res="4.1578845120966434e-03" rms="4.9349173903465271e-01" purity="5.6842488050460815e-01" nType="-99"/>
                <Node pos="r" depth="5" NCoef="0" IVar="-1" Cut="0.0000000000000000e+00" cType="1" res="1.6502530779689550e-03" rms="4.9847406148910522e-01" purity="5.2578663825988770e-01" nType="-99"/>
              </Node>
            </Node>
            <Node pos="r" depth="3" NCoef="0" IVar="0" Cut="5.0459712743759155e-01" cType="1" res="-1.0051579773426056e-01" rms="4.6972504258155823e-01" purity="3.4057980775833130e-01" nType="0">
              <Node pos="l" depth="4" NCoef="0" IVar="1" Cut="1.5353540889918804e-02" cType="1" res="-7.0969641208648682e-02" rms="4.8524260520935059e-01" purity="3.8794979453086853e-01" nType="0">
                <Node pos="l" depth="5" NCoef="0" IVar="-1" Cut="0.0000000000000000e+00" cType="1" res="-2.5262048002332449e-03" rms="4.9445584416389465e-01" purity="4.3575978279113770e-01" nType="-99"/>
                <Node pos="r" depth="5" NCoef="0" IVar="1" Cut="3.3715432882308960e-01" cType="1" res="-1.0211744904518127e-01" rms="4.7597226500511169e-01" purity="3.5289958119392395e-01" nType="0">
                  <Node pos="l" depth="6" NCoef="0" IVar="-1" Cut="0.0000000000000000e+00" cType="1" res="-5.4991086944937706e-03" rms="4.8865374922752380e-01" purity="4.0127193927764893e-01" nType="-99"/>
                  <Node pos="r" depth="6" NCoef="0" IVar="-1" Cut="0.0000000000000000e+00" cType="1" res="-1.5265909954905510e-02" rms="4.5288050174713135e-01" purity="2.8935351967811584e-01" nType="-99"/>
                </Node>
              </Node>
              <Node pos="r" depth="4" NCoef="0" IVar="2" Cut="1.9146429443359375e+02" cType="1" res="-1.4098191261291504e-01" rms="4.4442418217658997e-01" purity="2.7570247650146484e-01" nType="0">
                <Node pos="l" depth="5" NCoef="0" IVar="4" Cut="5.1235828548669815e-02" cType="1" res="-1.2042368948459625e-01" rms="4.5510342717170715e-01" purity="2.9893559217453003e-01" nType="0">
                  <Node pos="l" depth="6" NCoef="0" IVar="-1" Cut="0.0000000000000000e+00" cType="1" res="-1.6068553552031517e-02" rms="4.3592202663421631e-01" purity="2.6029363274574280e-01" nType="-99"/>
                  <Node pos="r" depth="6" NCoef="0" IVar="-1" Cut="0.0000000000000000e+00" cType="1" res="-7.9450095072388649e-03" rms="4.6975389122962952e-01" purity="3.3567181229591370e-01" nType="-99"/>
                </Node>
                <Node pos="r" depth="5" NCoef="0" IVar="-1" Cut="0.0000000000000000e+00" cType="1" res="-1.8125906586647034e-02" rms="4.2245751619338989e-01" purity="2.3464581370353699e-01" nType="-99"/>
              </Node>
            </Node>
          </Node>
        </Node>
        <Node pos="r" depth="1" NCoef="0" IVar="3" Cut="8.3967971801757812e-01" cType="1" res="1.4595496654510498e-01" rms="4.4395193457603455e-01" purity="7.1650677919387817e-01" nType="0">
          <Node pos="l" depth="2" NCoef="0" IVar="1" Cut="4.6068677306175232e-01" cType="1" res="6.2959671020507812e-02" rms="4.8687118291854858e-01" purity="5.9471470117568970e-01" nType="0">
            <Node pos="l" depth="3" NCoef="0" IVar="0" Cut="2.8460499644279480e-01" cType="1" res="8.1347852945327759e-02" rms="4.8293685913085938e-01" purity="6.1933964490890503e-01" nType="0">
              <Node pos="l" depth="4" NCoef="0" IVar="0" Cut="9.1803744435310364e-03" cType="1" res="9.6670292317867279e-02" rms="4.7799739241600037e-01" purity="6.4265996217727661e-01" nType="0">
                <Node pos="l" depth="5" NCoef="0" IVar="3" Cut="7.8369694948196411e-01" cType="1" res="1.0663643479347229e-01" rms="4.7417673468589783e-01" purity="6.5607690811157227e-01" nType="0">
                  <Node pos="l" depth="6" NCoef="0" IVar="5" Cut="3.0000000000000000e+00" cType="1" res="0.0000000000000000e+00" rms="0.0000000000000000e+00" purity="6.2725192308425903e-01" nType="0">
                    <Node pos="l" depth="7" NCoef="0" IVar="-1" Cut="0.0000000000000000e+00" cType="1" res="4.5953248627483845e-03" rms="4.8952642083168030e-01" purity="6.0046935081481934e-01" nType="-99"/>
                    <Node pos="r" depth="7" NCoef="0" IVar="-1" Cut="0.0000000000000000e+00" cType="1" res="8.7062008678913116e-03" rms="4.7848016023635864e-01" purity="6.4297533035278320e-01" nType="-99"/>
                  </Node>
                  <Node pos="r" depth="6" NCoef="0" IVar="1" Cut="6.8359963595867157e-02" cType="1" res="1.2267135083675385e-01" rms="4.6626618504524231e-01" purity="6.7945623397827148e-01" nType="0">
                    <Node pos="l" depth="7" NCoef="0" IVar="-1" Cut="0.0000000000000000e+00" cType="1" res="1.0442845523357391e-02" rms="4.6061137318611145e-01" purity="6.9408673048019409e-01" nType="-99"/>
                    <Node pos="r" depth="7" NCoef="0" IVar="-1" Cut="0.0000000000000000e+00" cType="1" res="8.1224860623478889e-03" rms="4.7627729177474976e-01" purity="6.5122157335281372e-01" nType="-99"/>
                  </Node>
                </Node>
                <Node pos="r" depth="5" NCoef="0" IVar="-1" Cut="0.0000000000000000e+00" cType="1" res="5.2744443528354168e-03" rms="4.9081343412399292e-01" purity="5.8971869945526123e-01" nType="-99"/>
              </Node>
              <Node pos="r" depth="4" NCoef="0" IVar="3" Cut="7.5566613674163818e-01" cType="1" res="1.2325108051300049e-02" rms="4.9878627061843872e-01" purity="5.1428896188735962e-01" nType="0">
                <Node pos="l" depth="5" NCoef="0" IVar="-1" Cut="0.0000000000000000e+00" cType="1" res="-5.4686883231624961e-04" rms="4.9944642186164856e-01" purity="4.9066746234893799e-01" nType="-99"/>
                <Node pos="r" depth="5" NCoef="0" IVar="-1" Cut="0.0000000000000000e+00" cType="1" res="2.5650071911513805e-03" rms="4.9748742580413818e-01" purity="5.3695416450500488e-01" nType="-99"/>
              </Node>
            </Node>
            <Node pos="r" depth="3" NCoef="0" IVar="1" Cut="7.6127487421035767e-01" cType="1" res="-3.5608738660812378e-02" rms="4.9595195055007935e-01" purity="4.6271440386772156e-01" nType="0">
              <Node pos="l" depth="4" NCoef="0" IVar="-1" Cut="0.0000000000000000e+00" cType="1" res="6.3144310843199492e-04" rms="4.9800854921340942e-01" purity="5.1726156473159790e-01" nType="-99"/>
              <Node pos="r" depth="4" NCoef="0" IVar="-1" Cut="0.0000000000000000e+00" cType="1" res="-6.8758628331124783e-03" rms="4.9015617370605469e-01" purity="4.0850391983985901e-01" nType="-99"/>
            </Node>
          </Node>
          <Node pos="r" depth="2" NCoef="0" IVar="0" Cut="3.0660346150398254e-01" cType="1" res="1.7232443392276764e-01" rms="4.2604732513427734e-01" purity="7.5520282983779907e-01" nType="0">
            <Node pos="l" depth="3" NCoef="0" IVar="1" Cut="1.9979682564735413e-01" cType="1" res="1.8050070106983185e-01" rms="4.2063191533088684e-01" purity="7.6730793714523315e-01" nType="0">
              <Node pos="l" depth="4" NCoef="0" IVar="3" Cut="9.4997555017471313e-01" cType="1" res="1.9628828763961792e-01" rms="4.0728467702865601e-01" purity="7.8923738002777100e-01" nType="0">
                <Node pos="l" depth="5" NCoef="0" IVar="3" Cut="8.8237601518630981e-01" cType="1" res="1.6476318240165710e-01" rms="4.3394947052001953e-01" purity="7.4759656190872192e-01" nType="0">
                  <Node pos="l" depth="6" NCoef="0" IVar="4" Cut="3.2039269804954529e-02" cType="1" res="1.5008649230003357e-01" rms="4.4562581181526184e-01" purity="7.2630423307418823e-01" nType="0">
                    <Node pos="l" depth="7" NCoef="0" IVar="-1" Cut="0.0000000000000000e+00" cType="1" res="1.1457500047981739e-02" rms="4.5218968391418457e-01" purity="7.1292388439178467e-01" nType="-99"/>
                    <Node pos="r" depth="7" NCoef="0" IVar="-1" Cut="0.0000000000000000e+00" cType="1" res="1.2807719409465790e-02" rms="4.4091728329658508e-01" purity="7.3528957366943359e-01" nType="-99"/>
                  </Node>
                  <Node pos="r" depth="6" NCoef="0" IVar="2" Cut="2.4067834854125977e+01" cType="1" res="1.8030314147472382e-01" rms="4.2067596316337585e-01" purity="7.7014124393463135e-01" nType="0">
                    <Node pos="l" depth="7" NCoef="0" IVar="-1" Cut="0.0000000000000000e+00" cType="1" res="1.3404716737568378e-02" rms="4.3104487657546997e-01" purity="7.5325185060501099e-01" nType="-99"/>
                    <Node pos="r" depth="7" NCoef="0" IVar="-1" Cut="0.0000000000000000e+00" cType="1" res="1.7179958522319794e-02" rms="4.1548100113868713e-01" purity="7.7804183959960938e-01" nType="-99"/>
                  </Node>
                </Node>
                <Node pos="r" depth="5" NCoef="0" IVar="3" Cut="9.8318219184875488e-01" cType="1" res="2.0846329629421234e-01" rms="3.9583551883697510e-01" purity="8.0531919002532959e-01" nType="0">
                  <Node pos="l" depth="6" NCoef="0" IVar="3" Cut="9.7139698266983032e-01" cType="1" res="1.8696160614490509e-01" rms="4.1257500648498535e-01" purity="7.8220915794372559e-01" nType="0">
                    <Node pos="l" depth="7" NCoef="0" IVar="-1" Cut="0.0000000000000000e+00" cType="1" res="1.3981896452605724e-02" rms="4.1855612397193909e-01" purity="7.7340561151504517e-01" nType="-99"/>
                    <Node pos="r" depth="7" NCoef="0" IVar="-1" Cut="0.0000000000000000e+00" cType="1" res="1.5051558613777161e-02" rms="4.0692299604415894e-01" purity="7.9024416208267212e-01" nType="-99"/>
                  </Node>
                  <Node pos="r" depth="6" NCoef="0" IVar="3" Cut="1.0153192281723022e+00" cType="1" res="2.1161188185214996e-01" rms="3.9322581887245178e-01" purity="8.0870318412780762e-01" nType="0">
                    <Node pos="l" depth="7" NCoef="0" IVar="-1" Cut="0.0000000000000000e+00" cType="1" res="1.6992198303341866e-02" rms="3.9220026135444641e-01" purity="8.1001663208007812e-01" nType="-99"/>
                    <Node pos="r" depth="7" NCoef="0" IVar="-1" Cut="0.0000000000000000e+00" cType="1" res="1.6049105674028397e-02" rms="3.9745473861694336e-01" purity="8.0319398641586304e-01" nType="-99"/>
                  </Node>
                </Node>
              </Node>
              <Node pos="r" depth="4" NCoef="0" IVar="1" Cut="8.3102869987487793e-01" cType="1" res="1.4011259377002716e-01" rms="4.5047941803932190e-01" purity="7.1120738983154297e-01" nType="0">
                <Node pos="l" depth="5" NCoef="0" IVar="3" Cut="9.8054444789886475e-01" cType="1" res="1.5681083500385284e-01" rms="4.3942117691040039e-01" purity="7.3630201816558838e-01" nType="0">
                  <Node pos="l" depth="6" NCoef="0" IVar="4" Cut="2.5373252108693123e-02" cType="1" res="1.1535267531871796e-01" rms="4.6538344025611877e-01" purity="6.8112528324127197e-01" nType="0">
                    <Node pos="l" depth="7" NCoef="0" IVar="-1" Cut="0.0000000000000000e+00" cType="1" res="8.1406170502305031e-03" rms="4.6999961137771606e-01" purity="6.6747754812240601e-01" nType="-99"/>
                    <Node pos="r" depth="7" NCoef="0" IVar="-1" Cut="0.0000000000000000e+00" cType="1" res="1.0858047753572464e-02" rms="4.6104890108108521e-01" purity="6.9220554828643799e-01" nType="-99"/>
                  </Node>
                  <Node pos="r" depth="6" NCoef="0" IVar="1" Cut="5.6628650426864624e-01" cType="1" res="1.7651666700839996e-01" rms="4.2511183023452759e-01" purity="7.6252859830856323e-01" nType="0">
                    <Node pos="l" depth="7" NCoef="0" IVar="-1" Cut="0.0000000000000000e+00" cType="1" res="1.4427695423364639e-02" rms="4.1907492280006409e-01" purity="7.7247428894042969e-01" nType="-99"/>
                    <Node pos="r" depth="7" NCoef="0" IVar="-1" Cut="0.0000000000000000e+00" cType="1" res="1.1499981395900249e-02" rms="4.4743755459785461e-01" purity="7.2289890050888062e-01" nType="-99"/>
                  </Node>
                </Node>
                <Node pos="r" depth="5" NCoef="0" IVar="-1" Cut="0.0000000000000000e+00" cType="1" res="5.8302571997046471e-03" rms="4.8675110936164856e-01" purity="6.1011433601379395e-01" nType="-99"/>
              </Node>
            </Node>
            <Node pos="r" depth="3" NCoef="0" IVar="-1" Cut="0.0000000000000000e+00" cType="1" res="1.7187362536787987e-03" rms="4.9231407046318054e-01" purity="5.3037714958190918e-01" nType="-99"/>
          </Node>
        </Node>
      </Node>
    </BinaryTree>
    <BinaryTree type="DecisionTree" boostWeight="1.0000000000000000e+00" itree="11">
      <Node pos="s" depth="0" NCoef="0" IVar="3" Cut="7.1310418844223022e-01" cType="1" res="1.3447330333292484e-02" rms="4.4451498985290527e-01" purity="5.0053697824478149e-01" nType="0">
        <Node pos="l" depth="1" NCoef="0" IVar="3" Cut="5.5473542213439941e-01" cType="1" res="-1.5527738630771637e-01" rms="3.8536190986633301e-01" purity="2.1309141814708710e-01" nType="0">
          <Node pos="l" depth="2" NCoef="0" IVar="0" Cut="9.6646326780319214e-01" cType="1" res="-2.0345011353492737e-01" rms="3.1825163960456848e-01" purity="1.2274928390979767e-01" nType="0">
            <Node pos="l" depth="3" NCoef="0" IVar="0" Cut="4.6763285994529724e-01" cType="1" res="-1.6536067426204681e-01" rms="3.9838016033172607e-01" purity="2.0507322251796722e-01" nType="0">
              <Node pos="l" depth="4" NCoef="0" IVar="3" Cut="4.6722033619880676e-01" cType="1" res="-1.3514800369739532e-01" rms="4.3464565277099609e-01" purity="2.5968623161315918e-01" nType="0">
                <Node pos="l" depth="5" NCoef="0" IVar="5" Cut="5.0000000000000000e+00" cType="1" res="-1.0099529474973679e-01" rms="3.5149669647216797e-01" purity="2.1787591278553009e-01" nType="0">
                  <Node pos="l" depth="6" NCoef="0" IVar="-1" Cut="0.0000000000000000e+00" cType="1" res="-1.4598580077290535e-02" rms="4.2657491564750671e-01" purity="2.4170117080211639e-01" nType="-99"/>
                  <Node pos="r" depth="6" NCoef="0" IVar="-1" Cut="0.0000000000000000e+00" cType="1" res="-1.9176786765456200e-02" rms="3.9753657579421997e-01" purity="1.9826656579971313e-01" nType="-99"/>
                </Node>
                <Node pos="r" depth="5" NCoef="0" IVar="2" Cut="2.2390519714355469e+02" cType="1" res="-1.0521700978279114e-01" rms="4.6286147832870483e-01" purity="3.1652402877807617e-01" nType="0">
                  <Node pos="l" depth="6" NCoef="0" IVar="-1" Cut="0.0000000000000000e+00" cType="1" res="-7.2470665909349918e-03" rms="4.7351959347724915e-01" purity="3.4757903218269348e-01" nType="-99"/>
                  <Node pos="r" depth="6" NCoef="0" IVar="-1" Cut="0.0000000000000000e+00" cType="1" res="-1.2557064183056355e-02" rms="4.5302680134773254e-01" purity="2.9185733199119568e-01" nType="-99"/>
                </Node>
              </Node>
              <Node pos="r" depth="4" NCoef="0" IVar="3" Cut="4.6715497970581055e-01" cType="1" res="-1.9219739735126495e-01" rms="3.6102810502052307e-01" purity="1.5656261146068573e-01" nType="0">
                <Node pos="l" depth="5" NCoef="0" IVar="4" Cut="1.6391204297542572e-01" cType="1" res="-2.0925948023796082e-01" rms="3.2942885160446167e-01" purity="1.2474782019853592e-01" nType="0">
                  <Node pos="l" depth="6" NCoef="0" IVar="2" Cut="2.1450906372070312e+02" cType="1" res="-2.1768628060817719e-01" rms="3.1700074672698975e-01" purity="1.1406617611646652e-01" nType="0">
                    <Node pos="l" depth="7" NCoef="0" IVar="-1" Cut="0.0000000000000000e+00" cType="1" res="-2.4113873019814491e-02" rms="3.4207347035408020e-01" purity="1.3646543025970459e-01" nType="-99"/>
                    <Node pos="r" depth="7" NCoef="0" IVar="-1" Cut="0.0000000000000000e+00" cType="1" res="-2.9089218005537987e-02" rms="2.8829357028007507e-01" purity="9.1745533049106598e-02" nType="-99"/>
                  </Node>
                  <Node pos="r" depth="6" NCoef="0" IVar="-1" Cut="0.0000000000000000e+00" cType="1" res="-2.3618007078766823e-02" rms="3.4986788034439087e-01" purity="1.4367136359214783e-01" nType="-99"/>
                </Node>
                <Node pos="r" depth="5" NCoef="0" IVar="4" Cut="8.1152290105819702e-02" cType="1" res="-1.7317686975002289e-01" rms="3.9239934086799622e-01" purity="1.9202922284603119e-01" nType="0">
                  <Node pos="l" depth="6" NCoef="0" IVar="-1" Cut="0.0000000000000000e+00" cType="1" res="-2.2594826295971870e-02" rms="3.6409908533096313e-01" purity="1.5844678878784180e-01" nType="-99"/>
                  <Node pos="r" depth="6" NCoef="0" IVar="-1" Cut="0.0000000000000000e+00" cType="1" res="-1.4441425912082195e-02" rms="4.2027845978736877e-01" purity="2.3136332631111145e-01" nType="-99"/>
                </Node>
              </Node>
            </Node>
            <Node pos="r" depth="3" NCoef="0" IVar="4" Cut="1.1581603437662125e-01" cType="1" res="-2.3187445104122162e-01" rms="2.3778498172760010e-01" purity="6.1314865946769714e-02" nType="0">
              <Node pos="l" depth="4" NCoef="0" IVar="2" Cut="6.7011077880859375e+01" cType="1" res="-2.3936206102371216e-01" rms="2.1815390884876251e-01" purity="5.1097877323627472e-02" nType="0">
                <Node pos="l" depth="5" NCoef="0" IVar="-1" Cut="0.0000000000000000e+00" cType="1" res="-3.0350476503372192e-02" rms="2.6225459575653076e-01" purity="7.5824975967407227e-02" nType="-99"/>
                <Node pos="r" depth="5" NCoef="0" IVar="0" Cut="1.5484778881072998e+00" cType="1" res="-2.4413104355335236e-01" rms="2.0704434812068939e-01" purity="4.5733548700809479e-02" nType="0">
                  <Node pos="l" depth="6" NCoef="0" IVar="4" Cut="5.9272844344377518e-02" cType="1" res="-2.3539714515209198e-01" rms="2.5710597634315491e-01" purity="7.1771882474422455e-02" nType="0">
                    <Node pos="l" depth="7" NCoef="0" IVar="-1" Cut="0.0000000000000000e+00" cType="1" res="-3.1511329114437103e-02" rms="2.3035685718059540e-01" purity="5.6441318243741989e-02" nType="-99"/>
                    <Node pos="r" depth="7" NCoef="0" IVar="-1" Cut="0.0000000000000000e+00" cType="1" res="-2.9283426702022552e-02" rms="2.6770555973052979e-01" purity="7.8503273427486420e-02" nType="-99"/>
                  </Node>
                  <Node pos="r" depth="6" NCoef="0" IVar="4" Cut="9.9104456603527069e-02" cType="1" res="-2.4989035725593567e-01" rms="1.6571509838104248e-01" purity="2.8563311323523521e-02" nType="0">
                    <Node pos="l" depth="7" NCoef="0" IVar="-1" Cut="0.0000000000000000e+00" cType="1" res="-3.6437064409255981e-02" rms="1.5606440603733063e-01" purity="2.5322580710053444e-02" nType="-99"/>
                    <Node pos="r" depth="7" NCoef="0" IVar="-1" Cut="0.0000000000000000e+00" cType="1" res="-3.5106331110000610e-02" rms="1.9942809641361237e-01" purity="4.1626103222370148e-02" nType="-99"/>
                  </Node>
                </Node>
              </Node>
              <Node pos="r" depth="4" NCoef="0" IVar="3" Cut="3.6363872885704041e-01" cType="1" res="-2.1947798132896423e-01" rms="2.6667159795761108e-01" purity="7.8230082988739014e-02" nType="0">
                <Node pos="l" depth="5" NCoef="0" IVar="4" Cut="1.9755835831165314e-01" cType="1" res="-2.2409945726394653e-01" rms="2.5083121657371521e-01" purity="6.8200297653675079e-02" nType="0">
                  <Node pos="l" depth="6" NCoef="0" IVar="3" Cut="2.9722785949707031e-01" cType="1" res="-2.3124870657920837e-01" rms="2.2744277119636536e-01" purity="5.5251944810152054e-02" nType="0">
                    <Node pos="l" depth="7" NCoef="0" IVar="-1" Cut="0.0000000000000000e+00" cType="1" res="-3.5974953323602676e-02" rms="2.0419852435588837e-01" purity="4.3799683451652527e-02" nType="-99"/>
                    <Node pos="r" depth="7" NCoef="0" IVar="-1" Cut="0.0000000000000000e+00" cType="1" res="-2.9196400195360184e-02" rms="2.7135339379310608e-01" purity="8.0756843090057373e-02" nType="-99"/>
                  </Node>
                  <Node pos="r" depth="6" NCoef="0" IVar="-1" Cut="0.0000000000000000e+00" cType="1" res="-2.8115635737776756e-02" rms="2.9945769906044006e-01" purity="9.9667675793170929e-02" nType="-99"/>
                </Node>
                <Node pos="r" depth="5" NCoef="0" IVar="-1" Cut="0.0000000000000000e+00" cType="1" res="-2.4658191949129105e-02" rms="3.2821899652481079e-01" purity="1.2368337810039520e-01" nType="-99"/>
              </Node>
            </Node>
          </Node>
          <Node pos="r" depth="2" NCoef="0" IVar="1" Cut="8.5193258523941040e-01" cType="1" res="-5.1050249487161636e-02" rms="4.8454594612121582e-01" purity="4.0855678915977478e-01" nType="0">
            <Node pos="l" depth="3" NCoef="0" IVar="0" Cut="2.1719095110893250e-01" cType="1" res="-3.7579745054244995e-02" rms="4.8789340257644653e-01" purity="4.2444181442260742e-01" nType="0">
              <Node pos="l" depth="4" NCoef="0" IVar="3" Cut="6.3136488199234009e-01" cType="1" res="1.0717130266129971e-02" rms="4.9736464023590088e-01" purity="5.0545668601989746e-01" nType="0">
                <Node pos="l" depth="5" NCoef="0" IVar="-1" Cut="0.0000000000000000e+00" cType="1" res="-2.7048464398831129e-03" rms="4.9491247534751892e-01" purity="4.3909996747970581e-01" nType="-99"/>
                <Node pos="r" depth="5" NCoef="0" IVar="1" Cut="6.9636128842830658e-02" cType="1" res="3.3485263586044312e-02" rms="4.9724730849266052e-01" purity="5.4204732179641724e-01" nType="0">
                  <Node pos="l" depth="6" NCoef="0" IVar="-1" Cut="0.0000000000000000e+00" cType="1" res="4.5216744765639305e-03" rms="4.9452573060989380e-01" purity="5.7075560092926025e-01" nType="-99"/>
                  <Node pos="r" depth="6" NCoef="0" IVar="-1" Cut="0.0000000000000000e+00" cType="1" res="2.8284636209718883e-04" rms="4.9933555722236633e-01" purity="5.0314372777938843e-01" nType="-99"/>
                </Node>
              </Node>
              <Node pos="r" depth="4" NCoef="0" IVar="3" Cut="6.3647466897964478e-01" cType="1" res="-6.9334223866462708e-02" rms="4.7891810536384583e-01" purity="3.7117576599121094e-01" nType="0">
                <Node pos="l" depth="5" NCoef="0" IVar="0" Cut="6.3369613885879517e-01" cType="1" res="-9.6198014914989471e-02" rms="4.6574214100837708e-01" purity="3.2669243216514587e-01" nType="0">
                  <Node pos="l" depth="6" NCoef="0" IVar="1" Cut="1.6694931685924530e-01" cType="1" res="-8.2095235586166382e-02" rms="4.7589406371116638e-01" purity="3.5387519001960754e-01" nType="0">
                    <Node pos="l" depth="7" NCoef="0" IVar="-1" Cut="0.0000000000000000e+00" cType="1" res="-5.2064592018723488e-03" rms="4.8490518331527710e-01" purity="3.8505768775939941e-01" nType="-99"/>
                    <Node pos="r" depth="7" NCoef="0" IVar="-1" Cut="0.0000000000000000e+00" cType="1" res="-1.2230776250362396e-02" rms="4.5711982250213623e-01" purity="3.0154347419738770e-01" nType="-99"/>
                  </Node>
                  <Node pos="r" depth="6" NCoef="0" IVar="-1" Cut="0.0000000000000000e+00" cType="1" res="-1.3176610693335533e-02" rms="4.3766206502914429e-01" purity="2.5942134857177734e-01" nType="-99"/>
                </Node>
                <Node pos="r" depth="5" NCoef="0" IVar="4" Cut="5.0148565322160721e-02" cType="1" res="-3.7163324654102325e-02" rms="4.9230998754501343e-01" purity="4.2444708943367004e-01" nType="0">
                  <Node pos="l" depth="6" NCoef="0" IVar="-1" Cut="0.0000000000000000e+00" cType="1" res="-7.0099798031151295e-03" rms="4.8510497808456421e-01" purity="3.9000150561332703e-01" nType="-99"/>
                  <Node pos="r" depth="6" NCoef="0" IVar="3" Cut="6.7106640338897705e-01" cType="1" res="-1.2116046622395515e-02" rms="4.9530923366546631e-01" purity="4.4674456119537354e-01" nType="0">
                    <Node pos="l" depth="7" NCoef="0" IVar="-1" Cut="0.0000000000000000e+00" cType="1" res="-3.0461861751973629e-03" rms="4.9181666970252991e-01" purity="4.1849103569984436e-01" nType="-99"/>
                    <Node pos="r" depth="7" NCoef="0" IVar="-1" Cut="0.0000000000000000e+00" cType="1" res="7.9107313649728894e-04" rms="4.9781551957130432e-01" purity="4.7453248500823975e-01" nType="-99"/>
                  </Node>
                </Node>
              </Node>
            </Node>
            <Node pos="r" depth="3" NCoef="0" IVar="-1" Cut="0.0000000000000000e+00" cType="1" res="-2.0160332322120667e-02" rms="4.1665634512901306e-01" purity="2.3079250752925873e-01" nType="-99"/>
          </Node>
        </Node>
        <Node pos="r" depth="1" NCoef="0" IVar="3" Cut="8.7764793634414673e-01" cType="1" res="1.3966295123100281e-01" rms="4.4394752383232117e-01" purity="7.1556246280670166e-01" nType="0">
          <Node pos="l" depth="2" NCoef="0" IVar="1" Cut="5.7779967784881592e-01" cType="1" res="7.7418416738510132e-02" rms="4.8000961542129517e-01" purity="6.2153708934783936e-01" nType="0">
            <Node pos="l" depth="3" NCoef="0" IVar="0" Cut="2.8460487723350525e-01" cType="1" res="9.1987363994121552e-02" rms="4.7610026597976685e-01" purity="6.4176535606384277e-01" nType="0">
              <Node pos="l" depth="4" NCoef="0" IVar="3" Cut="8.3518618345260620e-01" cType="1" res="1.0474569350481033e-01" rms="4.7098952531814575e-01" purity="6.6278403997421265e-01" nType="0">
                <Node pos="l" depth="5" NCoef="0" IVar="0" Cut="1.7443208396434784e-01" cType="1" res="8.8701747357845306e-02" rms="4.7994637489318848e-01" purity="6.3619828224182129e-01" nType="0">
                  <Node pos="l" depth="6" NCoef="0" IVar="2" Cut="1.7083505249023438e+02" cType="1" res="9.5856025815010071e-02" rms="4.7707492113113403e-01" purity="6.4696842432022095e-01" nType="0">
                    <Node pos="l" depth="7" NCoef="0" IVar="-1" Cut="0.0000000000000000e+00" cType="1" res="8.0772405490279198e-03" rms="4.7388470172882080e-01" purity="6.5738976001739502e-01" nType="-99"/>
                    <Node pos="r" depth="7" NCoef="0" IVar="-1" Cut="0.0000000000000000e+00" cType="1" res="6.5822135657072067e-03" rms="4.8400595784187317e-01" purity="6.2223392724990845e-01" nType="-99"/>
                  </Node>
                  <Node pos="r" depth="6" NCoef="0" IVar="-1" Cut="0.0000000000000000e+00" cType="1" res="5.5142277851700783e-03" rms="4.9022251367568970e-01" purity="5.9311300516128540e-01" nType="-99"/>
                </Node>
                <Node pos="r" depth="5" NCoef="0" IVar="1" Cut="6.5117083489894867e-02" cType="1" res="1.3365601003170013e-01" rms="4.5297196507453918e-01" purity="7.1069020032882690e-01" nType="0">
                  <Node pos="l" depth="6" NCoef="0" IVar="2" Cut="7.1093620300292969e+01" cType="1" res="1.4838455617427826e-01" rms="4.4447258114814758e-01" purity="7.2881525754928589e-01" nType="0">
                    <Node pos="l" depth="7" NCoef="0" IVar="-1" Cut="0.0000000000000000e+00" cType="1" res="1.2684146873652935e-02" rms="4.3753781914710999e-01" purity="7.4177229404449463e-01" nType="-99"/>
                    <Node pos="r" depth="7" NCoef="0" IVar="-1" Cut="0.0000000000000000e+00" cType="1" res="1.1429554782807827e-02" rms="4.5050704479217529e-01" purity="7.1670961380004883e-01" nType="-99"/>
                  </Node>
                  <Node pos="r" depth="6" NCoef="0" IVar="-1" Cut="0.0000000000000000e+00" cType="1" res="8.9429263025522232e-03" rms="4.6598252654075623e-01" purity="6.7991912364959717e-01" nType="-99"/>
                </Node>
              </Node>
              <Node pos="r" depth="4" NCoef="0" IVar="2" Cut="8.8991447448730469e+01" cType="1" res="1.9927285611629486e-02" rms="4.9789351224899292e-01" purity="5.2305006980895996e-01" nType="0">
                <Node pos="l" depth="5" NCoef="0" IVar="-1" Cut="0.0000000000000000e+00" cType="1" res="3.6827437579631805e-03" rms="4.9582037329673767e-01" purity="5.5637079477310181e-01" nType="-99"/>
                <Node pos="r" depth="5" NCoef="0" IVar="-1" Cut="0.0000000000000000e+00" cType="1" res="-2.5938785984180868e-04" rms="4.9857169389724731e-01" purity="4.9396276473999023e-01" nType="-99"/>
              </Node>
            </Node>
            <Node pos="r" depth="3" NCoef="0" IVar="3" Cut="8.0333495140075684e-01" cType="1" res="-3.4119822084903717e-02" rms="4.9493381381034851e-01" purity="4.6667158603668213e-01" nType="0">
              <Node pos="l" depth="4" NCoef="0" IVar="-1" Cut="0.0000000000000000e+00" cType="1" res="-7.2975708171725273e-03" rms="4.8864373564720154e-01" purity="4.0081533789634705e-01" nType="-99"/>
              <Node pos="r" depth="4" NCoef="0" IVar="-1" Cut="0.0000000000000000e+00" cType="1" res="1.2547622900456190e-03" rms="4.9644172191619873e-01" purity="5.3411233425140381e-01" nType="-99"/>
            </Node>
          </Node>
          <Node pos="r" depth="2" NCoef="0" IVar="0" Cut="2.7238082885742188e-01" cType="1" res="1.7226131260395050e-01" rms="4.2017570137977600e-01" purity="7.6480489969253540e-01" nType="0">
            <Node pos="l" depth="3" NCoef="0" IVar="1" Cut="6.3376551866531372e-01" cType="1" res="1.8117251992225647e-01" rms="4.1386517882347107e-01" purity="7.7826082706451416e-01" nType="0">
              <Node pos="l" depth="4" NCoef="0" IVar="3" Cut="9.8268347978591919e-01" cType="1" res="1.8810771405696869e-01" rms="4.0738123655319214e-01" purity="7.8930920362472534e-01" nType="0">
                <Node pos="l" depth="5" NCoef="0" IVar="3" Cut="9.5557594299316406e-01" cType="1" res="1.6624599695205688e-01" rms="4.2542439699172974e-01" purity="7.6185154914855957e-01" nType="0">
                  <Node pos="l" depth="6" NCoef="0" IVar="1" Cut="1.4509326219558716e-01" cType="1" res="1.6001959145069122e-01" rms="4.3066704273223877e-01" purity="7.5320029258728027e-01" nType="0">
                    <Node pos="l" depth="7" NCoef="0" IVar="-1" Cut="0.0000000000000000e+00" cType="1" res="1.5031607821583748e-02" rms="4.2172843217849731e-01" purity="7.6856416463851929e-01" nType="-99"/>
                    <Node pos="r" depth="7" NCoef="0" IVar="-1" Cut="0.0000000000000000e+00" cType="1" res="1.1199058964848518e-02" rms="4.5537614822387695e-01" purity="7.0595854520797729e-01" nType="-99"/>
                  </Node>
                  <Node pos="r" depth="6" NCoef="0" IVar="3" Cut="9.7306287288665771e-01" cType="1" res="1.7913097143173218e-01" rms="4.1406735777854919e-01" purity="7.7975445985794067e-01" nType="0">
                    <Node pos="l" depth="7" NCoef="0" IVar="-1" Cut="0.0000000000000000e+00" cType="1" res="1.4629020355641842e-02" rms="4.0886598825454712e-01" purity="7.8719812631607056e-01" nType="-99"/>
                    <Node pos="r" depth="7" NCoef="0" IVar="-1" Cut="0.0000000000000000e+00" cType="1" res="1.3563778251409531e-02" rms="4.1896364092826843e-01" purity="7.7238494157791138e-01" nType="-99"/>
                  </Node>
                </Node>
                <Node pos="r" depth="5" NCoef="0" IVar="1" Cut="5.3505238145589828e-02" cType="1" res="1.9607692956924438e-01" rms="4.0030509233474731e-01" purity="7.9931825399398804e-01" nType="0">
                  <Node pos="l" depth="6" NCoef="0" IVar="1" Cut="-2.1785627305507660e-01" cType="1" res="2.0490300655364990e-01" rms="3.9164081215858459e-01" purity="8.1077182292938232e-01" nType="0">
                    <Node pos="l" depth="7" NCoef="0" IVar="-1" Cut="0.0000000000000000e+00" cType="1" res="1.4108972623944283e-02" rms="4.0215951204299927e-01" purity="7.9701370000839233e-01" nType="-99"/>
                    <Node pos="r" depth="7" NCoef="0" IVar="-1" Cut="0.0000000000000000e+00" cType="1" res="1.6719151288270950e-02" rms="3.8954061269760132e-01" purity="8.1340938806533813e-01" nType="-99"/>
                  </Node>
                  <Node pos="r" depth="6" NCoef="0" IVar="1" Cut="4.4649425148963928e-01" cType="1" res="1.8258383870124817e-01" rms="4.1283524036407471e-01" purity="7.8180837631225586e-01" nType="0">
                    <Node pos="l" depth="7" NCoef="0" IVar="-1" Cut="0.0000000000000000e+00" cType="1" res="1.4883619733154774e-02" rms="4.0911626815795898e-01" purity="7.8732633590698242e-01" nType="-99"/>
                    <Node pos="r" depth="7" NCoef="0" IVar="-1" Cut="0.0000000000000000e+00" cType="1" res="1.2478605844080448e-02" rms="4.3246099352836609e-01" purity="7.5089645385742188e-01" nType="-99"/>
                  </Node>
                </Node>
              </Node>
              <Node pos="r" depth="4" NCoef="0" IVar="1" Cut="9.3551057577133179e-01" cType="1" res="1.0348221659660339e-01" rms="4.7366777062416077e-01" purity="6.5449386835098267e-01" nType="0">
                <Node pos="l" depth="5" NCoef="0" IVar="-1" Cut="0.0000000000000000e+00" cType="1" res="1.0489976033568382e-02" rms="4.5702388882637024e-01" purity="7.0084899663925171e-01" nType="-99"/>
                <Node pos="r" depth="5" NCoef="0" IVar="-1" Cut="0.0000000000000000e+00" cType="1" res="6.1912108212709427e-03" rms="4.8528018593788147e-01" purity="6.1650592088699341e-01" nType="-99"/>
              </Node>
            </Node>
            <Node pos="r" depth="3" NCoef="0" IVar="-1" Cut="0.0000000000000000e+00" cType="1" res="2.0050639286637306e-03" rms="4.9077573418617249e-01" purity="5.4067546129226685e-01" nType="-99"/>
          </Node>
        </Node>
      </Node>
    </BinaryTree>
    <BinaryTree type="DecisionTree" boostWeight="1.0000000000000000e+00" itree="12">
      <Node pos="s" depth="0" NCoef="0" IVar="3" Cut="7.1458750963211060e-01" cType="1" res="1.4089889824390411e-02" rms="4.4168269634246826e-01" purity="5.0058853626251221e-01" nType="0">
        <Node pos="l" depth="1" NCoef="0" IVar="3" Cut="5.7855606079101562e-01" cType="1" res="-1.4650061726570129e-01" rms="3.8490408658981323e-01" purity="2.1384319663047791e-01" nType="0">
          <Node pos="l" depth="2" NCoef="0" IVar="0" Cut="6.4372068643569946e-01" cType="1" res="-1.8662746250629425e-01" rms="3.2926517724990845e-01" purity="1.3458442687988281e-01" nType="0">
            <Node pos="l" depth="3" NCoef="0" IVar="1" Cut="6.8719112873077393e-01" cType="1" res="-1.3356460630893707e-01" rms="4.3063136935234070e-01" purity="2.5505346059799194e-01" nType="0">
              <Node pos="l" depth="4" NCoef="0" IVar="3" Cut="4.5161169767379761e-01" cType="1" res="-1.2390574067831039e-01" rms="4.3660140037536621e-01" purity="2.6602527499198914e-01" nType="0">
                <Node pos="l" depth="5" NCoef="0" IVar="0" Cut="4.1527608036994934e-01" cType="1" res="-1.5539562702178955e-01" rms="4.0084573626518250e-01" purity="2.0399482548236847e-01" nType="0">
                  <Node pos="l" depth="6" NCoef="0" IVar="5" Cut="5.0000000000000000e+00" cType="1" res="-9.4670251011848450e-02" rms="3.5690310597419739e-01" purity="2.2695142030715942e-01" nType="0">
                    <Node pos="l" depth="7" NCoef="0" IVar="-1" Cut="0.0000000000000000e+00" cType="1" res="-1.1783648282289505e-02" rms="4.3753722310066223e-01" purity="2.6093968749046326e-01" nType="-99"/>
                    <Node pos="r" depth="7" NCoef="0" IVar="-1" Cut="0.0000000000000000e+00" cType="1" res="-1.8503751605749130e-02" rms="3.9877668023109436e-01" purity="1.9912074506282806e-01" nType="-99"/>
                  </Node>
                  <Node pos="r" depth="6" NCoef="0" IVar="-1" Cut="0.0000000000000000e+00" cType="1" res="-2.2142240777611732e-02" rms="3.5710456967353821e-01" purity="1.5088778734207153e-01" nType="-99"/>
                </Node>
                <Node pos="r" depth="5" NCoef="0" IVar="0" Cut="1.8687088787555695e-01" cType="1" res="-9.9839165806770325e-02" rms="4.6061745285987854e-01" purity="3.1343290209770203e-01" nType="0">
                  <Node pos="l" depth="6" NCoef="0" IVar="-1" Cut="0.0000000000000000e+00" cType="1" res="-5.5030449293553829e-03" rms="4.8294004797935486e-01" purity="3.7692388892173767e-01" nType="-99"/>
                  <Node pos="r" depth="6" NCoef="0" IVar="2" Cut="1.6567422485351562e+02" cType="1" res="-1.2092076987028122e-01" rms="4.4670933485031128e-01" purity="2.7921941876411438e-01" nType="0">
                    <Node pos="l" depth="7" NCoef="0" IVar="-1" Cut="0.0000000000000000e+00" cType="1" res="-8.9828521013259888e-03" rms="4.6269661188125610e-01" purity="3.1443947553634644e-01" nType="-99"/>
                    <Node pos="r" depth="7" NCoef="0" IVar="-1" Cut="0.0000000000000000e+00" cType="1" res="-1.4454470016062260e-02" rms="4.3340799212455750e-01" purity="2.5335964560508728e-01" nType="-99"/>
                  </Node>
                </Node>
              </Node>
              <Node pos="r" depth="4" NCoef="0" IVar="-1" Cut="0.0000000000000000e+00" cType="1" res="-2.2913360968232155e-02" rms="3.7600576877593994e-01" purity="1.7394262552261353e-01" nType="-99"/>
            </Node>
            <Node pos="r" depth="3" NCoef="0" IVar="3" Cut="4.1429206728935242e-01" cType="1" res="-2.0908831059932709e-01" rms="2.7223944664001465e-01" purity="8.3591371774673462e-02" nType="0">
              <Node pos="l" depth="4" NCoef="0" IVar="4" Cut="1.6700404882431030e-01" cType="1" res="-2.1845966577529907e-01" rms="2.3354741930961609e-01" purity="5.9054076671600342e-02" nType="0">
                <Node pos="l" depth="5" NCoef="0" IVar="4" Cut="1.0260271281003952e-01" cType="1" res="-2.2696110606193542e-01" rms="2.0708101987838745e-01" purity="4.5485824346542358e-02" nType="0">
                  <Node pos="l" depth="6" NCoef="0" IVar="0" Cut="1.5436555147171021e+00" cType="1" res="-2.3258021473884583e-01" rms="1.8835513293743134e-01" purity="3.7241321057081223e-02" nType="0">
                    <Node pos="l" depth="7" NCoef="0" IVar="-1" Cut="0.0000000000000000e+00" cType="1" res="-3.0237229540944099e-02" rms="2.4225109815597534e-01" purity="6.2812082469463348e-02" nType="-99"/>
                    <Node pos="r" depth="7" NCoef="0" IVar="-1" Cut="0.0000000000000000e+00" cType="1" res="-3.5819549113512039e-02" rms="1.6153997182846069e-01" purity="2.6964658871293068e-02" nType="-99"/>
                  </Node>
                  <Node pos="r" depth="6" NCoef="0" IVar="2" Cut="3.5544360351562500e+02" cType="1" res="-2.1818333864212036e-01" rms="2.3307420313358307e-01" purity="5.8364804834127426e-02" nType="0">
                    <Node pos="l" depth="7" NCoef="0" IVar="-1" Cut="0.0000000000000000e+00" cType="1" res="-3.1508285552263260e-02" rms="2.4826571345329285e-01" purity="6.6965527832508087e-02" nType="-99"/>
                    <Node pos="r" depth="7" NCoef="0" IVar="-1" Cut="0.0000000000000000e+00" cType="1" res="-3.2429564744234085e-02" rms="2.1143750846385956e-01" purity="4.7348767518997192e-02" nType="-99"/>
                  </Node>
                </Node>
                <Node pos="r" depth="5" NCoef="0" IVar="3" Cut="2.3562961816787720e-01" cType="1" res="-1.8706972897052765e-01" rms="3.1040516495704651e-01" purity="1.0915229469537735e-01" nType="0">
                  <Node pos="l" depth="6" NCoef="0" IVar="-1" Cut="0.0000000000000000e+00" cType="1" res="-2.8109142556786537e-02" rms="2.8941380977630615e-01" purity="9.3403108417987823e-02" nType="-99"/>
                  <Node pos="r" depth="6" NCoef="0" IVar="-1" Cut="0.0000000000000000e+00" cType="1" res="-2.2865746170282364e-02" rms="3.3202347159385681e-01" purity="1.2689018249511719e-01" nType="-99"/>
                </Node>
              </Node>
              <Node pos="r" depth="4" NCoef="0" IVar="4" Cut="7.5636222958564758e-02" cType="1" res="-1.8621848523616791e-01" rms="3.4804505109786987e-01" purity="1.4347214996814728e-01" nType="0">
                <Node pos="l" depth="5" NCoef="0" IVar="2" Cut="7.0959442138671875e+01" cType="1" res="-2.0217087864875793e-01" rms="3.2886004447937012e-01" purity="1.2542679905891418e-01" nType="0">
                  <Node pos="l" depth="6" NCoef="0" IVar="-1" Cut="0.0000000000000000e+00" cType="1" res="-1.8604924902319908e-02" rms="3.7612715363502502e-01" purity="1.7246894538402557e-01" nType="-99"/>
                  <Node pos="r" depth="6" NCoef="0" IVar="4" Cut="5.5413834750652313e-02" cType="1" res="-2.2374141216278076e-01" rms="2.9986971616744995e-01" purity="1.0165191441774368e-01" nType="0">
                    <Node pos="l" depth="7" NCoef="0" IVar="-1" Cut="0.0000000000000000e+00" cType="1" res="-2.8376508504152298e-02" rms="2.8248775005340576e-01" purity="8.8933758437633514e-02" nType="-99"/>
                    <Node pos="r" depth="7" NCoef="0" IVar="-1" Cut="0.0000000000000000e+00" cType="1" res="-2.4978702887892723e-02" rms="3.1648033857345581e-01" purity="1.1495472490787506e-01" nType="-99"/>
                  </Node>
                </Node>
                <Node pos="r" depth="5" NCoef="0" IVar="2" Cut="1.9455012512207031e+02" cType="1" res="-1.7000076174736023e-01" rms="3.6580878496170044e-01" purity="1.6181765496730804e-01" nType="0">
                  <Node pos="l" depth="6" NCoef="0" IVar="-1" Cut="0.0000000000000000e+00" cType="1" res="-1.5913696959614754e-02" rms="3.9584943652153015e-01" purity="1.9834254682064056e-01" nType="-99"/>
                  <Node pos="r" depth="6" NCoef="0" IVar="-1" Cut="0.0000000000000000e+00" cType="1" res="-2.2404816001653671e-02" rms="3.4650295972824097e-01" purity="1.4134877920150757e-01" nType="-99"/>
                </Node>
              </Node>
            </Node>
          </Node>
          <Node pos="r" depth="2" NCoef="0" IVar="0" Cut="2.4861520528793335e-01" cType="1" res="-4.0932562202215195e-02" rms="4.8714390397071838e-01" purity="4.2236191034317017e-01" nType="0">
            <Node pos="l" depth="3" NCoef="0" IVar="2" Cut="2.0309916687011719e+02" cType="1" res="2.3297225125133991e-03" rms="4.9688455462455750e-01" purity="4.9767646193504333e-01" nType="0">
              <Node pos="l" depth="4" NCoef="0" IVar="3" Cut="6.4876621961593628e-01" cType="1" res="2.4785188958048820e-02" rms="4.9664974212646484e-01" purity="5.2833318710327148e-01" nType="0">
                <Node pos="l" depth="5" NCoef="0" IVar="-1" Cut="0.0000000000000000e+00" cType="1" res="-1.2792265624739230e-04" rms="4.9777722358703613e-01" purity="4.8069187998771667e-01" nType="-99"/>
                <Node pos="r" depth="5" NCoef="0" IVar="-1" Cut="0.0000000000000000e+00" cType="1" res="3.1688569579273462e-03" rms="4.9540501832962036e-01" purity="5.5505836009979248e-01" nType="-99"/>
              </Node>
              <Node pos="r" depth="4" NCoef="0" IVar="3" Cut="6.4438021183013916e-01" cType="1" res="-2.6210546493530273e-02" rms="4.9571695923805237e-01" purity="4.5871260762214661e-01" nType="0">
                <Node pos="l" depth="5" NCoef="0" IVar="-1" Cut="0.0000000000000000e+00" cType="1" res="-4.0918849408626556e-03" rms="4.9119931459426880e-01" purity="4.1732692718505859e-01" nType="-99"/>
                <Node pos="r" depth="5" NCoef="0" IVar="-1" Cut="0.0000000000000000e+00" cType="1" res="-1.0287582408636808e-03" rms="4.9879586696624756e-01" purity="4.9161836504936218e-01" nType="-99"/>
              </Node>
            </Node>
            <Node pos="r" depth="3" NCoef="0" IVar="0" Cut="4.8922386765480042e-01" cType="1" res="-7.4876464903354645e-02" rms="4.7662144899368286e-01" purity="3.6326953768730164e-01" nType="0">
              <Node pos="l" depth="4" NCoef="0" IVar="4" Cut="4.6292155981063843e-02" cType="1" res="-5.3635187447071075e-02" rms="4.8762109875679016e-01" purity="4.0201032161712646e-01" nType="0">
                <Node pos="l" depth="5" NCoef="0" IVar="-1" Cut="0.0000000000000000e+00" cType="1" res="-8.3238072693347931e-03" rms="4.7972887754440308e-01" purity="3.6913549900054932e-01" nType="-99"/>
                <Node pos="r" depth="5" NCoef="0" IVar="2" Cut="1.3784620666503906e+02" cType="1" res="-3.6340296268463135e-02" rms="4.9047654867172241e-01" purity="4.1797673702239990e-01" nType="0">
                  <Node pos="l" depth="6" NCoef="0" IVar="-1" Cut="0.0000000000000000e+00" cType="1" res="-8.7656313553452492e-05" rms="4.9573883414268494e-01" purity="4.6022137999534607e-01" nType="-99"/>
                  <Node pos="r" depth="6" NCoef="0" IVar="-1" Cut="0.0000000000000000e+00" cType="1" res="-5.4917340166866779e-03" rms="4.8590472340583801e-01" purity="3.9182177186012268e-01" nType="-99"/>
                </Node>
              </Node>
              <Node pos="r" depth="4" NCoef="0" IVar="2" Cut="1.4621154785156250e+02" cType="1" res="-1.0557711869478226e-01" rms="4.5852345228195190e-01" purity="3.0727636814117432e-01" nType="0">
                <Node pos="l" depth="5" NCoef="0" IVar="-1" Cut="0.0000000000000000e+00" cType="1" res="-7.1052503772079945e-03" rms="4.7140550613403320e-01" purity="3.4248241782188416e-01" nType="-99"/>
                <Node pos="r" depth="5" NCoef="0" IVar="-1" Cut="0.0000000000000000e+00" cType="1" res="-1.4146419242024422e-02" rms="4.4126451015472412e-01" purity="2.6777470111846924e-01" nType="-99"/>
              </Node>
            </Node>
          </Node>
        </Node>
        <Node pos="r" depth="1" NCoef="0" IVar="3" Cut="8.3825695514678955e-01" cType="1" res="1.3496322929859161e-01" rms="4.4315600395202637e-01" purity="7.1641618013381958e-01" nType="0">
          <Node pos="l" depth="2" NCoef="0" IVar="1" Cut="6.8890345096588135e-01" cType="1" res="5.8150775730609894e-02" rms="4.8639273643493652e-01" purity="5.9421902894973755e-01" nType="0">
            <Node pos="l" depth="3" NCoef="0" IVar="0" Cut="2.8460496664047241e-01" cType="1" res="7.0712335407733917e-02" rms="4.8413956165313721e-01" purity="6.1223417520523071e-01" nType="0">
              <Node pos="l" depth="4" NCoef="0" IVar="1" Cut="3.0564207583665848e-02" cType="1" res="8.4634020924568176e-02" rms="4.7964671254158020e-01" purity="6.3551801443099976e-01" nType="0">
                <Node pos="l" depth="5" NCoef="0" IVar="3" Cut="7.5848251581192017e-01" cType="1" res="1.0490426421165466e-01" rms="4.7169160842895508e-01" purity="6.6320919990539551e-01" nType="0">
                  <Node pos="l" depth="6" NCoef="0" IVar="-1" Cut="0.0000000000000000e+00" cType="1" res="6.3165570609271526e-03" rms="4.8402500152587891e-01" purity="6.2177413702011108e-01" nType="-99"/>
                  <Node pos="r" depth="6" NCoef="0" IVar="4" Cut="3.8043584674596786e-02" cType="1" res="1.1556101590394974e-01" rms="4.6656921505928040e-01" purity="6.7863231897354126e-01" nType="0">
                    <Node pos="l" depth="7" NCoef="0" IVar="-1" Cut="0.0000000000000000e+00" cType="1" res="8.1136031076312065e-03" rms="4.7368761897087097e-01" purity="6.5924954414367676e-01" nType="-99"/>
                    <Node pos="r" depth="7" NCoef="0" IVar="-1" Cut="0.0000000000000000e+00" cType="1" res="1.0043108835816383e-02" rms="4.6243286132812500e-01" purity="6.8892210721969604e-01" nType="-99"/>
                  </Node>
                </Node>
                <Node pos="r" depth="5" NCoef="0" IVar="3" Cut="7.8639167547225952e-01" cType="1" res="5.9907797724008560e-02" rms="4.8803690075874329e-01" purity="6.0173946619033813e-01" nType="0">
                  <Node pos="l" depth="6" NCoef="0" IVar="2" Cut="1.2902215576171875e+02" cType="1" res="3.9831846952438354e-02" rms="4.9387586116790771e-01" purity="5.7200640439987183e-01" nType="0">
                    <Node pos="l" depth="7" NCoef="0" IVar="-1" Cut="0.0000000000000000e+00" cType="1" res="4.1674240492284298e-03" rms="4.9191322922706604e-01" purity="5.8454918861389160e-01" nType="-99"/>
                    <Node pos="r" depth="7" NCoef="0" IVar="-1" Cut="0.0000000000000000e+00" cType="1" res="2.4757822975516319e-03" rms="4.9567437171936035e-01" purity="5.5886417627334595e-01" nType="-99"/>
                  </Node>
                  <Node pos="r" depth="6" NCoef="0" IVar="1" Cut="2.2155261039733887e-01" cType="1" res="7.9061873257160187e-02" rms="4.8162075877189636e-01" purity="6.3010728359222412e-01" nType="0">
                    <Node pos="l" depth="7" NCoef="0" IVar="-1" Cut="0.0000000000000000e+00" cType="1" res="7.4742538854479790e-03" rms="4.7596907615661621e-01" purity="6.5167784690856934e-01" nType="-99"/>
                    <Node pos="r" depth="7" NCoef="0" IVar="-1" Cut="0.0000000000000000e+00" cType="1" res="5.3082602098584175e-03" rms="4.8708504438400269e-01" purity="6.0764825344085693e-01" nType="-99"/>
                  </Node>
                </Node>
              </Node>
              <Node pos="r" depth="4" NCoef="0" IVar="3" Cut="7.5050199031829834e-01" cType="1" res="1.1774964630603790e-02" rms="4.9842619895935059e-01" purity="5.1366204023361206e-01" nType="0">
                <Node pos="l" depth="5" NCoef="0" IVar="-1" Cut="0.0000000000000000e+00" cType="1" res="-7.9720746725797653e-04" rms="4.9894204735755920e-01" purity="4.8650491237640381e-01" nType="-99"/>
                <Node pos="r" depth="5" NCoef="0" IVar="-1" Cut="0.0000000000000000e+00" cType="1" res="2.3850197903811932e-03" rms="4.9740192294120789e-01" purity="5.3481197357177734e-01" nType="-99"/>
              </Node>
            </Node>
            <Node pos="r" depth="3" NCoef="0" IVar="-1" Cut="0.0000000000000000e+00" cType="1" res="-5.8171162381768227e-03" rms="4.9109834432601929e-01" purity="4.1551116108894348e-01" nType="-99"/>
          </Node>
          <Node pos="r" depth="2" NCoef="0" IVar="0" Cut="5.5713778734207153e-01" cType="1" res="1.5924419462680817e-01" rms="4.2570888996124268e-01" purity="7.5504356622695923e-01" nType="0">
            <Node pos="l" depth="3" NCoef="0" IVar="1" Cut="3.2442584633827209e-01" cType="1" res="1.6460774838924408e-01" rms="4.2251509428024292e-01" purity="7.6328879594802856e-01" nType="0">
              <Node pos="l" depth="4" NCoef="0" IVar="3" Cut="9.4996535778045654e-01" cType="1" res="1.7623138427734375e-01" rms="4.1225624084472656e-01" purity="7.8127425909042358e-01" nType="0">
                <Node pos="l" depth="5" NCoef="0" IVar="3" Cut="8.7069714069366455e-01" cType="1" res="1.4576499164104462e-01" rms="4.3848830461502075e-01" purity="7.3870056867599487e-01" nType="0">
                  <Node pos="l" depth="6" NCoef="0" IVar="4" Cut="3.2102059572935104e-02" cType="1" res="1.2834857404232025e-01" rms="4.5308265089988708e-01" purity="7.1044534444808960e-01" nType="0">
                    <Node pos="l" depth="7" NCoef="0" IVar="-1" Cut="0.0000000000000000e+00" cType="1" res="9.4223925843834877e-03" rms="4.5970344543457031e-01" purity="6.9532507658004761e-01" nType="-99"/>
                    <Node pos="r" depth="7" NCoef="0" IVar="-1" Cut="0.0000000000000000e+00" cType="1" res="1.1068236082792282e-02" rms="4.4873291254043579e-01" purity="7.1968793869018555e-01" nType="-99"/>
                  </Node>
                  <Node pos="r" depth="6" NCoef="0" IVar="4" Cut="1.0495957918465137e-02" cType="1" res="1.5622949600219727e-01" rms="4.2914116382598877e-01" purity="7.5567746162414551e-01" nType="0">
                    <Node pos="l" depth="7" NCoef="0" IVar="-1" Cut="0.0000000000000000e+00" cType="1" res="1.1372511275112629e-02" rms="4.4020015001296997e-01" purity="7.3597258329391479e-01" nType="-99"/>
                    <Node pos="r" depth="7" NCoef="0" IVar="-1" Cut="0.0000000000000000e+00" cType="1" res="1.4703973196446896e-02" rms="4.2539697885513306e-01" purity="7.6186561584472656e-01" nType="-99"/>
                  </Node>
                </Node>
                <Node pos="r" depth="5" NCoef="0" IVar="0" Cut="1.7939393222332001e-01" cType="1" res="1.8819041550159454e-01" rms="4.0085881948471069e-01" purity="7.9798573255538940e-01" nType="0">
                  <Node pos="l" depth="6" NCoef="0" IVar="1" Cut="6.7390717566013336e-02" cType="1" res="1.9150419533252716e-01" rms="3.9723831415176392e-01" purity="8.0352693796157837e-01" nType="0">
                    <Node pos="l" depth="7" NCoef="0" IVar="-1" Cut="0.0000000000000000e+00" cType="1" res="1.5775201842188835e-02" rms="3.9181149005889893e-01" purity="8.1057262420654297e-01" nType="-99"/>
                    <Node pos="r" depth="7" NCoef="0" IVar="-1" Cut="0.0000000000000000e+00" cType="1" res="1.4335764572024345e-02" rms="4.1022124886512756e-01" purity="7.8577572107315063e-01" nType="-99"/>
                  </Node>
                  <Node pos="r" depth="6" NCoef="0" IVar="-1" Cut="0.0000000000000000e+00" cType="1" res="9.9808331578969955e-03" rms="4.6401149034500122e-01" purity="6.8388122320175171e-01" nType="-99"/>
                </Node>
              </Node>
              <Node pos="r" depth="4" NCoef="0" IVar="1" Cut="9.4685101509094238e-01" cType="1" res="1.1657357215881348e-01" rms="4.5939412713050842e-01" purity="6.8896442651748657e-01" nType="0">
                <Node pos="l" depth="5" NCoef="0" IVar="3" Cut="9.8130208253860474e-01" cType="1" res="1.3580439984798431e-01" rms="4.4776108860969543e-01" purity="7.1820002794265747e-01" nType="0">
                  <Node pos="l" depth="6" NCoef="0" IVar="-1" Cut="0.0000000000000000e+00" cType="1" res="7.7281519770622253e-03" rms="4.7330328822135925e-01" purity="6.5821135044097900e-01" nType="-99"/>
                  <Node pos="r" depth="6" NCoef="0" IVar="1" Cut="4.2482459545135498e-01" cType="1" res="1.5687258541584015e-01" rms="4.3312251567840576e-01" purity="7.4764269590377808e-01" nType="0">
                    <Node pos="l" depth="7" NCoef="0" IVar="-1" Cut="0.0000000000000000e+00" cType="1" res="1.3983141630887985e-02" rms="4.1587212681770325e-01" purity="7.7649778127670288e-01" nType="-99"/>
                    <Node pos="r" depth="7" NCoef="0" IVar="-1" Cut="0.0000000000000000e+00" cType="1" res="1.1511850170791149e-02" rms="4.4079267978668213e-01" purity="7.3394417762756348e-01" nType="-99"/>
                  </Node>
                </Node>
                <Node pos="r" depth="5" NCoef="0" IVar="-1" Cut="0.0000000000000000e+00" cType="1" res="4.4124596752226353e-03" rms="4.9024248123168945e-01" purity="5.9355086088180542e-01" nType="-99"/>
              </Node>
            </Node>
            <Node pos="r" depth="3" NCoef="0" IVar="-1" Cut="0.0000000000000000e+00" cType="1" res="-5.3795268759131432e-03" rms="4.9276393651962280e-01" purity="4.1554853320121765e-01" nType="-99"/>
          </Node>
        </Node>
      </Node>
    </BinaryTree>
    <BinaryTree type="DecisionTree" boostWeight="1.0000000000000000e+00" itree="13">
      <Node pos="s" depth="0" NCoef="0" IVar="3" Cut="7.1646219491958618e-01" cType="1" res="1.4798796735703945e-02" rms="4.3946164846420288e-01" purity="5.0114476680755615e-01" nType="0">
        <Node pos="l" depth="1" NCoef="0" IVar="3" Cut="5.5757021903991699e-01" cType="1" res="-1.3773028552532196e-01" rms="3.8519990444183350e-01" purity="2.1509489417076111e-01" nType="0">
          <Node pos="l" depth="2" NCoef="0" IVar="0" Cut="6.4506101608276367e-01" cType="1" res="-1.7820574343204498e-01" rms="3.2252070307731628e-01" purity="1.2740637362003326e-01" nType="0">
            <Node pos="l" depth="3" NCoef="0" IVar="0" Cut="2.0805690437555313e-02" cType="1" res="-1.2979973852634430e-01" rms="4.2524293065071106e-01" purity="2.4527893960475922e-01" nType="0">
              <Node pos="l" depth="4" NCoef="0" IVar="1" Cut="2.1639829874038696e-01" cType="1" res="-1.0101076215505600e-01" rms="4.5272028446197510e-01" purity="2.9588013887405396e-01" nType="0">
                <Node pos="l" depth="5" NCoef="0" IVar="-1" Cut="0.0000000000000000e+00" cType="1" res="-7.7320532873272896e-03" rms="4.6296182274818420e-01" purity="3.2130688428878784e-01" nType="-99"/>
                <Node pos="r" depth="5" NCoef="0" IVar="-1" Cut="0.0000000000000000e+00" cType="1" res="-1.4750248752534389e-02" rms="4.3117484450340271e-01" purity="2.5074288249015808e-01" nType="-99"/>
              </Node>
              <Node pos="r" depth="4" NCoef="0" IVar="3" Cut="3.4807002544403076e-01" cType="1" res="-1.4803358912467957e-01" rms="4.0582612156867981e-01" purity="2.1323005855083466e-01" nType="0">
                <Node pos="l" depth="5" NCoef="0" IVar="-1" Cut="0.0000000000000000e+00" cType="1" res="-2.3798631504178047e-02" rms="3.4456697106361389e-01" purity="1.3886201381683350e-01" nType="-99"/>
                <Node pos="r" depth="5" NCoef="0" IVar="0" Cut="4.2933642864227295e-01" cType="1" res="-1.3557252287864685e-01" rms="4.2005324363708496e-01" purity="2.3341584205627441e-01" nType="0">
                  <Node pos="l" depth="6" NCoef="0" IVar="-1" Cut="0.0000000000000000e+00" cType="1" res="-1.1928776279091835e-02" rms="4.3619138002395630e-01" purity="2.6101559400558472e-01" nType="-99"/>
                  <Node pos="r" depth="6" NCoef="0" IVar="0" Cut="5.4068869352340698e-01" cType="1" res="-1.5420809388160706e-01" rms="4.0363800525665283e-01" purity="2.0785202085971832e-01" nType="0">
                    <Node pos="l" depth="7" NCoef="0" IVar="-1" Cut="0.0000000000000000e+00" cType="1" res="-1.5343923121690750e-02" rms="4.1345173120498657e-01" purity="2.2210933268070221e-01" nType="-99"/>
                    <Node pos="r" depth="7" NCoef="0" IVar="-1" Cut="0.0000000000000000e+00" cType="1" res="-1.8247898668050766e-02" rms="3.9329886436462402e-01" purity="1.9359351694583893e-01" nType="-99"/>
                  </Node>
                </Node>
              </Node>
            </Node>
            <Node pos="r" depth="3" NCoef="0" IVar="3" Cut="4.1698062419891357e-01" cType="1" res="-1.9659566879272461e-01" rms="2.7131089568138123e-01" purity="8.2625381648540497e-02" nType="0">
              <Node pos="l" depth="4" NCoef="0" IVar="4" Cut="1.5431402623653412e-01" cType="1" res="-2.0491065084934235e-01" rms="2.3636908829212189e-01" purity="6.0496427118778229e-02" nType="0">
                <Node pos="l" depth="5" NCoef="0" IVar="2" Cut="1.1364318847656250e+02" cType="1" res="-2.1263283491134644e-01" rms="2.0950023829936981e-01" purity="4.6512134373188019e-02" nType="0">
                  <Node pos="l" depth="6" NCoef="0" IVar="4" Cut="6.5170563757419586e-02" cType="1" res="-2.0291103422641754e-01" rms="2.2765332460403442e-01" purity="5.5555138736963272e-02" nType="0">
                    <Node pos="l" depth="7" NCoef="0" IVar="-1" Cut="0.0000000000000000e+00" cType="1" res="-3.2663024961948395e-02" rms="2.0569053292274475e-01" purity="4.4743001461029053e-02" nType="-99"/>
                    <Node pos="r" depth="7" NCoef="0" IVar="-1" Cut="0.0000000000000000e+00" cType="1" res="-2.9256056994199753e-02" rms="2.6450017094612122e-01" purity="7.6815672218799591e-02" nType="-99"/>
                  </Node>
                  <Node pos="r" depth="6" NCoef="0" IVar="4" Cut="1.0225216299295425e-01" cType="1" res="-2.1660804748535156e-01" rms="2.0147211849689484e-01" purity="4.2814478278160095e-02" nType="0">
                    <Node pos="l" depth="7" NCoef="0" IVar="-1" Cut="0.0000000000000000e+00" cType="1" res="-3.2803792506456375e-02" rms="1.8000978231430054e-01" purity="3.3784955739974976e-02" nType="-99"/>
                    <Node pos="r" depth="7" NCoef="0" IVar="-1" Cut="0.0000000000000000e+00" cType="1" res="-3.1334023922681808e-02" rms="2.2384592890739441e-01" purity="5.3405314683914185e-02" nType="-99"/>
                  </Node>
                </Node>
                <Node pos="r" depth="5" NCoef="0" IVar="3" Cut="3.0066210031509399e-01" cType="1" res="-1.8273250758647919e-01" rms="2.9935562610626221e-01" purity="1.0065934807062149e-01" nType="0">
                  <Node pos="l" depth="6" NCoef="0" IVar="4" Cut="2.3271399736404419e-01" cType="1" res="-1.9130350649356842e-01" rms="2.8136768937110901e-01" purity="8.7413057684898376e-02" nType="0">
                    <Node pos="l" depth="7" NCoef="0" IVar="-1" Cut="0.0000000000000000e+00" cType="1" res="-3.0182702466845512e-02" rms="2.5636300444602966e-01" purity="7.1106083691120148e-02" nType="-99"/>
                    <Node pos="r" depth="7" NCoef="0" IVar="-1" Cut="0.0000000000000000e+00" cType="1" res="-2.3674370720982552e-02" rms="3.2188123464584351e-01" purity="1.1777155846357346e-01" nType="-99"/>
                  </Node>
                  <Node pos="r" depth="6" NCoef="0" IVar="-1" Cut="0.0000000000000000e+00" cType="1" res="-2.0537413656711578e-02" rms="3.4287503361701965e-01" purity="1.3706083595752716e-01" nType="-99"/>
                </Node>
              </Node>
              <Node pos="r" depth="4" NCoef="0" IVar="1" Cut="4.3067544698715210e-01" cType="1" res="-1.7386300861835480e-01" rms="3.4842774271965027e-01" purity="1.4312462508678436e-01" nType="0">
                <Node pos="l" depth="5" NCoef="0" IVar="3" Cut="4.9862548708915710e-01" cType="1" res="-1.6109341382980347e-01" rms="3.6375018954277039e-01" purity="1.5893019735813141e-01" nType="0">
                  <Node pos="l" depth="6" NCoef="0" IVar="2" Cut="1.7096656799316406e+02" cType="1" res="-1.7348498106002808e-01" rms="3.4268075227737427e-01" purity="1.3674172759056091e-01" nType="0">
                    <Node pos="l" depth="7" NCoef="0" IVar="-1" Cut="0.0000000000000000e+00" cType="1" res="-1.8422722816467285e-02" rms="3.6648887395858765e-01" purity="1.6094243526458740e-01" nType="-99"/>
                    <Node pos="r" depth="7" NCoef="0" IVar="-1" Cut="0.0000000000000000e+00" cType="1" res="-2.3725511506199837e-02" rms="3.1880760192871094e-01" purity="1.1535569280385971e-01" nType="-99"/>
                  </Node>
                  <Node pos="r" depth="6" NCoef="0" IVar="-1" Cut="0.0000000000000000e+00" cType="1" res="-1.5304427593946457e-02" rms="4.0068963170051575e-01" purity="2.0235054194927216e-01" nType="-99"/>
                </Node>
                <Node pos="r" depth="5" NCoef="0" IVar="-1" Cut="0.0000000000000000e+00" cType="1" res="-2.4750959128141403e-02" rms="3.1487214565277100e-01" purity="1.1224920302629471e-01" nType="-99"/>
              </Node>
            </Node>
          </Node>
          <Node pos="r" depth="2" NCoef="0" IVar="0" Cut="2.5643000006675720e-01" cType="1" res="-4.9439199268817902e-02" rms="4.8350107669830322e-01" purity="4.0637418627738953e-01" nType="0">
            <Node pos="l" depth="3" NCoef="0" IVar="3" Cut="6.3447731733322144e-01" cType="1" res="-4.8717032186686993e-03" rms="4.9630030989646912e-01" purity="4.8676922917366028e-01" nType="0">
              <Node pos="l" depth="4" NCoef="0" IVar="2" Cut="2.3612170410156250e+02" cType="1" res="-3.9380569010972977e-02" rms="4.9208098649978638e-01" purity="4.2507666349411011e-01" nType="0">
                <Node pos="l" depth="5" NCoef="0" IVar="-1" Cut="0.0000000000000000e+00" cType="1" res="-1.4552313368767500e-03" rms="4.9653458595275879e-01" purity="4.5762264728546143e-01" nType="-99"/>
                <Node pos="r" depth="5" NCoef="0" IVar="-1" Cut="0.0000000000000000e+00" cType="1" res="-5.8824117295444012e-03" rms="4.8574146628379822e-01" purity="3.8820627331733704e-01" nType="-99"/>
              </Node>
              <Node pos="r" depth="4" NCoef="0" IVar="1" Cut="1.1274340748786926e-01" cType="1" res="1.4933587983250618e-02" rms="4.9762603640556335e-01" purity="5.2217572927474976e-01" nType="0">
                <Node pos="l" depth="5" NCoef="0" IVar="3" Cut="6.7944240570068359e-01" cType="1" res="3.8159694522619247e-02" rms="4.9597892165184021e-01" purity="5.5506235361099243e-01" nType="0">
                  <Node pos="l" depth="6" NCoef="0" IVar="-1" Cut="0.0000000000000000e+00" cType="1" res="2.7181424666196108e-03" rms="4.9765276908874512e-01" purity="5.3997546434402466e-01" nType="-99"/>
                  <Node pos="r" depth="6" NCoef="0" IVar="-1" Cut="0.0000000000000000e+00" cType="1" res="3.6252604331821203e-03" rms="4.9440008401870728e-01" purity="5.6871300935745239e-01" nType="-99"/>
                </Node>
                <Node pos="r" depth="5" NCoef="0" IVar="-1" Cut="0.0000000000000000e+00" cType="1" res="-1.6036607557907701e-03" rms="4.9808400869369507e-01" purity="4.7444266080856323e-01" nType="-99"/>
              </Node>
            </Node>
            <Node pos="r" depth="3" NCoef="0" IVar="1" Cut="1.6593392193317413e-01" cType="1" res="-8.3435893058776855e-02" rms="4.7067627310752869e-01" purity="3.4504777193069458e-01" nType="0">
              <Node pos="l" depth="4" NCoef="0" IVar="2" Cut="1.9127040100097656e+02" cType="1" res="-3.9695158600807190e-02" rms="4.8595240712165833e-01" purity="3.9795488119125366e-01" nType="0">
                <Node pos="l" depth="5" NCoef="0" IVar="4" Cut="6.1158724129199982e-02" cType="1" res="-2.1129971370100975e-02" rms="4.9092447757720947e-01" purity="4.2166125774383545e-01" nType="0">
                  <Node pos="l" depth="6" NCoef="0" IVar="-1" Cut="0.0000000000000000e+00" cType="1" res="-4.6969056129455566e-03" rms="4.8514339327812195e-01" purity="3.9315328001976013e-01" nType="-99"/>
                  <Node pos="r" depth="6" NCoef="0" IVar="-1" Cut="0.0000000000000000e+00" cType="1" res="2.0351873245090246e-03" rms="4.9629941582679749e-01" purity="4.6526610851287842e-01" nType="-99"/>
                </Node>
                <Node pos="r" depth="5" NCoef="0" IVar="-1" Cut="0.0000000000000000e+00" cType="1" res="-7.4746483005583286e-03" rms="4.7348743677139282e-01" purity="3.4990477561950684e-01" nType="-99"/>
              </Node>
              <Node pos="r" depth="4" NCoef="0" IVar="1" Cut="4.8285040259361267e-01" cType="1" res="-1.3949181139469147e-01" rms="4.4408774375915527e-01" purity="2.7724468708038330e-01" nType="0">
                <Node pos="l" depth="5" NCoef="0" IVar="-1" Cut="0.0000000000000000e+00" cType="1" res="-1.0473865084350109e-02" rms="4.6267020702362061e-01" purity="3.1735941767692566e-01" nType="-99"/>
                <Node pos="r" depth="5" NCoef="0" IVar="-1" Cut="0.0000000000000000e+00" cType="1" res="-1.7813153564929962e-02" rms="4.1976603865623474e-01" purity="2.3300135135650635e-01" nType="-99"/>
              </Node>
            </Node>
          </Node>
        </Node>
        <Node pos="r" depth="1" NCoef="0" IVar="5" Cut="2.0000000000000000e+00" cType="1" res="1.3058456778526306e-01" rms="4.4178178906440735e-01" purity="7.1663683652877808e-01" nType="0">
          <Node pos="l" depth="2" NCoef="0" IVar="0" Cut="2.7238082885742188e-01" cType="1" res="1.6380317509174347e-01" rms="4.1628676652908325e-01" purity="7.7099800109863281e-01" nType="0">
            <Node pos="l" depth="3" NCoef="0" IVar="1" Cut="6.3070321083068848e-01" cType="1" res="1.7029900848865509e-01" rms="4.1090181469917297e-01" purity="7.8237164020538330e-01" nType="0">
              <Node pos="l" depth="4" NCoef="0" IVar="3" Cut="9.6723955869674683e-01" cType="1" res="1.7741854488849640e-01" rms="4.0388220548629761e-01" purity="7.9419332742691040e-01" nType="0">
                <Node pos="l" depth="5" NCoef="0" IVar="-1" Cut="0.0000000000000000e+00" cType="1" res="1.1237219907343388e-02" rms="4.3429347872734070e-01" purity="7.4659758806228638e-01" nType="-99"/>
                <Node pos="r" depth="5" NCoef="0" IVar="3" Cut="9.9921089410781860e-01" cType="1" res="1.8095736205577850e-01" rms="4.0080884099006653e-01" purity="7.9853123426437378e-01" nType="0">
                  <Node pos="l" depth="6" NCoef="0" IVar="3" Cut="9.9508571624755859e-01" cType="1" res="1.7118211090564728e-01" rms="4.0801879763603210e-01" purity="7.8847938776016235e-01" nType="0">
                    <Node pos="l" depth="7" NCoef="0" IVar="-1" Cut="0.0000000000000000e+00" cType="1" res="1.3692147098481655e-02" rms="4.1164666414260864e-01" purity="7.8330338001251221e-01" nType="-99"/>
                    <Node pos="r" depth="7" NCoef="0" IVar="-1" Cut="0.0000000000000000e+00" cType="1" res="1.4726317487657070e-02" rms="4.0291729569435120e-01" purity="7.9553854465484619e-01" nType="-99"/>
                  </Node>
                  <Node pos="r" depth="6" NCoef="0" IVar="1" Cut="1.6947187483310699e-01" cType="1" res="1.8964605033397675e-01" rms="3.9408615231513977e-01" purity="8.0746573209762573e-01" nType="0">
                    <Node pos="l" depth="7" NCoef="0" IVar="-1" Cut="0.0000000000000000e+00" cType="1" res="1.5500626526772976e-02" rms="3.8754016160964966e-01" purity="8.1585645675659180e-01" nType="-99"/>
                    <Node pos="r" depth="7" NCoef="0" IVar="-1" Cut="0.0000000000000000e+00" cType="1" res="1.3428987935185432e-02" rms="4.1251286864280701e-01" purity="7.8241443634033203e-01" nType="-99"/>
                  </Node>
                </Node>
              </Node>
              <Node pos="r" depth="4" NCoef="0" IVar="2" Cut="1.1843763291835785e-01" cType="1" res="9.3012526631355286e-02" rms="4.7371387481689453e-01" purity="6.5404105186462402e-01" nType="0">
                <Node pos="l" depth="5" NCoef="0" IVar="-1" Cut="0.0000000000000000e+00" cType="1" res="9.0874340385198593e-03" rms="4.6250978112220764e-01" purity="6.8612271547317505e-01" nType="-99"/>
                <Node pos="r" depth="5" NCoef="0" IVar="-1" Cut="0.0000000000000000e+00" cType="1" res="5.3157084621489048e-03" rms="4.8261377215385437e-01" purity="6.2282699346542358e-01" nType="-99"/>
              </Node>
            </Node>
            <Node pos="r" depth="3" NCoef="0" IVar="-1" Cut="0.0000000000000000e+00" cType="1" res="4.0223910473287106e-03" rms="4.8793980479240417e-01" purity="5.7001769542694092e-01" nType="-99"/>
          </Node>
          <Node pos="r" depth="2" NCoef="0" IVar="0" Cut="2.6103091239929199e-01" cType="1" res="8.4379866719245911e-02" rms="4.7204807400703430e-01" purity="6.4437818527221680e-01" nType="0">
            <Node pos="l" depth="3" NCoef="0" IVar="1" Cut="8.0318146944046021e-01" cType="1" res="1.0186649858951569e-01" rms="4.6523657441139221e-01" purity="6.7216336727142334e-01" nType="0">
              <Node pos="l" depth="4" NCoef="0" IVar="3" Cut="8.3869725465774536e-01" cType="1" res="1.0941901803016663e-01" rms="4.6191838383674622e-01" purity="6.8401789665222168e-01" nType="0">
                <Node pos="l" depth="5" NCoef="0" IVar="3" Cut="7.7561658620834351e-01" cType="1" res="8.4552101790904999e-02" rms="4.7845813632011414e-01" purity="6.3913780450820923e-01" nType="0">
                  <Node pos="l" depth="6" NCoef="0" IVar="1" Cut="-3.8668802008032799e-03" cType="1" res="5.8938246220350266e-02" rms="4.8794272541999817e-01" purity="6.0231566429138184e-01" nType="0">
                    <Node pos="l" depth="7" NCoef="0" IVar="-1" Cut="0.0000000000000000e+00" cType="1" res="6.9658914580941200e-03" rms="4.8018079996109009e-01" purity="6.3806134462356567e-01" nType="-99"/>
                    <Node pos="r" depth="7" NCoef="0" IVar="-1" Cut="0.0000000000000000e+00" cType="1" res="3.1200288794934750e-03" rms="4.9367022514343262e-01" purity="5.7051098346710205e-01" nType="-99"/>
                  </Node>
                  <Node pos="r" depth="6" NCoef="0" IVar="1" Cut="1.8240804970264435e-01" cType="1" res="1.0063841938972473e-01" rms="4.7169366478919983e-01" purity="6.6226333379745483e-01" nType="0">
                    <Node pos="l" depth="7" NCoef="0" IVar="-1" Cut="0.0000000000000000e+00" cType="1" res="8.9079057797789574e-03" rms="4.6670228242874146e-01" purity="6.7814755439758301e-01" nType="-99"/>
                    <Node pos="r" depth="7" NCoef="0" IVar="-1" Cut="0.0000000000000000e+00" cType="1" res="6.1318813823163509e-03" rms="4.8400303721427917e-01" purity="6.1975896358489990e-01" nType="-99"/>
                  </Node>
                </Node>
                <Node pos="r" depth="5" NCoef="0" IVar="1" Cut="2.6394701004028320e-01" cType="1" res="1.3495975732803345e-01" rms="4.4283863902091980e-01" purity="7.3011416196823120e-01" nType="0">
                  <Node pos="l" depth="6" NCoef="0" IVar="4" Cut="2.5530191138386726e-02" cType="1" res="1.4155283570289612e-01" rms="4.3694099783897400e-01" purity="7.4205911159515381e-01" nType="0">
                    <Node pos="l" depth="7" NCoef="0" IVar="-1" Cut="0.0000000000000000e+00" cType="1" res="1.1320672929286957e-02" rms="4.4472366571426392e-01" purity="7.2733259201049805e-01" nType="-99"/>
                    <Node pos="r" depth="7" NCoef="0" IVar="-1" Cut="0.0000000000000000e+00" cType="1" res="1.2654298916459084e-02" rms="4.3335014581680298e-01" purity="7.4842357635498047e-01" nType="-99"/>
                  </Node>
                  <Node pos="r" depth="6" NCoef="0" IVar="-1" Cut="0.0000000000000000e+00" cType="1" res="9.0490113943815231e-03" rms="4.6641492843627930e-01" purity="6.7845934629440308e-01" nType="-99"/>
                </Node>
              </Node>
              <Node pos="r" depth="4" NCoef="0" IVar="-1" Cut="0.0000000000000000e+00" cType="1" res="-9.0194330550730228e-04" rms="4.9875760078430176e-01" purity="4.9564030766487122e-01" nType="-99"/>
            </Node>
            <Node pos="r" depth="3" NCoef="0" IVar="2" Cut="1.2809704589843750e+02" cType="1" res="-5.9388303197920322e-03" rms="4.9605199694633484e-01" purity="5.0086766481399536e-01" nType="0">
              <Node pos="l" depth="4" NCoef="0" IVar="4" Cut="3.7801947444677353e-02" cType="1" res="2.7004057541489601e-02" rms="4.9478313326835632e-01" purity="5.4000794887542725e-01" nType="0">
                <Node pos="l" depth="5" NCoef="0" IVar="-1" Cut="0.0000000000000000e+00" cType="1" res="2.7880116249434650e-04" rms="4.9552220106124878e-01" purity="5.1708066463470459e-01" nType="-99"/>
                <Node pos="r" depth="5" NCoef="0" IVar="-1" Cut="0.0000000000000000e+00" cType="1" res="4.1149123571813107e-03" rms="4.9286255240440369e-01" purity="5.6325912475585938e-01" nType="-99"/>
              </Node>
              <Node pos="r" depth="4" NCoef="0" IVar="-1" Cut="0.0000000000000000e+00" cType="1" res="-5.3473403677344322e-03" rms="4.9356058239936829e-01" purity="4.3868887424468994e-01" nType="-99"/>
            </Node>
          </Node>
        </Node>
      </Node>
    </BinaryTree>
    <BinaryTree type="DecisionTree" boostWeight="1.0000000000000000e+00" itree="14">
      <Node pos="s" depth="0" NCoef="0" IVar="3" Cut="7.1145009994506836e-01" cType="1" res="1.5232987701892853e-02" rms="4.3672272562980652e-01" purity="5.0081157684326172e-01" nType="0">
        <Node pos="l" depth="1" NCoef="0" IVar="3" Cut="5.3100132942199707e-01" cType="1" res="-1.3132572174072266e-01" rms="3.8231623172760010e-01" purity="2.1214805543422699e-01" nType="0">
          <Node pos="l" depth="2" NCoef="0" IVar="0" Cut="9.6646392345428467e-01" cType="1" res="-1.7408533394336700e-01" rms="3.0958735942840576e-01" purity="1.1508709937334061e-01" nType="0">
            <Node pos="l" depth="3" NCoef="0" IVar="4" Cut="8.9492306113243103e-02" cType="1" res="-1.4405438303947449e-01" rms="3.9149206876754761e-01" purity="1.9569657742977142e-01" nType="0">
              <Node pos="l" depth="4" NCoef="0" IVar="2" Cut="1.0178175354003906e+02" cType="1" res="-1.7737382650375366e-01" rms="3.5455024242401123e-01" purity="1.5178389847278595e-01" nType="0">
                <Node pos="l" depth="5" NCoef="0" IVar="-1" Cut="0.0000000000000000e+00" cType="1" res="-1.7035685479640961e-02" rms="3.8455837965011597e-01" purity="1.8684656918048859e-01" nType="-99"/>
                <Node pos="r" depth="5" NCoef="0" IVar="-1" Cut="0.0000000000000000e+00" cType="1" res="-2.3941766470670700e-02" rms="3.2829782366752625e-01" purity="1.2532170116901398e-01" nType="-99"/>
              </Node>
              <Node pos="r" depth="4" NCoef="0" IVar="2" Cut="1.7694032287597656e+02" cType="1" res="-1.3232286274433136e-01" rms="4.0304002165794373e-01" purity="2.1115788817405701e-01" nType="0">
                <Node pos="l" depth="5" NCoef="0" IVar="-1" Cut="0.0000000000000000e+00" cType="1" res="-8.6401505395770073e-03" rms="4.3768057227134705e-01" purity="2.6781958341598511e-01" nType="-99"/>
                <Node pos="r" depth="5" NCoef="0" IVar="0" Cut="1.8704192340373993e-01" cType="1" res="-1.4232462644577026e-01" rms="3.9510411024093628e-01" purity="2.0001913607120514e-01" nType="0">
                  <Node pos="l" depth="6" NCoef="0" IVar="3" Cut="3.9706912636756897e-01" cType="1" res="-1.1334412544965744e-01" rms="4.4066810607910156e-01" purity="2.6848062872886658e-01" nType="0">
                    <Node pos="l" depth="7" NCoef="0" IVar="-1" Cut="0.0000000000000000e+00" cType="1" res="-1.3838179409503937e-02" rms="4.2727035284042358e-01" purity="2.4186243116855621e-01" nType="-99"/>
                    <Node pos="r" depth="7" NCoef="0" IVar="-1" Cut="0.0000000000000000e+00" cType="1" res="-1.0122725740075111e-02" rms="4.5389896631240845e-01" purity="2.9627728462219238e-01" nType="-99"/>
                  </Node>
                  <Node pos="r" depth="6" NCoef="0" IVar="3" Cut="4.6459156274795532e-01" cType="1" res="-1.5611153841018677e-01" rms="3.7067675590515137e-01" purity="1.6744990646839142e-01" nType="0">
                    <Node pos="l" depth="7" NCoef="0" IVar="-1" Cut="0.0000000000000000e+00" cType="1" res="-2.0685924217104912e-02" rms="3.5242235660552979e-01" purity="1.4685094356536865e-01" nType="-99"/>
                    <Node pos="r" depth="7" NCoef="0" IVar="-1" Cut="0.0000000000000000e+00" cType="1" res="-1.3704718090593815e-02" rms="4.1766235232353210e-01" purity="2.2710415720939636e-01" nType="-99"/>
                  </Node>
                </Node>
              </Node>
            </Node>
            <Node pos="r" depth="3" NCoef="0" IVar="4" Cut="1.9240497052669525e-01" cType="1" res="-1.9357247650623322e-01" rms="2.4003812670707703e-01" purity="6.2779478728771210e-02" nType="0">
              <Node pos="l" depth="4" NCoef="0" IVar="5" Cut="5.0000000000000000e+00" cType="1" res="-1.9520580768585205e-01" rms="2.2981029748916626e-01" purity="5.7425294071435928e-02" nType="0">
                <Node pos="l" depth="5" NCoef="0" IVar="4" Cut="1.2421870231628418e-01" cType="1" res="-1.8667903542518616e-01" rms="2.7052599191665649e-01" purity="8.0872088670730591e-02" nType="0">
                  <Node pos="l" depth="6" NCoef="0" IVar="2" Cut="9.0615234375000000e+01" cType="1" res="-1.9383420050144196e-01" rms="2.5649976730346680e-01" purity="7.1941278874874115e-02" nType="0">
                    <Node pos="l" depth="7" NCoef="0" IVar="-1" Cut="0.0000000000000000e+00" cType="1" res="-2.4053903296589851e-02" rms="3.0103307962417603e-01" purity="1.0250257700681686e-01" nType="-99"/>
                    <Node pos="r" depth="7" NCoef="0" IVar="-1" Cut="0.0000000000000000e+00" cType="1" res="-2.9889162629842758e-02" rms="2.3514868319034576e-01" purity="5.9561189264059067e-02" nType="-99"/>
                  </Node>
                  <Node pos="r" depth="6" NCoef="0" IVar="-1" Cut="0.0000000000000000e+00" cType="1" res="-2.3281136527657509e-02" rms="3.1302949786186218e-01" purity="1.1179348081350327e-01" nType="-99"/>
                </Node>
                <Node pos="r" depth="5" NCoef="0" IVar="3" Cut="3.0110666155815125e-01" cType="1" res="-2.0395091176033020e-01" rms="1.9799108803272247e-01" purity="4.1543908417224884e-02" nType="0">
                  <Node pos="l" depth="6" NCoef="0" IVar="3" Cut="2.5609499216079712e-01" cType="1" res="-2.1086020767688751e-01" rms="1.6108438372612000e-01" purity="2.6747103780508041e-02" nType="0">
                    <Node pos="l" depth="7" NCoef="0" IVar="-1" Cut="0.0000000000000000e+00" cType="1" res="-3.6436069756746292e-02" rms="1.4889408648014069e-01" purity="2.2714983671903610e-02" nType="-99"/>
                    <Node pos="r" depth="7" NCoef="0" IVar="-1" Cut="0.0000000000000000e+00" cType="1" res="-3.2536793500185013e-02" rms="1.8338534235954285e-01" purity="3.5014852881431580e-02" nType="-99"/>
                  </Node>
                  <Node pos="r" depth="6" NCoef="0" IVar="2" Cut="2.9589990234375000e+02" cType="1" res="-1.9358907639980316e-01" rms="2.4268481135368347e-01" purity="6.3734613358974457e-02" nType="0">
                    <Node pos="l" depth="7" NCoef="0" IVar="-1" Cut="0.0000000000000000e+00" cType="1" res="-2.6587279513478279e-02" rms="2.5266581773757935e-01" purity="6.9661699235439301e-02" nType="-99"/>
                    <Node pos="r" depth="7" NCoef="0" IVar="-1" Cut="0.0000000000000000e+00" cType="1" res="-2.8601566329598427e-02" rms="2.1721778810024261e-01" purity="5.0137083977460861e-02" nType="-99"/>
                  </Node>
                </Node>
              </Node>
              <Node pos="r" depth="4" NCoef="0" IVar="-1" Cut="0.0000000000000000e+00" cType="1" res="-2.3532241582870483e-02" rms="3.1161856651306152e-01" purity="1.0966143012046814e-01" nType="-99"/>
            </Node>
          </Node>
          <Node pos="r" depth="2" NCoef="0" IVar="0" Cut="3.2121905684471130e-01" cType="1" res="-5.3274974226951599e-02" rms="4.7811070084571838e-01" purity="3.8931706547737122e-01" nType="0">
            <Node pos="l" depth="3" NCoef="0" IVar="1" Cut="2.4292743206024170e-01" cType="1" res="-1.1811684817075729e-02" rms="4.9455735087394714e-01" purity="4.6753227710723877e-01" nType="0">
              <Node pos="l" depth="4" NCoef="0" IVar="3" Cut="5.8921855688095093e-01" cType="1" res="1.1392920278012753e-02" rms="4.9674224853515625e-01" purity="4.9854418635368347e-01" nType="0">
                <Node pos="l" depth="5" NCoef="0" IVar="-1" Cut="0.0000000000000000e+00" cType="1" res="-4.1387542150914669e-03" rms="4.8867914080619812e-01" purity="4.0180936455726624e-01" nType="-99"/>
                <Node pos="r" depth="5" NCoef="0" IVar="2" Cut="2.8485095214843750e+02" cType="1" res="2.6706088334321976e-02" rms="4.9776968359947205e-01" purity="5.2448505163192749e-01" nType="0">
                  <Node pos="l" depth="6" NCoef="0" IVar="4" Cut="6.5735548734664917e-02" cType="1" res="3.8100853562355042e-02" rms="4.9715289473533630e-01" purity="5.3964966535568237e-01" nType="0">
                    <Node pos="l" depth="7" NCoef="0" IVar="-1" Cut="0.0000000000000000e+00" cType="1" res="1.3271068455651402e-03" rms="4.9853917956352234e-01" purity="5.1577925682067871e-01" nType="-99"/>
                    <Node pos="r" depth="7" NCoef="0" IVar="-1" Cut="0.0000000000000000e+00" cType="1" res="4.7143073752522469e-03" rms="4.9513635039329529e-01" purity="5.5993151664733887e-01" nType="-99"/>
                  </Node>
                  <Node pos="r" depth="6" NCoef="0" IVar="-1" Cut="0.0000000000000000e+00" cType="1" res="-5.7127955369651318e-04" rms="4.9808284640312195e-01" purity="4.8055210709571838e-01" nType="-99"/>
                </Node>
              </Node>
              <Node pos="r" depth="4" NCoef="0" IVar="3" Cut="6.4161688089370728e-01" cType="1" res="-6.8089209496974945e-02" rms="4.8462465405464172e-01" purity="3.9231994748115540e-01" nType="0">
                <Node pos="l" depth="5" NCoef="0" IVar="-1" Cut="0.0000000000000000e+00" cType="1" res="-8.9911594986915588e-03" rms="4.7317039966583252e-01" purity="3.4345856308937073e-01" nType="-99"/>
                <Node pos="r" depth="5" NCoef="0" IVar="-1" Cut="0.0000000000000000e+00" cType="1" res="-3.7216311320662498e-03" rms="4.9389430880546570e-01" purity="4.3886229395866394e-01" nType="-99"/>
              </Node>
            </Node>
            <Node pos="r" depth="3" NCoef="0" IVar="3" Cut="5.9503263235092163e-01" cType="1" res="-9.3227095901966095e-02" rms="4.5817354321479797e-01" purity="3.1395244598388672e-01" nType="0">
              <Node pos="l" depth="4" NCoef="0" IVar="1" Cut="8.5903137922286987e-02" cType="1" res="-1.2415170669555664e-01" rms="4.3195626139640808e-01" purity="2.5440740585327148e-01" nType="0">
                <Node pos="l" depth="5" NCoef="0" IVar="-1" Cut="0.0000000000000000e+00" cType="1" res="-8.5691828280687332e-03" rms="4.5580533146858215e-01" purity="3.0271133780479431e-01" nType="-99"/>
                <Node pos="r" depth="5" NCoef="0" IVar="-1" Cut="0.0000000000000000e+00" cType="1" res="-1.6258373856544495e-02" rms="4.1102406382560730e-01" purity="2.1840856969356537e-01" nType="-99"/>
              </Node>
              <Node pos="r" depth="4" NCoef="0" IVar="2" Cut="9.8365921020507812e+01" cType="1" res="-7.1195654571056366e-02" rms="4.7474414110183716e-01" purity="3.5637375712394714e-01" nType="0">
                <Node pos="l" depth="5" NCoef="0" IVar="-1" Cut="0.0000000000000000e+00" cType="1" res="-3.1835918780416250e-03" rms="4.8624473810195923e-01" purity="3.9922124147415161e-01" nType="-99"/>
                <Node pos="r" depth="5" NCoef="0" IVar="4" Cut="6.5684370696544647e-02" cType="1" res="-9.3234114348888397e-02" rms="4.6607127785682678e-01" purity="3.2964077591896057e-01" nType="0">
                  <Node pos="l" depth="6" NCoef="0" IVar="-1" Cut="0.0000000000000000e+00" cType="1" res="-1.3888077810406685e-02" rms="4.4663429260253906e-01" purity="2.8412783145904541e-01" nType="-99"/>
                  <Node pos="r" depth="6" NCoef="0" IVar="-1" Cut="0.0000000000000000e+00" cType="1" res="-5.9066405519843102e-03" rms="4.7604453563690186e-01" purity="3.5995793342590332e-01" nType="-99"/>
                </Node>
              </Node>
            </Node>
          </Node>
        </Node>
        <Node pos="r" depth="1" NCoef="0" IVar="3" Cut="8.7549543380737305e-01" cType="1" res="1.2420582026243210e-01" rms="4.4273450970649719e-01" purity="7.1544563770294189e-01" nType="0">
          <Node pos="l" depth="2" NCoef="0" IVar="0" Cut="2.7856880426406860e-01" cType="1" res="6.8131193518638611e-02" rms="4.7933378815650940e-01" purity="6.2004280090332031e-01" nType="0">
            <Node pos="l" depth="3" NCoef="0" IVar="1" Cut="7.5449937582015991e-01" cType="1" res="8.4554038941860199e-02" rms="4.7411128878593445e-01" purity="6.4722067117691040e-01" nType="0">
              <Node pos="l" depth="4" NCoef="0" IVar="3" Cut="7.9082590341567993e-01" cType="1" res="9.1518327593803406e-02" rms="4.7148767113685608e-01" purity="6.5935832262039185e-01" nType="0">
                <Node pos="l" depth="5" NCoef="0" IVar="1" Cut="2.2604054212570190e-01" cType="1" res="6.4601138234138489e-02" rms="4.8565831780433655e-01" purity="6.1167967319488525e-01" nType="0">
                  <Node pos="l" depth="6" NCoef="0" IVar="3" Cut="7.4985843896865845e-01" cType="1" res="7.4305742979049683e-02" rms="4.8236814141273499e-01" purity="6.2793898582458496e-01" nType="0">
                    <Node pos="l" depth="7" NCoef="0" IVar="-1" Cut="0.0000000000000000e+00" cType="1" res="4.5532383956015110e-03" rms="4.8936644196510315e-01" purity="5.9902560710906982e-01" nType="-99"/>
                    <Node pos="r" depth="7" NCoef="0" IVar="-1" Cut="0.0000000000000000e+00" cType="1" res="7.5323833152651787e-03" rms="4.7591698169708252e-01" purity="6.5161973237991333e-01" nType="-99"/>
                  </Node>
                  <Node pos="r" depth="6" NCoef="0" IVar="-1" Cut="0.0000000000000000e+00" cType="1" res="2.6902414392679930e-03" rms="4.9528652429580688e-01" purity="5.5623424053192139e-01" nType="-99"/>
                </Node>
                <Node pos="r" depth="5" NCoef="0" IVar="0" Cut="1.7971614003181458e-01" cType="1" res="1.0629618167877197e-01" rms="4.6285852789878845e-01" purity="6.8553441762924194e-01" nType="0">
                  <Node pos="l" depth="6" NCoef="0" IVar="1" Cut="1.6908925771713257e-01" cType="1" res="1.1286717653274536e-01" rms="4.5927476882934570e-01" purity="6.9512403011322021e-01" nType="0">
                    <Node pos="l" depth="7" NCoef="0" IVar="-1" Cut="0.0000000000000000e+00" cType="1" res="9.7321365028619766e-03" rms="4.5370128750801086e-01" purity="7.0907127857208252e-01" nType="-99"/>
                    <Node pos="r" depth="7" NCoef="0" IVar="-1" Cut="0.0000000000000000e+00" cType="1" res="7.3013338260352612e-03" rms="4.7333815693855286e-01" purity="6.5741938352584839e-01" nType="-99"/>
                  </Node>
                  <Node pos="r" depth="6" NCoef="0" IVar="-1" Cut="0.0000000000000000e+00" cType="1" res="5.5344537831842899e-03" rms="4.8500147461891174e-01" purity="6.1741852760314941e-01" nType="-99"/>
                </Node>
              </Node>
              <Node pos="r" depth="4" NCoef="0" IVar="-1" Cut="0.0000000000000000e+00" cType="1" res="-2.4294397735502571e-04" rms="4.9768328666687012e-01" purity="4.9469298124313354e-01" nType="-99"/>
            </Node>
            <Node pos="r" depth="3" NCoef="0" IVar="2" Cut="9.8650894165039062e+01" cType="1" res="-1.1479687876999378e-02" rms="4.9623927474021912e-01" purity="4.8829630017280579e-01" nType="0">
              <Node pos="l" depth="4" NCoef="0" IVar="-1" Cut="0.0000000000000000e+00" cType="1" res="1.6332647064700723e-03" rms="4.9630081653594971e-01" purity="5.2949851751327515e-01" nType="-99"/>
              <Node pos="r" depth="4" NCoef="0" IVar="-1" Cut="0.0000000000000000e+00" cType="1" res="-3.9408039301633835e-03" rms="4.9411484599113464e-01" purity="4.4620332121849060e-01" nType="-99"/>
            </Node>
          </Node>
          <Node pos="r" depth="2" NCoef="0" IVar="0" Cut="3.0660346150398254e-01" cType="1" res="1.5293018519878387e-01" rms="4.1987025737762451e-01" purity="7.6431602239608765e-01" nType="0">
            <Node pos="l" depth="3" NCoef="0" IVar="1" Cut="8.6545002460479736e-01" cType="1" res="1.6007117927074432e-01" rms="4.1453284025192261e-01" purity="7.7657431364059448e-01" nType="0">
              <Node pos="l" depth="4" NCoef="0" IVar="1" Cut="4.0032991766929626e-01" cType="1" res="1.6536471247673035e-01" rms="4.0963023900985718e-01" purity="7.8548729419708252e-01" nType="0">
                <Node pos="l" depth="5" NCoef="0" IVar="3" Cut="9.4688862562179565e-01" cType="1" res="1.7003913223743439e-01" rms="4.0471208095550537e-01" purity="7.9301786422729492e-01" nType="0">
                  <Node pos="l" depth="6" NCoef="0" IVar="4" Cut="3.1680196523666382e-02" cType="1" res="1.4382605254650116e-01" rms="4.2874291539192200e-01" purity="7.5666058063507080e-01" nType="0">
                    <Node pos="l" depth="7" NCoef="0" IVar="-1" Cut="0.0000000000000000e+00" cType="1" res="1.2167279608547688e-02" rms="4.3440464138984680e-01" purity="7.4703073501586914e-01" nType="-99"/>
                    <Node pos="r" depth="7" NCoef="0" IVar="-1" Cut="0.0000000000000000e+00" cType="1" res="1.4439104124903679e-02" rms="4.1830173134803772e-01" purity="7.7325487136840820e-01" nType="-99"/>
                  </Node>
                  <Node pos="r" depth="6" NCoef="0" IVar="1" Cut="-4.9733139574527740e-02" cType="1" res="1.7562259733676910e-01" rms="3.9918440580368042e-01" purity="8.0076211690902710e-01" nType="0">
                    <Node pos="l" depth="7" NCoef="0" IVar="-1" Cut="0.0000000000000000e+00" cType="1" res="1.4597577042877674e-02" rms="3.9287206530570984e-01" purity="8.0904245376586914e-01" nType="-99"/>
                    <Node pos="r" depth="7" NCoef="0" IVar="-1" Cut="0.0000000000000000e+00" cType="1" res="1.4099013060331345e-02" rms="4.0394431352615356e-01" purity="7.9434591531753540e-01" nType="-99"/>
                  </Node>
                </Node>
                <Node pos="r" depth="5" NCoef="0" IVar="1" Cut="6.2535238265991211e-01" cType="1" res="1.2650166451931000e-01" rms="4.4654560089111328e-01" purity="7.2287851572036743e-01" nType="0">
                  <Node pos="l" depth="6" NCoef="0" IVar="1" Cut="4.8741069436073303e-01" cType="1" res="1.3581202924251556e-01" rms="4.3833148479461670e-01" purity="7.3948341608047485e-01" nType="0">
                    <Node pos="l" depth="7" NCoef="0" IVar="-1" Cut="0.0000000000000000e+00" cType="1" res="1.0569505393505096e-02" rms="4.4030609726905823e-01" purity="7.3585927486419678e-01" nType="-99"/>
                    <Node pos="r" depth="7" NCoef="0" IVar="-1" Cut="0.0000000000000000e+00" cType="1" res="1.1229090392589569e-02" rms="4.3643820285797119e-01" purity="7.4283635616302490e-01" nType="-99"/>
                  </Node>
                  <Node pos="r" depth="6" NCoef="0" IVar="-1" Cut="0.0000000000000000e+00" cType="1" res="8.5650077089667320e-03" rms="4.6229448914527893e-01" purity="6.8894845247268677e-01" nType="-99"/>
                </Node>
              </Node>
              <Node pos="r" depth="4" NCoef="0" IVar="-1" Cut="0.0000000000000000e+00" cType="1" res="5.0176894292235374e-03" rms="4.8649287223815918e-01" purity="6.1109459400177002e-01" nType="-99"/>
            </Node>
            <Node pos="r" depth="3" NCoef="0" IVar="-1" Cut="0.0000000000000000e+00" cType="1" res="1.5652468428015709e-03" rms="4.9089762568473816e-01" purity="5.3413343429565430e-01" nType="-99"/>
          </Node>
        </Node>
      </Node>
    </BinaryTree>
    <BinaryTree type="DecisionTree" boostWeight="1.0000000000000000e+00" itree="15">
      <Node pos="s" depth="0" NCoef="0" IVar="3" Cut="6.4828062057495117e-01" cType="1" res="1.4532008208334446e-02" rms="4.3456244468688965e-01" purity="5.0014662742614746e-01" nType="0">
        <Node pos="l" depth="1" NCoef="0" IVar="3" Cut="5.0478106737136841e-01" cType="1" res="-1.4382778108119965e-01" rms="3.5621765255928040e-01" purity="1.7013986408710480e-01" nType="0">
          <Node pos="l" depth="2" NCoef="0" IVar="0" Cut="6.4378035068511963e-01" cType="1" res="-1.7000427842140198e-01" rms="2.9656735062599182e-01" purity="1.0370532423257828e-01" nType="0">
            <Node pos="l" depth="3" NCoef="0" IVar="4" Cut="1.1656364798545837e-01" cType="1" res="-1.3251258432865143e-01" rms="4.0633213520050049e-01" purity="2.1353489160537720e-01" nType="0">
              <Node pos="l" depth="4" NCoef="0" IVar="-1" Cut="0.0000000000000000e+00" cType="1" res="-1.9355205819010735e-02" rms="3.7449058890342712e-01" purity="1.7320801317691803e-01" nType="-99"/>
              <Node pos="r" depth="4" NCoef="0" IVar="2" Cut="2.6337353515625000e+02" cType="1" res="-1.2155530601739883e-01" rms="4.1457852721214294e-01" purity="2.2537316381931305e-01" nType="0">
                <Node pos="l" depth="5" NCoef="0" IVar="-1" Cut="0.0000000000000000e+00" cType="1" res="-8.4670027717947960e-03" rms="4.4088244438171387e-01" purity="2.7160865068435669e-01" nType="-99"/>
                <Node pos="r" depth="5" NCoef="0" IVar="3" Cut="2.8420248627662659e-01" cType="1" res="-1.3513109087944031e-01" rms="4.0490242838859558e-01" purity="2.1064817905426025e-01" nType="0">
                  <Node pos="l" depth="6" NCoef="0" IVar="-1" Cut="0.0000000000000000e+00" cType="1" res="-1.1930421926081181e-02" rms="4.2170956730842590e-01" purity="2.3738627135753632e-01" nType="-99"/>
                  <Node pos="r" depth="6" NCoef="0" IVar="3" Cut="4.1940265893936157e-01" cType="1" res="-1.4853923022747040e-01" rms="3.9673784375190735e-01" purity="1.9920627772808075e-01" nType="0">
                    <Node pos="l" depth="7" NCoef="0" IVar="-1" Cut="0.0000000000000000e+00" cType="1" res="-2.0360739901661873e-02" rms="3.6751472949981689e-01" purity="1.6225095093250275e-01" nType="-99"/>
                    <Node pos="r" depth="7" NCoef="0" IVar="-1" Cut="0.0000000000000000e+00" cType="1" res="-1.2662648223340511e-02" rms="4.2844453454017639e-01" purity="2.4535678327083588e-01" nType="-99"/>
                  </Node>
                </Node>
              </Node>
            </Node>
            <Node pos="r" depth="3" NCoef="0" IVar="4" Cut="1.0242903232574463e-01" cType="1" res="-1.8092770874500275e-01" rms="2.5484147667884827e-01" purity="7.1705818176269531e-02" nType="0">
              <Node pos="l" depth="4" NCoef="0" IVar="2" Cut="9.8259117126464844e+01" cType="1" res="-1.8978980183601379e-01" rms="2.3127312958240509e-01" purity="5.8176130056381226e-02" nType="0">
                <Node pos="l" depth="5" NCoef="0" IVar="3" Cut="4.1350555419921875e-01" cType="1" res="-1.7509409785270691e-01" rms="2.6156020164489746e-01" purity="7.6080575585365295e-02" nType="0">
                  <Node pos="l" depth="6" NCoef="0" IVar="5" Cut="6.0000000000000000e+00" cType="1" res="-1.7932358384132385e-01" rms="2.1766518056392670e-01" purity="5.1699556410312653e-02" nType="0">
                    <Node pos="l" depth="7" NCoef="0" IVar="-1" Cut="0.0000000000000000e+00" cType="1" res="-2.8572035953402519e-02" rms="2.4638742208480835e-01" purity="6.5364025533199310e-02" nType="-99"/>
                    <Node pos="r" depth="7" NCoef="0" IVar="-1" Cut="0.0000000000000000e+00" cType="1" res="-3.2995186746120453e-02" rms="1.8246875703334808e-01" purity="3.4617107361555099e-02" nType="-99"/>
                  </Node>
                  <Node pos="r" depth="6" NCoef="0" IVar="-1" Cut="0.0000000000000000e+00" cType="1" res="-1.9895870238542557e-02" rms="3.4260296821594238e-01" purity="1.3724243640899658e-01" nType="-99"/>
                </Node>
                <Node pos="r" depth="5" NCoef="0" IVar="2" Cut="2.7918179321289062e+02" cType="1" res="-1.9765678048133850e-01" rms="2.1288314461708069e-01" purity="4.8591420054435730e-02" nType="0">
                  <Node pos="l" depth="6" NCoef="0" IVar="4" Cut="6.9694600999355316e-02" cType="1" res="-1.9444140791893005e-01" rms="2.1883304417133331e-01" purity="5.1549371331930161e-02" nType="0">
                    <Node pos="l" depth="7" NCoef="0" IVar="-1" Cut="0.0000000000000000e+00" cType="1" res="-3.0155740678310394e-02" rms="2.0457282662391663e-01" purity="4.4442486017942429e-02" nType="-99"/>
                    <Node pos="r" depth="7" NCoef="0" IVar="-1" Cut="0.0000000000000000e+00" cType="1" res="-2.8948221355676651e-02" rms="2.3553356528282166e-01" purity="6.0628842562437057e-02" nType="-99"/>
                  </Node>
                  <Node pos="r" depth="6" NCoef="0" IVar="-1" Cut="0.0000000000000000e+00" cType="1" res="-2.9649062082171440e-02" rms="1.9448140263557434e-01" purity="4.0091663599014282e-02" nType="-99"/>
                </Node>
              </Node>
              <Node pos="r" depth="4" NCoef="0" IVar="2" Cut="1.9184870910644531e+02" cType="1" res="-1.7110343277454376e-01" rms="2.7831891179084778e-01" purity="8.6704462766647339e-02" nType="0">
                <Node pos="l" depth="5" NCoef="0" IVar="-1" Cut="0.0000000000000000e+00" cType="1" res="-2.1616533398628235e-02" rms="3.1447622179985046e-01" purity="1.1520666629076004e-01" nType="-99"/>
                <Node pos="r" depth="5" NCoef="0" IVar="4" Cut="1.9721700251102448e-01" cType="1" res="-1.7864301800727844e-01" rms="2.6797056198120117e-01" purity="7.9564325511455536e-02" nType="0">
                  <Node pos="l" depth="6" NCoef="0" IVar="3" Cut="3.9533239603042603e-01" cType="1" res="-1.8630142509937286e-01" rms="2.4818807840347290e-01" purity="6.7532978951931000e-02" nType="0">
                    <Node pos="l" depth="7" NCoef="0" IVar="-1" Cut="0.0000000000000000e+00" cType="1" res="-3.0367530882358551e-02" rms="2.1921367943286896e-01" purity="5.1316205412149429e-02" nType="-99"/>
                    <Node pos="r" depth="7" NCoef="0" IVar="-1" Cut="0.0000000000000000e+00" cType="1" res="-2.1354926750063896e-02" rms="3.3092296123504639e-01" purity="1.2567491829395294e-01" nType="-99"/>
                  </Node>
                  <Node pos="r" depth="6" NCoef="0" IVar="-1" Cut="0.0000000000000000e+00" cType="1" res="-2.2477611899375916e-02" rms="3.1634449958801270e-01" purity="1.1361857503652573e-01" nType="-99"/>
                </Node>
              </Node>
            </Node>
          </Node>
          <Node pos="r" depth="2" NCoef="0" IVar="1" Cut="3.4864857792854309e-01" cType="1" res="-8.4877111017704010e-02" rms="4.5778235793113708e-01" purity="3.1975346803665161e-01" nType="0">
            <Node pos="l" depth="3" NCoef="0" IVar="0" Cut="4.7516509890556335e-01" cType="1" res="-6.1959590762853622e-02" rms="4.7018384933471680e-01" purity="3.5285544395446777e-01" nType="0">
              <Node pos="l" depth="4" NCoef="0" IVar="2" Cut="2.7602163696289062e+02" cType="1" res="-3.3997632563114166e-02" rms="4.8890021443367004e-01" purity="4.1304472088813782e-01" nType="0">
                <Node pos="l" depth="5" NCoef="0" IVar="0" Cut="1.9924309849739075e-01" cType="1" res="-1.6642713919281960e-02" rms="4.9249503016471863e-01" purity="4.3625348806381226e-01" nType="0">
                  <Node pos="l" depth="6" NCoef="0" IVar="-1" Cut="0.0000000000000000e+00" cType="1" res="1.2108770897611976e-03" rms="4.9795460700988770e-01" purity="4.8790362477302551e-01" nType="-99"/>
                  <Node pos="r" depth="6" NCoef="0" IVar="-1" Cut="0.0000000000000000e+00" cType="1" res="-3.8884596433490515e-03" rms="4.8663750290870667e-01" purity="3.9491766691207886e-01" nType="-99"/>
                </Node>
                <Node pos="r" depth="5" NCoef="0" IVar="-1" Cut="0.0000000000000000e+00" cType="1" res="-6.4972718246281147e-03" rms="4.7990739345550537e-01" purity="3.6732324957847595e-01" nType="-99"/>
              </Node>
              <Node pos="r" depth="4" NCoef="0" IVar="4" Cut="8.0834597349166870e-02" cType="1" res="-1.0284887254238129e-01" rms="4.3818736076354980e-01" purity="2.6483952999114990e-01" nType="0">
                <Node pos="l" depth="5" NCoef="0" IVar="-1" Cut="0.0000000000000000e+00" cType="1" res="-1.3017178513109684e-02" rms="4.2636188864707947e-01" purity="2.4474033713340759e-01" nType="-99"/>
                <Node pos="r" depth="5" NCoef="0" IVar="-1" Cut="0.0000000000000000e+00" cType="1" res="-7.5043840333819389e-03" rms="4.5337179303169250e-01" purity="2.9446059465408325e-01" nType="-99"/>
              </Node>
            </Node>
            <Node pos="r" depth="3" NCoef="0" IVar="1" Cut="6.5961229801177979e-01" cType="1" res="-1.4246994256973267e-01" rms="4.1953217983245850e-01" purity="2.3656663298606873e-01" nType="0">
              <Node pos="l" depth="4" NCoef="0" IVar="-1" Cut="0.0000000000000000e+00" cType="1" res="-1.1492124758660793e-02" rms="4.4137340784072876e-01" purity="2.7415347099304199e-01" nType="-99"/>
              <Node pos="r" depth="4" NCoef="0" IVar="-1" Cut="0.0000000000000000e+00" cType="1" res="-1.8935466185212135e-02" rms="3.9385166764259338e-01" purity="1.9859729707241058e-01" nType="-99"/>
            </Node>
          </Node>
        </Node>
        <Node pos="r" depth="1" NCoef="0" IVar="3" Cut="8.2047575712203979e-01" cType="1" res="1.0678036510944366e-01" rms="4.4923907518386841e-01" purity="6.9238352775573730e-01" nType="0">
          <Node pos="l" depth="2" NCoef="0" IVar="0" Cut="2.8154522180557251e-01" cType="1" res="2.5927856564521790e-02" rms="4.9080836772918701e-01" purity="5.4485857486724854e-01" nType="0">
            <Node pos="l" depth="3" NCoef="0" IVar="0" Cut="9.0820752084255219e-03" cType="1" res="4.8390205949544907e-02" rms="4.8842510581016541e-01" purity="5.8744674921035767e-01" nType="0">
              <Node pos="l" depth="4" NCoef="0" IVar="1" Cut="2.3674672469496727e-02" cType="1" res="5.9151817113161087e-02" rms="4.8625984787940979e-01" purity="6.0217666625976562e-01" nType="0">
                <Node pos="l" depth="5" NCoef="0" IVar="2" Cut="1.5342732238769531e+02" cType="1" res="0.0000000000000000e+00" rms="0.0000000000000000e+00" purity="6.3834005594253540e-01" nType="0">
                  <Node pos="l" depth="6" NCoef="0" IVar="4" Cut="4.3983511626720428e-02" cType="1" res="0.0000000000000000e+00" rms="0.0000000000000000e+00" purity="6.6266989707946777e-01" nType="0">
                    <Node pos="l" depth="7" NCoef="0" IVar="-1" Cut="0.0000000000000000e+00" cType="1" res="6.3087362796068192e-03" rms="4.7748249769210815e-01" purity="6.4564591646194458e-01" nType="-99"/>
                    <Node pos="r" depth="7" NCoef="0" IVar="-1" Cut="0.0000000000000000e+00" cType="1" res="8.5627874359488487e-03" rms="4.6688631176948547e-01" purity="6.7577904462814331e-01" nType="-99"/>
                  </Node>
                  <Node pos="r" depth="6" NCoef="0" IVar="-1" Cut="0.0000000000000000e+00" cType="1" res="4.2044585570693016e-03" rms="4.8893430829048157e-01" purity="5.9838145971298218e-01" nType="-99"/>
                </Node>
                <Node pos="r" depth="5" NCoef="0" IVar="3" Cut="7.4269366264343262e-01" cType="1" res="3.9190500974655151e-02" rms="4.9249994754791260e-01" purity="5.6655371189117432e-01" nType="0">
                  <Node pos="l" depth="6" NCoef="0" IVar="3" Cut="7.0309311151504517e-01" cType="1" res="8.7678432464599609e-03" rms="4.9790054559707642e-01" purity="5.1873195171356201e-01" nType="0">
                    <Node pos="l" depth="7" NCoef="0" IVar="-1" Cut="0.0000000000000000e+00" cType="1" res="1.1186453775735572e-04" rms="4.9861440062522888e-01" purity="5.0296086072921753e-01" nType="-99"/>
                    <Node pos="r" depth="7" NCoef="0" IVar="-1" Cut="0.0000000000000000e+00" cType="1" res="1.4218614669516683e-03" rms="4.9698960781097412e-01" purity="5.3600293397903442e-01" nType="-99"/>
                  </Node>
                  <Node pos="r" depth="6" NCoef="0" IVar="4" Cut="4.7867279499769211e-02" cType="1" res="0.0000000000000000e+00" rms="0.0000000000000000e+00" purity="6.0397636890411377e-01" nType="0">
                    <Node pos="l" depth="7" NCoef="0" IVar="-1" Cut="0.0000000000000000e+00" cType="1" res="2.9598404653370380e-03" rms="4.8982381820678711e-01" purity="5.7965767383575439e-01" nType="-99"/>
                    <Node pos="r" depth="7" NCoef="0" IVar="-1" Cut="0.0000000000000000e+00" cType="1" res="6.3931723125278950e-03" rms="4.8426949977874756e-01" purity="6.1931586265563965e-01" nType="-99"/>
                  </Node>
                </Node>
              </Node>
              <Node pos="r" depth="4" NCoef="0" IVar="3" Cut="7.3715704679489136e-01" cType="1" res="6.9798529148101807e-03" rms="4.9448916316032410e-01" purity="5.3076642751693726e-01" nType="0">
                <Node pos="l" depth="5" NCoef="0" IVar="-1" Cut="0.0000000000000000e+00" cType="1" res="-2.1309577859938145e-03" rms="4.9620974063873291e-01" purity="4.8051393032073975e-01" nType="-99"/>
                <Node pos="r" depth="5" NCoef="0" IVar="-1" Cut="0.0000000000000000e+00" cType="1" res="2.5876581203192472e-03" rms="4.9219694733619690e-01" purity="5.6614118814468384e-01" nType="-99"/>
              </Node>
            </Node>
            <Node pos="r" depth="3" NCoef="0" IVar="2" Cut="2.1553344726562500e+02" cType="1" res="-2.6666518300771713e-02" rms="4.9235114455223083e-01" purity="4.4514080882072449e-01" nType="0">
              <Node pos="l" depth="4" NCoef="0" IVar="4" Cut="3.5765841603279114e-02" cType="1" res="-1.0937196202576160e-02" rms="4.9441495537757874e-01" purity="4.6518814563751221e-01" nType="0">
                <Node pos="l" depth="5" NCoef="0" IVar="-1" Cut="0.0000000000000000e+00" cType="1" res="-5.7149026542901993e-03" rms="4.8796036839485168e-01" purity="4.1608276963233948e-01" nType="-99"/>
                <Node pos="r" depth="5" NCoef="0" IVar="3" Cut="6.9824659824371338e-01" cType="1" res="1.1807387694716454e-02" rms="4.9550575017929077e-01" purity="4.8670136928558350e-01" nType="0">
                  <Node pos="l" depth="6" NCoef="0" IVar="-1" Cut="0.0000000000000000e+00" cType="1" res="-1.7570009222254157e-03" rms="4.9136695265769958e-01" purity="4.2869922518730164e-01" nType="-99"/>
                  <Node pos="r" depth="6" NCoef="0" IVar="-1" Cut="0.0000000000000000e+00" cType="1" res="2.5230855681002140e-03" rms="4.9699971079826355e-01" purity="5.2094715833663940e-01" nType="-99"/>
                </Node>
              </Node>
              <Node pos="r" depth="4" NCoef="0" IVar="-1" Cut="0.0000000000000000e+00" cType="1" res="-8.0946860834956169e-03" rms="4.8028841614723206e-01" purity="3.7147694826126099e-01" nType="-99"/>
            </Node>
          </Node>
          <Node pos="r" depth="2" NCoef="0" IVar="0" Cut="3.0660334229469299e-01" cType="1" res="1.3778676092624664e-01" rms="4.2820739746093750e-01" purity="7.4895828962326050e-01" nType="0">
            <Node pos="l" depth="3" NCoef="0" IVar="3" Cut="9.6944355964660645e-01" cType="1" res="1.4503155648708344e-01" rms="4.2321112751960754e-01" purity="7.6152265071868896e-01" nType="0">
              <Node pos="l" depth="4" NCoef="0" IVar="1" Cut="6.2026327848434448e-01" cType="1" res="1.1332083493471146e-01" rms="4.4927820563316345e-01" purity="7.1323317289352417e-01" nType="0">
                <Node pos="l" depth="5" NCoef="0" IVar="3" Cut="8.6852800846099854e-01" cType="1" res="1.2206041067838669e-01" rms="4.4371393322944641e-01" purity="7.2775864601135254e-01" nType="0">
                  <Node pos="l" depth="6" NCoef="0" IVar="1" Cut="8.7926402688026428e-02" cType="1" res="1.0456510633230209e-01" rms="4.5983126759529114e-01" purity="6.9477468729019165e-01" nType="0">
                    <Node pos="l" depth="7" NCoef="0" IVar="-1" Cut="0.0000000000000000e+00" cType="1" res="9.3263303861021996e-03" rms="4.5387586951255798e-01" purity="7.0910710096359253e-01" nType="-99"/>
                    <Node pos="r" depth="7" NCoef="0" IVar="-1" Cut="0.0000000000000000e+00" cType="1" res="7.1295816451311111e-03" rms="4.7032916545867920e-01" purity="6.6781121492385864e-01" nType="-99"/>
                  </Node>
                  <Node pos="r" depth="6" NCoef="0" IVar="4" Cut="2.5334278121590614e-02" cType="1" res="1.3441212475299835e-01" rms="4.3154615163803101e-01" purity="7.5104534626007080e-01" nType="0">
                    <Node pos="l" depth="7" NCoef="0" IVar="-1" Cut="0.0000000000000000e+00" cType="1" res="1.0980034247040749e-02" rms="4.3545776605606079e-01" purity="7.4390304088592529e-01" nType="-99"/>
                    <Node pos="r" depth="7" NCoef="0" IVar="-1" Cut="0.0000000000000000e+00" cType="1" res="1.3029459863901138e-02" rms="4.2666843533515930e-01" purity="7.5948351621627808e-01" nType="-99"/>
                  </Node>
                </Node>
                <Node pos="r" depth="5" NCoef="0" IVar="-1" Cut="0.0000000000000000e+00" cType="1" res="1.8133438425138593e-03" rms="4.9479326605796814e-01" purity="5.6062960624694824e-01" nType="-99"/>
              </Node>
              <Node pos="r" depth="4" NCoef="0" IVar="1" Cut="8.5035222768783569e-01" cType="1" res="1.6190552711486816e-01" rms="4.0765875577926636e-01" purity="7.8721868991851807e-01" nType="0">
                <Node pos="l" depth="5" NCoef="0" IVar="1" Cut="2.8915174771100283e-03" cType="1" res="1.6612911224365234e-01" rms="4.0275499224662781e-01" purity="7.9550802707672119e-01" nType="0">
                  <Node pos="l" depth="6" NCoef="0" IVar="3" Cut="1.0018949508666992e+00" cType="1" res="1.7770597338676453e-01" rms="3.9046394824981689e-01" purity="8.1214916706085205e-01" nType="0">
                    <Node pos="l" depth="7" NCoef="0" IVar="-1" Cut="0.0000000000000000e+00" cType="1" res="1.4404856599867344e-02" rms="3.9310786128044128e-01" purity="8.0879938602447510e-01" nType="-99"/>
                    <Node pos="r" depth="7" NCoef="0" IVar="-1" Cut="0.0000000000000000e+00" cType="1" res="1.4651209115982056e-02" rms="3.8607865571975708e-01" purity="8.1758838891983032e-01" nType="-99"/>
                  </Node>
                  <Node pos="r" depth="6" NCoef="0" IVar="1" Cut="2.4892920255661011e-01" cType="1" res="1.5423893928527832e-01" rms="4.1466355323791504e-01" purity="7.7841651439666748e-01" nType="0">
                    <Node pos="l" depth="7" NCoef="0" IVar="-1" Cut="0.0000000000000000e+00" cType="1" res="1.3744931668043137e-02" rms="4.0318399667739868e-01" purity="7.9549592733383179e-01" nType="-99"/>
                    <Node pos="r" depth="7" NCoef="0" IVar="-1" Cut="0.0000000000000000e+00" cType="1" res="1.1167338117957115e-02" rms="4.2967540025711060e-01" purity="7.5470817089080811e-01" nType="-99"/>
                  </Node>
                </Node>
                <Node pos="r" depth="5" NCoef="0" IVar="-1" Cut="0.0000000000000000e+00" cType="1" res="7.0960810407996178e-03" rms="4.7796535491943359e-01" purity="6.4589333534240723e-01" nType="-99"/>
              </Node>
            </Node>
            <Node pos="r" depth="3" NCoef="0" IVar="-1" Cut="0.0000000000000000e+00" cType="1" res="5.1194865955039859e-04" rms="4.9232819676399231e-01" purity="5.2058577537536621e-01" nType="-99"/>
          </Node>
        </Node>
      </Node>
    </BinaryTree>
    <BinaryTree type="DecisionTree" boostWeight="1.0000000000000000e+00" itree="16">
      <Node pos="s" depth="0" NCoef="0" IVar="3" Cut="7.1639901399612427e-01" cType="1" res="1.4238528907299042e-02" rms="4.3278178572654724e-01" purity="4.9968251585960388e-01" nType="0">
        <Node pos="l" depth="1" NCoef="0" IVar="3" Cut="5.5738848447799683e-01" cType="1" res="-1.1758472025394440e-01" rms="3.8181880116462708e-01" purity="2.1457378566265106e-01" nType="0">
          <Node pos="l" depth="2" NCoef="0" IVar="0" Cut="6.4506113529205322e-01" cType="1" res="-1.5352763235569000e-01" rms="3.1815689802169800e-01" purity="1.2420842051506042e-01" nType="0">
            <Node pos="l" depth="3" NCoef="0" IVar="3" Cut="4.6945229172706604e-01" cType="1" res="-1.1497361212968826e-01" rms="4.2240658402442932e-01" purity="2.4105805158615112e-01" nType="0">
              <Node pos="l" depth="4" NCoef="0" IVar="4" Cut="1.4146535098552704e-01" cType="1" res="-1.3443538546562195e-01" rms="3.9529576897621155e-01" purity="1.9747118651866913e-01" nType="0">
                <Node pos="l" depth="5" NCoef="0" IVar="-1" Cut="0.0000000000000000e+00" cType="1" res="-2.0528094843029976e-02" rms="3.5598292946815491e-01" purity="1.5165807306766510e-01" nType="-99"/>
                <Node pos="r" depth="5" NCoef="0" IVar="4" Cut="2.3918862640857697e-01" cType="1" res="-1.2108429521322250e-01" rms="4.0811473131179810e-01" purity="2.1446813642978668e-01" nType="0">
                  <Node pos="l" depth="6" NCoef="0" IVar="2" Cut="4.6069104003906250e+02" cType="1" res="-1.3314098119735718e-01" rms="3.9798444509506226e-01" purity="1.9978298246860504e-01" nType="0">
                    <Node pos="l" depth="7" NCoef="0" IVar="-1" Cut="0.0000000000000000e+00" cType="1" res="-1.4037206768989563e-02" rms="4.0878823399543762e-01" purity="2.1375033259391785e-01" nType="-99"/>
                    <Node pos="r" depth="7" NCoef="0" IVar="-1" Cut="0.0000000000000000e+00" cType="1" res="-1.6981272026896477e-02" rms="3.8651213049888611e-01" purity="1.8588453531265259e-01" nType="-99"/>
                  </Node>
                  <Node pos="r" depth="6" NCoef="0" IVar="-1" Cut="0.0000000000000000e+00" cType="1" res="-1.0841585695743561e-02" rms="4.2715466022491455e-01" purity="2.4471509456634521e-01" nType="-99"/>
                </Node>
              </Node>
              <Node pos="r" depth="4" NCoef="0" IVar="4" Cut="1.3551580905914307e-01" cType="1" res="-9.0239830315113068e-02" rms="4.5332998037338257e-01" purity="2.9645216464996338e-01" nType="0">
                <Node pos="l" depth="5" NCoef="0" IVar="2" Cut="1.5280270385742188e+02" cType="1" res="-1.0985815525054932e-01" rms="4.4145250320434570e-01" purity="2.7151992917060852e-01" nType="0">
                  <Node pos="l" depth="6" NCoef="0" IVar="-1" Cut="0.0000000000000000e+00" cType="1" res="-7.0252451114356518e-03" rms="4.6193170547485352e-01" purity="3.1462290883064270e-01" nType="-99"/>
                  <Node pos="r" depth="6" NCoef="0" IVar="-1" Cut="0.0000000000000000e+00" cType="1" res="-1.4753274619579315e-02" rms="4.2202869057655334e-01" purity="2.3733523488044739e-01" nType="-99"/>
                </Node>
                <Node pos="r" depth="5" NCoef="0" IVar="-1" Cut="0.0000000000000000e+00" cType="1" res="-4.9195783212780952e-03" rms="4.7370320558547974e-01" purity="3.4614607691764832e-01" nType="-99"/>
              </Node>
            </Node>
            <Node pos="r" depth="3" NCoef="0" IVar="0" Cut="9.4681507349014282e-01" cType="1" res="-1.6807937622070312e-01" rms="2.6704213023185730e-01" purity="8.0104932188987732e-02" nType="0">
              <Node pos="l" depth="4" NCoef="0" IVar="4" Cut="8.9089609682559967e-02" cType="1" res="-1.4554169774055481e-01" rms="3.5215818881988525e-01" purity="1.4732532203197479e-01" nType="0">
                <Node pos="l" depth="5" NCoef="0" IVar="-1" Cut="0.0000000000000000e+00" cType="1" res="-1.9902536645531654e-02" rms="3.4145486354827881e-01" purity="1.3688600063323975e-01" nType="-99"/>
                <Node pos="r" depth="5" NCoef="0" IVar="2" Cut="3.0940347290039062e+02" cType="1" res="-1.3424150645732880e-01" rms="3.6048918962478638e-01" purity="1.5606775879859924e-01" nType="0">
                  <Node pos="l" depth="6" NCoef="0" IVar="-1" Cut="0.0000000000000000e+00" cType="1" res="-1.5032092109322548e-02" rms="3.7969180941581726e-01" purity="1.7810082435607910e-01" nType="-99"/>
                  <Node pos="r" depth="6" NCoef="0" IVar="-1" Cut="0.0000000000000000e+00" cType="1" res="-1.9012186676263809e-02" rms="3.4429663419723511e-01" purity="1.3894306123256683e-01" nType="-99"/>
                </Node>
              </Node>
              <Node pos="r" depth="4" NCoef="0" IVar="5" Cut="3.0000000000000000e+00" cType="1" res="-1.7367848753929138e-01" rms="2.3987017571926117e-01" purity="6.2849618494510651e-02" nType="0">
                <Node pos="l" depth="5" NCoef="0" IVar="-1" Cut="0.0000000000000000e+00" cType="1" res="-2.0458340644836426e-02" rms="3.1939905881881714e-01" purity="1.1568610370159149e-01" nType="-99"/>
                <Node pos="r" depth="5" NCoef="0" IVar="4" Cut="9.0042307972908020e-02" cType="1" res="-1.7602442204952240e-01" rms="2.3341539502143860e-01" purity="5.9203572571277618e-02" nType="0">
                  <Node pos="l" depth="6" NCoef="0" IVar="2" Cut="1.3491148376464844e+02" cType="1" res="-1.8350580334663391e-01" rms="2.1160358190536499e-01" purity="4.8062287271022797e-02" nType="0">
                    <Node pos="l" depth="7" NCoef="0" IVar="-1" Cut="0.0000000000000000e+00" cType="1" res="-2.8110679239034653e-02" rms="2.3326601088047028e-01" purity="5.9159472584724426e-02" nType="-99"/>
                    <Node pos="r" depth="7" NCoef="0" IVar="-1" Cut="0.0000000000000000e+00" cType="1" res="-3.0403623357415199e-02" rms="1.8235485255718231e-01" purity="3.5046115517616272e-02" nType="-99"/>
                  </Node>
                  <Node pos="r" depth="6" NCoef="0" IVar="3" Cut="3.2973158359527588e-01" cType="1" res="-1.6968978941440582e-01" rms="2.5022798776626587e-01" purity="6.8637102842330933e-02" nType="0">
                    <Node pos="l" depth="7" NCoef="0" IVar="-1" Cut="0.0000000000000000e+00" cType="1" res="-2.9741568490862846e-02" rms="2.2406820952892303e-01" purity="5.3828272968530655e-02" nType="-99"/>
                    <Node pos="r" depth="7" NCoef="0" IVar="-1" Cut="0.0000000000000000e+00" cType="1" res="-2.2134726867079735e-02" rms="3.0039194226264954e-01" purity="1.0201280564069748e-01" nType="-99"/>
                  </Node>
                </Node>
              </Node>
            </Node>
          </Node>
          <Node pos="r" depth="2" NCoef="0" IVar="0" Cut="4.9723035097122192e-01" cType="1" res="-4.0352683514356613e-02" rms="4.8249006271362305e-01" purity="4.0874567627906799e-01" nType="0">
            <Node pos="l" depth="3" NCoef="0" IVar="1" Cut="1.4821945223957300e-03" cType="1" res="-1.9321853294968605e-02" rms="4.9197670817375183e-01" purity="4.5038765668869019e-01" nType="0">
              <Node pos="l" depth="4" NCoef="0" IVar="0" Cut="1.7639756202697754e-01" cType="1" res="1.7944166436791420e-02" rms="4.9554395675659180e-01" purity="5.0107610225677490e-01" nType="0">
                <Node pos="l" depth="5" NCoef="0" IVar="2" Cut="1.6697962951660156e+02" cType="1" res="4.4090468436479568e-02" rms="4.9453264474868774e-01" purity="5.5046749114990234e-01" nType="0">
                  <Node pos="l" depth="6" NCoef="0" IVar="-1" Cut="0.0000000000000000e+00" cType="1" res="5.7376907207071781e-03" rms="4.8923650383949280e-01" purity="5.9575784206390381e-01" nType="-99"/>
                  <Node pos="r" depth="6" NCoef="0" IVar="-1" Cut="0.0000000000000000e+00" cType="1" res="1.2797542149201035e-03" rms="4.9780768156051636e-01" purity="5.0702208280563354e-01" nType="-99"/>
                </Node>
                <Node pos="r" depth="5" NCoef="0" IVar="3" Cut="6.4974743127822876e-01" cType="1" res="-9.3581294640898705e-03" rms="4.9512630701065063e-01" purity="4.4950103759765625e-01" nType="0">
                  <Node pos="l" depth="6" NCoef="0" IVar="-1" Cut="0.0000000000000000e+00" cType="1" res="-3.1030711252242327e-03" rms="4.9008458852767944e-01" purity="4.0985369682312012e-01" nType="-99"/>
                  <Node pos="r" depth="6" NCoef="0" IVar="-1" Cut="0.0000000000000000e+00" cType="1" res="1.2403333093971014e-03" rms="4.9877992272377014e-01" purity="4.8746502399444580e-01" nType="-99"/>
                </Node>
              </Node>
              <Node pos="r" depth="4" NCoef="0" IVar="1" Cut="6.4480602741241455e-01" cType="1" res="-4.6061370521783829e-02" rms="4.8764938116073608e-01" purity="4.1401711106300354e-01" nType="0">
                <Node pos="l" depth="5" NCoef="0" IVar="3" Cut="6.1894130706787109e-01" cType="1" res="-2.7431728318333626e-02" rms="4.9265289306640625e-01" purity="4.3907305598258972e-01" nType="0">
                  <Node pos="l" depth="6" NCoef="0" IVar="-1" Cut="0.0000000000000000e+00" cType="1" res="-6.1361230909824371e-03" rms="4.8192334175109863e-01" purity="3.7199297547340393e-01" nType="-99"/>
                  <Node pos="r" depth="6" NCoef="0" IVar="0" Cut="1.6038680449128151e-02" cType="1" res="-1.1849281378090382e-02" rms="4.9608576297760010e-01" purity="4.6624931693077087e-01" nType="0">
                    <Node pos="l" depth="7" NCoef="0" IVar="-1" Cut="0.0000000000000000e+00" cType="1" res="1.2374224606901407e-03" rms="4.9896153807640076e-01" purity="5.1767051219940186e-01" nType="-99"/>
                    <Node pos="r" depth="7" NCoef="0" IVar="-1" Cut="0.0000000000000000e+00" cType="1" res="-3.3727283589541912e-03" rms="4.9204298853874207e-01" purity="4.1789600253105164e-01" nType="-99"/>
                  </Node>
                </Node>
                <Node pos="r" depth="5" NCoef="0" IVar="-1" Cut="0.0000000000000000e+00" cType="1" res="-1.2458518147468567e-02" rms="4.5555970072746277e-01" purity="3.0244860053062439e-01" nType="-99"/>
              </Node>
            </Node>
            <Node pos="r" depth="3" NCoef="0" IVar="2" Cut="1.4376905822753906e+02" cType="1" res="-1.0395903885364532e-01" rms="4.4660285115242004e-01" purity="2.8280228376388550e-01" nType="0">
              <Node pos="l" depth="4" NCoef="0" IVar="-1" Cut="0.0000000000000000e+00" cType="1" res="-7.9995142295956612e-03" rms="4.5917758345603943e-01" purity="3.1262281537055969e-01" nType="-99"/>
              <Node pos="r" depth="4" NCoef="0" IVar="-1" Cut="0.0000000000000000e+00" cType="1" res="-1.3337770476937294e-02" rms="4.3192782998085022e-01" purity="2.5177618861198425e-01" nType="-99"/>
            </Node>
          </Node>
        </Node>
        <Node pos="r" depth="1" NCoef="0" IVar="3" Cut="8.8160520792007446e-01" cType="1" res="1.1404103040695190e-01" rms="4.4228222966194153e-01" purity="7.1553641557693481e-01" nType="0">
          <Node pos="l" depth="2" NCoef="0" IVar="1" Cut="2.7555835247039795e-01" cType="1" res="6.2414646148681641e-02" rms="4.7837769985198975e-01" purity="6.2334376573562622e-01" nType="0">
            <Node pos="l" depth="3" NCoef="0" IVar="3" Cut="8.0166780948638916e-01" cType="1" res="8.0721504986286163e-02" rms="4.7206309437751770e-01" purity="6.5308004617691040e-01" nType="0">
              <Node pos="l" depth="4" NCoef="0" IVar="3" Cut="7.3840564489364624e-01" cType="1" res="5.4449863731861115e-02" rms="4.8711615800857544e-01" purity="6.0150444507598877e-01" nType="0">
                <Node pos="l" depth="5" NCoef="0" IVar="-1" Cut="0.0000000000000000e+00" cType="1" res="1.4236058341339231e-03" rms="4.9532571434974670e-01" purity="5.4877275228500366e-01" nType="-99"/>
                <Node pos="r" depth="5" NCoef="0" IVar="4" Cut="3.8064856082201004e-02" cType="1" res="6.6421352326869965e-02" rms="4.8385593295097351e-01" purity="6.1832678318023682e-01" nType="0">
                  <Node pos="l" depth="6" NCoef="0" IVar="-1" Cut="0.0000000000000000e+00" cType="1" res="3.2277749851346016e-03" rms="4.9008482694625854e-01" purity="5.8857041597366333e-01" nType="-99"/>
                  <Node pos="r" depth="6" NCoef="0" IVar="2" Cut="1.8645349121093750e+02" cType="1" res="7.7921830117702484e-02" rms="4.8089379072189331e-01" purity="6.3004827499389648e-01" nType="0">
                    <Node pos="l" depth="7" NCoef="0" IVar="-1" Cut="0.0000000000000000e+00" cType="1" res="7.6834582723677158e-03" rms="4.7490468621253967e-01" purity="6.5059936046600342e-01" nType="-99"/>
                    <Node pos="r" depth="7" NCoef="0" IVar="-1" Cut="0.0000000000000000e+00" cType="1" res="3.8174381479620934e-03" rms="4.9013456702232361e-01" purity="5.9128010272979736e-01" nType="-99"/>
                  </Node>
                </Node>
              </Node>
              <Node pos="r" depth="4" NCoef="0" IVar="4" Cut="2.4313969537615776e-02" cType="1" res="1.0143466293811798e-01" rms="4.5878824591636658e-01" purity="6.9374340772628784e-01" nType="0">
                <Node pos="l" depth="5" NCoef="0" IVar="-1" Cut="0.0000000000000000e+00" cType="1" res="6.9087962619960308e-03" rms="4.6616110205650330e-01" purity="6.7392158508300781e-01" nType="-99"/>
                <Node pos="r" depth="5" NCoef="0" IVar="2" Cut="6.0861660003662109e+01" cType="1" res="1.0714720189571381e-01" rms="4.5658782124519348e-01" purity="6.9915574789047241e-01" nType="0">
                  <Node pos="l" depth="6" NCoef="0" IVar="-1" Cut="0.0000000000000000e+00" cType="1" res="1.0188974440097809e-02" rms="4.4534367322921753e-01" purity="7.2494888305664062e-01" nType="-99"/>
                  <Node pos="r" depth="6" NCoef="0" IVar="3" Cut="8.3003383874893188e-01" cType="1" res="9.7148835659027100e-02" rms="4.6063500642776489e-01" purity="6.8882536888122559e-01" nType="0">
                    <Node pos="l" depth="7" NCoef="0" IVar="-1" Cut="0.0000000000000000e+00" cType="1" res="6.8626478314399719e-03" rms="4.7303044795989990e-01" purity="6.5568083524703979e-01" nType="-99"/>
                    <Node pos="r" depth="7" NCoef="0" IVar="-1" Cut="0.0000000000000000e+00" cType="1" res="8.9545221999287605e-03" rms="4.5360675454139709e-01" purity="7.0669269561767578e-01" nType="-99"/>
                  </Node>
                </Node>
              </Node>
            </Node>
            <Node pos="r" depth="3" NCoef="0" IVar="0" Cut="2.5576490163803101e-01" cType="1" res="7.6292799785733223e-03" rms="4.9274891614913940e-01" purity="5.3435456752777100e-01" nType="0">
              <Node pos="l" depth="4" NCoef="0" IVar="1" Cut="5.8341813087463379e-01" cType="1" res="3.1845770776271820e-02" rms="4.9094218015670776e-01" purity="5.6923407316207886e-01" nType="0">
                <Node pos="l" depth="5" NCoef="0" IVar="-1" Cut="0.0000000000000000e+00" cType="1" res="4.7406242229044437e-03" rms="4.8434126377105713e-01" purity="6.1599349975585938e-01" nType="-99"/>
                <Node pos="r" depth="5" NCoef="0" IVar="-1" Cut="0.0000000000000000e+00" cType="1" res="-3.0387684091692790e-05" rms="4.9732437729835510e-01" purity="5.0994098186492920e-01" nType="-99"/>
              </Node>
              <Node pos="r" depth="4" NCoef="0" IVar="-1" Cut="0.0000000000000000e+00" cType="1" res="-6.5330471843481064e-03" rms="4.9011313915252686e-01" purity="4.1752585768699646e-01" nType="-99"/>
            </Node>
          </Node>
          <Node pos="r" depth="2" NCoef="0" IVar="0" Cut="3.0660346150398254e-01" cType="1" res="1.4183272421360016e-01" rms="4.1894751787185669e-01" purity="7.6516592502593994e-01" nType="0">
            <Node pos="l" depth="3" NCoef="0" IVar="1" Cut="8.6754781007766724e-01" cType="1" res="1.4877533912658691e-01" rms="4.1351670026779175e-01" purity="7.7790606021881104e-01" nType="0">
              <Node pos="l" depth="4" NCoef="0" IVar="3" Cut="9.8910903930664062e-01" cType="1" res="1.5387652814388275e-01" rms="4.0858864784240723e-01" purity="7.8696161508560181e-01" nType="0">
                <Node pos="l" depth="5" NCoef="0" IVar="1" Cut="1.6499221324920654e-01" cType="1" res="1.3683280348777771e-01" rms="4.2346230149269104e-01" purity="7.6391893625259399e-01" nType="0">
                  <Node pos="l" depth="6" NCoef="0" IVar="3" Cut="8.9894628524780273e-01" cType="1" res="1.5010222792625427e-01" rms="4.1225171089172363e-01" purity="7.8260880708694458e-01" nType="0">
                    <Node pos="l" depth="7" NCoef="0" IVar="-1" Cut="0.0000000000000000e+00" cType="1" res="1.1880709789693356e-02" rms="4.2891749739646912e-01" purity="7.5689965486526489e-01" nType="-99"/>
                    <Node pos="r" depth="7" NCoef="0" IVar="-1" Cut="0.0000000000000000e+00" cType="1" res="1.3278002850711346e-02" rms="4.0760156512260437e-01" purity="7.8931623697280884e-01" nType="-99"/>
                  </Node>
                  <Node pos="r" depth="6" NCoef="0" IVar="1" Cut="3.2370439171791077e-01" cType="1" res="9.4435460865497589e-02" rms="4.5485681295394897e-01" purity="7.0420259237289429e-01" nType="0">
                    <Node pos="l" depth="7" NCoef="0" IVar="-1" Cut="0.0000000000000000e+00" cType="1" res="1.0304838418960571e-02" rms="4.3794652819633484e-01" purity="7.4058568477630615e-01" nType="-99"/>
                    <Node pos="r" depth="7" NCoef="0" IVar="-1" Cut="0.0000000000000000e+00" cType="1" res="6.1880825087428093e-03" rms="4.6979230642318726e-01" purity="6.6833025217056274e-01" nType="-99"/>
                  </Node>
                </Node>
                <Node pos="r" depth="5" NCoef="0" IVar="1" Cut="4.0210086107254028e-01" cType="1" res="1.6140843927860260e-01" rms="4.0161001682281494e-01" purity="7.9714453220367432e-01" nType="0">
                  <Node pos="l" depth="6" NCoef="0" IVar="1" Cut="-4.8013903200626373e-02" cType="1" res="1.6414955258369446e-01" rms="3.9745587110519409e-01" purity="8.0306041240692139e-01" nType="0">
                    <Node pos="l" depth="7" NCoef="0" IVar="-1" Cut="0.0000000000000000e+00" cType="1" res="1.3867583125829697e-02" rms="3.9132130146026611e-01" purity="8.1104260683059692e-01" nType="-99"/>
                    <Node pos="r" depth="7" NCoef="0" IVar="-1" Cut="0.0000000000000000e+00" cType="1" res="1.3348353095352650e-02" rms="4.0235573053359985e-01" purity="7.9652202129364014e-01" nType="-99"/>
                  </Node>
                  <Node pos="r" depth="6" NCoef="0" IVar="1" Cut="5.6715631484985352e-01" cType="1" res="1.4052404463291168e-01" rms="4.3137878179550171e-01" purity="7.5207233428955078e-01" nType="0">
                    <Node pos="l" depth="7" NCoef="0" IVar="-1" Cut="0.0000000000000000e+00" cType="1" res="1.1453063227236271e-02" rms="4.2457622289657593e-01" purity="7.6401370763778687e-01" nType="-99"/>
                    <Node pos="r" depth="7" NCoef="0" IVar="-1" Cut="0.0000000000000000e+00" cType="1" res="1.0441415011882782e-02" rms="4.3893408775329590e-01" purity="7.3852586746215820e-01" nType="-99"/>
                  </Node>
                </Node>
              </Node>
              <Node pos="r" depth="4" NCoef="0" IVar="-1" Cut="0.0000000000000000e+00" cType="1" res="4.3768486939370632e-03" rms="4.8688521981239319e-01" purity="6.0890245437622070e-01" nType="-99"/>
            </Node>
            <Node pos="r" depth="3" NCoef="0" IVar="-1" Cut="0.0000000000000000e+00" cType="1" res="1.0158758377656341e-03" rms="4.9210044741630554e-01" purity="5.2759325504302979e-01" nType="-99"/>
          </Node>
        </Node>
      </Node>
    </BinaryTree>
    <BinaryTree type="DecisionTree" boostWeight="1.0000000000000000e+00" itree="17">
      <Node pos="s" depth="0" NCoef="0" IVar="3" Cut="7.1539324522018433e-01" cType="1" res="1.4861446805298328e-02" rms="4.3104425072669983e-01" purity="4.9984419345855713e-01" nType="0">
        <Node pos="l" depth="1" NCoef="0" IVar="3" Cut="6.0179507732391357e-01" cType="1" res="-1.1070206761360168e-01" rms="3.8120889663696289e-01" purity="2.1467979252338409e-01" nType="0">
          <Node pos="l" depth="2" NCoef="0" IVar="0" Cut="6.4506113529205322e-01" cType="1" res="-1.3830232620239258e-01" rms="3.3716142177581787e-01" purity="1.4576660096645355e-01" nType="0">
            <Node pos="l" depth="3" NCoef="0" IVar="1" Cut="5.4625970125198364e-01" cType="1" res="-9.8318830132484436e-02" rms="4.3630230426788330e-01" purity="2.6945871114730835e-01" nType="0">
              <Node pos="l" depth="4" NCoef="0" IVar="3" Cut="4.8870614171028137e-01" cType="1" res="-8.4976360201835632e-02" rms="4.4484740495681763e-01" purity="2.8673198819160461e-01" nType="0">
                <Node pos="l" depth="5" NCoef="0" IVar="0" Cut="2.0804984495043755e-02" cType="1" res="-1.1352691054344177e-01" rms="4.0892937779426575e-01" purity="2.1663741767406464e-01" nType="0">
                  <Node pos="l" depth="6" NCoef="0" IVar="-1" Cut="0.0000000000000000e+00" cType="1" res="-9.3622850254178047e-03" rms="4.4221466779708862e-01" purity="2.6881062984466553e-01" nType="-99"/>
                  <Node pos="r" depth="6" NCoef="0" IVar="3" Cut="4.1273927688598633e-01" cType="1" res="-1.3188244402408600e-01" rms="3.8302242755889893e-01" purity="1.8036642670631409e-01" nType="0">
                    <Node pos="l" depth="7" NCoef="0" IVar="-1" Cut="0.0000000000000000e+00" cType="1" res="-1.7834359779953957e-02" rms="3.6502322554588318e-01" purity="1.5965458750724792e-01" nType="-99"/>
                    <Node pos="r" depth="7" NCoef="0" IVar="-1" Cut="0.0000000000000000e+00" cType="1" res="-1.3491043820977211e-02" rms="4.0545916557312012e-01" purity="2.0822800695896149e-01" nType="-99"/>
                  </Node>
                </Node>
                <Node pos="r" depth="5" NCoef="0" IVar="0" Cut="4.1612938046455383e-01" cType="1" res="-5.9241823852062225e-02" rms="4.7342741489410400e-01" purity="3.4991297125816345e-01" nType="0">
                  <Node pos="l" depth="6" NCoef="0" IVar="2" Cut="2.1892227172851562e+02" cType="1" res="-4.4724684208631516e-02" rms="4.8323142528533936e-01" purity="3.8034236431121826e-01" nType="0">
                    <Node pos="l" depth="7" NCoef="0" IVar="-1" Cut="0.0000000000000000e+00" cType="1" res="-1.3218765379860997e-03" rms="4.9122491478919983e-01" purity="4.2014411091804504e-01" nType="-99"/>
                    <Node pos="r" depth="7" NCoef="0" IVar="-1" Cut="0.0000000000000000e+00" cType="1" res="-7.1298498660326004e-03" rms="4.7371748089790344e-01" purity="3.4229359030723572e-01" nType="-99"/>
                  </Node>
                  <Node pos="r" depth="6" NCoef="0" IVar="-1" Cut="0.0000000000000000e+00" cType="1" res="-8.8764075189828873e-03" rms="4.5179083943367004e-01" purity="2.8906613588333130e-01" nType="-99"/>
                </Node>
              </Node>
              <Node pos="r" depth="4" NCoef="0" IVar="-1" Cut="0.0000000000000000e+00" cType="1" res="-1.9057527184486389e-02" rms="3.8331556320190430e-01" purity="1.8229070305824280e-01" nType="-99"/>
            </Node>
            <Node pos="r" depth="3" NCoef="0" IVar="0" Cut="1.2485291957855225e+00" cType="1" res="-1.5750220417976379e-01" rms="2.7517125010490417e-01" purity="8.6370229721069336e-02" nType="0">
              <Node pos="l" depth="4" NCoef="0" IVar="1" Cut="7.6660648919641972e-03" cType="1" res="-1.4219738543033600e-01" rms="3.3967089653015137e-01" purity="1.3685208559036255e-01" nType="0">
                <Node pos="l" depth="5" NCoef="0" IVar="2" Cut="2.2507942199707031e+02" cType="1" res="-1.1242493987083435e-01" rms="3.7223535776138306e-01" purity="1.7175179719924927e-01" nType="0">
                  <Node pos="l" depth="6" NCoef="0" IVar="-1" Cut="0.0000000000000000e+00" cType="1" res="-1.0782276280224323e-02" rms="3.9875575900077820e-01" purity="2.0530198514461517e-01" nType="-99"/>
                  <Node pos="r" depth="6" NCoef="0" IVar="-1" Cut="0.0000000000000000e+00" cType="1" res="-1.8146090209484100e-02" rms="3.4283387660980225e-01" purity="1.3918609917163849e-01" nType="-99"/>
                </Node>
                <Node pos="r" depth="5" NCoef="0" IVar="1" Cut="6.4456617832183838e-01" cType="1" res="-1.5525639057159424e-01" rms="3.2349398732185364e-01" purity="1.2154411524534225e-01" nType="0">
                  <Node pos="l" depth="6" NCoef="0" IVar="2" Cut="1.3076788330078125e+02" cType="1" res="-1.4593856036663055e-01" rms="3.3573964238166809e-01" purity="1.3299036026000977e-01" nType="0">
                    <Node pos="l" depth="7" NCoef="0" IVar="-1" Cut="0.0000000000000000e+00" cType="1" res="-1.5598380938172340e-02" rms="3.6598345637321472e-01" purity="1.6443629562854767e-01" nType="-99"/>
                    <Node pos="r" depth="7" NCoef="0" IVar="-1" Cut="0.0000000000000000e+00" cType="1" res="-2.0713360980153084e-02" rms="3.2015192508697510e-01" purity="1.1832783371210098e-01" nType="-99"/>
                  </Node>
                  <Node pos="r" depth="6" NCoef="0" IVar="-1" Cut="0.0000000000000000e+00" cType="1" res="-2.4968495592474937e-02" rms="2.8921833634376526e-01" purity="9.2849224805831909e-02" nType="-99"/>
                </Node>
              </Node>
              <Node pos="r" depth="4" NCoef="0" IVar="4" Cut="1.1463918536901474e-01" cType="1" res="-1.6808687150478363e-01" rms="2.1913173794746399e-01" purity="5.1457434892654419e-02" nType="0">
                <Node pos="l" depth="5" NCoef="0" IVar="2" Cut="6.5760681152343750e+01" cType="1" res="-1.7562511563301086e-01" rms="1.9318619370460510e-01" purity="3.9315242320299149e-02" nType="0">
                  <Node pos="l" depth="6" NCoef="0" IVar="-1" Cut="0.0000000000000000e+00" cType="1" res="-2.6846773922443390e-02" rms="2.4319460988044739e-01" purity="6.4092412590980530e-02" nType="-99"/>
                  <Node pos="r" depth="6" NCoef="0" IVar="1" Cut="1.2066360712051392e+00" cType="1" res="-1.7991584539413452e-01" rms="1.8058334290981293e-01" purity="3.4086905419826508e-02" nType="0">
                    <Node pos="l" depth="7" NCoef="0" IVar="-1" Cut="0.0000000000000000e+00" cType="1" res="-3.1121088191866875e-02" rms="1.7523524165153503e-01" purity="3.2125368714332581e-02" nType="-99"/>
                    <Node pos="r" depth="7" NCoef="0" IVar="-1" Cut="0.0000000000000000e+00" cType="1" res="-2.9174355790019035e-02" rms="2.0040214061737061e-01" purity="4.2026214301586151e-02" nType="-99"/>
                  </Node>
                </Node>
                <Node pos="r" depth="5" NCoef="0" IVar="5" Cut="6.0000000000000000e+00" cType="1" res="-1.5555307269096375e-01" rms="2.5410428643226624e-01" purity="7.0764012634754181e-02" nType="0">
                  <Node pos="l" depth="6" NCoef="0" IVar="2" Cut="4.0395306396484375e+02" cType="1" res="-1.4596943557262421e-01" rms="2.8146392107009888e-01" purity="8.7929323315620422e-02" nType="0">
                    <Node pos="l" depth="7" NCoef="0" IVar="-1" Cut="0.0000000000000000e+00" cType="1" res="-2.3176612332463264e-02" rms="2.9110673069953918e-01" purity="9.4848707318305969e-02" nType="-99"/>
                    <Node pos="r" depth="7" NCoef="0" IVar="-1" Cut="0.0000000000000000e+00" cType="1" res="-2.5061581283807755e-02" rms="2.6758655905723572e-01" purity="7.8658312559127808e-02" nType="-99"/>
                  </Node>
                  <Node pos="r" depth="6" NCoef="0" IVar="4" Cut="1.8679003417491913e-01" cType="1" res="-1.6491545736789703e-01" rms="2.2820004820823669e-01" purity="5.5829428136348724e-02" nType="0">
                    <Node pos="l" depth="7" NCoef="0" IVar="-1" Cut="0.0000000000000000e+00" cType="1" res="-3.0942924320697784e-02" rms="1.9036866724491119e-01" purity="3.7841383367776871e-02" nType="-99"/>
                    <Node pos="r" depth="7" NCoef="0" IVar="-1" Cut="0.0000000000000000e+00" cType="1" res="-2.4276271462440491e-02" rms="2.7842450141906738e-01" purity="8.5017368197441101e-02" nType="-99"/>
                  </Node>
                </Node>
              </Node>
            </Node>
          </Node>
          <Node pos="r" depth="2" NCoef="0" IVar="0" Cut="2.4861522018909454e-01" cType="1" res="-1.9311141222715378e-02" rms="4.8910215497016907e-01" purity="4.4286763668060303e-01" nType="0">
            <Node pos="l" depth="3" NCoef="0" IVar="1" Cut="2.2851519286632538e-01" cType="1" res="1.3849967159330845e-02" rms="4.9638000130653381e-01" purity="5.1458942890167236e-01" nType="0">
              <Node pos="l" depth="4" NCoef="0" IVar="2" Cut="1.2044236755371094e+02" cType="1" res="3.1186070293188095e-02" rms="4.9614819884300232e-01" purity="5.4290491342544556e-01" nType="0">
                <Node pos="l" depth="5" NCoef="0" IVar="-1" Cut="0.0000000000000000e+00" cType="1" res="4.8979627899825573e-03" rms="4.9133926630020142e-01" purity="5.8599144220352173e-01" nType="-99"/>
                <Node pos="r" depth="5" NCoef="0" IVar="-1" Cut="0.0000000000000000e+00" cType="1" res="1.0910775745287538e-03" rms="4.9813586473464966e-01" purity="5.1666897535324097e-01" nType="-99"/>
              </Node>
              <Node pos="r" depth="4" NCoef="0" IVar="-1" Cut="0.0000000000000000e+00" cType="1" res="-2.3300542961806059e-03" rms="4.9452358484268188e-01" purity="4.4777894020080566e-01" nType="-99"/>
            </Node>
            <Node pos="r" depth="3" NCoef="0" IVar="0" Cut="4.8921266198158264e-01" cType="1" res="-4.7827593982219696e-02" rms="4.8093086481094360e-01" purity="3.8119137287139893e-01" nType="0">
              <Node pos="l" depth="4" NCoef="0" IVar="4" Cut="6.3013330101966858e-02" cType="1" res="-3.1941033899784088e-02" rms="4.8959913849830627e-01" purity="4.1444838047027588e-01" nType="0">
                <Node pos="l" depth="5" NCoef="0" IVar="-1" Cut="0.0000000000000000e+00" cType="1" res="-4.3731890618801117e-03" rms="4.8631083965301514e-01" purity="3.9952766895294189e-01" nType="-99"/>
                <Node pos="r" depth="5" NCoef="0" IVar="-1" Cut="0.0000000000000000e+00" cType="1" res="-1.1030664900317788e-03" rms="4.9304836988449097e-01" purity="4.3343234062194824e-01" nType="-99"/>
              </Node>
              <Node pos="r" depth="4" NCoef="0" IVar="-1" Cut="0.0000000000000000e+00" cType="1" res="-7.4410606175661087e-03" rms="4.6391090750694275e-01" purity="3.2248982787132263e-01" nType="-99"/>
            </Node>
          </Node>
        </Node>
        <Node pos="r" depth="1" NCoef="0" IVar="5" Cut="2.0000000000000000e+00" cType="1" res="1.1061881482601166e-01" rms="4.4114890694618225e-01" purity="7.1535760164260864e-01" nType="0">
          <Node pos="l" depth="2" NCoef="0" IVar="1" Cut="3.3341056108474731e-01" cType="1" res="1.4019291102886200e-01" rms="4.1586282849311829e-01" purity="7.7074110507965088e-01" nType="0">
            <Node pos="l" depth="3" NCoef="0" IVar="0" Cut="2.6496565341949463e-01" cType="1" res="1.5226866304874420e-01" rms="4.0423786640167236e-01" purity="7.9105901718139648e-01" nType="0">
              <Node pos="l" depth="4" NCoef="0" IVar="3" Cut="9.9453437328338623e-01" cType="1" res="1.5611259639263153e-01" rms="3.9940914511680603e-01" purity="8.0048352479934692e-01" nType="0">
                <Node pos="l" depth="5" NCoef="0" IVar="1" Cut="8.2984670996665955e-02" cType="1" res="1.4308694005012512e-01" rms="4.1120687127113342e-01" purity="7.8400874137878418e-01" nType="0">
                  <Node pos="l" depth="6" NCoef="0" IVar="3" Cut="9.6032226085662842e-01" cType="1" res="1.4977341890335083e-01" rms="4.0558916330337524e-01" purity="7.9213982820510864e-01" nType="0">
                    <Node pos="l" depth="7" NCoef="0" IVar="-1" Cut="0.0000000000000000e+00" cType="1" res="1.1474687606096268e-02" rms="4.2069414258003235e-01" purity="7.6985520124435425e-01" nType="-99"/>
                    <Node pos="r" depth="7" NCoef="0" IVar="-1" Cut="0.0000000000000000e+00" cType="1" res="1.2868268415331841e-02" rms="4.0098923444747925e-01" purity="7.9866522550582886e-01" nType="-99"/>
                  </Node>
                  <Node pos="r" depth="6" NCoef="0" IVar="-1" Cut="0.0000000000000000e+00" cType="1" res="1.0354680009186268e-02" rms="4.2690789699554443e-01" purity="7.5974851846694946e-01" nType="-99"/>
                </Node>
                <Node pos="r" depth="5" NCoef="0" IVar="1" Cut="-1.7061337828636169e-01" cType="1" res="1.6242103278636932e-01" rms="3.9341330528259277e-01" purity="8.0846232175827026e-01" nType="0">
                  <Node pos="l" depth="6" NCoef="0" IVar="3" Cut="1.0012718439102173e+00" cType="1" res="1.5174281597137451e-01" rms="4.0063098073005676e-01" purity="7.9907673597335815e-01" nType="0">
                    <Node pos="l" depth="7" NCoef="0" IVar="-1" Cut="0.0000000000000000e+00" cType="1" res="1.1227187700569630e-02" rms="4.1005989909172058e-01" purity="7.8598314523696899e-01" nType="-99"/>
                    <Node pos="r" depth="7" NCoef="0" IVar="-1" Cut="0.0000000000000000e+00" cType="1" res="1.2651390396058559e-02" rms="3.8945314288139343e-01" purity="8.1353527307510376e-01" nType="-99"/>
                  </Node>
                  <Node pos="r" depth="6" NCoef="0" IVar="1" Cut="-8.0217253416776657e-03" cType="1" res="1.6480983793735504e-01" rms="3.9174062013626099e-01" purity="8.1056201457977295e-01" nType="0">
                    <Node pos="l" depth="7" NCoef="0" IVar="-1" Cut="0.0000000000000000e+00" cType="1" res="1.4632176607847214e-02" rms="3.8180646300315857e-01" purity="8.2281452417373657e-01" nType="-99"/>
                    <Node pos="r" depth="7" NCoef="0" IVar="-1" Cut="0.0000000000000000e+00" cType="1" res="1.3097096234560013e-02" rms="4.0031844377517700e-01" purity="7.9948186874389648e-01" nType="-99"/>
                  </Node>
                </Node>
              </Node>
              <Node pos="r" depth="4" NCoef="0" IVar="-1" Cut="0.0000000000000000e+00" cType="1" res="6.4368862658739090e-03" rms="4.8082542419433594e-01" purity="6.1293947696685791e-01" nType="-99"/>
            </Node>
            <Node pos="r" depth="3" NCoef="0" IVar="1" Cut="6.4470893144607544e-01" cType="1" res="8.9157946407794952e-02" rms="4.5827120542526245e-01" purity="6.8487286567687988e-01" nType="0">
              <Node pos="l" depth="4" NCoef="0" IVar="1" Cut="4.3382143974304199e-01" cType="1" res="1.1430126428604126e-01" rms="4.3909344077110291e-01" purity="7.3252052068710327e-01" nType="0">
                <Node pos="l" depth="5" NCoef="0" IVar="-1" Cut="0.0000000000000000e+00" cType="1" res="1.0367371141910553e-02" rms="4.3025124073028564e-01" purity="7.5034564733505249e-01" nType="-99"/>
                <Node pos="r" depth="5" NCoef="0" IVar="-1" Cut="0.0000000000000000e+00" cType="1" res="8.4174191579222679e-03" rms="4.4589290022850037e-01" purity="7.1798807382583618e-01" nType="-99"/>
              </Node>
              <Node pos="r" depth="4" NCoef="0" IVar="1" Cut="9.4608110189437866e-01" cType="1" res="5.7482793927192688e-02" rms="4.7947153449058533e-01" purity="6.2484711408615112e-01" nType="0">
                <Node pos="l" depth="5" NCoef="0" IVar="-1" Cut="0.0000000000000000e+00" cType="1" res="5.9541412629187107e-03" rms="4.6873775124549866e-01" purity="6.6186976432800293e-01" nType="-99"/>
                <Node pos="r" depth="5" NCoef="0" IVar="-1" Cut="0.0000000000000000e+00" cType="1" res="3.5437892656773329e-03" rms="4.8728871345520020e-01" purity="5.9586459398269653e-01" nType="-99"/>
              </Node>
            </Node>
          </Node>
          <Node pos="r" depth="2" NCoef="0" IVar="0" Cut="2.8460496664047241e-01" cType="1" res="6.9581486284732819e-02" rms="4.7156229615211487e-01" purity="6.4225423336029053e-01" nType="0">
            <Node pos="l" depth="3" NCoef="0" IVar="0" Cut="9.1806603595614433e-03" cType="1" res="8.3654925227165222e-02" rms="4.6605497598648071e-01" purity="6.6778683662414551e-01" nType="0">
              <Node pos="l" depth="4" NCoef="0" IVar="1" Cut="1.7904087901115417e-01" cType="1" res="9.2730954289436340e-02" rms="4.6191149950027466e-01" purity="6.8128025531768799e-01" nType="0">
                <Node pos="l" depth="5" NCoef="0" IVar="3" Cut="7.5626850128173828e-01" cType="1" res="1.0660818964242935e-01" rms="4.5209062099456787e-01" purity="7.0860856771469116e-01" nType="0">
                  <Node pos="l" depth="6" NCoef="0" IVar="-1" Cut="0.0000000000000000e+00" cType="1" res="4.0465039201080799e-03" rms="4.8760834336280823e-01" purity="6.0815811157226562e-01" nType="-99"/>
                  <Node pos="r" depth="6" NCoef="0" IVar="3" Cut="8.7490224838256836e-01" cType="1" res="1.1428722739219666e-01" rms="4.4659841060638428e-01" purity="7.2194993495941162e-01" nType="0">
                    <Node pos="l" depth="7" NCoef="0" IVar="-1" Cut="0.0000000000000000e+00" cType="1" res="8.6024980992078781e-03" rms="4.5687806606292725e-01" purity="7.0133477449417114e-01" nType="-99"/>
                    <Node pos="r" depth="7" NCoef="0" IVar="-1" Cut="0.0000000000000000e+00" cType="1" res="1.2418595142662525e-02" rms="4.2354914546012878e-01" purity="7.6547253131866455e-01" nType="-99"/>
                  </Node>
                </Node>
                <Node pos="r" depth="5" NCoef="0" IVar="1" Cut="8.0651026964187622e-01" cType="1" res="6.2137324362993240e-02" rms="4.8144656419754028e-01" purity="6.2103241682052612e-01" nType="0">
                  <Node pos="l" depth="6" NCoef="0" IVar="3" Cut="8.6301493644714355e-01" cType="1" res="7.2043769061565399e-02" rms="4.7678986191749573e-01" purity="6.4339160919189453e-01" nType="0">
                    <Node pos="l" depth="7" NCoef="0" IVar="-1" Cut="0.0000000000000000e+00" cType="1" res="4.7531332820653915e-03" rms="4.8515492677688599e-01" purity="6.1499172449111938e-01" nType="-99"/>
                    <Node pos="r" depth="7" NCoef="0" IVar="-1" Cut="0.0000000000000000e+00" cType="1" res="8.6378892883658409e-03" rms="4.5965859293937683e-01" purity="6.9682192802429199e-01" nType="-99"/>
                  </Node>
                  <Node pos="r" depth="6" NCoef="0" IVar="-1" Cut="0.0000000000000000e+00" cType="1" res="1.9259519176557660e-03" rms="4.9734655022621155e-01" purity="5.3360992670059204e-01" nType="-99"/>
                </Node>
              </Node>
              <Node pos="r" depth="4" NCoef="0" IVar="3" Cut="7.9367315769195557e-01" cType="1" res="1.9219238311052322e-02" rms="4.8966151475906372e-01" purity="5.7198989391326904e-01" nType="0">
                <Node pos="l" depth="5" NCoef="0" IVar="-1" Cut="0.0000000000000000e+00" cType="1" res="-6.4048025524243712e-04" rms="4.9561542272567749e-01" purity="5.2636182308197021e-01" nType="-99"/>
                <Node pos="r" depth="5" NCoef="0" IVar="-1" Cut="0.0000000000000000e+00" cType="1" res="3.7532858550548553e-03" rms="4.8385438323020935e-01" purity="6.0836994647979736e-01" nType="-99"/>
              </Node>
            </Node>
            <Node pos="r" depth="3" NCoef="0" IVar="2" Cut="1.2161233520507812e+02" cType="1" res="-1.7975138500332832e-02" rms="4.9557888507843018e-01" purity="4.8340559005737305e-01" nType="0">
              <Node pos="l" depth="4" NCoef="0" IVar="-1" Cut="0.0000000000000000e+00" cType="1" res="1.3701040297746658e-03" rms="4.9581018090248108e-01" purity="5.2755695581436157e-01" nType="-99"/>
              <Node pos="r" depth="4" NCoef="0" IVar="-1" Cut="0.0000000000000000e+00" cType="1" res="-6.1522205360233784e-03" rms="4.9100095033645630e-01" purity="4.1984406113624573e-01" nType="-99"/>
            </Node>
          </Node>
        </Node>
      </Node>
    </BinaryTree>
    <BinaryTree type="DecisionTree" boostWeight="1.0000000000000000e+00" itree="18">
      <Node pos="s" depth="0" NCoef="0" IVar="3" Cut="7.1570873260498047e-01" cType="1" res="1.5027890913188457e-02" rms="4.2901551723480225e-01" purity="5.0034135580062866e-01" nType="0">
        <Node pos="l" depth="1" NCoef="0" IVar="3" Cut="5.5661135911941528e-01" cType="1" res="-1.0586944222450256e-01" rms="3.7991517782211304e-01" purity="2.1363857388496399e-01" nType="0">
          <Node pos="l" depth="2" NCoef="0" IVar="0" Cut="6.4506167173385620e-01" cType="1" res="-1.3751262426376343e-01" rms="3.1745225191116333e-01" purity="1.2392787635326385e-01" nType="0">
            <Node pos="l" depth="3" NCoef="0" IVar="3" Cut="4.6946600079536438e-01" cType="1" res="-1.0483330488204956e-01" rms="4.2103198170661926e-01" purity="2.3975193500518799e-01" nType="0">
              <Node pos="l" depth="4" NCoef="0" IVar="0" Cut="2.0805520936846733e-02" cType="1" res="-1.2341184914112091e-01" rms="3.9357510209083557e-01" purity="1.9544436037540436e-01" nType="0">
                <Node pos="l" depth="5" NCoef="0" IVar="-1" Cut="0.0000000000000000e+00" cType="1" res="-1.1564187705516815e-02" rms="4.2692658305168152e-01" purity="2.4214583635330200e-01" nType="-99"/>
                <Node pos="r" depth="5" NCoef="0" IVar="3" Cut="3.5260102152824402e-01" cType="1" res="-1.3802388310432434e-01" rms="3.6693599820137024e-01" purity="1.6173867881298065e-01" nType="0">
                  <Node pos="l" depth="6" NCoef="0" IVar="-1" Cut="0.0000000000000000e+00" cType="1" res="-1.9928907975554466e-02" rms="3.4662148356437683e-01" purity="1.4094614982604980e-01" nType="-99"/>
                  <Node pos="r" depth="6" NCoef="0" IVar="-1" Cut="0.0000000000000000e+00" cType="1" res="-1.5607360750436783e-02" rms="3.8051655888557434e-01" purity="1.7669208347797394e-01" nType="-99"/>
                </Node>
              </Node>
              <Node pos="r" depth="4" NCoef="0" IVar="1" Cut="1.4797008037567139e-01" cType="1" res="-8.0930612981319427e-02" rms="4.5280101895332336e-01" purity="2.9675692319869995e-01" nType="0">
                <Node pos="l" depth="5" NCoef="0" IVar="-1" Cut="0.0000000000000000e+00" cType="1" res="-5.5756308138370514e-03" rms="4.6607795357704163e-01" purity="3.2871311902999878e-01" nType="-99"/>
                <Node pos="r" depth="5" NCoef="0" IVar="-1" Cut="0.0000000000000000e+00" cType="1" res="-1.1678903363645077e-02" rms="4.3304809927940369e-01" purity="2.5545388460159302e-01" nType="-99"/>
              </Node>
            </Node>
            <Node pos="r" depth="3" NCoef="0" IVar="3" Cut="3.6303025484085083e-01" cType="1" res="-1.4984641969203949e-01" rms="2.6711645722389221e-01" purity="8.0213651061058044e-02" nType="0">
              <Node pos="l" depth="4" NCoef="0" IVar="5" Cut="4.0000000000000000e+00" cType="1" res="-1.5689072012901306e-01" rms="2.2124500572681427e-01" purity="5.2733216434717178e-02" nType="0">
                <Node pos="l" depth="5" NCoef="0" IVar="-1" Cut="0.0000000000000000e+00" cType="1" res="-2.1655891090631485e-02" rms="2.8830879926681519e-01" purity="9.2093601822853088e-02" nType="-99"/>
                <Node pos="r" depth="5" NCoef="0" IVar="4" Cut="1.5360823273658752e-01" cType="1" res="-1.6082051396369934e-01" rms="2.1275603771209717e-01" purity="4.8457849770784378e-02" nType="0">
                  <Node pos="l" depth="6" NCoef="0" IVar="2" Cut="1.4311431884765625e+02" cType="1" res="-1.6600106656551361e-01" rms="1.7951965332031250e-01" purity="3.3595826476812363e-02" nType="0">
                    <Node pos="l" depth="7" NCoef="0" IVar="-1" Cut="0.0000000000000000e+00" cType="1" res="-3.0559604987502098e-02" rms="1.9249646365642548e-01" purity="3.8843806833028793e-02" nType="-99"/>
                    <Node pos="r" depth="7" NCoef="0" IVar="-1" Cut="0.0000000000000000e+00" cType="1" res="-3.0515601858496666e-02" rms="1.7095114290714264e-01" purity="3.0365873128175735e-02" nType="-99"/>
                  </Node>
                  <Node pos="r" depth="6" NCoef="0" IVar="0" Cut="1.8520790338516235e+00" cType="1" res="-1.4903078973293304e-01" rms="2.7337908744812012e-01" purity="8.2280382513999939e-02" nType="0">
                    <Node pos="l" depth="7" NCoef="0" IVar="-1" Cut="0.0000000000000000e+00" cType="1" res="-2.1395597606897354e-02" rms="3.0325680971145630e-01" purity="1.0297250002622604e-01" nType="-99"/>
                    <Node pos="r" depth="7" NCoef="0" IVar="-1" Cut="0.0000000000000000e+00" cType="1" res="-2.9373250901699066e-02" rms="2.2635358572006226e-01" purity="5.4461997002363205e-02" nType="-99"/>
                  </Node>
                </Node>
              </Node>
              <Node pos="r" depth="4" NCoef="0" IVar="1" Cut="3.1639960408210754e-01" cType="1" res="-1.3869047164916992e-01" rms="3.2122299075126648e-01" purity="1.1973421275615692e-01" nType="0">
                <Node pos="l" depth="5" NCoef="0" IVar="2" Cut="1.5450910949707031e+02" cType="1" res="-1.2475930154323578e-01" rms="3.4264078736305237e-01" purity="1.3947024941444397e-01" nType="0">
                  <Node pos="l" depth="6" NCoef="0" IVar="-1" Cut="0.0000000000000000e+00" cType="1" res="-1.2933557853102684e-02" rms="3.7194991111755371e-01" purity="1.7080427706241608e-01" nType="-99"/>
                  <Node pos="r" depth="6" NCoef="0" IVar="4" Cut="9.7887054085731506e-02" cType="1" res="-1.4270329475402832e-01" rms="3.1999388337135315e-01" purity="1.1821077764034271e-01" nType="0">
                    <Node pos="l" depth="7" NCoef="0" IVar="-1" Cut="0.0000000000000000e+00" cType="1" res="-2.2319149225950241e-02" rms="2.8713962435722351e-01" purity="9.2637583613395691e-02" nType="-99"/>
                    <Node pos="r" depth="7" NCoef="0" IVar="-1" Cut="0.0000000000000000e+00" cType="1" res="-1.7337379977107048e-02" rms="3.4360063076019287e-01" purity="1.3897101581096649e-01" nType="-99"/>
                  </Node>
                </Node>
                <Node pos="r" depth="5" NCoef="0" IVar="1" Cut="6.2468308210372925e-01" cType="1" res="-1.5642452239990234e-01" rms="2.9072815179824829e-01" purity="9.4610728323459625e-02" nType="0">
                  <Node pos="l" depth="6" NCoef="0" IVar="-1" Cut="0.0000000000000000e+00" cType="1" res="-1.9821124151349068e-02" rms="3.1214988231658936e-01" purity="1.1176785826683044e-01" nType="-99"/>
                  <Node pos="r" depth="6" NCoef="0" IVar="4" Cut="7.6346687972545624e-02" cType="1" res="-1.6705369949340820e-01" rms="2.7245971560478210e-01" purity="8.1285789608955383e-02" nType="0">
                    <Node pos="l" depth="7" NCoef="0" IVar="-1" Cut="0.0000000000000000e+00" cType="1" res="-2.5846622884273529e-02" rms="2.5772795081138611e-01" purity="7.1622714400291443e-02" nType="-99"/>
                    <Node pos="r" depth="7" NCoef="0" IVar="-1" Cut="0.0000000000000000e+00" cType="1" res="-2.3576823994517326e-02" rms="2.8787276148796082e-01" purity="9.2091798782348633e-02" nType="-99"/>
                  </Node>
                </Node>
              </Node>
            </Node>
          </Node>
          <Node pos="r" depth="2" NCoef="0" IVar="0" Cut="4.8738387227058411e-01" cType="1" res="-3.7667814642190933e-02" rms="4.8105245828628540e-01" purity="4.0699511766433716e-01" nType="0">
            <Node pos="l" depth="3" NCoef="0" IVar="3" Cut="6.3873285055160522e-01" cType="1" res="-1.5652956441044807e-02" rms="4.9149811267852783e-01" purity="4.5247673988342285e-01" nType="0">
              <Node pos="l" depth="4" NCoef="0" IVar="0" Cut="2.9869183897972107e-01" cType="1" res="-4.5287333428859711e-02" rms="4.8469436168670654e-01" purity="3.9598971605300903e-01" nType="0">
                <Node pos="l" depth="5" NCoef="0" IVar="5" Cut="4.0000000000000000e+00" cType="1" res="-1.4906548894941807e-02" rms="4.2323809862136841e-01" purity="4.2780330777168274e-01" nType="0">
                  <Node pos="l" depth="6" NCoef="0" IVar="-1" Cut="0.0000000000000000e+00" cType="1" res="-4.7690253704786301e-03" rms="4.8691096901893616e-01" purity="4.0235939621925354e-01" nType="-99"/>
                  <Node pos="r" depth="6" NCoef="0" IVar="-1" Cut="0.0000000000000000e+00" cType="1" res="-5.5629241978749633e-04" rms="4.9346709251403809e-01" purity="4.4771119952201843e-01" nType="-99"/>
                </Node>
                <Node pos="r" depth="5" NCoef="0" IVar="-1" Cut="0.0000000000000000e+00" cType="1" res="-7.2801955975592136e-03" rms="4.7179359197616577e-01" purity="3.4163236618041992e-01" nType="-99"/>
              </Node>
              <Node pos="r" depth="4" NCoef="0" IVar="5" Cut="3.0000000000000000e+00" cType="1" res="1.3185058720409870e-02" rms="3.5402506589889526e-01" purity="4.9159160256385803e-01" nType="0">
                <Node pos="l" depth="5" NCoef="0" IVar="-1" Cut="0.0000000000000000e+00" cType="1" res="-3.6501139402389526e-03" rms="4.8957386612892151e-01" purity="4.3190672993659973e-01" nType="-99"/>
                <Node pos="r" depth="5" NCoef="0" IVar="1" Cut="-8.4080666303634644e-02" cType="1" res="2.0204992964863777e-02" rms="4.9596694111824036e-01" purity="5.1120847463607788e-01" nType="0">
                  <Node pos="l" depth="6" NCoef="0" IVar="-1" Cut="0.0000000000000000e+00" cType="1" res="5.3020874038338661e-03" rms="4.9263328313827515e-01" purity="5.6869387626647949e-01" nType="-99"/>
                  <Node pos="r" depth="6" NCoef="0" IVar="1" Cut="2.4034811556339264e-01" cType="1" res="3.6544306203722954e-03" rms="4.9620997905731201e-01" purity="4.8954576253890991e-01" nType="0">
                    <Node pos="l" depth="7" NCoef="0" IVar="-1" Cut="0.0000000000000000e+00" cType="1" res="1.8631963757798076e-03" rms="4.9690324068069458e-01" purity="5.2120262384414673e-01" nType="-99"/>
                    <Node pos="r" depth="7" NCoef="0" IVar="-1" Cut="0.0000000000000000e+00" cType="1" res="-2.0913330372422934e-03" rms="4.9389985203742981e-01" purity="4.4091343879699707e-01" nType="-99"/>
                  </Node>
                </Node>
              </Node>
            </Node>
            <Node pos="r" depth="3" NCoef="0" IVar="2" Cut="9.7751235961914062e+01" cType="1" res="-1.0034377872943878e-01" rms="4.4405078887939453e-01" purity="2.7750971913337708e-01" nType="0">
              <Node pos="l" depth="4" NCoef="0" IVar="-1" Cut="0.0000000000000000e+00" cType="1" res="-6.7739128135144711e-03" rms="4.6228748559951782e-01" purity="3.1791767477989197e-01" nType="-99"/>
              <Node pos="r" depth="4" NCoef="0" IVar="4" Cut="7.7645249664783478e-02" cType="1" res="-1.1681751906871796e-01" rms="4.3307560682296753e-01" purity="2.5587803125381470e-01" nType="0">
                <Node pos="l" depth="5" NCoef="0" IVar="-1" Cut="0.0000000000000000e+00" cType="1" res="-1.5388984233140945e-02" rms="4.1582494974136353e-01" purity="2.2801926732063293e-01" nType="-99"/>
                <Node pos="r" depth="5" NCoef="0" IVar="-1" Cut="0.0000000000000000e+00" cType="1" res="-9.1708973050117493e-03" rms="4.4805139303207397e-01" purity="2.8409808874130249e-01" nType="-99"/>
              </Node>
            </Node>
          </Node>
        </Node>
        <Node pos="r" depth="1" NCoef="0" IVar="3" Cut="8.8100492954254150e-01" cType="1" res="1.0614487528800964e-01" rms="4.4121551513671875e-01" purity="7.1642130613327026e-01" nType="0">
          <Node pos="l" depth="2" NCoef="0" IVar="1" Cut="8.2578402757644653e-01" cType="1" res="5.9206884354352951e-02" rms="4.7745478153228760e-01" purity="6.2476336956024170e-01" nType="0">
            <Node pos="l" depth="3" NCoef="0" IVar="0" Cut="2.8460487723350525e-01" cType="1" res="6.7176558077335358e-02" rms="4.7533026337623596e-01" purity="6.3806092739105225e-01" nType="0">
              <Node pos="l" depth="4" NCoef="0" IVar="3" Cut="8.0635416507720947e-01" cType="1" res="7.7264636754989624e-02" rms="4.7071683406829834e-01" purity="6.5966874361038208e-01" nType="0">
                <Node pos="l" depth="5" NCoef="0" IVar="1" Cut="1.6155515611171722e-01" cType="1" res="5.3373865783214569e-02" rms="4.8494493961334229e-01" purity="6.1292392015457153e-01" nType="0">
                  <Node pos="l" depth="6" NCoef="0" IVar="2" Cut="1.3936747741699219e+02" cType="1" res="6.6156290471553802e-02" rms="4.8020857572555542e-01" purity="6.3509833812713623e-01" nType="0">
                    <Node pos="l" depth="7" NCoef="0" IVar="-1" Cut="0.0000000000000000e+00" cType="1" res="6.4313202165067196e-03" rms="4.7581100463867188e-01" purity="6.5037888288497925e-01" nType="-99"/>
                    <Node pos="r" depth="7" NCoef="0" IVar="-1" Cut="0.0000000000000000e+00" cType="1" res="4.0082614868879318e-03" rms="4.8662304878234863e-01" purity="6.1010140180587769e-01" nType="-99"/>
                  </Node>
                  <Node pos="r" depth="6" NCoef="0" IVar="-1" Cut="0.0000000000000000e+00" cType="1" res="1.9328868947923183e-03" rms="4.9478527903556824e-01" purity="5.5968737602233887e-01" nType="-99"/>
                </Node>
                <Node pos="r" depth="5" NCoef="0" IVar="1" Cut="2.8643894195556641e-01" cType="1" res="9.5163919031620026e-02" rms="4.5895430445671082e-01" purity="6.9469058513641357e-01" nType="0">
                  <Node pos="l" depth="6" NCoef="0" IVar="3" Cut="8.5451376438140869e-01" cType="1" res="1.0308011621236801e-01" rms="4.5337635278701782e-01" purity="7.0888608694076538e-01" nType="0">
                    <Node pos="l" depth="7" NCoef="0" IVar="-1" Cut="0.0000000000000000e+00" cType="1" res="7.5817406177520752e-03" rms="4.6218752861022949e-01" purity="6.8935638666152954e-01" nType="-99"/>
                    <Node pos="r" depth="7" NCoef="0" IVar="-1" Cut="0.0000000000000000e+00" cType="1" res="1.0081226006150246e-02" rms="4.3935734033584595e-01" purity="7.3827469348907471e-01" nType="-99"/>
                  </Node>
                  <Node pos="r" depth="6" NCoef="0" IVar="-1" Cut="0.0000000000000000e+00" cType="1" res="4.8051164485514164e-03" rms="4.8212328553199768e-01" purity="6.2936264276504517e-01" nType="-99"/>
                </Node>
              </Node>
              <Node pos="r" depth="4" NCoef="0" IVar="1" Cut="-1.8975116312503815e-02" cType="1" res="8.1672752276062965e-03" rms="4.9738460779190063e-01" purity="5.1166832447052002e-01" nType="0">
                <Node pos="l" depth="5" NCoef="0" IVar="-1" Cut="0.0000000000000000e+00" cType="1" res="3.7738876417279243e-03" rms="4.9545407295227051e-01" purity="5.5206608772277832e-01" nType="-99"/>
                <Node pos="r" depth="5" NCoef="0" IVar="-1" Cut="0.0000000000000000e+00" cType="1" res="-1.3967689592391253e-03" rms="4.9716275930404663e-01" purity="4.8499438166618347e-01" nType="-99"/>
              </Node>
            </Node>
            <Node pos="r" depth="3" NCoef="0" IVar="-1" Cut="0.0000000000000000e+00" cType="1" res="-4.2668171226978302e-03" rms="4.9283486604690552e-01" purity="4.4357982277870178e-01" nType="-99"/>
          </Node>
          <Node pos="r" depth="2" NCoef="0" IVar="0" Cut="2.6778465509414673e-01" cType="1" res="1.3137674331665039e-01" rms="4.1827481985092163e-01" purity="7.6569283008575439e-01" nType="0">
            <Node pos="l" depth="3" NCoef="0" IVar="1" Cut="6.3376551866531372e-01" cType="1" res="1.3855403661727905e-01" rms="4.1254445910453796e-01" purity="7.7918893098831177e-01" nType="0">
              <Node pos="l" depth="4" NCoef="0" IVar="3" Cut="9.5271199941635132e-01" cType="1" res="1.4478008449077606e-01" rms="4.0577358007431030e-01" purity="7.9127919673919678e-01" nType="0">
                <Node pos="l" depth="5" NCoef="0" IVar="1" Cut="3.8318078964948654e-02" cType="1" res="1.1955512315034866e-01" rms="4.3003645539283752e-01" purity="7.5394487380981445e-01" nType="0">
                  <Node pos="l" depth="6" NCoef="0" IVar="2" Cut="5.6244838714599609e+01" cType="1" res="1.3255430757999420e-01" rms="4.1862264275550842e-01" purity="7.7329665422439575e-01" nType="0">
                    <Node pos="l" depth="7" NCoef="0" IVar="-1" Cut="0.0000000000000000e+00" cType="1" res="1.1237855069339275e-02" rms="4.2303523421287537e-01" purity="7.6639878749847412e-01" nType="-99"/>
                    <Node pos="r" depth="7" NCoef="0" IVar="-1" Cut="0.0000000000000000e+00" cType="1" res="1.3469120487570763e-02" rms="4.1304600238800049e-01" purity="7.8173792362213135e-01" nType="-99"/>
                  </Node>
                  <Node pos="r" depth="6" NCoef="0" IVar="-1" Cut="0.0000000000000000e+00" cType="1" res="9.2562157660722733e-03" rms="4.4585728645324707e-01" purity="7.2500026226043701e-01" nType="-99"/>
                </Node>
                <Node pos="r" depth="5" NCoef="0" IVar="3" Cut="9.8626315593719482e-01" cType="1" res="1.4979045093059540e-01" rms="4.0059044957160950e-01" purity="7.9869478940963745e-01" nType="0">
                  <Node pos="l" depth="6" NCoef="0" IVar="3" Cut="9.7652488946914673e-01" cType="1" res="1.4205461740493774e-01" rms="4.0869659185409546e-01" purity="7.8716903924942017e-01" nType="0">
                    <Node pos="l" depth="7" NCoef="0" IVar="-1" Cut="0.0000000000000000e+00" cType="1" res="1.1069728992879391e-02" rms="4.1497248411178589e-01" purity="7.7808243036270142e-01" nType="-99"/>
                    <Node pos="r" depth="7" NCoef="0" IVar="-1" Cut="0.0000000000000000e+00" cType="1" res="1.2571811676025391e-02" rms="4.0161827206611633e-01" purity="7.9706549644470215e-01" nType="-99"/>
                  </Node>
                  <Node pos="r" depth="6" NCoef="0" IVar="1" Cut="7.3597036302089691e-02" cType="1" res="1.5105488896369934e-01" rms="3.9923557639122009e-01" purity="8.0057871341705322e-01" nType="0">
                    <Node pos="l" depth="7" NCoef="0" IVar="-1" Cut="0.0000000000000000e+00" cType="1" res="1.3312977738678455e-02" rms="3.9045515656471252e-01" purity="8.1223613023757935e-01" nType="-99"/>
                    <Node pos="r" depth="7" NCoef="0" IVar="-1" Cut="0.0000000000000000e+00" cType="1" res="1.1495293118059635e-02" rms="4.1361433267593384e-01" purity="7.8048950433731079e-01" nType="-99"/>
                  </Node>
                </Node>
              </Node>
              <Node pos="r" depth="4" NCoef="0" IVar="1" Cut="9.3551057577133179e-01" cType="1" res="6.8290844559669495e-02" rms="4.7680988907814026e-01" purity="6.4274656772613525e-01" nType="0">
                <Node pos="l" depth="5" NCoef="0" IVar="-1" Cut="0.0000000000000000e+00" cType="1" res="7.0481863804161549e-03" rms="4.6360066533088684e-01" purity="6.8374121189117432e-01" nType="-99"/>
                <Node pos="r" depth="5" NCoef="0" IVar="-1" Cut="0.0000000000000000e+00" cType="1" res="4.1448888368904591e-03" rms="4.8688375949859619e-01" purity="6.0861551761627197e-01" nType="-99"/>
              </Node>
            </Node>
            <Node pos="r" depth="3" NCoef="0" IVar="-1" Cut="0.0000000000000000e+00" cType="1" res="1.0547027923166752e-03" rms="4.8872011899948120e-01" purity="5.4204809665679932e-01" nType="-99"/>
          </Node>
        </Node>
      </Node>
    </BinaryTree>
    <BinaryTree type="DecisionTree" boostWeight="1.0000000000000000e+00" itree="19">
      <Node pos="s" depth="0" NCoef="0" IVar="3" Cut="7.1310418844223022e-01" cType="1" res="1.5829499810934067e-02" rms="4.2749685049057007e-01" purity="5.0055736303329468e-01" nType="0">
        <Node pos="l" depth="1" NCoef="0" IVar="3" Cut="5.5473542213439941e-01" cType="1" res="-1.0029456019401550e-01" rms="3.7889093160629272e-01" purity="2.1209947764873505e-01" nType="0">
          <Node pos="l" depth="2" NCoef="0" IVar="0" Cut="9.6733665466308594e-01" cType="1" res="-1.3013561069965363e-01" rms="3.1682252883911133e-01" purity="1.2287008762359619e-01" nType="0">
            <Node pos="l" depth="3" NCoef="0" IVar="1" Cut="6.2012320756912231e-01" cType="1" res="-1.0998290032148361e-01" rms="3.9554610848426819e-01" purity="2.0268912613391876e-01" nType="0">
              <Node pos="l" depth="4" NCoef="0" IVar="3" Cut="4.3349593877792358e-01" cType="1" res="-1.0279094427824020e-01" rms="4.0333688259124756e-01" purity="2.1344339847564697e-01" nType="0">
                <Node pos="l" depth="5" NCoef="0" IVar="4" Cut="2.4225023388862610e-01" cType="1" res="-1.1865758150815964e-01" rms="3.7357628345489502e-01" purity="1.7209276556968689e-01" nType="0">
                  <Node pos="l" depth="6" NCoef="0" IVar="3" Cut="3.5319051146507263e-01" cType="1" res="-1.3261528313159943e-01" rms="3.5542398691177368e-01" purity="1.5153610706329346e-01" nType="0">
                    <Node pos="l" depth="7" NCoef="0" IVar="-1" Cut="0.0000000000000000e+00" cType="1" res="-2.1500997245311737e-02" rms="3.2382348179817200e-01" purity="1.2206995487213135e-01" nType="-99"/>
                    <Node pos="r" depth="7" NCoef="0" IVar="-1" Cut="0.0000000000000000e+00" cType="1" res="-1.4443268999457359e-02" rms="3.7506470084190369e-01" purity="1.7228326201438904e-01" nType="-99"/>
                  </Node>
                  <Node pos="r" depth="6" NCoef="0" IVar="-1" Cut="0.0000000000000000e+00" cType="1" res="-8.8610211387276649e-03" rms="4.2346939444541931e-01" purity="2.3794332146644592e-01" nType="-99"/>
                </Node>
                <Node pos="r" depth="5" NCoef="0" IVar="0" Cut="4.0565100312232971e-01" cType="1" res="-9.0811274945735931e-02" rms="4.2403328418731689e-01" purity="2.4466405808925629e-01" nType="0">
                  <Node pos="l" depth="6" NCoef="0" IVar="1" Cut="3.2897677272558212e-02" cType="1" res="-6.8357117474079132e-02" rms="4.6050921082496643e-01" purity="3.1242379546165466e-01" nType="0">
                    <Node pos="l" depth="7" NCoef="0" IVar="-1" Cut="0.0000000000000000e+00" cType="1" res="-4.5469049364328384e-03" rms="4.7054976224899292e-01" purity="3.3936426043510437e-01" nType="-99"/>
                    <Node pos="r" depth="7" NCoef="0" IVar="-1" Cut="0.0000000000000000e+00" cType="1" res="-9.3918619677424431e-03" rms="4.4885158538818359e-01" purity="2.8470697999000549e-01" nType="-99"/>
                  </Node>
                  <Node pos="r" depth="6" NCoef="0" IVar="2" Cut="1.3631663513183594e+02" cType="1" res="-1.0540080815553665e-01" rms="3.9786931872367859e-01" purity="2.0063734054565430e-01" nType="0">
                    <Node pos="l" depth="7" NCoef="0" IVar="-1" Cut="0.0000000000000000e+00" cType="1" res="-9.9471630528569221e-03" rms="4.1499429941177368e-01" purity="2.2501152753829956e-01" nType="-99"/>
                    <Node pos="r" depth="7" NCoef="0" IVar="-1" Cut="0.0000000000000000e+00" cType="1" res="-1.4118379913270473e-02" rms="3.8656190037727356e-01" purity="1.8575075268745422e-01" nType="-99"/>
                  </Node>
                </Node>
              </Node>
              <Node pos="r" depth="4" NCoef="0" IVar="3" Cut="4.4963240623474121e-01" cType="1" res="-1.4732469618320465e-01" rms="3.4996888041496277e-01" purity="1.4685118198394775e-01" nType="0">
                <Node pos="l" depth="5" NCoef="0" IVar="-1" Cut="0.0000000000000000e+00" cType="1" res="-1.8753785640001297e-02" rms="3.4540522098541260e-01" purity="1.4206501841545105e-01" nType="-99"/>
                <Node pos="r" depth="5" NCoef="0" IVar="-1" Cut="0.0000000000000000e+00" cType="1" res="-1.9186375662684441e-02" rms="3.5416176915168762e-01" purity="1.5155923366546631e-01" nType="-99"/>
              </Node>
            </Node>
            <Node pos="r" depth="3" NCoef="0" IVar="4" Cut="1.1546491086483002e-01" cType="1" res="-1.4519280195236206e-01" rms="2.4071919918060303e-01" purity="6.3232898712158203e-02" nType="0">
              <Node pos="l" depth="4" NCoef="0" IVar="2" Cut="6.6108551025390625e+01" cType="1" res="-1.5301392972469330e-01" rms="2.1860340237617493e-01" purity="5.1451437175273895e-02" nType="0">
                <Node pos="l" depth="5" NCoef="0" IVar="-1" Cut="0.0000000000000000e+00" cType="1" res="-2.3183403536677361e-02" rms="2.6361912488937378e-01" purity="7.7311322093009949e-02" nType="-99"/>
                <Node pos="r" depth="5" NCoef="0" IVar="4" Cut="6.5281212329864502e-02" cType="1" res="-1.5733279287815094e-01" rms="2.0757418870925903e-01" purity="4.5979157090187073e-02" nType="0">
                  <Node pos="l" depth="6" NCoef="0" IVar="3" Cut="3.7034320831298828e-01" cType="1" res="-1.6400064527988434e-01" rms="1.9091111421585083e-01" purity="3.8569699972867966e-02" nType="0">
                    <Node pos="l" depth="7" NCoef="0" IVar="-1" Cut="0.0000000000000000e+00" cType="1" res="-2.9959315434098244e-02" rms="1.6088718175888062e-01" purity="2.6872305199503899e-02" nType="-99"/>
                    <Node pos="r" depth="7" NCoef="0" IVar="-1" Cut="0.0000000000000000e+00" cType="1" res="-2.5661464780569077e-02" rms="2.3235057294368744e-01" purity="5.8033909648656845e-02" nType="-99"/>
                  </Node>
                  <Node pos="r" depth="6" NCoef="0" IVar="2" Cut="2.8434933471679688e+02" cType="1" res="-1.5339623391628265e-01" rms="2.1671505272388458e-01" purity="5.0353553146123886e-02" nType="0">
                    <Node pos="l" depth="7" NCoef="0" IVar="-1" Cut="0.0000000000000000e+00" cType="1" res="-2.6863256469368935e-02" rms="2.2684572637081146e-01" purity="5.5684361606836319e-02" nType="-99"/>
                    <Node pos="r" depth="7" NCoef="0" IVar="-1" Cut="0.0000000000000000e+00" cType="1" res="-2.7447914704680443e-02" rms="1.9706308841705322e-01" purity="4.0873952209949493e-02" nType="-99"/>
                  </Node>
                </Node>
              </Node>
              <Node pos="r" depth="4" NCoef="0" IVar="2" Cut="3.6682925415039062e+02" cType="1" res="-1.3243982195854187e-01" rms="2.7248346805572510e-01" purity="8.2443505525588989e-02" nType="0">
                <Node pos="l" depth="5" NCoef="0" IVar="3" Cut="2.9559504985809326e-01" cType="1" res="-1.1811327189207077e-01" rms="2.9031196236610413e-01" purity="9.5577359199523926e-02" nType="0">
                  <Node pos="l" depth="6" NCoef="0" IVar="-1" Cut="0.0000000000000000e+00" cType="1" res="-2.5858912616968155e-02" rms="2.4772131443023682e-01" purity="6.6734440624713898e-02" nType="-99"/>
                  <Node pos="r" depth="6" NCoef="0" IVar="-1" Cut="0.0000000000000000e+00" cType="1" res="-1.5102734789252281e-02" rms="3.3686992526054382e-01" purity="1.3331875205039978e-01" nType="-99"/>
                </Node>
                <Node pos="r" depth="5" NCoef="0" IVar="4" Cut="2.0635099709033966e-01" cType="1" res="-1.4394995570182800e-01" rms="2.5668770074844360e-01" purity="7.1891605854034424e-02" nType="0">
                  <Node pos="l" depth="6" NCoef="0" IVar="0" Cut="1.8282353878021240e+00" cType="1" res="-1.5096126496791840e-01" rms="2.3510479927062988e-01" purity="5.9627309441566467e-02" nType="0">
                    <Node pos="l" depth="7" NCoef="0" IVar="-1" Cut="0.0000000000000000e+00" cType="1" res="-2.4817973375320435e-02" rms="2.5318449735641479e-01" purity="6.9866321980953217e-02" nType="-99"/>
                    <Node pos="r" depth="7" NCoef="0" IVar="-1" Cut="0.0000000000000000e+00" cType="1" res="-2.7365693822503090e-02" rms="2.1515902876853943e-01" purity="4.9241583794355392e-02" nType="-99"/>
                  </Node>
                  <Node pos="r" depth="6" NCoef="0" IVar="-1" Cut="0.0000000000000000e+00" cType="1" res="-2.0516710355877876e-02" rms="3.0108690261840820e-01" purity="1.0095971822738647e-01" nType="-99"/>
                </Node>
              </Node>
            </Node>
          </Node>
          <Node pos="r" depth="2" NCoef="0" IVar="0" Cut="2.5642991065979004e-01" cType="1" res="-3.5839840769767761e-02" rms="4.8036494851112366e-01" purity="4.0482914447784424e-01" nType="0">
            <Node pos="l" depth="3" NCoef="0" IVar="3" Cut="6.1603862047195435e-01" cType="1" res="2.0332671701908112e-03" rms="4.9465483427047729e-01" purity="4.9045485258102417e-01" nType="0">
              <Node pos="l" depth="4" NCoef="0" IVar="-1" Cut="0.0000000000000000e+00" cType="1" res="-3.4042627085000277e-03" rms="4.8833540081977844e-01" purity="4.1092255711555481e-01" nType="-99"/>
              <Node pos="r" depth="4" NCoef="0" IVar="1" Cut="2.0944854617118835e-01" cType="1" res="1.7483023926615715e-02" rms="4.9621403217315674e-01" purity="5.2119725942611694e-01" nType="0">
                <Node pos="l" depth="5" NCoef="0" IVar="1" Cut="-7.1634076535701752e-02" cType="1" res="3.8726877421140671e-02" rms="4.9563822150230408e-01" purity="5.5507177114486694e-01" nType="0">
                  <Node pos="l" depth="6" NCoef="0" IVar="-1" Cut="0.0000000000000000e+00" cType="1" res="4.8676496371626854e-03" rms="4.9244409799575806e-01" purity="5.7824432849884033e-01" nType="-99"/>
                  <Node pos="r" depth="6" NCoef="0" IVar="-1" Cut="0.0000000000000000e+00" cType="1" res="1.9121114164590836e-03" rms="4.9748709797859192e-01" purity="5.3728890419006348e-01" nType="-99"/>
                </Node>
                <Node pos="r" depth="5" NCoef="0" IVar="-1" Cut="0.0000000000000000e+00" cType="1" res="-2.5604397524148226e-03" rms="4.9425834417343140e-01" purity="4.4637754559516907e-01" nType="-99"/>
              </Node>
            </Node>
            <Node pos="r" depth="3" NCoef="0" IVar="0" Cut="5.0459176301956177e-01" cType="1" res="-6.3561037182807922e-02" rms="4.6768999099731445e-01" purity="3.4215545654296875e-01" nType="0">
              <Node pos="l" depth="4" NCoef="0" IVar="4" Cut="7.5049385428428650e-02" cType="1" res="-4.1583329439163208e-02" rms="4.8436355590820312e-01" purity="3.9192658662796021e-01" nType="0">
                <Node pos="l" depth="5" NCoef="0" IVar="1" Cut="1.8481118977069855e-01" cType="1" res="-5.9979304671287537e-02" rms="4.8032444715499878e-01" purity="3.7601637840270996e-01" nType="0">
                  <Node pos="l" depth="6" NCoef="0" IVar="-1" Cut="0.0000000000000000e+00" cType="1" res="-2.2835729178041220e-03" rms="4.9232858419418335e-01" purity="4.2328807711601257e-01" nType="-99"/>
                  <Node pos="r" depth="6" NCoef="0" IVar="-1" Cut="0.0000000000000000e+00" cType="1" res="-1.1481227353215218e-02" rms="4.5472285151481628e-01" purity="2.9992392659187317e-01" nType="-99"/>
                </Node>
                <Node pos="r" depth="5" NCoef="0" IVar="-1" Cut="0.0000000000000000e+00" cType="1" res="-6.6379236523061991e-04" rms="4.8996958136558533e-01" purity="4.2162263393402100e-01" nType="-99"/>
              </Node>
              <Node pos="r" depth="4" NCoef="0" IVar="3" Cut="6.1093235015869141e-01" cType="1" res="-9.2570520937442780e-02" rms="4.4305953383445740e-01" purity="2.7646014094352722e-01" nType="0">
                <Node pos="l" depth="5" NCoef="0" IVar="-1" Cut="0.0000000000000000e+00" cType="1" res="-1.2191277928650379e-02" rms="4.2328962683677673e-01" purity="2.3799148201942444e-01" nType="-99"/>
                <Node pos="r" depth="5" NCoef="0" IVar="-1" Cut="0.0000000000000000e+00" cType="1" res="-6.5700067207217216e-03" rms="4.6483376622200012e-01" purity="3.2349494099617004e-01" nType="-99"/>
              </Node>
            </Node>
          </Node>
        </Node>
        <Node pos="r" depth="1" NCoef="0" IVar="5" Cut="2.0000000000000000e+00" cType="1" res="1.0378929972648621e-01" rms="4.3992286920547485e-01" purity="7.1653079986572266e-01" nType="0">
          <Node pos="l" depth="2" NCoef="0" IVar="0" Cut="2.6778465509414673e-01" cType="1" res="1.3138736784458160e-01" rms="4.1443729400634766e-01" purity="7.7258080244064331e-01" nType="0">
            <Node pos="l" depth="3" NCoef="0" IVar="1" Cut="2.0232659578323364e-01" cType="1" res="1.3699167966842651e-01" rms="4.0909716486930847e-01" purity="7.8453552722930908e-01" nType="0">
              <Node pos="l" depth="4" NCoef="0" IVar="3" Cut="9.8085260391235352e-01" cType="1" res="1.4743360877037048e-01" rms="3.9644661545753479e-01" purity="8.0434280633926392e-01" nType="0">
                <Node pos="l" depth="5" NCoef="0" IVar="4" Cut="3.1155243050307035e-04" cType="1" res="1.2972849607467651e-01" rms="4.1564032435417175e-01" purity="7.7729976177215576e-01" nType="0">
                  <Node pos="l" depth="6" NCoef="0" IVar="-1" Cut="0.0000000000000000e+00" cType="1" res="1.2892169877886772e-02" rms="3.9751815795898438e-01" purity="8.0318123102188110e-01" nType="-99"/>
                  <Node pos="r" depth="6" NCoef="0" IVar="-1" Cut="0.0000000000000000e+00" cType="1" res="7.8333923593163490e-03" rms="4.4008570909500122e-01" purity="7.3742061853408813e-01" nType="-99"/>
                </Node>
                <Node pos="r" depth="5" NCoef="0" IVar="3" Cut="1.0039751529693604e+00" cType="1" res="1.5060390532016754e-01" rms="3.9282658696174622e-01" purity="8.0918508768081665e-01" nType="0">
                  <Node pos="l" depth="6" NCoef="0" IVar="4" Cut="3.2680396543582901e-05" cType="1" res="1.4746303856372833e-01" rms="3.9544132351875305e-01" purity="8.0582618713378906e-01" nType="0">
                    <Node pos="l" depth="7" NCoef="0" IVar="-1" Cut="0.0000000000000000e+00" cType="1" res="1.3500206172466278e-02" rms="3.8668236136436462e-01" purity="8.1683003902435303e-01" nType="-99"/>
                    <Node pos="r" depth="7" NCoef="0" IVar="-1" Cut="0.0000000000000000e+00" cType="1" res="1.1601318605244160e-02" rms="4.0528061985969543e-01" purity="7.9269808530807495e-01" nType="-99"/>
                  </Node>
                  <Node pos="r" depth="6" NCoef="0" IVar="1" Cut="1.2030633166432381e-02" cType="1" res="1.5682716667652130e-01" rms="3.8751852512359619e-01" purity="8.1584048271179199e-01" nType="0">
                    <Node pos="l" depth="7" NCoef="0" IVar="-1" Cut="0.0000000000000000e+00" cType="1" res="1.3244470581412315e-02" rms="3.8336962461471558e-01" purity="8.2094508409500122e-01" nType="-99"/>
                    <Node pos="r" depth="7" NCoef="0" IVar="-1" Cut="0.0000000000000000e+00" cType="1" res="1.2478044256567955e-02" rms="3.9635697007179260e-01" purity="8.0463904142379761e-01" nType="-99"/>
                  </Node>
                </Node>
              </Node>
              <Node pos="r" depth="4" NCoef="0" IVar="1" Cut="8.3364224433898926e-01" cType="1" res="1.0986848920583725e-01" rms="4.3910348415374756e-01" purity="7.3308575153350830e-01" nType="0">
                <Node pos="l" depth="5" NCoef="0" IVar="1" Cut="5.6877547502517700e-01" cType="1" res="1.1979539692401886e-01" rms="4.2781379818916321e-01" purity="7.5704133510589600e-01" nType="0">
                  <Node pos="l" depth="6" NCoef="0" IVar="1" Cut="4.2691689729690552e-01" cType="1" res="1.2583933770656586e-01" rms="4.2120811343193054e-01" purity="7.6867979764938354e-01" nType="0">
                    <Node pos="l" depth="7" NCoef="0" IVar="-1" Cut="0.0000000000000000e+00" cType="1" res="1.0663460940122604e-02" rms="4.1765987873077393e-01" purity="7.7432888746261597e-01" nType="-99"/>
                    <Node pos="r" depth="7" NCoef="0" IVar="-1" Cut="0.0000000000000000e+00" cType="1" res="9.6343569457530975e-03" rms="4.3181851506233215e-01" purity="7.5137627124786377e-01" nType="-99"/>
                  </Node>
                  <Node pos="r" depth="6" NCoef="0" IVar="-1" Cut="0.0000000000000000e+00" cType="1" res="7.4328919872641563e-03" rms="4.5417693257331848e-01" purity="7.0706564188003540e-01" nType="-99"/>
                </Node>
                <Node pos="r" depth="5" NCoef="0" IVar="-1" Cut="0.0000000000000000e+00" cType="1" res="5.4538701660931110e-03" rms="4.8044857382774353e-01" purity="6.3499766588211060e-01" nType="-99"/>
              </Node>
            </Node>
            <Node pos="r" depth="3" NCoef="0" IVar="-1" Cut="0.0000000000000000e+00" cType="1" res="2.9045580886304379e-03" rms="4.8717400431632996e-01" purity="5.6779342889785767e-01" nType="-99"/>
          </Node>
          <Node pos="r" depth="2" NCoef="0" IVar="1" Cut="6.7371428012847900e-01" cType="1" res="6.5204478800296783e-02" rms="4.7089663147926331e-01" purity="6.4293855428695679e-01" nType="0">
            <Node pos="l" depth="3" NCoef="0" IVar="0" Cut="2.5246772170066833e-01" cType="1" res="7.5530163943767548e-02" rms="4.6746900677680969e-01" purity="6.6063630580902100e-01" nType="0">
              <Node pos="l" depth="4" NCoef="0" IVar="0" Cut="8.1440564244985580e-03" cType="1" res="8.6989633738994598e-02" rms="4.6080663800239563e-01" purity="6.8645572662353516e-01" nType="0">
                <Node pos="l" depth="5" NCoef="0" IVar="3" Cut="8.3370095491409302e-01" cType="1" res="9.2577628791332245e-02" rms="4.5761319994926453e-01" purity="6.9512671232223511e-01" nType="0">
                  <Node pos="l" depth="6" NCoef="0" IVar="3" Cut="7.5200605392456055e-01" cType="1" res="7.4894584715366364e-02" rms="4.7562897205352783e-01" purity="6.4972507953643799e-01" nType="0">
                    <Node pos="l" depth="7" NCoef="0" IVar="-1" Cut="0.0000000000000000e+00" cType="1" res="4.3200845830142498e-03" rms="4.8753887414932251e-01" purity="6.0664123296737671e-01" nType="-99"/>
                    <Node pos="r" depth="7" NCoef="0" IVar="-1" Cut="0.0000000000000000e+00" cType="1" res="6.6280239261686802e-03" rms="4.7134616971015930e-01" purity="6.6410297155380249e-01" nType="-99"/>
                  </Node>
                  <Node pos="r" depth="6" NCoef="0" IVar="1" Cut="4.9969721585512161e-02" cType="1" res="0.0000000000000000e+00" rms="0.0000000000000000e+00" purity="7.3165977001190186e-01" nType="0">
                    <Node pos="l" depth="7" NCoef="0" IVar="-1" Cut="0.0000000000000000e+00" cType="1" res="1.0310044512152672e-02" rms="4.3331354856491089e-01" purity="7.4853676557540894e-01" nType="-99"/>
                    <Node pos="r" depth="7" NCoef="0" IVar="-1" Cut="0.0000000000000000e+00" cType="1" res="8.1959292292594910e-03" rms="4.5400202274322510e-01" purity="7.0744246244430542e-01" nType="-99"/>
                  </Node>
                </Node>
                <Node pos="r" depth="5" NCoef="0" IVar="-1" Cut="0.0000000000000000e+00" cType="1" res="2.8845702763646841e-03" rms="4.8831573128700256e-01" purity="5.9892511367797852e-01" nType="-99"/>
              </Node>
              <Node pos="r" depth="4" NCoef="0" IVar="2" Cut="1.2169839477539062e+02" cType="1" res="1.8180675804615021e-02" rms="4.9551177024841309e-01" purity="5.3142201900482178e-01" nType="0">
                <Node pos="l" depth="5" NCoef="0" IVar="2" Cut="5.9149299621582031e+01" cType="1" res="4.4912144541740417e-02" rms="4.9281251430511475e-01" purity="5.6829041242599487e-01" nType="0">
                  <Node pos="l" depth="6" NCoef="0" IVar="-1" Cut="0.0000000000000000e+00" cType="1" res="5.2866777405142784e-03" rms="4.8988863825798035e-01" purity="5.8987843990325928e-01" nType="-99"/>
                  <Node pos="r" depth="6" NCoef="0" IVar="-1" Cut="0.0000000000000000e+00" cType="1" res="2.0995177328586578e-03" rms="4.9496939778327942e-01" purity="5.4607504606246948e-01" nType="-99"/>
                </Node>
                <Node pos="r" depth="5" NCoef="0" IVar="-1" Cut="0.0000000000000000e+00" cType="1" res="-2.0452993921935558e-03" rms="4.9683862924575806e-01" purity="4.7519081830978394e-01" nType="-99"/>
              </Node>
            </Node>
            <Node pos="r" depth="3" NCoef="0" IVar="-1" Cut="0.0000000000000000e+00" cType="1" res="-3.4632210154086351e-03" rms="4.9225932359695435e-01" purity="4.6337857842445374e-01" nType="-99"/>
          </Node>
        </Node>
      </Node>
    </BinaryTree>
    <BinaryTree type="DecisionTree" boostWeight="1.0000000000000000e+00" itree="20">
      <Node pos="s" depth="0" NCoef="0" IVar="3" Cut="7.1539324522018433e-01" cType="1" res="1.6457028687000275e-02" rms="4.2624494433403015e-01" purity="5.0108921527862549e-01" nType="0">
        <Node pos="l" depth="1" NCoef="0" IVar="3" Cut="5.1093024015426636e-01" cType="1" res="-9.3427889049053192e-02" rms="3.7983843684196472e-01" purity="2.1477597951889038e-01" nType="0">
          <Node pos="l" depth="2" NCoef="0" IVar="0" Cut="9.6243977546691895e-01" cType="1" res="-1.2731103599071503e-01" rms="2.9952451586723328e-01" purity="1.0689187794923782e-01" nType="0">
            <Node pos="l" depth="3" NCoef="0" IVar="4" Cut="7.7204026281833649e-02" cType="1" res="-1.0687581449747086e-01" rms="3.8538801670074463e-01" purity="1.8782015144824982e-01" nType="0">
              <Node pos="l" depth="4" NCoef="0" IVar="-1" Cut="0.0000000000000000e+00" cType="1" res="-1.8757579848170280e-02" rms="3.3885017037391663e-01" purity="1.3529577851295471e-01" nType="-99"/>
              <Node pos="r" depth="4" NCoef="0" IVar="2" Cut="3.1498770141601562e+02" cType="1" res="-9.9586032330989838e-02" rms="3.9408034086227417e-01" purity="1.9885578751564026e-01" nType="0">
                <Node pos="l" depth="5" NCoef="0" IVar="0" Cut="4.3462014198303223e-01" cType="1" res="-8.0510936677455902e-02" rms="4.0873366594314575e-01" purity="2.1963335573673248e-01" nType="0">
                  <Node pos="l" depth="6" NCoef="0" IVar="-1" Cut="0.0000000000000000e+00" cType="1" res="-6.5623251721262932e-03" rms="4.4301500916481018e-01" purity="2.7467086911201477e-01" nType="-99"/>
                  <Node pos="r" depth="6" NCoef="0" IVar="-1" Cut="0.0000000000000000e+00" cType="1" res="-1.2798126786947250e-02" rms="3.7861368060112000e-01" purity="1.7603644728660583e-01" nType="-99"/>
                </Node>
                <Node pos="r" depth="5" NCoef="0" IVar="4" Cut="2.4137012660503387e-01" cType="1" res="-1.1210838705301285e-01" rms="3.8364169001579285e-01" purity="1.8521578609943390e-01" nType="0">
                  <Node pos="l" depth="6" NCoef="0" IVar="3" Cut="3.9829656481742859e-01" cType="1" res="-1.2233830988407135e-01" rms="3.7283930182456970e-01" purity="1.7245502769947052e-01" nType="0">
                    <Node pos="l" depth="7" NCoef="0" IVar="-1" Cut="0.0000000000000000e+00" cType="1" res="-1.8689738586544991e-02" rms="3.3875691890716553e-01" purity="1.3539020717144012e-01" nType="-99"/>
                    <Node pos="r" depth="7" NCoef="0" IVar="-1" Cut="0.0000000000000000e+00" cType="1" res="-1.2792116031050682e-02" rms="3.9808607101440430e-01" purity="2.0282331109046936e-01" nType="-99"/>
                  </Node>
                  <Node pos="r" depth="6" NCoef="0" IVar="-1" Cut="0.0000000000000000e+00" cType="1" res="-9.5767676830291748e-03" rms="4.1562816500663757e-01" purity="2.2747150063514709e-01" nType="-99"/>
                </Node>
              </Node>
            </Node>
            <Node pos="r" depth="3" NCoef="0" IVar="4" Cut="1.0280039906501770e-01" cType="1" res="-1.3894850015640259e-01" rms="2.3632845282554626e-01" purity="6.0804829001426697e-02" nType="0">
              <Node pos="l" depth="4" NCoef="0" IVar="2" Cut="7.9429679870605469e+01" cType="1" res="-1.4695392549037933e-01" rms="2.1162147819995880e-01" purity="4.7915395349264145e-02" nType="0">
                <Node pos="l" depth="5" NCoef="0" IVar="5" Cut="5.0000000000000000e+00" cType="1" res="-1.2953044474124908e-01" rms="2.4610739946365356e-01" purity="6.7998811602592468e-02" nType="0">
                  <Node pos="l" depth="6" NCoef="0" IVar="-1" Cut="0.0000000000000000e+00" cType="1" res="-1.9765313714742661e-02" rms="2.9586699604988098e-01" purity="9.7812943160533905e-02" nType="-99"/>
                  <Node pos="r" depth="6" NCoef="0" IVar="-1" Cut="0.0000000000000000e+00" cType="1" res="-2.8240187093615532e-02" rms="2.0156580209732056e-01" purity="4.2986512184143066e-02" nType="-99"/>
                </Node>
                <Node pos="r" depth="5" NCoef="0" IVar="4" Cut="5.6912142783403397e-02" cType="1" res="-1.5223273634910583e-01" rms="1.9611978530883789e-01" purity="4.0763117372989655e-02" nType="0">
                  <Node pos="l" depth="6" NCoef="0" IVar="1" Cut="4.7041419148445129e-01" cType="1" res="-1.5998815000057220e-01" rms="1.7865209281444550e-01" purity="3.3161874860525131e-02" nType="0">
                    <Node pos="l" depth="7" NCoef="0" IVar="-1" Cut="0.0000000000000000e+00" cType="1" res="-2.8775991871953011e-02" rms="1.7260116338729858e-01" purity="3.1102605164051056e-02" nType="-99"/>
                    <Node pos="r" depth="7" NCoef="0" IVar="-1" Cut="0.0000000000000000e+00" cType="1" res="-2.7587860822677612e-02" rms="1.8429507315158844e-01" purity="3.5216271877288818e-02" nType="-99"/>
                  </Node>
                  <Node pos="r" depth="6" NCoef="0" IVar="2" Cut="1.4745536804199219e+02" cType="1" res="-1.4882837235927582e-01" rms="2.0322063565254211e-01" purity="4.4099804013967514e-02" nType="0">
                    <Node pos="l" depth="7" NCoef="0" IVar="-1" Cut="0.0000000000000000e+00" cType="1" res="-2.6004437357187271e-02" rms="2.2857223451137543e-01" purity="5.6944292038679123e-02" nType="-99"/>
                    <Node pos="r" depth="7" NCoef="0" IVar="-1" Cut="0.0000000000000000e+00" cType="1" res="-2.7600467205047607e-02" rms="1.9224394857883453e-01" purity="3.9081268012523651e-02" nType="-99"/>
                  </Node>
                </Node>
              </Node>
              <Node pos="r" depth="4" NCoef="0" IVar="5" Cut="4.0000000000000000e+00" cType="1" res="-1.2902075052261353e-01" rms="2.6200008392333984e-01" purity="7.6101921498775482e-02" nType="0">
                <Node pos="l" depth="5" NCoef="0" IVar="-1" Cut="0.0000000000000000e+00" cType="1" res="-1.6155108809471130e-02" rms="3.3007845282554626e-01" purity="1.2537525594234467e-01" nType="-99"/>
                <Node pos="r" depth="5" NCoef="0" IVar="0" Cut="1.2506814002990723e+00" cType="1" res="-1.3497273623943329e-01" rms="2.4650745093822479e-01" purity="6.6442400217056274e-02" nType="0">
                  <Node pos="l" depth="6" NCoef="0" IVar="-1" Cut="0.0000000000000000e+00" cType="1" res="-1.7007229849696159e-02" rms="3.2012391090393066e-01" purity="1.1713087558746338e-01" nType="-99"/>
                  <Node pos="r" depth="6" NCoef="0" IVar="0" Cut="2.3659896850585938e+00" cType="1" res="-1.4118678867816925e-01" rms="2.2454784810543060e-01" purity="5.4112359881401062e-02" nType="0">
                    <Node pos="l" depth="7" NCoef="0" IVar="-1" Cut="0.0000000000000000e+00" cType="1" res="-2.4470044299960136e-02" rms="2.4425025284290314e-01" purity="6.4719878137111664e-02" nType="-99"/>
                    <Node pos="r" depth="7" NCoef="0" IVar="-1" Cut="0.0000000000000000e+00" cType="1" res="-3.0240485444664955e-02" rms="1.9200976192951202e-01" purity="3.8691580295562744e-02" nType="-99"/>
                  </Node>
                </Node>
              </Node>
            </Node>
          </Node>
          <Node pos="r" depth="2" NCoef="0" IVar="1" Cut="2.7527348138391972e-03" cType="1" res="-4.1765335947275162e-02" rms="4.7228202223777771e-01" purity="3.7926974892616272e-01" nType="0">
            <Node pos="l" depth="3" NCoef="0" IVar="2" Cut="1.4376905822753906e+02" cType="1" res="-7.7588221756741405e-04" rms="4.8597478866577148e-01" purity="4.4231289625167847e-01" nType="0">
              <Node pos="l" depth="4" NCoef="0" IVar="4" Cut="5.8609683066606522e-02" cType="1" res="3.4920211881399155e-02" rms="4.8965454101562500e-01" purity="4.9038916826248169e-01" nType="0">
                <Node pos="l" depth="5" NCoef="0" IVar="-1" Cut="0.0000000000000000e+00" cType="1" res="7.7687662269454449e-05" rms="4.8841580748558044e-01" purity="4.4915640354156494e-01" nType="-99"/>
                <Node pos="r" depth="5" NCoef="0" IVar="-1" Cut="0.0000000000000000e+00" cType="1" res="5.7799178175628185e-03" rms="4.8831585049629211e-01" purity="5.3510874509811401e-01" nType="-99"/>
              </Node>
              <Node pos="r" depth="4" NCoef="0" IVar="3" Cut="6.0325330495834351e-01" cType="1" res="-3.2239712774753571e-02" rms="4.8051425814628601e-01" purity="3.9993676543235779e-01" nType="0">
                <Node pos="l" depth="5" NCoef="0" IVar="-1" Cut="0.0000000000000000e+00" cType="1" res="-6.0696755535900593e-03" rms="4.6259453892707825e-01" purity="3.2419523596763611e-01" nType="-99"/>
                <Node pos="r" depth="5" NCoef="0" IVar="-1" Cut="0.0000000000000000e+00" cType="1" res="-8.9123740326613188e-04" rms="4.9330312013626099e-01" purity="4.6080672740936279e-01" nType="-99"/>
              </Node>
            </Node>
            <Node pos="r" depth="3" NCoef="0" IVar="1" Cut="6.4610165357589722e-01" cType="1" res="-6.8167492747306824e-02" rms="4.6132352948188782e-01" purity="3.3866232633590698e-01" nType="0">
              <Node pos="l" depth="4" NCoef="0" IVar="0" Cut="2.1719095110893250e-01" cType="1" res="-4.9489997327327728e-02" rms="4.7098389267921448e-01" purity="3.6746403574943542e-01" nType="0">
                <Node pos="l" depth="5" NCoef="0" IVar="3" Cut="6.1645519733428955e-01" cType="1" res="-6.2729292549192905e-03" rms="4.9425783753395081e-01" purity="4.7023659944534302e-01" nType="0">
                  <Node pos="l" depth="6" NCoef="0" IVar="-1" Cut="0.0000000000000000e+00" cType="1" res="-4.7705722972750664e-03" rms="4.8474898934364319e-01" purity="3.8221672177314758e-01" nType="-99"/>
                  <Node pos="r" depth="6" NCoef="0" IVar="-1" Cut="0.0000000000000000e+00" cType="1" res="1.7198302084580064e-03" rms="4.9784016609191895e-01" purity="5.2219659090042114e-01" nType="-99"/>
                </Node>
                <Node pos="r" depth="5" NCoef="0" IVar="1" Cut="1.0653290152549744e-01" cType="1" res="-7.1929678320884705e-02" rms="4.5682379603385925e-01" purity="3.1410124897956848e-01" nType="0">
                  <Node pos="l" depth="6" NCoef="0" IVar="-1" Cut="0.0000000000000000e+00" cType="1" res="-3.4254926722496748e-03" rms="4.7501111030578613e-01" purity="3.6553362011909485e-01" nType="-99"/>
                  <Node pos="r" depth="6" NCoef="0" IVar="3" Cut="6.2964093685150146e-01" cType="1" res="-8.5323616862297058e-02" rms="4.4925796985626221e-01" purity="2.9533338546752930e-01" nType="0">
                    <Node pos="l" depth="7" NCoef="0" IVar="-1" Cut="0.0000000000000000e+00" cType="1" res="-1.0957933962345123e-02" rms="4.2888900637626648e-01" purity="2.5139623880386353e-01" nType="-99"/>
                    <Node pos="r" depth="7" NCoef="0" IVar="-1" Cut="0.0000000000000000e+00" cType="1" res="-5.3814351558685303e-03" rms="4.8167243599891663e-01" purity="3.7249362468719482e-01" nType="-99"/>
                  </Node>
                </Node>
              </Node>
              <Node pos="r" depth="4" NCoef="0" IVar="4" Cut="7.6641589403152466e-02" cType="1" res="-1.3573700189590454e-01" rms="4.1762319207191467e-01" purity="2.3446650803089142e-01" nType="0">
                <Node pos="l" depth="5" NCoef="0" IVar="-1" Cut="0.0000000000000000e+00" cType="1" res="-1.7667576670646667e-02" rms="3.9735439419746399e-01" purity="2.0458520948886871e-01" nType="-99"/>
                <Node pos="r" depth="5" NCoef="0" IVar="-1" Cut="0.0000000000000000e+00" cType="1" res="-1.1251293122768402e-02" rms="4.3808558583259583e-01" purity="2.6866278052330017e-01" nType="-99"/>
              </Node>
            </Node>
          </Node>
        </Node>
        <Node pos="r" depth="1" NCoef="0" IVar="5" Cut="2.0000000000000000e+00" cType="1" res="1.0053502023220062e-01" rms="4.3933615088462830e-01" purity="7.1762442588806152e-01" nType="0">
          <Node pos="l" depth="2" NCoef="0" IVar="0" Cut="2.7377724647521973e-01" cType="1" res="1.2757746875286102e-01" rms="4.1383603215217590e-01" purity="7.7353674173355103e-01" nType="0">
            <Node pos="l" depth="3" NCoef="0" IVar="1" Cut="4.3621262907981873e-01" cType="1" res="1.3267880678176880e-01" rms="4.0851354598999023e-01" purity="7.8527885675430298e-01" nType="0">
              <Node pos="l" depth="4" NCoef="0" IVar="3" Cut="9.7571802139282227e-01" cType="1" res="1.3958638906478882e-01" rms="3.9945602416992188e-01" purity="8.0018699169158936e-01" nType="0">
                <Node pos="l" depth="5" NCoef="0" IVar="1" Cut="7.7391439117491245e-04" cType="1" res="1.1381191015243530e-01" rms="4.2486706376075745e-01" purity="7.6253503561019897e-01" nType="0">
                  <Node pos="l" depth="6" NCoef="0" IVar="-1" Cut="0.0000000000000000e+00" cType="1" res="1.0503584519028664e-02" rms="4.1644731163978577e-01" purity="7.7616399526596069e-01" nType="-99"/>
                  <Node pos="r" depth="6" NCoef="0" IVar="-1" Cut="0.0000000000000000e+00" cType="1" res="8.3127086982131004e-03" rms="4.3591389060020447e-01" purity="7.4345248937606812e-01" nType="-99"/>
                </Node>
                <Node pos="r" depth="5" NCoef="0" IVar="1" Cut="1.8245849013328552e-01" cType="1" res="1.4301541447639465e-01" rms="3.9582598209381104e-01" purity="8.0519622564315796e-01" nType="0">
                  <Node pos="l" depth="6" NCoef="0" IVar="3" Cut="1.0076535940170288e+00" cType="1" res="1.4631149172782898e-01" rms="3.9170992374420166e-01" purity="8.1059223413467407e-01" nType="0">
                    <Node pos="l" depth="7" NCoef="0" IVar="-1" Cut="0.0000000000000000e+00" cType="1" res="1.2414517812430859e-02" rms="3.9376986026763916e-01" purity="8.0797177553176880e-01" nType="-99"/>
                    <Node pos="r" depth="7" NCoef="0" IVar="-1" Cut="0.0000000000000000e+00" cType="1" res="1.2838227674365044e-02" rms="3.8559132814407349e-01" purity="8.1818747520446777e-01" nType="-99"/>
                  </Node>
                  <Node pos="r" depth="6" NCoef="0" IVar="1" Cut="2.3977452516555786e-01" cType="1" res="1.2854687869548798e-01" rms="4.1309839487075806e-01" purity="7.8150975704193115e-01" nType="0">
                    <Node pos="l" depth="7" NCoef="0" IVar="-1" Cut="0.0000000000000000e+00" cType="1" res="1.1896326206624508e-02" rms="4.0130275487899780e-01" purity="7.9821395874023438e-01" nType="-99"/>
                    <Node pos="r" depth="7" NCoef="0" IVar="-1" Cut="0.0000000000000000e+00" cType="1" res="1.0337376967072487e-02" rms="4.1800922155380249e-01" purity="7.7426081895828247e-01" nType="-99"/>
                  </Node>
                </Node>
              </Node>
              <Node pos="r" depth="4" NCoef="0" IVar="1" Cut="1.0524590015411377e+00" cType="1" res="9.0171918272972107e-02" rms="4.5805731415748596e-01" purity="6.9353884458541870e-01" nType="0">
                <Node pos="l" depth="5" NCoef="0" IVar="1" Cut="6.5486752986907959e-01" cType="1" res="1.0434295982122421e-01" rms="4.4634899497032166e-01" purity="7.2310096025466919e-01" nType="0">
                  <Node pos="l" depth="6" NCoef="0" IVar="-1" Cut="0.0000000000000000e+00" cType="1" res="8.8357571512460709e-03" rms="4.3681052327156067e-01" purity="7.4251365661621094e-01" nType="-99"/>
                  <Node pos="r" depth="6" NCoef="0" IVar="-1" Cut="0.0000000000000000e+00" cType="1" res="7.5971106998622417e-03" rms="4.5924660563468933e-01" purity="6.9603157043457031e-01" nType="-99"/>
                </Node>
                <Node pos="r" depth="5" NCoef="0" IVar="-1" Cut="0.0000000000000000e+00" cType="1" res="4.2648669332265854e-03" rms="4.8554685711860657e-01" purity="6.1576789617538452e-01" nType="-99"/>
              </Node>
            </Node>
            <Node pos="r" depth="3" NCoef="0" IVar="-1" Cut="0.0000000000000000e+00" cType="1" res="3.1885681673884392e-03" rms="4.8859727382659912e-01" purity="5.7045072317123413e-01" nType="-99"/>
          </Node>
          <Node pos="r" depth="2" NCoef="0" IVar="0" Cut="2.5246760249137878e-01" cType="1" res="6.2557183206081390e-02" rms="4.7062078118324280e-01" purity="6.4377325773239136e-01" nType="0">
            <Node pos="l" depth="3" NCoef="0" IVar="1" Cut="6.1117339134216309e-01" cType="1" res="7.6379999518394470e-02" rms="4.6425813436508179e-01" purity="6.7252594232559204e-01" nType="0">
              <Node pos="l" depth="4" NCoef="0" IVar="3" Cut="8.3798044919967651e-01" cType="1" res="8.3025127649307251e-02" rms="4.6028172969818115e-01" purity="6.8748152256011963e-01" nType="0">
                <Node pos="l" depth="5" NCoef="0" IVar="1" Cut="-3.2405652105808258e-02" cType="1" res="6.2984496355056763e-02" rms="4.7816565632820129e-01" purity="6.4070862531661987e-01" nType="0">
                  <Node pos="l" depth="6" NCoef="0" IVar="2" Cut="1.6738839721679688e+02" cType="1" res="7.7975019812583923e-02" rms="4.7086057066917419e-01" purity="6.6523569822311401e-01" nType="0">
                    <Node pos="l" depth="7" NCoef="0" IVar="-1" Cut="0.0000000000000000e+00" cType="1" res="7.0199831388890743e-03" rms="4.6647560596466064e-01" purity="6.7795962095260620e-01" nType="-99"/>
                    <Node pos="r" depth="7" NCoef="0" IVar="-1" Cut="0.0000000000000000e+00" cType="1" res="4.7837337478995323e-03" rms="4.8059195280075073e-01" purity="6.3415503501892090e-01" nType="-99"/>
                  </Node>
                  <Node pos="r" depth="6" NCoef="0" IVar="4" Cut="3.3582177013158798e-02" cType="1" res="5.1335189491510391e-02" rms="4.8344552516937256e-01" purity="6.2164831161499023e-01" nType="0">
                    <Node pos="l" depth="7" NCoef="0" IVar="-1" Cut="0.0000000000000000e+00" cType="1" res="2.3988888133317232e-03" rms="4.8857548832893372e-01" purity="5.9989571571350098e-01" nType="-99"/>
                    <Node pos="r" depth="7" NCoef="0" IVar="-1" Cut="0.0000000000000000e+00" cType="1" res="4.8711574636399746e-03" rms="4.8152863979339600e-01" purity="6.2867844104766846e-01" nType="-99"/>
                  </Node>
                </Node>
                <Node pos="r" depth="5" NCoef="0" IVar="1" Cut="1.1388150602579117e-01" cType="1" res="1.0257568210363388e-01" rms="4.4126242399215698e-01" purity="7.3311066627502441e-01" nType="0">
                  <Node pos="l" depth="6" NCoef="0" IVar="1" Cut="-5.4574329406023026e-02" cType="1" res="1.1050490289926529e-01" rms="4.3370449542999268e-01" purity="7.4772959947586060e-01" nType="0">
                    <Node pos="l" depth="7" NCoef="0" IVar="-1" Cut="0.0000000000000000e+00" cType="1" res="1.0701289400458336e-02" rms="4.2772135138511658e-01" purity="7.5810295343399048e-01" nType="-99"/>
                    <Node pos="r" depth="7" NCoef="0" IVar="-1" Cut="0.0000000000000000e+00" cType="1" res="8.9667029678821564e-03" rms="4.4074255228042603e-01" purity="7.3479151725769043e-01" nType="-99"/>
                  </Node>
                  <Node pos="r" depth="6" NCoef="0" IVar="3" Cut="8.7355989217758179e-01" cType="1" res="8.4481917321681976e-02" rms="4.5752793550491333e-01" purity="6.9975143671035767e-01" nType="0">
                    <Node pos="l" depth="7" NCoef="0" IVar="-1" Cut="0.0000000000000000e+00" cType="1" res="6.1115766875445843e-03" rms="4.6712228655815125e-01" purity="6.7755174636840820e-01" nType="-99"/>
                    <Node pos="r" depth="7" NCoef="0" IVar="-1" Cut="0.0000000000000000e+00" cType="1" res="8.8960696011781693e-03" rms="4.4805097579956055e-01" purity="7.2067415714263916e-01" nType="-99"/>
                  </Node>
                </Node>
              </Node>
              <Node pos="r" depth="4" NCoef="0" IVar="-1" Cut="0.0000000000000000e+00" cType="1" res="1.1819126084446907e-03" rms="4.9566593766212463e-01" purity="5.3243285417556763e-01" nType="-99"/>
            </Node>
            <Node pos="r" depth="3" NCoef="0" IVar="2" Cut="1.3034025573730469e+02" cType="1" res="-4.0109814144670963e-03" rms="4.9475076794624329e-01" purity="5.0530540943145752e-01" nType="0">
              <Node pos="l" depth="4" NCoef="0" IVar="4" Cut="3.5575225949287415e-02" cType="1" res="1.6938203945755959e-02" rms="4.9391672015190125e-01" purity="5.3698021173477173e-01" nType="0">
                <Node pos="l" depth="5" NCoef="0" IVar="-1" Cut="0.0000000000000000e+00" cType="1" res="-1.1811350705102086e-03" rms="4.9458402395248413e-01" purity="5.0619602203369141e-01" nType="-99"/>
                <Node pos="r" depth="5" NCoef="0" IVar="-1" Cut="0.0000000000000000e+00" cType="1" res="3.6114954855293036e-03" rms="4.9177271127700806e-01" purity="5.6411230564117432e-01" nType="-99"/>
              </Node>
              <Node pos="r" depth="4" NCoef="0" IVar="-1" Cut="0.0000000000000000e+00" cType="1" res="-3.4080694895237684e-03" rms="4.9423885345458984e-01" purity="4.5462653040885925e-01" nType="-99"/>
            </Node>
          </Node>
        </Node>
      </Node>
    </BinaryTree>
    <BinaryTree type="DecisionTree" boostWeight="1.0000000000000000e+00" itree="21">
      <Node pos="s" depth="0" NCoef="0" IVar="3" Cut="7.1752387285232544e-01" cType="1" res="1.5667831525206566e-02" rms="4.2521059513092041e-01" purity="5.0064772367477417e-01" nType="0">
        <Node pos="l" depth="1" NCoef="0" IVar="3" Cut="5.8180475234985352e-01" cType="1" res="-8.8292464613914490e-02" rms="3.8026598095893860e-01" purity="2.1608944237232208e-01" nType="0">
          <Node pos="l" depth="2" NCoef="0" IVar="0" Cut="6.4506030082702637e-01" cType="1" res="-1.1219511926174164e-01" rms="3.2942083477973938e-01" purity="1.3735564053058624e-01" nType="0">
            <Node pos="l" depth="3" NCoef="0" IVar="3" Cut="4.9059319496154785e-01" cType="1" res="-8.2547388970851898e-02" rms="4.3079522252082825e-01" purity="2.5862261652946472e-01" nType="0">
              <Node pos="l" depth="4" NCoef="0" IVar="4" Cut="1.5365049242973328e-01" cType="1" res="-1.0014152526855469e-01" rms="4.0099215507507324e-01" purity="2.0538517832756042e-01" nType="0">
                <Node pos="l" depth="5" NCoef="0" IVar="-1" Cut="0.0000000000000000e+00" cType="1" res="-1.5935605391860008e-02" rms="3.7487396597862244e-01" purity="1.7179831862449646e-01" nType="-99"/>
                <Node pos="r" depth="5" NCoef="0" IVar="5" Cut="5.0000000000000000e+00" cType="1" res="-5.5059649050235748e-02" rms="3.5419428348541260e-01" purity="2.2552135586738586e-01" nType="0">
                  <Node pos="l" depth="6" NCoef="0" IVar="-1" Cut="0.0000000000000000e+00" cType="1" res="-7.3525370098650455e-03" rms="4.3386846780776978e-01" purity="2.5631934404373169e-01" nType="-99"/>
                  <Node pos="r" depth="6" NCoef="0" IVar="-1" Cut="0.0000000000000000e+00" cType="1" res="-1.2441854923963547e-02" rms="3.9801436662673950e-01" purity="2.0007251203060150e-01" nType="-99"/>
                </Node>
              </Node>
              <Node pos="r" depth="4" NCoef="0" IVar="4" Cut="1.2881802022457123e-01" cType="1" res="-6.1692275106906891e-02" rms="4.6278196573257446e-01" purity="3.2172739505767822e-01" nType="0">
                <Node pos="l" depth="5" NCoef="0" IVar="2" Cut="1.2224971008300781e+02" cType="1" res="-7.5805872678756714e-02" rms="4.5494669675827026e-01" purity="3.0259746313095093e-01" nType="0">
                  <Node pos="l" depth="6" NCoef="0" IVar="-1" Cut="0.0000000000000000e+00" cType="1" res="-4.7009848058223724e-03" rms="4.6818977594375610e-01" purity="3.3662712574005127e-01" nType="-99"/>
                  <Node pos="r" depth="6" NCoef="0" IVar="-1" Cut="0.0000000000000000e+00" cType="1" res="-9.5613840967416763e-03" rms="4.4545242190361023e-01" purity="2.8089964389801025e-01" nType="-99"/>
                </Node>
                <Node pos="r" depth="5" NCoef="0" IVar="-1" Cut="0.0000000000000000e+00" cType="1" res="-2.9153870418667793e-03" rms="4.7825723886489868e-01" purity="3.6426943540573120e-01" nType="-99"/>
              </Node>
            </Node>
            <Node pos="r" depth="3" NCoef="0" IVar="1" Cut="3.3547857403755188e-01" cType="1" res="-1.2504564225673676e-01" rms="2.7307188510894775e-01" purity="8.4793619811534882e-02" nType="0">
              <Node pos="l" depth="4" NCoef="0" IVar="3" Cut="4.1790029406547546e-01" cType="1" res="-1.1488822102546692e-01" rms="2.9986333847045898e-01" purity="1.0454116761684418e-01" nType="0">
                <Node pos="l" depth="5" NCoef="0" IVar="4" Cut="1.0318466275930405e-01" cType="1" res="-1.2339287996292114e-01" rms="2.5717806816101074e-01" purity="7.3021791875362396e-02" nType="0">
                  <Node pos="l" depth="6" NCoef="0" IVar="2" Cut="1.1964005279541016e+02" cType="1" res="-1.3898544013500214e-01" rms="2.0334438979625702e-01" purity="4.3961174786090851e-02" nType="0">
                    <Node pos="l" depth="7" NCoef="0" IVar="-1" Cut="0.0000000000000000e+00" cType="1" res="-2.3693213239312172e-02" rms="2.4160435795783997e-01" purity="6.3259609043598175e-02" nType="-99"/>
                    <Node pos="r" depth="7" NCoef="0" IVar="-1" Cut="0.0000000000000000e+00" cType="1" res="-2.8277188539505005e-02" rms="1.7724363505840302e-01" purity="3.2949388027191162e-02" nType="-99"/>
                  </Node>
                  <Node pos="r" depth="6" NCoef="0" IVar="2" Cut="2.5178355407714844e+02" cType="1" res="-1.1325422674417496e-01" rms="2.8635603189468384e-01" purity="9.1917693614959717e-02" nType="0">
                    <Node pos="l" depth="7" NCoef="0" IVar="-1" Cut="0.0000000000000000e+00" cType="1" res="-1.6663465648889542e-02" rms="3.1201663613319397e-01" purity="1.1152690649032593e-01" nType="-99"/>
                    <Node pos="r" depth="7" NCoef="0" IVar="-1" Cut="0.0000000000000000e+00" cType="1" res="-2.0744754001498222e-02" rms="2.7635499835014343e-01" purity="8.5004135966300964e-02" nType="-99"/>
                  </Node>
                </Node>
                <Node pos="r" depth="5" NCoef="0" IVar="4" Cut="8.9243754744529724e-02" cType="1" res="-9.7481928765773773e-02" rms="3.7166088819503784e-01" purity="1.6905120015144348e-01" nType="0">
                  <Node pos="l" depth="6" NCoef="0" IVar="2" Cut="1.1611135101318359e+02" cType="1" res="-1.1301679909229279e-01" rms="3.5501977801322937e-01" purity="1.5062160789966583e-01" nType="0">
                    <Node pos="l" depth="7" NCoef="0" IVar="-1" Cut="0.0000000000000000e+00" cType="1" res="-1.1677554808557034e-02" rms="3.8488367199897766e-01" purity="1.8346142768859863e-01" nType="-99"/>
                    <Node pos="r" depth="7" NCoef="0" IVar="-1" Cut="0.0000000000000000e+00" cType="1" res="-1.8149150535464287e-02" rms="3.2524526119232178e-01" purity="1.2176316976547241e-01" nType="-99"/>
                  </Node>
                  <Node pos="r" depth="6" NCoef="0" IVar="-1" Cut="0.0000000000000000e+00" cType="1" res="-9.6618263050913811e-03" rms="3.9349052309989929e-01" purity="1.9581668078899384e-01" nType="-99"/>
                </Node>
              </Node>
              <Node pos="r" depth="4" NCoef="0" IVar="1" Cut="1.8774517774581909e+00" cType="1" res="-1.3541956245899200e-01" rms="2.4223607778549194e-01" purity="6.4625136554241180e-02" nType="0">
                <Node pos="l" depth="5" NCoef="0" IVar="0" Cut="9.4689941406250000e-01" cType="1" res="-1.3841813802719116e-01" rms="2.3884221911430359e-01" purity="6.3083566725254059e-02" nType="0">
                  <Node pos="l" depth="6" NCoef="0" IVar="-1" Cut="0.0000000000000000e+00" cType="1" res="-1.6958395019173622e-02" rms="3.3780416846275330e-01" purity="1.3377316296100616e-01" nType="-99"/>
                  <Node pos="r" depth="6" NCoef="0" IVar="4" Cut="6.4118728041648865e-02" cType="1" res="-1.4199683070182800e-01" rms="2.1168304979801178e-01" purity="4.8016857355833054e-02" nType="0">
                    <Node pos="l" depth="7" NCoef="0" IVar="-1" Cut="0.0000000000000000e+00" cType="1" res="-2.8015067800879478e-02" rms="1.8708677589893341e-01" purity="3.7022344768047333e-02" nType="-99"/>
                    <Node pos="r" depth="7" NCoef="0" IVar="-1" Cut="0.0000000000000000e+00" cType="1" res="-2.6135608553886414e-02" rms="2.2221793234348297e-01" purity="5.3195927292108536e-02" nType="-99"/>
                  </Node>
                </Node>
                <Node pos="r" depth="5" NCoef="0" IVar="-1" Cut="0.0000000000000000e+00" cType="1" res="-2.1177681162953377e-02" rms="2.6493051648139954e-01" purity="7.6018996536731720e-02" nType="-99"/>
              </Node>
            </Node>
          </Node>
          <Node pos="r" depth="2" NCoef="0" IVar="0" Cut="4.8738375306129456e-01" cType="1" res="-2.4801466614007950e-02" rms="4.8466619849205017e-01" purity="4.2522472143173218e-01" nType="0">
            <Node pos="l" depth="3" NCoef="0" IVar="0" Cut="1.7293639481067657e-01" cType="1" res="-8.9016621932387352e-03" rms="4.9239107966423035e-01" purity="4.6181598305702209e-01" nType="0">
              <Node pos="l" depth="4" NCoef="0" IVar="2" Cut="3.1757644653320312e+02" cType="1" res="1.4568192884325981e-02" rms="4.9599102139472961e-01" purity="5.1288437843322754e-01" nType="0">
                <Node pos="l" depth="5" NCoef="0" IVar="3" Cut="6.4747941493988037e-01" cType="1" res="2.8952097520232201e-02" rms="4.9556317925453186e-01" purity="5.3519278764724731e-01" nType="0">
                  <Node pos="l" depth="6" NCoef="0" IVar="-1" Cut="0.0000000000000000e+00" cType="1" res="-7.0842074819665868e-06" rms="4.9771490693092346e-01" purity="4.7448575496673584e-01" nType="-99"/>
                  <Node pos="r" depth="6" NCoef="0" IVar="4" Cut="7.3865167796611786e-02" cType="1" res="4.3718069791793823e-02" rms="4.9381092190742493e-01" purity="5.6606417894363403e-01" nType="0">
                    <Node pos="l" depth="7" NCoef="0" IVar="-1" Cut="0.0000000000000000e+00" cType="1" res="1.7452760366722941e-03" rms="4.9624639749526978e-01" purity="5.4534131288528442e-01" nType="-99"/>
                    <Node pos="r" depth="7" NCoef="0" IVar="-1" Cut="0.0000000000000000e+00" cType="1" res="4.9422988668084145e-03" rms="4.9085566401481628e-01" purity="5.8393943309783936e-01" nType="-99"/>
                  </Node>
                </Node>
                <Node pos="r" depth="5" NCoef="0" IVar="-1" Cut="0.0000000000000000e+00" cType="1" res="-2.3365702945739031e-03" rms="4.9498090147972107e-01" purity="4.5071893930435181e-01" nType="-99"/>
              </Node>
              <Node pos="r" depth="4" NCoef="0" IVar="2" Cut="1.5359942626953125e+02" cType="1" res="-3.1702846288681030e-02" rms="4.8778802156448364e-01" purity="4.1220271587371826e-01" nType="0">
                <Node pos="l" depth="5" NCoef="0" IVar="4" Cut="5.4192751646041870e-02" cType="1" res="-1.2264691293239594e-02" rms="4.9141991138458252e-01" purity="4.3769958615303040e-01" nType="0">
                  <Node pos="l" depth="6" NCoef="0" IVar="-1" Cut="0.0000000000000000e+00" cType="1" res="-3.8896936457604170e-03" rms="4.8648235201835632e-01" purity="4.0541589260101318e-01" nType="-99"/>
                  <Node pos="r" depth="6" NCoef="0" IVar="-1" Cut="0.0000000000000000e+00" cType="1" res="2.7678830083459616e-03" rms="4.9543970823287964e-01" purity="4.8602792620658875e-01" nType="-99"/>
                </Node>
                <Node pos="r" depth="5" NCoef="0" IVar="-1" Cut="0.0000000000000000e+00" cType="1" res="-5.5048391222953796e-03" rms="4.8162400722503662e-01" purity="3.7790703773498535e-01" nType="-99"/>
              </Node>
            </Node>
            <Node pos="r" depth="3" NCoef="0" IVar="4" Cut="6.2945470213890076e-02" cType="1" res="-8.1822805106639862e-02" rms="4.5130386948585510e-01" purity="2.9399755597114563e-01" nType="0">
              <Node pos="l" depth="4" NCoef="0" IVar="-1" Cut="0.0000000000000000e+00" cType="1" res="-1.0942639783024788e-02" rms="4.3972086906433105e-01" purity="2.6992455124855042e-01" nType="-99"/>
              <Node pos="r" depth="4" NCoef="0" IVar="-1" Cut="0.0000000000000000e+00" cType="1" res="-6.0088657774031162e-03" rms="4.6036741137504578e-01" purity="3.1561109423637390e-01" nType="-99"/>
            </Node>
          </Node>
        </Node>
        <Node pos="r" depth="1" NCoef="0" IVar="0" Cut="6.1320686340332031e-01" cType="1" res="9.4735346734523773e-02" rms="4.4030213356018066e-01" purity="7.1706992387771606e-01" nType="0">
          <Node pos="l" depth="2" NCoef="0" IVar="3" Cut="8.8203179836273193e-01" cType="1" res="9.9755644798278809e-02" rms="4.3802064657211304e-01" purity="7.2553277015686035e-01" nType="0">
            <Node pos="l" depth="3" NCoef="0" IVar="1" Cut="2.0978708565235138e-01" cType="1" res="5.6718222796916962e-02" rms="4.7610405087471008e-01" purity="6.3300073146820068e-01" nType="0">
              <Node pos="l" depth="4" NCoef="0" IVar="3" Cut="8.1304246187210083e-01" cType="1" res="7.2654314339160919e-02" rms="4.6909204125404358e-01" purity="6.6348886489868164e-01" nType="0">
                <Node pos="l" depth="5" NCoef="0" IVar="3" Cut="7.4217414855957031e-01" cType="1" res="5.5147022008895874e-02" rms="4.8332399129867554e-01" purity="6.1914932727813721e-01" nType="0">
                  <Node pos="l" depth="6" NCoef="0" IVar="-1" Cut="0.0000000000000000e+00" cType="1" res="2.5540944188833237e-03" rms="4.9259907007217407e-01" purity="5.7267129421234131e-01" nType="-99"/>
                  <Node pos="r" depth="6" NCoef="0" IVar="5" Cut="3.0000000000000000e+00" cType="1" res="4.4299155473709106e-02" rms="3.8852375745773315e-01" purity="6.3354653120040894e-01" nType="0">
                    <Node pos="l" depth="7" NCoef="0" IVar="-1" Cut="0.0000000000000000e+00" cType="1" res="4.0673511102795601e-03" rms="4.8479586839675903e-01" purity="6.1513763666152954e-01" nType="-99"/>
                    <Node pos="r" depth="7" NCoef="0" IVar="-1" Cut="0.0000000000000000e+00" cType="1" res="7.4978070333600044e-03" rms="4.7183084487915039e-01" purity="6.6337198019027710e-01" nType="-99"/>
                  </Node>
                </Node>
                <Node pos="r" depth="5" NCoef="0" IVar="4" Cut="2.4313969537615776e-02" cType="1" res="9.0357892215251923e-02" rms="4.5356068015098572e-01" purity="7.0832556486129761e-01" nType="0">
                  <Node pos="l" depth="6" NCoef="0" IVar="-1" Cut="0.0000000000000000e+00" cType="1" res="6.0279639437794685e-03" rms="4.6242007613182068e-01" purity="6.8709468841552734e-01" nType="-99"/>
                  <Node pos="r" depth="6" NCoef="0" IVar="3" Cut="8.4419876337051392e-01" cType="1" res="9.6535809338092804e-02" rms="4.5080280303955078e-01" purity="7.1440207958221436e-01" nType="0">
                    <Node pos="l" depth="7" NCoef="0" IVar="-1" Cut="0.0000000000000000e+00" cType="1" res="7.0445421151816845e-03" rms="4.6238759160041809e-01" purity="6.8886947631835938e-01" nType="-99"/>
                    <Node pos="r" depth="7" NCoef="0" IVar="-1" Cut="0.0000000000000000e+00" cType="1" res="8.8994717225432396e-03" rms="4.4175377488136292e-01" purity="7.3354870080947876e-01" nType="-99"/>
                  </Node>
                </Node>
              </Node>
              <Node pos="r" depth="4" NCoef="0" IVar="0" Cut="1.9779615104198456e-02" cType="1" res="1.8636966124176979e-02" rms="4.9036285281181335e-01" purity="5.6014549732208252e-01" nType="0">
                <Node pos="l" depth="5" NCoef="0" IVar="3" Cut="7.8650939464569092e-01" cType="1" res="4.2700689285993576e-02" rms="4.8665285110473633e-01" purity="5.9715276956558228e-01" nType="0">
                  <Node pos="l" depth="6" NCoef="0" IVar="-1" Cut="0.0000000000000000e+00" cType="1" res="8.2121673040091991e-04" rms="4.9670487642288208e-01" purity="5.3391033411026001e-01" nType="-99"/>
                  <Node pos="r" depth="6" NCoef="0" IVar="4" Cut="3.8980260491371155e-02" cType="1" res="5.6171994656324387e-02" rms="4.8182171583175659e-01" purity="6.2309652566909790e-01" nType="0">
                    <Node pos="l" depth="7" NCoef="0" IVar="-1" Cut="0.0000000000000000e+00" cType="1" res="2.5244608987122774e-03" rms="4.8630890250205994e-01" purity="6.0203880071640015e-01" nType="-99"/>
                    <Node pos="r" depth="7" NCoef="0" IVar="-1" Cut="0.0000000000000000e+00" cType="1" res="6.0892570763826370e-03" rms="4.7715204954147339e-01" purity="6.4000988006591797e-01" nType="-99"/>
                  </Node>
                </Node>
                <Node pos="r" depth="5" NCoef="0" IVar="-1" Cut="0.0000000000000000e+00" cType="1" res="-4.0954244323074818e-03" rms="4.9442920088768005e-01" purity="4.6196055412292480e-01" nType="-99"/>
              </Node>
            </Node>
            <Node pos="r" depth="3" NCoef="0" IVar="1" Cut="4.1526558995246887e-01" cType="1" res="1.2267744541168213e-01" rms="4.1449818015098572e-01" purity="7.7481544017791748e-01" nType="0">
              <Node pos="l" depth="4" NCoef="0" IVar="0" Cut="1.7800578474998474e-01" cType="1" res="1.3043543696403503e-01" rms="4.0513941645622253e-01" purity="7.9124695062637329e-01" nType="0">
                <Node pos="l" depth="5" NCoef="0" IVar="3" Cut="9.8683077096939087e-01" cType="1" res="1.3292430341243744e-01" rms="4.0131700038909912e-01" purity="7.9763859510421753e-01" nType="0">
                  <Node pos="l" depth="6" NCoef="0" IVar="1" Cut="1.0954593867063522e-01" cType="1" res="1.1689709872007370e-01" rms="4.1845148801803589e-01" purity="7.7288365364074707e-01" nType="0">
                    <Node pos="l" depth="7" NCoef="0" IVar="-1" Cut="0.0000000000000000e+00" cType="1" res="1.1109604500234127e-02" rms="4.1165655851364136e-01" purity="7.8342854976654053e-01" nType="-99"/>
                    <Node pos="r" depth="7" NCoef="0" IVar="-1" Cut="0.0000000000000000e+00" cType="1" res="8.4908176213502884e-03" rms="4.3847835063934326e-01" purity="7.3955070972442627e-01" nType="-99"/>
                  </Node>
                  <Node pos="r" depth="6" NCoef="0" IVar="1" Cut="-2.6062950491905212e-01" cType="1" res="1.3939508795738220e-01" rms="3.9400345087051392e-01" purity="8.0763316154479980e-01" nType="0">
                    <Node pos="l" depth="7" NCoef="0" IVar="-1" Cut="0.0000000000000000e+00" cType="1" res="8.9103179052472115e-03" rms="4.1204833984375000e-01" purity="7.8317332267761230e-01" nType="-99"/>
                    <Node pos="r" depth="7" NCoef="0" IVar="-1" Cut="0.0000000000000000e+00" cType="1" res="1.2203400023281574e-02" rms="3.9257177710533142e-01" purity="8.0944126844406128e-01" nType="-99"/>
                  </Node>
                </Node>
                <Node pos="r" depth="5" NCoef="0" IVar="-1" Cut="0.0000000000000000e+00" cType="1" res="7.4007855728268623e-03" rms="4.6737316250801086e-01" purity="6.7411053180694580e-01" nType="-99"/>
              </Node>
              <Node pos="r" depth="4" NCoef="0" IVar="3" Cut="9.8723745346069336e-01" cType="1" res="7.8638412058353424e-02" rms="4.6159687638282776e-01" purity="6.8154025077819824e-01" nType="0">
                <Node pos="l" depth="5" NCoef="0" IVar="-1" Cut="0.0000000000000000e+00" cType="1" res="2.1683743689209223e-03" rms="4.8430144786834717e-01" purity="6.0946863889694214e-01" nType="-99"/>
                <Node pos="r" depth="5" NCoef="0" IVar="1" Cut="1.0328888893127441e+00" cType="1" res="9.4234995543956757e-02" rms="4.5362240076065063e-01" purity="7.0239526033401489e-01" nType="0">
                  <Node pos="l" depth="6" NCoef="0" IVar="1" Cut="5.5473238229751587e-01" cType="1" res="1.1121772974729538e-01" rms="4.3986591696739197e-01" purity="7.3505467176437378e-01" nType="0">
                    <Node pos="l" depth="7" NCoef="0" IVar="-1" Cut="0.0000000000000000e+00" cType="1" res="9.3102380633354187e-03" rms="4.2915949225425720e-01" purity="7.5426238775253296e-01" nType="-99"/>
                    <Node pos="r" depth="7" NCoef="0" IVar="-1" Cut="0.0000000000000000e+00" cType="1" res="8.4897913038730621e-03" rms="4.4792658090591431e-01" purity="7.2024559974670410e-01" nType="-99"/>
                  </Node>
                  <Node pos="r" depth="6" NCoef="0" IVar="-1" Cut="0.0000000000000000e+00" cType="1" res="3.8773813284933567e-03" rms="4.8637685179710388e-01" purity="6.1269962787628174e-01" nType="-99"/>
                </Node>
              </Node>
            </Node>
          </Node>
          <Node pos="r" depth="2" NCoef="0" IVar="-1" Cut="0.0000000000000000e+00" cType="1" res="-9.6701607108116150e-03" rms="4.8237052559852600e-01" purity="3.7727332115173340e-01" nType="-99"/>
        </Node>
      </Node>
    </BinaryTree>
    <BinaryTree type="DecisionTree" boostWeight="1.0000000000000000e+00" itree="22">
      <Node pos="s" depth="0" NCoef="0" IVar="3" Cut="7.1570873260498047e-01" cType="1" res="1.3948970474302769e-02" rms="4.2406460642814636e-01" purity="4.9896752834320068e-01" nType="0">
        <Node pos="l" depth="1" NCoef="0" IVar="3" Cut="5.3388434648513794e-01" cType="1" res="-8.5669152438640594e-02" rms="3.7771558761596680e-01" purity="2.1275356411933899e-01" nType="0">
          <Node pos="l" depth="2" NCoef="0" IVar="0" Cut="6.4506030082702637e-01" cType="1" res="-1.1219408363103867e-01" rms="3.0715310573577881e-01" purity="1.1484706401824951e-01" nType="0">
            <Node pos="l" depth="3" NCoef="0" IVar="1" Cut="4.3195551633834839e-01" cType="1" res="-8.3349250257015228e-02" rms="4.1699761152267456e-01" purity="2.3275685310363770e-01" nType="0">
              <Node pos="l" depth="4" NCoef="0" IVar="3" Cut="4.3370717763900757e-01" cType="1" res="-7.3153249919414520e-02" rms="4.2566004395484924e-01" purity="2.4704812467098236e-01" nType="0">
                <Node pos="l" depth="5" NCoef="0" IVar="4" Cut="2.0500099658966064e-01" cType="1" res="-9.1838531196117401e-02" rms="3.9912527799606323e-01" purity="2.0349377393722534e-01" nType="0">
                  <Node pos="l" depth="6" NCoef="0" IVar="-1" Cut="0.0000000000000000e+00" cType="1" res="-1.5440168790519238e-02" rms="3.6747965216636658e-01" purity="1.6318377852439880e-01" nType="-99"/>
                  <Node pos="r" depth="6" NCoef="0" IVar="-1" Cut="0.0000000000000000e+00" cType="1" res="-7.8542092815041542e-03" rms="4.2472058534622192e-01" purity="2.4088539183139801e-01" nType="-99"/>
                </Node>
                <Node pos="r" depth="5" NCoef="0" IVar="2" Cut="2.1216363525390625e+02" cType="1" res="-5.3893327713012695e-02" rms="4.5057094097137451e-01" purity="2.9194200038909912e-01" nType="0">
                  <Node pos="l" depth="6" NCoef="0" IVar="-1" Cut="0.0000000000000000e+00" cType="1" res="-2.5951038114726543e-03" rms="4.6340334415435791e-01" purity="3.2454156875610352e-01" nType="-99"/>
                  <Node pos="r" depth="6" NCoef="0" IVar="-1" Cut="0.0000000000000000e+00" cType="1" res="-8.0753294751048088e-03" rms="4.3980056047439575e-01" purity="2.6810479164123535e-01" nType="-99"/>
                </Node>
              </Node>
              <Node pos="r" depth="4" NCoef="0" IVar="-1" Cut="0.0000000000000000e+00" cType="1" res="-1.4795654453337193e-02" rms="3.8313087821006775e-01" purity="1.8289159238338470e-01" nType="-99"/>
            </Node>
            <Node pos="r" depth="3" NCoef="0" IVar="4" Cut="2.3081314563751221e-01" cType="1" res="-1.2184628844261169e-01" rms="2.5952655076980591e-01" purity="7.5391486287117004e-02" nType="0">
              <Node pos="l" depth="4" NCoef="0" IVar="3" Cut="3.8420009613037109e-01" cType="1" res="-1.2421939522027969e-01" rms="2.5390991568565369e-01" purity="7.1991078555583954e-02" nType="0">
                <Node pos="l" depth="5" NCoef="0" IVar="1" Cut="1.6955412626266479e+00" cType="1" res="-1.3121017813682556e-01" rms="2.0808869600296021e-01" purity="4.6131461858749390e-02" nType="0">
                  <Node pos="l" depth="6" NCoef="0" IVar="4" Cut="1.6401013731956482e-01" cType="1" res="-1.3353735208511353e-01" rms="2.0427916944026947e-01" purity="4.4462762773036957e-02" nType="0">
                    <Node pos="l" depth="7" NCoef="0" IVar="-1" Cut="0.0000000000000000e+00" cType="1" res="-2.8187731280922890e-02" rms="1.8467141687870026e-01" purity="3.5774599760770798e-02" nType="-99"/>
                    <Node pos="r" depth="7" NCoef="0" IVar="-1" Cut="0.0000000000000000e+00" cType="1" res="-2.1405389532446861e-02" rms="2.7381819486618042e-01" purity="8.2667127251625061e-02" nType="-99"/>
                  </Node>
                  <Node pos="r" depth="6" NCoef="0" IVar="-1" Cut="0.0000000000000000e+00" cType="1" res="-2.2347742691636086e-02" rms="2.4056205153465271e-01" purity="6.2195952981710434e-02" nType="-99"/>
                </Node>
                <Node pos="r" depth="5" NCoef="0" IVar="4" Cut="1.2656520307064056e-01" cType="1" res="-1.1128198355436325e-01" rms="3.2154199481010437e-01" purity="1.1984790116548538e-01" nType="0">
                  <Node pos="l" depth="6" NCoef="0" IVar="2" Cut="7.0106376647949219e+01" cType="1" res="-1.1748469620943069e-01" rms="3.1128978729248047e-01" purity="1.1112216114997864e-01" nType="0">
                    <Node pos="l" depth="7" NCoef="0" IVar="-1" Cut="0.0000000000000000e+00" cType="1" res="-1.2766739353537560e-02" rms="3.5292658209800720e-01" purity="1.4918071031570435e-01" nType="-99"/>
                    <Node pos="r" depth="7" NCoef="0" IVar="-1" Cut="0.0000000000000000e+00" cType="1" res="-1.8951458856463432e-02" rms="3.0031222105026245e-01" purity="1.0223209112882614e-01" nType="-99"/>
                  </Node>
                  <Node pos="r" depth="6" NCoef="0" IVar="-1" Cut="0.0000000000000000e+00" cType="1" res="-1.1201647110283375e-02" rms="3.6902585625648499e-01" purity="1.6564604640007019e-01" nType="-99"/>
                </Node>
              </Node>
              <Node pos="r" depth="4" NCoef="0" IVar="-1" Cut="0.0000000000000000e+00" cType="1" res="-1.3680653646588326e-02" rms="3.3700481057167053e-01" purity="1.3182899355888367e-01" nType="-99"/>
            </Node>
          </Node>
          <Node pos="r" depth="2" NCoef="0" IVar="0" Cut="4.8275497555732727e-01" cType="1" res="-3.7686988711357117e-02" rms="4.7593405842781067e-01" purity="3.8986116647720337e-01" nType="0">
            <Node pos="l" depth="3" NCoef="0" IVar="1" Cut="7.0286232233047485e-01" cType="1" res="-1.9954942166805267e-02" rms="4.8919138312339783e-01" purity="4.3953987956047058e-01" nType="0">
              <Node pos="l" depth="4" NCoef="0" IVar="3" Cut="6.3947325944900513e-01" cType="1" res="-1.0471016168594360e-02" rms="4.9191009998321533e-01" purity="4.5455807447433472e-01" nType="0">
                <Node pos="l" depth="5" NCoef="0" IVar="1" Cut="2.2303497418761253e-02" cType="1" res="-3.6963816732168198e-02" rms="4.8553740978240967e-01" purity="3.9677730202674866e-01" nType="0">
                  <Node pos="l" depth="6" NCoef="0" IVar="0" Cut="1.5572438947856426e-02" cType="1" res="-1.6501175239682198e-02" rms="4.9172556400299072e-01" purity="4.2874476313591003e-01" nType="0">
                    <Node pos="l" depth="7" NCoef="0" IVar="-1" Cut="0.0000000000000000e+00" cType="1" res="-4.5290133130038157e-05" rms="4.9625474214553833e-01" purity="4.6323236823081970e-01" nType="-99"/>
                    <Node pos="r" depth="7" NCoef="0" IVar="-1" Cut="0.0000000000000000e+00" cType="1" res="-3.0261997599154711e-03" rms="4.8679113388061523e-01" purity="3.9529180526733398e-01" nType="-99"/>
                  </Node>
                  <Node pos="r" depth="6" NCoef="0" IVar="0" Cut="1.5571081079542637e-02" cType="1" res="-5.6302871555089951e-02" rms="4.7881257534027100e-01" purity="3.6656516790390015e-01" nType="0">
                    <Node pos="l" depth="7" NCoef="0" IVar="-1" Cut="0.0000000000000000e+00" cType="1" res="-3.2466079574078321e-03" rms="4.8927438259124756e-01" purity="4.0865057706832886e-01" nType="-99"/>
                    <Node pos="r" depth="7" NCoef="0" IVar="-1" Cut="0.0000000000000000e+00" cType="1" res="-7.1785678155720234e-03" rms="4.6954414248466492e-01" purity="3.3254244923591614e-01" nType="-99"/>
                  </Node>
                </Node>
                <Node pos="r" depth="5" NCoef="0" IVar="2" Cut="2.3594036865234375e+02" cType="1" res="1.2003551237285137e-02" rms="4.9614435434341431e-01" purity="5.0357508659362793e-01" nType="0">
                  <Node pos="l" depth="6" NCoef="0" IVar="4" Cut="6.1516661196947098e-02" cType="1" res="2.4222977459430695e-02" rms="4.9563118815422058e-01" purity="5.1726537942886353e-01" nType="0">
                    <Node pos="l" depth="7" NCoef="0" IVar="-1" Cut="0.0000000000000000e+00" cType="1" res="-1.1970090417889878e-04" rms="4.9536600708961487e-01" purity="4.8224461078643799e-01" nType="-99"/>
                    <Node pos="r" depth="7" NCoef="0" IVar="-1" Cut="0.0000000000000000e+00" cType="1" res="4.4712717644870281e-03" rms="4.9415308237075806e-01" purity="5.6016635894775391e-01" nType="-99"/>
                  </Node>
                  <Node pos="r" depth="6" NCoef="0" IVar="-1" Cut="0.0000000000000000e+00" cType="1" res="-1.8822741694748402e-03" rms="4.9603620171546936e-01" purity="4.6692642569541931e-01" nType="-99"/>
                </Node>
              </Node>
              <Node pos="r" depth="4" NCoef="0" IVar="-1" Cut="0.0000000000000000e+00" cType="1" res="-1.0910091921687126e-02" rms="4.5255705714225769e-01" purity="2.9623249173164368e-01" nType="-99"/>
            </Node>
            <Node pos="r" depth="3" NCoef="0" IVar="4" Cut="7.1445599198341370e-02" cType="1" res="-8.0647557973861694e-02" rms="4.3921136856079102e-01" purity="2.6950141787528992e-01" nType="0">
              <Node pos="l" depth="4" NCoef="0" IVar="1" Cut="1.5757425129413605e-01" cType="1" res="-1.0575710982084274e-01" rms="4.2487847805023193e-01" purity="2.4520628154277802e-01" nType="0">
                <Node pos="l" depth="5" NCoef="0" IVar="-1" Cut="0.0000000000000000e+00" cType="1" res="-7.7218916267156601e-03" rms="4.4962352514266968e-01" purity="2.9068744182586670e-01" nType="-99"/>
                <Node pos="r" depth="5" NCoef="0" IVar="-1" Cut="0.0000000000000000e+00" cType="1" res="-1.5206784941256046e-02" rms="3.9824718236923218e-01" purity="2.0271030068397522e-01" nType="-99"/>
              </Node>
              <Node pos="r" depth="4" NCoef="0" IVar="-1" Cut="0.0000000000000000e+00" cType="1" res="-5.2616037428379059e-03" rms="4.5416027307510376e-01" purity="2.9902961850166321e-01" nType="-99"/>
            </Node>
          </Node>
        </Node>
        <Node pos="r" depth="1" NCoef="0" IVar="0" Cut="6.1320686340332031e-01" cType="1" res="8.9059039950370789e-02" rms="4.4127783179283142e-01" purity="7.1476709842681885e-01" nType="0">
          <Node pos="l" depth="2" NCoef="0" IVar="3" Cut="8.3968144655227661e-01" cType="1" res="9.3769781291484833e-02" rms="4.3919500708580017e-01" purity="7.2299015522003174e-01" nType="0">
            <Node pos="l" depth="3" NCoef="0" IVar="0" Cut="1.7799256742000580e-01" cType="1" res="4.2819090187549591e-02" rms="4.8439395427703857e-01" purity="6.0228025913238525e-01" nType="0">
              <Node pos="l" depth="4" NCoef="0" IVar="3" Cut="7.6770055294036865e-01" cType="1" res="5.7473078370094299e-02" rms="4.7853273153305054e-01" purity="6.3430017232894897e-01" nType="0">
                <Node pos="l" depth="5" NCoef="0" IVar="1" Cut="1.1703754961490631e-01" cType="1" res="3.5091660916805267e-02" rms="4.8858940601348877e-01" purity="5.9353446960449219e-01" nType="0">
                  <Node pos="l" depth="6" NCoef="0" IVar="-1" Cut="0.0000000000000000e+00" cType="1" res="3.8662333972752094e-03" rms="4.8394760489463806e-01" purity="6.2251383066177368e-01" nType="-99"/>
                  <Node pos="r" depth="6" NCoef="0" IVar="-1" Cut="0.0000000000000000e+00" cType="1" res="1.5520709566771984e-03" rms="4.9508228898048401e-01" purity="5.4953742027282715e-01" nType="-99"/>
                </Node>
                <Node pos="r" depth="5" NCoef="0" IVar="1" Cut="3.4356603026390076e-01" cType="1" res="6.8296775221824646e-02" rms="4.7321310639381409e-01" purity="6.5401452779769897e-01" nType="0">
                  <Node pos="l" depth="6" NCoef="0" IVar="5" Cut="3.0000000000000000e+00" cType="1" res="7.4796371161937714e-02" rms="4.6720099449157715e-01" purity="6.7489808797836304e-01" nType="0">
                    <Node pos="l" depth="7" NCoef="0" IVar="-1" Cut="0.0000000000000000e+00" cType="1" res="5.2871555089950562e-03" rms="4.6972298622131348e-01" purity="6.6974109411239624e-01" nType="-99"/>
                    <Node pos="r" depth="7" NCoef="0" IVar="-1" Cut="0.0000000000000000e+00" cType="1" res="8.6051076650619507e-03" rms="4.6313259005546570e-01" purity="6.8769282102584839e-01" nType="-99"/>
                  </Node>
                  <Node pos="r" depth="6" NCoef="0" IVar="-1" Cut="0.0000000000000000e+00" cType="1" res="3.2110565807670355e-03" rms="4.9240419268608093e-01" purity="5.7158714532852173e-01" nType="-99"/>
                </Node>
              </Node>
              <Node pos="r" depth="4" NCoef="0" IVar="4" Cut="4.6691551804542542e-02" cType="1" res="1.2669926509261131e-02" rms="4.9487224221229553e-01" purity="5.3640252351760864e-01" nType="0">
                <Node pos="l" depth="5" NCoef="0" IVar="2" Cut="6.3038570404052734e+01" cType="1" res="-8.0141248181462288e-03" rms="4.9469754099845886e-01" purity="5.2396279573440552e-01" nType="0">
                  <Node pos="l" depth="6" NCoef="0" IVar="-1" Cut="0.0000000000000000e+00" cType="1" res="5.6193640921264887e-04" rms="4.9350517988204956e-01" purity="5.4087048768997192e-01" nType="-99"/>
                  <Node pos="r" depth="6" NCoef="0" IVar="-1" Cut="0.0000000000000000e+00" cType="1" res="-1.8586242804303765e-03" rms="4.9537727236747742e-01" purity="5.0965321063995361e-01" nType="-99"/>
                </Node>
                <Node pos="r" depth="5" NCoef="0" IVar="-1" Cut="0.0000000000000000e+00" cType="1" res="3.1059833709150553e-03" rms="4.9405908584594727e-01" purity="5.5014866590499878e-01" nType="-99"/>
              </Node>
            </Node>
            <Node pos="r" depth="3" NCoef="0" IVar="1" Cut="3.3660605549812317e-01" cType="1" res="1.0978314280509949e-01" rms="4.2272895574569702e-01" purity="7.6092821359634399e-01" nType="0">
              <Node pos="l" depth="4" NCoef="0" IVar="3" Cut="9.4997864961624146e-01" cType="1" res="1.1779198795557022e-01" rms="4.1315710544586182e-01" purity="7.7903640270233154e-01" nType="0">
                <Node pos="l" depth="5" NCoef="0" IVar="4" Cut="1.2823792174458504e-02" cType="1" res="9.5137991011142731e-02" rms="4.3954426050186157e-01" purity="7.3604762554168701e-01" nType="0">
                  <Node pos="l" depth="6" NCoef="0" IVar="-1" Cut="0.0000000000000000e+00" cType="1" res="6.5704504959285259e-03" rms="4.4818288087844849e-01" purity="7.1915918588638306e-01" nType="-99"/>
                  <Node pos="r" depth="6" NCoef="0" IVar="3" Cut="8.6101412773132324e-01" cType="1" res="1.0052511096000671e-01" rms="4.3721458315849304e-01" purity="7.4022346735000610e-01" nType="0">
                    <Node pos="l" depth="7" NCoef="0" IVar="-1" Cut="0.0000000000000000e+00" cType="1" res="7.2825779207050800e-03" rms="4.5362094044685364e-01" purity="7.0882457494735718e-01" nType="-99"/>
                    <Node pos="r" depth="7" NCoef="0" IVar="-1" Cut="0.0000000000000000e+00" cType="1" res="9.8940674215555191e-03" rms="4.3027079105377197e-01" purity="7.5295424461364746e-01" nType="-99"/>
                  </Node>
                </Node>
                <Node pos="r" depth="5" NCoef="0" IVar="0" Cut="1.7793492972850800e-01" cType="1" res="1.2659806013107300e-01" rms="4.0208882093429565e-01" purity="7.9574704170227051e-01" nType="0">
                  <Node pos="l" depth="6" NCoef="0" IVar="1" Cut="5.7131852954626083e-02" cType="1" res="1.2882964313030243e-01" rms="3.9832538366317749e-01" purity="8.0199295282363892e-01" nType="0">
                    <Node pos="l" depth="7" NCoef="0" IVar="-1" Cut="0.0000000000000000e+00" cType="1" res="1.1544793844223022e-02" rms="3.9323136210441589e-01" purity="8.0871832370758057e-01" nType="-99"/>
                    <Node pos="r" depth="7" NCoef="0" IVar="-1" Cut="0.0000000000000000e+00" cType="1" res="1.0312547907233238e-02" rms="4.0951344370841980e-01" purity="7.8667020797729492e-01" nType="-99"/>
                  </Node>
                  <Node pos="r" depth="6" NCoef="0" IVar="-1" Cut="0.0000000000000000e+00" cType="1" res="7.0108412764966488e-03" rms="4.6738672256469727e-01" purity="6.7389458417892456e-01" nType="-99"/>
                </Node>
              </Node>
              <Node pos="r" depth="4" NCoef="0" IVar="3" Cut="9.8898136615753174e-01" cType="1" res="7.5676634907722473e-02" rms="4.5971331000328064e-01" purity="6.8381243944168091e-01" nType="0">
                <Node pos="l" depth="5" NCoef="0" IVar="1" Cut="6.4745581150054932e-01" cType="1" res="3.6819931119680405e-02" rms="4.8087254166603088e-01" purity="6.2247359752655029e-01" nType="0">
                  <Node pos="l" depth="6" NCoef="0" IVar="-1" Cut="0.0000000000000000e+00" cType="1" res="5.7378304190933704e-03" rms="4.6647989749908447e-01" purity="6.7724519968032837e-01" nType="-99"/>
                  <Node pos="r" depth="6" NCoef="0" IVar="-1" Cut="0.0000000000000000e+00" cType="1" res="-1.9707344472408295e-04" rms="4.9628400802612305e-01" purity="5.5111813545227051e-01" nType="-99"/>
                </Node>
                <Node pos="r" depth="5" NCoef="0" IVar="1" Cut="9.5925843715667725e-01" cType="1" res="9.7771473228931427e-02" rms="4.4572731852531433e-01" purity="7.1869111061096191e-01" nType="0">
                  <Node pos="l" depth="6" NCoef="0" IVar="1" Cut="4.3703123927116394e-01" cType="1" res="1.0758067667484283e-01" rms="4.3379843235015869e-01" purity="7.4473887681961060e-01" nType="0">
                    <Node pos="l" depth="7" NCoef="0" IVar="-1" Cut="0.0000000000000000e+00" cType="1" res="1.0172833688557148e-02" rms="4.1579678654670715e-01" purity="7.7413016557693481e-01" nType="-99"/>
                    <Node pos="r" depth="7" NCoef="0" IVar="-1" Cut="0.0000000000000000e+00" cType="1" res="8.1098973751068115e-03" rms="4.4232353568077087e-01" purity="7.3013806343078613e-01" nType="-99"/>
                  </Node>
                  <Node pos="r" depth="6" NCoef="0" IVar="-1" Cut="0.0000000000000000e+00" cType="1" res="5.2734427154064178e-03" rms="4.8072305321693420e-01" purity="6.3496166467666626e-01" nType="-99"/>
                </Node>
              </Node>
            </Node>
          </Node>
          <Node pos="r" depth="2" NCoef="0" IVar="-1" Cut="0.0000000000000000e+00" cType="1" res="-9.7218547016382217e-03" rms="4.8133885860443115e-01" purity="3.7221676111221313e-01" nType="-99"/>
        </Node>
      </Node>
    </BinaryTree>
    <BinaryTree type="DecisionTree" boostWeight="1.0000000000000000e+00" itree="23">
      <Node pos="s" depth="0" NCoef="0" IVar="3" Cut="7.1639901399612427e-01" cType="1" res="1.5424905344843864e-02" rms="4.2294269800186157e-01" purity="5.0004643201828003e-01" nType="0">
        <Node pos="l" depth="1" NCoef="0" IVar="3" Cut="5.3467142581939697e-01" cType="1" res="-7.9087100923061371e-02" rms="3.7880063056945801e-01" purity="2.1486169099807739e-01" nType="0">
          <Node pos="l" depth="2" NCoef="0" IVar="0" Cut="3.2252913713455200e-01" cType="1" res="-1.0457213222980499e-01" rms="3.0957621335983276e-01" purity="1.1664994806051254e-01" nType="0">
            <Node pos="l" depth="3" NCoef="0" IVar="4" Cut="1.9157379865646362e-01" cType="1" res="-6.7226320505142212e-02" rms="4.3557104468345642e-01" purity="2.6280125975608826e-01" nType="0">
              <Node pos="l" depth="4" NCoef="0" IVar="3" Cut="4.6725541353225708e-01" cType="1" res="-7.9110316932201385e-02" rms="4.3176037073135376e-01" purity="2.5919759273529053e-01" nType="0">
                <Node pos="l" depth="5" NCoef="0" IVar="-1" Cut="0.0000000000000000e+00" cType="1" res="-1.2841676361858845e-02" rms="3.9520630240440369e-01" purity="1.9578179717063904e-01" nType="-99"/>
                <Node pos="r" depth="5" NCoef="0" IVar="-1" Cut="0.0000000000000000e+00" cType="1" res="-5.4983864538371563e-03" rms="4.6155869960784912e-01" purity="3.1759014725685120e-01" nType="-99"/>
              </Node>
              <Node pos="r" depth="4" NCoef="0" IVar="-1" Cut="0.0000000000000000e+00" cType="1" res="-5.7868435978889465e-03" rms="4.4038709998130798e-01" purity="2.6793238520622253e-01" nType="-99"/>
            </Node>
            <Node pos="r" depth="3" NCoef="0" IVar="4" Cut="1.2826950848102570e-01" cType="1" res="-1.1038685590028763e-01" rms="2.8454995155334473e-01" purity="9.3894265592098236e-02" nType="0">
              <Node pos="l" depth="4" NCoef="0" IVar="2" Cut="9.7082633972167969e+01" cType="1" res="-1.1752659082412720e-01" rms="2.6527127623558044e-01" purity="8.1015601754188538e-02" nType="0">
                <Node pos="l" depth="5" NCoef="0" IVar="3" Cut="4.3761476874351501e-01" cType="1" res="-1.0062685608863831e-01" rms="2.9483824968338013e-01" purity="1.0312164574861526e-01" nType="0">
                  <Node pos="l" depth="6" NCoef="0" IVar="5" Cut="5.0000000000000000e+00" cType="1" res="-1.1061569303274155e-01" rms="2.3426268994808197e-01" purity="6.1355952173471451e-02" nType="0">
                    <Node pos="l" depth="7" NCoef="0" IVar="-1" Cut="0.0000000000000000e+00" cType="1" res="-1.9683480262756348e-02" rms="2.7610948681831360e-01" purity="8.3638086915016174e-02" nType="-99"/>
                    <Node pos="r" depth="7" NCoef="0" IVar="-1" Cut="0.0000000000000000e+00" cType="1" res="-2.5740373879671097e-02" rms="2.1067124605178833e-01" purity="4.8002704977989197e-02" nType="-99"/>
                  </Node>
                  <Node pos="r" depth="6" NCoef="0" IVar="-1" Cut="0.0000000000000000e+00" cType="1" res="-9.4197560101747513e-03" rms="3.8925024867057800e-01" purity="1.9321599602699280e-01" nType="-99"/>
                </Node>
                <Node pos="r" depth="5" NCoef="0" IVar="4" Cut="7.4286438524723053e-02" cType="1" res="-1.2405610084533691e-01" rms="2.5262093544006348e-01" purity="7.2474546730518341e-02" nType="0">
                  <Node pos="l" depth="6" NCoef="0" IVar="2" Cut="2.2774143981933594e+02" cType="1" res="-1.3443964719772339e-01" rms="2.2489663958549500e-01" purity="5.5581875145435333e-02" nType="0">
                    <Node pos="l" depth="7" NCoef="0" IVar="-1" Cut="0.0000000000000000e+00" cType="1" res="-2.3803604766726494e-02" rms="2.3038426041603088e-01" purity="5.8547407388687134e-02" nType="-99"/>
                    <Node pos="r" depth="7" NCoef="0" IVar="-1" Cut="0.0000000000000000e+00" cType="1" res="-2.4157421663403511e-02" rms="2.0795930922031403e-01" purity="4.7011643648147583e-02" nType="-99"/>
                  </Node>
                  <Node pos="r" depth="6" NCoef="0" IVar="3" Cut="4.1869986057281494e-01" cType="1" res="-1.1795463413000107e-01" rms="2.6738741993904114e-01" purity="8.2400836050510406e-02" nType="0">
                    <Node pos="l" depth="7" NCoef="0" IVar="-1" Cut="0.0000000000000000e+00" cType="1" res="-2.5945590808987617e-02" rms="2.0228104293346405e-01" purity="4.3572422116994858e-02" nType="-99"/>
                    <Node pos="r" depth="7" NCoef="0" IVar="-1" Cut="0.0000000000000000e+00" cType="1" res="-1.3511183671653271e-02" rms="3.6118620634078979e-01" purity="1.5792196989059448e-01" nType="-99"/>
                  </Node>
                </Node>
              </Node>
              <Node pos="r" depth="4" NCoef="0" IVar="3" Cut="4.0095165371894836e-01" cType="1" res="-9.6791900694370270e-02" rms="3.1760063767433167e-01" purity="1.1841688305139542e-01" nType="0">
                <Node pos="l" depth="5" NCoef="0" IVar="2" Cut="3.3682516479492188e+02" cType="1" res="-1.0384581983089447e-01" rms="2.9420423507690430e-01" purity="9.8017551004886627e-02" nType="0">
                  <Node pos="l" depth="6" NCoef="0" IVar="3" Cut="2.6605823636054993e-01" cType="1" res="-9.2600457370281219e-02" rms="3.0392640829086304e-01" purity="1.0558657348155975e-01" nType="0">
                    <Node pos="l" depth="7" NCoef="0" IVar="-1" Cut="0.0000000000000000e+00" cType="1" res="-2.2835694253444672e-02" rms="2.6031756401062012e-01" purity="7.4513159692287445e-02" nType="-99"/>
                    <Node pos="r" depth="7" NCoef="0" IVar="-1" Cut="0.0000000000000000e+00" cType="1" res="-1.3388089835643768e-02" rms="3.3588492870330811e-01" purity="1.3192567229270935e-01" nType="-99"/>
                  </Node>
                  <Node pos="r" depth="6" NCoef="0" IVar="4" Cut="2.2369305789470673e-01" cType="1" res="-1.0971259325742722e-01" rms="2.8882858157157898e-01" purity="9.4068735837936401e-02" nType="0">
                    <Node pos="l" depth="7" NCoef="0" IVar="-1" Cut="0.0000000000000000e+00" cType="1" res="-2.1507048979401588e-02" rms="2.6138737797737122e-01" purity="7.5076118111610413e-02" nType="-99"/>
                    <Node pos="r" depth="7" NCoef="0" IVar="-1" Cut="0.0000000000000000e+00" cType="1" res="-1.4650199562311172e-02" rms="3.3758008480072021e-01" purity="1.3307854533195496e-01" nType="-99"/>
                  </Node>
                </Node>
                <Node pos="r" depth="5" NCoef="0" IVar="-1" Cut="0.0000000000000000e+00" cType="1" res="-8.5475267842411995e-03" rms="4.0096986293792725e-01" purity="2.0538252592086792e-01" nType="-99"/>
              </Node>
            </Node>
          </Node>
          <Node pos="r" depth="2" NCoef="0" IVar="0" Cut="2.6194036006927490e-01" cType="1" res="-3.2729785889387131e-02" rms="4.7627663612365723e-01" purity="3.9350900053977966e-01" nType="0">
            <Node pos="l" depth="3" NCoef="0" IVar="1" Cut="2.3193703591823578e-01" cType="1" res="-4.6573366853408515e-04" rms="4.9366572499275208e-01" purity="4.8169901967048645e-01" nType="0">
              <Node pos="l" depth="4" NCoef="0" IVar="2" Cut="2.8458090209960938e+02" cType="1" res="1.7018325626850128e-02" rms="4.9563372135162354e-01" purity="5.1324641704559326e-01" nType="0">
                <Node pos="l" depth="5" NCoef="0" IVar="2" Cut="1.0159153747558594e+02" cType="1" res="3.3810839056968689e-02" rms="4.9563941359519958e-01" purity="5.4161179065704346e-01" nType="0">
                  <Node pos="l" depth="6" NCoef="0" IVar="-1" Cut="0.0000000000000000e+00" cType="1" res="4.0688617154955864e-03" rms="4.9270272254943848e-01" purity="5.7135570049285889e-01" nType="-99"/>
                  <Node pos="r" depth="6" NCoef="0" IVar="-1" Cut="0.0000000000000000e+00" cType="1" res="1.8758532823994756e-03" rms="4.9722859263420105e-01" purity="5.2181261777877808e-01" nType="-99"/>
                </Node>
                <Node pos="r" depth="5" NCoef="0" IVar="-1" Cut="0.0000000000000000e+00" cType="1" res="-2.0046555437147617e-03" rms="4.9343836307525635e-01" purity="4.4768321514129639e-01" nType="-99"/>
              </Node>
              <Node pos="r" depth="4" NCoef="0" IVar="-1" Cut="0.0000000000000000e+00" cType="1" res="-3.8148940075188875e-03" rms="4.8641100525856018e-01" purity="4.0646862983703613e-01" nType="-99"/>
            </Node>
            <Node pos="r" depth="3" NCoef="0" IVar="3" Cut="6.2260931730270386e-01" cType="1" res="-5.6261572986841202e-02" rms="4.6176287531852722e-01" purity="3.2918760180473328e-01" nType="0">
              <Node pos="l" depth="4" NCoef="0" IVar="4" Cut="6.8964533507823944e-02" cType="1" res="-7.5021885335445404e-02" rms="4.4234910607337952e-01" purity="2.7852290868759155e-01" nType="0">
                <Node pos="l" depth="5" NCoef="0" IVar="2" Cut="8.9082229614257812e+01" cType="1" res="-1.0047420114278793e-01" rms="4.2592802643775940e-01" purity="2.4859423935413361e-01" nType="0">
                  <Node pos="l" depth="6" NCoef="0" IVar="-1" Cut="0.0000000000000000e+00" cType="1" res="-6.7820488475263119e-03" rms="4.4949400424957275e-01" purity="2.9245403409004211e-01" nType="-99"/>
                  <Node pos="r" depth="6" NCoef="0" IVar="-1" Cut="0.0000000000000000e+00" cType="1" res="-1.4827560633420944e-02" rms="4.0036839246749878e-01" purity="2.0849978923797607e-01" nType="-99"/>
                </Node>
                <Node pos="r" depth="5" NCoef="0" IVar="2" Cut="2.5130090332031250e+02" cType="1" res="-5.1660388708114624e-02" rms="4.5565247535705566e-01" purity="3.0599302053451538e-01" nType="0">
                  <Node pos="l" depth="6" NCoef="0" IVar="-1" Cut="0.0000000000000000e+00" cType="1" res="-2.7661526110023260e-03" rms="4.6784067153930664e-01" purity="3.3743548393249512e-01" nType="-99"/>
                  <Node pos="r" depth="6" NCoef="0" IVar="-1" Cut="0.0000000000000000e+00" cType="1" res="-8.5162995383143425e-03" rms="4.3954965472221375e-01" purity="2.6971000432968140e-01" nType="-99"/>
                </Node>
              </Node>
              <Node pos="r" depth="4" NCoef="0" IVar="5" Cut="3.0000000000000000e+00" cType="1" res="-3.2830152660608292e-02" rms="4.7992572188377380e-01" purity="3.8605085015296936e-01" nType="0">
                <Node pos="l" depth="5" NCoef="0" IVar="-1" Cut="0.0000000000000000e+00" cType="1" res="-5.7998313568532467e-03" rms="4.7117078304290771e-01" purity="3.4769916534423828e-01" nType="-99"/>
                <Node pos="r" depth="5" NCoef="0" IVar="2" Cut="1.4125477600097656e+02" cType="1" res="-1.8418416380882263e-02" rms="4.8770225048065186e-01" purity="4.1072207689285278e-01" nType="0">
                  <Node pos="l" depth="6" NCoef="0" IVar="-1" Cut="0.0000000000000000e+00" cType="1" res="-5.8737525250762701e-04" rms="4.9130496382713318e-01" purity="4.3043476343154907e-01" nType="-99"/>
                  <Node pos="r" depth="6" NCoef="0" IVar="-1" Cut="0.0000000000000000e+00" cType="1" res="-3.1798684503883123e-03" rms="4.8293384909629822e-01" purity="3.8698464632034302e-01" nType="-99"/>
                </Node>
              </Node>
            </Node>
          </Node>
        </Node>
        <Node pos="r" depth="1" NCoef="0" IVar="5" Cut="2.0000000000000000e+00" cType="1" res="8.7987296283245087e-02" rms="4.3947240710258484e-01" purity="7.1645158529281616e-01" nType="0">
          <Node pos="l" depth="2" NCoef="0" IVar="1" Cut="9.6058297157287598e-01" cType="1" res="1.1232845485210419e-01" rms="4.1430127620697021e-01" purity="7.7222567796707153e-01" nType="0">
            <Node pos="l" depth="3" NCoef="0" IVar="0" Cut="3.0660346150398254e-01" cType="1" res="1.1624674499034882e-01" rms="4.1007408499717712e-01" purity="7.8078347444534302e-01" nType="0">
              <Node pos="l" depth="4" NCoef="0" IVar="1" Cut="4.3630957603454590e-01" cType="1" res="1.1933761090040207e-01" rms="4.0572282671928406e-01" purity="7.9056841135025024e-01" nType="0">
                <Node pos="l" depth="5" NCoef="0" IVar="3" Cut="1.0010136365890503e+00" cType="1" res="1.2349014729261398e-01" rms="4.0038201212882996e-01" purity="7.9883784055709839e-01" nType="0">
                  <Node pos="l" depth="6" NCoef="0" IVar="4" Cut="3.7622972740791738e-04" cType="1" res="1.1545686423778534e-01" rms="4.0743777155876160e-01" purity="7.8907907009124756e-01" nType="0">
                    <Node pos="l" depth="7" NCoef="0" IVar="-1" Cut="0.0000000000000000e+00" cType="1" res="1.0548721998929977e-02" rms="4.0389046072959900e-01" purity="7.9431962966918945e-01" nType="-99"/>
                    <Node pos="r" depth="7" NCoef="0" IVar="-1" Cut="0.0000000000000000e+00" cType="1" res="5.5865109898149967e-03" rms="4.4941198825836182e-01" purity="7.1900421380996704e-01" nType="-99"/>
                  </Node>
                  <Node pos="r" depth="6" NCoef="0" IVar="3" Cut="1.0253943204879761e+00" cType="1" res="1.3634702563285828e-01" rms="3.8847777247428894e-01" purity="8.1445628404617310e-01" nType="0">
                    <Node pos="l" depth="7" NCoef="0" IVar="-1" Cut="0.0000000000000000e+00" cType="1" res="1.2071603909134865e-02" rms="3.8494578003883362e-01" purity="8.1875962018966675e-01" nType="-99"/>
                    <Node pos="r" depth="7" NCoef="0" IVar="-1" Cut="0.0000000000000000e+00" cType="1" res="1.0503342375159264e-02" rms="3.9770081639289856e-01" purity="8.0273348093032837e-01" nType="-99"/>
                  </Node>
                </Node>
                <Node pos="r" depth="5" NCoef="0" IVar="1" Cut="6.3926237821578979e-01" cType="1" res="8.0951131880283356e-02" rms="4.5030689239501953e-01" purity="7.1412444114685059e-01" nType="0">
                  <Node pos="l" depth="6" NCoef="0" IVar="-1" Cut="0.0000000000000000e+00" cType="1" res="7.5433296151459217e-03" rms="4.3938177824020386e-01" purity="7.3782086372375488e-01" nType="-99"/>
                  <Node pos="r" depth="6" NCoef="0" IVar="-1" Cut="0.0000000000000000e+00" cType="1" res="5.2763107232749462e-03" rms="4.6607205271720886e-01" purity="6.7779809236526489e-01" nType="-99"/>
                </Node>
              </Node>
              <Node pos="r" depth="4" NCoef="0" IVar="-1" Cut="0.0000000000000000e+00" cType="1" res="4.2475895024836063e-03" rms="4.8641562461853027e-01" purity="5.8056485652923584e-01" nType="-99"/>
            </Node>
            <Node pos="r" depth="3" NCoef="0" IVar="-1" Cut="0.0000000000000000e+00" cType="1" res="2.5039059109985828e-03" rms="4.8702806234359741e-01" purity="5.9413647651672363e-01" nType="-99"/>
          </Node>
          <Node pos="r" depth="2" NCoef="0" IVar="1" Cut="9.3153184652328491e-01" cType="1" res="5.3590621799230576e-02" rms="4.7050645947456360e-01" purity="6.4214897155761719e-01" nType="0">
            <Node pos="l" depth="3" NCoef="0" IVar="0" Cut="2.8154516220092773e-01" cType="1" res="6.0608338564634323e-02" rms="4.6834787726402283e-01" purity="6.5465933084487915e-01" nType="0">
              <Node pos="l" depth="4" NCoef="0" IVar="0" Cut="9.0818312019109726e-03" cType="1" res="6.9472268223762512e-02" rms="4.6338942646980286e-01" purity="6.7736428976058960e-01" nType="0">
                <Node pos="l" depth="5" NCoef="0" IVar="3" Cut="7.9760140180587769e-01" cType="1" res="7.6584190130233765e-02" rms="4.5912772417068481e-01" purity="6.9031679630279541e-01" nType="0">
                  <Node pos="l" depth="6" NCoef="0" IVar="5" Cut="3.0000000000000000e+00" cType="1" res="-3.2920608646236360e-05" rms="4.2512756772339344e-03" purity="6.2835878133773804e-01" nType="0">
                    <Node pos="l" depth="7" NCoef="0" IVar="-1" Cut="0.0000000000000000e+00" cType="1" res="1.9708571489900351e-03" rms="4.8882377147674561e-01" purity="5.9965884685516357e-01" nType="-99"/>
                    <Node pos="r" depth="7" NCoef="0" IVar="-1" Cut="0.0000000000000000e+00" cType="1" res="6.5366616472601891e-03" rms="4.7554829716682434e-01" purity="6.4869517087936401e-01" nType="-99"/>
                  </Node>
                  <Node pos="r" depth="6" NCoef="0" IVar="1" Cut="2.3591041564941406e-02" cType="1" res="8.4699600934982300e-02" rms="4.5017027854919434e-01" purity="7.1335047483444214e-01" nType="0">
                    <Node pos="l" depth="7" NCoef="0" IVar="-1" Cut="0.0000000000000000e+00" cType="1" res="8.2607129588723183e-03" rms="4.4054076075553894e-01" purity="7.3458445072174072e-01" nType="-99"/>
                    <Node pos="r" depth="7" NCoef="0" IVar="-1" Cut="0.0000000000000000e+00" cType="1" res="6.4724553376436234e-03" rms="4.6085453033447266e-01" purity="6.8874049186706543e-01" nType="-99"/>
                  </Node>
                </Node>
                <Node pos="r" depth="5" NCoef="0" IVar="4" Cut="3.9321992546319962e-02" cType="1" res="1.8686437979340553e-02" rms="4.8975896835327148e-01" purity="5.8487135171890259e-01" nType="0">
                  <Node pos="l" depth="6" NCoef="0" IVar="-1" Cut="0.0000000000000000e+00" cType="1" res="6.4361660042777658e-04" rms="4.9068543314933777e-01" purity="5.7806020975112915e-01" nType="-99"/>
                  <Node pos="r" depth="6" NCoef="0" IVar="-1" Cut="0.0000000000000000e+00" cType="1" res="2.9208979103714228e-03" rms="4.8845040798187256e-01" purity="5.9213584661483765e-01" nType="-99"/>
                </Node>
              </Node>
              <Node pos="r" depth="4" NCoef="0" IVar="2" Cut="1.2169839477539062e+02" cType="1" res="3.8282994646579027e-03" rms="4.9519380927085876e-01" purity="5.0921720266342163e-01" nType="0">
                <Node pos="l" depth="5" NCoef="0" IVar="-1" Cut="0.0000000000000000e+00" cType="1" res="2.5506026577204466e-03" rms="4.9359372258186340e-01" purity="5.4934436082839966e-01" nType="-99"/>
                <Node pos="r" depth="5" NCoef="0" IVar="-1" Cut="0.0000000000000000e+00" cType="1" res="-3.2815951853990555e-03" rms="4.9484211206436157e-01" purity="4.5002910494804382e-01" nType="-99"/>
              </Node>
            </Node>
            <Node pos="r" depth="3" NCoef="0" IVar="-1" Cut="0.0000000000000000e+00" cType="1" res="-5.8283228427171707e-03" rms="4.9065271019935608e-01" purity="4.3021962046623230e-01" nType="-99"/>
          </Node>
        </Node>
      </Node>
    </BinaryTree>
    <BinaryTree type="DecisionTree" boostWeight="1.0000000000000000e+00" itree="24">
      <Node pos="s" depth="0" NCoef="0" IVar="3" Cut="7.1202093362808228e-01" cType="1" res="1.5820665284991264e-02" rms="4.2220067977905273e-01" purity="5.0082248449325562e-01" nType="0">
        <Node pos="l" depth="1" NCoef="0" IVar="3" Cut="5.7636690139770508e-01" cType="1" res="-7.5553372502326965e-02" rms="3.7741431593894958e-01" purity="2.1223154664039612e-01" nType="0">
          <Node pos="l" depth="2" NCoef="0" IVar="0" Cut="6.4506030082702637e-01" cType="1" res="-9.4947561621665955e-02" rms="3.2696282863616943e-01" purity="1.3538049161434174e-01" nType="0">
            <Node pos="l" depth="3" NCoef="0" IVar="1" Cut="6.8719112873077393e-01" cType="1" res="-6.9484189152717590e-02" rms="4.2871955037117004e-01" purity="2.5656971335411072e-01" nType="0">
              <Node pos="l" depth="4" NCoef="0" IVar="3" Cut="4.4990929961204529e-01" cType="1" res="-6.2639214098453522e-02" rms="4.3458884954452515e-01" purity="2.6719602942466736e-01" nType="0">
                <Node pos="l" depth="5" NCoef="0" IVar="4" Cut="2.3090085387229919e-01" cType="1" res="-8.3847783505916595e-02" rms="3.9759209752082825e-01" purity="2.0143745839595795e-01" nType="0">
                  <Node pos="l" depth="6" NCoef="0" IVar="3" Cut="3.9436990022659302e-01" cType="1" res="-9.6007540822029114e-02" rms="3.8254177570343018e-01" purity="1.8140672147274017e-01" nType="0">
                    <Node pos="l" depth="7" NCoef="0" IVar="-1" Cut="0.0000000000000000e+00" cType="1" res="-1.5397828072309494e-02" rms="3.5996237397193909e-01" purity="1.5522614121437073e-01" nType="-99"/>
                    <Node pos="r" depth="7" NCoef="0" IVar="-1" Cut="0.0000000000000000e+00" cType="1" res="-9.0628024190664291e-03" rms="4.0768924355506897e-01" purity="2.1385300159454346e-01" nType="-99"/>
                  </Node>
                  <Node pos="r" depth="6" NCoef="0" IVar="-1" Cut="0.0000000000000000e+00" cType="1" res="-6.9823106750845909e-03" rms="4.2670479416847229e-01" purity="2.4405610561370850e-01" nType="-99"/>
                </Node>
                <Node pos="r" depth="5" NCoef="0" IVar="4" Cut="1.4109043776988983e-01" cType="1" res="-4.6438448131084442e-02" rms="4.6019527316093445e-01" purity="3.1742751598358154e-01" nType="0">
                  <Node pos="l" depth="6" NCoef="0" IVar="2" Cut="1.3126583862304688e+02" cType="1" res="-6.2551982700824738e-02" rms="4.5274040102958679e-01" purity="2.9818296432495117e-01" nType="0">
                    <Node pos="l" depth="7" NCoef="0" IVar="-1" Cut="0.0000000000000000e+00" cType="1" res="-2.9172925278544426e-03" rms="4.6994075179100037e-01" purity="3.4077727794647217e-01" nType="-99"/>
                    <Node pos="r" depth="7" NCoef="0" IVar="-1" Cut="0.0000000000000000e+00" cType="1" res="-8.6735356599092484e-03" rms="4.4117966294288635e-01" purity="2.7310046553611755e-01" nType="-99"/>
                  </Node>
                  <Node pos="r" depth="6" NCoef="0" IVar="-1" Cut="0.0000000000000000e+00" cType="1" res="-7.4599636718630791e-04" rms="4.7545617818832397e-01" purity="3.6384558677673340e-01" nType="-99"/>
                </Node>
              </Node>
              <Node pos="r" depth="4" NCoef="0" IVar="-1" Cut="0.0000000000000000e+00" cType="1" res="-1.4921898022294044e-02" rms="3.7900274991989136e-01" purity="1.7839473485946655e-01" nType="-99"/>
            </Node>
            <Node pos="r" depth="3" NCoef="0" IVar="4" Cut="1.4133825898170471e-01" cType="1" res="-1.0579109936952591e-01" rms="2.7159720659255981e-01" purity="8.3772242069244385e-02" nType="0">
              <Node pos="l" depth="4" NCoef="0" IVar="2" Cut="1.0935440826416016e+02" cType="1" res="-1.1089869588613510e-01" rms="2.6068812608718872e-01" purity="7.7086374163627625e-02" nType="0">
                <Node pos="l" depth="5" NCoef="0" IVar="4" Cut="5.9507172554731369e-02" cType="1" res="-9.6047699451446533e-02" rms="2.9105228185653687e-01" purity="9.8678663372993469e-02" nType="0">
                  <Node pos="l" depth="6" NCoef="0" IVar="2" Cut="4.6320274353027344e+01" cType="1" res="-1.0747911781072617e-01" rms="2.7454179525375366e-01" purity="8.6064942181110382e-02" nType="0">
                    <Node pos="l" depth="7" NCoef="0" IVar="-1" Cut="0.0000000000000000e+00" cType="1" res="-1.5858519822359085e-02" rms="3.0501794815063477e-01" purity="1.0940866917371750e-01" nType="-99"/>
                    <Node pos="r" depth="7" NCoef="0" IVar="-1" Cut="0.0000000000000000e+00" cType="1" res="-2.1558597683906555e-02" rms="2.5327974557876587e-01" purity="7.1706876158714294e-02" nType="-99"/>
                  </Node>
                  <Node pos="r" depth="6" NCoef="0" IVar="-1" Cut="0.0000000000000000e+00" cType="1" res="-1.3624125160276890e-02" rms="3.1764110922813416e-01" purity="1.2143285572528839e-01" nType="-99"/>
                </Node>
                <Node pos="r" depth="5" NCoef="0" IVar="2" Cut="4.6389993286132812e+02" cType="1" res="-1.1767125874757767e-01" rms="2.4529951810836792e-01" purity="6.7239552736282349e-02" nType="0">
                  <Node pos="l" depth="6" NCoef="0" IVar="0" Cut="1.8516154289245605e+00" cType="1" res="-1.1557979136705399e-01" rms="2.4810235202312469e-01" purity="6.9043800234794617e-02" nType="0">
                    <Node pos="l" depth="7" NCoef="0" IVar="-1" Cut="0.0000000000000000e+00" cType="1" res="-1.8435107544064522e-02" rms="2.8745418787002563e-01" purity="9.4024576246738434e-02" nType="-99"/>
                    <Node pos="r" depth="7" NCoef="0" IVar="-1" Cut="0.0000000000000000e+00" cType="1" res="-2.9286930337548256e-02" rms="1.5589648485183716e-01" purity="2.5088509544730186e-02" nType="-99"/>
                  </Node>
                  <Node pos="r" depth="6" NCoef="0" IVar="-1" Cut="0.0000000000000000e+00" cType="1" res="-2.3146968334913254e-02" rms="2.1699127554893494e-01" purity="5.0697971135377884e-02" nType="-99"/>
                </Node>
              </Node>
              <Node pos="r" depth="4" NCoef="0" IVar="3" Cut="3.5742962360382080e-01" cType="1" res="-8.9998237788677216e-02" rms="3.0230721831321716e-01" purity="1.0444517433643341e-01" nType="0">
                <Node pos="l" depth="5" NCoef="0" IVar="4" Cut="1.9915737211704254e-01" cType="1" res="-9.7612641751766205e-02" rms="2.8107714653015137e-01" purity="8.7974131107330322e-02" nType="0">
                  <Node pos="l" depth="6" NCoef="0" IVar="5" Cut="6.0000000000000000e+00" cType="1" res="-1.0759760439395905e-01" rms="2.4319641292095184e-01" purity="6.6070124506950378e-02" nType="0">
                    <Node pos="l" depth="7" NCoef="0" IVar="-1" Cut="0.0000000000000000e+00" cType="1" res="-1.9293671473860741e-02" rms="2.7717509865760803e-01" purity="8.4586910903453827e-02" nType="-99"/>
                    <Node pos="r" depth="7" NCoef="0" IVar="-1" Cut="0.0000000000000000e+00" cType="1" res="-2.4629520252346992e-02" rms="2.2033339738845825e-01" purity="5.1764689385890961e-02" nType="-99"/>
                  </Node>
                  <Node pos="r" depth="6" NCoef="0" IVar="-1" Cut="0.0000000000000000e+00" cType="1" res="-1.4898018911480904e-02" rms="3.1840044260025024e-01" purity="1.1553452163934708e-01" nType="-99"/>
                </Node>
                <Node pos="r" depth="5" NCoef="0" IVar="-1" Cut="0.0000000000000000e+00" cType="1" res="-8.4006395190954208e-03" rms="3.7803614139556885e-01" purity="1.7469461262226105e-01" nType="-99"/>
              </Node>
            </Node>
          </Node>
          <Node pos="r" depth="2" NCoef="0" IVar="0" Cut="4.7365406155586243e-01" cType="1" res="-2.3794855922460556e-02" rms="4.8332008719444275e-01" purity="4.1732877492904663e-01" nType="0">
            <Node pos="l" depth="3" NCoef="0" IVar="1" Cut="1.5353540889918804e-02" cType="1" res="-1.0338389314711094e-02" rms="4.9192678928375244e-01" purity="4.5679917931556702e-01" nType="0">
              <Node pos="l" depth="4" NCoef="0" IVar="4" Cut="6.0165323317050934e-02" cType="1" res="1.4439000748097897e-02" rms="4.9602019786834717e-01" purity="5.0113528966903687e-01" nType="0">
                <Node pos="l" depth="5" NCoef="0" IVar="-1" Cut="0.0000000000000000e+00" cType="1" res="-1.3603164115920663e-03" rms="4.9557995796203613e-01" purity="4.6792072057723999e-01" nType="-99"/>
                <Node pos="r" depth="5" NCoef="0" IVar="2" Cut="1.9610806274414062e+02" cType="1" res="2.9222790151834488e-02" rms="4.9557471275329590e-01" purity="5.1763290166854858e-01" nType="0">
                  <Node pos="l" depth="6" NCoef="0" IVar="-1" Cut="0.0000000000000000e+00" cType="1" res="4.9284743145108223e-03" rms="4.9252209067344666e-01" purity="5.6600713729858398e-01" nType="-99"/>
                  <Node pos="r" depth="6" NCoef="0" IVar="-1" Cut="0.0000000000000000e+00" cType="1" res="1.4703767374157906e-04" rms="4.9655139446258545e-01" purity="4.7578969597816467e-01" nType="-99"/>
                </Node>
              </Node>
              <Node pos="r" depth="4" NCoef="0" IVar="1" Cut="3.3712774515151978e-01" cType="1" res="-3.0177280306816101e-02" rms="4.8771795630455017e-01" purity="4.2129990458488464e-01" nType="0">
                <Node pos="l" depth="5" NCoef="0" IVar="3" Cut="6.4202123880386353e-01" cType="1" res="-8.3995833992958069e-03" rms="4.9497991800308228e-01" purity="4.6124106645584106e-01" nType="0">
                  <Node pos="l" depth="6" NCoef="0" IVar="-1" Cut="0.0000000000000000e+00" cType="1" res="-3.4084522631019354e-03" rms="4.8794063925743103e-01" purity="4.0516307950019836e-01" nType="-99"/>
                  <Node pos="r" depth="6" NCoef="0" IVar="-1" Cut="0.0000000000000000e+00" cType="1" res="8.3276856457814574e-04" rms="4.9853917956352234e-01" purity="4.9672117829322815e-01" nType="-99"/>
                </Node>
                <Node pos="r" depth="5" NCoef="0" IVar="-1" Cut="0.0000000000000000e+00" cType="1" res="-5.7300254702568054e-03" rms="4.7519531846046448e-01" purity="3.6327075958251953e-01" nType="-99"/>
              </Node>
            </Node>
            <Node pos="r" depth="3" NCoef="0" IVar="2" Cut="1.2333821105957031e+02" cType="1" res="-6.3129618763923645e-02" rms="4.5495724678039551e-01" purity="3.0195242166519165e-01" nType="0">
              <Node pos="l" depth="4" NCoef="0" IVar="-1" Cut="0.0000000000000000e+00" cType="1" res="-3.7891969550400972e-03" rms="4.6856516599655151e-01" purity="3.3630180358886719e-01" nType="-99"/>
              <Node pos="r" depth="4" NCoef="0" IVar="-1" Cut="0.0000000000000000e+00" cType="1" res="-8.7804803624749184e-03" rms="4.4243648648262024e-01" purity="2.7372145652770996e-01" nType="-99"/>
            </Node>
          </Node>
        </Node>
        <Node pos="r" depth="1" NCoef="0" IVar="5" Cut="2.0000000000000000e+00" cType="1" res="8.4536947309970856e-02" rms="4.3951439857482910e-01" purity="7.1491491794586182e-01" nType="0">
          <Node pos="l" depth="2" NCoef="0" IVar="0" Cut="2.7377724647521973e-01" cType="1" res="1.0855875909328461e-01" rms="4.1389247775077820e-01" purity="7.7249509096145630e-01" nType="0">
            <Node pos="l" depth="3" NCoef="0" IVar="1" Cut="6.3376551866531372e-01" cType="1" res="1.1342172324657440e-01" rms="4.0863025188446045e-01" purity="7.8474879264831543e-01" nType="0">
              <Node pos="l" depth="4" NCoef="0" IVar="1" Cut="-2.3374027013778687e-01" cType="1" res="1.1812442541122437e-01" rms="4.0185171365737915e-01" purity="7.9667699337005615e-01" nType="0">
                <Node pos="l" depth="5" NCoef="0" IVar="-1" Cut="0.0000000000000000e+00" cType="1" res="7.8713931143283844e-03" rms="4.1508460044860840e-01" purity="7.7833193540573120e-01" nType="-99"/>
                <Node pos="r" depth="5" NCoef="0" IVar="1" Cut="1.8116876482963562e-02" cType="1" res="1.1987181007862091e-01" rms="4.0074893832206726e-01" purity="7.9810738563537598e-01" nType="0">
                  <Node pos="l" depth="6" NCoef="0" IVar="1" Cut="-1.4437112212181091e-01" cType="1" res="1.3199996948242188e-01" rms="3.8722774386405945e-01" purity="8.1605249643325806e-01" nType="0">
                    <Node pos="l" depth="7" NCoef="0" IVar="-1" Cut="0.0000000000000000e+00" cType="1" res="1.0420909151434898e-02" rms="3.9567732810974121e-01" purity="8.0526727437973022e-01" nType="-99"/>
                    <Node pos="r" depth="7" NCoef="0" IVar="-1" Cut="0.0000000000000000e+00" cType="1" res="1.2003776617348194e-02" rms="3.8476225733757019e-01" purity="8.1907361745834351e-01" nType="-99"/>
                  </Node>
                  <Node pos="r" depth="6" NCoef="0" IVar="3" Cut="9.8095786571502686e-01" cType="1" res="1.0682021826505661e-01" rms="4.1441121697425842e-01" purity="7.7879595756530762e-01" nType="0">
                    <Node pos="l" depth="7" NCoef="0" IVar="-1" Cut="0.0000000000000000e+00" cType="1" res="7.1990163996815681e-03" rms="4.3567734956741333e-01" purity="7.4290084838867188e-01" nType="-99"/>
                    <Node pos="r" depth="7" NCoef="0" IVar="-1" Cut="0.0000000000000000e+00" cType="1" res="9.6728280186653137e-03" rms="4.1106513142585754e-01" purity="7.8409588336944580e-01" nType="-99"/>
                  </Node>
                </Node>
              </Node>
              <Node pos="r" depth="4" NCoef="0" IVar="1" Cut="9.3561971187591553e-01" cType="1" res="6.2245022505521774e-02" rms="4.7318670153617859e-01" purity="6.5494090318679810e-01" nType="0">
                <Node pos="l" depth="5" NCoef="0" IVar="-1" Cut="0.0000000000000000e+00" cType="1" res="6.0422169044613838e-03" rms="4.5981147885322571e-01" purity="6.9405359029769897e-01" nType="-99"/>
                <Node pos="r" depth="5" NCoef="0" IVar="-1" Cut="0.0000000000000000e+00" cType="1" res="4.1262153536081314e-03" rms="4.8348250985145569e-01" purity="6.2320744991302490e-01" nType="-99"/>
              </Node>
            </Node>
            <Node pos="r" depth="3" NCoef="0" IVar="-1" Cut="0.0000000000000000e+00" cType="1" res="2.0246265921741724e-03" rms="4.8846793174743652e-01" purity="5.6085425615310669e-01" nType="-99"/>
          </Node>
          <Node pos="r" depth="2" NCoef="0" IVar="1" Cut="1.0519775152206421e+00" cType="1" res="5.1310073584318161e-02" rms="4.7074076533317566e-01" purity="6.4038515090942383e-01" nType="0">
            <Node pos="l" depth="3" NCoef="0" IVar="0" Cut="2.4868108332157135e-01" cType="1" res="5.7825647294521332e-02" rms="4.6893873810768127e-01" purity="6.5170794725418091e-01" nType="0">
              <Node pos="l" depth="4" NCoef="0" IVar="3" Cut="8.3425462245941162e-01" cType="1" res="6.7274041473865509e-02" rms="4.6282550692558289e-01" purity="6.7854797840118408e-01" nType="0">
                <Node pos="l" depth="5" NCoef="0" IVar="2" Cut="1.5311795043945312e+02" cType="1" res="4.8842202872037888e-02" rms="4.8099580407142639e-01" purity="6.2835520505905151e-01" nType="0">
                  <Node pos="l" depth="6" NCoef="0" IVar="4" Cut="4.0144525468349457e-02" cType="1" res="5.8705087751150131e-02" rms="4.7667786478996277e-01" purity="6.4289331436157227e-01" nType="0">
                    <Node pos="l" depth="7" NCoef="0" IVar="-1" Cut="0.0000000000000000e+00" cType="1" res="3.2048453576862812e-03" rms="4.8289018869400024e-01" purity="6.1979341506958008e-01" nType="-99"/>
                    <Node pos="r" depth="7" NCoef="0" IVar="-1" Cut="0.0000000000000000e+00" cType="1" res="6.0785729438066483e-03" rms="4.7036647796630859e-01" purity="6.6319990158081055e-01" nType="-99"/>
                  </Node>
                  <Node pos="r" depth="6" NCoef="0" IVar="3" Cut="7.5540012121200562e-01" cType="1" res="3.0224755406379700e-02" rms="4.8850014805793762e-01" purity="6.0091263055801392e-01" nType="0">
                    <Node pos="l" depth="7" NCoef="0" IVar="-1" Cut="0.0000000000000000e+00" cType="1" res="8.0790877109393477e-04" rms="4.9572041630744934e-01" purity="5.5931586027145386e-01" nType="-99"/>
                    <Node pos="r" depth="7" NCoef="0" IVar="-1" Cut="0.0000000000000000e+00" cType="1" res="3.6493530496954918e-03" rms="4.8419725894927979e-01" purity="6.2326651811599731e-01" nType="-99"/>
                  </Node>
                </Node>
                <Node pos="r" depth="5" NCoef="0" IVar="1" Cut="7.6861917972564697e-02" cType="1" res="8.3964481949806213e-02" rms="4.4507527351379395e-01" purity="7.2399860620498657e-01" nType="0">
                  <Node pos="l" depth="6" NCoef="0" IVar="2" Cut="1.3210708618164062e+02" cType="1" res="9.6001744270324707e-02" rms="4.3311429023742676e-01" purity="7.4858564138412476e-01" nType="0">
                    <Node pos="l" depth="7" NCoef="0" IVar="-1" Cut="0.0000000000000000e+00" cType="1" res="9.3651916831731796e-03" rms="4.2823791503906250e-01" purity="7.5691807270050049e-01" nType="-99"/>
                    <Node pos="r" depth="7" NCoef="0" IVar="-1" Cut="0.0000000000000000e+00" cType="1" res="6.5723005682229996e-03" rms="4.4749164581298828e-01" purity="7.2162407636642456e-01" nType="-99"/>
                  </Node>
                  <Node pos="r" depth="6" NCoef="0" IVar="4" Cut="2.5334278121590614e-02" cType="1" res="6.5441794693470001e-02" rms="4.6226537227630615e-01" purity="6.8616455793380737e-01" nType="0">
                    <Node pos="l" depth="7" NCoef="0" IVar="-1" Cut="0.0000000000000000e+00" cType="1" res="4.4626821763813496e-03" rms="4.6783930063247681e-01" purity="6.7044246196746826e-01" nType="-99"/>
                    <Node pos="r" depth="7" NCoef="0" IVar="-1" Cut="0.0000000000000000e+00" cType="1" res="6.3324328511953354e-03" rms="4.5978569984436035e-01" purity="6.9259595870971680e-01" nType="-99"/>
                  </Node>
                </Node>
              </Node>
              <Node pos="r" depth="4" NCoef="0" IVar="1" Cut="2.2710166871547699e-01" cType="1" res="1.3422883115708828e-02" rms="4.9424806237220764e-01" purity="5.2557295560836792e-01" nType="0">
                <Node pos="l" depth="5" NCoef="0" IVar="2" Cut="1.2279898071289062e+02" cType="1" res="3.8659017533063889e-02" rms="4.9260666966438293e-01" purity="5.5940568447113037e-01" nType="0">
                  <Node pos="l" depth="6" NCoef="0" IVar="-1" Cut="0.0000000000000000e+00" cType="1" res="5.1486981101334095e-03" rms="4.8835209012031555e-01" purity="5.9456318616867065e-01" nType="-99"/>
                  <Node pos="r" depth="6" NCoef="0" IVar="-1" Cut="0.0000000000000000e+00" cType="1" res="-3.0231876735342667e-07" rms="4.9718469381332397e-01" purity="5.0105601549148560e-01" nType="-99"/>
                </Node>
                <Node pos="r" depth="5" NCoef="0" IVar="-1" Cut="0.0000000000000000e+00" cType="1" res="-4.0382407605648041e-03" rms="4.9303406476974487e-01" purity="4.4621136784553528e-01" nType="-99"/>
              </Node>
            </Node>
            <Node pos="r" depth="3" NCoef="0" IVar="-1" Cut="0.0000000000000000e+00" cType="1" res="-7.1459533646702766e-03" rms="4.8746302723884583e-01" purity="4.1126847267150879e-01" nType="-99"/>
          </Node>
        </Node>
      </Node>
    </BinaryTree>
    <BinaryTree type="DecisionTree" boostWeight="1.0000000000000000e+00" itree="25">
      <Node pos="s" depth="0" NCoef="0" IVar="3" Cut="7.1418929100036621e-01" cType="1" res="1.5366832725703716e-02" rms="4.2075642943382263e-01" purity="5.0057411193847656e-01" nType="0">
        <Node pos="l" depth="1" NCoef="0" IVar="3" Cut="6.0079187154769897e-01" cType="1" res="-7.1994096040725708e-02" rms="3.7688189744949341e-01" purity="2.1304167807102203e-01" nType="0">
          <Node pos="l" depth="2" NCoef="0" IVar="0" Cut="6.4356309175491333e-01" cType="1" res="-8.9129097759723663e-02" rms="3.3498102426528931e-01" purity="1.4521297812461853e-01" nType="0">
            <Node pos="l" depth="3" NCoef="0" IVar="2" Cut="1.3290354919433594e+02" cType="1" res="-6.4087018370628357e-02" rms="4.3478474020957947e-01" purity="2.6962539553642273e-01" nType="0">
              <Node pos="l" depth="4" NCoef="0" IVar="1" Cut="4.6968646347522736e-02" cType="1" res="-2.6126271113753319e-02" rms="4.6168935298919678e-01" purity="3.3488878607749939e-01" nType="0">
                <Node pos="l" depth="5" NCoef="0" IVar="-1" Cut="0.0000000000000000e+00" cType="1" res="1.4482892584055662e-03" rms="4.8163425922393799e-01" purity="4.0069228410720825e-01" nType="-99"/>
                <Node pos="r" depth="5" NCoef="0" IVar="-1" Cut="0.0000000000000000e+00" cType="1" res="-6.2214247882366180e-03" rms="4.4291090965270996e-01" purity="2.8390425443649292e-01" nType="-99"/>
              </Node>
              <Node pos="r" depth="4" NCoef="0" IVar="0" Cut="2.0758584141731262e-02" cType="1" res="-7.5237341225147247e-02" rms="4.2591729760169983e-01" purity="2.5045534968376160e-01" nType="0">
                <Node pos="l" depth="5" NCoef="0" IVar="1" Cut="1.7953792214393616e-01" cType="1" res="-5.4760064929723740e-02" rms="4.5282760262489319e-01" purity="3.0110210180282593e-01" nType="0">
                  <Node pos="l" depth="6" NCoef="0" IVar="1" Cut="-5.7548735290765762e-02" cType="1" res="-3.6238644272089005e-02" rms="4.6485009789466858e-01" purity="3.2901784777641296e-01" nType="0">
                    <Node pos="l" depth="7" NCoef="0" IVar="-1" Cut="0.0000000000000000e+00" cType="1" res="-1.7715608701109886e-03" rms="4.7200429439544678e-01" purity="3.4952202439308167e-01" nType="-99"/>
                    <Node pos="r" depth="7" NCoef="0" IVar="-1" Cut="0.0000000000000000e+00" cType="1" res="-5.8718342334032059e-03" rms="4.5670881867408752e-01" purity="3.0827984213829041e-01" nType="-99"/>
                  </Node>
                  <Node pos="r" depth="6" NCoef="0" IVar="-1" Cut="0.0000000000000000e+00" cType="1" res="-9.1971149668097496e-03" rms="4.3256229162216187e-01" purity="2.5898748636245728e-01" nType="-99"/>
                </Node>
                <Node pos="r" depth="5" NCoef="0" IVar="4" Cut="9.5114730298519135e-02" cType="1" res="-8.9488707482814789e-02" rms="4.0552809834480286e-01" purity="2.1520729362964630e-01" nType="0">
                  <Node pos="l" depth="6" NCoef="0" IVar="-1" Cut="0.0000000000000000e+00" cType="1" res="-1.2488543055951595e-02" rms="4.0842136740684509e-01" purity="2.1935822069644928e-01" nType="-99"/>
                  <Node pos="r" depth="6" NCoef="0" IVar="3" Cut="4.8772948980331421e-01" cType="1" res="-8.2185722887516022e-02" rms="4.0425157546997070e-01" purity="2.1374633908271790e-01" nType="0">
                    <Node pos="l" depth="7" NCoef="0" IVar="-1" Cut="0.0000000000000000e+00" cType="1" res="-1.2512258253991604e-02" rms="3.7646737694740295e-01" purity="1.7278753221035004e-01" nType="-99"/>
                    <Node pos="r" depth="7" NCoef="0" IVar="-1" Cut="0.0000000000000000e+00" cType="1" res="-6.3475896604359150e-03" rms="4.5330926775932312e-01" purity="2.9454568028450012e-01" nType="-99"/>
                  </Node>
                </Node>
              </Node>
            </Node>
            <Node pos="r" depth="3" NCoef="0" IVar="0" Cut="1.2456085681915283e+00" cType="1" res="-1.0109200328588486e-01" rms="2.7398747205734253e-01" purity="8.5779666900634766e-02" nType="0">
              <Node pos="l" depth="4" NCoef="0" IVar="1" Cut="2.2907927632331848e-01" cType="1" res="-9.1921068727970123e-02" rms="3.3719775080680847e-01" purity="1.3479152321815491e-01" nType="0">
                <Node pos="l" depth="5" NCoef="0" IVar="2" Cut="1.9269363403320312e+02" cType="1" res="-7.6224528253078461e-02" rms="3.5984012484550476e-01" purity="1.5766124427318573e-01" nType="0">
                  <Node pos="l" depth="6" NCoef="0" IVar="4" Cut="6.0399204492568970e-02" cType="1" res="-5.5566929280757904e-02" rms="3.8895013928413391e-01" purity="1.9097244739532471e-01" nType="0">
                    <Node pos="l" depth="7" NCoef="0" IVar="-1" Cut="0.0000000000000000e+00" cType="1" res="-1.0708765126764774e-02" rms="3.7139704823493958e-01" purity="1.7034858465194702e-01" nType="-99"/>
                    <Node pos="r" depth="7" NCoef="0" IVar="-1" Cut="0.0000000000000000e+00" cType="1" res="-5.0451820716261864e-03" rms="4.0318280458450317e-01" purity="2.0957612991333008e-01" nType="-99"/>
                  </Node>
                  <Node pos="r" depth="6" NCoef="0" IVar="0" Cut="8.5713303089141846e-01" cType="1" res="-9.2522166669368744e-02" rms="3.3419427275657654e-01" purity="1.3138066232204437e-01" nType="0">
                    <Node pos="l" depth="7" NCoef="0" IVar="-1" Cut="0.0000000000000000e+00" cType="1" res="-1.1360329575836658e-02" rms="3.6685213446617126e-01" purity="1.6369856894016266e-01" nType="-99"/>
                    <Node pos="r" depth="7" NCoef="0" IVar="-1" Cut="0.0000000000000000e+00" cType="1" res="-1.6093583777546883e-02" rms="3.0951154232025146e-01" purity="1.0916837304830551e-01" nType="-99"/>
                  </Node>
                </Node>
                <Node pos="r" depth="5" NCoef="0" IVar="4" Cut="1.0078676044940948e-01" cType="1" res="-1.0936183482408524e-01" rms="3.0917313694953918e-01" purity="1.0938046127557755e-01" nType="0">
                  <Node pos="l" depth="6" NCoef="0" IVar="5" Cut="4.0000000000000000e+00" cType="1" res="-5.3574539721012115e-02" rms="2.2025601565837860e-01" purity="9.7469322383403778e-02" nType="0">
                    <Node pos="l" depth="7" NCoef="0" IVar="-1" Cut="0.0000000000000000e+00" cType="1" res="-1.9241290166974068e-02" rms="3.1202575564384460e-01" purity="1.1180806159973145e-01" nType="-99"/>
                    <Node pos="r" depth="7" NCoef="0" IVar="-1" Cut="0.0000000000000000e+00" cType="1" res="-1.9387479871511459e-02" rms="2.7934411168098450e-01" purity="8.6829945445060730e-02" nType="-99"/>
                  </Node>
                  <Node pos="r" depth="6" NCoef="0" IVar="-1" Cut="0.0000000000000000e+00" cType="1" res="-1.4147415757179260e-02" rms="3.3010551333427429e-01" purity="1.2754842638969421e-01" nType="-99"/>
                </Node>
              </Node>
              <Node pos="r" depth="4" NCoef="0" IVar="5" Cut="5.0000000000000000e+00" cType="1" res="-1.0672960430383682e-01" rms="2.1974964439868927e-01" purity="5.2080154418945312e-02" nType="0">
                <Node pos="l" depth="5" NCoef="0" IVar="2" Cut="1.2385779571533203e+02" cType="1" res="-9.8846115171909332e-02" rms="2.5934901833534241e-01" purity="7.3586560785770416e-02" nType="0">
                  <Node pos="l" depth="6" NCoef="0" IVar="-1" Cut="0.0000000000000000e+00" cType="1" res="-1.7322394996881485e-02" rms="2.8111743927001953e-01" purity="8.8784255087375641e-02" nType="-99"/>
                  <Node pos="r" depth="6" NCoef="0" IVar="0" Cut="1.8088983297348022e+00" cType="1" res="-1.0528433322906494e-01" rms="2.4774378538131714e-01" purity="6.6147573292255402e-02" nType="0">
                    <Node pos="l" depth="7" NCoef="0" IVar="-1" Cut="0.0000000000000000e+00" cType="1" res="-2.2240426391363144e-02" rms="2.4509678781032562e-01" purity="6.4770735800266266e-02" nType="-99"/>
                    <Node pos="r" depth="7" NCoef="0" IVar="-1" Cut="0.0000000000000000e+00" cType="1" res="-2.0574349910020828e-02" rms="2.4977585673332214e-01" purity="6.7439518868923187e-02" nType="-99"/>
                  </Node>
                </Node>
                <Node pos="r" depth="5" NCoef="0" IVar="0" Cut="2.0884516239166260e+00" cType="1" res="-1.1188915371894836e-01" rms="1.9608014822006226e-01" purity="4.0784765034914017e-02" nType="0">
                  <Node pos="l" depth="6" NCoef="0" IVar="4" Cut="1.0304468125104904e-01" cType="1" res="-1.0435951501131058e-01" rms="2.2658798098564148e-01" purity="5.5329918861389160e-02" nType="0">
                    <Node pos="l" depth="7" NCoef="0" IVar="-1" Cut="0.0000000000000000e+00" cType="1" res="-2.4083424359560013e-02" rms="1.9344936311244965e-01" purity="3.9322499185800552e-02" nType="-99"/>
                    <Node pos="r" depth="7" NCoef="0" IVar="-1" Cut="0.0000000000000000e+00" cType="1" res="-1.9640441983938217e-02" rms="2.5450226664543152e-01" purity="7.0907689630985260e-02" nType="-99"/>
                  </Node>
                  <Node pos="r" depth="6" NCoef="0" IVar="5" Cut="8.0000000000000000e+00" cType="1" res="-1.1477448791265488e-01" rms="1.6558787226676941e-01" purity="2.8686609119176865e-02" nType="0">
                    <Node pos="l" depth="7" NCoef="0" IVar="-1" Cut="0.0000000000000000e+00" cType="1" res="-2.8294600546360016e-02" rms="1.6963309049606323e-01" purity="2.9924033209681511e-02" nType="-99"/>
                    <Node pos="r" depth="7" NCoef="0" IVar="-1" Cut="0.0000000000000000e+00" cType="1" res="-2.8895702213048935e-02" rms="1.6003467142581940e-01" purity="2.6522388681769371e-02" nType="-99"/>
                  </Node>
                </Node>
              </Node>
            </Node>
          </Node>
          <Node pos="r" depth="2" NCoef="0" IVar="5" Cut="3.0000000000000000e+00" cType="1" res="-1.3788503594696522e-02" rms="4.8534280061721802e-01" purity="4.3689182400703430e-01" nType="0">
            <Node pos="l" depth="3" NCoef="0" IVar="4" Cut="7.6883755624294281e-02" cType="1" res="-6.0964476317167282e-02" rms="4.7155562043190002e-01" purity="3.6664548516273499e-01" nType="0">
              <Node pos="l" depth="4" NCoef="0" IVar="-1" Cut="0.0000000000000000e+00" cType="1" res="-9.3881450593471527e-03" rms="4.5328232645988464e-01" purity="3.0673632025718689e-01" nType="-99"/>
              <Node pos="r" depth="4" NCoef="0" IVar="-1" Cut="0.0000000000000000e+00" cType="1" res="-2.6886260602623224e-03" rms="4.8517215251922607e-01" purity="4.1994971036911011e-01" nType="-99"/>
            </Node>
            <Node pos="r" depth="3" NCoef="0" IVar="0" Cut="2.4369198083877563e-01" cType="1" res="1.4918564120307565e-03" rms="4.9034950137138367e-01" purity="4.6302834153175354e-01" nType="0">
              <Node pos="l" depth="4" NCoef="0" IVar="1" Cut="1.3557955622673035e-01" cType="1" res="2.1949935704469681e-02" rms="4.9520465731620789e-01" purity="5.2348303794860840e-01" nType="0">
                <Node pos="l" depth="5" NCoef="0" IVar="1" Cut="-8.0846302211284637e-02" cType="1" res="4.1459776461124420e-02" rms="4.9430972337722778e-01" purity="5.5999177694320679e-01" nType="0">
                  <Node pos="l" depth="6" NCoef="0" IVar="-1" Cut="0.0000000000000000e+00" cType="1" res="4.5319665223360062e-03" rms="4.9154657125473022e-01" purity="5.7629877328872681e-01" nType="-99"/>
                  <Node pos="r" depth="6" NCoef="0" IVar="-1" Cut="0.0000000000000000e+00" cType="1" res="2.5070009287446737e-03" rms="4.9640020728111267e-01" purity="5.4575848579406738e-01" nType="-99"/>
                </Node>
                <Node pos="r" depth="5" NCoef="0" IVar="-1" Cut="0.0000000000000000e+00" cType="1" res="-9.8943233024328947e-04" rms="4.9495649337768555e-01" purity="4.6123138070106506e-01" nType="-99"/>
              </Node>
              <Node pos="r" depth="4" NCoef="0" IVar="2" Cut="1.8738417053222656e+02" cType="1" res="-1.9967811182141304e-02" rms="4.8427662253379822e-01" purity="3.9961391687393188e-01" nType="0">
                <Node pos="l" depth="5" NCoef="0" IVar="4" Cut="4.6962723135948181e-02" cType="1" res="-7.1404984919354320e-04" rms="4.8914924263954163e-01" purity="4.2560333013534546e-01" nType="0">
                  <Node pos="l" depth="6" NCoef="0" IVar="-1" Cut="0.0000000000000000e+00" cType="1" res="-2.3962773848325014e-03" rms="4.8344689607620239e-01" purity="3.9613601565361023e-01" nType="-99"/>
                  <Node pos="r" depth="6" NCoef="0" IVar="-1" Cut="0.0000000000000000e+00" cType="1" res="2.1019829437136650e-03" rms="4.9348589777946472e-01" purity="4.5437234640121460e-01" nType="-99"/>
                </Node>
                <Node pos="r" depth="5" NCoef="0" IVar="-1" Cut="0.0000000000000000e+00" cType="1" res="-5.7957554236054420e-03" rms="4.7213473916053772e-01" purity="3.4802114963531494e-01" nType="-99"/>
              </Node>
            </Node>
          </Node>
        </Node>
        <Node pos="r" depth="1" NCoef="0" IVar="5" Cut="2.0000000000000000e+00" cType="1" res="8.1920139491558075e-02" rms="4.3871599435806274e-01" purity="7.1649783849716187e-01" nType="0">
          <Node pos="l" depth="2" NCoef="0" IVar="0" Cut="2.6584488153457642e-01" cType="1" res="1.0521868616342545e-01" rms="4.1314131021499634e-01" purity="7.7355861663818359e-01" nType="0">
            <Node pos="l" depth="3" NCoef="0" IVar="1" Cut="6.7854291200637817e-01" cType="1" res="1.1013225466012955e-01" rms="4.0783426165580750e-01" purity="7.8602683544158936e-01" nType="0">
              <Node pos="l" depth="4" NCoef="0" IVar="3" Cut="9.6367383003234863e-01" cType="1" res="1.1394907534122467e-01" rms="4.0180218219757080e-01" purity="7.9667699337005615e-01" nType="0">
                <Node pos="l" depth="5" NCoef="0" IVar="-1" Cut="0.0000000000000000e+00" cType="1" res="6.9145592860877514e-03" rms="4.3595102429389954e-01" purity="7.4279242753982544e-01" nType="-99"/>
                <Node pos="r" depth="5" NCoef="0" IVar="3" Cut="9.9404275417327881e-01" cType="1" res="1.1671673506498337e-01" rms="3.9882192015647888e-01" purity="8.0097597837448120e-01" nType="0">
                  <Node pos="l" depth="6" NCoef="0" IVar="2" Cut="2.7413603663444519e-01" cType="1" res="1.0364252328872681e-01" rms="4.0990582108497620e-01" purity="7.8537040948867798e-01" nType="0">
                    <Node pos="l" depth="7" NCoef="0" IVar="-1" Cut="0.0000000000000000e+00" cType="1" res="9.8181487992405891e-03" rms="4.0369579195976257e-01" purity="7.9426556825637817e-01" nType="-99"/>
                    <Node pos="r" depth="7" NCoef="0" IVar="-1" Cut="0.0000000000000000e+00" cType="1" res="6.7157414741814137e-03" rms="4.3301090598106384e-01" purity="7.4862545728683472e-01" nType="-99"/>
                  </Node>
                  <Node pos="r" depth="6" NCoef="0" IVar="1" Cut="1.1546671390533447e-01" cType="1" res="1.2102759629487991e-01" rms="3.9500430226325989e-01" purity="8.0612146854400635e-01" nType="0">
                    <Node pos="l" depth="7" NCoef="0" IVar="-1" Cut="0.0000000000000000e+00" cType="1" res="1.1054000817239285e-02" rms="3.8753297924995422e-01" purity="8.1581163406372070e-01" nType="-99"/>
                    <Node pos="r" depth="7" NCoef="0" IVar="-1" Cut="0.0000000000000000e+00" cType="1" res="9.6185058355331421e-03" rms="4.1026732325553894e-01" purity="7.8554880619049072e-01" nType="-99"/>
                  </Node>
                </Node>
              </Node>
              <Node pos="r" depth="4" NCoef="0" IVar="-1" Cut="0.0000000000000000e+00" cType="1" res="5.0294329412281513e-03" rms="4.7358152270317078e-01" purity="6.5440845489501953e-01" nType="-99"/>
            </Node>
            <Node pos="r" depth="3" NCoef="0" IVar="-1" Cut="0.0000000000000000e+00" cType="1" res="1.7965296283364296e-03" rms="4.8712468147277832e-01" purity="5.6186640262603760e-01" nType="-99"/>
          </Node>
          <Node pos="r" depth="2" NCoef="0" IVar="1" Cut="9.3153184652328491e-01" cType="1" res="4.8933163285255432e-02" rms="4.7045990824699402e-01" purity="6.4110571146011353e-01" nType="0">
            <Node pos="l" depth="3" NCoef="0" IVar="0" Cut="2.7856880426406860e-01" cType="1" res="5.4728113114833832e-02" rms="4.6853843331336975e-01" purity="6.5293204784393311e-01" nType="0">
              <Node pos="l" depth="4" NCoef="0" IVar="0" Cut="1.7073048651218414e-01" cType="1" res="6.2619887292385101e-02" rms="4.6351361274719238e-01" purity="6.7606776952743530e-01" nType="0">
                <Node pos="l" depth="5" NCoef="0" IVar="3" Cut="8.3689051866531372e-01" cType="1" res="6.8975724279880524e-02" rms="4.5952555537223816e-01" purity="6.8831562995910645e-01" nType="0">
                  <Node pos="l" depth="6" NCoef="0" IVar="5" Cut="3.0000000000000000e+00" cType="1" res="5.3840551525354385e-02" rms="4.7703853249549866e-01" purity="6.4228534698486328e-01" nType="0">
                    <Node pos="l" depth="7" NCoef="0" IVar="-1" Cut="0.0000000000000000e+00" cType="1" res="3.2466668635606766e-03" rms="4.7935441136360168e-01" purity="6.3426703214645386e-01" nType="-99"/>
                    <Node pos="r" depth="7" NCoef="0" IVar="-1" Cut="0.0000000000000000e+00" cType="1" res="6.2603624537587166e-03" rms="4.7366115450859070e-01" purity="6.5310472249984741e-01" nType="-99"/>
                  </Node>
                  <Node pos="r" depth="6" NCoef="0" IVar="1" Cut="1.2819044291973114e-01" cType="1" res="8.1948854029178619e-02" rms="4.4331252574920654e-01" purity="7.2811752557754517e-01" nType="0">
                    <Node pos="l" depth="7" NCoef="0" IVar="-1" Cut="0.0000000000000000e+00" cType="1" res="8.1409132108092308e-03" rms="4.3430396914482117e-01" purity="7.4657005071640015e-01" nType="-99"/>
                    <Node pos="r" depth="7" NCoef="0" IVar="-1" Cut="0.0000000000000000e+00" cType="1" res="5.9623732231557369e-03" rms="4.6143823862075806e-01" purity="6.8906414508819580e-01" nType="-99"/>
                  </Node>
                </Node>
                <Node pos="r" depth="5" NCoef="0" IVar="0" Cut="2.3336195945739746e-01" cType="1" res="1.5470845624804497e-02" rms="4.8951980471611023e-01" purity="5.8521038293838501e-01" nType="0">
                  <Node pos="l" depth="6" NCoef="0" IVar="-1" Cut="0.0000000000000000e+00" cType="1" res="-3.0849137692712247e-04" rms="4.9039149284362793e-01" purity="5.7813650369644165e-01" nType="-99"/>
                  <Node pos="r" depth="6" NCoef="0" IVar="-1" Cut="0.0000000000000000e+00" cType="1" res="3.3221957273781300e-03" rms="4.8774006962776184e-01" purity="5.9296506643295288e-01" nType="-99"/>
                </Node>
              </Node>
              <Node pos="r" depth="4" NCoef="0" IVar="2" Cut="1.1592691040039062e+02" cType="1" res="6.6897603683173656e-03" rms="4.9532812833786011e-01" purity="5.1210165023803711e-01" nType="0">
                <Node pos="l" depth="5" NCoef="0" IVar="-1" Cut="0.0000000000000000e+00" cType="1" res="2.6474869810044765e-03" rms="4.9384930729866028e-01" purity="5.5314719676971436e-01" nType="-99"/>
                <Node pos="r" depth="5" NCoef="0" IVar="-1" Cut="0.0000000000000000e+00" cType="1" res="-2.4311456363648176e-03" rms="4.9528092145919800e-01" purity="4.5745554566383362e-01" nType="-99"/>
              </Node>
            </Node>
            <Node pos="r" depth="3" NCoef="0" IVar="-1" Cut="0.0000000000000000e+00" cType="1" res="-4.3407706543803215e-03" rms="4.9163889884948730e-01" purity="4.4043639302253723e-01" nType="-99"/>
          </Node>
        </Node>
      </Node>
    </BinaryTree>
    <BinaryTree type="DecisionTree" boostWeight="1.0000000000000000e+00" itree="26">
      <Node pos="s" depth="0" NCoef="0" IVar="3" Cut="7.1579146385192871e-01" cType="1" res="1.4367552474141121e-02" rms="4.2024421691894531e-01" purity="4.9930146336555481e-01" nType="0">
        <Node pos="l" depth="1" NCoef="0" IVar="3" Cut="4.8868355154991150e-01" cType="1" res="-6.7452788352966309e-02" rms="3.7742882966995239e-01" purity="2.1433468163013458e-01" nType="0">
          <Node pos="l" depth="2" NCoef="0" IVar="5" Cut="3.0000000000000000e+00" cType="1" res="-9.3236625194549561e-02" rms="2.8906184434890747e-01" purity="9.8414584994316101e-02" nType="0">
            <Node pos="l" depth="3" NCoef="0" IVar="-1" Cut="0.0000000000000000e+00" cType="1" res="-6.1976946890354156e-03" rms="3.6761769652366638e-01" purity="1.7447759211063385e-01" nType="-99"/>
            <Node pos="r" depth="3" NCoef="0" IVar="4" Cut="1.4062967896461487e-01" cType="1" res="-9.6692167222499847e-02" rms="2.8417718410491943e-01" purity="9.4214841723442078e-02" nType="0">
              <Node pos="l" depth="4" NCoef="0" IVar="2" Cut="1.6315188598632812e+02" cType="1" res="-1.0438212007284164e-01" rms="2.4649846553802490e-01" purity="6.7899547517299652e-02" nType="0">
                <Node pos="l" depth="5" NCoef="0" IVar="4" Cut="9.5357239246368408e-02" cType="1" res="-9.6368134021759033e-02" rms="2.6110261678695679e-01" purity="7.7288083732128143e-02" nType="0">
                  <Node pos="l" depth="6" NCoef="0" IVar="2" Cut="6.3281055450439453e+01" cType="1" res="-1.0108155757188797e-01" rms="2.4814327061176300e-01" purity="6.8540453910827637e-02" nType="0">
                    <Node pos="l" depth="7" NCoef="0" IVar="-1" Cut="0.0000000000000000e+00" cType="1" res="-1.7637511715292931e-02" rms="2.7493697404861450e-01" purity="8.6333118379116058e-02" nType="-99"/>
                    <Node pos="r" depth="7" NCoef="0" IVar="-1" Cut="0.0000000000000000e+00" cType="1" res="-2.2093735635280609e-02" rms="2.3396156728267670e-01" purity="6.0007017105817795e-02" nType="-99"/>
                  </Node>
                  <Node pos="r" depth="6" NCoef="0" IVar="-1" Cut="0.0000000000000000e+00" cType="1" res="-1.4604245312511921e-02" rms="3.0813139677047729e-01" purity="1.1339544504880905e-01" nType="-99"/>
                </Node>
                <Node pos="r" depth="5" NCoef="0" IVar="2" Cut="4.0406585693359375e+02" cType="1" res="-1.1147805303335190e-01" rms="2.3257344961166382e-01" purity="5.9586521238088608e-02" nType="0">
                  <Node pos="l" depth="6" NCoef="0" IVar="4" Cut="9.7215965390205383e-02" cType="1" res="-1.0914653539657593e-01" rms="2.3325619101524353e-01" purity="6.0031775385141373e-02" nType="0">
                    <Node pos="l" depth="7" NCoef="0" IVar="-1" Cut="0.0000000000000000e+00" cType="1" res="-2.3231167346239090e-02" rms="2.1273845434188843e-01" purity="4.8752583563327789e-02" nType="-99"/>
                    <Node pos="r" depth="7" NCoef="0" IVar="-1" Cut="0.0000000000000000e+00" cType="1" res="-2.0145809277892113e-02" rms="2.6044917106628418e-01" purity="7.6685480773448944e-02" nType="-99"/>
                  </Node>
                  <Node pos="r" depth="6" NCoef="0" IVar="-1" Cut="0.0000000000000000e+00" cType="1" res="-2.1753113716840744e-02" rms="2.3009794950485229e-01" purity="5.8094084262847900e-02" nType="-99"/>
                </Node>
              </Node>
              <Node pos="r" depth="4" NCoef="0" IVar="3" Cut="4.1219520568847656e-01" cType="1" res="-8.3485148847103119e-02" rms="3.3885276317596436e-01" purity="1.3940975069999695e-01" nType="0">
                <Node pos="l" depth="5" NCoef="0" IVar="4" Cut="2.7231228351593018e-01" cType="1" res="-9.1460160911083221e-02" rms="3.1836411356925964e-01" purity="1.1904165893793106e-01" nType="0">
                  <Node pos="l" depth="6" NCoef="0" IVar="2" Cut="7.2989562988281250e+02" cType="1" res="-9.8886989057064056e-02" rms="3.0347952246665955e-01" purity="1.0600044578313828e-01" nType="0">
                    <Node pos="l" depth="7" NCoef="0" IVar="-1" Cut="0.0000000000000000e+00" cType="1" res="-1.7058180645108223e-02" rms="3.0372509360313416e-01" purity="1.0676052421331406e-01" nType="-99"/>
                    <Node pos="r" depth="7" NCoef="0" IVar="-1" Cut="0.0000000000000000e+00" cType="1" res="-1.7904872074723244e-02" rms="3.0206713080406189e-01" purity="1.0332251340150833e-01" nType="-99"/>
                  </Node>
                  <Node pos="r" depth="6" NCoef="0" IVar="-1" Cut="0.0000000000000000e+00" cType="1" res="-7.3987543582916260e-03" rms="3.8807913661003113e-01" purity="1.9124533236026764e-01" nType="-99"/>
                </Node>
                <Node pos="r" depth="5" NCoef="0" IVar="-1" Cut="0.0000000000000000e+00" cType="1" res="-4.8626624047756195e-03" rms="4.3014460802078247e-01" purity="2.4889704585075378e-01" nType="-99"/>
              </Node>
            </Node>
          </Node>
          <Node pos="r" depth="2" NCoef="0" IVar="3" Cut="6.3520395755767822e-01" cType="1" res="-3.3484697341918945e-02" rms="4.6521982550621033e-01" purity="3.6449897289276123e-01" nType="0">
            <Node pos="l" depth="3" NCoef="0" IVar="1" Cut="9.2742182314395905e-02" cType="1" res="-5.1907807588577271e-02" rms="4.4749638438224792e-01" purity="3.0150958895683289e-01" nType="0">
              <Node pos="l" depth="4" NCoef="0" IVar="2" Cut="3.5966525268554688e+02" cType="1" res="-2.0049998536705971e-02" rms="4.7053813934326172e-01" purity="3.5772559046745300e-01" nType="0">
                <Node pos="l" depth="5" NCoef="0" IVar="4" Cut="9.4096839427947998e-02" cType="1" res="-8.2333097234368324e-03" rms="4.7360631823539734e-01" purity="3.7024161219596863e-01" nType="0">
                  <Node pos="l" depth="6" NCoef="0" IVar="2" Cut="1.1675582122802734e+02" cType="1" res="-2.7080025523900986e-02" rms="4.6447485685348511e-01" purity="3.4120985865592957e-01" nType="0">
                    <Node pos="l" depth="7" NCoef="0" IVar="-1" Cut="0.0000000000000000e+00" cType="1" res="3.4741393756121397e-04" rms="4.7851210832595825e-01" purity="3.8522583246231079e-01" nType="-99"/>
                    <Node pos="r" depth="7" NCoef="0" IVar="-1" Cut="0.0000000000000000e+00" cType="1" res="-6.7587634548544884e-03" rms="4.4541054964065552e-01" purity="2.9115307331085205e-01" nType="-99"/>
                  </Node>
                  <Node pos="r" depth="6" NCoef="0" IVar="-1" Cut="0.0000000000000000e+00" cType="1" res="2.3935385979712009e-03" rms="4.8786887526512146e-01" purity="4.2285248637199402e-01" nType="-99"/>
                </Node>
                <Node pos="r" depth="5" NCoef="0" IVar="-1" Cut="0.0000000000000000e+00" cType="1" res="-6.8788975477218628e-03" rms="4.5509955286979675e-01" purity="3.0793094635009766e-01" nType="-99"/>
              </Node>
              <Node pos="r" depth="4" NCoef="0" IVar="1" Cut="7.3124110698699951e-01" cType="1" res="-8.0733686685562134e-02" rms="4.2351362109184265e-01" purity="2.5064367055892944e-01" nType="0">
                <Node pos="l" depth="5" NCoef="0" IVar="0" Cut="4.7516497969627380e-01" cType="1" res="-6.7285485565662384e-02" rms="4.3672910332679749e-01" purity="2.7424091100692749e-01" nType="0">
                  <Node pos="l" depth="6" NCoef="0" IVar="0" Cut="1.5327577479183674e-02" cType="1" res="-4.5183919370174408e-02" rms="4.7372555732727051e-01" purity="3.5074993968009949e-01" nType="0">
                    <Node pos="l" depth="7" NCoef="0" IVar="-1" Cut="0.0000000000000000e+00" cType="1" res="-2.3754893336445093e-03" rms="4.8637568950653076e-01" purity="3.9386147260665894e-01" nType="-99"/>
                    <Node pos="r" depth="7" NCoef="0" IVar="-1" Cut="0.0000000000000000e+00" cType="1" res="-6.2874113209545612e-03" rms="4.6190333366394043e-01" purity="3.1356072425842285e-01" nType="-99"/>
                  </Node>
                  <Node pos="r" depth="6" NCoef="0" IVar="2" Cut="1.4489573669433594e+02" cType="1" res="-8.8550008833408356e-02" rms="3.9673951268196106e-01" purity="2.0062950253486633e-01" nType="0">
                    <Node pos="l" depth="7" NCoef="0" IVar="-1" Cut="0.0000000000000000e+00" cType="1" res="-9.4000026583671570e-03" rms="4.0882951021194458e-01" purity="2.1924257278442383e-01" nType="-99"/>
                    <Node pos="r" depth="7" NCoef="0" IVar="-1" Cut="0.0000000000000000e+00" cType="1" res="-1.2239398434758186e-02" rms="3.8569191098213196e-01" purity="1.8442682921886444e-01" nType="-99"/>
                  </Node>
                </Node>
                <Node pos="r" depth="5" NCoef="0" IVar="-1" Cut="0.0000000000000000e+00" cType="1" res="-1.5357945114374161e-02" rms="3.7453368306159973e-01" purity="1.7461591958999634e-01" nType="-99"/>
              </Node>
            </Node>
            <Node pos="r" depth="3" NCoef="0" IVar="5" Cut="3.0000000000000000e+00" cType="1" res="-3.1536449678242207e-03" rms="4.8884510993957520e-01" purity="4.6273657679557800e-01" nType="0">
              <Node pos="l" depth="4" NCoef="0" IVar="1" Cut="5.5584844201803207e-02" cType="1" res="-4.1637632995843887e-02" rms="4.8094823956489563e-01" purity="3.9598461985588074e-01" nType="0">
                <Node pos="l" depth="5" NCoef="0" IVar="-1" Cut="0.0000000000000000e+00" cType="1" res="-1.2140411854488775e-04" rms="4.9375888705253601e-01" purity="4.5644229650497437e-01" nType="-99"/>
                <Node pos="r" depth="5" NCoef="0" IVar="-1" Cut="0.0000000000000000e+00" cType="1" res="-7.0640062913298607e-03" rms="4.6713212132453918e-01" purity="3.4481102228164673e-01" nType="-99"/>
              </Node>
              <Node pos="r" depth="4" NCoef="0" IVar="0" Cut="1.7667257785797119e-01" cType="1" res="1.1031698435544968e-02" rms="4.9327456951141357e-01" purity="4.9130082130432129e-01" nType="0">
                <Node pos="l" depth="5" NCoef="0" IVar="1" Cut="4.5807637274265289e-02" cType="1" res="3.2511901110410690e-02" rms="4.9462258815765381e-01" purity="5.4953122138977051e-01" nType="0">
                  <Node pos="l" depth="6" NCoef="0" IVar="-1" Cut="0.0000000000000000e+00" cType="1" res="3.9844806306064129e-03" rms="4.9097535014152527e-01" purity="5.8712625503540039e-01" nType="-99"/>
                  <Node pos="r" depth="6" NCoef="0" IVar="-1" Cut="0.0000000000000000e+00" cType="1" res="1.2518803123384714e-03" rms="4.9792355298995972e-01" purity="5.0901687145233154e-01" nType="-99"/>
                </Node>
                <Node pos="r" depth="5" NCoef="0" IVar="2" Cut="9.5861289978027344e+01" cType="1" res="-9.1236764565110207e-03" rms="4.9115279316902161e-01" purity="4.3666180968284607e-01" nType="0">
                  <Node pos="l" depth="6" NCoef="0" IVar="-1" Cut="0.0000000000000000e+00" cType="1" res="2.4683952797204256e-03" rms="4.9622946977615356e-01" purity="4.8229762911796570e-01" nType="-99"/>
                  <Node pos="r" depth="6" NCoef="0" IVar="-1" Cut="0.0000000000000000e+00" cType="1" res="-3.1672532204538584e-03" rms="4.8642298579216003e-01" purity="4.0755701065063477e-01" nType="-99"/>
                </Node>
              </Node>
            </Node>
          </Node>
        </Node>
        <Node pos="r" depth="1" NCoef="0" IVar="5" Cut="2.0000000000000000e+00" cType="1" res="7.7456213533878326e-02" rms="4.3896079063415527e-01" purity="7.1546334028244019e-01" nType="0">
          <Node pos="l" depth="2" NCoef="0" IVar="0" Cut="2.4086901545524597e-01" cType="1" res="1.0023698210716248e-01" rms="4.1401711106300354e-01" purity="7.7236431837081909e-01" nType="0">
            <Node pos="l" depth="3" NCoef="0" IVar="1" Cut="4.2910748720169067e-01" cType="1" res="1.0440037399530411e-01" rms="4.0894305706024170e-01" purity="7.8432261943817139e-01" nType="0">
              <Node pos="l" depth="4" NCoef="0" IVar="1" Cut="1.7553220689296722e-01" cType="1" res="1.0958273708820343e-01" rms="4.0031200647354126e-01" purity="7.9899179935455322e-01" nType="0">
                <Node pos="l" depth="5" NCoef="0" IVar="3" Cut="9.8012083768844604e-01" cType="1" res="1.1324511468410492e-01" rms="3.9597836136817932e-01" purity="8.0494087934494019e-01" nType="0">
                  <Node pos="l" depth="6" NCoef="0" IVar="3" Cut="9.5722866058349609e-01" cType="1" res="1.0321609675884247e-01" rms="4.1295072436332703e-01" purity="7.8117245435714722e-01" nType="0">
                    <Node pos="l" depth="7" NCoef="0" IVar="-1" Cut="0.0000000000000000e+00" cType="1" res="8.2743726670742035e-03" rms="4.2504915595054626e-01" purity="7.6272159814834595e-01" nType="-99"/>
                    <Node pos="r" depth="7" NCoef="0" IVar="-1" Cut="0.0000000000000000e+00" cType="1" res="9.5147071406245232e-03" rms="4.0295147895812988e-01" purity="7.9580104351043701e-01" nType="-99"/>
                  </Node>
                  <Node pos="r" depth="6" NCoef="0" IVar="3" Cut="1.0119200944900513e+00" cType="1" res="1.1503431946039200e-01" rms="3.9284646511077881e-01" purity="8.0918127298355103e-01" nType="0">
                    <Node pos="l" depth="7" NCoef="0" IVar="-1" Cut="0.0000000000000000e+00" cType="1" res="1.0293836705386639e-02" rms="3.9403662085533142e-01" purity="8.0764371156692505e-01" nType="-99"/>
                    <Node pos="r" depth="7" NCoef="0" IVar="-1" Cut="0.0000000000000000e+00" cType="1" res="1.0514068417251110e-02" rms="3.8847801089286804e-01" purity="8.1473875045776367e-01" nType="-99"/>
                  </Node>
                </Node>
                <Node pos="r" depth="5" NCoef="0" IVar="3" Cut="1.0009268522262573e+00" cType="1" res="9.3454293906688690e-02" rms="4.1848224401473999e-01" purity="7.7279287576675415e-01" nType="0">
                  <Node pos="l" depth="6" NCoef="0" IVar="3" Cut="9.9223554134368896e-01" cType="1" res="8.3344995975494385e-02" rms="4.2586660385131836e-01" purity="7.6082438230514526e-01" nType="0">
                    <Node pos="l" depth="7" NCoef="0" IVar="-1" Cut="0.0000000000000000e+00" cType="1" res="4.8238546587526798e-03" rms="4.4580313563346863e-01" purity="7.2459971904754639e-01" nType="-99"/>
                    <Node pos="r" depth="7" NCoef="0" IVar="-1" Cut="0.0000000000000000e+00" cType="1" res="9.1008003801107407e-03" rms="4.1214111447334290e-01" purity="7.8302776813507080e-01" nType="-99"/>
                  </Node>
                  <Node pos="r" depth="6" NCoef="0" IVar="-1" Cut="0.0000000000000000e+00" cType="1" res="9.4190379604697227e-03" rms="4.0554597973823547e-01" purity="7.9240691661834717e-01" nType="-99"/>
                </Node>
              </Node>
              <Node pos="r" depth="4" NCoef="0" IVar="1" Cut="1.0448762178421021e+00" cType="1" res="7.3307015001773834e-02" rms="4.5608511567115784e-01" purity="6.9631010293960571e-01" nType="0">
                <Node pos="l" depth="5" NCoef="0" IVar="1" Cut="5.6823158264160156e-01" cType="1" res="8.6040280759334564e-02" rms="4.4374838471412659e-01" purity="7.2713917493820190e-01" nType="0">
                  <Node pos="l" depth="6" NCoef="0" IVar="-1" Cut="0.0000000000000000e+00" cType="1" res="8.1357024610042572e-03" rms="4.2769834399223328e-01" purity="7.5795918703079224e-01" nType="-99"/>
                  <Node pos="r" depth="6" NCoef="0" IVar="-1" Cut="0.0000000000000000e+00" cType="1" res="6.1901030130684376e-03" rms="4.5532363653182983e-01" purity="7.0381665229797363e-01" nType="-99"/>
                </Node>
                <Node pos="r" depth="5" NCoef="0" IVar="-1" Cut="0.0000000000000000e+00" cType="1" res="3.2066938001662493e-03" rms="4.8578724265098572e-01" purity="6.1422741413116455e-01" nType="-99"/>
              </Node>
            </Node>
            <Node pos="r" depth="3" NCoef="0" IVar="-1" Cut="0.0000000000000000e+00" cType="1" res="2.9843722004443407e-03" rms="4.8140487074851990e-01" purity="5.8684718608856201e-01" nType="-99"/>
          </Node>
          <Node pos="r" depth="2" NCoef="0" IVar="0" Cut="2.6321154832839966e-01" cType="1" res="4.4586542993783951e-02" rms="4.7060638666152954e-01" purity="6.3934057950973511e-01" nType="0">
            <Node pos="l" depth="3" NCoef="0" IVar="0" Cut="1.6981349885463715e-01" cType="1" res="5.6434240192174911e-02" rms="4.6522524952888489e-01" purity="6.6789132356643677e-01" nType="0">
              <Node pos="l" depth="4" NCoef="0" IVar="3" Cut="8.3834701776504517e-01" cType="1" res="6.2877550721168518e-02" rms="4.6182927489280701e-01" purity="6.7910504341125488e-01" nType="0">
                <Node pos="l" depth="5" NCoef="0" IVar="1" Cut="2.8037431836128235e-01" cType="1" res="4.7636747360229492e-02" rms="4.7883841395378113e-01" purity="6.3244163990020752e-01" nType="0">
                  <Node pos="l" depth="6" NCoef="0" IVar="1" Cut="8.0658122897148132e-03" cType="1" res="5.6202091276645660e-02" rms="4.7362497448921204e-01" purity="6.5696084499359131e-01" nType="0">
                    <Node pos="l" depth="7" NCoef="0" IVar="-1" Cut="0.0000000000000000e+00" cType="1" res="5.4555567912757397e-03" rms="4.6848094463348389e-01" purity="6.7253679037094116e-01" nType="-99"/>
                    <Node pos="r" depth="7" NCoef="0" IVar="-1" Cut="0.0000000000000000e+00" cType="1" res="3.2771972473710775e-03" rms="4.8154124617576599e-01" purity="6.3118427991867065e-01" nType="-99"/>
                  </Node>
                  <Node pos="r" depth="6" NCoef="0" IVar="-1" Cut="0.0000000000000000e+00" cType="1" res="1.6808501677587628e-03" rms="4.9393734335899353e-01" purity="5.5517673492431641e-01" nType="-99"/>
                </Node>
                <Node pos="r" depth="5" NCoef="0" IVar="1" Cut="4.2094317078590393e-01" cType="1" res="7.6414391398429871e-02" rms="4.4574165344238281e-01" purity="7.2055131196975708e-01" nType="0">
                  <Node pos="l" depth="6" NCoef="0" IVar="4" Cut="2.5837376713752747e-02" cType="1" res="8.1485047936439514e-02" rms="4.3905720114707947e-01" purity="7.3780655860900879e-01" nType="0">
                    <Node pos="l" depth="7" NCoef="0" IVar="-1" Cut="0.0000000000000000e+00" cType="1" res="6.5382178872823715e-03" rms="4.4541645050048828e-01" purity="7.2499144077301025e-01" nType="-99"/>
                    <Node pos="r" depth="7" NCoef="0" IVar="-1" Cut="0.0000000000000000e+00" cType="1" res="7.9240081831812859e-03" rms="4.3611183762550354e-01" purity="7.4343204498291016e-01" nType="-99"/>
                  </Node>
                  <Node pos="r" depth="6" NCoef="0" IVar="-1" Cut="0.0000000000000000e+00" cType="1" res="4.0970696136355400e-03" rms="4.8111996054649353e-01" purity="6.2200951576232910e-01" nType="-99"/>
                </Node>
              </Node>
              <Node pos="r" depth="4" NCoef="0" IVar="-1" Cut="0.0000000000000000e+00" cType="1" res="-3.7508278182940558e-05" rms="4.9051600694656372e-01" purity="5.6898802518844604e-01" nType="-99"/>
            </Node>
            <Node pos="r" depth="3" NCoef="0" IVar="2" Cut="1.6287022399902344e+02" cType="1" res="-1.7915859818458557e-02" rms="4.9334549903869629e-01" purity="4.8872154951095581e-01" nType="0">
              <Node pos="l" depth="4" NCoef="0" IVar="4" Cut="4.4302672147750854e-02" cType="1" res="5.9839910827577114e-03" rms="4.9436080455780029e-01" purity="5.2278006076812744e-01" nType="0">
                <Node pos="l" depth="5" NCoef="0" IVar="-1" Cut="0.0000000000000000e+00" cType="1" res="-1.0688048787415028e-03" rms="4.9406147003173828e-01" purity="5.0574171543121338e-01" nType="-99"/>
                <Node pos="r" depth="5" NCoef="0" IVar="-1" Cut="0.0000000000000000e+00" cType="1" res="2.5768580380827188e-03" rms="4.9366104602813721e-01" purity="5.4689198732376099e-01" nType="-99"/>
              </Node>
              <Node pos="r" depth="4" NCoef="0" IVar="-1" Cut="0.0000000000000000e+00" cType="1" res="-7.4646305292844772e-03" rms="4.8535910248756409e-01" purity="4.0120378136634827e-01" nType="-99"/>
            </Node>
          </Node>
        </Node>
      </Node>
    </BinaryTree>
    <BinaryTree type="DecisionTree" boostWeight="1.0000000000000000e+00" itree="27">
      <Node pos="s" depth="0" NCoef="0" IVar="3" Cut="7.1608352661132812e-01" cType="1" res="1.5181398019194603e-02" rms="4.1943413019180298e-01" purity="5.0052583217620850e-01" nType="0">
        <Node pos="l" depth="1" NCoef="0" IVar="3" Cut="5.7985019683837891e-01" cType="1" res="-6.3384585082530975e-02" rms="3.7764897942543030e-01" purity="2.1486057341098785e-01" nType="0">
          <Node pos="l" depth="2" NCoef="0" IVar="0" Cut="6.4506101608276367e-01" cType="1" res="-8.0839708447456360e-02" rms="3.2763952016830444e-01" purity="1.3633137941360474e-01" nType="0">
            <Node pos="l" depth="3" NCoef="0" IVar="1" Cut="6.8719112873077393e-01" cType="1" res="-5.9516120702028275e-02" rms="4.2960384488105774e-01" purity="2.5745505094528198e-01" nType="0">
              <Node pos="l" depth="4" NCoef="0" IVar="0" Cut="5.4099392890930176e-01" cType="1" res="-5.4268207401037216e-02" rms="4.3504032492637634e-01" purity="2.6707315444946289e-01" nType="0">
                <Node pos="l" depth="5" NCoef="0" IVar="2" Cut="4.1297650146484375e+02" cType="1" res="-4.8018906265497208e-02" rms="4.4183558225631714e-01" purity="2.7993702888488770e-01" nType="0">
                  <Node pos="l" depth="6" NCoef="0" IVar="4" Cut="1.3829296827316284e-01" cType="1" res="-3.6182984709739685e-02" rms="4.5201393961906433e-01" purity="3.0340862274169922e-01" nType="0">
                    <Node pos="l" depth="7" NCoef="0" IVar="-1" Cut="0.0000000000000000e+00" cType="1" res="-5.6205247528851032e-03" rms="4.4808378815650940e-01" purity="2.9459559917449951e-01" nType="-99"/>
                    <Node pos="r" depth="7" NCoef="0" IVar="-1" Cut="0.0000000000000000e+00" cType="1" res="-8.4899942157790065e-04" rms="4.5705699920654297e-01" purity="3.1802213191986084e-01" nType="-99"/>
                  </Node>
                  <Node pos="r" depth="6" NCoef="0" IVar="4" Cut="1.8697001039981842e-01" cType="1" res="-6.7741326987743378e-02" rms="4.2359915375709534e-01" purity="2.4082584679126740e-01" nType="0">
                    <Node pos="l" depth="7" NCoef="0" IVar="-1" Cut="0.0000000000000000e+00" cType="1" res="-1.0498894378542900e-02" rms="4.1816785931587219e-01" purity="2.3448689281940460e-01" nType="-99"/>
                    <Node pos="r" depth="7" NCoef="0" IVar="-1" Cut="0.0000000000000000e+00" cType="1" res="-5.4809655994176865e-03" rms="4.2750859260559082e-01" purity="2.4687534570693970e-01" nType="-99"/>
                  </Node>
                </Node>
                <Node pos="r" depth="5" NCoef="0" IVar="-1" Cut="0.0000000000000000e+00" cType="1" res="-1.1027988046407700e-02" rms="3.9429467916488647e-01" purity="1.9707602262496948e-01" nType="-99"/>
              </Node>
              <Node pos="r" depth="4" NCoef="0" IVar="-1" Cut="0.0000000000000000e+00" cType="1" res="-1.2751233763992786e-02" rms="3.8379442691802979e-01" purity="1.8485035002231598e-01" nType="-99"/>
            </Node>
            <Node pos="r" depth="3" NCoef="0" IVar="4" Cut="1.6683189570903778e-01" cType="1" res="-9.0074442327022552e-02" rms="2.7134272456169128e-01" purity="8.3875611424446106e-02" nType="0">
              <Node pos="l" depth="4" NCoef="0" IVar="2" Cut="6.4159118652343750e+01" cType="1" res="-9.4048172235488892e-02" rms="2.6246681809425354e-01" purity="7.8507885336875916e-02" nType="0">
                <Node pos="l" depth="5" NCoef="0" IVar="3" Cut="4.0469118952751160e-01" cType="1" res="-6.8704493343830109e-02" rms="3.1047135591506958e-01" purity="1.1491934955120087e-01" nType="0">
                  <Node pos="l" depth="6" NCoef="0" IVar="-1" Cut="0.0000000000000000e+00" cType="1" res="-2.1419422701001167e-02" rms="2.3057469725608826e-01" purity="5.7122431695461273e-02" nType="-99"/>
                  <Node pos="r" depth="6" NCoef="0" IVar="-1" Cut="0.0000000000000000e+00" cType="1" res="-6.0470607131719589e-03" rms="3.8767936825752258e-01" purity="1.8865001201629639e-01" nType="-99"/>
                </Node>
                <Node pos="r" depth="5" NCoef="0" IVar="4" Cut="9.1492310166358948e-02" cType="1" res="-9.7724184393882751e-02" rms="2.5454440712928772e-01" purity="7.3226526379585266e-02" nType="0">
                  <Node pos="l" depth="6" NCoef="0" IVar="4" Cut="5.7792659848928452e-02" cType="1" res="-1.0696815699338913e-01" rms="2.3483557999134064e-01" purity="6.1206545680761337e-02" nType="0">
                    <Node pos="l" depth="7" NCoef="0" IVar="-1" Cut="0.0000000000000000e+00" cType="1" res="-2.2692676633596420e-02" rms="2.2064320743083954e-01" purity="5.2673500031232834e-02" nType="-99"/>
                    <Node pos="r" depth="7" NCoef="0" IVar="-1" Cut="0.0000000000000000e+00" cType="1" res="-2.0272145047783852e-02" rms="2.4361170828342438e-01" purity="6.6853664815425873e-02" nType="-99"/>
                  </Node>
                  <Node pos="r" depth="6" NCoef="0" IVar="2" Cut="1.8318914794921875e+02" cType="1" res="-8.8216729462146759e-02" rms="2.7301025390625000e-01" purity="8.5589125752449036e-02" nType="0">
                    <Node pos="l" depth="7" NCoef="0" IVar="-1" Cut="0.0000000000000000e+00" cType="1" res="-1.2760804966092110e-02" rms="3.1184303760528564e-01" purity="1.1613482981920242e-01" nType="-99"/>
                    <Node pos="r" depth="7" NCoef="0" IVar="-1" Cut="0.0000000000000000e+00" cType="1" res="-1.9148273393511772e-02" rms="2.5662848353385925e-01" purity="7.4276611208915710e-02" nType="-99"/>
                  </Node>
                </Node>
              </Node>
              <Node pos="r" depth="4" NCoef="0" IVar="5" Cut="7.0000000000000000e+00" cType="1" res="-6.8943507969379425e-02" rms="3.1293293833732605e-01" purity="1.1250180751085281e-01" nType="0">
                <Node pos="l" depth="5" NCoef="0" IVar="-1" Cut="0.0000000000000000e+00" cType="1" res="-1.0465040802955627e-02" rms="3.3399102091789246e-01" purity="1.3015863299369812e-01" nType="-99"/>
                <Node pos="r" depth="5" NCoef="0" IVar="-1" Cut="0.0000000000000000e+00" cType="1" res="-1.6575755551457405e-02" rms="2.8597447276115417e-01" purity="9.0862654149532318e-02" nType="-99"/>
              </Node>
            </Node>
          </Node>
          <Node pos="r" depth="2" NCoef="0" IVar="3" Cut="6.7213845252990723e-01" cType="1" res="-1.6799986362457275e-02" rms="4.8349535465240479e-01" purity="4.2444103956222534e-01" nType="0">
            <Node pos="l" depth="3" NCoef="0" IVar="5" Cut="3.0000000000000000e+00" cType="1" res="-3.1249590218067169e-02" rms="4.7697624564170837e-01" purity="3.8675659894943237e-01" nType="0">
              <Node pos="l" depth="4" NCoef="0" IVar="-1" Cut="0.0000000000000000e+00" cType="1" res="-7.6895793899893761e-03" rms="4.5534023642539978e-01" purity="3.1068447232246399e-01" nType="-99"/>
              <Node pos="r" depth="4" NCoef="0" IVar="2" Cut="7.9833801269531250e+01" cType="1" res="-2.0634505897760391e-02" rms="4.8375552892684937e-01" purity="4.0774044394493103e-01" nType="0">
                <Node pos="l" depth="5" NCoef="0" IVar="-1" Cut="0.0000000000000000e+00" cType="1" res="1.4988394686952233e-03" rms="4.8899728059768677e-01" purity="4.5199733972549438e-01" nType="-99"/>
                <Node pos="r" depth="5" NCoef="0" IVar="4" Cut="8.1697992980480194e-02" cType="1" res="-3.2320491969585419e-02" rms="4.8152038455009460e-01" purity="3.9402347803115845e-01" nType="0">
                  <Node pos="l" depth="6" NCoef="0" IVar="2" Cut="1.5636126708984375e+02" cType="1" res="-5.3499501198530197e-02" rms="4.7242099046707153e-01" purity="3.6053070425987244e-01" nType="0">
                    <Node pos="l" depth="7" NCoef="0" IVar="-1" Cut="0.0000000000000000e+00" cType="1" res="-3.8454460445791483e-03" rms="4.7947359085083008e-01" purity="3.8584983348846436e-01" nType="-99"/>
                    <Node pos="r" depth="7" NCoef="0" IVar="-1" Cut="0.0000000000000000e+00" cType="1" res="-6.5253381617367268e-03" rms="4.6561634540557861e-01" purity="3.3761507272720337e-01" nType="-99"/>
                  </Node>
                  <Node pos="r" depth="6" NCoef="0" IVar="2" Cut="3.0111157226562500e+02" cType="1" res="-1.3632150366902351e-02" rms="4.8864740133285522e-01" purity="4.2357748746871948e-01" nType="0">
                    <Node pos="l" depth="7" NCoef="0" IVar="-1" Cut="0.0000000000000000e+00" cType="1" res="5.9240142581984401e-04" rms="4.9151232838630676e-01" purity="4.5523318648338318e-01" nType="-99"/>
                    <Node pos="r" depth="7" NCoef="0" IVar="-1" Cut="0.0000000000000000e+00" cType="1" res="-3.7443221081048250e-03" rms="4.8389944434165955e-01" purity="3.8439741730690002e-01" nType="-99"/>
                  </Node>
                </Node>
              </Node>
            </Node>
            <Node pos="r" depth="3" NCoef="0" IVar="4" Cut="6.0191188007593155e-02" cType="1" res="1.2851594947278500e-02" rms="4.9162420630455017e-01" purity="4.9455723166465759e-01" nType="0">
              <Node pos="l" depth="4" NCoef="0" IVar="-1" Cut="0.0000000000000000e+00" cType="1" res="-1.8367439042776823e-03" rms="4.8843562602996826e-01" purity="4.5171943306922913e-01" nType="-99"/>
              <Node pos="r" depth="4" NCoef="0" IVar="2" Cut="1.9163873291015625e+02" cType="1" res="3.8280684500932693e-02" rms="4.9250879883766174e-01" purity="5.2704358100891113e-01" nType="0">
                <Node pos="l" depth="5" NCoef="0" IVar="-1" Cut="0.0000000000000000e+00" cType="1" res="5.3853034041821957e-03" rms="4.8999765515327454e-01" purity="5.6746625900268555e-01" nType="-99"/>
                <Node pos="r" depth="5" NCoef="0" IVar="-1" Cut="0.0000000000000000e+00" cType="1" res="1.0872080456465483e-03" rms="4.9330323934555054e-01" purity="4.9082750082015991e-01" nType="-99"/>
              </Node>
            </Node>
          </Node>
        </Node>
        <Node pos="r" depth="1" NCoef="0" IVar="0" Cut="6.1320692300796509e-01" cType="1" res="7.4574142694473267e-02" rms="4.3921455740928650e-01" purity="7.1647739410400391e-01" nType="0">
          <Node pos="l" depth="2" NCoef="0" IVar="3" Cut="8.8121551275253296e-01" cType="1" res="7.8960120677947998e-02" rms="4.3726360797882080e-01" purity="7.2490781545639038e-01" nType="0">
            <Node pos="l" depth="3" NCoef="0" IVar="1" Cut="7.6617306470870972e-01" cType="1" res="4.4823180884122849e-02" rms="4.7514864802360535e-01" purity="6.3243645429611206e-01" nType="0">
              <Node pos="l" depth="4" NCoef="0" IVar="3" Cut="7.7467679977416992e-01" cType="1" res="5.0840321928262711e-02" rms="4.7311607003211975e-01" purity="6.4620685577392578e-01" nType="0">
                <Node pos="l" depth="5" NCoef="0" IVar="1" Cut="4.9428228288888931e-02" cType="1" res="2.5420587509870529e-02" rms="4.9014177918434143e-01" purity="5.7667356729507446e-01" nType="0">
                  <Node pos="l" depth="6" NCoef="0" IVar="2" Cut="1.5322587585449219e+02" cType="1" res="4.5634731650352478e-02" rms="4.8503410816192627e-01" purity="6.0909074544906616e-01" nType="0">
                    <Node pos="l" depth="7" NCoef="0" IVar="-1" Cut="0.0000000000000000e+00" cType="1" res="4.8096920363605022e-03" rms="4.8065897822380066e-01" purity="6.2758046388626099e-01" nType="-99"/>
                    <Node pos="r" depth="7" NCoef="0" IVar="-1" Cut="0.0000000000000000e+00" cType="1" res="2.0955537911504507e-03" rms="4.9180740118026733e-01" purity="5.7681351900100708e-01" nType="-99"/>
                  </Node>
                  <Node pos="r" depth="6" NCoef="0" IVar="5" Cut="3.0000000000000000e+00" cType="1" res="1.2232480570673943e-02" rms="3.7191319465637207e-01" purity="5.3573316335678101e-01" nType="0">
                    <Node pos="l" depth="7" NCoef="0" IVar="-1" Cut="0.0000000000000000e+00" cType="1" res="-2.6982626877725124e-03" rms="4.9655708670616150e-01" purity="4.8924249410629272e-01" nType="-99"/>
                    <Node pos="r" depth="7" NCoef="0" IVar="-1" Cut="0.0000000000000000e+00" cType="1" res="2.5045936927199364e-03" rms="4.9246490001678467e-01" purity="5.7810318470001221e-01" nType="-99"/>
                  </Node>
                </Node>
                <Node pos="r" depth="5" NCoef="0" IVar="0" Cut="1.7761717736721039e-01" cType="1" res="6.1606045812368393e-02" rms="4.6529933810234070e-01" purity="6.7565548419952393e-01" nType="0">
                  <Node pos="l" depth="6" NCoef="0" IVar="1" Cut="1.1182399839162827e-01" cType="1" res="6.6447488963603973e-02" rms="4.5991748571395874e-01" purity="6.9196575880050659e-01" nType="0">
                    <Node pos="l" depth="7" NCoef="0" IVar="-1" Cut="0.0000000000000000e+00" cType="1" res="6.2569594010710716e-03" rms="4.5292919874191284e-01" purity="7.0957577228546143e-01" nType="-99"/>
                    <Node pos="r" depth="7" NCoef="0" IVar="-1" Cut="0.0000000000000000e+00" cType="1" res="4.3232874013483524e-03" rms="4.7329100966453552e-01" purity="6.5663176774978638e-01" nType="-99"/>
                  </Node>
                  <Node pos="r" depth="6" NCoef="0" IVar="0" Cut="2.6175364851951599e-01" cType="1" res="3.9581116288900375e-02" rms="4.8843047022819519e-01" purity="6.0145592689514160e-01" nType="0">
                    <Node pos="l" depth="7" NCoef="0" IVar="-1" Cut="0.0000000000000000e+00" cType="1" res="2.4271288421005011e-03" rms="4.8717033863067627e-01" purity="6.0796338319778442e-01" nType="-99"/>
                    <Node pos="r" depth="7" NCoef="0" IVar="-1" Cut="0.0000000000000000e+00" cType="1" res="4.7402782365679741e-03" rms="4.8937293887138367e-01" purity="5.9405910968780518e-01" nType="-99"/>
                  </Node>
                </Node>
              </Node>
              <Node pos="r" depth="4" NCoef="0" IVar="-1" Cut="0.0000000000000000e+00" cType="1" res="-2.5847216602414846e-03" rms="4.9368217587471008e-01" purity="4.6068310737609863e-01" nType="-99"/>
            </Node>
            <Node pos="r" depth="3" NCoef="0" IVar="1" Cut="9.1477900743484497e-01" cType="1" res="9.7133912146091461e-02" rms="4.1454330086708069e-01" purity="7.7413761615753174e-01" nType="0">
              <Node pos="l" depth="4" NCoef="0" IVar="3" Cut="9.8908412456512451e-01" cType="1" res="1.0011063516139984e-01" rms="4.1042089462280273e-01" purity="7.8236645460128784e-01" nType="0">
                <Node pos="l" depth="5" NCoef="0" IVar="1" Cut="3.7673901766538620e-02" cType="1" res="8.8267587125301361e-02" rms="4.2514139413833618e-01" purity="7.5939434766769409e-01" nType="0">
                  <Node pos="l" depth="6" NCoef="0" IVar="3" Cut="9.5080769062042236e-01" cType="1" res="1.0377416759729385e-01" rms="4.1041150689125061e-01" purity="7.8466695547103882e-01" nType="0">
                    <Node pos="l" depth="7" NCoef="0" IVar="-1" Cut="0.0000000000000000e+00" cType="1" res="9.3156434595584869e-03" rms="4.1994377970695496e-01" purity="7.7078109979629517e-01" nType="-99"/>
                    <Node pos="r" depth="7" NCoef="0" IVar="-1" Cut="0.0000000000000000e+00" cType="1" res="9.8093394190073013e-03" rms="3.9963284134864807e-01" purity="7.9975122213363647e-01" nType="-99"/>
                  </Node>
                  <Node pos="r" depth="6" NCoef="0" IVar="1" Cut="3.2045415043830872e-01" cType="1" res="6.6307246685028076e-02" rms="4.4424360990524292e-01" purity="7.2360348701477051e-01" nType="0">
                    <Node pos="l" depth="7" NCoef="0" IVar="-1" Cut="0.0000000000000000e+00" cType="1" res="7.6670930720865726e-03" rms="4.3042543530464172e-01" purity="7.5268012285232544e-01" nType="-99"/>
                    <Node pos="r" depth="7" NCoef="0" IVar="-1" Cut="0.0000000000000000e+00" cType="1" res="2.7127868961542845e-03" rms="4.7198283672332764e-01" purity="6.5792381763458252e-01" nType="-99"/>
                  </Node>
                </Node>
                <Node pos="r" depth="5" NCoef="0" IVar="0" Cut="1.7801107466220856e-01" cType="1" res="1.0535773634910583e-01" rms="4.0361630916595459e-01" purity="7.9254418611526489e-01" nType="0">
                  <Node pos="l" depth="6" NCoef="0" IVar="1" Cut="1.1792503297328949e-01" cType="1" res="1.0779442638158798e-01" rms="3.9966225624084473e-01" purity="7.9942685365676880e-01" nType="0">
                    <Node pos="l" depth="7" NCoef="0" IVar="-1" Cut="0.0000000000000000e+00" cType="1" res="1.0336401872336864e-02" rms="3.8926145434379578e-01" purity="8.1369811296463013e-01" nType="-99"/>
                    <Node pos="r" depth="7" NCoef="0" IVar="-1" Cut="0.0000000000000000e+00" cType="1" res="8.2503706216812134e-03" rms="4.1874399781227112e-01" purity="7.7185285091400146e-01" nType="-99"/>
                  </Node>
                  <Node pos="r" depth="6" NCoef="0" IVar="-1" Cut="0.0000000000000000e+00" cType="1" res="4.8808883875608444e-03" rms="4.7222641110420227e-01" purity="6.5709286928176880e-01" nType="-99"/>
                </Node>
              </Node>
              <Node pos="r" depth="4" NCoef="0" IVar="-1" Cut="0.0000000000000000e+00" cType="1" res="3.0965181067585945e-03" rms="4.8548209667205811e-01" purity="6.1077719926834106e-01" nType="-99"/>
            </Node>
          </Node>
          <Node pos="r" depth="2" NCoef="0" IVar="-1" Cut="0.0000000000000000e+00" cType="1" res="-9.6015250310301781e-03" rms="4.7948902845382690e-01" purity="3.6949515342712402e-01" nType="-99"/>
        </Node>
      </Node>
    </BinaryTree>
    <BinaryTree type="DecisionTree" boostWeight="1.0000000000000000e+00" itree="28">
      <Node pos="s" depth="0" NCoef="0" IVar="3" Cut="7.1639901399612427e-01" cType="1" res="1.5945687890052795e-02" rms="4.1893050074577332e-01" purity="5.0140362977981567e-01" nType="0">
        <Node pos="l" depth="1" NCoef="0" IVar="3" Cut="5.8010411262512207e-01" cType="1" res="-5.9034075587987900e-02" rms="3.7804841995239258e-01" purity="2.1564784646034241e-01" nType="0">
          <Node pos="l" depth="2" NCoef="0" IVar="1" Cut="1.0319248773157597e-02" cType="1" res="-7.5276702642440796e-02" rms="3.2827773690223694e-01" purity="1.3689972460269928e-01" nType="0">
            <Node pos="l" depth="3" NCoef="0" IVar="0" Cut="9.6365678310394287e-01" cType="1" res="-5.0353042781352997e-02" rms="3.7543720006942749e-01" purity="1.9099485874176025e-01" nType="0">
              <Node pos="l" depth="4" NCoef="0" IVar="2" Cut="2.0388708496093750e+02" cType="1" res="-3.2502528280019760e-02" rms="4.3209099769592285e-01" purity="2.6633799076080322e-01" nType="0">
                <Node pos="l" depth="5" NCoef="0" IVar="2" Cut="1.1884588623046875e+02" cType="1" res="-9.9849021062254906e-03" rms="4.5064824819564819e-01" purity="3.0617806315422058e-01" nType="0">
                  <Node pos="l" depth="6" NCoef="0" IVar="-1" Cut="0.0000000000000000e+00" cType="1" res="-1.0204531281488016e-04" rms="4.5607489347457886e-01" purity="3.2205164432525635e-01" nType="-99"/>
                  <Node pos="r" depth="6" NCoef="0" IVar="-1" Cut="0.0000000000000000e+00" cType="1" res="-2.2121244110167027e-03" rms="4.4487386941909790e-01" purity="2.9003423452377319e-01" nType="-99"/>
                </Node>
                <Node pos="r" depth="5" NCoef="0" IVar="0" Cut="4.3512687087059021e-01" cType="1" res="-4.6419881284236908e-02" rms="4.1960802674293518e-01" purity="2.4171423912048340e-01" nType="0">
                  <Node pos="l" depth="6" NCoef="0" IVar="-1" Cut="0.0000000000000000e+00" cType="1" res="-3.4596640616655350e-03" rms="4.4922646880149841e-01" purity="2.9410094022750854e-01" nType="-99"/>
                  <Node pos="r" depth="6" NCoef="0" IVar="-1" Cut="0.0000000000000000e+00" cType="1" res="-9.4307828694581985e-03" rms="3.7798860669136047e-01" purity="1.7552503943443298e-01" nType="-99"/>
                </Node>
              </Node>
              <Node pos="r" depth="4" NCoef="0" IVar="2" Cut="2.5087902832031250e+02" cType="1" res="-7.5515896081924438e-02" rms="2.7455466985702515e-01" purity="8.4787964820861816e-02" nType="0">
                <Node pos="l" depth="5" NCoef="0" IVar="-1" Cut="0.0000000000000000e+00" cType="1" res="-1.3471030630171299e-02" rms="2.9060462117195129e-01" purity="9.6831880509853363e-02" nType="-99"/>
                <Node pos="r" depth="5" NCoef="0" IVar="-1" Cut="0.0000000000000000e+00" cType="1" res="-1.8010947853326797e-02" rms="2.5878405570983887e-01" purity="7.3950484395027161e-02" nType="-99"/>
              </Node>
            </Node>
            <Node pos="r" depth="3" NCoef="0" IVar="4" Cut="1.1491577327251434e-01" cType="1" res="-8.5417948663234711e-02" rms="3.0644279718399048e-01" purity="1.1488882452249527e-01" nType="0">
              <Node pos="l" depth="4" NCoef="0" IVar="2" Cut="1.7416192626953125e+02" cType="1" res="-9.3793861567974091e-02" rms="2.7961745858192444e-01" purity="9.3289837241172791e-02" nType="0">
                <Node pos="l" depth="5" NCoef="0" IVar="4" Cut="3.7219904363155365e-02" cType="1" res="-8.6786769330501556e-02" rms="2.9345786571502686e-01" purity="1.0425247251987457e-01" nType="0">
                  <Node pos="l" depth="6" NCoef="0" IVar="2" Cut="5.0645233154296875e+01" cType="1" res="-1.0215765237808228e-01" rms="2.7153092622756958e-01" purity="8.4649458527565002e-02" nType="0">
                    <Node pos="l" depth="7" NCoef="0" IVar="-1" Cut="0.0000000000000000e+00" cType="1" res="-1.6642149537801743e-02" rms="2.9510545730590820e-01" purity="1.0225129127502441e-01" nType="-99"/>
                    <Node pos="r" depth="7" NCoef="0" IVar="-1" Cut="0.0000000000000000e+00" cType="1" res="-2.0595598965883255e-02" rms="2.4762469530105591e-01" purity="6.8507887423038483e-02" nType="-99"/>
                  </Node>
                  <Node pos="r" depth="6" NCoef="0" IVar="3" Cut="5.0733417272567749e-01" cType="1" res="-8.0485142767429352e-02" rms="3.0176129937171936e-01" purity="1.1228913813829422e-01" nType="0">
                    <Node pos="l" depth="7" NCoef="0" IVar="-1" Cut="0.0000000000000000e+00" cType="1" res="-1.8562277778983116e-02" rms="2.5986889004707336e-01" purity="7.6448239386081696e-02" nType="-99"/>
                    <Node pos="r" depth="7" NCoef="0" IVar="-1" Cut="0.0000000000000000e+00" cType="1" res="-5.8638709597289562e-03" rms="4.2924579977989197e-01" purity="2.5597259402275085e-01" nType="-99"/>
                  </Node>
                </Node>
                <Node pos="r" depth="5" NCoef="0" IVar="1" Cut="6.5213990211486816e-01" cType="1" res="-1.0365899652242661e-01" rms="2.5855901837348938e-01" purity="7.7855810523033142e-02" nType="0">
                  <Node pos="l" depth="6" NCoef="0" IVar="3" Cut="4.7627538442611694e-01" cType="1" res="-9.8708964884281158e-02" rms="2.8250816464424133e-01" purity="9.5431849360466003e-02" nType="0">
                    <Node pos="l" depth="7" NCoef="0" IVar="-1" Cut="0.0000000000000000e+00" cType="1" res="-2.1967779844999313e-02" rms="2.1255621314048767e-01" purity="4.8636030405759811e-02" nType="-99"/>
                    <Node pos="r" depth="7" NCoef="0" IVar="-1" Cut="0.0000000000000000e+00" cType="1" res="-1.0723092593252659e-02" rms="3.9088988304138184e-01" purity="1.9440528750419617e-01" nType="-99"/>
                  </Node>
                  <Node pos="r" depth="6" NCoef="0" IVar="4" Cut="8.2852147519588470e-02" cType="1" res="-1.1185806244611740e-01" rms="2.1279476583003998e-01" purity="4.8743456602096558e-02" nType="0">
                    <Node pos="l" depth="7" NCoef="0" IVar="-1" Cut="0.0000000000000000e+00" cType="1" res="-2.3031938821077347e-02" rms="2.0922151207923889e-01" purity="4.7304987907409668e-02" nType="-99"/>
                    <Node pos="r" depth="7" NCoef="0" IVar="-1" Cut="0.0000000000000000e+00" cType="1" res="-2.3864947259426117e-02" rms="2.1624220907688141e-01" purity="5.0157222896814346e-02" nType="-99"/>
                  </Node>
                </Node>
              </Node>
              <Node pos="r" depth="4" NCoef="0" IVar="3" Cut="4.3352904915809631e-01" cType="1" res="-7.3587074875831604e-02" rms="3.4040302038192749e-01" purity="1.4539709687232971e-01" nType="0">
                <Node pos="l" depth="5" NCoef="0" IVar="3" Cut="1.7530259490013123e-01" cType="1" res="-8.2265205681324005e-02" rms="3.0333817005157471e-01" purity="1.0736332833766937e-01" nType="0">
                  <Node pos="l" depth="6" NCoef="0" IVar="-1" Cut="0.0000000000000000e+00" cType="1" res="-9.4566484913229942e-03" rms="3.2674345374107361e-01" purity="1.3368849456310272e-01" nType="-99"/>
                  <Node pos="r" depth="6" NCoef="0" IVar="2" Cut="3.4986758422851562e+02" cType="1" res="-8.9272879064083099e-02" rms="2.9757824540138245e-01" purity="1.0167830437421799e-01" nType="0">
                    <Node pos="l" depth="7" NCoef="0" IVar="-1" Cut="0.0000000000000000e+00" cType="1" res="-1.5149418264627457e-02" rms="3.0396455526351929e-01" purity="1.0634431988000870e-01" nType="-99"/>
                    <Node pos="r" depth="7" NCoef="0" IVar="-1" Cut="0.0000000000000000e+00" cType="1" res="-1.7267316579818726e-02" rms="2.9257896542549133e-01" purity="9.8279193043708801e-02" nType="-99"/>
                  </Node>
                </Node>
                <Node pos="r" depth="5" NCoef="0" IVar="2" Cut="3.7904318237304688e+02" cType="1" res="-4.6887535601854324e-02" rms="4.3398037552833557e-01" purity="2.6241353154182434e-01" nType="0">
                  <Node pos="l" depth="6" NCoef="0" IVar="-1" Cut="0.0000000000000000e+00" cType="1" res="-1.8551580142229795e-03" rms="4.5180907845497131e-01" purity="2.9691302776336670e-01" nType="-99"/>
                  <Node pos="r" depth="6" NCoef="0" IVar="-1" Cut="0.0000000000000000e+00" cType="1" res="-9.3344254419207573e-03" rms="4.1221725940704346e-01" purity="2.2642867267131805e-01" nType="-99"/>
                </Node>
              </Node>
            </Node>
          </Node>
          <Node pos="r" depth="2" NCoef="0" IVar="1" Cut="8.0986464023590088e-01" cType="1" res="-1.5848575159907341e-02" rms="4.8355111479759216e-01" purity="4.2502143979072571e-01" nType="0">
            <Node pos="l" depth="3" NCoef="0" IVar="0" Cut="4.9723044037818909e-01" cType="1" res="-5.5168806575238705e-03" rms="4.8740473389625549e-01" purity="4.4184550642967224e-01" nType="0">
              <Node pos="l" depth="4" NCoef="0" IVar="4" Cut="6.4269803464412689e-02" cType="1" res="3.4498444292694330e-03" rms="4.9356716871261597e-01" purity="4.7383072972297668e-01" nType="0">
                <Node pos="l" depth="5" NCoef="0" IVar="2" Cut="6.1053630828857422e+01" cType="1" res="-1.5972753986716270e-02" rms="4.9142238497734070e-01" purity="4.4851744174957275e-01" nType="0">
                  <Node pos="l" depth="6" NCoef="0" IVar="-1" Cut="0.0000000000000000e+00" cType="1" res="1.8482391024008393e-03" rms="4.9401643872261047e-01" purity="4.9689564108848572e-01" nType="-99"/>
                  <Node pos="r" depth="6" NCoef="0" IVar="4" Cut="4.9016524106264114e-02" cType="1" res="-3.9504796266555786e-02" rms="4.8832315206527710e-01" purity="4.1832301020622253e-01" nType="0">
                    <Node pos="l" depth="7" NCoef="0" IVar="-1" Cut="0.0000000000000000e+00" cType="1" res="-5.3413822315633297e-03" rms="4.8404181003570557e-01" purity="3.9880996942520142e-01" nType="-99"/>
                    <Node pos="r" depth="7" NCoef="0" IVar="-1" Cut="0.0000000000000000e+00" cType="1" res="-1.9234749488532543e-03" rms="4.9215501546859741e-01" purity="4.3911206722259521e-01" nType="-99"/>
                  </Node>
                </Node>
                <Node pos="r" depth="5" NCoef="0" IVar="2" Cut="2.7289428710937500e+02" cType="1" res="1.6085918992757797e-02" rms="4.9454817175865173e-01" purity="4.9029922485351562e-01" nType="0">
                  <Node pos="l" depth="6" NCoef="0" IVar="3" Cut="6.6802901029586792e-01" cType="1" res="3.6736674606800079e-02" rms="4.9444249272346497e-01" purity="5.2210253477096558e-01" nType="0">
                    <Node pos="l" depth="7" NCoef="0" IVar="-1" Cut="0.0000000000000000e+00" cType="1" res="1.6231505433097482e-03" rms="4.9616539478302002e-01" purity="4.8707866668701172e-01" nType="-99"/>
                    <Node pos="r" depth="7" NCoef="0" IVar="-1" Cut="0.0000000000000000e+00" cType="1" res="4.9287215806543827e-03" rms="4.9100738763809204e-01" purity="5.7064437866210938e-01" nType="-99"/>
                  </Node>
                  <Node pos="r" depth="6" NCoef="0" IVar="3" Cut="6.4605236053466797e-01" cType="1" res="-1.5498050488531590e-02" rms="4.9303948879241943e-01" purity="4.4165819883346558e-01" nType="0">
                    <Node pos="l" depth="7" NCoef="0" IVar="-1" Cut="0.0000000000000000e+00" cType="1" res="-2.5486601516604424e-03" rms="4.8673829436302185e-01" purity="3.9892026782035828e-01" nType="-99"/>
                    <Node pos="r" depth="7" NCoef="0" IVar="-1" Cut="0.0000000000000000e+00" cType="1" res="-4.2531083454377949e-04" rms="4.9874210357666016e-01" purity="4.8246496915817261e-01" nType="-99"/>
                  </Node>
                </Node>
              </Node>
              <Node pos="r" depth="4" NCoef="0" IVar="4" Cut="6.3146822154521942e-02" cType="1" res="-4.0936060249805450e-02" rms="4.6055653691291809e-01" purity="3.1550148129463196e-01" nType="0">
                <Node pos="l" depth="5" NCoef="0" IVar="-1" Cut="0.0000000000000000e+00" cType="1" res="-6.5163061954081059e-03" rms="4.5133009552955627e-01" purity="2.9342600703239441e-01" nType="-99"/>
                <Node pos="r" depth="5" NCoef="0" IVar="-1" Cut="0.0000000000000000e+00" cType="1" res="-2.2315341047942638e-03" rms="4.6776977181434631e-01" purity="3.3507117629051208e-01" nType="-99"/>
              </Node>
            </Node>
            <Node pos="r" depth="3" NCoef="0" IVar="-1" Cut="0.0000000000000000e+00" cType="1" res="-1.2951208278536797e-02" rms="4.2664176225662231e-01" purity="2.4941578507423401e-01" nType="-99"/>
          </Node>
        </Node>
        <Node pos="r" depth="1" NCoef="0" IVar="0" Cut="6.1320686340332031e-01" cType="1" res="7.2623915970325470e-02" rms="4.3894180655479431e-01" purity="7.1741026639938354e-01" nType="0">
          <Node pos="l" depth="2" NCoef="0" IVar="3" Cut="8.8160657882690430e-01" cType="1" res="7.6545290648937225e-02" rms="4.3705570697784424e-01" purity="7.2564530372619629e-01" nType="0">
            <Node pos="l" depth="3" NCoef="0" IVar="0" Cut="1.9779600203037262e-02" cType="1" res="4.5170076191425323e-02" rms="4.7454392910003662e-01" purity="6.3488674163818359e-01" nType="0">
              <Node pos="l" depth="4" NCoef="0" IVar="2" Cut="1.8203562927246094e+02" cType="1" res="5.6214008480310440e-02" rms="4.6783027052879333e-01" purity="6.6494846343994141e-01" nType="0">
                <Node pos="l" depth="5" NCoef="0" IVar="1" Cut="3.9218381047248840e-01" cType="1" res="6.3371397554874420e-02" rms="4.6377325057983398e-01" purity="6.7730450630187988e-01" nType="0">
                  <Node pos="l" depth="6" NCoef="0" IVar="4" Cut="4.4700577855110168e-02" cType="1" res="7.0503585040569305e-02" rms="4.5795673131942749e-01" purity="6.9703376293182373e-01" nType="0">
                    <Node pos="l" depth="7" NCoef="0" IVar="-1" Cut="0.0000000000000000e+00" cType="1" res="5.2333823405206203e-03" rms="4.5955130457878113e-01" purity="6.9252556562423706e-01" nType="-99"/>
                    <Node pos="r" depth="7" NCoef="0" IVar="-1" Cut="0.0000000000000000e+00" cType="1" res="6.7036780528724194e-03" rms="4.5522093772888184e-01" purity="7.0367026329040527e-01" nType="-99"/>
                  </Node>
                  <Node pos="r" depth="6" NCoef="0" IVar="-1" Cut="0.0000000000000000e+00" cType="1" res="2.0480940584093332e-03" rms="4.9170827865600586e-01" purity="5.7284224033355713e-01" nType="-99"/>
                </Node>
                <Node pos="r" depth="5" NCoef="0" IVar="3" Cut="7.9633915424346924e-01" cType="1" res="2.9085654765367508e-02" rms="4.8193410038948059e-01" purity="6.1811572313308716e-01" nType="0">
                  <Node pos="l" depth="6" NCoef="0" IVar="-1" Cut="0.0000000000000000e+00" cType="1" res="1.0430081747472286e-03" rms="4.9188244342803955e-01" purity="5.7739752531051636e-01" nType="-99"/>
                  <Node pos="r" depth="6" NCoef="0" IVar="-1" Cut="0.0000000000000000e+00" cType="1" res="4.3221060186624527e-03" rms="4.7065684199333191e-01" purity="6.6057527065277100e-01" nType="-99"/>
                </Node>
              </Node>
              <Node pos="r" depth="4" NCoef="0" IVar="3" Cut="7.6436233520507812e-01" cType="1" res="1.2824234552681446e-02" rms="4.9225854873657227e-01" purity="5.4684096574783325e-01" nType="0">
                <Node pos="l" depth="5" NCoef="0" IVar="-1" Cut="0.0000000000000000e+00" cType="1" res="-9.3829911202192307e-04" rms="4.9622589349746704e-01" purity="4.9655815958976746e-01" nType="-99"/>
                <Node pos="r" depth="5" NCoef="0" IVar="4" Cut="3.8094319403171539e-02" cType="1" res="2.8790397569537163e-02" rms="4.8889571428298950e-01" purity="5.8107697963714600e-01" nType="0">
                  <Node pos="l" depth="6" NCoef="0" IVar="-1" Cut="0.0000000000000000e+00" cType="1" res="2.8210601885803044e-04" rms="4.9083477258682251e-01" purity="5.6149762868881226e-01" nType="-99"/>
                  <Node pos="r" depth="6" NCoef="0" IVar="-1" Cut="0.0000000000000000e+00" cType="1" res="4.4289445504546165e-03" rms="4.8623496294021606e-01" purity="5.9739619493484497e-01" nType="-99"/>
                </Node>
              </Node>
            </Node>
            <Node pos="r" depth="3" NCoef="0" IVar="1" Cut="9.1158348321914673e-01" cType="1" res="9.3298994004726410e-02" rms="4.1468426585197449e-01" purity="7.7410840988159180e-01" nType="0">
              <Node pos="l" depth="4" NCoef="0" IVar="3" Cut="9.5349419116973877e-01" cType="1" res="9.6117794513702393e-02" rms="4.1053253412246704e-01" purity="7.8240907192230225e-01" nType="0">
                <Node pos="l" depth="5" NCoef="0" IVar="1" Cut="1.2116071581840515e-01" cType="1" res="7.7258355915546417e-02" rms="4.3436735868453979e-01" purity="7.4445730447769165e-01" nType="0">
                  <Node pos="l" depth="6" NCoef="0" IVar="4" Cut="1.2495996430516243e-02" cType="1" res="8.5960574448108673e-02" rms="4.2402723431587219e-01" purity="7.6409399509429932e-01" nType="0">
                    <Node pos="l" depth="7" NCoef="0" IVar="-1" Cut="0.0000000000000000e+00" cType="1" res="6.9405050016939640e-03" rms="4.3175816535949707e-01" purity="7.5084233283996582e-01" nType="-99"/>
                    <Node pos="r" depth="7" NCoef="0" IVar="-1" Cut="0.0000000000000000e+00" cType="1" res="9.1965105384588242e-03" rms="4.1994220018386841e-01" purity="7.7084493637084961e-01" nType="-99"/>
                  </Node>
                  <Node pos="r" depth="6" NCoef="0" IVar="-1" Cut="0.0000000000000000e+00" cType="1" res="5.4308823309838772e-03" rms="4.5702159404754639e-01" purity="6.9847047328948975e-01" nType="-99"/>
                </Node>
                <Node pos="r" depth="5" NCoef="0" IVar="0" Cut="1.7801098525524139e-01" cType="1" res="9.9772900342941284e-02" rms="4.0564978122711182e-01" purity="7.8976440429687500e-01" nType="0">
                  <Node pos="l" depth="6" NCoef="0" IVar="1" Cut="1.5221145749092102e-01" cType="1" res="1.0130390524864197e-01" rms="4.0204724669456482e-01" purity="7.9591178894042969e-01" nType="0">
                    <Node pos="l" depth="7" NCoef="0" IVar="-1" Cut="0.0000000000000000e+00" cType="1" res="9.9513828754425049e-03" rms="3.9092433452606201e-01" purity="8.1153070926666260e-01" nType="-99"/>
                    <Node pos="r" depth="7" NCoef="0" IVar="-1" Cut="0.0000000000000000e+00" cType="1" res="7.1272300556302071e-03" rms="4.2704141139984131e-01" purity="7.5824618339538574e-01" nType="-99"/>
                  </Node>
                  <Node pos="r" depth="6" NCoef="0" IVar="-1" Cut="0.0000000000000000e+00" cType="1" res="6.0024955309927464e-03" rms="4.6811562776565552e-01" purity="6.7255747318267822e-01" nType="-99"/>
                </Node>
              </Node>
              <Node pos="r" depth="4" NCoef="0" IVar="-1" Cut="0.0000000000000000e+00" cType="1" res="3.1215893104672432e-03" rms="4.8510453104972839e-01" purity="6.1296534538269043e-01" nType="-99"/>
            </Node>
          </Node>
          <Node pos="r" depth="2" NCoef="0" IVar="-1" Cut="0.0000000000000000e+00" cType="1" res="-7.5885094702243805e-03" rms="4.8339587450027466e-01" purity="3.8531085848808289e-01" nType="-99"/>
        </Node>
      </Node>
    </BinaryTree>
    <BinaryTree type="DecisionTree" boostWeight="1.0000000000000000e+00" itree="29">
      <Node pos="s" depth="0" NCoef="0" IVar="3" Cut="7.1610695123672485e-01" cType="1" res="1.4138622209429741e-02" rms="4.1775855422019958e-01" purity="4.9990251660346985e-01" nType="0">
        <Node pos="l" depth="1" NCoef="0" IVar="0" Cut="3.2121667265892029e-01" cType="1" res="-5.8700460940599442e-02" rms="3.7579625844955444e-01" purity="2.1276843547821045e-01" nType="0">
          <Node pos="l" depth="2" NCoef="0" IVar="3" Cut="5.5808442831039429e-01" cType="1" res="-1.5899114310741425e-02" rms="4.7496539354324341e-01" purity="4.0280917286872864e-01" nType="0">
            <Node pos="l" depth="3" NCoef="0" IVar="4" Cut="1.4186722040176392e-01" cType="1" res="-4.5068208128213882e-02" rms="4.4100934267044067e-01" purity="2.7556195855140686e-01" nType="0">
              <Node pos="l" depth="4" NCoef="0" IVar="-1" Cut="0.0000000000000000e+00" cType="1" res="-6.8077985197305679e-03" rms="4.3668398261070251e-01" purity="2.7157682180404663e-01" nType="-99"/>
              <Node pos="r" depth="4" NCoef="0" IVar="5" Cut="5.0000000000000000e+00" cType="1" res="-2.8009587898850441e-02" rms="4.0633603930473328e-01" purity="2.7760955691337585e-01" nType="0">
                <Node pos="l" depth="5" NCoef="0" IVar="-1" Cut="0.0000000000000000e+00" cType="1" res="-2.1493923850357533e-03" rms="4.5895308256149292e-01" purity="3.0739536881446838e-01" nType="-99"/>
                <Node pos="r" depth="5" NCoef="0" IVar="-1" Cut="0.0000000000000000e+00" cType="1" res="-7.2506470605731010e-03" rms="4.1887384653091431e-01" purity="2.3658707737922668e-01" nType="-99"/>
              </Node>
            </Node>
            <Node pos="r" depth="3" NCoef="0" IVar="5" Cut="3.0000000000000000e+00" cType="1" res="5.1281228661537170e-03" rms="4.1440567374229431e-01" purity="4.8076650500297546e-01" nType="0">
              <Node pos="l" depth="4" NCoef="0" IVar="-1" Cut="0.0000000000000000e+00" cType="1" res="-3.0218565370887518e-03" rms="4.9223819375038147e-01" purity="4.5011389255523682e-01" nType="-99"/>
              <Node pos="r" depth="4" NCoef="0" IVar="2" Cut="1.3330813598632812e+02" cType="1" res="8.1855161115527153e-03" rms="4.9375349283218384e-01" purity="4.8592758178710938e-01" nType="0">
                <Node pos="l" depth="5" NCoef="0" IVar="1" Cut="-4.6561458148062229e-03" cType="1" res="2.4983689188957214e-02" rms="4.9390712380409241e-01" purity="5.1979500055313110e-01" nType="0">
                  <Node pos="l" depth="6" NCoef="0" IVar="-1" Cut="0.0000000000000000e+00" cType="1" res="4.9099130555987358e-03" rms="4.9157881736755371e-01" purity="5.7882022857666016e-01" nType="-99"/>
                  <Node pos="r" depth="6" NCoef="0" IVar="-1" Cut="0.0000000000000000e+00" cType="1" res="-2.1498271962627769e-04" rms="4.9396890401840210e-01" purity="4.7386080026626587e-01" nType="-99"/>
                </Node>
                <Node pos="r" depth="5" NCoef="0" IVar="4" Cut="1.0852126032114029e-01" cType="1" res="-4.3431795202195644e-03" rms="4.9326658248901367e-01" purity="4.6066808700561523e-01" nType="0">
                  <Node pos="l" depth="6" NCoef="0" IVar="3" Cut="6.6000980138778687e-01" cType="1" res="-1.5218195505440235e-02" rms="4.9248841404914856e-01" purity="4.5635429024696350e-01" nType="0">
                    <Node pos="l" depth="7" NCoef="0" IVar="-1" Cut="0.0000000000000000e+00" cType="1" res="-2.5215125642716885e-03" rms="4.8861953616142273e-01" purity="4.1508865356445312e-01" nType="-99"/>
                    <Node pos="r" depth="7" NCoef="0" IVar="-1" Cut="0.0000000000000000e+00" cType="1" res="-3.9848964661359787e-04" rms="4.9579775333404541e-01" purity="4.9453765153884888e-01" nType="-99"/>
                  </Node>
                  <Node pos="r" depth="6" NCoef="0" IVar="-1" Cut="0.0000000000000000e+00" cType="1" res="1.3448756653815508e-03" rms="4.9405491352081299e-01" purity="4.6831133961677551e-01" nType="-99"/>
                </Node>
              </Node>
            </Node>
          </Node>
          <Node pos="r" depth="2" NCoef="0" IVar="3" Cut="6.0249531269073486e-01" cType="1" res="-7.4105083942413330e-02" rms="3.3160343766212463e-01" purity="1.4437094330787659e-01" nType="0">
            <Node pos="l" depth="3" NCoef="0" IVar="4" Cut="6.4276225864887238e-02" cType="1" res="-7.9802885651588440e-02" rms="3.0326902866363525e-01" purity="1.1100281029939651e-01" nType="0">
              <Node pos="l" depth="4" NCoef="0" IVar="2" Cut="7.3653450012207031e+01" cType="1" res="-9.3957401812076569e-02" rms="2.8453531861305237e-01" purity="9.6550494432449341e-02" nType="0">
                <Node pos="l" depth="5" NCoef="0" IVar="1" Cut="5.9691643714904785e-01" cType="1" res="-7.8484259545803070e-02" rms="3.1641691923141479e-01" purity="1.2386513501405716e-01" nType="0">
                  <Node pos="l" depth="6" NCoef="0" IVar="-1" Cut="0.0000000000000000e+00" cType="1" res="-1.0218912735581398e-02" rms="3.5350880026817322e-01" purity="1.6056056320667267e-01" nType="-99"/>
                  <Node pos="r" depth="6" NCoef="0" IVar="-1" Cut="0.0000000000000000e+00" cType="1" res="-2.0060662180185318e-02" rms="2.5101542472839355e-01" purity="6.9807611405849457e-02" nType="-99"/>
                </Node>
                <Node pos="r" depth="5" NCoef="0" IVar="3" Cut="5.0891697406768799e-01" cType="1" res="-1.0439991950988770e-01" rms="2.6030650734901428e-01" purity="7.8116379678249359e-02" nType="0">
                  <Node pos="l" depth="6" NCoef="0" IVar="2" Cut="1.5262892150878906e+02" cType="1" res="-1.0029342770576477e-01" rms="2.1246145665645599e-01" purity="4.8908807337284088e-02" nType="0">
                    <Node pos="l" depth="7" NCoef="0" IVar="-1" Cut="0.0000000000000000e+00" cType="1" res="-2.0504262298345566e-02" rms="2.2810328006744385e-01" purity="5.7048588991165161e-02" nType="-99"/>
                    <Node pos="r" depth="7" NCoef="0" IVar="-1" Cut="0.0000000000000000e+00" cType="1" res="-2.3320225998759270e-02" rms="1.8946719169616699e-01" purity="3.8148429244756699e-02" nType="-99"/>
                  </Node>
                  <Node pos="r" depth="6" NCoef="0" IVar="-1" Cut="0.0000000000000000e+00" cType="1" res="-1.4741495251655579e-02" rms="3.7119677662849426e-01" purity="1.6881707310676575e-01" nType="-99"/>
                </Node>
              </Node>
              <Node pos="r" depth="4" NCoef="0" IVar="3" Cut="4.8814278841018677e-01" cType="1" res="-7.4411556124687195e-02" rms="3.0993711948394775e-01" purity="1.1650758236646652e-01" nType="0">
                <Node pos="l" depth="5" NCoef="0" IVar="4" Cut="2.0395274460315704e-01" cType="1" res="-7.9966612160205841e-02" rms="2.7785059809684753e-01" purity="8.7731398642063141e-02" nType="0">
                  <Node pos="l" depth="6" NCoef="0" IVar="2" Cut="1.4431178283691406e+02" cType="1" res="-8.3782717585563660e-02" rms="2.6510882377624512e-01" purity="7.9151600599288940e-02" nType="0">
                    <Node pos="l" depth="7" NCoef="0" IVar="-1" Cut="0.0000000000000000e+00" cType="1" res="-1.3686744496226311e-02" rms="2.9485493898391724e-01" purity="1.0041077435016632e-01" nType="-99"/>
                    <Node pos="r" depth="7" NCoef="0" IVar="-1" Cut="0.0000000000000000e+00" cType="1" res="-1.8424598500132561e-02" rms="2.5673064589500427e-01" purity="7.3720894753932953e-02" nType="-99"/>
                  </Node>
                  <Node pos="r" depth="6" NCoef="0" IVar="2" Cut="7.2419201660156250e+02" cType="1" res="-5.7838093489408493e-02" rms="3.4167793393135071e-01" purity="1.3748323917388916e-01" nType="0">
                    <Node pos="l" depth="7" NCoef="0" IVar="-1" Cut="0.0000000000000000e+00" cType="1" res="-9.1260652989149094e-03" rms="3.4865704178810120e-01" purity="1.4438100159168243e-01" nType="-99"/>
                    <Node pos="r" depth="7" NCoef="0" IVar="-1" Cut="0.0000000000000000e+00" cType="1" res="-1.1666824109852314e-02" rms="3.3189547061920166e-01" purity="1.2828455865383148e-01" nType="-99"/>
                  </Node>
                </Node>
                <Node pos="r" depth="5" NCoef="0" IVar="2" Cut="1.8525758361816406e+02" cType="1" res="-4.9208614975214005e-02" rms="4.2526790499687195e-01" purity="2.4706335365772247e-01" nType="0">
                  <Node pos="l" depth="6" NCoef="0" IVar="-1" Cut="0.0000000000000000e+00" cType="1" res="-2.2753279190510511e-03" rms="4.4773998856544495e-01" purity="2.9125893115997314e-01" nType="-99"/>
                  <Node pos="r" depth="6" NCoef="0" IVar="2" Cut="3.2194308471679688e+02" cType="1" res="-6.7007146775722504e-02" rms="4.0969765186309814e-01" purity="2.1963962912559509e-01" nType="0">
                    <Node pos="l" depth="7" NCoef="0" IVar="-1" Cut="0.0000000000000000e+00" cType="1" res="-7.1101980283856392e-03" rms="4.1689720749855042e-01" purity="2.2985287010669708e-01" nType="-99"/>
                    <Node pos="r" depth="7" NCoef="0" IVar="-1" Cut="0.0000000000000000e+00" cType="1" res="-9.3787396326661110e-03" rms="4.0295144915580750e-01" purity="2.1051265299320221e-01" nType="-99"/>
                  </Node>
                </Node>
              </Node>
            </Node>
            <Node pos="r" depth="3" NCoef="0" IVar="1" Cut="1.1149652302265167e-01" cType="1" res="-3.7619054317474365e-02" rms="4.7287747263908386e-01" purity="3.5804459452629089e-01" nType="0">
              <Node pos="l" depth="4" NCoef="0" IVar="4" Cut="6.2541820108890533e-02" cType="1" res="3.2044676481746137e-04" rms="4.8838207125663757e-01" purity="4.1469702124595642e-01" nType="0">
                <Node pos="l" depth="5" NCoef="0" IVar="-1" Cut="0.0000000000000000e+00" cType="1" res="-1.3285024324432015e-03" rms="4.8577436804771423e-01" purity="3.9861094951629639e-01" nType="-99"/>
                <Node pos="r" depth="5" NCoef="0" IVar="-1" Cut="0.0000000000000000e+00" cType="1" res="1.2972522526979446e-03" rms="4.9046134948730469e-01" purity="4.3015953898429871e-01" nType="-99"/>
              </Node>
              <Node pos="r" depth="4" NCoef="0" IVar="1" Cut="4.1493943333625793e-01" cType="1" res="-7.6698318123817444e-02" rms="4.5304703712463379e-01" purity="2.9969024658203125e-01" nType="0">
                <Node pos="l" depth="5" NCoef="0" IVar="-1" Cut="0.0000000000000000e+00" cType="1" res="-4.9443491734564304e-03" rms="4.7104123234748840e-01" purity="3.4143698215484619e-01" nType="-99"/>
                <Node pos="r" depth="5" NCoef="0" IVar="-1" Cut="0.0000000000000000e+00" cType="1" res="-1.0753422975540161e-02" rms="4.3314653635025024e-01" purity="2.5865143537521362e-01" nType="-99"/>
              </Node>
            </Node>
          </Node>
        </Node>
        <Node pos="r" depth="1" NCoef="0" IVar="5" Cut="2.0000000000000000e+00" cType="1" res="6.9987162947654724e-02" rms="4.3808323144912720e-01" purity="7.1681314706802368e-01" nType="0">
          <Node pos="l" depth="2" NCoef="0" IVar="1" Cut="2.9656153917312622e-01" cType="1" res="9.0470828115940094e-02" rms="4.1311308741569519e-01" purity="7.7370482683181763e-01" nType="0">
            <Node pos="l" depth="3" NCoef="0" IVar="3" Cut="9.9964457750320435e-01" cType="1" res="9.8772220313549042e-02" rms="4.0182974934577942e-01" purity="7.9411959648132324e-01" nType="0">
              <Node pos="l" depth="4" NCoef="0" IVar="3" Cut="9.6328812837600708e-01" cType="1" res="9.2433691024780273e-02" rms="4.0849792957305908e-01" purity="7.8498274087905884e-01" nType="0">
                <Node pos="l" depth="5" NCoef="0" IVar="-1" Cut="0.0000000000000000e+00" cType="1" res="7.2163213044404984e-03" rms="4.2808485031127930e-01" purity="7.5526565313339233e-01" nType="-99"/>
                <Node pos="r" depth="5" NCoef="0" IVar="3" Cut="9.9847173690795898e-01" cType="1" res="9.4264760613441467e-02" rms="4.0504717826843262e-01" purity="7.9003202915191650e-01" nType="0">
                  <Node pos="l" depth="6" NCoef="0" IVar="3" Cut="9.8485320806503296e-01" cType="1" res="9.2272706329822540e-02" rms="4.0678289532661438e-01" purity="7.8761613368988037e-01" nType="0">
                    <Node pos="l" depth="7" NCoef="0" IVar="-1" Cut="0.0000000000000000e+00" cType="1" res="8.7063359096646309e-03" rms="4.0706145763397217e-01" purity="7.8825581073760986e-01" nType="-99"/>
                    <Node pos="r" depth="7" NCoef="0" IVar="-1" Cut="0.0000000000000000e+00" cType="1" res="8.5080377757549286e-03" rms="4.0667131543159485e-01" purity="7.8740352392196655e-01" nType="-99"/>
                  </Node>
                  <Node pos="r" depth="6" NCoef="0" IVar="-1" Cut="0.0000000000000000e+00" cType="1" res="9.7263641655445099e-03" rms="3.9239895343780518e-01" purity="8.0694442987442017e-01" nType="-99"/>
                </Node>
              </Node>
              <Node pos="r" depth="4" NCoef="0" IVar="3" Cut="1.0308079719543457e+00" cType="1" res="1.0628098249435425e-01" rms="3.9365234971046448e-01" purity="8.0494344234466553e-01" nType="0">
                <Node pos="l" depth="5" NCoef="0" IVar="3" Cut="1.0006505250930786e+00" cType="1" res="1.1035935580730438e-01" rms="3.9055621623992920e-01" purity="8.0949825048446655e-01" nType="0">
                  <Node pos="l" depth="6" NCoef="0" IVar="-1" Cut="0.0000000000000000e+00" cType="1" res="8.6425514891743660e-03" rms="4.0007761120796204e-01" purity="7.9448568820953369e-01" nType="-99"/>
                  <Node pos="r" depth="6" NCoef="0" IVar="3" Cut="1.0152417421340942e+00" cType="1" res="1.1285727471113205e-01" rms="3.8890656828880310e-01" purity="8.1197464466094971e-01" nType="0">
                    <Node pos="l" depth="7" NCoef="0" IVar="-1" Cut="0.0000000000000000e+00" cType="1" res="1.0072108358144760e-02" rms="3.8958424329757690e-01" purity="8.1101965904235840e-01" nType="-99"/>
                    <Node pos="r" depth="7" NCoef="0" IVar="-1" Cut="0.0000000000000000e+00" cType="1" res="1.0348439216613770e-02" rms="3.8671132922172546e-01" purity="8.1502872705459595e-01" nType="-99"/>
                  </Node>
                </Node>
                <Node pos="r" depth="5" NCoef="0" IVar="-1" Cut="0.0000000000000000e+00" cType="1" res="7.8225815668702126e-03" rms="4.0698999166488647e-01" purity="7.8411579132080078e-01" nType="-99"/>
              </Node>
            </Node>
            <Node pos="r" depth="3" NCoef="0" IVar="3" Cut="9.9015414714813232e-01" cType="1" res="6.0110125690698624e-02" rms="4.5068675279617310e-01" purity="6.9904142618179321e-01" nType="0">
              <Node pos="l" depth="4" NCoef="0" IVar="-1" Cut="0.0000000000000000e+00" cType="1" res="-7.0955655246507376e-05" rms="4.7684782743453979e-01" purity="6.1912363767623901e-01" nType="-99"/>
              <Node pos="r" depth="4" NCoef="0" IVar="1" Cut="9.2179936170578003e-01" cType="1" res="7.1913793683052063e-02" rms="4.4447708129882812e-01" purity="7.1452099084854126e-01" nType="0">
                <Node pos="l" depth="5" NCoef="0" IVar="1" Cut="6.1915504932403564e-01" cType="1" res="7.8529499471187592e-02" rms="4.3337285518646240e-01" purity="7.4009931087493896e-01" nType="0">
                  <Node pos="l" depth="6" NCoef="0" IVar="1" Cut="3.7981164455413818e-01" cType="1" res="8.2340270280838013e-02" rms="4.2580303549766541e-01" purity="7.5436413288116455e-01" nType="0">
                    <Node pos="l" depth="7" NCoef="0" IVar="-1" Cut="0.0000000000000000e+00" cType="1" res="6.8086730316281319e-03" rms="4.2368298768997192e-01" purity="7.5833749771118164e-01" nType="-99"/>
                    <Node pos="r" depth="7" NCoef="0" IVar="-1" Cut="0.0000000000000000e+00" cType="1" res="7.3256846517324448e-03" rms="4.2696836590766907e-01" purity="7.5209975242614746e-01" nType="-99"/>
                  </Node>
                  <Node pos="r" depth="6" NCoef="0" IVar="-1" Cut="0.0000000000000000e+00" cType="1" res="5.5014640092849731e-03" rms="4.5487555861473083e-01" purity="6.9783389568328857e-01" nType="-99"/>
                </Node>
                <Node pos="r" depth="5" NCoef="0" IVar="-1" Cut="0.0000000000000000e+00" cType="1" res="3.9920425042510033e-03" rms="4.7993168234825134e-01" purity="6.2677502632141113e-01" nType="-99"/>
              </Node>
            </Node>
          </Node>
          <Node pos="r" depth="2" NCoef="0" IVar="0" Cut="2.8460496664047241e-01" cType="1" res="4.0693443268537521e-02" rms="4.6967384219169617e-01" purity="6.4079546928405762e-01" nType="0">
            <Node pos="l" depth="3" NCoef="0" IVar="1" Cut="4.5278894901275635e-01" cType="1" res="5.1209036260843277e-02" rms="4.6498715877532959e-01" purity="6.6770845651626587e-01" nType="0">
              <Node pos="l" depth="4" NCoef="0" IVar="2" Cut="1.6662435913085938e+02" cType="1" res="5.8380872011184692e-02" rms="4.5994338393211365e-01" purity="6.8747699260711670e-01" nType="0">
                <Node pos="l" depth="5" NCoef="0" IVar="3" Cut="8.3084398508071899e-01" cType="1" res="6.5192312002182007e-02" rms="4.5525887608528137e-01" purity="6.9959616661071777e-01" nType="0">
                  <Node pos="l" depth="6" NCoef="0" IVar="4" Cut="4.4591169804334641e-02" cType="1" res="5.2393697202205658e-02" rms="4.7551372647285461e-01" purity="6.4920216798782349e-01" nType="0">
                    <Node pos="l" depth="7" NCoef="0" IVar="-1" Cut="0.0000000000000000e+00" cType="1" res="2.7634555008262396e-03" rms="4.8242020606994629e-01" purity="6.2524640560150146e-01" nType="-99"/>
                    <Node pos="r" depth="7" NCoef="0" IVar="-1" Cut="0.0000000000000000e+00" cType="1" res="5.9762890450656414e-03" rms="4.6664550900459290e-01" purity="6.7587584257125854e-01" nType="-99"/>
                  </Node>
                  <Node pos="r" depth="6" NCoef="0" IVar="4" Cut="2.6654448360204697e-02" cType="1" res="7.4366882443428040e-02" rms="4.3993711471557617e-01" purity="7.3572057485580444e-01" nType="0">
                    <Node pos="l" depth="7" NCoef="0" IVar="-1" Cut="0.0000000000000000e+00" cType="1" res="6.2184021808207035e-03" rms="4.4481953978538513e-01" purity="7.2596788406372070e-01" nType="-99"/>
                    <Node pos="r" depth="7" NCoef="0" IVar="-1" Cut="0.0000000000000000e+00" cType="1" res="7.2215488180518150e-03" rms="4.3691682815551758e-01" purity="7.4149113893508911e-01" nType="-99"/>
                  </Node>
                </Node>
                <Node pos="r" depth="5" NCoef="0" IVar="4" Cut="6.3883468508720398e-02" cType="1" res="3.3078458160161972e-02" rms="4.7608962655067444e-01" purity="6.4245784282684326e-01" nType="0">
                  <Node pos="l" depth="6" NCoef="0" IVar="-1" Cut="0.0000000000000000e+00" cType="1" res="4.4199060648679733e-03" rms="4.6663224697113037e-01" purity="6.7175573110580444e-01" nType="-99"/>
                  <Node pos="r" depth="6" NCoef="0" IVar="-1" Cut="0.0000000000000000e+00" cType="1" res="1.3841632753610611e-03" rms="4.8737168312072754e-01" purity="6.0496670007705688e-01" nType="-99"/>
                </Node>
              </Node>
              <Node pos="r" depth="4" NCoef="0" IVar="2" Cut="9.2242759704589844e+01" cType="1" res="7.8401919454336166e-03" rms="4.9217048287391663e-01" purity="5.4816603660583496e-01" nType="0">
                <Node pos="l" depth="5" NCoef="0" IVar="-1" Cut="0.0000000000000000e+00" cType="1" res="-1.0403560008853674e-03" rms="4.9291360378265381e-01" purity="5.3079569339752197e-01" nType="-99"/>
                <Node pos="r" depth="5" NCoef="0" IVar="-1" Cut="0.0000000000000000e+00" cType="1" res="1.9062957726418972e-03" rms="4.9113601446151733e-01" purity="5.6050944328308105e-01" nType="-99"/>
              </Node>
            </Node>
            <Node pos="r" depth="3" NCoef="0" IVar="1" Cut="1.7735844850540161e-01" cType="1" res="-2.4472327902913094e-02" rms="4.9275502562522888e-01" purity="4.7401404380798340e-01" nType="0">
              <Node pos="l" depth="4" NCoef="0" IVar="-1" Cut="0.0000000000000000e+00" cType="1" res="1.1773153673857450e-03" rms="4.9519270658493042e-01" purity="5.2621728181838989e-01" nType="-99"/>
              <Node pos="r" depth="4" NCoef="0" IVar="-1" Cut="0.0000000000000000e+00" cType="1" res="-6.9820904172956944e-03" rms="4.8434323072433472e-01" purity="4.0157249569892883e-01" nType="-99"/>
            </Node>
          </Node>
        </Node>
      </Node>
    </BinaryTree>
    <BinaryTree type="DecisionTree" boostWeight="1.0000000000000000e+00" itree="30">
      <Node pos="s" depth="0" NCoef="0" IVar="3" Cut="7.1418929100036621e-01" cType="1" res="1.4376415871083736e-02" rms="4.1733133792877197e-01" purity="4.9979820847511292e-01" nType="0">
        <Node pos="l" depth="1" NCoef="0" IVar="3" Cut="6.0078972578048706e-01" cType="1" res="-5.5105496197938919e-02" rms="3.7568795680999756e-01" purity="2.1206510066986084e-01" nType="0">
          <Node pos="l" depth="2" NCoef="0" IVar="0" Cut="3.2215213775634766e-01" cType="1" res="-6.8186469376087189e-02" rms="3.3449906110763550e-01" purity="1.4468294382095337e-01" nType="0">
            <Node pos="l" depth="3" NCoef="0" IVar="1" Cut="2.8466650843620300e-01" cType="1" res="-4.2516615241765976e-02" rms="4.4935607910156250e-01" purity="2.9943728446960449e-01" nType="0">
              <Node pos="l" depth="4" NCoef="0" IVar="2" Cut="4.1230892944335938e+02" cType="1" res="-3.0217723920941353e-02" rms="4.5900094509124756e-01" purity="3.2313787937164307e-01" nType="0">
                <Node pos="l" depth="5" NCoef="0" IVar="3" Cut="5.0650715827941895e-01" cType="1" res="-1.5842687338590622e-02" rms="4.7043722867965698e-01" purity="3.5677531361579895e-01" nType="0">
                  <Node pos="l" depth="6" NCoef="0" IVar="-1" Cut="0.0000000000000000e+00" cType="1" res="-4.2154663242399693e-03" rms="4.4074437022209167e-01" purity="2.7131456136703491e-01" nType="-99"/>
                  <Node pos="r" depth="6" NCoef="0" IVar="-1" Cut="0.0000000000000000e+00" cType="1" res="9.2735517682740465e-06" rms="4.9150666594505310e-01" purity="4.2263975739479065e-01" nType="-99"/>
                </Node>
                <Node pos="r" depth="5" NCoef="0" IVar="-1" Cut="0.0000000000000000e+00" cType="1" res="-5.9214164502918720e-03" rms="4.4015952944755554e-01" purity="2.7202850580215454e-01" nType="-99"/>
              </Node>
              <Node pos="r" depth="4" NCoef="0" IVar="-1" Cut="0.0000000000000000e+00" cType="1" res="-8.5631934925913811e-03" rms="4.2297846078872681e-01" purity="2.4071526527404785e-01" nType="-99"/>
            </Node>
            <Node pos="r" depth="3" NCoef="0" IVar="3" Cut="3.7253767251968384e-01" cType="1" res="-7.3420614004135132e-02" rms="3.0556550621986389e-01" purity="1.1312817037105560e-01" nType="0">
              <Node pos="l" depth="4" NCoef="0" IVar="4" Cut="2.3096281290054321e-01" cType="1" res="-8.1183157861232758e-02" rms="2.3778583109378815e-01" purity="6.2073692679405212e-02" nType="0">
                <Node pos="l" depth="5" NCoef="0" IVar="5" Cut="4.0000000000000000e+00" cType="1" res="-8.4224499762058258e-02" rms="2.1826596558094025e-01" purity="5.2245832979679108e-02" nType="0">
                  <Node pos="l" depth="6" NCoef="0" IVar="-1" Cut="0.0000000000000000e+00" cType="1" res="-1.2602444738149643e-02" rms="2.9047569632530212e-01" purity="9.3089416623115540e-02" nType="-99"/>
                  <Node pos="r" depth="6" NCoef="0" IVar="3" Cut="3.1434011459350586e-01" cType="1" res="-8.8361278176307678e-02" rms="2.1032944321632385e-01" purity="4.7384005039930344e-02" nType="0">
                    <Node pos="l" depth="7" NCoef="0" IVar="-1" Cut="0.0000000000000000e+00" cType="1" res="-2.4539738893508911e-02" rms="1.8954649567604065e-01" purity="3.7695389240980148e-02" nType="-99"/>
                    <Node pos="r" depth="7" NCoef="0" IVar="-1" Cut="0.0000000000000000e+00" cType="1" res="-1.7152994871139526e-02" rms="2.5341325998306274e-01" purity="7.0868179202079773e-02" nType="-99"/>
                  </Node>
                </Node>
                <Node pos="r" depth="5" NCoef="0" IVar="-1" Cut="0.0000000000000000e+00" cType="1" res="-8.8797351345419884e-03" rms="3.4897014498710632e-01" purity="1.4422588050365448e-01" nType="-99"/>
              </Node>
              <Node pos="r" depth="4" NCoef="0" IVar="4" Cut="1.1337307095527649e-01" cType="1" res="-6.5107293426990509e-02" rms="3.6424979567527771e-01" purity="1.6780516505241394e-01" nType="0">
                <Node pos="l" depth="5" NCoef="0" IVar="2" Cut="1.3023240661621094e+02" cType="1" res="-7.2925545275211334e-02" rms="3.5401004552841187e-01" purity="1.5768727660179138e-01" nType="0">
                  <Node pos="l" depth="6" NCoef="0" IVar="4" Cut="4.7740735113620758e-02" cType="1" res="-5.6524913758039474e-02" rms="3.7727758288383484e-01" purity="1.8558989465236664e-01" nType="0">
                    <Node pos="l" depth="7" NCoef="0" IVar="-1" Cut="0.0000000000000000e+00" cType="1" res="-1.0906173847615719e-02" rms="3.5775515437126160e-01" purity="1.6077791154384613e-01" nType="-99"/>
                    <Node pos="r" depth="7" NCoef="0" IVar="-1" Cut="0.0000000000000000e+00" cType="1" res="-5.4726204834878445e-03" rms="3.9383369684219360e-01" purity="2.0869597792625427e-01" nType="-99"/>
                  </Node>
                  <Node pos="r" depth="6" NCoef="0" IVar="1" Cut="5.9166121482849121e-01" cType="1" res="-8.6888700723648071e-02" rms="3.3228403329849243e-01" purity="1.3393159210681915e-01" nType="0">
                    <Node pos="l" depth="7" NCoef="0" IVar="-1" Cut="0.0000000000000000e+00" cType="1" res="-1.1827650479972363e-02" rms="3.4812206029891968e-01" purity="1.4931347966194153e-01" nType="-99"/>
                    <Node pos="r" depth="7" NCoef="0" IVar="-1" Cut="0.0000000000000000e+00" cType="1" res="-1.9240396097302437e-02" rms="2.7171084284782410e-01" purity="8.2678094506263733e-02" nType="-99"/>
                  </Node>
                </Node>
                <Node pos="r" depth="5" NCoef="0" IVar="2" Cut="2.2198023986816406e+02" cType="1" res="-4.3535191565752029e-02" rms="3.9030408859252930e-01" purity="1.9572237133979797e-01" nType="0">
                  <Node pos="l" depth="6" NCoef="0" IVar="-1" Cut="0.0000000000000000e+00" cType="1" res="-4.4227100443094969e-04" rms="4.2616912722587585e-01" purity="2.4899409711360931e-01" nType="-99"/>
                  <Node pos="r" depth="6" NCoef="0" IVar="3" Cut="4.6072846651077271e-01" cType="1" res="-6.0772225260734558e-02" rms="3.7253850698471069e-01" purity="1.7286820709705353e-01" nType="0">
                    <Node pos="l" depth="7" NCoef="0" IVar="-1" Cut="0.0000000000000000e+00" cType="1" res="-1.2059229426085949e-02" rms="3.3524665236473083e-01" purity="1.3062472641468048e-01" nType="-99"/>
                    <Node pos="r" depth="7" NCoef="0" IVar="-1" Cut="0.0000000000000000e+00" cType="1" res="-5.3668092004954815e-03" rms="4.1931721568107605e-01" purity="2.3306615650653839e-01" nType="-99"/>
                  </Node>
                </Node>
              </Node>
            </Node>
          </Node>
          <Node pos="r" depth="2" NCoef="0" IVar="0" Cut="2.4861520528793335e-01" cType="1" res="-1.1693432927131653e-02" rms="4.8555895686149597e-01" purity="4.3568754196166992e-01" nType="0">
            <Node pos="l" depth="3" NCoef="0" IVar="1" Cut="-5.0624929368495941e-02" cType="1" res="1.1745939031243324e-02" rms="4.9534124135971069e-01" purity="5.1135742664337158e-01" nType="0">
              <Node pos="l" depth="4" NCoef="0" IVar="-1" Cut="0.0000000000000000e+00" cType="1" res="3.0049937777221203e-03" rms="4.9396210908889771e-01" purity="5.5884337425231934e-01" nType="-99"/>
              <Node pos="r" depth="4" NCoef="0" IVar="4" Cut="7.7961109578609467e-02" cType="1" res="-1.1948895407840610e-03" rms="4.9559113383293152e-01" purity="4.8599660396575928e-01" nType="0">
                <Node pos="l" depth="5" NCoef="0" IVar="-1" Cut="0.0000000000000000e+00" cType="1" res="-1.4987246831879020e-03" rms="4.9584352970123291e-01" purity="4.7865796089172363e-01" nType="-99"/>
                <Node pos="r" depth="5" NCoef="0" IVar="-1" Cut="0.0000000000000000e+00" cType="1" res="8.5905054584145546e-04" rms="4.9510577321052551e-01" purity="4.9112489819526672e-01" nType="-99"/>
              </Node>
            </Node>
            <Node pos="r" depth="3" NCoef="0" IVar="4" Cut="5.1507201045751572e-02" cType="1" res="-3.1552426517009735e-02" rms="4.7621205449104309e-01" purity="3.7157633900642395e-01" nType="0">
              <Node pos="l" depth="4" NCoef="0" IVar="2" Cut="6.9879333496093750e+01" cType="1" res="-4.9800444394350052e-02" rms="4.7055354714393616e-01" purity="3.5272961854934692e-01" nType="0">
                <Node pos="l" depth="5" NCoef="0" IVar="-1" Cut="0.0000000000000000e+00" cType="1" res="-2.6628996711224318e-03" rms="4.7863751649856567e-01" purity="3.8269746303558350e-01" nType="-99"/>
                <Node pos="r" depth="5" NCoef="0" IVar="-1" Cut="0.0000000000000000e+00" cType="1" res="-7.1518304757773876e-03" rms="4.6154242753982544e-01" purity="3.2348465919494629e-01" nType="-99"/>
              </Node>
              <Node pos="r" depth="4" NCoef="0" IVar="2" Cut="2.2373951721191406e+02" cType="1" res="-2.0257204771041870e-02" rms="4.7933316230773926e-01" purity="3.8324216008186340e-01" nType="0">
                <Node pos="l" depth="5" NCoef="0" IVar="-1" Cut="0.0000000000000000e+00" cType="1" res="1.0331141675123945e-04" rms="4.8658508062362671e-01" purity="4.1586709022521973e-01" nType="-99"/>
                <Node pos="r" depth="5" NCoef="0" IVar="-1" Cut="0.0000000000000000e+00" cType="1" res="-5.4160910658538342e-03" rms="4.6610552072525024e-01" purity="3.3325827121734619e-01" nType="-99"/>
              </Node>
            </Node>
          </Node>
        </Node>
        <Node pos="r" depth="1" NCoef="0" IVar="0" Cut="6.1320698261260986e-01" cType="1" res="6.6696397960186005e-02" rms="4.3893039226531982e-01" purity="7.1646159887313843e-01" nType="0">
          <Node pos="l" depth="2" NCoef="0" IVar="3" Cut="8.7912970781326294e-01" cType="1" res="7.0418961346149445e-02" rms="4.3715503811836243e-01" purity="7.2463423013687134e-01" nType="0">
            <Node pos="l" depth="3" NCoef="0" IVar="1" Cut="7.6617306470870972e-01" cType="1" res="3.9417136460542679e-02" rms="4.7583931684494019e-01" purity="6.3029634952545166e-01" nType="0">
              <Node pos="l" depth="4" NCoef="0" IVar="3" Cut="7.6207739114761353e-01" cType="1" res="4.4532135128974915e-02" rms="4.7400665283203125e-01" purity="6.4350414276123047e-01" nType="0">
                <Node pos="l" depth="5" NCoef="0" IVar="1" Cut="1.9865019619464874e-01" cType="1" res="1.5774022787809372e-02" rms="4.9240979552268982e-01" purity="5.6448054313659668e-01" nType="0">
                  <Node pos="l" depth="6" NCoef="0" IVar="5" Cut="3.0000000000000000e+00" cType="1" res="1.7520792782306671e-02" rms="3.6871737241744995e-01" purity="5.8624857664108276e-01" nType="0">
                    <Node pos="l" depth="7" NCoef="0" IVar="-1" Cut="0.0000000000000000e+00" cType="1" res="1.4616865664720535e-03" rms="4.9645927548408508e-01" purity="5.5476278066635132e-01" nType="-99"/>
                    <Node pos="r" depth="7" NCoef="0" IVar="-1" Cut="0.0000000000000000e+00" cType="1" res="3.0706746038049459e-03" rms="4.8553201556205750e-01" purity="6.1027312278747559e-01" nType="-99"/>
                  </Node>
                  <Node pos="r" depth="6" NCoef="0" IVar="-1" Cut="0.0000000000000000e+00" cType="1" res="-1.4535308582708240e-03" rms="4.9659836292266846e-01" purity="5.0392371416091919e-01" nType="-99"/>
                </Node>
                <Node pos="r" depth="5" NCoef="0" IVar="4" Cut="3.6112140864133835e-02" cType="1" res="5.3562391549348831e-02" rms="4.6771401166915894e-01" purity="6.6831809282302856e-01" nType="0">
                  <Node pos="l" depth="6" NCoef="0" IVar="2" Cut="6.8403282165527344e+01" cType="1" res="4.0674395859241486e-02" rms="4.7037720680236816e-01" purity="6.5958172082901001e-01" nType="0">
                    <Node pos="l" depth="7" NCoef="0" IVar="-1" Cut="0.0000000000000000e+00" cType="1" res="4.3703857809305191e-03" rms="4.6686390042304993e-01" purity="6.7116057872772217e-01" nType="-99"/>
                    <Node pos="r" depth="7" NCoef="0" IVar="-1" Cut="0.0000000000000000e+00" cType="1" res="1.6946811228990555e-03" rms="4.7733649611473083e-01" purity="6.3385123014450073e-01" nType="-99"/>
                  </Node>
                  <Node pos="r" depth="6" NCoef="0" IVar="2" Cut="1.0656647491455078e+02" cType="1" res="6.1501614749431610e-02" rms="4.6588847041130066e-01" purity="6.7369991540908813e-01" nType="0">
                    <Node pos="l" depth="7" NCoef="0" IVar="-1" Cut="0.0000000000000000e+00" cType="1" res="6.2255049124360085e-03" rms="4.5647203922271729e-01" purity="6.9810676574707031e-01" nType="-99"/>
                    <Node pos="r" depth="7" NCoef="0" IVar="-1" Cut="0.0000000000000000e+00" cType="1" res="4.3195071630179882e-03" rms="4.7229692339897156e-01" purity="6.5575981140136719e-01" nType="-99"/>
                  </Node>
                </Node>
              </Node>
              <Node pos="r" depth="4" NCoef="0" IVar="-1" Cut="0.0000000000000000e+00" cType="1" res="-2.1106211934238672e-03" rms="4.9375995993614197e-01" purity="4.6480610966682434e-01" nType="-99"/>
            </Node>
            <Node pos="r" depth="3" NCoef="0" IVar="1" Cut="9.4625180959701538e-01" cType="1" res="8.6668372154235840e-02" rms="4.1451749205589294e-01" purity="7.7408069372177124e-01" nType="0">
              <Node pos="l" depth="4" NCoef="0" IVar="1" Cut="1.0886247456073761e-01" cType="1" res="8.9549593627452850e-02" rms="4.1047191619873047e-01" purity="7.8233009576797485e-01" nType="0">
                <Node pos="l" depth="5" NCoef="0" IVar="3" Cut="9.8687350749969482e-01" cType="1" res="9.7276106476783752e-02" rms="3.9953693747520447e-01" purity="7.9910600185394287e-01" nType="0">
                  <Node pos="l" depth="6" NCoef="0" IVar="3" Cut="8.9998388290405273e-01" cType="1" res="8.5131824016571045e-02" rms="4.1687077283859253e-01" purity="7.7526724338531494e-01" nType="0">
                    <Node pos="l" depth="7" NCoef="0" IVar="-1" Cut="0.0000000000000000e+00" cType="1" res="7.0464238524436951e-03" rms="4.3018546700477600e-01" purity="7.5402313470840454e-01" nType="-99"/>
                    <Node pos="r" depth="7" NCoef="0" IVar="-1" Cut="0.0000000000000000e+00" cType="1" res="8.3638085052371025e-03" rms="4.1203701496124268e-01" purity="7.8263366222381592e-01" nType="-99"/>
                  </Node>
                  <Node pos="r" depth="6" NCoef="0" IVar="3" Cut="1.0193119049072266e+00" cType="1" res="1.0266757756471634e-01" rms="3.9147499203681946e-01" purity="8.0968916416168213e-01" nType="0">
                    <Node pos="l" depth="7" NCoef="0" IVar="-1" Cut="0.0000000000000000e+00" cType="1" res="9.5546469092369080e-03" rms="3.9102855324745178e-01" purity="8.1050336360931396e-01" nType="-99"/>
                    <Node pos="r" depth="7" NCoef="0" IVar="-1" Cut="0.0000000000000000e+00" cType="1" res="9.0453745797276497e-03" rms="3.9357373118400574e-01" purity="8.0583280324935913e-01" nType="-99"/>
                  </Node>
                </Node>
                <Node pos="r" depth="5" NCoef="0" IVar="3" Cut="9.8521530628204346e-01" cType="1" res="7.4486397206783295e-02" rms="4.3059483170509338e-01" purity="7.4962472915649414e-01" nType="0">
                  <Node pos="l" depth="6" NCoef="0" IVar="4" Cut="1.2702914886176586e-02" cType="1" res="5.0431389361619949e-02" rms="4.5424410700798035e-01" purity="7.0439904928207397e-01" nType="0">
                    <Node pos="l" depth="7" NCoef="0" IVar="-1" Cut="0.0000000000000000e+00" cType="1" res="3.2245933543890715e-03" rms="4.5611026883125305e-01" purity="6.9864147901535034e-01" nType="-99"/>
                    <Node pos="r" depth="7" NCoef="0" IVar="-1" Cut="0.0000000000000000e+00" cType="1" res="6.4171440899372101e-03" rms="4.5166575908660889e-01" purity="7.1075135469436646e-01" nType="-99"/>
                  </Node>
                  <Node pos="r" depth="6" NCoef="0" IVar="1" Cut="2.9790708422660828e-01" cType="1" res="8.2521364092826843e-02" rms="4.2209517955780029e-01" purity="7.6473128795623779e-01" nType="0">
                    <Node pos="l" depth="7" NCoef="0" IVar="-1" Cut="0.0000000000000000e+00" cType="1" res="8.0846436321735382e-03" rms="4.0986561775207520e-01" purity="7.8466695547103882e-01" nType="-99"/>
                    <Node pos="r" depth="7" NCoef="0" IVar="-1" Cut="0.0000000000000000e+00" cType="1" res="6.5993922762572765e-03" rms="4.3308421969413757e-01" purity="7.4622112512588501e-01" nType="-99"/>
                  </Node>
                </Node>
              </Node>
              <Node pos="r" depth="4" NCoef="0" IVar="-1" Cut="0.0000000000000000e+00" cType="1" res="2.1865414455533028e-03" rms="4.8752713203430176e-01" purity="6.0193854570388794e-01" nType="-99"/>
            </Node>
          </Node>
          <Node pos="r" depth="2" NCoef="0" IVar="-1" Cut="0.0000000000000000e+00" cType="1" res="-7.7949524857103825e-03" rms="4.8222449421882629e-01" purity="3.8190969824790955e-01" nType="-99"/>
        </Node>
      </Node>
    </BinaryTree>
    <BinaryTree type="DecisionTree" boostWeight="1.0000000000000000e+00" itree="31">
      <Node pos="s" depth="0" NCoef="0" IVar="3" Cut="7.7941602468490601e-01" cType="1" res="1.4485944993793964e-02" rms="4.1701292991638184e-01" purity="5.0081282854080200e-01" nType="0">
        <Node pos="l" depth="1" NCoef="0" IVar="3" Cut="6.0593187808990479e-01" cType="1" res="-4.2478334158658981e-02" rms="3.9400956034660339e-01" purity="2.5968211889266968e-01" nType="0">
          <Node pos="l" depth="2" NCoef="0" IVar="3" Cut="4.9080345034599304e-01" cType="1" res="-6.2687665224075317e-02" rms="3.3746197819709778e-01" purity="1.4892219007015228e-01" nType="0">
            <Node pos="l" depth="3" NCoef="0" IVar="4" Cut="1.5406842529773712e-01" cType="1" res="-7.0528402924537659e-02" rms="2.9218706488609314e-01" purity="1.0064618289470673e-01" nType="0">
              <Node pos="l" depth="4" NCoef="0" IVar="2" Cut="2.0429107666015625e+02" cType="1" res="-7.8049376606941223e-02" rms="2.5874552130699158e-01" purity="7.5718097388744354e-02" nType="0">
                <Node pos="l" depth="5" NCoef="0" IVar="4" Cut="8.9666165411472321e-02" cType="1" res="-7.2001680731773376e-02" rms="2.6810982823371887e-01" purity="8.2195073366165161e-02" nType="0">
                  <Node pos="l" depth="6" NCoef="0" IVar="2" Cut="6.6659507751464844e+01" cType="1" res="-7.9015403985977173e-02" rms="2.4714851379394531e-01" purity="6.7685380578041077e-02" nType="0">
                    <Node pos="l" depth="7" NCoef="0" IVar="-1" Cut="0.0000000000000000e+00" cType="1" res="-1.4067787677049637e-02" rms="2.8362378478050232e-01" purity="9.1737560927867889e-02" nType="-99"/>
                    <Node pos="r" depth="7" NCoef="0" IVar="-1" Cut="0.0000000000000000e+00" cType="1" res="-2.0038560032844543e-02" rms="2.2756035625934601e-01" purity="5.6317936629056931e-02" nType="-99"/>
                  </Node>
                  <Node pos="r" depth="6" NCoef="0" IVar="3" Cut="3.3840966224670410e-01" cType="1" res="-5.4810389876365662e-02" rms="3.1295332312583923e-01" purity="1.1775968223810196e-01" nType="0">
                    <Node pos="l" depth="7" NCoef="0" IVar="-1" Cut="0.0000000000000000e+00" cType="1" res="-2.1531742066144943e-02" rms="2.2162611782550812e-01" purity="5.3207080811262131e-02" nType="-99"/>
                    <Node pos="r" depth="7" NCoef="0" IVar="-1" Cut="0.0000000000000000e+00" cType="1" res="-5.6343725882470608e-03" rms="3.7265697121620178e-01" purity="1.7303213477134705e-01" nType="-99"/>
                  </Node>
                </Node>
                <Node pos="r" depth="5" NCoef="0" IVar="2" Cut="4.7393801879882812e+02" cType="1" res="-8.5331432521343231e-02" rms="2.4680267274379730e-01" purity="6.7919149994850159e-02" nType="0">
                  <Node pos="l" depth="6" NCoef="0" IVar="4" Cut="1.0458768904209137e-01" cType="1" res="-8.1820592284202576e-02" rms="2.4725531041622162e-01" purity="6.8370513617992401e-02" nType="0">
                    <Node pos="l" depth="7" NCoef="0" IVar="-1" Cut="0.0000000000000000e+00" cType="1" res="-2.0447373390197754e-02" rms="2.1648415923118591e-01" purity="5.0796475261449814e-02" nType="-99"/>
                    <Node pos="r" depth="7" NCoef="0" IVar="-1" Cut="0.0000000000000000e+00" cType="1" res="-1.5089175663888454e-02" rms="2.8165394067764282e-01" purity="9.1011896729469299e-02" nType="-99"/>
                  </Node>
                  <Node pos="r" depth="6" NCoef="0" IVar="-1" Cut="0.0000000000000000e+00" cType="1" res="-1.8968919292092323e-02" rms="2.4441154301166534e-01" purity="6.6068641841411591e-02" nType="-99"/>
                </Node>
              </Node>
              <Node pos="r" depth="4" NCoef="0" IVar="5" Cut="4.0000000000000000e+00" cType="1" res="-5.3744494915008545e-02" rms="3.5501447319984436e-01" purity="1.5646901726722717e-01" nType="0">
                <Node pos="l" depth="5" NCoef="0" IVar="-1" Cut="0.0000000000000000e+00" cType="1" res="-1.7107001040130854e-03" rms="4.1986411809921265e-01" purity="2.3947143554687500e-01" nType="-99"/>
                <Node pos="r" depth="5" NCoef="0" IVar="3" Cut="3.6829447746276855e-01" cType="1" res="-6.1439536511898041e-02" rms="3.4122610092163086e-01" purity="1.4087563753128052e-01" nType="0">
                  <Node pos="l" depth="6" NCoef="0" IVar="4" Cut="2.7170023322105408e-01" cType="1" res="-6.9747619330883026e-02" rms="3.1799206137657166e-01" purity="1.1746087670326233e-01" nType="0">
                    <Node pos="l" depth="7" NCoef="0" IVar="-1" Cut="0.0000000000000000e+00" cType="1" res="-1.4944382943212986e-02" rms="2.9956418275833130e-01" purity="1.0175960510969162e-01" nType="-99"/>
                    <Node pos="r" depth="7" NCoef="0" IVar="-1" Cut="0.0000000000000000e+00" cType="1" res="-6.5882983617484570e-03" rms="3.8125795125961304e-01" purity="1.7988149821758270e-01" nType="-99"/>
                  </Node>
                  <Node pos="r" depth="6" NCoef="0" IVar="-1" Cut="0.0000000000000000e+00" cType="1" res="-3.9454335346817970e-03" rms="4.1542539000511169e-01" purity="2.2857969999313354e-01" nType="-99"/>
                </Node>
              </Node>
            </Node>
            <Node pos="r" depth="3" NCoef="0" IVar="4" Cut="1.1492895334959030e-01" cType="1" res="-4.0930192917585373e-02" rms="4.3856847286224365e-01" purity="2.8288453817367554e-01" nType="0">
              <Node pos="l" depth="4" NCoef="0" IVar="1" Cut="-5.3082618862390518e-02" cType="1" res="-5.3455542773008347e-02" rms="4.2459911108016968e-01" purity="2.5585094094276428e-01" nType="0">
                <Node pos="l" depth="5" NCoef="0" IVar="-1" Cut="0.0000000000000000e+00" cType="1" res="-1.1603287421166897e-03" rms="4.5874661207199097e-01" purity="3.2732638716697693e-01" nType="-99"/>
                <Node pos="r" depth="5" NCoef="0" IVar="1" Cut="5.9474939107894897e-01" cType="1" res="-6.8241499364376068e-02" rms="4.1103145480155945e-01" purity="2.3099352419376373e-01" nType="0">
                  <Node pos="l" depth="6" NCoef="0" IVar="2" Cut="1.2965011596679688e+02" cType="1" res="-5.4454643279314041e-02" rms="4.2877662181854248e-01" purity="2.5935903191566467e-01" nType="0">
                    <Node pos="l" depth="7" NCoef="0" IVar="-1" Cut="0.0000000000000000e+00" cType="1" res="-3.1082713976502419e-03" rms="4.4585883617401123e-01" purity="2.9666116833686829e-01" nType="-99"/>
                    <Node pos="r" depth="7" NCoef="0" IVar="-1" Cut="0.0000000000000000e+00" cType="1" res="-9.2350728809833527e-03" rms="4.1132259368896484e-01" purity="2.2562713921070099e-01" nType="-99"/>
                  </Node>
                  <Node pos="r" depth="6" NCoef="0" IVar="-1" Cut="0.0000000000000000e+00" cType="1" res="-1.5286095440387726e-02" rms="3.4877493977546692e-01" purity="1.4534781873226166e-01" nType="-99"/>
                </Node>
              </Node>
              <Node pos="r" depth="4" NCoef="0" IVar="2" Cut="2.7141571044921875e+02" cType="1" res="-1.0300694033503532e-02" rms="4.6958160400390625e-01" purity="3.4899258613586426e-01" nType="0">
                <Node pos="l" depth="5" NCoef="0" IVar="-1" Cut="0.0000000000000000e+00" cType="1" res="2.7586277574300766e-03" rms="4.8270863294601440e-01" purity="4.0585303306579590e-01" nType="-99"/>
                <Node pos="r" depth="5" NCoef="0" IVar="-1" Cut="0.0000000000000000e+00" cType="1" res="-3.9514862000942230e-03" rms="4.5874944329261780e-01" purity="3.1115117669105530e-01" nType="-99"/>
              </Node>
            </Node>
          </Node>
          <Node pos="r" depth="2" NCoef="0" IVar="0" Cut="4.8275497555732727e-01" cType="1" res="-9.5554260769858956e-04" rms="4.8751002550125122e-01" purity="4.8725333809852600e-01" nType="0">
            <Node pos="l" depth="3" NCoef="0" IVar="5" Cut="3.0000000000000000e+00" cType="1" res="1.3011663220822811e-02" rms="3.6246916651725769e-01" purity="5.1498794555664062e-01" nType="0">
              <Node pos="l" depth="4" NCoef="0" IVar="3" Cut="7.4025046825408936e-01" cType="1" res="-1.5242048539221287e-02" rms="4.9269843101501465e-01" purity="4.9048992991447449e-01" nType="0">
                <Node pos="l" depth="5" NCoef="0" IVar="4" Cut="7.7107809484004974e-02" cType="1" res="-3.3214483410120010e-02" rms="4.9084085226058960e-01" purity="4.4658574461936951e-01" nType="0">
                  <Node pos="l" depth="6" NCoef="0" IVar="-1" Cut="0.0000000000000000e+00" cType="1" res="-4.7484473325312138e-03" rms="4.8462685942649841e-01" purity="4.0502744913101196e-01" nType="-99"/>
                  <Node pos="r" depth="6" NCoef="0" IVar="-1" Cut="0.0000000000000000e+00" cType="1" res="-1.2988329399377108e-03" rms="4.9557420611381531e-01" purity="4.8331531882286072e-01" nType="-99"/>
                </Node>
                <Node pos="r" depth="5" NCoef="0" IVar="-1" Cut="0.0000000000000000e+00" cType="1" res="5.8439315762370825e-04" rms="4.9408400058746338e-01" purity="5.4486644268035889e-01" nType="-99"/>
              </Node>
              <Node pos="r" depth="4" NCoef="0" IVar="0" Cut="1.7124779522418976e-01" cType="1" res="2.0512342453002930e-02" rms="4.8989796638488770e-01" purity="5.2719938755035400e-01" nType="0">
                <Node pos="l" depth="5" NCoef="0" IVar="1" Cut="1.3595564663410187e-01" cType="1" res="3.8812689483165741e-02" rms="4.8818129301071167e-01" purity="5.7772040367126465e-01" nType="0">
                  <Node pos="l" depth="6" NCoef="0" IVar="1" Cut="-3.4044306725263596e-02" cType="1" res="5.3874906152486801e-02" rms="4.8344320058822632e-01" purity="6.1346697807312012e-01" nType="0">
                    <Node pos="l" depth="7" NCoef="0" IVar="-1" Cut="0.0000000000000000e+00" cType="1" res="5.5587738752365112e-03" rms="4.7903934121131897e-01" purity="6.3048803806304932e-01" nType="-99"/>
                    <Node pos="r" depth="7" NCoef="0" IVar="-1" Cut="0.0000000000000000e+00" cType="1" res="2.6641953736543655e-03" rms="4.8998007178306580e-01" purity="5.8461564779281616e-01" nType="-99"/>
                  </Node>
                  <Node pos="r" depth="6" NCoef="0" IVar="-1" Cut="0.0000000000000000e+00" cType="1" res="1.1076205410063267e-03" rms="4.9518331885337830e-01" purity="5.1595139503479004e-01" nType="-99"/>
                </Node>
                <Node pos="r" depth="5" NCoef="0" IVar="2" Cut="7.4122802734375000e+01" cType="1" res="-5.4670022800564766e-03" rms="4.9115499854087830e-01" purity="4.5547923445701599e-01" nType="0">
                  <Node pos="l" depth="6" NCoef="0" IVar="-1" Cut="0.0000000000000000e+00" cType="1" res="2.4045687168836594e-03" rms="4.9297323822975159e-01" purity="5.0099319219589233e-01" nType="-99"/>
                  <Node pos="r" depth="6" NCoef="0" IVar="1" Cut="1.5297378599643707e-01" cType="1" res="-1.8075613304972649e-02" rms="4.8986339569091797e-01" purity="4.3757042288780212e-01" nType="0">
                    <Node pos="l" depth="7" NCoef="0" IVar="-1" Cut="0.0000000000000000e+00" cType="1" res="-8.6036976426839828e-05" rms="4.9478986859321594e-01" purity="4.7311067581176758e-01" nType="-99"/>
                    <Node pos="r" depth="7" NCoef="0" IVar="-1" Cut="0.0000000000000000e+00" cType="1" res="-4.3441932648420334e-03" rms="4.8085793852806091e-01" purity="3.8213473558425903e-01" nType="-99"/>
                  </Node>
                </Node>
              </Node>
            </Node>
            <Node pos="r" depth="3" NCoef="0" IVar="4" Cut="6.2963679432868958e-02" cType="1" res="-5.8751773089170456e-02" rms="4.6091625094413757e-01" purity="3.1982812285423279e-01" nType="0">
              <Node pos="l" depth="4" NCoef="0" IVar="-1" Cut="0.0000000000000000e+00" cType="1" res="-7.6318094506859779e-03" rms="4.5367652177810669e-01" purity="3.0498787760734558e-01" nType="-99"/>
              <Node pos="r" depth="4" NCoef="0" IVar="-1" Cut="0.0000000000000000e+00" cType="1" res="-4.0342663414776325e-03" rms="4.6769458055496216e-01" purity="3.3543896675109863e-01" nType="-99"/>
            </Node>
          </Node>
        </Node>
        <Node pos="r" depth="1" NCoef="0" IVar="0" Cut="6.1320686340332031e-01" cType="1" res="7.0294566452503204e-02" rms="4.3114247918128967e-01" purity="7.3705154657363892e-01" nType="0">
          <Node pos="l" depth="2" NCoef="0" IVar="3" Cut="9.7561681270599365e-01" cType="1" res="7.3793999850749969e-02" rms="4.2931061983108521e-01" purity="7.4502283334732056e-01" nType="0">
            <Node pos="l" depth="3" NCoef="0" IVar="1" Cut="7.8298193216323853e-01" cType="1" res="5.4253842681646347e-02" rms="4.5571920275688171e-01" purity="6.9184100627899170e-01" nType="0">
              <Node pos="l" depth="4" NCoef="0" IVar="3" Cut="8.6169350147247314e-01" cType="1" res="5.9356600046157837e-02" rms="4.5229589939117432e-01" purity="7.0483410358428955e-01" nType="0">
                <Node pos="l" depth="5" NCoef="0" IVar="1" Cut="7.0481650531291962e-02" cType="1" res="4.9404740333557129e-02" rms="4.6980598568916321e-01" purity="6.6368132829666138e-01" nType="0">
                  <Node pos="l" depth="6" NCoef="0" IVar="4" Cut="5.2101168781518936e-02" cType="1" res="6.0409385710954666e-02" rms="4.6241316199302673e-01" purity="6.8658977746963501e-01" nType="0">
                    <Node pos="l" depth="7" NCoef="0" IVar="-1" Cut="0.0000000000000000e+00" cType="1" res="4.6656196936964989e-03" rms="4.6397849917411804e-01" purity="6.8164736032485962e-01" nType="-99"/>
                    <Node pos="r" depth="7" NCoef="0" IVar="-1" Cut="0.0000000000000000e+00" cType="1" res="5.9808371588587761e-03" rms="4.5921954512596130e-01" purity="6.9593542814254761e-01" nType="-99"/>
                  </Node>
                  <Node pos="r" depth="6" NCoef="0" IVar="1" Cut="3.6924183368682861e-01" cType="1" res="3.2999545335769653e-02" rms="4.8014774918556213e-01" purity="6.2953048944473267e-01" nType="0">
                    <Node pos="l" depth="7" NCoef="0" IVar="-1" Cut="0.0000000000000000e+00" cType="1" res="3.6130473017692566e-03" rms="4.7500446438789368e-01" purity="6.5101665258407593e-01" nType="-99"/>
                    <Node pos="r" depth="7" NCoef="0" IVar="-1" Cut="0.0000000000000000e+00" cType="1" res="9.7053224453702569e-04" rms="4.9035528302192688e-01" purity="5.8330273628234863e-01" nType="-99"/>
                  </Node>
                </Node>
                <Node pos="r" depth="5" NCoef="0" IVar="1" Cut="-4.9119696021080017e-02" cType="1" res="6.8562284111976624e-02" rms="4.3526974320411682e-01" purity="7.4290138483047485e-01" nType="0">
                  <Node pos="l" depth="6" NCoef="0" IVar="4" Cut="2.4788398295640945e-02" cType="1" res="7.9102694988250732e-02" rms="4.2366260290145874e-01" purity="7.6454132795333862e-01" nType="0">
                    <Node pos="l" depth="7" NCoef="0" IVar="-1" Cut="0.0000000000000000e+00" cType="1" res="6.7286547273397446e-03" rms="4.2566043138504028e-01" purity="7.6093351840972900e-01" nType="-99"/>
                    <Node pos="r" depth="7" NCoef="0" IVar="-1" Cut="0.0000000000000000e+00" cType="1" res="8.2642864435911179e-03" rms="4.2129597067832947e-01" purity="7.6861047744750977e-01" nType="-99"/>
                  </Node>
                  <Node pos="r" depth="6" NCoef="0" IVar="1" Cut="3.1404703855514526e-02" cType="1" res="6.2012434005737305e-02" rms="4.4220247864723206e-01" purity="7.2945415973663330e-01" nType="0">
                    <Node pos="l" depth="7" NCoef="0" IVar="-1" Cut="0.0000000000000000e+00" cType="1" res="8.2430718466639519e-03" rms="4.1880729794502258e-01" purity="7.7205312252044678e-01" nType="-99"/>
                    <Node pos="r" depth="7" NCoef="0" IVar="-1" Cut="0.0000000000000000e+00" cType="1" res="4.8241615295410156e-03" rms="4.5205712318420410e-01" purity="7.1005779504776001e-01" nType="-99"/>
                  </Node>
                </Node>
              </Node>
              <Node pos="r" depth="4" NCoef="0" IVar="-1" Cut="0.0000000000000000e+00" cType="1" res="-1.8527499632909894e-03" rms="4.9783483147621155e-01" purity="4.9817162752151489e-01" nType="-99"/>
            </Node>
            <Node pos="r" depth="3" NCoef="0" IVar="1" Cut="4.0509787201881409e-01" cType="1" res="8.8225945830345154e-02" rms="4.0811148285865784e-01" purity="7.8430187702178955e-01" nType="0">
              <Node pos="l" depth="4" NCoef="0" IVar="0" Cut="1.7799395322799683e-01" cType="1" res="9.3211732804775238e-02" rms="3.9870753884315491e-01" purity="8.0003219842910767e-01" nType="0">
                <Node pos="l" depth="5" NCoef="0" IVar="1" Cut="8.1050999462604523e-02" cType="1" res="9.4810359179973602e-02" rms="3.9490607380867004e-01" purity="8.0634212493896484e-01" nType="0">
                  <Node pos="l" depth="6" NCoef="0" IVar="1" Cut="-2.2379195690155029e-01" cType="1" res="9.9090181291103363e-02" rms="3.8864442706108093e-01" purity="8.1446778774261475e-01" nType="0">
                    <Node pos="l" depth="7" NCoef="0" IVar="-1" Cut="0.0000000000000000e+00" cType="1" res="7.1300938725471497e-03" rms="4.0372952818870544e-01" purity="7.9483348131179810e-01" nType="-99"/>
                    <Node pos="r" depth="7" NCoef="0" IVar="-1" Cut="0.0000000000000000e+00" cType="1" res="9.5960022881627083e-03" rms="3.8607117533683777e-01" purity="8.1765854358673096e-01" nType="-99"/>
                  </Node>
                  <Node pos="r" depth="6" NCoef="0" IVar="1" Cut="2.4827919900417328e-01" cType="1" res="8.4783881902694702e-02" rms="4.0902507305145264e-01" purity="7.8730595111846924e-01" nType="0">
                    <Node pos="l" depth="7" NCoef="0" IVar="-1" Cut="0.0000000000000000e+00" cType="1" res="8.2022706046700478e-03" rms="4.0346589684486389e-01" purity="7.9517203569412231e-01" nType="-99"/>
                    <Node pos="r" depth="7" NCoef="0" IVar="-1" Cut="0.0000000000000000e+00" cType="1" res="7.0425420999526978e-03" rms="4.1829428076744080e-01" purity="7.7382415533065796e-01" nType="-99"/>
                  </Node>
                </Node>
                <Node pos="r" depth="5" NCoef="0" IVar="-1" Cut="0.0000000000000000e+00" cType="1" res="5.3982650861144066e-03" rms="4.6551889181137085e-01" purity="6.7713558673858643e-01" nType="-99"/>
              </Node>
              <Node pos="r" depth="4" NCoef="0" IVar="1" Cut="7.1380168199539185e-01" cType="1" res="6.1476904898881912e-02" rms="4.5432618260383606e-01" purity="6.9990789890289307e-01" nType="0">
                <Node pos="l" depth="5" NCoef="0" IVar="1" Cut="5.2458947896957397e-01" cType="1" res="7.6873883605003357e-02" rms="4.3379607796669006e-01" purity="7.4571180343627930e-01" nType="0">
                  <Node pos="l" depth="6" NCoef="0" IVar="-1" Cut="0.0000000000000000e+00" cType="1" res="7.0641599595546722e-03" rms="4.2645880579948425e-01" purity="7.5915837287902832e-01" nType="-99"/>
                  <Node pos="r" depth="6" NCoef="0" IVar="-1" Cut="0.0000000000000000e+00" cType="1" res="5.8673797175288200e-03" rms="4.4129437208175659e-01" purity="7.3156476020812988e-01" nType="-99"/>
                </Node>
                <Node pos="r" depth="5" NCoef="0" IVar="-1" Cut="0.0000000000000000e+00" cType="1" res="3.5384453367441893e-03" rms="4.7712159156799316e-01" purity="6.4499932527542114e-01" nType="-99"/>
              </Node>
            </Node>
          </Node>
          <Node pos="r" depth="2" NCoef="0" IVar="-1" Cut="0.0000000000000000e+00" cType="1" res="-8.1052603200078011e-03" rms="4.8129487037658691e-01" purity="3.7519425153732300e-01" nType="-99"/>
        </Node>
      </Node>
    </BinaryTree>
    <BinaryTree type="DecisionTree" boostWeight="1.0000000000000000e+00" itree="32">
      <Node pos="s" depth="0" NCoef="0" IVar="3" Cut="7.0974999666213989e-01" cType="1" res="1.4533057808876038e-02" rms="4.1627618670463562e-01" purity="5.0087898969650269e-01" nType="0">
        <Node pos="l" depth="1" NCoef="0" IVar="3" Cut="4.6223226189613342e-01" cType="1" res="-4.9257546663284302e-02" rms="3.7386727333068848e-01" purity="2.0956768095493317e-01" nType="0">
          <Node pos="l" depth="2" NCoef="0" IVar="5" Cut="3.0000000000000000e+00" cType="1" res="-7.0330724120140076e-02" rms="2.7831634879112244e-01" purity="9.0204790234565735e-02" nType="0">
            <Node pos="l" depth="3" NCoef="0" IVar="-1" Cut="0.0000000000000000e+00" cType="1" res="-4.1740047745406628e-03" rms="3.5692092776298523e-01" purity="1.6419051587581635e-01" nType="-99"/>
            <Node pos="r" depth="3" NCoef="0" IVar="4" Cut="2.3091422021389008e-01" cType="1" res="-7.2719618678092957e-02" rms="2.7374365925788879e-01" purity="8.6509302258491516e-02" nType="0">
              <Node pos="l" depth="4" NCoef="0" IVar="3" Cut="3.6061471700668335e-01" cType="1" res="-7.5342796742916107e-02" rms="2.5964385271072388e-01" purity="7.6591640710830688e-02" nType="0">
                <Node pos="l" depth="5" NCoef="0" IVar="0" Cut="6.4506030082702637e-01" cType="1" res="-8.1913508474826813e-02" rms="2.1533326804637909e-01" purity="4.9982324242591858e-02" nType="0">
                  <Node pos="l" depth="6" NCoef="0" IVar="-1" Cut="0.0000000000000000e+00" cType="1" res="-1.5856925398111343e-02" rms="3.3069121837615967e-01" purity="1.2577283382415771e-01" nType="-99"/>
                  <Node pos="r" depth="6" NCoef="0" IVar="1" Cut="-8.0113254487514496e-02" cType="1" res="-8.0122955143451691e-02" rms="2.0140804350376129e-01" purity="4.3045610189437866e-02" nType="0">
                    <Node pos="l" depth="7" NCoef="0" IVar="-1" Cut="0.0000000000000000e+00" cType="1" res="-1.7298361286520958e-02" rms="2.4069304764270782e-01" purity="6.3079528510570526e-02" nType="-99"/>
                    <Node pos="r" depth="7" NCoef="0" IVar="-1" Cut="0.0000000000000000e+00" cType="1" res="-2.2711103782057762e-02" rms="1.9409780204296112e-01" purity="3.9753895252943039e-02" nType="-99"/>
                  </Node>
                </Node>
                <Node pos="r" depth="5" NCoef="0" IVar="4" Cut="1.0453749448060989e-01" cType="1" res="-6.4209595322608948e-02" rms="3.2074651122093201e-01" purity="1.2167759239673615e-01" nType="0">
                  <Node pos="l" depth="6" NCoef="0" IVar="2" Cut="9.9211051940917969e+01" cType="1" res="-7.3048569262027740e-02" rms="2.7635174989700317e-01" purity="8.5449531674385071e-02" nType="0">
                    <Node pos="l" depth="7" NCoef="0" IVar="-1" Cut="0.0000000000000000e+00" cType="1" res="-1.0933931916952133e-02" rms="3.1216311454772949e-01" purity="1.1234702169895172e-01" nType="-99"/>
                    <Node pos="r" depth="7" NCoef="0" IVar="-1" Cut="0.0000000000000000e+00" cType="1" res="-1.7140367999672890e-02" rms="2.5508585572242737e-01" purity="7.1351476013660431e-02" nType="-99"/>
                  </Node>
                  <Node pos="r" depth="6" NCoef="0" IVar="2" Cut="2.5837796020507812e+02" cType="1" res="-5.4682653397321701e-02" rms="3.6231833696365356e-01" purity="1.6072542965412140e-01" nType="0">
                    <Node pos="l" depth="7" NCoef="0" IVar="-1" Cut="0.0000000000000000e+00" cType="1" res="-4.0069045498967171e-03" rms="3.9048692584037781e-01" purity="1.9359259307384491e-01" nType="-99"/>
                    <Node pos="r" depth="7" NCoef="0" IVar="-1" Cut="0.0000000000000000e+00" cType="1" res="-1.0892300866544247e-02" rms="3.4639391303062439e-01" purity="1.4418187737464905e-01" nType="-99"/>
                  </Node>
                </Node>
              </Node>
              <Node pos="r" depth="4" NCoef="0" IVar="4" Cut="2.7387347817420959e-01" cType="1" res="-5.0457771867513657e-02" rms="3.7176138162612915e-01" purity="1.7067644000053406e-01" nType="0">
                <Node pos="l" depth="5" NCoef="0" IVar="-1" Cut="0.0000000000000000e+00" cType="1" res="-9.9341534078121185e-03" rms="3.6020341515541077e-01" purity="1.5700095891952515e-01" nType="-99"/>
                <Node pos="r" depth="5" NCoef="0" IVar="-1" Cut="0.0000000000000000e+00" cType="1" res="-5.6488849222660065e-03" rms="3.8445356488227844e-01" purity="1.8678079545497894e-01" nType="-99"/>
              </Node>
            </Node>
          </Node>
          <Node pos="r" depth="2" NCoef="0" IVar="3" Cut="6.1393266916275024e-01" cType="1" res="-2.5762449949979782e-02" rms="4.5607692003250122e-01" purity="3.4243836998939514e-01" nType="0">
            <Node pos="l" depth="3" NCoef="0" IVar="1" Cut="-1.5818639099597931e-01" cType="1" res="-4.1352272033691406e-02" rms="4.3092972040176392e-01" purity="2.6758489012718201e-01" nType="0">
              <Node pos="l" depth="4" NCoef="0" IVar="-1" Cut="0.0000000000000000e+00" cType="1" res="1.0970572475343943e-03" rms="4.6461173892021179e-01" purity="3.4725648164749146e-01" nType="-99"/>
              <Node pos="r" depth="4" NCoef="0" IVar="1" Cut="4.8933720588684082e-01" cType="1" res="-4.9021504819393158e-02" rms="4.2517894506454468e-01" purity="2.5578525662422180e-01" nType="0">
                <Node pos="l" depth="5" NCoef="0" IVar="4" Cut="1.3448685407638550e-01" cType="1" res="-3.8571778684854507e-02" rms="4.3996441364288330e-01" purity="2.8219002485275269e-01" nType="0">
                  <Node pos="l" depth="6" NCoef="0" IVar="2" Cut="1.2844018554687500e+02" cType="1" res="-4.5032214373350143e-02" rms="4.3224114179611206e-01" purity="2.6678976416587830e-01" nType="0">
                    <Node pos="l" depth="7" NCoef="0" IVar="-1" Cut="0.0000000000000000e+00" cType="1" res="-2.2599503863602877e-03" rms="4.4812369346618652e-01" purity="3.0428096652030945e-01" nType="-99"/>
                    <Node pos="r" depth="7" NCoef="0" IVar="-1" Cut="0.0000000000000000e+00" cType="1" res="-7.5239893049001694e-03" rms="4.1929563879966736e-01" purity="2.3925584554672241e-01" nType="-99"/>
                  </Node>
                  <Node pos="r" depth="6" NCoef="0" IVar="-1" Cut="0.0000000000000000e+00" cType="1" res="-1.1129027698189020e-03" rms="4.7054138779640198e-01" purity="3.4798771142959595e-01" nType="-99"/>
                </Node>
                <Node pos="r" depth="5" NCoef="0" IVar="4" Cut="7.6152332127094269e-02" cType="1" res="-7.9473167657852173e-02" rms="3.7716796994209290e-01" purity="1.7883881926536560e-01" nType="0">
                  <Node pos="l" depth="6" NCoef="0" IVar="-1" Cut="0.0000000000000000e+00" cType="1" res="-1.4499520882964134e-02" rms="3.4316220879554749e-01" purity="1.3906604051589966e-01" nType="-99"/>
                  <Node pos="r" depth="6" NCoef="0" IVar="-1" Cut="0.0000000000000000e+00" cType="1" res="-7.8168110921978951e-03" rms="4.0534397959709167e-01" purity="2.1576711535453796e-01" nType="-99"/>
                </Node>
              </Node>
            </Node>
            <Node pos="r" depth="3" NCoef="0" IVar="2" Cut="3.4005282592773438e+02" cType="1" res="-4.0646097622811794e-03" rms="4.8810046911239624e-01" purity="4.4661900401115417e-01" nType="0">
              <Node pos="l" depth="4" NCoef="0" IVar="4" Cut="8.6899779736995697e-02" cType="1" res="2.7826775331050158e-03" rms="4.8835963010787964e-01" purity="4.5382344722747803e-01" nType="0">
                <Node pos="l" depth="5" NCoef="0" IVar="2" Cut="6.6479995727539062e+01" cType="1" res="-1.1169636622071266e-02" rms="4.8541447520256042e-01" purity="4.3151816725730896e-01" nType="0">
                  <Node pos="l" depth="6" NCoef="0" IVar="-1" Cut="0.0000000000000000e+00" cType="1" res="1.9089779816567898e-03" rms="4.9112734198570251e-01" purity="4.7632828354835510e-01" nType="-99"/>
                  <Node pos="r" depth="6" NCoef="0" IVar="4" Cut="6.0175709426403046e-02" cType="1" res="-2.7066487818956375e-02" rms="4.8185509443283081e-01" purity="4.1015106439590454e-01" nType="0">
                    <Node pos="l" depth="7" NCoef="0" IVar="-1" Cut="0.0000000000000000e+00" cType="1" res="-5.1026344299316406e-03" rms="4.7564002871513367e-01" purity="3.7513029575347900e-01" nType="-99"/>
                    <Node pos="r" depth="7" NCoef="0" IVar="-1" Cut="0.0000000000000000e+00" cType="1" res="-1.3667256280314177e-04" rms="4.8678281903266907e-01" purity="4.4586244225502014e-01" nType="-99"/>
                  </Node>
                </Node>
                <Node pos="r" depth="5" NCoef="0" IVar="-1" Cut="0.0000000000000000e+00" cType="1" res="3.5397685132920742e-03" rms="4.9443292617797852e-01" purity="5.1641678810119629e-01" nType="-99"/>
              </Node>
              <Node pos="r" depth="4" NCoef="0" IVar="-1" Cut="0.0000000000000000e+00" cType="1" res="-4.3518138118088245e-03" rms="4.8446244001388550e-01" purity="4.0297046303749084e-01" nType="-99"/>
            </Node>
          </Node>
        </Node>
        <Node pos="r" depth="1" NCoef="0" IVar="3" Cut="8.7339830398559570e-01" cType="1" res="6.1371542513370514e-02" rms="4.3898564577102661e-01" purity="7.1477538347244263e-01" nType="0">
          <Node pos="l" depth="2" NCoef="0" IVar="1" Cut="3.9326933026313782e-01" cType="1" res="3.0561223626136780e-02" rms="4.7783133387565613e-01" purity="6.1501955986022949e-01" nType="0">
            <Node pos="l" depth="3" NCoef="0" IVar="2" Cut="1.7731834411621094e+02" cType="1" res="4.1884869337081909e-02" rms="4.7382870316505432e-01" purity="6.4151197671890259e-01" nType="0">
              <Node pos="l" depth="4" NCoef="0" IVar="4" Cut="3.9038259536027908e-02" cType="1" res="4.9202568829059601e-02" rms="4.7055548429489136e-01" purity="6.5442073345184326e-01" nType="0">
                <Node pos="l" depth="5" NCoef="0" IVar="0" Cut="2.1632947027683258e-01" cType="1" res="3.2953862100839615e-02" rms="4.7390440106391907e-01" purity="6.4120119810104370e-01" nType="0">
                  <Node pos="l" depth="6" NCoef="0" IVar="3" Cut="8.5228234529495239e-01" cType="1" res="4.4373270124197006e-02" rms="4.6602764725685120e-01" purity="6.7529231309890747e-01" nType="0">
                    <Node pos="l" depth="7" NCoef="0" IVar="-1" Cut="0.0000000000000000e+00" cType="1" res="2.8740272391587496e-03" rms="4.7513863444328308e-01" purity="6.5146517753601074e-01" nType="-99"/>
                    <Node pos="r" depth="7" NCoef="0" IVar="-1" Cut="0.0000000000000000e+00" cType="1" res="6.2788398936390877e-03" rms="4.4340360164642334e-01" purity="7.2995978593826294e-01" nType="-99"/>
                  </Node>
                  <Node pos="r" depth="6" NCoef="0" IVar="-1" Cut="0.0000000000000000e+00" cType="1" res="-3.1765265157446265e-04" rms="4.9647775292396545e-01" purity="5.3229051828384399e-01" nType="-99"/>
                </Node>
                <Node pos="r" depth="5" NCoef="0" IVar="3" Cut="7.5727301836013794e-01" cType="1" res="6.4176477491855621e-02" rms="4.6694770455360413e-01" purity="6.6660302877426147e-01" nType="0">
                  <Node pos="l" depth="6" NCoef="0" IVar="-1" Cut="0.0000000000000000e+00" cType="1" res="3.7517845630645752e-03" rms="4.8595166206359863e-01" purity="5.9978228807449341e-01" nType="-99"/>
                  <Node pos="r" depth="6" NCoef="0" IVar="1" Cut="-3.0740432441234589e-02" cType="1" res="7.0485636591911316e-02" rms="4.5992127060890198e-01" purity="6.9006896018981934e-01" nType="0">
                    <Node pos="l" depth="7" NCoef="0" IVar="-1" Cut="0.0000000000000000e+00" cType="1" res="6.2721497379243374e-03" rms="4.5379209518432617e-01" purity="7.0556008815765381e-01" nType="-99"/>
                    <Node pos="r" depth="7" NCoef="0" IVar="-1" Cut="0.0000000000000000e+00" cType="1" res="5.2549066022038460e-03" rms="4.6537607908248901e-01" purity="6.7583012580871582e-01" nType="-99"/>
                  </Node>
                </Node>
              </Node>
              <Node pos="r" depth="4" NCoef="0" IVar="3" Cut="7.9944401979446411e-01" cType="1" res="1.6561375930905342e-02" rms="4.8413255810737610e-01" purity="5.9684020280838013e-01" nType="0">
                <Node pos="l" depth="5" NCoef="0" IVar="3" Cut="7.5023084878921509e-01" cType="1" res="4.8538721166551113e-03" rms="4.9242538213729858e-01" purity="5.5827456712722778e-01" nType="0">
                  <Node pos="l" depth="6" NCoef="0" IVar="-1" Cut="0.0000000000000000e+00" cType="1" res="-1.8823063874151558e-04" rms="4.9526542425155640e-01" purity="5.3201901912689209e-01" nType="-99"/>
                  <Node pos="r" depth="6" NCoef="0" IVar="-1" Cut="0.0000000000000000e+00" cType="1" res="1.0016374289989471e-03" rms="4.8978301882743835e-01" purity="5.8179998397827148e-01" nType="-99"/>
                </Node>
                <Node pos="r" depth="5" NCoef="0" IVar="-1" Cut="0.0000000000000000e+00" cType="1" res="3.3287687692791224e-03" rms="4.6970891952514648e-01" purity="6.5956830978393555e-01" nType="-99"/>
              </Node>
            </Node>
            <Node pos="r" depth="3" NCoef="0" IVar="3" Cut="7.6782554388046265e-01" cType="1" res="-1.9408851861953735e-02" rms="4.9200546741485596e-01" purity="4.9811130762100220e-01" nType="0">
              <Node pos="l" depth="4" NCoef="0" IVar="-1" Cut="0.0000000000000000e+00" cType="1" res="-4.5189210213720798e-03" rms="4.9053218960762024e-01" purity="4.2811769247055054e-01" nType="-99"/>
              <Node pos="r" depth="4" NCoef="0" IVar="1" Cut="7.0008081197738647e-01" cType="1" res="-4.4518825598061085e-03" rms="4.9201089143753052e-01" purity="5.3171706199645996e-01" nType="0">
                <Node pos="l" depth="5" NCoef="0" IVar="-1" Cut="0.0000000000000000e+00" cType="1" res="1.4868255238980055e-03" rms="4.8927560448646545e-01" purity="5.8751165866851807e-01" nType="-99"/>
                <Node pos="r" depth="5" NCoef="0" IVar="-1" Cut="0.0000000000000000e+00" cType="1" res="-2.4407403543591499e-03" rms="4.9384075403213501e-01" purity="4.7016844153404236e-01" nType="-99"/>
              </Node>
            </Node>
          </Node>
          <Node pos="r" depth="2" NCoef="0" IVar="0" Cut="2.6321160793304443e-01" cType="1" res="7.6914668083190918e-02" rms="4.1715851426124573e-01" purity="7.6509994268417358e-01" nType="0">
            <Node pos="l" depth="3" NCoef="0" IVar="1" Cut="6.3376551866531372e-01" cType="1" res="8.1326432526111603e-02" rms="4.1227582097053528e-01" purity="7.7845788002014160e-01" nType="0">
              <Node pos="l" depth="4" NCoef="0" IVar="3" Cut="9.4447159767150879e-01" cType="1" res="8.4726043045520782e-02" rms="4.0590301156044006e-01" purity="7.9052191972732544e-01" nType="0">
                <Node pos="l" depth="5" NCoef="0" IVar="2" Cut="3.4584178924560547e+01" cType="1" res="6.8319804966449738e-02" rms="4.3205216526985168e-01" purity="7.5019937753677368e-01" nType="0">
                  <Node pos="l" depth="6" NCoef="0" IVar="-1" Cut="0.0000000000000000e+00" cType="1" res="4.6111606061458588e-03" rms="4.4258245825767517e-01" purity="7.3017340898513794e-01" nType="-99"/>
                  <Node pos="r" depth="6" NCoef="0" IVar="3" Cut="8.9173394441604614e-01" cType="1" res="7.7579148113727570e-02" rms="4.2674973607063293e-01" purity="7.5951355695724487e-01" nType="0">
                    <Node pos="l" depth="7" NCoef="0" IVar="-1" Cut="0.0000000000000000e+00" cType="1" res="6.5746856853365898e-03" rms="4.3566721677780151e-01" purity="7.4412578344345093e-01" nType="-99"/>
                    <Node pos="r" depth="7" NCoef="0" IVar="-1" Cut="0.0000000000000000e+00" cType="1" res="9.0912822633981705e-03" rms="4.1828289628028870e-01" purity="7.7342575788497925e-01" nType="-99"/>
                  </Node>
                </Node>
                <Node pos="r" depth="5" NCoef="0" IVar="3" Cut="9.7771441936492920e-01" cType="1" res="8.8281162083148956e-02" rms="3.9992266893386841e-01" purity="7.9925948381423950e-01" nType="0">
                  <Node pos="l" depth="6" NCoef="0" IVar="1" Cut="6.2746385810896754e-04" cType="1" res="7.8238703310489655e-02" rms="4.1555842757225037e-01" purity="7.7656418085098267e-01" nType="0">
                    <Node pos="l" depth="7" NCoef="0" IVar="-1" Cut="0.0000000000000000e+00" cType="1" res="8.0692991614341736e-03" rms="4.0300935506820679e-01" purity="7.9544723033905029e-01" nType="-99"/>
                    <Node pos="r" depth="7" NCoef="0" IVar="-1" Cut="0.0000000000000000e+00" cType="1" res="5.8896346017718315e-03" rms="4.2984011769294739e-01" purity="7.5382697582244873e-01" nType="-99"/>
                  </Node>
                  <Node pos="r" depth="6" NCoef="0" IVar="3" Cut="1.0420538187026978e+00" cType="1" res="8.9316546916961670e-02" rms="3.9826130867004395e-01" purity="8.0159938335418701e-01" nType="0">
                    <Node pos="l" depth="7" NCoef="0" IVar="-1" Cut="0.0000000000000000e+00" cType="1" res="8.3877388387918472e-03" rms="3.9771661162376404e-01" purity="8.0235648155212402e-01" nType="-99"/>
                    <Node pos="r" depth="7" NCoef="0" IVar="-1" Cut="0.0000000000000000e+00" cType="1" res="6.9681052118539810e-03" rms="4.0646782517433167e-01" purity="7.8978037834167480e-01" nType="-99"/>
                  </Node>
                </Node>
              </Node>
              <Node pos="r" depth="4" NCoef="0" IVar="1" Cut="1.2373559474945068e+00" cType="1" res="4.4151879847049713e-02" rms="4.7484612464904785e-01" purity="6.4653879404067993e-01" nType="0">
                <Node pos="l" depth="5" NCoef="0" IVar="-1" Cut="0.0000000000000000e+00" cType="1" res="4.4397870078682899e-03" rms="4.6696287393569946e-01" purity="6.7197263240814209e-01" nType="-99"/>
                <Node pos="r" depth="5" NCoef="0" IVar="-1" Cut="0.0000000000000000e+00" cType="1" res="2.1979019511491060e-03" rms="4.8772493004798889e-01" purity="6.0238879919052124e-01" nType="-99"/>
              </Node>
            </Node>
            <Node pos="r" depth="3" NCoef="0" IVar="-1" Cut="0.0000000000000000e+00" cType="1" res="4.6754284994676709e-04" rms="4.8393636941909790e-01" purity="5.4874718189239502e-01" nType="-99"/>
          </Node>
        </Node>
      </Node>
    </BinaryTree>
    <BinaryTree type="DecisionTree" boostWeight="1.0000000000000000e+00" itree="33">
      <Node pos="s" depth="0" NCoef="0" IVar="3" Cut="7.1270596981048584e-01" cType="1" res="1.3921394944190979e-02" rms="4.1564846038818359e-01" purity="4.9994984269142151e-01" nType="0">
        <Node pos="l" depth="1" NCoef="0" IVar="0" Cut="3.2215297222137451e-01" cType="1" res="-4.6924218535423279e-02" rms="3.7387481331825256e-01" purity="2.1085053682327271e-01" nType="0">
          <Node pos="l" depth="2" NCoef="0" IVar="3" Cut="6.2284457683563232e-01" cType="1" res="-1.1524166911840439e-02" rms="4.7344043850898743e-01" purity="4.0081223845481873e-01" nType="0">
            <Node pos="l" depth="3" NCoef="0" IVar="2" Cut="2.0660896301269531e+02" cType="1" res="-3.0614303424954414e-02" rms="4.5569962263107300e-01" purity="3.1865978240966797e-01" nType="0">
              <Node pos="l" depth="4" NCoef="0" IVar="4" Cut="9.4091169536113739e-02" cType="1" res="-1.0419537313282490e-02" rms="4.7398048639297485e-01" purity="3.7819322943687439e-01" nType="0">
                <Node pos="l" depth="5" NCoef="0" IVar="-1" Cut="0.0000000000000000e+00" cType="1" res="-2.6543808635324240e-03" rms="4.6599787473678589e-01" purity="3.6501154303550720e-01" nType="-99"/>
                <Node pos="r" depth="5" NCoef="0" IVar="-1" Cut="0.0000000000000000e+00" cType="1" res="4.6822900185361505e-04" rms="4.8073989152908325e-01" purity="3.9039123058319092e-01" nType="-99"/>
              </Node>
              <Node pos="r" depth="4" NCoef="0" IVar="4" Cut="2.0974257588386536e-01" cType="1" res="-4.0806282311677933e-02" rms="4.4584205746650696e-01" purity="2.8861418366432190e-01" nType="0">
                <Node pos="l" depth="5" NCoef="0" IVar="3" Cut="4.8769423365592957e-01" cType="1" res="-4.9537166953086853e-02" rms="4.4771292805671692e-01" purity="2.9609519243240356e-01" nType="0">
                  <Node pos="l" depth="6" NCoef="0" IVar="-1" Cut="0.0000000000000000e+00" cType="1" res="-9.2446226626634598e-03" rms="3.9863082766532898e-01" purity="2.0232430100440979e-01" nType="-99"/>
                  <Node pos="r" depth="6" NCoef="0" IVar="-1" Cut="0.0000000000000000e+00" cType="1" res="-3.6900416016578674e-03" rms="4.7293415665626526e-01" purity="3.4949779510498047e-01" nType="-99"/>
                </Node>
                <Node pos="r" depth="5" NCoef="0" IVar="-1" Cut="0.0000000000000000e+00" cType="1" res="-2.0480228122323751e-03" rms="4.3978539109230042e-01" purity="2.6810851693153381e-01" nType="-99"/>
              </Node>
            </Node>
            <Node pos="r" depth="3" NCoef="0" IVar="1" Cut="3.7386924028396606e-02" cType="1" res="1.4046384952962399e-02" rms="4.9505880475044250e-01" purity="5.1085251569747925e-01" nType="0">
              <Node pos="l" depth="4" NCoef="0" IVar="3" Cut="6.7215251922607422e-01" cType="1" res="3.2380919903516769e-02" rms="4.9487751722335815e-01" purity="5.5289697647094727e-01" nType="0">
                <Node pos="l" depth="5" NCoef="0" IVar="-1" Cut="0.0000000000000000e+00" cType="1" res="1.7103782156482339e-03" rms="4.9791985750198364e-01" purity="5.2568018436431885e-01" nType="-99"/>
                <Node pos="r" depth="5" NCoef="0" IVar="-1" Cut="0.0000000000000000e+00" cType="1" res="3.6215295549482107e-03" rms="4.9187436699867249e-01" purity="5.7727545499801636e-01" nType="-99"/>
              </Node>
              <Node pos="r" depth="4" NCoef="0" IVar="3" Cut="6.7792451381683350e-01" cType="1" res="-3.4581623040139675e-03" rms="4.9459803104400635e-01" purity="4.7071129083633423e-01" nType="0">
                <Node pos="l" depth="5" NCoef="0" IVar="-1" Cut="0.0000000000000000e+00" cType="1" res="-1.2742560356855392e-03" rms="4.9388593435287476e-01" purity="4.4981595873832703e-01" nType="-99"/>
                <Node pos="r" depth="5" NCoef="0" IVar="-1" Cut="0.0000000000000000e+00" cType="1" res="8.7845098460093141e-04" rms="4.9514365196228027e-01" purity="4.9665027856826782e-01" nType="-99"/>
              </Node>
            </Node>
          </Node>
          <Node pos="r" depth="2" NCoef="0" IVar="1" Cut="3.5417124629020691e-02" cType="1" res="-5.9409767389297485e-02" rms="3.3080145716667175e-01" purity="1.4385132491588593e-01" nType="0">
            <Node pos="l" depth="3" NCoef="0" IVar="3" Cut="4.8636731505393982e-01" cType="1" res="-3.6303520202636719e-02" rms="3.7694016098976135e-01" purity="2.0065289735794067e-01" nType="0">
              <Node pos="l" depth="4" NCoef="0" IVar="0" Cut="1.5572963953018188e+00" cType="1" res="-5.5469229817390442e-02" rms="3.0152529478073120e-01" purity="1.0600171238183975e-01" nType="0">
                <Node pos="l" depth="5" NCoef="0" IVar="2" Cut="1.9023728942871094e+02" cType="1" res="-4.5836325734853745e-02" rms="3.3986869454383850e-01" purity="1.3732346892356873e-01" nType="0">
                  <Node pos="l" depth="6" NCoef="0" IVar="-1" Cut="0.0000000000000000e+00" cType="1" res="-4.5952801592648029e-03" rms="3.6022207140922546e-01" purity="1.5933427214622498e-01" nType="-99"/>
                  <Node pos="r" depth="6" NCoef="0" IVar="4" Cut="1.6970013082027435e-01" cType="1" res="-5.5405303835868835e-02" rms="3.2904756069183350e-01" purity="1.2657324969768524e-01" nType="0">
                    <Node pos="l" depth="7" NCoef="0" IVar="-1" Cut="0.0000000000000000e+00" cType="1" res="-1.2455523014068604e-02" rms="3.0619451403617859e-01" purity="1.0659765452146530e-01" nType="-99"/>
                    <Node pos="r" depth="7" NCoef="0" IVar="-1" Cut="0.0000000000000000e+00" cType="1" res="-6.8569066934287548e-03" rms="3.5987138748168945e-01" purity="1.5630099177360535e-01" nType="-99"/>
                  </Node>
                </Node>
                <Node pos="r" depth="5" NCoef="0" IVar="5" Cut="6.0000000000000000e+00" cType="1" res="-7.2658210992813110e-02" rms="2.1105563640594482e-01" purity="5.0253883004188538e-02" nType="0">
                  <Node pos="l" depth="6" NCoef="0" IVar="-1" Cut="0.0000000000000000e+00" cType="1" res="-1.6424084082245827e-02" rms="2.4594385921955109e-01" purity="6.6243559122085571e-02" nType="-99"/>
                  <Node pos="r" depth="6" NCoef="0" IVar="-1" Cut="0.0000000000000000e+00" cType="1" res="-2.4100283160805702e-02" rms="1.8129859864711761e-01" purity="3.4551672637462616e-02" nType="-99"/>
                </Node>
              </Node>
              <Node pos="r" depth="4" NCoef="0" IVar="2" Cut="9.0890716552734375e+01" cType="1" res="-7.6727224513888359e-03" rms="4.6599417924880981e-01" purity="3.4204804897308350e-01" nType="0">
                <Node pos="l" depth="5" NCoef="0" IVar="-1" Cut="0.0000000000000000e+00" cType="1" res="1.6799796139821410e-03" rms="4.8166343569755554e-01" purity="3.9337435364723206e-01" nType="-99"/>
                <Node pos="r" depth="5" NCoef="0" IVar="4" Cut="7.5844123959541321e-02" cType="1" res="-1.8498079851269722e-02" rms="4.5875126123428345e-01" purity="3.2025587558746338e-01" nType="0">
                  <Node pos="l" depth="6" NCoef="0" IVar="-1" Cut="0.0000000000000000e+00" cType="1" res="-5.0209150649607182e-03" rms="4.4586873054504395e-01" purity="2.9683652520179749e-01" nType="-99"/>
                  <Node pos="r" depth="6" NCoef="0" IVar="-1" Cut="0.0000000000000000e+00" cType="1" res="2.2979824279900640e-04" rms="4.6708148717880249e-01" purity="3.3775955438613892e-01" nType="-99"/>
                </Node>
              </Node>
            </Node>
            <Node pos="r" depth="3" NCoef="0" IVar="1" Cut="6.7753553390502930e-01" cType="1" res="-6.9718897342681885e-02" rms="3.0743458867073059e-01" purity="1.1850861459970474e-01" nType="0">
              <Node pos="l" depth="4" NCoef="0" IVar="2" Cut="7.0471824645996094e+01" cType="1" res="-6.2632218003273010e-02" rms="3.3179423213005066e-01" purity="1.4233835041522980e-01" nType="0">
                <Node pos="l" depth="5" NCoef="0" IVar="-1" Cut="0.0000000000000000e+00" cType="1" res="-5.0557306967675686e-03" rms="3.8552320003509521e-01" purity="2.1331249177455902e-01" nType="-99"/>
                <Node pos="r" depth="5" NCoef="0" IVar="4" Cut="4.9819618463516235e-02" cType="1" res="-6.6884949803352356e-02" rms="3.2196167111396790e-01" purity="1.3073787093162537e-01" nType="0">
                  <Node pos="l" depth="6" NCoef="0" IVar="-1" Cut="0.0000000000000000e+00" cType="1" res="-1.6034672036767006e-02" rms="3.0530381202697754e-01" purity="1.1548625677824020e-01" nType="-99"/>
                  <Node pos="r" depth="6" NCoef="0" IVar="3" Cut="4.4315773248672485e-01" cType="1" res="-6.2514968216419220e-02" rms="3.2386162877082825e-01" purity="1.3276635110378265e-01" nType="0">
                    <Node pos="l" depth="7" NCoef="0" IVar="-1" Cut="0.0000000000000000e+00" cType="1" res="-1.6000414267182350e-02" rms="2.5741988420486450e-01" purity="7.3944956064224243e-02" nType="-99"/>
                    <Node pos="r" depth="7" NCoef="0" IVar="-1" Cut="0.0000000000000000e+00" cType="1" res="-6.1711673624813557e-03" rms="4.1474825143814087e-01" purity="2.3537370562553406e-01" nType="-99"/>
                  </Node>
                </Node>
              </Node>
              <Node pos="r" depth="4" NCoef="0" IVar="3" Cut="5.3305548429489136e-01" cType="1" res="-8.2431584596633911e-02" rms="2.5754827260971069e-01" purity="7.5760863721370697e-02" nType="0">
                <Node pos="l" depth="5" NCoef="0" IVar="1" Cut="1.8669819831848145e+00" cType="1" res="-7.8869089484214783e-02" rms="2.2660124301910400e-01" purity="5.5824454873800278e-02" nType="0">
                  <Node pos="l" depth="6" NCoef="0" IVar="1" Cut="7.9256999492645264e-01" cType="1" res="-8.2548052072525024e-02" rms="2.2161920368671417e-01" purity="5.3664956241846085e-02" nType="0">
                    <Node pos="l" depth="7" NCoef="0" IVar="-1" Cut="0.0000000000000000e+00" cType="1" res="-1.6440473496913910e-02" rms="2.5030019879341125e-01" purity="7.0613548159599304e-02" nType="-99"/>
                    <Node pos="r" depth="7" NCoef="0" IVar="-1" Cut="0.0000000000000000e+00" cType="1" res="-2.1509809419512749e-02" rms="2.1377216279506683e-01" purity="4.9438439309597015e-02" nType="-99"/>
                  </Node>
                  <Node pos="r" depth="6" NCoef="0" IVar="-1" Cut="0.0000000000000000e+00" cType="1" res="-1.6562685370445251e-02" rms="2.4581834673881531e-01" purity="6.4889557659626007e-02" nType="-99"/>
                </Node>
                <Node pos="r" depth="5" NCoef="0" IVar="-1" Cut="0.0000000000000000e+00" cType="1" res="-1.2742853723466396e-02" rms="3.9197430014610291e-01" purity="1.9261863827705383e-01" nType="-99"/>
              </Node>
            </Node>
          </Node>
        </Node>
        <Node pos="r" depth="1" NCoef="0" IVar="0" Cut="5.4476183652877808e-01" cType="1" res="5.9369165450334549e-02" rms="4.3882539868354797e-01" purity="7.1588850021362305e-01" nType="0">
          <Node pos="l" depth="2" NCoef="0" IVar="3" Cut="8.7649750709533691e-01" cType="1" res="6.2826827168464661e-02" rms="4.3681386113166809e-01" purity="7.2504866123199463e-01" nType="0">
            <Node pos="l" depth="3" NCoef="0" IVar="1" Cut="7.5698179006576538e-01" cType="1" res="3.6774814128875732e-02" rms="4.7540193796157837e-01" purity="6.3058727979660034e-01" nType="0">
              <Node pos="l" depth="4" NCoef="0" IVar="3" Cut="7.4969148635864258e-01" cType="1" res="4.2675584554672241e-02" rms="4.7344490885734558e-01" purity="6.4542049169540405e-01" nType="0">
                <Node pos="l" depth="5" NCoef="0" IVar="4" Cut="5.0933603197336197e-02" cType="1" res="1.7338300123810768e-02" rms="4.9252334237098694e-01" purity="5.6369900703430176e-01" nType="0">
                  <Node pos="l" depth="6" NCoef="0" IVar="-1" Cut="0.0000000000000000e+00" cType="1" res="-8.5784465773031116e-04" rms="4.9568185210227966e-01" purity="5.3541982173919678e-01" nType="-99"/>
                  <Node pos="r" depth="6" NCoef="0" IVar="-1" Cut="0.0000000000000000e+00" cType="1" res="2.9078947845846415e-03" rms="4.8970749974250793e-01" purity="5.8178651332855225e-01" nType="-99"/>
                </Node>
                <Node pos="r" depth="5" NCoef="0" IVar="0" Cut="1.7570646479725838e-02" cType="1" res="4.8459928482770920e-02" rms="4.6878862380981445e-01" purity="6.6407698392868042e-01" nType="0">
                  <Node pos="l" depth="6" NCoef="0" IVar="4" Cut="3.6128759384155273e-02" cType="1" res="5.3527183830738068e-02" rms="4.6273961663246155e-01" purity="6.8486732244491577e-01" nType="0">
                    <Node pos="l" depth="7" NCoef="0" IVar="-1" Cut="0.0000000000000000e+00" cType="1" res="3.7552637513726950e-03" rms="4.6498402953147888e-01" purity="6.7921453714370728e-01" nType="-99"/>
                    <Node pos="r" depth="7" NCoef="0" IVar="-1" Cut="0.0000000000000000e+00" cType="1" res="4.9760476686060429e-03" rms="4.6136119961738586e-01" purity="6.8806660175323486e-01" nType="-99"/>
                  </Node>
                  <Node pos="r" depth="6" NCoef="0" IVar="4" Cut="4.4080808758735657e-02" cType="1" res="3.0410364270210266e-02" rms="4.8930230736732483e-01" purity="5.9002184867858887e-01" nType="0">
                    <Node pos="l" depth="7" NCoef="0" IVar="-1" Cut="0.0000000000000000e+00" cType="1" res="1.7006698762997985e-03" rms="4.8981955647468567e-01" purity="5.8499920368194580e-01" nType="-99"/>
                    <Node pos="r" depth="7" NCoef="0" IVar="-1" Cut="0.0000000000000000e+00" cType="1" res="4.0031922981142998e-03" rms="4.8822042346000671e-01" purity="5.9639638662338257e-01" nType="-99"/>
                  </Node>
                </Node>
              </Node>
              <Node pos="r" depth="4" NCoef="0" IVar="-1" Cut="0.0000000000000000e+00" cType="1" res="-3.0062040314078331e-03" rms="4.9295115470886230e-01" purity="4.5043554902076721e-01" nType="-99"/>
            </Node>
            <Node pos="r" depth="3" NCoef="0" IVar="1" Cut="9.1158348321914673e-01" cType="1" res="7.6160222291946411e-02" rms="4.1504886746406555e-01" purity="7.7339392900466919e-01" nType="0">
              <Node pos="l" depth="4" NCoef="0" IVar="3" Cut="9.8349249362945557e-01" cType="1" res="7.8563161194324493e-02" rms="4.1092163324356079e-01" purity="7.8184729814529419e-01" nType="0">
                <Node pos="l" depth="5" NCoef="0" IVar="1" Cut="-5.9515304863452911e-02" cType="1" res="6.6532693803310394e-02" rms="4.2910015583038330e-01" purity="7.5322550535202026e-01" nType="0">
                  <Node pos="l" depth="6" NCoef="0" IVar="4" Cut="1.1091492138803005e-02" cType="1" res="7.7592760324478149e-02" rms="4.1646096110343933e-01" purity="7.7657073736190796e-01" nType="0">
                    <Node pos="l" depth="7" NCoef="0" IVar="-1" Cut="0.0000000000000000e+00" cType="1" res="6.5207616426050663e-03" rms="4.1744488477706909e-01" purity="7.7474576234817505e-01" nType="-99"/>
                    <Node pos="r" depth="7" NCoef="0" IVar="-1" Cut="0.0000000000000000e+00" cType="1" res="8.3805602043867111e-03" rms="4.1542518138885498e-01" purity="7.7839267253875732e-01" nType="-99"/>
                  </Node>
                  <Node pos="r" depth="6" NCoef="0" IVar="1" Cut="1.2842737138271332e-01" cType="1" res="6.0877505689859390e-02" rms="4.3531250953674316e-01" purity="7.4128866195678711e-01" nType="0">
                    <Node pos="l" depth="7" NCoef="0" IVar="-1" Cut="0.0000000000000000e+00" cType="1" res="7.4599864892661572e-03" rms="4.1752684116363525e-01" purity="7.7386516332626343e-01" nType="-99"/>
                    <Node pos="r" depth="7" NCoef="0" IVar="-1" Cut="0.0000000000000000e+00" cType="1" res="3.7028111983090639e-03" rms="4.5721641182899475e-01" purity="6.9758296012878418e-01" nType="-99"/>
                  </Node>
                </Node>
                <Node pos="r" depth="5" NCoef="0" IVar="3" Cut="1.0479214191436768e+00" cType="1" res="8.3032086491584778e-02" rms="4.0386933088302612e-01" purity="7.9247933626174927e-01" nType="0">
                  <Node pos="l" depth="6" NCoef="0" IVar="3" Cut="1.0001161098480225e+00" cType="1" res="8.4804616868495941e-02" rms="4.0273630619049072e-01" purity="7.9440349340438843e-01" nType="0">
                    <Node pos="l" depth="7" NCoef="0" IVar="-1" Cut="0.0000000000000000e+00" cType="1" res="7.1389074437320232e-03" rms="4.1019594669342041e-01" purity="7.8362900018692017e-01" nType="-99"/>
                    <Node pos="r" depth="7" NCoef="0" IVar="-1" Cut="0.0000000000000000e+00" cType="1" res="8.6720539256930351e-03" rms="3.9452806115150452e-01" purity="8.0568605661392212e-01" nType="-99"/>
                  </Node>
                  <Node pos="r" depth="6" NCoef="0" IVar="-1" Cut="0.0000000000000000e+00" cType="1" res="4.5642186887562275e-03" rms="4.2279857397079468e-01" purity="7.5718677043914795e-01" nType="-99"/>
                </Node>
              </Node>
              <Node pos="r" depth="4" NCoef="0" IVar="-1" Cut="0.0000000000000000e+00" cType="1" res="2.4130826350301504e-03" rms="4.8559713363647461e-01" purity="6.1022245883941650e-01" nType="-99"/>
            </Node>
          </Node>
          <Node pos="r" depth="2" NCoef="0" IVar="-1" Cut="0.0000000000000000e+00" cType="1" res="-4.9036112613976002e-03" rms="4.8731523752212524e-01" purity="4.1172364354133606e-01" nType="-99"/>
        </Node>
      </Node>
    </BinaryTree>
    <BinaryTree type="DecisionTree" boostWeight="1.0000000000000000e+00" itree="34">
      <Node pos="s" depth="0" NCoef="0" IVar="3" Cut="7.1339625120162964e-01" cType="1" res="1.3669663108885288e-02" rms="4.1553691029548645e-01" purity="5.0085759162902832e-01" nType="0">
        <Node pos="l" depth="1" NCoef="0" IVar="3" Cut="4.8720541596412659e-01" cType="1" res="-4.3628375977277756e-02" rms="3.7523469328880310e-01" purity="2.1267546713352203e-01" nType="0">
          <Node pos="l" depth="2" NCoef="0" IVar="4" Cut="1.4116869866847992e-01" cType="1" res="-6.0714840888977051e-02" rms="2.8817412257194519e-01" purity="9.7979053854942322e-02" nType="0">
            <Node pos="l" depth="3" NCoef="0" IVar="4" Cut="7.7535845339298248e-02" cType="1" res="-7.0173822343349457e-02" rms="2.4678306281566620e-01" purity="6.8004488945007324e-02" nType="0">
              <Node pos="l" depth="4" NCoef="0" IVar="2" Cut="8.8529228210449219e+01" cType="1" res="-7.5535684823989868e-02" rms="2.2704440355300903e-01" purity="5.6067075580358505e-02" nType="0">
                <Node pos="l" depth="5" NCoef="0" IVar="4" Cut="3.2667804509401321e-02" cType="1" res="-6.7603372037410736e-02" rms="2.5687688589096069e-01" purity="7.3281623423099518e-02" nType="0">
                  <Node pos="l" depth="6" NCoef="0" IVar="-1" Cut="0.0000000000000000e+00" cType="1" res="-1.8713401630520821e-02" rms="2.3773917555809021e-01" purity="6.0834966599941254e-02" nType="-99"/>
                  <Node pos="r" depth="6" NCoef="0" IVar="-1" Cut="0.0000000000000000e+00" cType="1" res="-1.4106809161603451e-02" rms="2.7023050189018250e-01" purity="8.2769535481929779e-02" nType="-99"/>
                </Node>
                <Node pos="r" depth="5" NCoef="0" IVar="3" Cut="3.9723679423332214e-01" cType="1" res="-8.0947302281856537e-02" rms="2.0402932167053223e-01" purity="4.4322893023490906e-02" nType="0">
                  <Node pos="l" depth="6" NCoef="0" IVar="5" Cut="6.0000000000000000e+00" cType="1" res="-7.5694695115089417e-02" rms="1.7343631386756897e-01" purity="3.3084738999605179e-02" nType="0">
                    <Node pos="l" depth="7" NCoef="0" IVar="-1" Cut="0.0000000000000000e+00" cType="1" res="-2.0809108391404152e-02" rms="1.9737069308757782e-01" purity="4.0941603481769562e-02" nType="-99"/>
                    <Node pos="r" depth="7" NCoef="0" IVar="-1" Cut="0.0000000000000000e+00" cType="1" res="-2.3487498983740807e-02" rms="1.5460093319416046e-01" purity="2.5006268173456192e-02" nType="-99"/>
                  </Node>
                  <Node pos="r" depth="6" NCoef="0" IVar="-1" Cut="0.0000000000000000e+00" cType="1" res="-1.8099397420883179e-02" rms="2.4930366873741150e-01" purity="6.7275881767272949e-02" nType="-99"/>
                </Node>
              </Node>
              <Node pos="r" depth="4" NCoef="0" IVar="2" Cut="3.9215582275390625e+02" cType="1" res="-6.5455578267574310e-02" rms="2.6283907890319824e-01" purity="7.8508988022804260e-02" nType="0">
                <Node pos="l" depth="5" NCoef="0" IVar="3" Cut="3.5106927156448364e-01" cType="1" res="-5.9822227805852890e-02" rms="2.7200803160667419e-01" purity="8.4985904395580292e-02" nType="0">
                  <Node pos="l" depth="6" NCoef="0" IVar="4" Cut="9.3957237899303436e-02" cType="1" res="-7.3423042893409729e-02" rms="1.9424395263195038e-01" purity="3.9687171578407288e-02" nType="0">
                    <Node pos="l" depth="7" NCoef="0" IVar="-1" Cut="0.0000000000000000e+00" cType="1" res="-2.5164965540170670e-02" rms="1.6698196530342102e-01" purity="2.8940130025148392e-02" nType="-99"/>
                    <Node pos="r" depth="7" NCoef="0" IVar="-1" Cut="0.0000000000000000e+00" cType="1" res="-2.1335296332836151e-02" rms="2.0644819736480713e-01" purity="4.5050900429487228e-02" nType="-99"/>
                  </Node>
                  <Node pos="r" depth="6" NCoef="0" IVar="5" Cut="5.0000000000000000e+00" cType="1" res="-4.4980328530073166e-02" rms="3.3551529049873352e-01" purity="1.3400408625602722e-01" nType="0">
                    <Node pos="l" depth="7" NCoef="0" IVar="-1" Cut="0.0000000000000000e+00" cType="1" res="-1.1209530755877495e-02" rms="3.1817162036895752e-01" purity="1.1755650490522385e-01" nType="-99"/>
                    <Node pos="r" depth="7" NCoef="0" IVar="-1" Cut="0.0000000000000000e+00" cType="1" res="-5.2628335542976856e-03" rms="3.5576644539833069e-01" purity="1.5414813160896301e-01" nType="-99"/>
                  </Node>
                </Node>
                <Node pos="r" depth="5" NCoef="0" IVar="4" Cut="1.1858335137367249e-01" cType="1" res="-8.2466550171375275e-02" rms="2.3214356601238251e-01" purity="5.8950696140527725e-02" nType="0">
                  <Node pos="l" depth="6" NCoef="0" IVar="-1" Cut="0.0000000000000000e+00" cType="1" res="-1.9335540011525154e-02" rms="2.1176908910274506e-01" purity="4.7909114509820938e-02" nType="-99"/>
                  <Node pos="r" depth="6" NCoef="0" IVar="-1" Cut="0.0000000000000000e+00" cType="1" res="-1.7158666625618935e-02" rms="2.5090295076370239e-01" purity="7.0077486336231232e-02" nType="-99"/>
                </Node>
              </Node>
            </Node>
            <Node pos="r" depth="3" NCoef="0" IVar="4" Cut="2.7339547872543335e-01" cType="1" res="-4.4129233807325363e-02" rms="3.4847879409790039e-01" purity="1.5053716301918030e-01" nType="0">
              <Node pos="l" depth="4" NCoef="0" IVar="3" Cut="4.1097027063369751e-01" cType="1" res="-4.9760434776544571e-02" rms="3.3932670950889587e-01" purity="1.4101308584213257e-01" nType="0">
                <Node pos="l" depth="5" NCoef="0" IVar="5" Cut="5.0000000000000000e+00" cType="1" res="-5.6451633572578430e-02" rms="3.1505006551742554e-01" purity="1.1771962046623230e-01" nType="0">
                  <Node pos="l" depth="6" NCoef="0" IVar="-1" Cut="0.0000000000000000e+00" cType="1" res="-6.5020569600164890e-03" rms="3.6023667454719543e-01" purity="1.6138595342636108e-01" nType="-99"/>
                  <Node pos="r" depth="6" NCoef="0" IVar="2" Cut="4.1414059448242188e+02" cType="1" res="-6.4451687037944794e-02" rms="2.9540818929672241e-01" purity="9.9454604089260101e-02" nType="0">
                    <Node pos="l" depth="7" NCoef="0" IVar="-1" Cut="0.0000000000000000e+00" cType="1" res="-1.0841127485036850e-02" rms="3.0857944488525391e-01" purity="1.1085744947195053e-01" nType="-99"/>
                    <Node pos="r" depth="7" NCoef="0" IVar="-1" Cut="0.0000000000000000e+00" cType="1" res="-1.5042271465063095e-02" rms="2.8510665893554688e-01" purity="9.1227009892463684e-02" nType="-99"/>
                  </Node>
                </Node>
                <Node pos="r" depth="5" NCoef="0" IVar="-1" Cut="0.0000000000000000e+00" cType="1" res="-2.4575144052505493e-03" rms="4.2694452404975891e-01" purity="2.4570454657077789e-01" nType="-99"/>
              </Node>
              <Node pos="r" depth="4" NCoef="0" IVar="-1" Cut="0.0000000000000000e+00" cType="1" res="-7.9593312693759799e-04" rms="4.0400600433349609e-01" purity="2.1637982130050659e-01" nType="-99"/>
            </Node>
          </Node>
          <Node pos="r" depth="2" NCoef="0" IVar="3" Cut="6.3313299417495728e-01" cType="1" res="-2.1551050245761871e-02" rms="4.6321016550064087e-01" purity="3.6087405681610107e-01" nType="0">
            <Node pos="l" depth="3" NCoef="0" IVar="4" Cut="1.1457187682390213e-01" cType="1" res="-3.4322809427976608e-02" rms="4.4572314620018005e-01" purity="2.9788392782211304e-01" nType="0">
              <Node pos="l" depth="4" NCoef="0" IVar="2" Cut="8.6020027160644531e+01" cType="1" res="-4.3432731181383133e-02" rms="4.3553289771080017e-01" purity="2.7633351087570190e-01" nType="0">
                <Node pos="l" depth="5" NCoef="0" IVar="1" Cut="1.1880136281251907e-01" cType="1" res="-1.6718845814466476e-02" rms="4.5267495512962341e-01" purity="3.1558659672737122e-01" nType="0">
                  <Node pos="l" depth="6" NCoef="0" IVar="-1" Cut="0.0000000000000000e+00" cType="1" res="1.6739001730456948e-03" rms="4.7942951321601868e-01" purity="3.8827455043792725e-01" nType="-99"/>
                  <Node pos="r" depth="6" NCoef="0" IVar="-1" Cut="0.0000000000000000e+00" cType="1" res="-5.6462585926055908e-03" rms="4.2451414465904236e-01" purity="2.4950066208839417e-01" nType="-99"/>
                </Node>
                <Node pos="r" depth="5" NCoef="0" IVar="4" Cut="5.3960986435413361e-02" cType="1" res="-5.4714139550924301e-02" rms="4.2758670449256897e-01" purity="2.5975674390792847e-01" nType="0">
                  <Node pos="l" depth="6" NCoef="0" IVar="-1" Cut="0.0000000000000000e+00" cType="1" res="-1.1516714468598366e-02" rms="3.8820236921310425e-01" purity="1.9815133512020111e-01" nType="-99"/>
                  <Node pos="r" depth="6" NCoef="0" IVar="2" Cut="3.2891589355468750e+02" cType="1" res="-4.5129094272851944e-02" rms="4.3642535805702209e-01" purity="2.7527505159378052e-01" nType="0">
                    <Node pos="l" depth="7" NCoef="0" IVar="-1" Cut="0.0000000000000000e+00" cType="1" res="-3.9621186442673206e-03" rms="4.4324991106987000e-01" purity="2.8903135657310486e-01" nType="-99"/>
                    <Node pos="r" depth="7" NCoef="0" IVar="-1" Cut="0.0000000000000000e+00" cType="1" res="-9.1186715289950371e-03" rms="4.1131454706192017e-01" purity="2.2972376644611359e-01" nType="-99"/>
                  </Node>
                </Node>
              </Node>
              <Node pos="r" depth="4" NCoef="0" IVar="2" Cut="3.7565310668945312e+02" cType="1" res="-1.0152485221624374e-02" rms="4.7084066271781921e-01" purity="3.5506114363670349e-01" nType="0">
                <Node pos="l" depth="5" NCoef="0" IVar="-1" Cut="0.0000000000000000e+00" cType="1" res="7.6984980842098594e-04" rms="4.8035490512847900e-01" purity="3.8588711619377136e-01" nType="-99"/>
                <Node pos="r" depth="5" NCoef="0" IVar="-1" Cut="0.0000000000000000e+00" cType="1" res="-3.4254970960319042e-03" rms="4.5809739828109741e-01" purity="3.1773084402084351e-01" nType="-99"/>
              </Node>
            </Node>
            <Node pos="r" depth="3" NCoef="0" IVar="2" Cut="1.8752557373046875e+02" cType="1" res="-1.4485509600490332e-03" rms="4.8879489302635193e-01" purity="4.6001926064491272e-01" nType="0">
              <Node pos="l" depth="4" NCoef="0" IVar="4" Cut="5.9785313904285431e-02" cType="1" res="1.2884831055998802e-02" rms="4.8985281586647034e-01" purity="4.7927805781364441e-01" nType="0">
                <Node pos="l" depth="5" NCoef="0" IVar="2" Cut="5.5125488281250000e+01" cType="1" res="-1.1179903522133827e-02" rms="4.8709529638290405e-01" purity="4.3814343214035034e-01" nType="0">
                  <Node pos="l" depth="6" NCoef="0" IVar="-1" Cut="0.0000000000000000e+00" cType="1" res="1.8057911656796932e-03" rms="4.9155604839324951e-01" purity="4.8244094848632812e-01" nType="-99"/>
                  <Node pos="r" depth="6" NCoef="0" IVar="-1" Cut="0.0000000000000000e+00" cType="1" res="-3.2550808973610401e-03" rms="4.8248082399368286e-01" purity="4.0593975782394409e-01" nType="-99"/>
                </Node>
                <Node pos="r" depth="5" NCoef="0" IVar="-1" Cut="0.0000000000000000e+00" cType="1" res="3.5890631843358278e-03" rms="4.9165162444114685e-01" purity="5.3241407871246338e-01" nType="-99"/>
              </Node>
              <Node pos="r" depth="4" NCoef="0" IVar="0" Cut="2.2979560494422913e-01" cType="1" res="-2.5634864345192909e-02" rms="4.8604708909988403e-01" purity="4.2752176523208618e-01" nType="0">
                <Node pos="l" depth="5" NCoef="0" IVar="-1" Cut="0.0000000000000000e+00" cType="1" res="-8.4022874943912029e-04" rms="4.9580475687980652e-01" purity="4.8697823286056519e-01" nType="-99"/>
                <Node pos="r" depth="5" NCoef="0" IVar="-1" Cut="0.0000000000000000e+00" cType="1" res="-4.4881347566843033e-03" rms="4.7294393181800842e-01" purity="3.5399156808853149e-01" nType="-99"/>
              </Node>
            </Node>
          </Node>
        </Node>
        <Node pos="r" depth="1" NCoef="0" IVar="0" Cut="6.1320698261260986e-01" cType="1" res="5.6428611278533936e-02" rms="4.3837839365005493e-01" purity="7.1591496467590332e-01" nType="0">
          <Node pos="l" depth="2" NCoef="0" IVar="3" Cut="8.7709838151931763e-01" cType="1" res="5.9950057417154312e-02" rms="4.3674007058143616e-01" purity="7.2441053390502930e-01" nType="0">
            <Node pos="l" depth="3" NCoef="0" IVar="1" Cut="4.7089749574661255e-01" cType="1" res="3.3146895468235016e-02" rms="4.7580438852310181e-01" purity="6.2852394580841064e-01" nType="0">
              <Node pos="l" depth="4" NCoef="0" IVar="3" Cut="7.5036090612411499e-01" cType="1" res="4.0653735399246216e-02" rms="4.7249591350555420e-01" purity="6.4952194690704346e-01" nType="0">
                <Node pos="l" depth="5" NCoef="0" IVar="4" Cut="6.3728325068950653e-02" cType="1" res="9.5368977636098862e-03" rms="4.9316838383674622e-01" purity="5.6087219715118408e-01" nType="0">
                  <Node pos="l" depth="6" NCoef="0" IVar="-1" Cut="0.0000000000000000e+00" cType="1" res="-5.2558124298229814e-04" rms="4.9385339021682739e-01" purity="5.4269492626190186e-01" nType="-99"/>
                  <Node pos="r" depth="6" NCoef="0" IVar="-1" Cut="0.0000000000000000e+00" cType="1" res="2.3948971647769213e-03" rms="4.9167037010192871e-01" purity="5.8293932676315308e-01" nType="-99"/>
                </Node>
                <Node pos="r" depth="5" NCoef="0" IVar="4" Cut="3.6797478795051575e-02" cType="1" res="4.7698520123958588e-02" rms="4.6740135550498962e-01" purity="6.6959208250045776e-01" nType="0">
                  <Node pos="l" depth="6" NCoef="0" IVar="2" Cut="4.2117450714111328e+01" cType="1" res="3.2062556594610214e-02" rms="4.7056272625923157e-01" purity="6.5830069780349731e-01" nType="0">
                    <Node pos="l" depth="7" NCoef="0" IVar="-1" Cut="0.0000000000000000e+00" cType="1" res="4.3584415689110756e-03" rms="4.6355217695236206e-01" purity="6.7881512641906738e-01" nType="-99"/>
                    <Node pos="r" depth="7" NCoef="0" IVar="-1" Cut="0.0000000000000000e+00" cType="1" res="1.2740807142108679e-03" rms="4.7644060850143433e-01" purity="6.3872259855270386e-01" nType="-99"/>
                  </Node>
                  <Node pos="r" depth="6" NCoef="0" IVar="2" Cut="1.5027223205566406e+02" cType="1" res="5.7289797812700272e-02" rms="4.6519154310226440e-01" purity="6.7651832103729248e-01" nType="0">
                    <Node pos="l" depth="7" NCoef="0" IVar="-1" Cut="0.0000000000000000e+00" cType="1" res="5.4503362625837326e-03" rms="4.5923012495040894e-01" purity="6.9304573535919189e-01" nType="-99"/>
                    <Node pos="r" depth="7" NCoef="0" IVar="-1" Cut="0.0000000000000000e+00" cType="1" res="3.9354977197945118e-03" rms="4.7333481907844543e-01" purity="6.5268433094024658e-01" nType="-99"/>
                  </Node>
                </Node>
              </Node>
              <Node pos="r" depth="4" NCoef="0" IVar="2" Cut="8.7247642517089844e+01" cType="1" res="-1.1168694123625755e-02" rms="4.9255925416946411e-01" purity="5.0456511974334717e-01" nType="0">
                <Node pos="l" depth="5" NCoef="0" IVar="-1" Cut="0.0000000000000000e+00" cType="1" res="-3.5892033483833075e-03" rms="4.9061888456344604e-01" purity="4.7788652777671814e-01" nType="-99"/>
                <Node pos="r" depth="5" NCoef="0" IVar="-1" Cut="0.0000000000000000e+00" cType="1" res="7.4958289042115211e-04" rms="4.9273124337196350e-01" purity="5.2131301164627075e-01" nType="-99"/>
              </Node>
            </Node>
            <Node pos="r" depth="3" NCoef="0" IVar="1" Cut="3.1614252924919128e-01" cType="1" res="7.3663935065269470e-02" rms="4.1466486454010010e-01" purity="7.7347105741500854e-01" nType="0">
              <Node pos="l" depth="4" NCoef="0" IVar="2" Cut="1.1540225219726562e+02" cType="1" res="8.0655582249164581e-02" rms="4.0388575196266174e-01" purity="7.9297852516174316e-01" nType="0">
                <Node pos="l" depth="5" NCoef="0" IVar="3" Cut="9.5691430568695068e-01" cType="1" res="8.2294479012489319e-02" rms="4.0232628583908081e-01" purity="7.9546391963958740e-01" nType="0">
                  <Node pos="l" depth="6" NCoef="0" IVar="4" Cut="2.5181503966450691e-02" cType="1" res="7.2282150387763977e-02" rms="4.2352375388145447e-01" purity="7.6387399435043335e-01" nType="0">
                    <Node pos="l" depth="7" NCoef="0" IVar="-1" Cut="0.0000000000000000e+00" cType="1" res="5.8950451202690601e-03" rms="4.3110373616218567e-01" purity="7.5081545114517212e-01" nType="-99"/>
                    <Node pos="r" depth="7" NCoef="0" IVar="-1" Cut="0.0000000000000000e+00" cType="1" res="9.3137677758932114e-03" rms="4.0907245874404907e-01" purity="7.8678876161575317e-01" nType="-99"/>
                  </Node>
                  <Node pos="r" depth="6" NCoef="0" IVar="3" Cut="1.0290070772171021e+00" cType="1" res="8.4156289696693420e-02" rms="3.9823243021965027e-01" purity="8.0133819580078125e-01" nType="0">
                    <Node pos="l" depth="7" NCoef="0" IVar="-1" Cut="0.0000000000000000e+00" cType="1" res="8.0279931426048279e-03" rms="3.9766663312911987e-01" purity="8.0213826894760132e-01" nType="-99"/>
                    <Node pos="r" depth="7" NCoef="0" IVar="-1" Cut="0.0000000000000000e+00" cType="1" res="7.0996046997606754e-03" rms="4.0362229943275452e-01" purity="7.9355680942535400e-01" nType="-99"/>
                  </Node>
                </Node>
                <Node pos="r" depth="5" NCoef="0" IVar="-1" Cut="0.0000000000000000e+00" cType="1" res="4.2058834806084633e-03" rms="4.3888634443283081e-01" purity="7.3125851154327393e-01" nType="-99"/>
              </Node>
              <Node pos="r" depth="4" NCoef="0" IVar="3" Cut="9.8337519168853760e-01" cType="1" res="4.5523613691329956e-02" rms="4.5439025759696960e-01" purity="6.9495660066604614e-01" nType="0">
                <Node pos="l" depth="5" NCoef="0" IVar="-1" Cut="0.0000000000000000e+00" cType="1" res="9.4111333601176739e-04" rms="4.7784352302551270e-01" purity="6.2764620780944824e-01" nType="-99"/>
                <Node pos="r" depth="5" NCoef="0" IVar="1" Cut="9.3842834234237671e-01" cType="1" res="5.5737823247909546e-02" rms="4.4681996107101440e-01" purity="7.1453464031219482e-01" nType="0">
                  <Node pos="l" depth="6" NCoef="0" IVar="1" Cut="5.3675085306167603e-01" cType="1" res="6.1795454472303391e-02" rms="4.3535482883453369e-01" purity="7.4112790822982788e-01" nType="0">
                    <Node pos="l" depth="7" NCoef="0" IVar="-1" Cut="0.0000000000000000e+00" cType="1" res="5.1735215820372105e-03" rms="4.2999446392059326e-01" purity="7.5079226493835449e-01" nType="-99"/>
                    <Node pos="r" depth="7" NCoef="0" IVar="-1" Cut="0.0000000000000000e+00" cType="1" res="5.6083737872540951e-03" rms="4.4306105375289917e-01" purity="7.2690540552139282e-01" nType="-99"/>
                  </Node>
                  <Node pos="r" depth="6" NCoef="0" IVar="-1" Cut="0.0000000000000000e+00" cType="1" res="2.8548662085086107e-03" rms="4.8342591524124146e-01" purity="6.2354117631912231e-01" nType="-99"/>
                </Node>
              </Node>
            </Node>
          </Node>
          <Node pos="r" depth="2" NCoef="0" IVar="-1" Cut="0.0000000000000000e+00" cType="1" res="-7.9205790534615517e-03" rms="4.7904491424560547e-01" purity="3.7010806798934937e-01" nType="-99"/>
        </Node>
      </Node>
    </BinaryTree>
    <BinaryTree type="DecisionTree" boostWeight="1.0000000000000000e+00" itree="35">
      <Node pos="s" depth="0" NCoef="0" IVar="3" Cut="7.1610695123672485e-01" cType="1" res="1.2975660152733326e-02" rms="4.1477903723716736e-01" purity="5.0043731927871704e-01" nType="0">
        <Node pos="l" depth="1" NCoef="0" IVar="3" Cut="4.8889735341072083e-01" cType="1" res="-4.2324077337980270e-02" rms="3.7451454997062683e-01" purity="2.1289052069187164e-01" nType="0">
          <Node pos="l" depth="2" NCoef="0" IVar="4" Cut="2.6914688944816589e-01" cType="1" res="-5.9631865471601486e-02" rms="2.8615865111351013e-01" purity="9.6410445868968964e-02" nType="0">
            <Node pos="l" depth="3" NCoef="0" IVar="3" Cut="3.6576488614082336e-01" cType="1" res="-6.1569258570671082e-02" rms="2.7954030036926270e-01" purity="9.1098546981811523e-02" nType="0">
              <Node pos="l" depth="4" NCoef="0" IVar="5" Cut="4.0000000000000000e+00" cType="1" res="-6.7072041332721710e-02" rms="2.3316949605941772e-01" purity="6.1715707182884216e-02" nType="0">
                <Node pos="l" depth="5" NCoef="0" IVar="-1" Cut="0.0000000000000000e+00" cType="1" res="-8.4165735170245171e-03" rms="3.1730821728706360e-01" purity="1.1946838349103928e-01" nType="-99"/>
                <Node pos="r" depth="5" NCoef="0" IVar="0" Cut="6.4372181892395020e-01" cType="1" res="-7.0809260010719299e-02" rms="2.2246511280536652e-01" purity="5.3949233144521713e-02" nType="0">
                  <Node pos="l" depth="6" NCoef="0" IVar="-1" Cut="0.0000000000000000e+00" cType="1" res="-1.4178146608173847e-02" rms="3.3857515454292297e-01" purity="1.3362452387809753e-01" nType="-99"/>
                  <Node pos="r" depth="6" NCoef="0" IVar="4" Cut="1.4775167405605316e-01" cType="1" res="-6.8526029586791992e-02" rms="2.0428453385829926e-01" purity="4.4520031660795212e-02" nType="0">
                    <Node pos="l" depth="7" NCoef="0" IVar="-1" Cut="0.0000000000000000e+00" cType="1" res="-2.2858235985040665e-02" rms="1.7469580471515656e-01" purity="3.1839221715927124e-02" nType="-99"/>
                    <Node pos="r" depth="7" NCoef="0" IVar="-1" Cut="0.0000000000000000e+00" cType="1" res="-1.4961682260036469e-02" rms="2.6230445504188538e-01" purity="7.5255475938320160e-02" nType="-99"/>
                  </Node>
                </Node>
              </Node>
              <Node pos="r" depth="4" NCoef="0" IVar="4" Cut="1.7332158982753754e-01" cType="1" res="-5.3288653492927551e-02" rms="3.3430245518684387e-01" purity="1.3518399000167847e-01" nType="0">
                <Node pos="l" depth="5" NCoef="0" IVar="2" Cut="1.6419197082519531e+02" cType="1" res="-5.8429073542356491e-02" rms="3.1843852996826172e-01" purity="1.1940183490514755e-01" nType="0">
                  <Node pos="l" depth="6" NCoef="0" IVar="1" Cut="1.0037231445312500e-01" cType="1" res="-4.5940749347209930e-02" rms="3.2999393343925476e-01" purity="1.3046899437904358e-01" nType="0">
                    <Node pos="l" depth="7" NCoef="0" IVar="-1" Cut="0.0000000000000000e+00" cType="1" res="-2.7258084155619144e-03" rms="3.7672725319862366e-01" purity="1.8097901344299316e-01" nType="-99"/>
                    <Node pos="r" depth="7" NCoef="0" IVar="-1" Cut="0.0000000000000000e+00" cType="1" res="-1.2337773106992245e-02" rms="3.0100148916244507e-01" purity="1.0356807708740234e-01" nType="-99"/>
                  </Node>
                  <Node pos="r" depth="6" NCoef="0" IVar="2" Cut="4.1175979614257812e+02" cType="1" res="-6.7556761205196381e-02" rms="3.0940145254135132e-01" purity="1.1131287366151810e-01" nType="0">
                    <Node pos="l" depth="7" NCoef="0" IVar="-1" Cut="0.0000000000000000e+00" cType="1" res="-1.1665577068924904e-02" rms="3.0911052227020264e-01" purity="1.1153944581747055e-01" nType="-99"/>
                    <Node pos="r" depth="7" NCoef="0" IVar="-1" Cut="0.0000000000000000e+00" cType="1" res="-1.3688640668988228e-02" rms="3.0964151024818420e-01" purity="1.1079260706901550e-01" nType="-99"/>
                  </Node>
                </Node>
                <Node pos="r" depth="5" NCoef="0" IVar="-1" Cut="0.0000000000000000e+00" cType="1" res="-2.4584338534623384e-03" rms="4.2396920919418335e-01" purity="2.4088692665100098e-01" nType="-99"/>
              </Node>
            </Node>
            <Node pos="r" depth="3" NCoef="0" IVar="-1" Cut="0.0000000000000000e+00" cType="1" res="-3.5402709618210793e-03" rms="3.8989639282226562e-01" purity="1.9796086847782135e-01" nType="-99"/>
          </Node>
          <Node pos="r" depth="2" NCoef="0" IVar="3" Cut="6.3548362255096436e-01" cType="1" res="-1.9879022613167763e-02" rms="4.6375623345375061e-01" purity="3.6394402384757996e-01" nType="0">
            <Node pos="l" depth="3" NCoef="0" IVar="1" Cut="2.8507944941520691e-01" cType="1" res="-3.3087890595197678e-02" rms="4.4604435563087463e-01" purity="3.0011364817619324e-01" nType="0">
              <Node pos="l" depth="4" NCoef="0" IVar="5" Cut="4.0000000000000000e+00" cType="1" res="-1.8064001575112343e-02" rms="4.6167314052581787e-01" purity="3.3760833740234375e-01" nType="0">
                <Node pos="l" depth="5" NCoef="0" IVar="4" Cut="8.4799833595752716e-02" cType="1" res="-3.6414690315723419e-02" rms="4.5438930392265320e-01" purity="3.1291973590850830e-01" nType="0">
                  <Node pos="l" depth="6" NCoef="0" IVar="-1" Cut="0.0000000000000000e+00" cType="1" res="-6.2507409602403641e-03" rms="4.3364882469177246e-01" purity="2.6870664954185486e-01" nType="-99"/>
                  <Node pos="r" depth="6" NCoef="0" IVar="4" Cut="1.2213217467069626e-01" cType="1" res="-2.1578619256615639e-02" rms="4.6930709481239319e-01" purity="3.4720700979232788e-01" nType="0">
                    <Node pos="l" depth="7" NCoef="0" IVar="-1" Cut="0.0000000000000000e+00" cType="1" res="-3.3963930327445269e-03" rms="4.5937985181808472e-01" purity="3.1766927242279053e-01" nType="-99"/>
                    <Node pos="r" depth="7" NCoef="0" IVar="-1" Cut="0.0000000000000000e+00" cType="1" res="-9.4065454322844744e-04" rms="4.7985103726387024e-01" purity="3.8012227416038513e-01" nType="-99"/>
                  </Node>
                </Node>
                <Node pos="r" depth="5" NCoef="0" IVar="4" Cut="1.0262211412191391e-01" cType="1" res="-4.8346378207497764e-06" rms="4.6951785683631897e-01" purity="3.6224484443664551e-01" nType="0">
                  <Node pos="l" depth="6" NCoef="0" IVar="2" Cut="1.1547617340087891e+02" cType="1" res="-1.3982756063342094e-02" rms="4.6215960383415222e-01" purity="3.4170299768447876e-01" nType="0">
                    <Node pos="l" depth="7" NCoef="0" IVar="-1" Cut="0.0000000000000000e+00" cType="1" res="1.4681367902085185e-03" rms="4.7697344422340393e-01" purity="3.8984072208404541e-01" nType="-99"/>
                    <Node pos="r" depth="7" NCoef="0" IVar="-1" Cut="0.0000000000000000e+00" cType="1" res="-4.0337610989809036e-03" rms="4.4859644770622253e-01" purity="3.0313071608543396e-01" nType="-99"/>
                  </Node>
                  <Node pos="r" depth="6" NCoef="0" IVar="-1" Cut="0.0000000000000000e+00" cType="1" res="2.5159413926303387e-03" rms="4.8178252577781677e-01" purity="4.0029856562614441e-01" nType="-99"/>
                </Node>
              </Node>
              <Node pos="r" depth="4" NCoef="0" IVar="1" Cut="5.9810107946395874e-01" cType="1" res="-6.2651276588439941e-02" rms="4.1010791063308716e-01" purity="2.2570650279521942e-01" nType="0">
                <Node pos="l" depth="5" NCoef="0" IVar="-1" Cut="0.0000000000000000e+00" cType="1" res="-4.8094014637172222e-03" rms="4.3565350770950317e-01" purity="2.6722466945648193e-01" nType="-99"/>
                <Node pos="r" depth="5" NCoef="0" IVar="-1" Cut="0.0000000000000000e+00" cType="1" res="-1.1093159206211567e-02" rms="3.8035675883293152e-01" purity="1.8232518434524536e-01" nType="-99"/>
              </Node>
            </Node>
            <Node pos="r" depth="3" NCoef="0" IVar="5" Cut="3.0000000000000000e+00" cType="1" res="2.6742576155811548e-03" rms="4.8766049742698669e-01" purity="4.6499559283256531e-01" nType="0">
              <Node pos="l" depth="4" NCoef="0" IVar="3" Cut="6.7969775199890137e-01" cType="1" res="-2.9289623722434044e-02" rms="4.8169186711311340e-01" purity="3.9887216687202454e-01" nType="0">
                <Node pos="l" depth="5" NCoef="0" IVar="-1" Cut="0.0000000000000000e+00" cType="1" res="-4.6146288514137268e-03" rms="4.7324368357658386e-01" purity="3.5825514793395996e-01" nType="-99"/>
                <Node pos="r" depth="5" NCoef="0" IVar="-1" Cut="0.0000000000000000e+00" cType="1" res="-1.1499687097966671e-03" rms="4.8842662572860718e-01" purity="4.3463402986526489e-01" nType="-99"/>
              </Node>
              <Node pos="r" depth="4" NCoef="0" IVar="0" Cut="1.7239657044410706e-01" cType="1" res="1.3949748128652573e-02" rms="4.9259388446807861e-01" purity="4.9316486716270447e-01" nType="0">
                <Node pos="l" depth="5" NCoef="0" IVar="1" Cut="4.5807637274265289e-02" cType="1" res="3.3853199332952499e-02" rms="4.9382567405700684e-01" purity="5.5508595705032349e-01" nType="0">
                  <Node pos="l" depth="6" NCoef="0" IVar="-1" Cut="0.0000000000000000e+00" cType="1" res="3.8249979261308908e-03" rms="4.9011042714118958e-01" purity="5.9384804964065552e-01" nType="-99"/>
                  <Node pos="r" depth="6" NCoef="0" IVar="-1" Cut="0.0000000000000000e+00" cType="1" res="1.6549987485632300e-03" rms="4.9735608696937561e-01" purity="5.1385849714279175e-01" nType="-99"/>
                </Node>
                <Node pos="r" depth="5" NCoef="0" IVar="4" Cut="5.3767930716276169e-02" cType="1" res="-4.7744782641530037e-03" rms="4.9069580435752869e-01" purity="4.3491241335868835e-01" nType="0">
                  <Node pos="l" depth="6" NCoef="0" IVar="-1" Cut="0.0000000000000000e+00" cType="1" res="-2.1066272165626287e-03" rms="4.8793527483940125e-01" purity="4.1578853130340576e-01" nType="-99"/>
                  <Node pos="r" depth="6" NCoef="0" IVar="-1" Cut="0.0000000000000000e+00" cType="1" res="9.5645507099106908e-04" rms="4.9255821108818054e-01" purity="4.5135948061943054e-01" nType="-99"/>
                </Node>
              </Node>
            </Node>
          </Node>
        </Node>
        <Node pos="r" depth="1" NCoef="0" IVar="0" Cut="6.1320692300796509e-01" cType="1" res="5.4530225694179535e-02" rms="4.3806177377700806e-01" purity="7.1651220321655273e-01" nType="0">
          <Node pos="l" depth="2" NCoef="0" IVar="5" Cut="2.0000000000000000e+00" cType="1" res="5.5823870003223419e-02" rms="4.0186777710914612e-01" purity="7.2508060932159424e-01" nType="0">
            <Node pos="l" depth="3" NCoef="0" IVar="1" Cut="9.7797155380249023e-01" cType="1" res="7.4009276926517487e-02" rms="4.1083872318267822e-01" purity="7.8006589412689209e-01" nType="0">
              <Node pos="l" depth="4" NCoef="0" IVar="1" Cut="2.6937365531921387e-01" cType="1" res="7.6174087822437286e-02" rms="4.0699717402458191e-01" purity="7.8765141963958740e-01" nType="0">
                <Node pos="l" depth="5" NCoef="0" IVar="3" Cut="9.6867525577545166e-01" cType="1" res="8.0152876675128937e-02" rms="3.9959573745727539e-01" purity="7.9916417598724365e-01" nType="0">
                  <Node pos="l" depth="6" NCoef="0" IVar="-1" Cut="0.0000000000000000e+00" cType="1" res="5.8600767515599728e-03" rms="4.2536205053329468e-01" purity="7.6081925630569458e-01" nType="-99"/>
                  <Node pos="r" depth="6" NCoef="0" IVar="3" Cut="1.0008374452590942e+00" cType="1" res="8.1814080476760864e-02" rms="3.9670482277870178e-01" purity="8.0326545238494873e-01" nType="0">
                    <Node pos="l" depth="7" NCoef="0" IVar="-1" Cut="0.0000000000000000e+00" cType="1" res="7.3302276432514191e-03" rms="4.0208497643470764e-01" purity="7.9594904184341431e-01" nType="-99"/>
                    <Node pos="r" depth="7" NCoef="0" IVar="-1" Cut="0.0000000000000000e+00" cType="1" res="8.3958068862557411e-03" rms="3.8956424593925476e-01" purity="8.1264877319335938e-01" nType="-99"/>
                  </Node>
                </Node>
                <Node pos="r" depth="5" NCoef="0" IVar="1" Cut="6.5782529115676880e-01" cType="1" res="5.9650551527738571e-02" rms="4.3600520491600037e-01" purity="7.3983991146087646e-01" nType="0">
                  <Node pos="l" depth="6" NCoef="0" IVar="1" Cut="4.5727419853210449e-01" cType="1" res="6.4682208001613617e-02" rms="4.2844179272651672e-01" purity="7.5482016801834106e-01" nType="0">
                    <Node pos="l" depth="7" NCoef="0" IVar="-1" Cut="0.0000000000000000e+00" cType="1" res="5.3989505395293236e-03" rms="4.2742109298706055e-01" purity="7.5651210546493530e-01" nType="-99"/>
                    <Node pos="r" depth="7" NCoef="0" IVar="-1" Cut="0.0000000000000000e+00" cType="1" res="6.2861782498657703e-03" rms="4.3009746074676514e-01" purity="7.5182396173477173e-01" nType="-99"/>
                  </Node>
                  <Node pos="r" depth="6" NCoef="0" IVar="-1" Cut="0.0000000000000000e+00" cType="1" res="3.2145250588655472e-03" rms="4.6490654349327087e-01" purity="6.7898976802825928e-01" nType="-99"/>
                </Node>
              </Node>
              <Node pos="r" depth="4" NCoef="0" IVar="-1" Cut="0.0000000000000000e+00" cType="1" res="2.1025962196290493e-03" rms="4.8555490374565125e-01" purity="6.1259579658508301e-01" nType="-99"/>
            </Node>
            <Node pos="r" depth="3" NCoef="0" IVar="1" Cut="4.8349004983901978e-01" cType="1" res="3.6601219326257706e-02" rms="4.6771180629730225e-01" purity="6.5149325132369995e-01" nType="0">
              <Node pos="l" depth="4" NCoef="0" IVar="2" Cut="2.3107025146484375e+02" cType="1" res="4.3942570686340332e-02" rms="4.6336638927459717e-01" purity="6.7253321409225464e-01" nType="0">
                <Node pos="l" depth="5" NCoef="0" IVar="3" Cut="8.3370524644851685e-01" cType="1" res="4.7968663275241852e-02" rms="4.6054983139038086e-01" purity="6.8113386631011963e-01" nType="0">
                  <Node pos="l" depth="6" NCoef="0" IVar="4" Cut="5.2275244146585464e-02" cType="1" res="3.7327412515878677e-02" rms="4.7979623079299927e-01" purity="6.2823665142059326e-01" nType="0">
                    <Node pos="l" depth="7" NCoef="0" IVar="-1" Cut="0.0000000000000000e+00" cType="1" res="2.2110461723059416e-03" rms="4.8251417279243469e-01" purity="6.1533272266387939e-01" nType="-99"/>
                    <Node pos="r" depth="7" NCoef="0" IVar="-1" Cut="0.0000000000000000e+00" cType="1" res="4.4352542608976364e-03" rms="4.7523063421249390e-01" purity="6.4732241630554199e-01" nType="-99"/>
                  </Node>
                  <Node pos="r" depth="6" NCoef="0" IVar="4" Cut="2.0010882988572121e-02" cType="1" res="5.7939071208238602e-02" rms="4.4152387976646423e-01" purity="7.3069626092910767e-01" nType="0">
                    <Node pos="l" depth="7" NCoef="0" IVar="-1" Cut="0.0000000000000000e+00" cType="1" res="3.8854291196912527e-03" rms="4.5116811990737915e-01" purity="7.1094709634780884e-01" nType="-99"/>
                    <Node pos="r" depth="7" NCoef="0" IVar="-1" Cut="0.0000000000000000e+00" cType="1" res="5.8349673636257648e-03" rms="4.3908932805061340e-01" purity="7.3538744449615479e-01" nType="-99"/>
                  </Node>
                </Node>
                <Node pos="r" depth="5" NCoef="0" IVar="-1" Cut="0.0000000000000000e+00" cType="1" res="7.4952223803848028e-04" rms="4.8629689216613770e-01" purity="5.9582054615020752e-01" nType="-99"/>
              </Node>
              <Node pos="r" depth="4" NCoef="0" IVar="3" Cut="7.9874151945114136e-01" cType="1" res="-9.5121162012219429e-03" rms="4.9163305759429932e-01" purity="5.1933473348617554e-01" nType="0">
                <Node pos="l" depth="5" NCoef="0" IVar="-1" Cut="0.0000000000000000e+00" cType="1" res="-3.2405599486082792e-03" rms="4.9143925309181213e-01" purity="4.4651794433593750e-01" nType="-99"/>
                <Node pos="r" depth="5" NCoef="0" IVar="-1" Cut="0.0000000000000000e+00" cType="1" res="5.8088288642466068e-04" rms="4.9101972579956055e-01" purity="5.6222653388977051e-01" nType="-99"/>
              </Node>
            </Node>
          </Node>
          <Node pos="r" depth="2" NCoef="0" IVar="-1" Cut="0.0000000000000000e+00" cType="1" res="-7.9682078212499619e-03" rms="4.7784504294395447e-01" purity="3.6616936326026917e-01" nType="-99"/>
        </Node>
      </Node>
    </BinaryTree>
    <BinaryTree type="DecisionTree" boostWeight="1.0000000000000000e+00" itree="36">
      <Node pos="s" depth="0" NCoef="0" IVar="3" Cut="7.1271121501922607e-01" cType="1" res="1.2822421267628670e-02" rms="4.1487857699394226e-01" purity="4.9909126758575439e-01" nType="0">
        <Node pos="l" depth="1" NCoef="0" IVar="0" Cut="6.4430850744247437e-01" cType="1" res="-3.9003685116767883e-02" rms="3.7467014789581299e-01" purity="2.1226742863655090e-01" nType="0">
          <Node pos="l" depth="2" NCoef="0" IVar="1" Cut="6.9733572006225586e-01" cType="1" res="-1.8949223682284355e-02" rms="4.5993068814277649e-01" purity="3.5192105174064636e-01" nType="0">
            <Node pos="l" depth="3" NCoef="0" IVar="2" Cut="1.3220866394042969e+02" cType="1" res="-1.1621711775660515e-02" rms="4.6500110626220703e-01" purity="3.6730116605758667e-01" nType="0">
              <Node pos="l" depth="4" NCoef="0" IVar="4" Cut="4.6380724757909775e-02" cType="1" res="1.3185491785407066e-02" rms="4.8399505019187927e-01" purity="4.3921703100204468e-01" nType="0">
                <Node pos="l" depth="5" NCoef="0" IVar="2" Cut="4.3303070068359375e+01" cType="1" res="-8.1641571596264839e-03" rms="4.8238033056259155e-01" purity="4.1234046220779419e-01" nType="0">
                  <Node pos="l" depth="6" NCoef="0" IVar="-1" Cut="0.0000000000000000e+00" cType="1" res="2.6881943922489882e-03" rms="4.8878979682922363e-01" purity="4.6321564912796021e-01" nType="-99"/>
                  <Node pos="r" depth="6" NCoef="0" IVar="-1" Cut="0.0000000000000000e+00" cType="1" res="-3.6616488359868526e-03" rms="4.7532045841217041e-01" purity="3.7330904603004456e-01" nType="-99"/>
                </Node>
                <Node pos="r" depth="5" NCoef="0" IVar="2" Cut="9.7737205505371094e+01" cType="1" res="2.7142472565174103e-02" rms="4.8453950881958008e-01" purity="4.5678710937500000e-01" nType="0">
                  <Node pos="l" depth="6" NCoef="0" IVar="3" Cut="6.2492328882217407e-01" cType="1" res="4.1944302618503571e-02" rms="4.8595994710922241e-01" purity="4.7899252176284790e-01" nType="0">
                    <Node pos="l" depth="7" NCoef="0" IVar="-1" Cut="0.0000000000000000e+00" cType="1" res="2.3233809042721987e-03" rms="4.7901216149330139e-01" purity="3.9697843790054321e-01" nType="-99"/>
                    <Node pos="r" depth="7" NCoef="0" IVar="-1" Cut="0.0000000000000000e+00" cType="1" res="4.5074783265590668e-03" rms="4.9159333109855652e-01" purity="5.5254226922988892e-01" nType="-99"/>
                  </Node>
                  <Node pos="r" depth="6" NCoef="0" IVar="-1" Cut="0.0000000000000000e+00" cType="1" res="4.9706926802173257e-04" rms="4.8161196708679199e-01" purity="4.2408078908920288e-01" nType="-99"/>
                </Node>
              </Node>
              <Node pos="r" depth="4" NCoef="0" IVar="3" Cut="6.0056662559509277e-01" cType="1" res="-2.4073068052530289e-02" rms="4.5465901494026184e-01" purity="3.3120477199554443e-01" nType="0">
                <Node pos="l" depth="5" NCoef="0" IVar="0" Cut="4.9881318211555481e-01" cType="1" res="-3.4601900726556778e-02" rms="4.3175137042999268e-01" purity="2.6306936144828796e-01" nType="0">
                  <Node pos="l" depth="6" NCoef="0" IVar="2" Cut="6.8458502197265625e+02" cType="1" res="-2.9852863401174545e-02" rms="4.4080653786659241e-01" purity="2.7963447570800781e-01" nType="0">
                    <Node pos="l" depth="7" NCoef="0" IVar="-1" Cut="0.0000000000000000e+00" cType="1" res="-2.9082926921546459e-03" rms="4.4598370790481567e-01" purity="2.9076495766639709e-01" nType="-99"/>
                    <Node pos="r" depth="7" NCoef="0" IVar="-1" Cut="0.0000000000000000e+00" cType="1" res="-6.2476741150021553e-03" rms="4.1576215624809265e-01" purity="2.2877265512943268e-01" nType="-99"/>
                  </Node>
                  <Node pos="r" depth="6" NCoef="0" IVar="-1" Cut="0.0000000000000000e+00" cType="1" res="-7.4793556705117226e-03" rms="3.9109614491462708e-01" purity="1.9395388662815094e-01" nType="-99"/>
                </Node>
                <Node pos="r" depth="5" NCoef="0" IVar="4" Cut="8.2006596028804779e-02" cType="1" res="-6.4565297216176987e-03" rms="4.9009561538696289e-01" purity="4.4520705938339233e-01" nType="0">
                  <Node pos="l" depth="6" NCoef="0" IVar="-1" Cut="0.0000000000000000e+00" cType="1" res="-2.9192178044468164e-03" rms="4.8305058479309082e-01" purity="4.0167152881622314e-01" nType="-99"/>
                  <Node pos="r" depth="6" NCoef="0" IVar="4" Cut="1.1156637966632843e-01" cType="1" res="1.0622911155223846e-02" rms="4.9436113238334656e-01" purity="4.7631713747978210e-01" nType="0">
                    <Node pos="l" depth="7" NCoef="0" IVar="-1" Cut="0.0000000000000000e+00" cType="1" res="-3.0090071959421039e-04" rms="4.9268087744712830e-01" purity="4.5565941929817200e-01" nType="-99"/>
                    <Node pos="r" depth="7" NCoef="0" IVar="-1" Cut="0.0000000000000000e+00" cType="1" res="2.4920352734625340e-03" rms="4.9595004320144653e-01" purity="5.0312912464141846e-01" nType="-99"/>
                  </Node>
                </Node>
              </Node>
            </Node>
            <Node pos="r" depth="3" NCoef="0" IVar="4" Cut="8.9429929852485657e-02" cType="1" res="-7.8295618295669556e-02" rms="4.1182041168212891e-01" purity="2.2735552489757538e-01" nType="0">
              <Node pos="l" depth="4" NCoef="0" IVar="-1" Cut="0.0000000000000000e+00" cType="1" res="-1.2677324935793877e-02" rms="4.0057682991027832e-01" purity="2.1332609653472900e-01" nType="-99"/>
              <Node pos="r" depth="4" NCoef="0" IVar="-1" Cut="0.0000000000000000e+00" cType="1" res="-6.1838263645768166e-03" rms="4.2014294862747192e-01" purity="2.4031600356101990e-01" nType="-99"/>
            </Node>
          </Node>
          <Node pos="r" depth="2" NCoef="0" IVar="4" Cut="7.7153429388999939e-02" cType="1" res="-5.6308437138795853e-02" rms="2.7987396717071533e-01" purity="9.1762065887451172e-02" nType="0">
            <Node pos="l" depth="3" NCoef="0" IVar="2" Cut="8.8529228210449219e+01" cType="1" res="-6.7608997225761414e-02" rms="2.6568785309791565e-01" purity="8.3105616271495819e-02" nType="0">
              <Node pos="l" depth="4" NCoef="0" IVar="4" Cut="4.7404948621988297e-02" cType="1" res="-5.5792860686779022e-02" rms="2.9816952347755432e-01" purity="1.0832162946462631e-01" nType="0">
                <Node pos="l" depth="5" NCoef="0" IVar="2" Cut="4.2943969726562500e+01" cType="1" res="-6.3251942396163940e-02" rms="2.8980115056037903e-01" purity="1.0033267736434937e-01" nType="0">
                  <Node pos="l" depth="6" NCoef="0" IVar="-1" Cut="0.0000000000000000e+00" cType="1" res="-1.0683387517929077e-02" rms="3.0740141868591309e-01" purity="1.1552356183528900e-01" nType="-99"/>
                  <Node pos="r" depth="6" NCoef="0" IVar="-1" Cut="0.0000000000000000e+00" cType="1" res="-1.5246775932610035e-02" rms="2.7255338430404663e-01" purity="8.6574271321296692e-02" nType="-99"/>
                </Node>
                <Node pos="r" depth="5" NCoef="0" IVar="-1" Cut="0.0000000000000000e+00" cType="1" res="-8.3526242524385452e-03" rms="3.1374588608741760e-01" purity="1.2434178590774536e-01" nType="-99"/>
              </Node>
              <Node pos="r" depth="4" NCoef="0" IVar="4" Cut="4.1308768093585968e-02" cType="1" res="-7.5805909931659698e-02" rms="2.4025145173072815e-01" purity="6.5613143146038055e-02" nType="0">
                <Node pos="l" depth="5" NCoef="0" IVar="-1" Cut="0.0000000000000000e+00" cType="1" res="-1.7982386052608490e-02" rms="2.3516575992107391e-01" purity="6.1175853013992310e-02" nType="-99"/>
                <Node pos="r" depth="5" NCoef="0" IVar="2" Cut="2.1911427307128906e+02" cType="1" res="-7.4266023933887482e-02" rms="2.4151842296123505e-01" purity="6.6754639148712158e-02" nType="0">
                  <Node pos="l" depth="6" NCoef="0" IVar="0" Cut="1.5487385988235474e+00" cType="1" res="-7.0760190486907959e-02" rms="2.4867768585681915e-01" purity="7.1670278906822205e-02" nType="0">
                    <Node pos="l" depth="7" NCoef="0" IVar="-1" Cut="0.0000000000000000e+00" cType="1" res="-1.2016277760267258e-02" rms="3.0742421746253967e-01" purity="1.1217829585075378e-01" nType="-99"/>
                    <Node pos="r" depth="7" NCoef="0" IVar="-1" Cut="0.0000000000000000e+00" cType="1" res="-2.6376327499747276e-02" rms="1.4475612342357635e-01" purity="2.1157551556825638e-02" nType="-99"/>
                  </Node>
                  <Node pos="r" depth="6" NCoef="0" IVar="-1" Cut="0.0000000000000000e+00" cType="1" res="-1.7910532653331757e-02" rms="2.2783063352108002e-01" purity="5.7843908667564392e-02" nType="-99"/>
                </Node>
              </Node>
            </Node>
            <Node pos="r" depth="3" NCoef="0" IVar="0" Cut="1.2465430498123169e+00" cType="1" res="-4.9187276512384415e-02" rms="2.8822785615921021e-01" purity="9.7217001020908356e-02" nType="0">
              <Node pos="l" depth="4" NCoef="0" IVar="2" Cut="3.0575607299804688e+02" cType="1" res="-3.5115506500005722e-02" rms="3.5238102078437805e-01" purity="1.5262962877750397e-01" nType="0">
                <Node pos="l" depth="5" NCoef="0" IVar="3" Cut="4.6639209985733032e-01" cType="1" res="-1.9792826846241951e-02" rms="3.7490263581275940e-01" purity="1.7984949052333832e-01" nType="0">
                  <Node pos="l" depth="6" NCoef="0" IVar="-1" Cut="0.0000000000000000e+00" cType="1" res="-7.3602972552180290e-03" rms="3.2940492033958435e-01" purity="1.2616290152072906e-01" nType="-99"/>
                  <Node pos="r" depth="6" NCoef="0" IVar="-1" Cut="0.0000000000000000e+00" cType="1" res="4.7050247667357326e-04" rms="4.3060380220413208e-01" purity="2.5658091902732849e-01" nType="-99"/>
                </Node>
                <Node pos="r" depth="5" NCoef="0" IVar="0" Cut="8.3860665559768677e-01" cType="1" res="-4.9644615501165390e-02" rms="3.2894885540008545e-01" purity="1.2681950628757477e-01" nType="0">
                  <Node pos="l" depth="6" NCoef="0" IVar="-1" Cut="0.0000000000000000e+00" cType="1" res="-6.5435715951025486e-03" rms="3.6272320151329041e-01" purity="1.5859435498714447e-01" nType="-99"/>
                  <Node pos="r" depth="6" NCoef="0" IVar="-1" Cut="0.0000000000000000e+00" cType="1" res="-1.0939439758658409e-02" rms="3.0700615048408508e-01" purity="1.0797344893217087e-01" nType="-99"/>
                </Node>
              </Node>
              <Node pos="r" depth="4" NCoef="0" IVar="4" Cut="1.3912692666053772e-01" cType="1" res="-5.8475457131862640e-02" rms="2.3607604205608368e-01" purity="6.0641475021839142e-02" nType="0">
                <Node pos="l" depth="5" NCoef="0" IVar="2" Cut="1.4091708374023438e+02" cType="1" res="-6.4239598810672760e-02" rms="2.0835389196872711e-01" purity="4.6473961323499680e-02" nType="0">
                  <Node pos="l" depth="6" NCoef="0" IVar="-1" Cut="0.0000000000000000e+00" cType="1" res="-1.5641428530216217e-02" rms="2.4247036874294281e-01" purity="6.5050393342971802e-02" nType="-99"/>
                  <Node pos="r" depth="6" NCoef="0" IVar="4" Cut="1.0314170271158218e-01" cType="1" res="-6.7590333521366119e-02" rms="1.9719395041465759e-01" purity="4.1067801415920258e-02" nType="0">
                    <Node pos="l" depth="7" NCoef="0" IVar="-1" Cut="0.0000000000000000e+00" cType="1" res="-2.2657273337244987e-02" rms="1.7693322896957397e-01" purity="3.1783245503902435e-02" nType="-99"/>
                    <Node pos="r" depth="7" NCoef="0" IVar="-1" Cut="0.0000000000000000e+00" cType="1" res="-1.8536372110247612e-02" rms="2.1129767596721649e-01" purity="4.8184338957071304e-02" nType="-99"/>
                  </Node>
                </Node>
                <Node pos="r" depth="5" NCoef="0" IVar="2" Cut="3.2308453369140625e+02" cType="1" res="-5.0377398729324341e-02" rms="2.7005338668823242e-01" purity="8.0545462667942047e-02" nType="0">
                  <Node pos="l" depth="6" NCoef="0" IVar="-1" Cut="0.0000000000000000e+00" cType="1" res="-8.6776530370116234e-03" rms="2.9343029856681824e-01" purity="9.8105810582637787e-02" nType="-99"/>
                  <Node pos="r" depth="6" NCoef="0" IVar="1" Cut="3.0437678098678589e-01" cType="1" res="-5.8743894100189209e-02" rms="2.5773885846138000e-01" purity="7.2169899940490723e-02" nType="0">
                    <Node pos="l" depth="7" NCoef="0" IVar="-1" Cut="0.0000000000000000e+00" cType="1" res="-1.2665746733546257e-02" rms="2.7283263206481934e-01" purity="8.1952020525932312e-02" nType="-99"/>
                    <Node pos="r" depth="7" NCoef="0" IVar="-1" Cut="0.0000000000000000e+00" cType="1" res="-1.7899552360177040e-02" rms="2.3843745887279510e-01" purity="6.0660678893327713e-02" nType="-99"/>
                  </Node>
                </Node>
              </Node>
            </Node>
          </Node>
        </Node>
        <Node pos="r" depth="1" NCoef="0" IVar="0" Cut="6.1320692300796509e-01" cType="1" res="5.1826182752847672e-02" rms="4.3871814012527466e-01" purity="7.1495169401168823e-01" nType="0">
          <Node pos="l" depth="2" NCoef="0" IVar="3" Cut="8.7562441825866699e-01" cType="1" res="5.5151347070932388e-02" rms="4.3714591860771179e-01" purity="7.2361725568771362e-01" nType="0">
            <Node pos="l" depth="3" NCoef="0" IVar="0" Cut="1.7801661789417267e-01" cType="1" res="2.9390884563326836e-02" rms="4.7674831748008728e-01" purity="6.2553447484970093e-01" nType="0">
              <Node pos="l" depth="4" NCoef="0" IVar="4" Cut="2.6012353599071503e-02" cType="1" res="3.9076361805200577e-02" rms="4.7058808803558350e-01" purity="6.5680915117263794e-01" nType="0">
                <Node pos="l" depth="5" NCoef="0" IVar="2" Cut="3.0113235473632812e+01" cType="1" res="1.8648637458682060e-02" rms="4.7409024834632874e-01" purity="6.4290982484817505e-01" nType="0">
                  <Node pos="l" depth="6" NCoef="0" IVar="-1" Cut="0.0000000000000000e+00" cType="1" res="3.3524534665048122e-03" rms="4.6534422039985657e-01" purity="6.6508519649505615e-01" nType="-99"/>
                  <Node pos="r" depth="6" NCoef="0" IVar="-1" Cut="0.0000000000000000e+00" cType="1" res="-3.0273199081420898e-04" rms="4.8210161924362183e-01" purity="6.1968994140625000e-01" nType="-99"/>
                </Node>
                <Node pos="r" depth="5" NCoef="0" IVar="3" Cut="8.2832485437393188e-01" cType="1" res="4.3631032109260559e-02" rms="4.6968257427215576e-01" purity="6.5990817546844482e-01" nType="0">
                  <Node pos="l" depth="6" NCoef="0" IVar="5" Cut="3.0000000000000000e+00" cType="1" res="3.6699179559946060e-02" rms="4.7795242071151733e-01" purity="6.3172143697738647e-01" nType="0">
                    <Node pos="l" depth="7" NCoef="0" IVar="-1" Cut="0.0000000000000000e+00" cType="1" res="1.8896989058703184e-03" rms="4.8181629180908203e-01" purity="6.2121695280075073e-01" nType="-99"/>
                    <Node pos="r" depth="7" NCoef="0" IVar="-1" Cut="0.0000000000000000e+00" cType="1" res="4.7210031189024448e-03" rms="4.7494006156921387e-01" purity="6.4510238170623779e-01" nType="-99"/>
                  </Node>
                  <Node pos="r" depth="6" NCoef="0" IVar="2" Cut="7.2300064086914062e+01" cType="1" res="5.4487194865942001e-02" rms="4.5456910133361816e-01" purity="7.0375144481658936e-01" nType="0">
                    <Node pos="l" depth="7" NCoef="0" IVar="-1" Cut="0.0000000000000000e+00" cType="1" res="5.2117919549345970e-03" rms="4.4687795639038086e-01" purity="7.1869951486587524e-01" nType="-99"/>
                    <Node pos="r" depth="7" NCoef="0" IVar="-1" Cut="0.0000000000000000e+00" cType="1" res="4.4106421992182732e-03" rms="4.5827603340148926e-01" purity="6.9632506370544434e-01" nType="-99"/>
                  </Node>
                </Node>
              </Node>
              <Node pos="r" depth="4" NCoef="0" IVar="1" Cut="3.4320098161697388e-01" cType="1" res="2.5145204272121191e-03" rms="4.9244305491447449e-01" purity="5.3874993324279785e-01" nType="0">
                <Node pos="l" depth="5" NCoef="0" IVar="4" Cut="3.8064856082201004e-02" cType="1" res="2.2220194339752197e-02" rms="4.9170774221420288e-01" purity="5.7360267639160156e-01" nType="0">
                  <Node pos="l" depth="6" NCoef="0" IVar="-1" Cut="0.0000000000000000e+00" cType="1" res="6.9031440943945199e-05" rms="4.9346667528152466e-01" purity="5.6170558929443359e-01" nType="-99"/>
                  <Node pos="r" depth="6" NCoef="0" IVar="3" Cut="7.5999790430068970e-01" cType="1" res="3.5472474992275238e-02" rms="4.9014958739280701e-01" purity="5.8094739913940430e-01" nType="0">
                    <Node pos="l" depth="7" NCoef="0" IVar="-1" Cut="0.0000000000000000e+00" cType="1" res="1.3582957908511162e-03" rms="4.9746486544609070e-01" purity="5.3074103593826294e-01" nType="-99"/>
                    <Node pos="r" depth="7" NCoef="0" IVar="-1" Cut="0.0000000000000000e+00" cType="1" res="4.5867282897233963e-03" rms="4.8342609405517578e-01" purity="6.2228500843048096e-01" nType="-99"/>
                  </Node>
                </Node>
                <Node pos="r" depth="5" NCoef="0" IVar="-1" Cut="0.0000000000000000e+00" cType="1" res="-5.8093322440981865e-03" rms="4.8913511633872986e-01" purity="4.2180025577545166e-01" nType="-99"/>
              </Node>
            </Node>
            <Node pos="r" depth="3" NCoef="0" IVar="1" Cut="3.2599627971649170e-01" cType="1" res="6.8090938031673431e-02" rms="4.1523027420043945e-01" purity="7.7288466691970825e-01" nType="0">
              <Node pos="l" depth="4" NCoef="0" IVar="2" Cut="1.2118641662597656e+02" cType="1" res="7.3659688234329224e-02" rms="4.0486350655555725e-01" purity="7.9146534204483032e-01" nType="0">
                <Node pos="l" depth="5" NCoef="0" IVar="3" Cut="9.9660545587539673e-01" cType="1" res="7.4979454278945923e-02" rms="4.0347555279731750e-01" purity="7.9375636577606201e-01" nType="0">
                  <Node pos="l" depth="6" NCoef="0" IVar="3" Cut="9.0294402837753296e-01" cType="1" res="6.7095488309860229e-02" rms="4.1438093781471252e-01" purity="7.7823954820632935e-01" nType="0">
                    <Node pos="l" depth="7" NCoef="0" IVar="-1" Cut="0.0000000000000000e+00" cType="1" res="5.5304784327745438e-03" rms="4.3293482065200806e-01" purity="7.4849373102188110e-01" nType="-99"/>
                    <Node pos="r" depth="7" NCoef="0" IVar="-1" Cut="0.0000000000000000e+00" cType="1" res="6.7912451922893524e-03" rms="4.1036146879196167e-01" purity="7.8443872928619385e-01" nType="-99"/>
                  </Node>
                  <Node pos="r" depth="6" NCoef="0" IVar="3" Cut="1.0229476690292358e+00" cType="1" res="8.1853494048118591e-02" rms="3.9359185099601746e-01" purity="8.0728554725646973e-01" nType="0">
                    <Node pos="l" depth="7" NCoef="0" IVar="-1" Cut="0.0000000000000000e+00" cType="1" res="7.8863762319087982e-03" rms="3.9260637760162354e-01" purity="8.0853462219238281e-01" nType="-99"/>
                    <Node pos="r" depth="7" NCoef="0" IVar="-1" Cut="0.0000000000000000e+00" cType="1" res="7.3586348444223404e-03" rms="3.9776790142059326e-01" purity="8.0193448066711426e-01" nType="-99"/>
                  </Node>
                </Node>
                <Node pos="r" depth="5" NCoef="0" IVar="-1" Cut="0.0000000000000000e+00" cType="1" res="4.2980993166565895e-03" rms="4.3710765242576599e-01" purity="7.3367363214492798e-01" nType="-99"/>
              </Node>
              <Node pos="r" depth="4" NCoef="0" IVar="3" Cut="9.7904038429260254e-01" cType="1" res="4.4958468526601791e-02" rms="4.5504751801490784e-01" purity="6.9570088386535645e-01" nType="0">
                <Node pos="l" depth="5" NCoef="0" IVar="-1" Cut="0.0000000000000000e+00" cType="1" res="6.4514781115576625e-04" rms="4.8097425699234009e-01" purity="6.2069320678710938e-01" nType="-99"/>
                <Node pos="r" depth="5" NCoef="0" IVar="1" Cut="9.4845801591873169e-01" cType="1" res="5.4841555655002594e-02" rms="4.4751006364822388e-01" purity="7.1526849269866943e-01" nType="0">
                  <Node pos="l" depth="6" NCoef="0" IVar="1" Cut="5.2673250436782837e-01" cType="1" res="5.6552026420831680e-02" rms="4.3739637732505798e-01" purity="7.3841452598571777e-01" nType="0">
                    <Node pos="l" depth="7" NCoef="0" IVar="-1" Cut="0.0000000000000000e+00" cType="1" res="4.8773400485515594e-03" rms="4.3080312013626099e-01" purity="7.5052344799041748e-01" nType="-99"/>
                    <Node pos="r" depth="7" NCoef="0" IVar="-1" Cut="0.0000000000000000e+00" cType="1" res="4.9669956788420677e-03" rms="4.4568473100662231e-01" purity="7.2289776802062988e-01" nType="-99"/>
                  </Node>
                  <Node pos="r" depth="6" NCoef="0" IVar="-1" Cut="0.0000000000000000e+00" cType="1" res="3.9866073057055473e-03" rms="4.7891157865524292e-01" purity="6.3992708921432495e-01" nType="-99"/>
                </Node>
              </Node>
            </Node>
          </Node>
          <Node pos="r" depth="2" NCoef="0" IVar="-1" Cut="0.0000000000000000e+00" cType="1" res="-7.4310596100986004e-03" rms="4.7893050312995911e-01" purity="3.6921176314353943e-01" nType="-99"/>
        </Node>
      </Node>
    </BinaryTree>
    <BinaryTree type="DecisionTree" boostWeight="1.0000000000000000e+00" itree="37">
      <Node pos="s" depth="0" NCoef="0" IVar="3" Cut="7.7976024150848389e-01" cType="1" res="1.4692055061459541e-02" rms="4.1462886333465576e-01" purity="5.0183999538421631e-01" nType="0">
        <Node pos="l" depth="1" NCoef="0" IVar="0" Cut="6.4506030082702637e-01" cType="1" res="-2.8945857658982277e-02" rms="3.9391934871673584e-01" purity="2.6102471351623535e-01" nType="0">
          <Node pos="l" depth="2" NCoef="0" IVar="1" Cut="7.1358156204223633e-01" cType="1" res="-9.4940634444355965e-03" rms="4.6802428364753723e-01" purity="4.0562528371810913e-01" nType="0">
            <Node pos="l" depth="3" NCoef="0" IVar="3" Cut="6.5663045644760132e-01" cType="1" res="-2.6892120949923992e-03" rms="4.7176450490951538e-01" purity="4.2160767316818237e-01" nType="0">
              <Node pos="l" depth="4" NCoef="0" IVar="2" Cut="2.0428779602050781e+02" cType="1" res="-1.9322628155350685e-02" rms="4.5517861843109131e-01" purity="3.2284951210021973e-01" nType="0">
                <Node pos="l" depth="5" NCoef="0" IVar="4" Cut="5.3224749863147736e-02" cType="1" res="-5.0911572761833668e-03" rms="4.7130247950553894e-01" purity="3.7048527598381042e-01" nType="0">
                  <Node pos="l" depth="6" NCoef="0" IVar="-1" Cut="0.0000000000000000e+00" cType="1" res="-3.7225142586976290e-03" rms="4.6060886979103088e-01" purity="3.3313807845115662e-01" nType="-99"/>
                  <Node pos="r" depth="6" NCoef="0" IVar="1" Cut="1.4699114859104156e-01" cType="1" res="9.9272960796952248e-03" rms="4.7567674517631531e-01" purity="3.8859754800796509e-01" nType="0">
                    <Node pos="l" depth="7" NCoef="0" IVar="-1" Cut="0.0000000000000000e+00" cType="1" res="2.3941961117088795e-03" rms="4.8384493589401245e-01" purity="4.1960552334785461e-01" nType="-99"/>
                    <Node pos="r" depth="7" NCoef="0" IVar="-1" Cut="0.0000000000000000e+00" cType="1" res="-2.1951957605779171e-03" rms="4.5735538005828857e-01" purity="3.2672575116157532e-01" nType="-99"/>
                  </Node>
                </Node>
                <Node pos="r" depth="5" NCoef="0" IVar="4" Cut="9.3914501368999481e-02" cType="1" res="-3.0625356361269951e-02" rms="4.4162738323211670e-01" purity="2.8501686453819275e-01" nType="0">
                  <Node pos="l" depth="6" NCoef="0" IVar="-1" Cut="0.0000000000000000e+00" cType="1" res="-6.1870799399912357e-03" rms="4.4239088892936707e-01" purity="2.8456059098243713e-01" nType="-99"/>
                  <Node pos="r" depth="6" NCoef="0" IVar="2" Cut="3.8739312744140625e+02" cType="1" res="-2.5049608200788498e-02" rms="4.4126388430595398e-01" purity="2.8511801362037659e-01" nType="0">
                    <Node pos="l" depth="7" NCoef="0" IVar="-1" Cut="0.0000000000000000e+00" cType="1" res="-1.4075188664719462e-03" rms="4.5351853966712952e-01" purity="3.1597629189491272e-01" nType="-99"/>
                    <Node pos="r" depth="7" NCoef="0" IVar="-1" Cut="0.0000000000000000e+00" cType="1" res="-3.9630299434065819e-03" rms="4.3323582410812378e-01" purity="2.6579585671424866e-01" nType="-99"/>
                  </Node>
                </Node>
              </Node>
              <Node pos="r" depth="4" NCoef="0" IVar="4" Cut="6.4522244036197662e-02" cType="1" res="1.8601413816213608e-02" rms="4.9135845899581909e-01" purity="5.4801720380783081e-01" nType="0">
                <Node pos="l" depth="5" NCoef="0" IVar="2" Cut="7.2959693908691406e+01" cType="1" res="5.8855316601693630e-03" rms="4.9168139696121216e-01" purity="5.3169471025466919e-01" nType="0">
                  <Node pos="l" depth="6" NCoef="0" IVar="1" Cut="-1.4422891661524773e-02" cType="1" res="2.8346743434667587e-02" rms="4.9095928668975830e-01" purity="5.6675243377685547e-01" nType="0">
                    <Node pos="l" depth="7" NCoef="0" IVar="-1" Cut="0.0000000000000000e+00" cType="1" res="4.0094293653964996e-03" rms="4.8682057857513428e-01" purity="6.0660052299499512e-01" nType="-99"/>
                    <Node pos="r" depth="7" NCoef="0" IVar="-1" Cut="0.0000000000000000e+00" cType="1" res="1.0505701648071408e-03" rms="4.9365353584289551e-01" purity="5.3501129150390625e-01" nType="-99"/>
                  </Node>
                  <Node pos="r" depth="6" NCoef="0" IVar="3" Cut="7.2812086343765259e-01" cType="1" res="-1.3631495647132397e-02" rms="4.9147519469261169e-01" purity="5.0123232603073120e-01" nType="0">
                    <Node pos="l" depth="7" NCoef="0" IVar="-1" Cut="0.0000000000000000e+00" cType="1" res="-3.3911864738911390e-03" rms="4.8967838287353516e-01" purity="4.3690615892410278e-01" nType="-99"/>
                    <Node pos="r" depth="7" NCoef="0" IVar="-1" Cut="0.0000000000000000e+00" cType="1" res="7.5572467176243663e-04" rms="4.9217396974563599e-01" purity="5.6271356344223022e-01" nType="-99"/>
                  </Node>
                </Node>
                <Node pos="r" depth="5" NCoef="0" IVar="2" Cut="3.0363128662109375e+02" cType="1" res="3.3406641334295273e-02" rms="4.9056711792945862e-01" purity="5.6702172756195068e-01" nType="0">
                  <Node pos="l" depth="6" NCoef="0" IVar="5" Cut="3.0000000000000000e+00" cType="1" res="3.0107591301202774e-02" rms="3.9713999629020691e-01" purity="5.8268272876739502e-01" nType="0">
                    <Node pos="l" depth="7" NCoef="0" IVar="-1" Cut="0.0000000000000000e+00" cType="1" res="2.3039504885673523e-03" rms="4.9277338385581970e-01" purity="5.5804443359375000e-01" nType="-99"/>
                    <Node pos="r" depth="7" NCoef="0" IVar="-1" Cut="0.0000000000000000e+00" cType="1" res="4.7242175787687302e-03" rms="4.8369297385215759e-01" purity="6.0496151447296143e-01" nType="-99"/>
                  </Node>
                  <Node pos="r" depth="6" NCoef="0" IVar="-1" Cut="0.0000000000000000e+00" cType="1" res="5.6260329438373446e-04" rms="4.9597594141960144e-01" purity="5.2373468875885010e-01" nType="-99"/>
                </Node>
              </Node>
            </Node>
            <Node pos="r" depth="3" NCoef="0" IVar="0" Cut="2.0803669467568398e-02" cType="1" res="-6.9933056831359863e-02" rms="4.2867577075958252e-01" purity="2.6367381215095520e-01" nType="0">
              <Node pos="l" depth="4" NCoef="0" IVar="-1" Cut="0.0000000000000000e+00" cType="1" res="-2.9895387124270201e-03" rms="4.6236303448677063e-01" purity="3.4393844008445740e-01" nType="-99"/>
              <Node pos="r" depth="4" NCoef="0" IVar="-1" Cut="0.0000000000000000e+00" cType="1" res="-1.1994411237537861e-02" rms="4.0088853240013123e-01" purity="2.0713458955287933e-01" nType="-99"/>
            </Node>
          </Node>
          <Node pos="r" depth="2" NCoef="0" IVar="0" Cut="1.2485107183456421e+00" cType="1" res="-5.0908915698528290e-02" rms="2.8660476207733154e-01" purity="9.7755976021289825e-02" nType="0">
            <Node pos="l" depth="3" NCoef="0" IVar="2" Cut="6.6882629394531250e+01" cType="1" res="-3.9911236613988876e-02" rms="3.5157197713851929e-01" purity="1.5484933555126190e-01" nType="0">
              <Node pos="l" depth="4" NCoef="0" IVar="-1" Cut="0.0000000000000000e+00" cType="1" res="-1.2163623468950391e-03" rms="3.9931198954582214e-01" purity="2.2302468121051788e-01" nType="-99"/>
              <Node pos="r" depth="4" NCoef="0" IVar="4" Cut="6.1240229755640030e-02" cType="1" res="-4.4879883527755737e-02" rms="3.4313303232192993e-01" purity="1.4404287934303284e-01" nType="0">
                <Node pos="l" depth="5" NCoef="0" IVar="-1" Cut="0.0000000000000000e+00" cType="1" res="-1.1942566372454166e-02" rms="3.1985515356063843e-01" purity="1.2335709482431412e-01" nType="-99"/>
                <Node pos="r" depth="5" NCoef="0" IVar="2" Cut="1.9592630004882812e+02" cType="1" res="-3.8414582610130310e-02" rms="3.4858620166778564e-01" purity="1.4937229454517365e-01" nType="0">
                  <Node pos="l" depth="6" NCoef="0" IVar="4" Cut="9.4872966408729553e-02" cType="1" res="-1.6097193583846092e-02" rms="3.8462162017822266e-01" purity="1.9322501122951508e-01" nType="0">
                    <Node pos="l" depth="7" NCoef="0" IVar="-1" Cut="0.0000000000000000e+00" cType="1" res="-4.4101388193666935e-03" rms="3.7271183729171753e-01" purity="1.8092523515224457e-01" nType="-99"/>
                    <Node pos="r" depth="7" NCoef="0" IVar="-1" Cut="0.0000000000000000e+00" cType="1" res="-6.2328105559572577e-04" rms="3.9657354354858398e-01" purity="2.0634476840496063e-01" nType="-99"/>
                  </Node>
                  <Node pos="r" depth="6" NCoef="0" IVar="0" Cut="8.0078971385955811e-01" cType="1" res="-4.8923112452030182e-02" rms="3.2973682880401611e-01" purity="1.2872350215911865e-01" nType="0">
                    <Node pos="l" depth="7" NCoef="0" IVar="-1" Cut="0.0000000000000000e+00" cType="1" res="-5.4216035641729832e-03" rms="3.7192773818969727e-01" purity="1.7212918400764465e-01" nType="-99"/>
                    <Node pos="r" depth="7" NCoef="0" IVar="-1" Cut="0.0000000000000000e+00" cType="1" res="-1.0929313488304615e-02" rms="3.0954173207283020e-01" purity="1.1000297963619232e-01" nType="-99"/>
                  </Node>
                </Node>
              </Node>
            </Node>
            <Node pos="r" depth="3" NCoef="0" IVar="4" Cut="1.0229840874671936e-01" cType="1" res="-5.8951448649168015e-02" rms="2.2730882465839386e-01" purity="5.6003939360380173e-02" nType="0">
              <Node pos="l" depth="4" NCoef="0" IVar="1" Cut="8.7393349409103394e-01" cType="1" res="-6.4337283372879028e-02" rms="2.0604757964611053e-01" purity="4.5636054128408432e-02" nType="0">
                <Node pos="l" depth="5" NCoef="0" IVar="0" Cut="1.5281653404235840e+00" cType="1" res="-6.8620964884757996e-02" rms="2.0079907774925232e-01" purity="4.3767396360635757e-02" nType="0">
                  <Node pos="l" depth="6" NCoef="0" IVar="-1" Cut="0.0000000000000000e+00" cType="1" res="-1.4682845212519169e-02" rms="2.5173887610435486e-01" purity="7.2721697390079498e-02" nType="-99"/>
                  <Node pos="r" depth="6" NCoef="0" IVar="5" Cut="5.0000000000000000e+00" cType="1" res="-7.1784816682338715e-02" rms="1.7576172947883606e-01" purity="3.3500589430332184e-02" nType="0">
                    <Node pos="l" depth="7" NCoef="0" IVar="-1" Cut="0.0000000000000000e+00" cType="1" res="-2.1086037158966064e-02" rms="2.2178645431995392e-01" purity="5.1931120455265045e-02" nType="-99"/>
                    <Node pos="r" depth="7" NCoef="0" IVar="-1" Cut="0.0000000000000000e+00" cType="1" res="-2.3584540933370590e-02" rms="1.5313425660133362e-01" purity="2.4186685681343079e-02" nType="-99"/>
                  </Node>
                </Node>
                <Node pos="r" depth="5" NCoef="0" IVar="1" Cut="1.4508880376815796e+00" cType="1" res="-5.5888187140226364e-02" rms="2.1577705442905426e-01" purity="4.9321789294481277e-02" nType="0">
                  <Node pos="l" depth="6" NCoef="0" IVar="-1" Cut="0.0000000000000000e+00" cType="1" res="-2.0797031000256538e-02" rms="1.8598771095275879e-01" purity="3.7115637212991714e-02" nType="-99"/>
                  <Node pos="r" depth="6" NCoef="0" IVar="-1" Cut="0.0000000000000000e+00" cType="1" res="-1.3411921449005604e-02" rms="2.4424852430820465e-01" purity="6.2967434525489807e-02" nType="-99"/>
                </Node>
              </Node>
              <Node pos="r" depth="4" NCoef="0" IVar="1" Cut="5.8561968803405762e-01" cType="1" res="-5.2579745650291443e-02" rms="2.4998927116394043e-01" purity="6.8269640207290649e-02" nType="0">
                <Node pos="l" depth="5" NCoef="0" IVar="2" Cut="3.1033520507812500e+02" cType="1" res="-4.8232425004243851e-02" rms="2.6166996359825134e-01" purity="7.5641497969627380e-02" nType="0">
                  <Node pos="l" depth="6" NCoef="0" IVar="-1" Cut="0.0000000000000000e+00" cType="1" res="-1.0052182711660862e-02" rms="2.7954947948455811e-01" purity="8.8225759565830231e-02" nType="-99"/>
                  <Node pos="r" depth="6" NCoef="0" IVar="4" Cut="1.7799934744834900e-01" cType="1" res="-5.5149748921394348e-02" rms="2.4994657933712006e-01" purity="6.8006269633769989e-02" nType="0">
                    <Node pos="l" depth="7" NCoef="0" IVar="-1" Cut="0.0000000000000000e+00" cType="1" res="-1.7768209800124168e-02" rms="2.1731895208358765e-01" purity="5.0818163901567459e-02" nType="-99"/>
                    <Node pos="r" depth="7" NCoef="0" IVar="-1" Cut="0.0000000000000000e+00" cType="1" res="-1.0776622220873833e-02" rms="2.9144763946533203e-01" purity="9.3551814556121826e-02" nType="-99"/>
                  </Node>
                </Node>
                <Node pos="r" depth="5" NCoef="0" IVar="4" Cut="1.3914586603641510e-01" cType="1" res="-6.0811631381511688e-02" rms="2.2599601745605469e-01" purity="5.4310634732246399e-02" nType="0">
                  <Node pos="l" depth="6" NCoef="0" IVar="-1" Cut="0.0000000000000000e+00" cType="1" res="-1.8265502527356148e-02" rms="2.1086029708385468e-01" purity="4.7414619475603104e-02" nType="-99"/>
                  <Node pos="r" depth="6" NCoef="0" IVar="-1" Cut="0.0000000000000000e+00" cType="1" res="-1.7718231305480003e-02" rms="2.3987783491611481e-01" purity="6.1073027551174164e-02" nType="-99"/>
                </Node>
              </Node>
            </Node>
          </Node>
        </Node>
        <Node pos="r" depth="1" NCoef="0" IVar="0" Cut="5.6920993328094482e-01" cType="1" res="5.7654835283756256e-02" rms="4.2974653840065002e-01" purity="7.3892951011657715e-01" nType="0">
          <Node pos="l" depth="2" NCoef="0" IVar="5" Cut="2.0000000000000000e+00" cType="1" res="5.8382030576467514e-02" rms="4.0482717752456665e-01" purity="7.4734121561050415e-01" nType="0">
            <Node pos="l" depth="3" NCoef="0" IVar="1" Cut="9.9672973155975342e-01" cType="1" res="6.9900520145893097e-02" rms="4.0969246625900269e-01" purity="7.8210926055908203e-01" nType="0">
              <Node pos="l" depth="4" NCoef="0" IVar="1" Cut="2.8753951191902161e-01" cType="1" res="7.1484632790088654e-02" rms="4.0609860420227051e-01" purity="7.8903728723526001e-01" nType="0">
                <Node pos="l" depth="5" NCoef="0" IVar="3" Cut="9.7239506244659424e-01" cType="1" res="7.4610061943531036e-02" rms="3.9920538663864136e-01" purity="7.9976564645767212e-01" nType="0">
                  <Node pos="l" depth="6" NCoef="0" IVar="3" Cut="9.5404660701751709e-01" cType="1" res="6.4675584435462952e-02" rms="4.2106309533119202e-01" purity="7.6793897151947021e-01" nType="0">
                    <Node pos="l" depth="7" NCoef="0" IVar="-1" Cut="0.0000000000000000e+00" cType="1" res="5.1387497223913670e-03" rms="4.3171003460884094e-01" purity="7.5082778930664062e-01" nType="-99"/>
                    <Node pos="r" depth="7" NCoef="0" IVar="-1" Cut="0.0000000000000000e+00" cType="1" res="6.8293916992843151e-03" rms="4.0853312611579895e-01" purity="7.8716790676116943e-01" nType="-99"/>
                  </Node>
                  <Node pos="r" depth="6" NCoef="0" IVar="3" Cut="1.0360025167465210e+00" cType="1" res="7.5827196240425110e-02" rms="3.9642748236656189e-01" purity="8.0366492271423340e-01" nType="0">
                    <Node pos="l" depth="7" NCoef="0" IVar="-1" Cut="0.0000000000000000e+00" cType="1" res="7.4146897532045841e-03" rms="3.9563173055648804e-01" purity="8.0473810434341431e-01" nType="-99"/>
                    <Node pos="r" depth="7" NCoef="0" IVar="-1" Cut="0.0000000000000000e+00" cType="1" res="6.0407975688576698e-03" rms="4.0592169761657715e-01" purity="7.9045277833938599e-01" nType="-99"/>
                  </Node>
                </Node>
                <Node pos="r" depth="5" NCoef="0" IVar="1" Cut="4.7050595283508301e-01" cType="1" res="5.7308960705995560e-02" rms="4.3571606278419495e-01" purity="7.4037772417068481e-01" nType="0">
                  <Node pos="l" depth="6" NCoef="0" IVar="1" Cut="3.5246798396110535e-01" cType="1" res="6.4068168401718140e-02" rms="4.2311507463455200e-01" purity="7.6362538337707520e-01" nType="0">
                    <Node pos="l" depth="7" NCoef="0" IVar="-1" Cut="0.0000000000000000e+00" cType="1" res="5.5930754169821739e-03" rms="4.2143985629081726e-01" purity="7.6529377698898315e-01" nType="-99"/>
                    <Node pos="r" depth="7" NCoef="0" IVar="-1" Cut="0.0000000000000000e+00" cType="1" res="5.9293285012245178e-03" rms="4.2434334754943848e-01" purity="7.6238042116165161e-01" nType="-99"/>
                  </Node>
                  <Node pos="r" depth="6" NCoef="0" IVar="1" Cut="6.0628128051757812e-01" cType="1" res="5.0110060721635818e-02" rms="4.4863587617874146e-01" purity="7.1561771631240845e-01" nType="0">
                    <Node pos="l" depth="7" NCoef="0" IVar="-1" Cut="0.0000000000000000e+00" cType="1" res="3.8959311787039042e-03" rms="4.4187089800834656e-01" purity="7.3109203577041626e-01" nType="-99"/>
                    <Node pos="r" depth="7" NCoef="0" IVar="-1" Cut="0.0000000000000000e+00" cType="1" res="4.5103626325726509e-03" rms="4.5375210046768188e-01" purity="7.0362806320190430e-01" nType="-99"/>
                  </Node>
                </Node>
              </Node>
              <Node pos="r" depth="4" NCoef="0" IVar="-1" Cut="0.0000000000000000e+00" cType="1" res="2.7443761937320232e-03" rms="4.8341226577758789e-01" purity="6.2327718734741211e-01" nType="-99"/>
            </Node>
            <Node pos="r" depth="3" NCoef="0" IVar="1" Cut="2.8198137879371643e-01" cType="1" res="4.3157681822776794e-02" rms="4.5869946479797363e-01" purity="6.8411177396774292e-01" nType="0">
              <Node pos="l" depth="4" NCoef="0" IVar="2" Cut="1.0840136718750000e+02" cType="1" res="5.1245141774415970e-02" rms="4.5042675733566284e-01" purity="7.1099162101745605e-01" nType="0">
                <Node pos="l" depth="5" NCoef="0" IVar="4" Cut="1.5125684440135956e-02" cType="1" res="5.8907750993967056e-02" rms="4.4539219141006470e-01" purity="7.2194290161132812e-01" nType="0">
                  <Node pos="l" depth="6" NCoef="0" IVar="-1" Cut="0.0000000000000000e+00" cType="1" res="2.6883094105869532e-03" rms="4.5857852697372437e-01" purity="6.9099187850952148e-01" nType="-99"/>
                  <Node pos="r" depth="6" NCoef="0" IVar="2" Cut="8.2634666442871094e+01" cType="1" res="6.4088538289070129e-02" rms="4.4295266270637512e-01" purity="7.2708040475845337e-01" nType="0">
                    <Node pos="l" depth="7" NCoef="0" IVar="-1" Cut="0.0000000000000000e+00" cType="1" res="6.3193347305059433e-03" rms="4.3954855203628540e-01" purity="7.3433470726013184e-01" nType="-99"/>
                    <Node pos="r" depth="7" NCoef="0" IVar="-1" Cut="0.0000000000000000e+00" cType="1" res="3.4703537821769714e-03" rms="4.5433935523033142e-01" purity="7.0010513067245483e-01" nType="-99"/>
                  </Node>
                </Node>
                <Node pos="r" depth="5" NCoef="0" IVar="2" Cut="2.0964231872558594e+02" cType="1" res="3.7463881075382233e-02" rms="4.5902079343795776e-01" purity="6.9129574298858643e-01" nType="0">
                  <Node pos="l" depth="6" NCoef="0" IVar="3" Cut="8.5218995809555054e-01" cType="1" res="4.3226495385169983e-02" rms="4.5384037494659424e-01" purity="7.0333778858184814e-01" nType="0">
                    <Node pos="l" depth="7" NCoef="0" IVar="-1" Cut="0.0000000000000000e+00" cType="1" res="2.8386567719280720e-03" rms="4.7234198451042175e-01" purity="6.6071462631225586e-01" nType="-99"/>
                    <Node pos="r" depth="7" NCoef="0" IVar="-1" Cut="0.0000000000000000e+00" cType="1" res="5.3818775340914726e-03" rms="4.3558970093727112e-01" purity="7.4317187070846558e-01" nType="-99"/>
                  </Node>
                  <Node pos="r" depth="6" NCoef="0" IVar="-1" Cut="0.0000000000000000e+00" cType="1" res="2.0074988715350628e-03" rms="4.7323185205459595e-01" purity="6.5661519765853882e-01" nType="-99"/>
                </Node>
              </Node>
              <Node pos="r" depth="4" NCoef="0" IVar="1" Cut="5.8924496173858643e-01" cType="1" res="1.6293503344058990e-02" rms="4.8419886827468872e-01" purity="5.9482461214065552e-01" nType="0">
                <Node pos="l" depth="5" NCoef="0" IVar="2" Cut="9.6075843811035156e+01" cType="1" res="3.3715296536684036e-02" rms="4.7499099373817444e-01" purity="6.4858490228652954e-01" nType="0">
                  <Node pos="l" depth="6" NCoef="0" IVar="-1" Cut="0.0000000000000000e+00" cType="1" res="2.6713700499385595e-03" rms="4.7616466879844666e-01" purity="6.4709037542343140e-01" nType="-99"/>
                  <Node pos="r" depth="6" NCoef="0" IVar="-1" Cut="0.0000000000000000e+00" cType="1" res="3.1936033628880978e-03" rms="4.7387602925300598e-01" purity="6.4999151229858398e-01" nType="-99"/>
                </Node>
                <Node pos="r" depth="5" NCoef="0" IVar="-1" Cut="0.0000000000000000e+00" cType="1" res="-4.9763813149183989e-04" rms="4.9476197361946106e-01" purity="5.2655535936355591e-01" nType="-99"/>
              </Node>
            </Node>
          </Node>
          <Node pos="r" depth="2" NCoef="0" IVar="-1" Cut="0.0000000000000000e+00" cType="1" res="-4.8020477406680584e-03" rms="4.8520025610923767e-01" purity="3.9947572350502014e-01" nType="-99"/>
        </Node>
      </Node>
    </BinaryTree>
    <BinaryTree type="DecisionTree" boostWeight="1.0000000000000000e+00" itree="38">
      <Node pos="s" depth="0" NCoef="0" IVar="3" Cut="7.7875840663909912e-01" cType="1" res="1.1753573082387447e-02" rms="4.1405683755874634e-01" purity="4.9855470657348633e-01" nType="0">
        <Node pos="l" depth="1" NCoef="0" IVar="3" Cut="6.0566270351409912e-01" cType="1" res="-3.0098751187324524e-02" rms="3.9154213666915894e-01" purity="2.5746828317642212e-01" nType="0">
          <Node pos="l" depth="2" NCoef="0" IVar="1" Cut="-1.8844728171825409e-01" cType="1" res="-4.4080082327127457e-02" rms="3.3509975671768188e-01" purity="1.4721854031085968e-01" nType="0">
            <Node pos="l" depth="3" NCoef="0" IVar="3" Cut="3.9745637774467468e-01" cType="1" res="-1.4629079028964043e-02" rms="3.7715277075767517e-01" purity="2.0370525121688843e-01" nType="0">
              <Node pos="l" depth="4" NCoef="0" IVar="-1" Cut="0.0000000000000000e+00" cType="1" res="-1.1061416938900948e-02" rms="2.8945073485374451e-01" purity="1.0015249997377396e-01" nType="-99"/>
              <Node pos="r" depth="4" NCoef="0" IVar="-1" Cut="0.0000000000000000e+00" cType="1" res="2.2715588565915823e-03" rms="4.4490745663642883e-01" purity="3.0642098188400269e-01" nType="-99"/>
            </Node>
            <Node pos="r" depth="3" NCoef="0" IVar="1" Cut="1.3988798856735229e-01" cType="1" res="-4.7007404267787933e-02" rms="3.3048436045646667e-01" purity="1.4160396158695221e-01" nType="0">
              <Node pos="l" depth="4" NCoef="0" IVar="2" Cut="7.0740089416503906e+01" cType="1" res="-3.4143984317779541e-02" rms="3.7538668513298035e-01" purity="1.9337412714958191e-01" nType="0">
                <Node pos="l" depth="5" NCoef="0" IVar="-1" Cut="0.0000000000000000e+00" cType="1" res="7.7592063462361693e-04" rms="4.2083233594894409e-01" purity="2.6695218682289124e-01" nType="-99"/>
                <Node pos="r" depth="5" NCoef="0" IVar="4" Cut="7.4212811887264252e-02" cType="1" res="-3.8507815450429916e-02" rms="3.6985194683074951e-01" purity="1.8538218736648560e-01" nType="0">
                  <Node pos="l" depth="6" NCoef="0" IVar="-1" Cut="0.0000000000000000e+00" cType="1" res="-1.1314577423036098e-02" rms="3.2306966185569763e-01" purity="1.3503889739513397e-01" nType="-99"/>
                  <Node pos="r" depth="6" NCoef="0" IVar="2" Cut="2.0559741210937500e+02" cType="1" res="-3.1866841018199921e-02" rms="3.7952375411987305e-01" purity="1.9700337946414948e-01" nType="0">
                    <Node pos="l" depth="7" NCoef="0" IVar="-1" Cut="0.0000000000000000e+00" cType="1" res="-1.7416712362319231e-03" rms="4.0944716334342957e-01" purity="2.4733741581439972e-01" nType="-99"/>
                    <Node pos="r" depth="7" NCoef="0" IVar="-1" Cut="0.0000000000000000e+00" cType="1" res="-6.3062715344130993e-03" rms="3.6627706885337830e-01" purity="1.7638868093490601e-01" nType="-99"/>
                  </Node>
                </Node>
              </Node>
              <Node pos="r" depth="4" NCoef="0" IVar="4" Cut="1.7961555719375610e-01" cType="1" res="-5.4394222795963287e-02" rms="3.0144539475440979e-01" purity="1.1187493801116943e-01" nType="0">
                <Node pos="l" depth="5" NCoef="0" IVar="4" Cut="1.1019023507833481e-01" cType="1" res="-5.7788904756307602e-02" rms="2.9192915558815002e-01" purity="1.0471731424331665e-01" nType="0">
                  <Node pos="l" depth="6" NCoef="0" IVar="2" Cut="1.0662249755859375e+02" cType="1" res="-6.1621647328138351e-02" rms="2.7724379301071167e-01" purity="9.2584267258644104e-02" nType="0">
                    <Node pos="l" depth="7" NCoef="0" IVar="-1" Cut="0.0000000000000000e+00" cType="1" res="-1.0823210701346397e-02" rms="2.9809316992759705e-01" purity="1.1018250882625580e-01" nType="-99"/>
                    <Node pos="r" depth="7" NCoef="0" IVar="-1" Cut="0.0000000000000000e+00" cType="1" res="-1.4851133339107037e-02" rms="2.6327943801879883e-01" purity="8.1641629338264465e-02" nType="-99"/>
                  </Node>
                  <Node pos="r" depth="6" NCoef="0" IVar="2" Cut="1.8275978088378906e+02" cType="1" res="-4.9685310572385788e-02" rms="3.2062187790870667e-01" purity="1.3037031888961792e-01" nType="0">
                    <Node pos="l" depth="7" NCoef="0" IVar="-1" Cut="0.0000000000000000e+00" cType="1" res="-5.2857375703752041e-03" rms="3.4830757975578308e-01" purity="1.6054397821426392e-01" nType="-99"/>
                    <Node pos="r" depth="7" NCoef="0" IVar="-1" Cut="0.0000000000000000e+00" cType="1" res="-1.0648202151060104e-02" rms="3.1216529011726379e-01" purity="1.2190856039524078e-01" nType="-99"/>
                  </Node>
                </Node>
                <Node pos="r" depth="5" NCoef="0" IVar="4" Cut="2.3580650985240936e-01" cType="1" res="-3.2754920423030853e-02" rms="3.5541835427284241e-01" purity="1.5750096738338470e-01" nType="0">
                  <Node pos="l" depth="6" NCoef="0" IVar="-1" Cut="0.0000000000000000e+00" cType="1" res="-7.2319158352911472e-03" rms="3.4249588847160339e-01" purity="1.4481440186500549e-01" nType="-99"/>
                  <Node pos="r" depth="6" NCoef="0" IVar="-1" Cut="0.0000000000000000e+00" cType="1" res="-4.0139262564480305e-03" rms="3.7370792031288147e-01" purity="1.7646268010139465e-01" nType="-99"/>
                </Node>
              </Node>
            </Node>
          </Node>
          <Node pos="r" depth="2" NCoef="0" IVar="5" Cut="3.0000000000000000e+00" cType="1" res="9.9749529908876866e-05" rms="4.8593693971633911e-01" purity="4.8622244596481323e-01" nType="0">
            <Node pos="l" depth="3" NCoef="0" IVar="1" Cut="2.7086547017097473e-01" cType="1" res="-2.6322348043322563e-02" rms="4.8364126682281494e-01" purity="4.4859135150909424e-01" nType="0">
              <Node pos="l" depth="4" NCoef="0" IVar="2" Cut="8.2272460937500000e+01" cType="1" res="-8.5802339017391205e-03" rms="4.9010691046714783e-01" purity="4.9083027243614197e-01" nType="0">
                <Node pos="l" depth="5" NCoef="0" IVar="-1" Cut="0.0000000000000000e+00" cType="1" res="8.6542969802394509e-04" rms="4.9186497926712036e-01" purity="5.2379029989242554e-01" nType="-99"/>
                <Node pos="r" depth="5" NCoef="0" IVar="4" Cut="7.7611662447452545e-02" cType="1" res="-1.8154868856072426e-02" rms="4.8895007371902466e-01" purity="4.7448709607124329e-01" nType="0">
                  <Node pos="l" depth="6" NCoef="0" IVar="-1" Cut="0.0000000000000000e+00" cType="1" res="-2.8816764242947102e-03" rms="4.8488253355026245e-01" purity="4.4098073244094849e-01" nType="-99"/>
                  <Node pos="r" depth="6" NCoef="0" IVar="-1" Cut="0.0000000000000000e+00" cType="1" res="-6.2034116126596928e-04" rms="4.9201360344886780e-01" purity="5.0217109918594360e-01" nType="-99"/>
                </Node>
              </Node>
              <Node pos="r" depth="4" NCoef="0" IVar="-1" Cut="0.0000000000000000e+00" cType="1" res="-5.9334221296012402e-03" rms="4.6770352125167847e-01" purity="3.6046659946441650e-01" nType="-99"/>
            </Node>
            <Node pos="r" depth="3" NCoef="0" IVar="4" Cut="5.1652476191520691e-02" cType="1" res="1.3182801194489002e-02" rms="4.8829123377799988e-01" purity="5.0750696659088135e-01" nType="0">
              <Node pos="l" depth="4" NCoef="0" IVar="1" Cut="1.5031398832798004e-01" cType="1" res="-6.2974151223897934e-03" rms="4.8727703094482422e-01" purity="4.9080458283424377e-01" nType="0">
                <Node pos="l" depth="5" NCoef="0" IVar="2" Cut="5.9802242279052734e+01" cType="1" res="1.3423637486994267e-02" rms="4.9008488655090332e-01" purity="5.3538292646408081e-01" nType="0">
                  <Node pos="l" depth="6" NCoef="0" IVar="-1" Cut="0.0000000000000000e+00" cType="1" res="3.8997665978968143e-03" rms="4.8809269070625305e-01" purity="5.8096277713775635e-01" nType="-99"/>
                  <Node pos="r" depth="6" NCoef="0" IVar="-1" Cut="0.0000000000000000e+00" cType="1" res="-1.2543261982500553e-03" rms="4.9014887213706970e-01" purity="4.9696868658065796e-01" nType="-99"/>
                </Node>
                <Node pos="r" depth="5" NCoef="0" IVar="-1" Cut="0.0000000000000000e+00" cType="1" res="-3.8200542330741882e-03" rms="4.8048251867294312e-01" purity="4.1377383470535278e-01" nType="-99"/>
              </Node>
              <Node pos="r" depth="4" NCoef="0" IVar="2" Cut="2.1368386840820312e+02" cType="1" res="2.5420058518648148e-02" rms="4.8853021860122681e-01" purity="5.1799923181533813e-01" nType="0">
                <Node pos="l" depth="5" NCoef="0" IVar="3" Cut="6.6149955987930298e-01" cType="1" res="4.3977022171020508e-02" rms="4.8763683438301086e-01" purity="5.5165463685989380e-01" nType="0">
                  <Node pos="l" depth="6" NCoef="0" IVar="-1" Cut="0.0000000000000000e+00" cType="1" res="1.7030454473569989e-03" rms="4.9262979626655579e-01" purity="4.7106397151947021e-01" nType="-99"/>
                  <Node pos="r" depth="6" NCoef="0" IVar="-1" Cut="0.0000000000000000e+00" cType="1" res="4.9829040654003620e-03" rms="4.8377966880798340e-01" purity="6.0294985771179199e-01" nType="-99"/>
                </Node>
                <Node pos="r" depth="5" NCoef="0" IVar="4" Cut="8.5129514336585999e-02" cType="1" res="2.0730895921587944e-03" rms="4.8865184187889099e-01" purity="4.7565647959709167e-01" nType="0">
                  <Node pos="l" depth="6" NCoef="0" IVar="-1" Cut="0.0000000000000000e+00" cType="1" res="-1.7612117808312178e-03" rms="4.8577648401260376e-01" purity="4.5980700850486755e-01" nType="-99"/>
                  <Node pos="r" depth="6" NCoef="0" IVar="-1" Cut="0.0000000000000000e+00" cType="1" res="1.7133388901129365e-03" rms="4.9034786224365234e-01" purity="4.8854824900627136e-01" nType="-99"/>
                </Node>
              </Node>
            </Node>
          </Node>
        </Node>
        <Node pos="r" depth="1" NCoef="0" IVar="0" Cut="6.1320692300796509e-01" cType="1" res="5.3000725805759430e-02" rms="4.3115076422691345e-01" purity="7.3615509271621704e-01" nType="0">
          <Node pos="l" depth="2" NCoef="0" IVar="0" Cut="1.9778897985816002e-02" cType="1" res="5.5378142744302750e-02" rms="4.2957583069801331e-01" purity="7.4384266138076782e-01" nType="0">
            <Node pos="l" depth="3" NCoef="0" IVar="3" Cut="9.7019892930984497e-01" cType="1" res="5.9319399297237396e-02" rms="4.2412537336349487e-01" purity="7.5652575492858887e-01" nType="0">
              <Node pos="l" depth="4" NCoef="0" IVar="1" Cut="1.7904087901115417e-01" cType="1" res="4.6733122318983078e-02" rms="4.5049703121185303e-01" purity="7.0683813095092773e-01" nType="0">
                <Node pos="l" depth="5" NCoef="0" IVar="3" Cut="8.2816201448440552e-01" cType="1" res="5.3880974650382996e-02" rms="4.3969106674194336e-01" purity="7.3452329635620117e-01" nType="0">
                  <Node pos="l" depth="6" NCoef="0" IVar="4" Cut="5.1987808197736740e-02" cType="1" res="3.5906635224819183e-02" rms="4.6896117925643921e-01" purity="6.7181301116943359e-01" nType="0">
                    <Node pos="l" depth="7" NCoef="0" IVar="-1" Cut="0.0000000000000000e+00" cType="1" res="2.0834009628742933e-03" rms="4.7332271933555603e-01" purity="6.5988117456436157e-01" nType="-99"/>
                    <Node pos="r" depth="7" NCoef="0" IVar="-1" Cut="0.0000000000000000e+00" cType="1" res="4.0358812548220158e-03" rms="4.6394893527030945e-01" purity="6.8451792001724243e-01" nType="-99"/>
                  </Node>
                  <Node pos="r" depth="6" NCoef="0" IVar="2" Cut="1.1223175048828125e+02" cType="1" res="0.0000000000000000e+00" rms="0.0000000000000000e+00" purity="7.5271803140640259e-01" nType="0">
                    <Node pos="l" depth="7" NCoef="0" IVar="-1" Cut="0.0000000000000000e+00" cType="1" res="5.8223255909979343e-03" rms="4.2773303389549255e-01" purity="7.5775593519210815e-01" nType="-99"/>
                    <Node pos="r" depth="7" NCoef="0" IVar="-1" Cut="0.0000000000000000e+00" cType="1" res="4.8824921250343323e-03" rms="4.3980726599693298e-01" purity="7.3669964075088501e-01" nType="-99"/>
                  </Node>
                </Node>
                <Node pos="r" depth="5" NCoef="0" IVar="2" Cut="3.4176616668701172e+01" cType="1" res="2.9490275308489799e-02" rms="4.7511249780654907e-01" purity="6.4005291461944580e-01" nType="0">
                  <Node pos="l" depth="6" NCoef="0" IVar="-1" Cut="0.0000000000000000e+00" cType="1" res="-4.8648152733221650e-04" rms="4.7920414805412292e-01" purity="6.2036663293838501e-01" nType="-99"/>
                  <Node pos="r" depth="6" NCoef="0" IVar="3" Cut="8.3948349952697754e-01" cType="1" res="4.0438968688249588e-02" rms="4.7329810261726379e-01" purity="6.4618349075317383e-01" nType="0">
                    <Node pos="l" depth="7" NCoef="0" IVar="-1" Cut="0.0000000000000000e+00" cType="1" res="2.0921758841723204e-03" rms="4.8511353135108948e-01" purity="5.9834182262420654e-01" nType="-99"/>
                    <Node pos="r" depth="7" NCoef="0" IVar="-1" Cut="0.0000000000000000e+00" cType="1" res="4.4339620508253574e-03" rms="4.6624025702476501e-01" purity="6.7335832118988037e-01" nType="-99"/>
                  </Node>
                </Node>
              </Node>
              <Node pos="r" depth="4" NCoef="0" IVar="1" Cut="5.4386961460113525e-01" cType="1" res="6.7438237369060516e-02" rms="4.0599983930587769e-01" purity="7.8857696056365967e-01" nType="0">
                <Node pos="l" depth="5" NCoef="0" IVar="1" Cut="7.6027356088161469e-02" cType="1" res="7.0530988276004791e-02" rms="3.9832338690757751e-01" purity="8.0167549848556519e-01" nType="0">
                  <Node pos="l" depth="6" NCoef="0" IVar="1" Cut="-2.2768948972225189e-01" cType="1" res="7.4305944144725800e-02" rms="3.9089345932006836e-01" purity="8.1165295839309692e-01" nType="0">
                    <Node pos="l" depth="7" NCoef="0" IVar="-1" Cut="0.0000000000000000e+00" cType="1" res="4.9708290025591850e-03" rms="4.0816298127174377e-01" purity="7.8867155313491821e-01" nType="-99"/>
                    <Node pos="r" depth="7" NCoef="0" IVar="-1" Cut="0.0000000000000000e+00" cType="1" res="7.6734954491257668e-03" rms="3.8812303543090820e-01" purity="8.1513988971710205e-01" nType="-99"/>
                  </Node>
                  <Node pos="r" depth="6" NCoef="0" IVar="3" Cut="1.0022385120391846e+00" cType="1" res="6.3400976359844208e-02" rms="4.1189703345298767e-01" purity="7.8283041715621948e-01" nType="0">
                    <Node pos="l" depth="7" NCoef="0" IVar="-1" Cut="0.0000000000000000e+00" cType="1" res="5.6551420129835606e-03" rms="4.1563984751701355e-01" purity="7.7741926908493042e-01" nType="-99"/>
                    <Node pos="r" depth="7" NCoef="0" IVar="-1" Cut="0.0000000000000000e+00" cType="1" res="6.6136494278907776e-03" rms="4.0434387326240540e-01" purity="7.9344314336776733e-01" nType="-99"/>
                  </Node>
                </Node>
                <Node pos="r" depth="5" NCoef="0" IVar="3" Cut="9.9923002719879150e-01" cType="1" res="4.1339404881000519e-02" rms="4.6494910120964050e-01" purity="6.7804193496704102e-01" nType="0">
                  <Node pos="l" depth="6" NCoef="0" IVar="-1" Cut="0.0000000000000000e+00" cType="1" res="2.1380367688834667e-03" rms="4.7195926308631897e-01" purity="6.5766406059265137e-01" nType="-99"/>
                  <Node pos="r" depth="6" NCoef="0" IVar="-1" Cut="0.0000000000000000e+00" cType="1" res="4.4485335238277912e-03" rms="4.5885071158409119e-01" purity="6.9429433345794678e-01" nType="-99"/>
                </Node>
              </Node>
            </Node>
            <Node pos="r" depth="3" NCoef="0" IVar="1" Cut="7.6809361577033997e-02" cType="1" res="1.4443868771195412e-02" rms="4.8065131902694702e-01" purity="6.1211490631103516e-01" nType="0">
              <Node pos="l" depth="4" NCoef="0" IVar="2" Cut="4.5022926330566406e+01" cType="1" res="3.8577642291784286e-02" rms="4.7265237569808960e-01" purity="6.5246051549911499e-01" nType="0">
                <Node pos="l" depth="5" NCoef="0" IVar="-1" Cut="0.0000000000000000e+00" cType="1" res="4.7984500415623188e-03" rms="4.6167546510696411e-01" purity="6.8397402763366699e-01" nType="-99"/>
                <Node pos="r" depth="5" NCoef="0" IVar="-1" Cut="0.0000000000000000e+00" cType="1" res="1.9691567867994308e-03" rms="4.8386588692665100e-01" purity="6.1770623922348022e-01" nType="-99"/>
              </Node>
              <Node pos="r" depth="4" NCoef="0" IVar="-1" Cut="0.0000000000000000e+00" cType="1" res="-1.3727659825235605e-03" rms="4.8863437771797180e-01" purity="5.6280505657196045e-01" nType="-99"/>
            </Node>
          </Node>
          <Node pos="r" depth="2" NCoef="0" IVar="-1" Cut="0.0000000000000000e+00" cType="1" res="-4.8902607522904873e-03" rms="4.8495346307754517e-01" purity="3.9032509922981262e-01" nType="-99"/>
        </Node>
      </Node>
    </BinaryTree>
    <BinaryTree type="DecisionTree" boostWeight="1.0000000000000000e+00" itree="39">
      <Node pos="s" depth="0" NCoef="0" IVar="3" Cut="7.8013855218887329e-01" cType="1" res="1.0708996094763279e-02" rms="4.1369116306304932e-01" purity="4.9849125742912292e-01" nType="0">
        <Node pos="l" depth="1" NCoef="0" IVar="3" Cut="6.0663360357284546e-01" cType="1" res="-2.9081208631396294e-02" rms="3.9099469780921936e-01" purity="2.5829538702964783e-01" nType="0">
          <Node pos="l" depth="2" NCoef="0" IVar="0" Cut="9.6759217977523804e-01" cType="1" res="-4.3385896831750870e-02" rms="3.3378663659095764e-01" purity="1.4606177806854248e-01" nType="0">
            <Node pos="l" depth="3" NCoef="0" IVar="1" Cut="9.8664057254791260e-01" cType="1" res="-3.2678164541721344e-02" rms="4.1056716442108154e-01" purity="2.3343956470489502e-01" nType="0">
              <Node pos="l" depth="4" NCoef="0" IVar="4" Cut="8.9249633252620697e-02" cType="1" res="-2.8965057805180550e-02" rms="4.1552627086639404e-01" purity="2.4088105559349060e-01" nType="0">
                <Node pos="l" depth="5" NCoef="0" IVar="2" Cut="6.6253967285156250e+01" cType="1" res="-4.2945276945829391e-02" rms="4.0304118394851685e-01" purity="2.2351385653018951e-01" nType="0">
                  <Node pos="l" depth="6" NCoef="0" IVar="-1" Cut="0.0000000000000000e+00" cType="1" res="-7.5081137765664607e-05" rms="4.4244095683097839e-01" purity="2.8799608349800110e-01" nType="-99"/>
                  <Node pos="r" depth="6" NCoef="0" IVar="4" Cut="7.1727342903614044e-02" cType="1" res="-5.7333748787641525e-02" rms="3.8768067955970764e-01" purity="2.0158180594444275e-01" nType="0">
                    <Node pos="l" depth="7" NCoef="0" IVar="-1" Cut="0.0000000000000000e+00" cType="1" res="-9.5520419999957085e-03" rms="3.7496018409729004e-01" purity="1.8361619114875793e-01" nType="-99"/>
                    <Node pos="r" depth="7" NCoef="0" IVar="-1" Cut="0.0000000000000000e+00" cType="1" res="-4.8021473921835423e-03" rms="4.0732344985008240e-01" purity="2.3174317181110382e-01" nType="-99"/>
                  </Node>
                </Node>
                <Node pos="r" depth="5" NCoef="0" IVar="2" Cut="1.8741677856445312e+02" cType="1" res="-2.1435752511024475e-02" rms="4.2190545797348022e-01" purity="2.5023448467254639e-01" nType="0">
                  <Node pos="l" depth="6" NCoef="0" IVar="2" Cut="1.3474023437500000e+02" cType="1" res="1.2968644499778748e-02" rms="4.5433887839317322e-01" purity="3.2396277785301208e-01" nType="0">
                    <Node pos="l" depth="7" NCoef="0" IVar="-1" Cut="0.0000000000000000e+00" cType="1" res="2.5848892983049154e-03" rms="4.6224629878997803e-01" purity="3.4461876749992371e-01" nType="-99"/>
                    <Node pos="r" depth="7" NCoef="0" IVar="-1" Cut="0.0000000000000000e+00" cType="1" res="1.9339748541824520e-04" rms="4.4617632031440735e-01" purity="3.0375027656555176e-01" nType="-99"/>
                  </Node>
                  <Node pos="r" depth="6" NCoef="0" IVar="3" Cut="4.7334134578704834e-01" cType="1" res="-3.0763870105147362e-02" rms="4.1217815876007080e-01" purity="2.3024441301822662e-01" nType="0">
                    <Node pos="l" depth="7" NCoef="0" IVar="-1" Cut="0.0000000000000000e+00" cType="1" res="-5.7359100319445133e-03" rms="3.8059994578361511e-01" purity="1.8186873197555542e-01" nType="-99"/>
                    <Node pos="r" depth="7" NCoef="0" IVar="-1" Cut="0.0000000000000000e+00" cType="1" res="-2.2884076461195946e-03" rms="4.5595458149909973e-01" purity="3.0401104688644409e-01" nType="-99"/>
                  </Node>
                </Node>
              </Node>
              <Node pos="r" depth="4" NCoef="0" IVar="-1" Cut="0.0000000000000000e+00" cType="1" res="-1.3200720772147179e-02" rms="3.3317881822586060e-01" purity="1.3372080028057098e-01" nType="-99"/>
            </Node>
            <Node pos="r" depth="3" NCoef="0" IVar="1" Cut="1.7215803861618042e+00" cType="1" res="-5.3813666105270386e-02" rms="2.3565973341464996e-01" purity="6.0968562960624695e-02" nType="0">
              <Node pos="l" depth="4" NCoef="0" IVar="4" Cut="1.4053016901016235e-01" cType="1" res="-5.5383395403623581e-02" rms="2.3408003151416779e-01" purity="6.0280621051788330e-02" nType="0">
                <Node pos="l" depth="5" NCoef="0" IVar="3" Cut="4.1493403911590576e-01" cType="1" res="-5.9137437492609024e-02" rms="2.1769906580448151e-01" purity="5.1898900419473648e-02" nType="0">
                  <Node pos="l" depth="6" NCoef="0" IVar="1" Cut="7.2642713785171509e-02" cType="1" res="-6.2804892659187317e-02" rms="1.8162584304809570e-01" purity="3.4619636833667755e-02" nType="0">
                    <Node pos="l" depth="7" NCoef="0" IVar="-1" Cut="0.0000000000000000e+00" cType="1" res="-1.7513072118163109e-02" rms="2.0906668901443481e-01" purity="4.6689543873071671e-02" nType="-99"/>
                    <Node pos="r" depth="7" NCoef="0" IVar="-1" Cut="0.0000000000000000e+00" cType="1" res="-2.1913263946771622e-02" rms="1.7175297439098358e-01" purity="3.0721906572580338e-02" nType="-99"/>
                  </Node>
                  <Node pos="r" depth="6" NCoef="0" IVar="2" Cut="1.2489985656738281e+02" cType="1" res="-4.6186994761228561e-02" rms="3.1311988830566406e-01" purity="1.1291506141424179e-01" nType="0">
                    <Node pos="l" depth="7" NCoef="0" IVar="-1" Cut="0.0000000000000000e+00" cType="1" res="-6.0536894015967846e-03" rms="3.3940565586090088e-01" purity="1.3705347478389740e-01" nType="-99"/>
                    <Node pos="r" depth="7" NCoef="0" IVar="-1" Cut="0.0000000000000000e+00" cType="1" res="-1.1480764485895634e-02" rms="2.9420605301856995e-01" purity="9.7067117691040039e-02" nType="-99"/>
                  </Node>
                </Node>
                <Node pos="r" depth="5" NCoef="0" IVar="0" Cut="1.5504934787750244e+00" cType="1" res="-4.4587995857000351e-02" rms="2.7553227543830872e-01" purity="8.4383696317672729e-02" nType="0">
                  <Node pos="l" depth="6" NCoef="0" IVar="-1" Cut="0.0000000000000000e+00" cType="1" res="-7.1586170233786106e-03" rms="3.1476959586143494e-01" purity="1.1300344020128250e-01" nType="-99"/>
                  <Node pos="r" depth="6" NCoef="0" IVar="5" Cut="7.0000000000000000e+00" cType="1" res="-5.2807349711656570e-02" rms="2.4581772089004517e-01" purity="6.6037379205226898e-02" nType="0">
                    <Node pos="l" depth="7" NCoef="0" IVar="-1" Cut="0.0000000000000000e+00" cType="1" res="-1.2347999960184097e-02" rms="2.6628965139389038e-01" purity="7.7661968767642975e-02" nType="-99"/>
                    <Node pos="r" depth="7" NCoef="0" IVar="-1" Cut="0.0000000000000000e+00" cType="1" res="-1.8708162009716034e-02" rms="2.1994172036647797e-01" purity="5.1715455949306488e-02" nType="-99"/>
                  </Node>
                </Node>
              </Node>
              <Node pos="r" depth="4" NCoef="0" IVar="-1" Cut="0.0000000000000000e+00" cType="1" res="-1.1240848340094090e-02" rms="2.5180861353874207e-01" purity="6.8570844829082489e-02" nType="-99"/>
            </Node>
          </Node>
          <Node pos="r" depth="2" NCoef="0" IVar="5" Cut="3.0000000000000000e+00" cType="1" res="1.6296063549816608e-03" rms="4.8596930503845215e-01" purity="4.8941442370414734e-01" nType="0">
            <Node pos="l" depth="3" NCoef="0" IVar="4" Cut="3.8631528615951538e-02" cType="1" res="-2.2013908252120018e-02" rms="4.8518911004066467e-01" purity="4.5441457629203796e-01" nType="0">
              <Node pos="l" depth="4" NCoef="0" IVar="-1" Cut="0.0000000000000000e+00" cType="1" res="-5.4713468998670578e-03" rms="4.7616451978683472e-01" purity="4.0576064586639404e-01" nType="-99"/>
              <Node pos="r" depth="4" NCoef="0" IVar="1" Cut="-9.1156467795372009e-02" cType="1" res="-1.3085939921438694e-02" rms="4.8685801029205322e-01" purity="4.6585932374000549e-01" nType="0">
                <Node pos="l" depth="5" NCoef="0" IVar="-1" Cut="0.0000000000000000e+00" cType="1" res="1.7002596287056804e-03" rms="4.9320375919342041e-01" purity="5.2601748704910278e-01" nType="-99"/>
                <Node pos="r" depth="5" NCoef="0" IVar="3" Cut="7.4095332622528076e-01" cType="1" res="-2.4056419730186462e-02" rms="4.8426356911659241e-01" purity="4.4621801376342773e-01" nType="0">
                  <Node pos="l" depth="6" NCoef="0" IVar="1" Cut="2.1885104477405548e-01" cType="1" res="-3.9550505578517914e-02" rms="4.7894167900085449e-01" purity="3.9641246199607849e-01" nType="0">
                    <Node pos="l" depth="7" NCoef="0" IVar="-1" Cut="0.0000000000000000e+00" cType="1" res="-1.5468307537958026e-03" rms="4.9180015921592712e-01" purity="4.5060044527053833e-01" nType="-99"/>
                    <Node pos="r" depth="7" NCoef="0" IVar="-1" Cut="0.0000000000000000e+00" cType="1" res="-6.2158904038369656e-03" rms="4.6359375119209290e-01" purity="3.3837279677391052e-01" nType="-99"/>
                  </Node>
                  <Node pos="r" depth="6" NCoef="0" IVar="-1" Cut="0.0000000000000000e+00" cType="1" res="4.0729434113018215e-04" rms="4.9273860454559326e-01" purity="5.3913962841033936e-01" nType="-99"/>
                </Node>
              </Node>
            </Node>
            <Node pos="r" depth="3" NCoef="0" IVar="0" Cut="2.1520806849002838e-01" cType="1" res="1.3458043336868286e-02" rms="4.8725897073745728e-01" purity="5.0986433029174805e-01" nType="0">
              <Node pos="l" depth="4" NCoef="0" IVar="1" Cut="-1.0611816495656967e-01" cType="1" res="2.7824621647596359e-02" rms="4.8850896954536438e-01" purity="5.7195991277694702e-01" nType="0">
                <Node pos="l" depth="5" NCoef="0" IVar="-1" Cut="0.0000000000000000e+00" cType="1" res="4.3317535892128944e-03" rms="4.8042502999305725e-01" purity="6.2185406684875488e-01" nType="-99"/>
                <Node pos="r" depth="5" NCoef="0" IVar="4" Cut="7.7146090567111969e-02" cType="1" res="1.9799036905169487e-02" rms="4.9085417389869690e-01" purity="5.5566298961639404e-01" nType="0">
                  <Node pos="l" depth="6" NCoef="0" IVar="2" Cut="8.8005340576171875e+01" cType="1" res="1.0839316993951797e-02" rms="4.9023798108100891e-01" purity="5.6020832061767578e-01" nType="0">
                    <Node pos="l" depth="7" NCoef="0" IVar="-1" Cut="0.0000000000000000e+00" cType="1" res="2.3101496044546366e-03" rms="4.8707926273345947e-01" purity="5.8396810293197632e-01" nType="-99"/>
                    <Node pos="r" depth="7" NCoef="0" IVar="-1" Cut="0.0000000000000000e+00" cType="1" res="-4.7767374780960381e-04" rms="4.9274513125419617e-01" purity="5.3717178106307983e-01" nType="-99"/>
                  </Node>
                  <Node pos="r" depth="6" NCoef="0" IVar="-1" Cut="0.0000000000000000e+00" cType="1" res="2.9379313345998526e-03" rms="4.9149653315544128e-01" purity="5.4842954874038696e-01" nType="-99"/>
                </Node>
              </Node>
              <Node pos="r" depth="4" NCoef="0" IVar="2" Cut="1.8806442260742188e+02" cType="1" res="-6.2488601543009281e-03" rms="4.8484712839126587e-01" purity="4.2468667030334473e-01" nType="0">
                <Node pos="l" depth="5" NCoef="0" IVar="1" Cut="1.5031398832798004e-01" cType="1" res="7.5736972503364086e-03" rms="4.8881059885025024e-01" purity="4.4939598441123962e-01" nType="0">
                  <Node pos="l" depth="6" NCoef="0" IVar="-1" Cut="0.0000000000000000e+00" cType="1" res="2.9426261316984892e-03" rms="4.9492862820625305e-01" purity="4.9702566862106323e-01" nType="-99"/>
                  <Node pos="r" depth="6" NCoef="0" IVar="-1" Cut="0.0000000000000000e+00" cType="1" res="-3.1884817872196436e-03" rms="4.7623416781425476e-01" purity="3.7383070588111877e-01" nType="-99"/>
                </Node>
                <Node pos="r" depth="5" NCoef="0" IVar="-1" Cut="0.0000000000000000e+00" cType="1" res="-3.6259617190808058e-03" rms="4.7480961680412292e-01" purity="3.7135097384452820e-01" nType="-99"/>
              </Node>
            </Node>
          </Node>
        </Node>
        <Node pos="r" depth="1" NCoef="0" IVar="0" Cut="5.6309038400650024e-01" cType="1" res="4.9984797835350037e-02" rms="4.3134954571723938e-01" purity="7.3558187484741211e-01" nType="0">
          <Node pos="l" depth="2" NCoef="0" IVar="1" Cut="4.1526558995246887e-01" cType="1" res="5.2659906446933746e-02" rms="4.2962163686752319e-01" purity="7.4412155151367188e-01" nType="0">
            <Node pos="l" depth="3" NCoef="0" IVar="3" Cut="8.5857665538787842e-01" cType="1" res="5.7770077139139175e-02" rms="4.2151522636413574e-01" purity="7.6272428035736084e-01" nType="0">
              <Node pos="l" depth="4" NCoef="0" IVar="4" Cut="6.1393398791551590e-02" cType="1" res="3.7389256060123444e-02" rms="4.6813946962356567e-01" purity="6.7085069417953491e-01" nType="0">
                <Node pos="l" depth="5" NCoef="0" IVar="2" Cut="8.3010360717773438e+01" cType="1" res="3.1855661422014236e-02" rms="4.6976888179779053e-01" purity="6.6597664356231689e-01" nType="0">
                  <Node pos="l" depth="6" NCoef="0" IVar="4" Cut="3.7775788456201553e-02" cType="1" res="4.3164182454347610e-02" rms="4.6484887599945068e-01" purity="6.7985546588897705e-01" nType="0">
                    <Node pos="l" depth="7" NCoef="0" IVar="-1" Cut="0.0000000000000000e+00" cType="1" res="3.0790038872510195e-03" rms="4.6901768445968628e-01" purity="6.6883969306945801e-01" nType="-99"/>
                    <Node pos="r" depth="7" NCoef="0" IVar="-1" Cut="0.0000000000000000e+00" cType="1" res="4.6343537978827953e-03" rms="4.5641064643859863e-01" purity="7.0094138383865356e-01" nType="-99"/>
                  </Node>
                  <Node pos="r" depth="6" NCoef="0" IVar="4" Cut="4.6412624418735504e-02" cType="1" res="1.7129324376583099e-02" rms="4.7569686174392700e-01" purity="6.4790314435958862e-01" nType="0">
                    <Node pos="l" depth="7" NCoef="0" IVar="-1" Cut="0.0000000000000000e+00" cType="1" res="-3.2239835127256811e-04" rms="4.8248755931854248e-01" purity="6.2343847751617432e-01" nType="-99"/>
                    <Node pos="r" depth="7" NCoef="0" IVar="-1" Cut="0.0000000000000000e+00" cType="1" res="3.2721306197345257e-03" rms="4.6834850311279297e-01" purity="6.7105078697204590e-01" nType="-99"/>
                  </Node>
                </Node>
                <Node pos="r" depth="5" NCoef="0" IVar="-1" Cut="0.0000000000000000e+00" cType="1" res="4.8473482020199299e-03" rms="4.6125891804695129e-01" purity="6.8945074081420898e-01" nType="-99"/>
              </Node>
              <Node pos="r" depth="4" NCoef="0" IVar="0" Cut="1.8164202570915222e-01" cType="1" res="6.2609650194644928e-02" rms="4.0951609611511230e-01" purity="7.8454029560089111e-01" nType="0">
                <Node pos="l" depth="5" NCoef="0" IVar="1" Cut="3.4953497350215912e-02" cType="1" res="6.3706047832965851e-02" rms="4.0647041797637939e-01" purity="7.8991967439651489e-01" nType="0">
                  <Node pos="l" depth="6" NCoef="0" IVar="1" Cut="-2.5948172807693481e-01" cType="1" res="6.8051181733608246e-02" rms="3.9954620599746704e-01" purity="7.9975950717926025e-01" nType="0">
                    <Node pos="l" depth="7" NCoef="0" IVar="-1" Cut="0.0000000000000000e+00" cType="1" res="3.4321576822549105e-03" rms="4.2272886633872986e-01" purity="7.6645743846893311e-01" nType="-99"/>
                    <Node pos="r" depth="7" NCoef="0" IVar="-1" Cut="0.0000000000000000e+00" cType="1" res="7.0967287756502628e-03" rms="3.9690506458282471e-01" purity="8.0324840545654297e-01" nType="-99"/>
                  </Node>
                  <Node pos="r" depth="6" NCoef="0" IVar="3" Cut="1.0010814666748047e+00" cType="1" res="5.6497465819120407e-02" rms="4.1760486364364624e-01" purity="7.7359521389007568e-01" nType="0">
                    <Node pos="l" depth="7" NCoef="0" IVar="-1" Cut="0.0000000000000000e+00" cType="1" res="5.0631673075258732e-03" rms="4.2416602373123169e-01" purity="7.6323115825653076e-01" nType="-99"/>
                    <Node pos="r" depth="7" NCoef="0" IVar="-1" Cut="0.0000000000000000e+00" cType="1" res="6.4346636645495892e-03" rms="4.0174666047096252e-01" purity="7.9766482114791870e-01" nType="-99"/>
                  </Node>
                </Node>
                <Node pos="r" depth="5" NCoef="0" IVar="-1" Cut="0.0000000000000000e+00" cType="1" res="3.7711900658905506e-03" rms="4.6379417181015015e-01" purity="6.8092316389083862e-01" nType="-99"/>
              </Node>
            </Node>
            <Node pos="r" depth="3" NCoef="0" IVar="3" Cut="9.7638905048370361e-01" cType="1" res="2.4485748261213303e-02" rms="4.7082605957984924e-01" purity="6.4155840873718262e-01" nType="0">
              <Node pos="l" depth="4" NCoef="0" IVar="2" Cut="6.5956329345703125e+01" cType="1" res="1.3310461072251201e-03" rms="4.8907864093780518e-01" purity="5.6704020500183105e-01" nType="0">
                <Node pos="l" depth="5" NCoef="0" IVar="-1" Cut="0.0000000000000000e+00" cType="1" res="-2.7074853423982859e-03" rms="4.9085995554924011e-01" purity="5.4290288686752319e-01" nType="-99"/>
                <Node pos="r" depth="5" NCoef="0" IVar="-1" Cut="0.0000000000000000e+00" cType="1" res="2.0004510879516602e-03" rms="4.8666891455650330e-01" purity="5.8287769556045532e-01" nType="-99"/>
              </Node>
              <Node pos="r" depth="4" NCoef="0" IVar="1" Cut="1.0328540802001953e+00" cType="1" res="4.0971141308546066e-02" rms="4.5667222142219543e-01" purity="6.9461292028427124e-01" nType="0">
                <Node pos="l" depth="5" NCoef="0" IVar="1" Cut="6.1448097229003906e-01" cType="1" res="4.8706367611885071e-02" rms="4.4523945450782776e-01" purity="7.2418969869613647e-01" nType="0">
                  <Node pos="l" depth="6" NCoef="0" IVar="-1" Cut="0.0000000000000000e+00" cType="1" res="4.0172594599425793e-03" rms="4.3724048137664795e-01" purity="7.3965334892272949e-01" nType="-99"/>
                  <Node pos="r" depth="6" NCoef="0" IVar="-1" Cut="0.0000000000000000e+00" cType="1" res="4.4070044532418251e-03" rms="4.5487892627716064e-01" purity="7.0508968830108643e-01" nType="-99"/>
                </Node>
                <Node pos="r" depth="5" NCoef="0" IVar="-1" Cut="0.0000000000000000e+00" cType="1" res="1.6396590508520603e-03" rms="4.8595586419105530e-01" purity="6.1368077993392944e-01" nType="-99"/>
              </Node>
            </Node>
          </Node>
          <Node pos="r" depth="2" NCoef="0" IVar="-1" Cut="0.0000000000000000e+00" cType="1" res="-5.2113994024693966e-03" rms="4.8368814587593079e-01" purity="3.9285889267921448e-01" nType="-99"/>
        </Node>
      </Node>
    </BinaryTree>
    <BinaryTree type="DecisionTree" boostWeight="1.0000000000000000e+00" itree="40">
      <Node pos="s" depth="0" NCoef="0" IVar="3" Cut="7.1759289503097534e-01" cType="1" res="1.2678123079240322e-02" rms="4.1390949487686157e-01" purity="5.0085091590881348e-01" nType="0">
        <Node pos="l" depth="1" NCoef="0" IVar="0" Cut="6.4372134208679199e-01" cType="1" res="-3.0805682763457298e-02" rms="3.7595576047897339e-01" purity="2.1560765802860260e-01" nType="0">
          <Node pos="l" depth="2" NCoef="0" IVar="1" Cut="7.6782298088073730e-01" cType="1" res="-1.4586732722818851e-02" rms="4.6047398447990417e-01" purity="3.5594448447227478e-01" nType="0">
            <Node pos="l" depth="3" NCoef="0" IVar="3" Cut="5.8186626434326172e-01" cType="1" res="-9.9243810400366783e-03" rms="4.6452760696411133e-01" purity="3.6815965175628662e-01" nType="0">
              <Node pos="l" depth="4" NCoef="0" IVar="0" Cut="4.7759568691253662e-01" cType="1" res="-2.5656094774603844e-02" rms="4.3285873532295227e-01" purity="2.6490661501884460e-01" nType="0">
                <Node pos="l" depth="5" NCoef="0" IVar="2" Cut="2.1113092041015625e+02" cType="1" res="-2.0635223016142845e-02" rms="4.4247356057167053e-01" purity="2.8296789526939392e-01" nType="0">
                  <Node pos="l" depth="6" NCoef="0" IVar="2" Cut="1.3023997497558594e+02" cType="1" res="-5.6677618995308876e-03" rms="4.6148622035980225e-01" purity="3.3029487729072571e-01" nType="0">
                    <Node pos="l" depth="7" NCoef="0" IVar="-1" Cut="0.0000000000000000e+00" cType="1" res="-8.2387198926880956e-04" rms="4.6255439519882202e-01" purity="3.3899757266044617e-01" nType="-99"/>
                    <Node pos="r" depth="7" NCoef="0" IVar="-1" Cut="0.0000000000000000e+00" cType="1" res="-3.5208239569328725e-04" rms="4.6037358045578003e-01" purity="3.2135570049285889e-01" nType="-99"/>
                  </Node>
                  <Node pos="r" depth="6" NCoef="0" IVar="2" Cut="6.5132141113281250e+02" cType="1" res="-2.8069203719496727e-02" rms="4.3252757191658020e-01" purity="2.5946173071861267e-01" nType="0">
                    <Node pos="l" depth="7" NCoef="0" IVar="-1" Cut="0.0000000000000000e+00" cType="1" res="-2.7587017975747585e-03" rms="4.3874815106391907e-01" purity="2.7165803313255310e-01" nType="-99"/>
                    <Node pos="r" depth="7" NCoef="0" IVar="-1" Cut="0.0000000000000000e+00" cType="1" res="-5.3180451504886150e-03" rms="4.1565924882888794e-01" purity="2.2779180109500885e-01" nType="-99"/>
                  </Node>
                </Node>
                <Node pos="r" depth="5" NCoef="0" IVar="4" Cut="1.0111732780933380e-01" cType="1" res="-4.0829569101333618e-02" rms="4.0202730894088745e-01" purity="2.1032397449016571e-01" nType="0">
                  <Node pos="l" depth="6" NCoef="0" IVar="-1" Cut="0.0000000000000000e+00" cType="1" res="-6.6643040627241135e-03" rms="4.0877845883369446e-01" purity="2.1874156594276428e-01" nType="-99"/>
                  <Node pos="r" depth="6" NCoef="0" IVar="-1" Cut="0.0000000000000000e+00" cType="1" res="-4.3601393699645996e-03" rms="3.9543381333351135e-01" purity="2.0260928571224213e-01" nType="-99"/>
                </Node>
              </Node>
              <Node pos="r" depth="4" NCoef="0" IVar="1" Cut="-8.2058243453502655e-02" cType="1" res="3.6055506207048893e-03" rms="4.8972615599632263e-01" purity="4.5696160197257996e-01" nType="0">
                <Node pos="l" depth="5" NCoef="0" IVar="3" Cut="6.6942775249481201e-01" cType="1" res="2.4771591648459435e-02" rms="4.9223583936691284e-01" purity="5.0020551681518555e-01" nType="0">
                  <Node pos="l" depth="6" NCoef="0" IVar="-1" Cut="0.0000000000000000e+00" cType="1" res="7.4715574737638235e-04" rms="4.9243697524070740e-01" purity="4.5711266994476318e-01" nType="-99"/>
                  <Node pos="r" depth="6" NCoef="0" IVar="-1" Cut="0.0000000000000000e+00" cType="1" res="4.0630195289850235e-03" rms="4.9093654751777649e-01" purity="5.6374680995941162e-01" nType="-99"/>
                </Node>
                <Node pos="r" depth="5" NCoef="0" IVar="1" Cut="8.2432113587856293e-02" cType="1" res="-5.0043328665196896e-03" rms="4.8843920230865479e-01" purity="4.3937095999717712e-01" nType="0">
                  <Node pos="l" depth="6" NCoef="0" IVar="2" Cut="9.3454055786132812e+01" cType="1" res="1.3565663248300552e-02" rms="4.9472963809967041e-01" purity="4.8585924506187439e-01" nType="0">
                    <Node pos="l" depth="7" NCoef="0" IVar="-1" Cut="0.0000000000000000e+00" cType="1" res="2.4948555510491133e-03" rms="4.9605587124824524e-01" purity="5.1609331369400024e-01" nType="-99"/>
                    <Node pos="r" depth="7" NCoef="0" IVar="-1" Cut="0.0000000000000000e+00" cType="1" res="3.7643790710717440e-04" rms="4.9369877576828003e-01" purity="4.6795424818992615e-01" nType="-99"/>
                  </Node>
                  <Node pos="r" depth="6" NCoef="0" IVar="0" Cut="2.0759735256433487e-02" cType="1" res="-1.7403131350874901e-02" rms="4.8379704356193542e-01" purity="4.0833169221878052e-01" nType="0">
                    <Node pos="l" depth="7" NCoef="0" IVar="-1" Cut="0.0000000000000000e+00" cType="1" res="6.0631352243945003e-04" rms="4.9707284569740295e-01" purity="4.8803070187568665e-01" nType="-99"/>
                    <Node pos="r" depth="7" NCoef="0" IVar="-1" Cut="0.0000000000000000e+00" cType="1" res="-3.3415616489946842e-03" rms="4.7405451536178589e-01" purity="3.5530021786689758e-01" nType="-99"/>
                  </Node>
                </Node>
              </Node>
            </Node>
            <Node pos="r" depth="3" NCoef="0" IVar="-1" Cut="0.0000000000000000e+00" cType="1" res="-7.5118294917047024e-03" rms="4.1458517313003540e-01" purity="2.3301418125629425e-01" nType="-99"/>
          </Node>
          <Node pos="r" depth="2" NCoef="0" IVar="0" Cut="1.5470683574676514e+00" cType="1" res="-4.5028973370790482e-02" rms="2.8091758489608765e-01" purity="9.2538557946681976e-02" nType="0">
            <Node pos="l" depth="3" NCoef="0" IVar="1" Cut="-1.4020439982414246e-01" cType="1" res="-3.9394713938236237e-02" rms="3.2713642716407776e-01" purity="1.2937384843826294e-01" nType="0">
              <Node pos="l" depth="4" NCoef="0" IVar="-1" Cut="0.0000000000000000e+00" cType="1" res="-3.0183377675712109e-03" rms="3.6203530430793762e-01" purity="1.6627299785614014e-01" nType="-99"/>
              <Node pos="r" depth="4" NCoef="0" IVar="1" Cut="8.3998006582260132e-01" cType="1" res="-4.2599830776453018e-02" rms="3.2175475358963013e-01" purity="1.2414322793483734e-01" nType="0">
                <Node pos="l" depth="5" NCoef="0" IVar="0" Cut="1.3722304105758667e+00" cType="1" res="-3.7750467658042908e-02" rms="3.3098748326301575e-01" purity="1.3307003676891327e-01" nType="0">
                  <Node pos="l" depth="6" NCoef="0" IVar="4" Cut="1.3836325705051422e-01" cType="1" res="-3.4866601228713989e-02" rms="3.4174522757530212e-01" purity="1.4301514625549316e-01" nType="0">
                    <Node pos="l" depth="7" NCoef="0" IVar="-1" Cut="0.0000000000000000e+00" cType="1" res="-7.0832036435604095e-03" rms="3.3928751945495605e-01" purity="1.4234007894992828e-01" nType="-99"/>
                    <Node pos="r" depth="7" NCoef="0" IVar="-1" Cut="0.0000000000000000e+00" cType="1" res="-3.3396009821444750e-03" rms="3.4955450892448425e-01" purity="1.4536137878894806e-01" nType="-99"/>
                  </Node>
                  <Node pos="r" depth="6" NCoef="0" IVar="-1" Cut="0.0000000000000000e+00" cType="1" res="-1.5769792720675468e-02" rms="2.3914444446563721e-01" purity="6.1783097684383392e-02" nType="-99"/>
                </Node>
                <Node pos="r" depth="5" NCoef="0" IVar="-1" Cut="0.0000000000000000e+00" cType="1" res="-1.5256660990417004e-02" rms="2.6982104778289795e-01" purity="7.9673662781715393e-02" nType="-99"/>
              </Node>
            </Node>
            <Node pos="r" depth="3" NCoef="0" IVar="4" Cut="1.6678580641746521e-01" cType="1" res="-5.1905207335948944e-02" rms="2.1102172136306763e-01" purity="4.7583572566509247e-02" nType="0">
              <Node pos="l" depth="4" NCoef="0" IVar="2" Cut="3.9392303466796875e+02" cType="1" res="-5.4296255111694336e-02" rms="1.9549840688705444e-01" purity="4.0485411882400513e-02" nType="0">
                <Node pos="l" depth="5" NCoef="0" IVar="5" Cut="8.0000000000000000e+00" cType="1" res="-5.1370076835155487e-02" rms="1.9686187803745270e-01" purity="4.2548585683107376e-02" nType="0">
                  <Node pos="l" depth="6" NCoef="0" IVar="4" Cut="8.0835826694965363e-02" cType="1" res="-4.9879476428031921e-02" rms="2.1054585278034210e-01" purity="4.7333575785160065e-02" nType="0">
                    <Node pos="l" depth="7" NCoef="0" IVar="-1" Cut="0.0000000000000000e+00" cType="1" res="-1.8649553880095482e-02" rms="1.9770145416259766e-01" purity="4.1155781596899033e-02" nType="-99"/>
                    <Node pos="r" depth="7" NCoef="0" IVar="-1" Cut="0.0000000000000000e+00" cType="1" res="-1.5163640491664410e-02" rms="2.2553785145282745e-01" purity="5.5107396095991135e-02" nType="-99"/>
                  </Node>
                  <Node pos="r" depth="6" NCoef="0" IVar="-1" Cut="0.0000000000000000e+00" cType="1" res="-2.4480853229761124e-02" rms="1.4133799076080322e-01" purity="2.0422551780939102e-02" nType="-99"/>
                </Node>
                <Node pos="r" depth="5" NCoef="0" IVar="-1" Cut="0.0000000000000000e+00" cType="1" res="-2.1535724401473999e-02" rms="1.6737200319766998e-01" purity="2.9004184529185295e-02" nType="-99"/>
              </Node>
              <Node pos="r" depth="4" NCoef="0" IVar="-1" Cut="0.0000000000000000e+00" cType="1" res="-1.0869844816625118e-02" rms="2.7674004435539246e-01" purity="8.3839863538742065e-02" nType="-99"/>
            </Node>
          </Node>
        </Node>
        <Node pos="r" depth="1" NCoef="0" IVar="0" Cut="6.1320698261260986e-01" cType="1" res="4.5709896832704544e-02" rms="4.3768274784088135e-01" purity="7.1753132343292236e-01" nType="0">
          <Node pos="l" depth="2" NCoef="0" IVar="3" Cut="9.6499735116958618e-01" cType="1" res="4.8295110464096069e-02" rms="4.3621933460235596e-01" purity="7.2589087486267090e-01" nType="0">
            <Node pos="l" depth="3" NCoef="0" IVar="1" Cut="7.4034911394119263e-01" cType="1" res="3.4612022340297699e-02" rms="4.6365183591842651e-01" purity="6.6327333450317383e-01" nType="0">
              <Node pos="l" depth="4" NCoef="0" IVar="3" Cut="7.4951565265655518e-01" cType="1" res="3.9189159870147705e-02" rms="4.6089056134223938e-01" purity="6.7784732580184937e-01" nType="0">
                <Node pos="l" depth="5" NCoef="0" IVar="4" Cut="6.2663286924362183e-02" cType="1" res="1.1162337847054005e-02" rms="4.9226605892181396e-01" purity="5.6501388549804688e-01" nType="0">
                  <Node pos="l" depth="6" NCoef="0" IVar="-1" Cut="0.0000000000000000e+00" cType="1" res="-1.1385262041585520e-04" rms="4.9402132630348206e-01" purity="5.4794794321060181e-01" nType="-99"/>
                  <Node pos="r" depth="6" NCoef="0" IVar="-1" Cut="0.0000000000000000e+00" cType="1" res="2.1976374555379152e-03" rms="4.8978257179260254e-01" purity="5.8512067794799805e-01" nType="-99"/>
                </Node>
                <Node pos="r" depth="5" NCoef="0" IVar="4" Cut="3.7666581571102142e-02" cType="1" res="4.2963791638612747e-02" rms="4.5636868476867676e-01" purity="6.9304364919662476e-01" nType="0">
                  <Node pos="l" depth="6" NCoef="0" IVar="1" Cut="1.5095673501491547e-01" cType="1" res="3.6250147968530655e-02" rms="4.5258414745330811e-01" purity="7.0066982507705688e-01" nType="0">
                    <Node pos="l" depth="7" NCoef="0" IVar="-1" Cut="0.0000000000000000e+00" cType="1" res="4.3642804957926273e-03" rms="4.4402071833610535e-01" purity="7.2273904085159302e-01" nType="-99"/>
                    <Node pos="r" depth="7" NCoef="0" IVar="-1" Cut="0.0000000000000000e+00" cType="1" res="9.5668190624564886e-04" rms="4.7448793053627014e-01" purity="6.3967406749725342e-01" nType="-99"/>
                  </Node>
                  <Node pos="r" depth="6" NCoef="0" IVar="2" Cut="1.5027223205566406e+02" cType="1" res="5.0561185926198959e-02" rms="4.6049582958221436e-01" purity="6.8441361188888550e-01" nType="0">
                    <Node pos="l" depth="7" NCoef="0" IVar="-1" Cut="0.0000000000000000e+00" cType="1" res="5.0445143133401871e-03" rms="4.5339477062225342e-01" purity="7.0326483249664307e-01" nType="-99"/>
                    <Node pos="r" depth="7" NCoef="0" IVar="-1" Cut="0.0000000000000000e+00" cType="1" res="3.4421342425048351e-03" rms="4.6977841854095459e-01" purity="6.5847820043563843e-01" nType="-99"/>
                  </Node>
                </Node>
              </Node>
              <Node pos="r" depth="4" NCoef="0" IVar="-1" Cut="0.0000000000000000e+00" cType="1" res="-2.0212952513247728e-03" rms="4.9371552467346191e-01" purity="4.7814863920211792e-01" nType="-99"/>
            </Node>
            <Node pos="r" depth="3" NCoef="0" IVar="0" Cut="1.9779767096042633e-01" cType="1" res="6.0353692620992661e-02" rms="4.1014871001243591e-01" purity="7.8107422590255737e-01" nType="0">
              <Node pos="l" depth="4" NCoef="0" IVar="3" Cut="9.9780976772308350e-01" cType="1" res="6.2244448810815811e-02" rms="4.0657910704612732e-01" purity="7.8783792257308960e-01" nType="0">
                <Node pos="l" depth="5" NCoef="0" IVar="1" Cut="5.1426458358764648e-01" cType="1" res="5.2487984299659729e-02" rms="4.1412514448165894e-01" purity="7.7603107690811157e-01" nType="0">
                  <Node pos="l" depth="6" NCoef="0" IVar="1" Cut="6.2035556882619858e-02" cType="1" res="5.7726323604583740e-02" rms="4.0607789158821106e-01" purity="7.9109853506088257e-01" nType="0">
                    <Node pos="l" depth="7" NCoef="0" IVar="-1" Cut="0.0000000000000000e+00" cType="1" res="6.3359602354466915e-03" rms="3.9773428440093994e-01" purity="8.0286759138107300e-01" nType="-99"/>
                    <Node pos="r" depth="7" NCoef="0" IVar="-1" Cut="0.0000000000000000e+00" cType="1" res="4.7597419470548630e-03" rms="4.2045435309410095e-01" purity="7.6999974250793457e-01" nType="-99"/>
                  </Node>
                  <Node pos="r" depth="6" NCoef="0" IVar="-1" Cut="0.0000000000000000e+00" cType="1" res="5.3967302665114403e-04" rms="4.7699514031410217e-01" purity="6.4267534017562866e-01" nType="-99"/>
                </Node>
                <Node pos="r" depth="5" NCoef="0" IVar="3" Cut="1.0295608043670654e+00" cType="1" res="6.8628706037998199e-02" rms="4.0143620967864990e-01" purity="7.9556393623352051e-01" nType="0">
                  <Node pos="l" depth="6" NCoef="0" IVar="3" Cut="9.9985837936401367e-01" cType="1" res="7.1898140013217926e-02" rms="3.9930284023284912e-01" purity="7.9885774850845337e-01" nType="0">
                    <Node pos="l" depth="7" NCoef="0" IVar="-1" Cut="0.0000000000000000e+00" cType="1" res="5.8305896818637848e-03" rms="4.0916424989700317e-01" purity="7.8421175479888916e-01" nType="-99"/>
                    <Node pos="r" depth="7" NCoef="0" IVar="-1" Cut="0.0000000000000000e+00" cType="1" res="7.0896120741963387e-03" rms="3.9619234204292297e-01" purity="8.0331307649612427e-01" nType="-99"/>
                  </Node>
                  <Node pos="r" depth="6" NCoef="0" IVar="-1" Cut="0.0000000000000000e+00" cType="1" res="4.7064237296581268e-03" rms="4.1286063194274902e-01" purity="7.7684342861175537e-01" nType="-99"/>
                </Node>
              </Node>
              <Node pos="r" depth="4" NCoef="0" IVar="-1" Cut="0.0000000000000000e+00" cType="1" res="2.1246459800750017e-03" rms="4.7158011794090271e-01" purity="6.5224218368530273e-01" nType="-99"/>
            </Node>
          </Node>
          <Node pos="r" depth="2" NCoef="0" IVar="-1" Cut="0.0000000000000000e+00" cType="1" res="-5.2668349817395210e-03" rms="4.8156696557998657e-01" purity="3.8148149847984314e-01" nType="-99"/>
        </Node>
      </Node>
    </BinaryTree>
    <BinaryTree type="DecisionTree" boostWeight="1.0000000000000000e+00" itree="41">
      <Node pos="s" depth="0" NCoef="0" IVar="3" Cut="7.1610695123672485e-01" cType="1" res="1.0425035841763020e-02" rms="4.1350746154785156e-01" purity="4.9870067834854126e-01" nType="0">
        <Node pos="l" depth="1" NCoef="0" IVar="0" Cut="3.2215213775634766e-01" cType="1" res="-3.0908869579434395e-02" rms="3.7395212054252625e-01" purity="2.1257501840591431e-01" nType="0">
          <Node pos="l" depth="2" NCoef="0" IVar="1" Cut="2.4145768582820892e-01" cType="1" res="-6.4244312234222889e-03" rms="4.7245892882347107e-01" purity="4.0144532918930054e-01" nType="0">
            <Node pos="l" depth="3" NCoef="0" IVar="3" Cut="5.3732883930206299e-01" cType="1" res="5.2190395072102547e-03" rms="4.7843664884567261e-01" purity="4.3404427170753479e-01" nType="0">
              <Node pos="l" depth="4" NCoef="0" IVar="4" Cut="1.9274358451366425e-01" cType="1" res="-1.9501563161611557e-02" rms="4.4141626358032227e-01" purity="2.7678808569908142e-01" nType="0">
                <Node pos="l" depth="5" NCoef="0" IVar="-1" Cut="0.0000000000000000e+00" cType="1" res="-4.1269189678132534e-03" rms="4.3848276138305664e-01" purity="2.7398747205734253e-01" nType="-99"/>
                <Node pos="r" depth="5" NCoef="0" IVar="-1" Cut="0.0000000000000000e+00" cType="1" res="4.4994836207479239e-04" rms="4.4444423913955688e-01" purity="2.8070119023323059e-01" nType="-99"/>
              </Node>
              <Node pos="r" depth="4" NCoef="0" IVar="2" Cut="3.3933111572265625e+02" cType="1" res="1.6525419428944588e-02" rms="4.9403354525566101e-01" purity="5.0596803426742554e-01" nType="0">
                <Node pos="l" depth="5" NCoef="0" IVar="4" Cut="6.4875304698944092e-02" cType="1" res="2.4372041225433350e-02" rms="4.9466702342033386e-01" purity="5.2416461706161499e-01" nType="0">
                  <Node pos="l" depth="6" NCoef="0" IVar="-1" Cut="0.0000000000000000e+00" cType="1" res="7.3245336534455419e-04" rms="4.9545699357986450e-01" purity="5.0844907760620117e-01" nType="-99"/>
                  <Node pos="r" depth="6" NCoef="0" IVar="1" Cut="-3.9431080222129822e-02" cType="1" res="3.4814454615116119e-02" rms="4.9387177824974060e-01" purity="5.3440684080123901e-01" nType="0">
                    <Node pos="l" depth="7" NCoef="0" IVar="-1" Cut="0.0000000000000000e+00" cType="1" res="4.2361943051218987e-03" rms="4.9174344539642334e-01" purity="5.6062942743301392e-01" nType="-99"/>
                    <Node pos="r" depth="7" NCoef="0" IVar="-1" Cut="0.0000000000000000e+00" cType="1" res="1.5881633153185248e-03" rms="4.9545583128929138e-01" purity="5.0809746980667114e-01" nType="-99"/>
                  </Node>
                </Node>
                <Node pos="r" depth="5" NCoef="0" IVar="-1" Cut="0.0000000000000000e+00" cType="1" res="-1.3588452711701393e-03" rms="4.9030059576034546e-01" purity="4.3414205312728882e-01" nType="-99"/>
              </Node>
            </Node>
            <Node pos="r" depth="3" NCoef="0" IVar="1" Cut="5.5534130334854126e-01" cType="1" res="-3.2720971852540970e-02" rms="4.5758292078971863e-01" purity="3.2782119512557983e-01" nType="0">
              <Node pos="l" depth="4" NCoef="0" IVar="-1" Cut="0.0000000000000000e+00" cType="1" res="-1.8032927764579654e-03" rms="4.6842291951179504e-01" purity="3.6528778076171875e-01" nType="-99"/>
              <Node pos="r" depth="4" NCoef="0" IVar="-1" Cut="0.0000000000000000e+00" cType="1" res="-5.6793079711496830e-03" rms="4.4302067160606384e-01" purity="2.8118285536766052e-01" nType="-99"/>
            </Node>
          </Node>
          <Node pos="r" depth="2" NCoef="0" IVar="0" Cut="9.4568216800689697e-01" cType="1" res="-3.9717294275760651e-02" rms="3.3098557591438293e-01" purity="1.4462777972221375e-01" nType="0">
            <Node pos="l" depth="3" NCoef="0" IVar="1" Cut="7.1228903532028198e-01" cType="1" res="-3.0293690040707588e-02" rms="4.1363018751144409e-01" purity="2.4176049232482910e-01" nType="0">
              <Node pos="l" depth="4" NCoef="0" IVar="2" Cut="2.7947766113281250e+02" cType="1" res="-2.3558124899864197e-02" rms="4.2237269878387451e-01" purity="2.5665962696075439e-01" nType="0">
                <Node pos="l" depth="5" NCoef="0" IVar="4" Cut="4.8281773924827576e-02" cType="1" res="-1.5555419959127903e-02" rms="4.3840137124061584e-01" purity="2.8711318969726562e-01" nType="0">
                  <Node pos="l" depth="6" NCoef="0" IVar="2" Cut="5.4678047180175781e+01" cType="1" res="-3.9155736565589905e-02" rms="4.3268537521362305e-01" purity="2.7550348639488220e-01" nType="0">
                    <Node pos="l" depth="7" NCoef="0" IVar="-1" Cut="0.0000000000000000e+00" cType="1" res="-1.5759569942019880e-04" rms="4.5652389526367188e-01" purity="3.3346223831176758e-01" nType="-99"/>
                    <Node pos="r" depth="7" NCoef="0" IVar="-1" Cut="0.0000000000000000e+00" cType="1" res="-7.8621925786137581e-03" rms="4.1309005022048950e-01" purity="2.3482438921928406e-01" nType="-99"/>
                  </Node>
                  <Node pos="r" depth="6" NCoef="0" IVar="2" Cut="8.2732757568359375e+01" cType="1" res="-4.7957212664186954e-03" rms="4.4056338071823120e-01" purity="2.9240623116493225e-01" nType="0">
                    <Node pos="l" depth="7" NCoef="0" IVar="-1" Cut="0.0000000000000000e+00" cType="1" res="2.8708856552839279e-03" rms="4.7164213657379150e-01" purity="3.6955630779266357e-01" nType="-99"/>
                    <Node pos="r" depth="7" NCoef="0" IVar="-1" Cut="0.0000000000000000e+00" cType="1" res="-1.4883800176903605e-03" rms="4.3314942717552185e-01" purity="2.7559646964073181e-01" nType="-99"/>
                  </Node>
                </Node>
                <Node pos="r" depth="5" NCoef="0" IVar="4" Cut="1.0424324125051498e-01" cType="1" res="-3.9990197867155075e-02" rms="3.8686886429786682e-01" purity="1.9412882626056671e-01" nType="0">
                  <Node pos="l" depth="6" NCoef="0" IVar="-1" Cut="0.0000000000000000e+00" cType="1" res="-7.7617797069251537e-03" rms="3.9749783277511597e-01" purity="2.1324764192104340e-01" nType="-99"/>
                  <Node pos="r" depth="6" NCoef="0" IVar="2" Cut="4.6154159545898438e+02" cType="1" res="-3.0518582090735435e-02" rms="3.8160666823387146e-01" purity="1.8551775813102722e-01" nType="0">
                    <Node pos="l" depth="7" NCoef="0" IVar="-1" Cut="0.0000000000000000e+00" cType="1" res="-1.9350380171090364e-03" rms="4.0052247047424316e-01" purity="2.1568268537521362e-01" nType="-99"/>
                    <Node pos="r" depth="7" NCoef="0" IVar="-1" Cut="0.0000000000000000e+00" cType="1" res="-6.8093221634626389e-03" rms="3.6742055416107178e-01" purity="1.6457124054431915e-01" nType="-99"/>
                  </Node>
                </Node>
              </Node>
              <Node pos="r" depth="4" NCoef="0" IVar="-1" Cut="0.0000000000000000e+00" cType="1" res="-1.1395004577934742e-02" rms="3.5100781917572021e-01" purity="1.4836278557777405e-01" nType="-99"/>
            </Node>
            <Node pos="r" depth="3" NCoef="0" IVar="4" Cut="1.9185881316661835e-01" cType="1" res="-4.7310315072536469e-02" rms="2.4461787939071655e-01" purity="6.6363602876663208e-02" nType="0">
              <Node pos="l" depth="4" NCoef="0" IVar="1" Cut="3.1639960408210754e-01" cType="1" res="-4.9228325486183167e-02" rms="2.3653405904769897e-01" purity="6.1997711658477783e-02" nType="0">
                <Node pos="l" depth="5" NCoef="0" IVar="0" Cut="1.2363841533660889e+00" cType="1" res="-4.3343108147382736e-02" rms="2.6117569208145142e-01" purity="7.7825777232646942e-02" nType="0">
                  <Node pos="l" depth="6" NCoef="0" IVar="-1" Cut="0.0000000000000000e+00" cType="1" res="-5.6139179505407810e-03" rms="3.3294886350631714e-01" purity="1.3308365643024445e-01" nType="-99"/>
                  <Node pos="r" depth="6" NCoef="0" IVar="4" Cut="1.4262455701828003e-01" cType="1" res="-4.9277853220701218e-02" rms="2.2593586146831512e-01" purity="5.5741418153047562e-02" nType="0">
                    <Node pos="l" depth="7" NCoef="0" IVar="-1" Cut="0.0000000000000000e+00" cType="1" res="-1.6984138637781143e-02" rms="2.1339933574199677e-01" purity="4.9282860010862350e-02" nType="-99"/>
                    <Node pos="r" depth="7" NCoef="0" IVar="-1" Cut="0.0000000000000000e+00" cType="1" res="-9.6195191144943237e-03" rms="2.6837435364723206e-01" purity="8.0729007720947266e-02" nType="-99"/>
                  </Node>
                </Node>
                <Node pos="r" depth="5" NCoef="0" IVar="1" Cut="1.8577811717987061e+00" cType="1" res="-5.3859326988458633e-02" rms="2.1505576372146606e-01" purity="4.9542833119630814e-02" nType="0">
                  <Node pos="l" depth="6" NCoef="0" IVar="5" Cut="4.0000000000000000e+00" cType="1" res="-5.6517131626605988e-02" rms="2.0755024254322052e-01" purity="4.6592250466346741e-02" nType="0">
                    <Node pos="l" depth="7" NCoef="0" IVar="-1" Cut="0.0000000000000000e+00" cType="1" res="-1.5953501686453819e-02" rms="2.5631910562515259e-01" purity="7.2071053087711334e-02" nType="-99"/>
                    <Node pos="r" depth="7" NCoef="0" IVar="-1" Cut="0.0000000000000000e+00" cType="1" res="-1.8526166677474976e-02" rms="1.9399997591972351e-01" purity="3.9902314543724060e-02" nType="-99"/>
                  </Node>
                  <Node pos="r" depth="6" NCoef="0" IVar="-1" Cut="0.0000000000000000e+00" cType="1" res="-1.0180539451539516e-02" rms="2.5340154767036438e-01" purity="6.9316625595092773e-02" nType="-99"/>
                </Node>
              </Node>
              <Node pos="r" depth="4" NCoef="0" IVar="-1" Cut="0.0000000000000000e+00" cType="1" res="-7.4765593744814396e-03" rms="3.0570143461227417e-01" purity="1.0444596409797668e-01" nType="-99"/>
            </Node>
          </Node>
        </Node>
        <Node pos="r" depth="1" NCoef="0" IVar="0" Cut="6.1320686340332031e-01" cType="1" res="4.1708294302225113e-02" rms="4.3851000070571899e-01" purity="7.1525275707244873e-01" nType="0">
          <Node pos="l" depth="2" NCoef="0" IVar="3" Cut="8.8134986162185669e-01" cType="1" res="4.4140912592411041e-02" rms="4.3713635206222534e-01" purity="7.2340613603591919e-01" nType="0">
            <Node pos="l" depth="3" NCoef="0" IVar="1" Cut="7.1795535087585449e-01" cType="1" res="2.4437809363007545e-02" rms="4.7485587000846863e-01" purity="6.3159149885177612e-01" nType="0">
              <Node pos="l" depth="4" NCoef="0" IVar="2" Cut="2.6567047119140625e+02" cType="1" res="2.8356380760669708e-02" rms="4.7293847799301147e-01" purity="6.4647418260574341e-01" nType="0">
                <Node pos="l" depth="5" NCoef="0" IVar="4" Cut="4.5095738023519516e-02" cType="1" res="3.0893854796886444e-02" rms="4.7145646810531616e-01" purity="6.5215861797332764e-01" nType="0">
                  <Node pos="l" depth="6" NCoef="0" IVar="0" Cut="2.1748250722885132e-01" cType="1" res="2.2170254960656166e-02" rms="4.7125294804573059e-01" purity="6.4944779872894287e-01" nType="0">
                    <Node pos="l" depth="7" NCoef="0" IVar="-1" Cut="0.0000000000000000e+00" cType="1" res="2.7040631975978613e-03" rms="4.6466946601867676e-01" purity="6.7662429809570312e-01" nType="-99"/>
                    <Node pos="r" depth="7" NCoef="0" IVar="-1" Cut="0.0000000000000000e+00" cType="1" res="-9.2216982739046216e-04" rms="4.9584385752677917e-01" purity="5.3875792026519775e-01" nType="-99"/>
                  </Node>
                  <Node pos="r" depth="6" NCoef="0" IVar="2" Cut="7.0434822082519531e+01" cType="1" res="4.1429512202739716e-02" rms="4.7148695588111877e-01" purity="6.5543252229690552e-01" nType="0">
                    <Node pos="l" depth="7" NCoef="0" IVar="-1" Cut="0.0000000000000000e+00" cType="1" res="4.7690472565591335e-03" rms="4.6005898714065552e-01" purity="6.8997204303741455e-01" nType="-99"/>
                    <Node pos="r" depth="7" NCoef="0" IVar="-1" Cut="0.0000000000000000e+00" cType="1" res="3.0622927006334066e-03" rms="4.7433403134346008e-01" purity="6.4616137742996216e-01" nType="-99"/>
                  </Node>
                </Node>
                <Node pos="r" depth="5" NCoef="0" IVar="-1" Cut="0.0000000000000000e+00" cType="1" res="-1.7756812667357735e-05" rms="4.8839327692985535e-01" purity="5.8252930641174316e-01" nType="-99"/>
              </Node>
              <Node pos="r" depth="4" NCoef="0" IVar="-1" Cut="0.0000000000000000e+00" cType="1" res="-1.6174934571608901e-03" rms="4.9356290698051453e-01" purity="4.6632558107376099e-01" nType="-99"/>
            </Node>
            <Node pos="r" depth="3" NCoef="0" IVar="0" Cut="1.7798332870006561e-01" cType="1" res="5.4633341729640961e-02" rms="4.1527402400970459e-01" purity="7.7229994535446167e-01" nType="0">
              <Node pos="l" depth="4" NCoef="0" IVar="1" Cut="5.4442167282104492e-01" cType="1" res="5.6889507919549942e-02" rms="4.1168510913848877e-01" purity="7.7940881252288818e-01" nType="0">
                <Node pos="l" depth="5" NCoef="0" IVar="1" Cut="1.7903901636600494e-02" cType="1" res="5.9736266732215881e-02" rms="4.0459045767784119e-01" purity="7.9261004924774170e-01" nType="0">
                  <Node pos="l" depth="6" NCoef="0" IVar="1" Cut="-1.4815935492515564e-01" cType="1" res="6.5016262233257294e-02" rms="3.9535090327262878e-01" purity="8.0562061071395874e-01" nType="0">
                    <Node pos="l" depth="7" NCoef="0" IVar="-1" Cut="0.0000000000000000e+00" cType="1" res="4.8130722716450691e-03" rms="4.0728905797004700e-01" purity="7.8951311111450195e-01" nType="-99"/>
                    <Node pos="r" depth="7" NCoef="0" IVar="-1" Cut="0.0000000000000000e+00" cType="1" res="7.3413779027760029e-03" rms="3.8963744044303894e-01" purity="8.1289720535278320e-01" nType="-99"/>
                  </Node>
                  <Node pos="r" depth="6" NCoef="0" IVar="3" Cut="9.8567819595336914e-01" cType="1" res="5.2916381508111954e-02" rms="4.1612207889556885e-01" purity="7.7580511569976807e-01" nType="0">
                    <Node pos="l" depth="7" NCoef="0" IVar="-1" Cut="0.0000000000000000e+00" cType="1" res="3.7288172170519829e-03" rms="4.3777629733085632e-01" purity="7.3970854282379150e-01" nType="-99"/>
                    <Node pos="r" depth="7" NCoef="0" IVar="-1" Cut="0.0000000000000000e+00" cType="1" res="5.6880880147218704e-03" rms="4.0782546997070312e-01" purity="7.8892356157302856e-01" nType="-99"/>
                  </Node>
                </Node>
                <Node pos="r" depth="5" NCoef="0" IVar="1" Cut="1.1528649330139160e+00" cType="1" res="3.2045569270849228e-02" rms="4.6833440661430359e-01" purity="6.6420012712478638e-01" nType="0">
                  <Node pos="l" depth="6" NCoef="0" IVar="1" Cut="7.4073141813278198e-01" cType="1" res="4.2386021465063095e-02" rms="4.5833799242973328e-01" purity="6.9505465030670166e-01" nType="0">
                    <Node pos="l" depth="7" NCoef="0" IVar="-1" Cut="0.0000000000000000e+00" cType="1" res="3.5629624035209417e-03" rms="4.4979488849639893e-01" purity="7.1497195959091187e-01" nType="-99"/>
                    <Node pos="r" depth="7" NCoef="0" IVar="-1" Cut="0.0000000000000000e+00" cType="1" res="3.6127048078924417e-03" rms="4.6781268715858459e-01" purity="6.7250877618789673e-01" nType="-99"/>
                  </Node>
                  <Node pos="r" depth="6" NCoef="0" IVar="-1" Cut="0.0000000000000000e+00" cType="1" res="8.5170776583254337e-04" rms="4.8805338144302368e-01" purity="5.9904474020004272e-01" nType="-99"/>
                </Node>
              </Node>
              <Node pos="r" depth="4" NCoef="0" IVar="-1" Cut="0.0000000000000000e+00" cType="1" res="1.3410369865596294e-03" rms="4.7244527935981750e-01" purity="6.4671438932418823e-01" nType="-99"/>
            </Node>
          </Node>
          <Node pos="r" depth="2" NCoef="0" IVar="-1" Cut="0.0000000000000000e+00" cType="1" res="-5.4268678650259972e-03" rms="4.8128744959831238e-01" purity="3.7842744588851929e-01" nType="-99"/>
        </Node>
      </Node>
    </BinaryTree>
    <BinaryTree type="DecisionTree" boostWeight="1.0000000000000000e+00" itree="42">
      <Node pos="s" depth="0" NCoef="0" IVar="3" Cut="7.8041601181030273e-01" cType="1" res="1.1532263830304146e-02" rms="4.1313573718070984e-01" purity="4.9973493814468384e-01" nType="0">
        <Node pos="l" depth="1" NCoef="0" IVar="0" Cut="6.4506167173385620e-01" cType="1" res="-2.2589765489101410e-02" rms="3.9168226718902588e-01" purity="2.6012566685676575e-01" nType="0">
          <Node pos="l" depth="2" NCoef="0" IVar="1" Cut="7.8224921226501465e-01" cType="1" res="-5.7464456185698509e-03" rms="4.6691417694091797e-01" purity="4.0623345971107483e-01" nType="0">
            <Node pos="l" depth="3" NCoef="0" IVar="2" Cut="1.9787344360351562e+02" cType="1" res="-4.7237327089533210e-04" rms="4.7013601660728455e-01" purity="4.2027336359024048e-01" nType="0">
              <Node pos="l" depth="4" NCoef="0" IVar="0" Cut="4.3692892789840698e-01" cType="1" res="1.3805048540234566e-02" rms="4.8173588514328003e-01" purity="4.7867080569267273e-01" nType="0">
                <Node pos="l" depth="5" NCoef="0" IVar="4" Cut="5.1638308912515640e-02" cType="1" res="2.1738056093454361e-02" rms="4.8746845126152039e-01" purity="5.1743137836456299e-01" nType="0">
                  <Node pos="l" depth="6" NCoef="0" IVar="2" Cut="4.5087684631347656e+01" cType="1" res="9.8096271976828575e-03" rms="4.8835667967796326e-01" purity="5.1722925901412964e-01" nType="0">
                    <Node pos="l" depth="7" NCoef="0" IVar="-1" Cut="0.0000000000000000e+00" cType="1" res="3.4136557951569557e-03" rms="4.8689171671867371e-01" purity="5.6066018342971802e-01" nType="-99"/>
                    <Node pos="r" depth="7" NCoef="0" IVar="-1" Cut="0.0000000000000000e+00" cType="1" res="-7.4324064189568162e-04" rms="4.8832026124000549e-01" purity="4.9197110533714294e-01" nType="-99"/>
                  </Node>
                  <Node pos="r" depth="6" NCoef="0" IVar="2" Cut="9.8818870544433594e+01" cType="1" res="3.1014339998364449e-02" rms="4.8657450079917908e-01" purity="5.1758855581283569e-01" nType="0">
                    <Node pos="l" depth="7" NCoef="0" IVar="-1" Cut="0.0000000000000000e+00" cType="1" res="3.7860416341573000e-03" rms="4.8575752973556519e-01" purity="5.6031340360641479e-01" nType="-99"/>
                    <Node pos="r" depth="7" NCoef="0" IVar="-1" Cut="0.0000000000000000e+00" cType="1" res="1.9341660663485527e-03" rms="4.8681077361106873e-01" purity="4.9231213331222534e-01" nType="-99"/>
                  </Node>
                </Node>
                <Node pos="r" depth="5" NCoef="0" IVar="4" Cut="5.5889748036861420e-02" cType="1" res="-1.8319407477974892e-02" rms="4.5638105273246765e-01" purity="3.2171115279197693e-01" nType="0">
                  <Node pos="l" depth="6" NCoef="0" IVar="-1" Cut="0.0000000000000000e+00" cType="1" res="-4.0237274952232838e-03" rms="4.5242395997047424e-01" purity="3.0413529276847839e-01" nType="-99"/>
                  <Node pos="r" depth="6" NCoef="0" IVar="-1" Cut="0.0000000000000000e+00" cType="1" res="-5.2008828788530082e-05" rms="4.5926713943481445e-01" purity="3.3786720037460327e-01" nType="-99"/>
                </Node>
              </Node>
              <Node pos="r" depth="4" NCoef="0" IVar="3" Cut="6.0788416862487793e-01" cType="1" res="-1.7788201570510864e-02" rms="4.5507082343101501e-01" purity="3.4944832324981689e-01" nType="0">
                <Node pos="l" depth="5" NCoef="0" IVar="4" Cut="2.3362390697002411e-01" cType="1" res="-3.3009376376867294e-02" rms="4.2619690299034119e-01" purity="2.5051224231719971e-01" nType="0">
                  <Node pos="l" depth="6" NCoef="0" IVar="3" Cut="4.1807484626770020e-01" cType="1" res="-3.6963917315006256e-02" rms="4.2616316676139832e-01" purity="2.5207138061523438e-01" nType="0">
                    <Node pos="l" depth="7" NCoef="0" IVar="-1" Cut="0.0000000000000000e+00" cType="1" res="-8.8514648377895355e-03" rms="3.6217600107192993e-01" purity="1.5654474496841431e-01" nType="-99"/>
                    <Node pos="r" depth="7" NCoef="0" IVar="-1" Cut="0.0000000000000000e+00" cType="1" res="-3.3749116118997335e-03" rms="4.4694349169731140e-01" purity="2.8678017854690552e-01" nType="-99"/>
                  </Node>
                  <Node pos="r" depth="6" NCoef="0" IVar="-1" Cut="0.0000000000000000e+00" cType="1" res="-1.7969758482649922e-03" rms="4.2581695318222046e-01" purity="2.4273417890071869e-01" nType="-99"/>
                </Node>
                <Node pos="r" depth="5" NCoef="0" IVar="3" Cut="6.9136631488800049e-01" cType="1" res="3.4477394074201584e-03" rms="4.9174785614013672e-01" purity="4.8747974634170532e-01" nType="0">
                  <Node pos="l" depth="6" NCoef="0" IVar="0" Cut="2.4964372813701630e-01" cType="1" res="-6.3294265419244766e-03" rms="4.8841923475265503e-01" purity="4.3069508671760559e-01" nType="0">
                    <Node pos="l" depth="7" NCoef="0" IVar="-1" Cut="0.0000000000000000e+00" cType="1" res="2.2881849145051092e-04" rms="4.9695849418640137e-01" purity="4.8329833149909973e-01" nType="-99"/>
                    <Node pos="r" depth="7" NCoef="0" IVar="-1" Cut="0.0000000000000000e+00" cType="1" res="-1.8045954639092088e-03" rms="4.7674426436424255e-01" purity="3.6174646019935608e-01" nType="-99"/>
                  </Node>
                  <Node pos="r" depth="6" NCoef="0" IVar="1" Cut="2.7435494586825371e-02" cType="1" res="1.3827678747475147e-02" rms="4.9504593014717102e-01" purity="5.4776513576507568e-01" nType="0">
                    <Node pos="l" depth="7" NCoef="0" IVar="-1" Cut="0.0000000000000000e+00" cType="1" res="2.8340558055788279e-03" rms="4.9171349406242371e-01" purity="5.8292251825332642e-01" nType="-99"/>
                    <Node pos="r" depth="7" NCoef="0" IVar="-1" Cut="0.0000000000000000e+00" cType="1" res="-2.9107800219208002e-04" rms="4.9755725264549255e-01" purity="5.1469808816909790e-01" nType="-99"/>
                  </Node>
                </Node>
              </Node>
            </Node>
            <Node pos="r" depth="3" NCoef="0" IVar="0" Cut="2.2884805500507355e-01" cType="1" res="-6.1018981039524078e-02" rms="4.2781165242195129e-01" purity="2.5909405946731567e-01" nType="0">
              <Node pos="l" depth="4" NCoef="0" IVar="-1" Cut="0.0000000000000000e+00" cType="1" res="-2.6950254105031490e-03" rms="4.6273824572563171e-01" purity="3.3304309844970703e-01" nType="-99"/>
              <Node pos="r" depth="4" NCoef="0" IVar="-1" Cut="0.0000000000000000e+00" cType="1" res="-1.1386712081730366e-02" rms="3.9557811617851257e-01" purity="2.0010304450988770e-01" nType="-99"/>
            </Node>
          </Node>
          <Node pos="r" depth="2" NCoef="0" IVar="2" Cut="6.6882629394531250e+01" cType="1" res="-4.1720785200595856e-02" rms="2.8170835971832275e-01" purity="9.4173200428485870e-02" nType="0">
            <Node pos="l" depth="3" NCoef="0" IVar="1" Cut="2.3418420553207397e-01" cType="1" res="-2.2263249382376671e-02" rms="3.2913842797279358e-01" purity="1.4070507884025574e-01" nType="0">
              <Node pos="l" depth="4" NCoef="0" IVar="-1" Cut="0.0000000000000000e+00" cType="1" res="1.8400882836431265e-03" rms="3.9426255226135254e-01" purity="2.1967990696430206e-01" nType="-99"/>
              <Node pos="r" depth="4" NCoef="0" IVar="-1" Cut="0.0000000000000000e+00" cType="1" res="-9.7922440618276596e-03" rms="2.8554591536521912e-01" purity="9.7431376576423645e-02" nType="-99"/>
            </Node>
            <Node pos="r" depth="3" NCoef="0" IVar="4" Cut="6.2429290264844894e-02" cType="1" res="-4.4429920613765717e-02" rms="2.7434578537940979e-01" purity="8.7694413959980011e-02" nType="0">
              <Node pos="l" depth="4" NCoef="0" IVar="3" Cut="4.9102503061294556e-01" cType="1" res="-5.9347465634346008e-02" rms="2.4993367493152618e-01" purity="7.1579046547412872e-02" nType="0">
                <Node pos="l" depth="5" NCoef="0" IVar="5" Cut="6.0000000000000000e+00" cType="1" res="-5.1650751382112503e-02" rms="2.0223589241504669e-01" purity="4.4213417917490005e-02" nType="0">
                  <Node pos="l" depth="6" NCoef="0" IVar="-1" Cut="0.0000000000000000e+00" cType="1" res="-1.4283940196037292e-02" rms="2.2830577194690704e-01" purity="5.6087620556354523e-02" nType="-99"/>
                  <Node pos="r" depth="6" NCoef="0" IVar="-1" Cut="0.0000000000000000e+00" cType="1" res="-2.0995855331420898e-02" rms="1.5526577830314636e-01" purity="2.5064719840884209e-02" nType="-99"/>
                </Node>
                <Node pos="r" depth="5" NCoef="0" IVar="-1" Cut="0.0000000000000000e+00" cType="1" res="-1.1684799566864967e-02" rms="3.5361152887344360e-01" purity="1.5369375050067902e-01" nType="-99"/>
              </Node>
              <Node pos="r" depth="4" NCoef="0" IVar="2" Cut="3.8949099731445312e+02" cType="1" res="-4.0654309093952179e-02" rms="2.8006139397621155e-01" purity="9.1773197054862976e-02" nType="0">
                <Node pos="l" depth="5" NCoef="0" IVar="0" Cut="1.2471727132797241e+00" cType="1" res="-3.4687619656324387e-02" rms="2.8898644447326660e-01" purity="9.9793158471584320e-02" nType="0">
                  <Node pos="l" depth="6" NCoef="0" IVar="4" Cut="9.1876976191997528e-02" cType="1" res="-2.2341633215546608e-02" rms="3.6038383841514587e-01" purity="1.6364651918411255e-01" nType="0">
                    <Node pos="l" depth="7" NCoef="0" IVar="-1" Cut="0.0000000000000000e+00" cType="1" res="-6.5438761375844479e-03" rms="3.4646174311637878e-01" purity="1.5064166486263275e-01" nType="-99"/>
                    <Node pos="r" depth="7" NCoef="0" IVar="-1" Cut="0.0000000000000000e+00" cType="1" res="-2.0890198647975922e-03" rms="3.6982229351997375e-01" purity="1.7310483753681183e-01" nType="-99"/>
                  </Node>
                  <Node pos="r" depth="6" NCoef="0" IVar="4" Cut="1.0477562993764877e-01" cType="1" res="-4.3248202651739120e-02" rms="2.2624394297599792e-01" purity="5.5517885833978653e-02" nType="0">
                    <Node pos="l" depth="7" NCoef="0" IVar="-1" Cut="0.0000000000000000e+00" cType="1" res="-1.9191192463040352e-02" rms="1.9125196337699890e-01" purity="3.8640696555376053e-02" nType="-99"/>
                    <Node pos="r" depth="7" NCoef="0" IVar="-1" Cut="0.0000000000000000e+00" cType="1" res="-1.0330048389732838e-02" rms="2.5842517614364624e-01" purity="7.3811352252960205e-02" nType="-99"/>
                  </Node>
                </Node>
                <Node pos="r" depth="5" NCoef="0" IVar="4" Cut="1.2059708684682846e-01" cType="1" res="-5.2729096263647079e-02" rms="2.6065030694007874e-01" purity="7.5543187558650970e-02" nType="0">
                  <Node pos="l" depth="6" NCoef="0" IVar="-1" Cut="0.0000000000000000e+00" cType="1" res="-1.5701452270150185e-02" rms="2.3031112551689148e-01" purity="5.9278633445501328e-02" nType="-99"/>
                  <Node pos="r" depth="6" NCoef="0" IVar="4" Cut="1.6523575782775879e-01" cType="1" res="-4.8853185027837753e-02" rms="2.6940348744392395e-01" purity="8.0677695572376251e-02" nType="0">
                    <Node pos="l" depth="7" NCoef="0" IVar="-1" Cut="0.0000000000000000e+00" cType="1" res="-1.4473376795649529e-02" rms="2.4168437719345093e-01" purity="6.5200082957744598e-02" nType="-99"/>
                    <Node pos="r" depth="7" NCoef="0" IVar="-1" Cut="0.0000000000000000e+00" cType="1" res="-1.0791815817356110e-02" rms="2.8764450550079346e-01" purity="9.1821193695068359e-02" nType="-99"/>
                  </Node>
                </Node>
              </Node>
            </Node>
          </Node>
        </Node>
        <Node pos="r" depth="1" NCoef="0" IVar="2" Cut="2.4237283325195312e+02" cType="1" res="4.5275557786226273e-02" rms="4.3065723776817322e-01" purity="7.3668462038040161e-01" nType="0">
          <Node pos="l" depth="2" NCoef="0" IVar="1" Cut="9.5894706249237061e-01" cType="1" res="4.7523126006126404e-02" rms="4.2921242117881775e-01" purity="7.4142676591873169e-01" nType="0">
            <Node pos="l" depth="3" NCoef="0" IVar="3" Cut="9.7134542465209961e-01" cType="1" res="5.0248812884092331e-02" rms="4.2582595348358154e-01" purity="7.5100380182266235e-01" nType="0">
              <Node pos="l" depth="4" NCoef="0" IVar="4" Cut="3.1158201396465302e-02" cType="1" res="3.9856024086475372e-02" rms="4.5225563645362854e-01" purity="7.0104455947875977e-01" nType="0">
                <Node pos="l" depth="5" NCoef="0" IVar="3" Cut="8.3585089445114136e-01" cType="1" res="3.1889129430055618e-02" rms="4.5039889216423035e-01" purity="7.0440024137496948e-01" nType="0">
                  <Node pos="l" depth="6" NCoef="0" IVar="-1" Cut="0.0000000000000000e+00" cType="1" res="7.2190846549347043e-04" rms="4.8426112532615662e-01" purity="6.1198496818542480e-01" nType="-99"/>
                  <Node pos="r" depth="6" NCoef="0" IVar="3" Cut="8.9704161882400513e-01" cType="1" res="3.6837004125118256e-02" rms="4.4283831119537354e-01" purity="7.2370606660842896e-01" nType="0">
                    <Node pos="l" depth="7" NCoef="0" IVar="-1" Cut="0.0000000000000000e+00" cType="1" res="2.9059485532343388e-03" rms="4.5435348153114319e-01" purity="6.9961822032928467e-01" nType="-99"/>
                    <Node pos="r" depth="7" NCoef="0" IVar="-1" Cut="0.0000000000000000e+00" cType="1" res="4.1689616627991199e-03" rms="4.3270125985145569e-01" purity="7.4424719810485840e-01" nType="-99"/>
                  </Node>
                </Node>
                <Node pos="r" depth="5" NCoef="0" IVar="3" Cut="8.2961738109588623e-01" cType="1" res="4.7284934669733047e-02" rms="4.5385417342185974e-01" purity="6.9791543483734131e-01" nType="0">
                  <Node pos="l" depth="6" NCoef="0" IVar="4" Cut="5.0798449665307999e-02" cType="1" res="3.5116255283355713e-02" rms="4.7422906756401062e-01" purity="6.4749783277511597e-01" nType="0">
                    <Node pos="l" depth="7" NCoef="0" IVar="-1" Cut="0.0000000000000000e+00" cType="1" res="1.9245028961449862e-03" rms="4.7869271039962769e-01" purity="6.2903648614883423e-01" nType="-99"/>
                    <Node pos="r" depth="7" NCoef="0" IVar="-1" Cut="0.0000000000000000e+00" cType="1" res="3.7921536713838577e-03" rms="4.6986407041549683e-01" purity="6.6420060396194458e-01" nType="-99"/>
                  </Node>
                  <Node pos="r" depth="6" NCoef="0" IVar="2" Cut="8.2341369628906250e+01" cType="1" res="5.4100058972835541e-02" rms="4.4188669323921204e-01" purity="7.2615200281143188e-01" nType="0">
                    <Node pos="l" depth="7" NCoef="0" IVar="-1" Cut="0.0000000000000000e+00" cType="1" res="5.7955752126872540e-03" rms="4.3486157059669495e-01" purity="7.4163413047790527e-01" nType="-99"/>
                    <Node pos="r" depth="7" NCoef="0" IVar="-1" Cut="0.0000000000000000e+00" cType="1" res="4.4685881584882736e-03" rms="4.4582474231719971e-01" purity="7.1704286336898804e-01" nType="-99"/>
                  </Node>
                </Node>
              </Node>
              <Node pos="r" depth="4" NCoef="0" IVar="0" Cut="3.0660334229469299e-01" cType="1" res="5.7246156036853790e-02" rms="4.0691617131233215e-01" purity="7.8464084863662720e-01" nType="0">
                <Node pos="l" depth="5" NCoef="0" IVar="3" Cut="1.0011000633239746e+00" cType="1" res="5.8726795017719269e-02" rms="4.0277856588363647e-01" purity="7.9468262195587158e-01" nType="0">
                  <Node pos="l" depth="6" NCoef="0" IVar="1" Cut="8.0935508012771606e-02" cType="1" res="5.2890140563249588e-02" rms="4.0838107466697693e-01" purity="7.8673940896987915e-01" nType="0">
                    <Node pos="l" depth="7" NCoef="0" IVar="-1" Cut="0.0000000000000000e+00" cType="1" res="6.0162367299199104e-03" rms="3.9652886986732483e-01" purity="8.0413293838500977e-01" nType="-99"/>
                    <Node pos="r" depth="7" NCoef="0" IVar="-1" Cut="0.0000000000000000e+00" cType="1" res="4.1708857752382755e-03" rms="4.2620167136192322e-01" purity="7.5935238599777222e-01" nType="-99"/>
                  </Node>
                  <Node pos="r" depth="6" NCoef="0" IVar="3" Cut="1.0298944711685181e+00" cType="1" res="6.6819332540035248e-02" rms="3.9473640918731689e-01" purity="8.0569577217102051e-01" nType="0">
                    <Node pos="l" depth="7" NCoef="0" IVar="-1" Cut="0.0000000000000000e+00" cType="1" res="6.9172126241028309e-03" rms="3.9080396294593811e-01" purity="8.1096297502517700e-01" nType="-99"/>
                    <Node pos="r" depth="7" NCoef="0" IVar="-1" Cut="0.0000000000000000e+00" cType="1" res="4.8893159255385399e-03" rms="4.0784573554992676e-01" purity="7.8722745180130005e-01" nType="-99"/>
                  </Node>
                </Node>
                <Node pos="r" depth="5" NCoef="0" IVar="-1" Cut="0.0000000000000000e+00" cType="1" res="2.0839395001530647e-03" rms="4.8696085810661316e-01" purity="5.6694930791854858e-01" nType="-99"/>
              </Node>
            </Node>
            <Node pos="r" depth="3" NCoef="0" IVar="3" Cut="9.8866879940032959e-01" cType="1" res="-7.5120972469449043e-03" rms="4.8939728736877441e-01" purity="5.4805219173431396e-01" nType="0">
              <Node pos="l" depth="4" NCoef="0" IVar="-1" Cut="0.0000000000000000e+00" cType="1" res="-3.7475721910595894e-03" rms="4.9612382054328918e-01" purity="4.6941789984703064e-01" nType="-99"/>
              <Node pos="r" depth="4" NCoef="0" IVar="-1" Cut="0.0000000000000000e+00" cType="1" res="1.8006507307291031e-03" rms="4.8183080554008484e-01" purity="6.1246925592422485e-01" nType="-99"/>
            </Node>
          </Node>
          <Node pos="r" depth="2" NCoef="0" IVar="-1" Cut="0.0000000000000000e+00" cType="1" res="-4.8138559795916080e-03" rms="4.7794100642204285e-01" purity="5.3806060552597046e-01" nType="-99"/>
        </Node>
      </Node>
    </BinaryTree>
    <BinaryTree type="DecisionTree" boostWeight="1.0000000000000000e+00" itree="43">
      <Node pos="s" depth="0" NCoef="0" IVar="3" Cut="7.7976024150848389e-01" cType="1" res="1.0911070741713047e-02" rms="4.1303128004074097e-01" purity="4.9933430552482605e-01" nType="0">
        <Node pos="l" depth="1" NCoef="0" IVar="0" Cut="3.2215285301208496e-01" cType="1" res="-2.2567015141248703e-02" rms="3.9115414023399353e-01" purity="2.5871467590332031e-01" nType="0">
          <Node pos="l" depth="2" NCoef="0" IVar="3" Cut="5.0740146636962891e-01" cType="1" res="2.3913307813927531e-04" rms="4.7718468308448792e-01" purity="4.5860093832015991e-01" nType="0">
            <Node pos="l" depth="3" NCoef="0" IVar="4" Cut="1.8031576275825500e-01" cType="1" res="-2.8585672378540039e-02" rms="4.2212364077568054e-01" purity="2.4078388512134552e-01" nType="0">
              <Node pos="l" depth="4" NCoef="0" IVar="-1" Cut="0.0000000000000000e+00" cType="1" res="-5.2440101280808449e-03" rms="4.1326832771301270e-01" purity="2.2921492159366608e-01" nType="-99"/>
              <Node pos="r" depth="4" NCoef="0" IVar="-1" Cut="0.0000000000000000e+00" cType="1" res="-2.3526691365987062e-03" rms="4.2905554175376892e-01" purity="2.5037091970443726e-01" nType="-99"/>
            </Node>
            <Node pos="r" depth="3" NCoef="0" IVar="1" Cut="3.4979197382926941e-01" cType="1" res="7.0536462590098381e-03" rms="4.8904877901077271e-01" purity="5.1009535789489746e-01" nType="0">
              <Node pos="l" depth="4" NCoef="0" IVar="2" Cut="1.2251759338378906e+02" cType="1" res="1.5639545395970345e-02" rms="4.9039599299430847e-01" purity="5.3668779134750366e-01" nType="0">
                <Node pos="l" depth="5" NCoef="0" IVar="4" Cut="6.0131020843982697e-02" cType="1" res="2.8139838948845863e-02" rms="4.8855161666870117e-01" purity="5.8006691932678223e-01" nType="0">
                  <Node pos="l" depth="6" NCoef="0" IVar="2" Cut="4.8020751953125000e+01" cType="1" res="1.9453575834631920e-02" rms="4.8952421545982361e-01" purity="5.7215845584869385e-01" nType="0">
                    <Node pos="l" depth="7" NCoef="0" IVar="-1" Cut="0.0000000000000000e+00" cType="1" res="2.9640386346727610e-03" rms="4.8617765307426453e-01" purity="5.9452807903289795e-01" nType="-99"/>
                    <Node pos="r" depth="7" NCoef="0" IVar="-1" Cut="0.0000000000000000e+00" cType="1" res="4.9561174819245934e-04" rms="4.9196898937225342e-01" purity="5.5285733938217163e-01" nType="-99"/>
                  </Node>
                  <Node pos="r" depth="6" NCoef="0" IVar="-1" Cut="0.0000000000000000e+00" cType="1" res="3.3778520300984383e-03" rms="4.8656296730041504e-01" purity="5.9336107969284058e-01" nType="-99"/>
                </Node>
                <Node pos="r" depth="5" NCoef="0" IVar="3" Cut="6.1282902956008911e-01" cType="1" res="6.0861399397253990e-03" rms="4.9158665537834167e-01" purity="5.0353509187698364e-01" nType="0">
                  <Node pos="l" depth="6" NCoef="0" IVar="-1" Cut="0.0000000000000000e+00" cType="1" res="-8.0326647730544209e-04" rms="4.8471897840499878e-01" purity="3.8949832320213318e-01" nType="-99"/>
                  <Node pos="r" depth="6" NCoef="0" IVar="5" Cut="3.0000000000000000e+00" cType="1" res="9.6720457077026367e-03" rms="4.2325842380523682e-01" purity="5.4770755767822266e-01" nType="0">
                    <Node pos="l" depth="7" NCoef="0" IVar="-1" Cut="0.0000000000000000e+00" cType="1" res="-1.4964712318032980e-04" rms="4.9559879302978516e-01" purity="5.4308199882507324e-01" nType="-99"/>
                    <Node pos="r" depth="7" NCoef="0" IVar="-1" Cut="0.0000000000000000e+00" cType="1" res="1.5271320007741451e-03" rms="4.9342063069343567e-01" purity="5.4952293634414673e-01" nType="-99"/>
                  </Node>
                </Node>
              </Node>
              <Node pos="r" depth="4" NCoef="0" IVar="1" Cut="6.6076284646987915e-01" cType="1" res="-2.4778880178928375e-02" rms="4.8269024491310120e-01" purity="4.1150322556495667e-01" nType="0">
                <Node pos="l" depth="5" NCoef="0" IVar="-1" Cut="0.0000000000000000e+00" cType="1" res="-1.3562923995777965e-03" rms="4.8947709798812866e-01" purity="4.4928526878356934e-01" nType="-99"/>
                <Node pos="r" depth="5" NCoef="0" IVar="-1" Cut="0.0000000000000000e+00" cType="1" res="-3.5025235265493393e-03" rms="4.7393521666526794e-01" purity="3.6504259705543518e-01" nType="-99"/>
              </Node>
            </Node>
          </Node>
          <Node pos="r" depth="2" NCoef="0" IVar="0" Cut="9.4568336009979248e-01" cType="1" res="-3.3858489245176315e-02" rms="3.4004452824592590e-01" purity="1.5974971652030945e-01" nType="0">
            <Node pos="l" depth="3" NCoef="0" IVar="1" Cut="7.1228903532028198e-01" cType="1" res="-2.4081451818346977e-02" rms="4.2136552929878235e-01" purity="2.6413330435752869e-01" nType="0">
              <Node pos="l" depth="4" NCoef="0" IVar="2" Cut="6.6704849243164062e+01" cType="1" res="-1.7384501174092293e-02" rms="4.2945992946624756e-01" purity="2.7991020679473877e-01" nType="0">
                <Node pos="l" depth="5" NCoef="0" IVar="4" Cut="3.3448584377765656e-02" cType="1" res="1.8006123602390289e-02" rms="4.6979525685310364e-01" purity="3.8356021046638489e-01" nType="0">
                  <Node pos="l" depth="6" NCoef="0" IVar="-1" Cut="0.0000000000000000e+00" cType="1" res="-2.0381575450301170e-03" rms="4.5490330457687378e-01" purity="3.3945897221565247e-01" nType="-99"/>
                  <Node pos="r" depth="6" NCoef="0" IVar="-1" Cut="0.0000000000000000e+00" cType="1" res="4.5960992574691772e-03" rms="4.7949302196502686e-01" purity="4.1984122991561890e-01" nType="-99"/>
                </Node>
                <Node pos="r" depth="5" NCoef="0" IVar="3" Cut="6.3098508119583130e-01" cType="1" res="-2.4375772103667259e-02" rms="4.2068302631378174e-01" purity="2.5943455100059509e-01" nType="0">
                  <Node pos="l" depth="6" NCoef="0" IVar="4" Cut="1.1050732433795929e-01" cType="1" res="-3.0849980190396309e-02" rms="3.9701825380325317e-01" purity="2.0819185674190521e-01" nType="0">
                    <Node pos="l" depth="7" NCoef="0" IVar="-1" Cut="0.0000000000000000e+00" cType="1" res="-5.4926788434386253e-03" rms="4.0008226037025452e-01" purity="2.1339379251003265e-01" nType="-99"/>
                    <Node pos="r" depth="7" NCoef="0" IVar="-1" Cut="0.0000000000000000e+00" cType="1" res="-2.7439545374363661e-03" rms="3.9270681142807007e-01" purity="2.0155616104602814e-01" nType="-99"/>
                  </Node>
                  <Node pos="r" depth="6" NCoef="0" IVar="4" Cut="6.0768187046051025e-02" cType="1" res="-3.8794125430285931e-03" rms="4.8752722144126892e-01" purity="4.2166113853454590e-01" nType="0">
                    <Node pos="l" depth="7" NCoef="0" IVar="-1" Cut="0.0000000000000000e+00" cType="1" res="-3.6403862759470940e-03" rms="4.7806280851364136e-01" purity="3.8308697938919067e-01" nType="-99"/>
                    <Node pos="r" depth="7" NCoef="0" IVar="-1" Cut="0.0000000000000000e+00" cType="1" res="1.9946345128118992e-03" rms="4.9297446012496948e-01" purity="4.5079582929611206e-01" nType="-99"/>
                  </Node>
                </Node>
              </Node>
              <Node pos="r" depth="4" NCoef="0" IVar="2" Cut="1.7647523498535156e+02" cType="1" res="-6.7381374537944794e-02" rms="3.6174008250236511e-01" purity="1.6212610900402069e-01" nType="0">
                <Node pos="l" depth="5" NCoef="0" IVar="-1" Cut="0.0000000000000000e+00" cType="1" res="-1.1356456205248833e-02" rms="3.6734303832054138e-01" purity="1.6726569831371307e-01" nType="-99"/>
                <Node pos="r" depth="5" NCoef="0" IVar="-1" Cut="0.0000000000000000e+00" cType="1" res="-8.9866081252694130e-03" rms="3.5551917552947998e-01" purity="1.5680609643459320e-01" nType="-99"/>
              </Node>
            </Node>
            <Node pos="r" depth="3" NCoef="0" IVar="3" Cut="4.8425543308258057e-01" cType="1" res="-4.2467970401048660e-02" rms="2.4687558412551880e-01" purity="6.7831374704837799e-02" nType="0">
              <Node pos="l" depth="4" NCoef="0" IVar="5" Cut="4.0000000000000000e+00" cType="1" res="-4.0968474000692368e-02" rms="2.3338769376277924e-01" purity="5.9764195233583450e-02" nType="0">
                <Node pos="l" depth="5" NCoef="0" IVar="0" Cut="1.8177624940872192e+00" cType="1" res="-2.6561094447970390e-02" rms="2.8907456994056702e-01" purity="9.3261696398258209e-02" nType="0">
                  <Node pos="l" depth="6" NCoef="0" IVar="-1" Cut="0.0000000000000000e+00" cType="1" res="-1.0756425559520721e-02" rms="2.7894833683967590e-01" purity="8.6630478501319885e-02" nType="-99"/>
                  <Node pos="r" depth="6" NCoef="0" IVar="-1" Cut="0.0000000000000000e+00" cType="1" res="-4.6897307038307190e-04" rms="3.0261462926864624e-01" purity="1.0367788374423981e-01" nType="-99"/>
                </Node>
                <Node pos="r" depth="5" NCoef="0" IVar="3" Cut="3.7855795025825500e-01" cType="1" res="-4.4050943106412888e-02" rms="2.2069790959358215e-01" purity="5.2661988884210587e-02" nType="0">
                  <Node pos="l" depth="6" NCoef="0" IVar="4" Cut="1.5431402623653412e-01" cType="1" res="-4.6890407800674438e-02" rms="2.0324654877185822e-01" purity="4.4018268585205078e-02" nType="0">
                    <Node pos="l" depth="7" NCoef="0" IVar="-1" Cut="0.0000000000000000e+00" cType="1" res="-1.9409937784075737e-02" rms="1.7609584331512451e-01" purity="3.2341349869966507e-02" nType="-99"/>
                    <Node pos="r" depth="7" NCoef="0" IVar="-1" Cut="0.0000000000000000e+00" cType="1" res="-1.1176691390573978e-02" rms="2.6584559679031372e-01" purity="7.7398039400577545e-02" nType="-99"/>
                  </Node>
                  <Node pos="r" depth="6" NCoef="0" IVar="3" Cut="4.0924483537673950e-01" cType="1" res="-3.0629841610789299e-02" rms="2.8889253735542297e-01" purity="9.3517668545246124e-02" nType="0">
                    <Node pos="l" depth="7" NCoef="0" IVar="-1" Cut="0.0000000000000000e+00" cType="1" res="-9.8402416333556175e-03" rms="2.6401475071907043e-01" purity="7.6595872640609741e-02" nType="-99"/>
                    <Node pos="r" depth="7" NCoef="0" IVar="-1" Cut="0.0000000000000000e+00" cType="1" res="-5.9353918768465519e-03" rms="3.0728167295455933e-01" purity="1.0705818235874176e-01" nType="-99"/>
                  </Node>
                </Node>
              </Node>
              <Node pos="r" depth="4" NCoef="0" IVar="-1" Cut="0.0000000000000000e+00" cType="1" res="-9.2665143311023712e-03" rms="3.7540587782859802e-01" purity="1.7417556047439575e-01" nType="-99"/>
            </Node>
          </Node>
        </Node>
        <Node pos="r" depth="1" NCoef="0" IVar="0" Cut="6.1320698261260986e-01" cType="1" res="4.3960865586996078e-02" rms="4.3100383877754211e-01" purity="7.3687559366226196e-01" nType="0">
          <Node pos="l" depth="2" NCoef="0" IVar="3" Cut="9.7605121135711670e-01" cType="1" res="4.5905198901891708e-02" rms="4.2955473065376282e-01" purity="7.4446082115173340e-01" nType="0">
            <Node pos="l" depth="3" NCoef="0" IVar="0" Cut="1.7800588905811310e-01" cType="1" res="3.4359429031610489e-02" rms="4.5484372973442078e-01" purity="6.9383537769317627e-01" nType="0">
              <Node pos="l" depth="4" NCoef="0" IVar="1" Cut="-1.6865253448486328e-02" cType="1" res="3.8299296051263809e-02" rms="4.4979748129844666e-01" purity="7.0925098657608032e-01" nType="0">
                <Node pos="l" depth="5" NCoef="0" IVar="3" Cut="9.3171590566635132e-01" cType="1" res="4.8390232026576996e-02" rms="4.3498250842094421e-01" purity="7.4300247430801392e-01" nType="0">
                  <Node pos="l" depth="6" NCoef="0" IVar="2" Cut="1.3105364990234375e+02" cType="1" res="4.4992528855800629e-02" rms="4.4135010242462158e-01" purity="7.3198616504669189e-01" nType="0">
                    <Node pos="l" depth="7" NCoef="0" IVar="-1" Cut="0.0000000000000000e+00" cType="1" res="4.4823996722698212e-03" rms="4.3796202540397644e-01" purity="7.3898589611053467e-01" nType="-99"/>
                    <Node pos="r" depth="7" NCoef="0" IVar="-1" Cut="0.0000000000000000e+00" cType="1" res="3.3774334006011486e-03" rms="4.5039930939674377e-01" purity="7.1270287036895752e-01" nType="-99"/>
                  </Node>
                  <Node pos="r" depth="6" NCoef="0" IVar="-1" Cut="0.0000000000000000e+00" cType="1" res="6.3689332455396652e-03" rms="4.0105211734771729e-01" purity="7.9831540584564209e-01" nType="-99"/>
                </Node>
                <Node pos="r" depth="5" NCoef="0" IVar="4" Cut="1.2332875281572342e-02" cType="1" res="3.0205875635147095e-02" rms="4.6117657423019409e-01" purity="6.8218070268630981e-01" nType="0">
                  <Node pos="l" depth="6" NCoef="0" IVar="3" Cut="9.4442242383956909e-01" cType="1" res="5.7128495536744595e-03" rms="4.5537605881690979e-01" purity="6.8925213813781738e-01" nType="0">
                    <Node pos="l" depth="7" NCoef="0" IVar="-1" Cut="0.0000000000000000e+00" cType="1" res="-7.6072197407484055e-04" rms="4.6771860122680664e-01" purity="6.5408009290695190e-01" nType="-99"/>
                    <Node pos="r" depth="7" NCoef="0" IVar="-1" Cut="0.0000000000000000e+00" cType="1" res="1.7004871042445302e-03" rms="4.4354328513145447e-01" purity="7.2108334302902222e-01" nType="-99"/>
                  </Node>
                  <Node pos="r" depth="6" NCoef="0" IVar="2" Cut="9.0897125244140625e+01" cType="1" res="3.7492461502552032e-02" rms="4.6263799071311951e-01" purity="6.8007695674896240e-01" nType="0">
                    <Node pos="l" depth="7" NCoef="0" IVar="-1" Cut="0.0000000000000000e+00" cType="1" res="2.6496706996113062e-03" rms="4.6212154626846313e-01" purity="6.7958545684814453e-01" nType="-99"/>
                    <Node pos="r" depth="7" NCoef="0" IVar="-1" Cut="0.0000000000000000e+00" cType="1" res="4.0925885550677776e-03" rms="4.6301907300949097e-01" purity="6.8055176734924316e-01" nType="-99"/>
                  </Node>
                </Node>
              </Node>
              <Node pos="r" depth="4" NCoef="0" IVar="4" Cut="3.8027837872505188e-02" cType="1" res="8.6265429854393005e-03" rms="4.8573181033134460e-01" purity="5.9315001964569092e-01" nType="0">
                <Node pos="l" depth="5" NCoef="0" IVar="-1" Cut="0.0000000000000000e+00" cType="1" res="-9.1798522043973207e-04" rms="4.8629462718963623e-01" purity="5.7980132102966309e-01" nType="-99"/>
                <Node pos="r" depth="5" NCoef="0" IVar="-1" Cut="0.0000000000000000e+00" cType="1" res="2.7366403955966234e-03" rms="4.8419395089149475e-01" purity="6.0867226123809814e-01" nType="-99"/>
              </Node>
            </Node>
            <Node pos="r" depth="3" NCoef="0" IVar="3" Cut="1.0419054031372070e+00" cType="1" res="5.4486855864524841e-02" rms="4.0953737497329712e-01" purity="7.8208929300308228e-01" nType="0">
              <Node pos="l" depth="4" NCoef="0" IVar="3" Cut="9.9517142772674561e-01" cType="1" res="5.6692734360694885e-02" rms="4.0819510817527771e-01" purity="7.8466773033142090e-01" nType="0">
                <Node pos="l" depth="5" NCoef="0" IVar="1" Cut="2.3266676068305969e-01" cType="1" res="4.1102346032857895e-02" rms="4.1978231072425842e-01" purity="7.6650840044021606e-01" nType="0">
                  <Node pos="l" depth="6" NCoef="0" IVar="3" Cut="9.8530578613281250e-01" cType="1" res="4.9790829420089722e-02" rms="4.0741243958473206e-01" purity="7.8899300098419189e-01" nType="0">
                    <Node pos="l" depth="7" NCoef="0" IVar="-1" Cut="0.0000000000000000e+00" cType="1" res="6.2000076286494732e-03" rms="4.0038222074508667e-01" purity="7.9925477504730225e-01" nType="-99"/>
                    <Node pos="r" depth="7" NCoef="0" IVar="-1" Cut="0.0000000000000000e+00" cType="1" res="4.6328525058925152e-03" rms="4.0985730290412903e-01" purity="7.8520530462265015e-01" nType="-99"/>
                  </Node>
                  <Node pos="r" depth="6" NCoef="0" IVar="-1" Cut="0.0000000000000000e+00" cType="1" res="1.1433248873800039e-03" rms="4.5714372396469116e-01" purity="6.9215130805969238e-01" nType="-99"/>
                </Node>
                <Node pos="r" depth="5" NCoef="0" IVar="3" Cut="1.0253200531005859e+00" cType="1" res="6.2153816223144531e-02" rms="4.0391540527343750e-01" purity="7.9102873802185059e-01" nType="0">
                  <Node pos="l" depth="6" NCoef="0" IVar="3" Cut="1.0019805431365967e+00" cType="1" res="6.2830246984958649e-02" rms="4.0356346964836121e-01" purity="7.9157131910324097e-01" nType="0">
                    <Node pos="l" depth="7" NCoef="0" IVar="-1" Cut="0.0000000000000000e+00" cType="1" res="5.7942341081798077e-03" rms="4.0720719099044800e-01" purity="7.8590559959411621e-01" nType="-99"/>
                    <Node pos="r" depth="7" NCoef="0" IVar="-1" Cut="0.0000000000000000e+00" cType="1" res="6.4707431010901928e-03" rms="3.9822760224342346e-01" purity="7.9972732067108154e-01" nType="-99"/>
                  </Node>
                  <Node pos="r" depth="6" NCoef="0" IVar="-1" Cut="0.0000000000000000e+00" cType="1" res="5.2390028722584248e-03" rms="4.0787306427955627e-01" purity="7.8476881980895996e-01" nType="-99"/>
                </Node>
              </Node>
              <Node pos="r" depth="4" NCoef="0" IVar="-1" Cut="0.0000000000000000e+00" cType="1" res="1.9040053011849523e-03" rms="4.2850115895271301e-01" purity="7.4178361892700195e-01" nType="-99"/>
            </Node>
          </Node>
          <Node pos="r" depth="2" NCoef="0" IVar="-1" Cut="0.0000000000000000e+00" cType="1" res="-4.1324165649712086e-03" rms="4.8456528782844543e-01" purity="3.8923165202140808e-01" nType="-99"/>
        </Node>
      </Node>
    </BinaryTree>
    <BinaryTree type="DecisionTree" boostWeight="1.0000000000000000e+00" itree="44">
      <Node pos="s" depth="0" NCoef="0" IVar="3" Cut="7.1422064304351807e-01" cType="1" res="1.2010668404400349e-02" rms="4.1324815154075623e-01" purity="5.0064009428024292e-01" nType="0">
        <Node pos="l" depth="1" NCoef="0" IVar="3" Cut="4.8851776123046875e-01" cType="1" res="-2.3300359025597572e-02" rms="3.7523272633552551e-01" purity="2.1426215767860413e-01" nType="0">
          <Node pos="l" depth="2" NCoef="0" IVar="5" Cut="3.0000000000000000e+00" cType="1" res="-3.4233883023262024e-02" rms="2.9073041677474976e-01" purity="1.0016126930713654e-01" nType="0">
            <Node pos="l" depth="3" NCoef="0" IVar="-1" Cut="0.0000000000000000e+00" cType="1" res="2.4128810036927462e-03" rms="3.6499589681625366e-01" purity="1.7317329347133636e-01" nType="-99"/>
            <Node pos="r" depth="3" NCoef="0" IVar="4" Cut="2.6935929059982300e-01" cType="1" res="-3.6734029650688171e-02" rms="2.8611335158348083e-01" purity="9.6215397119522095e-02" nType="0">
              <Node pos="l" depth="4" NCoef="0" IVar="3" Cut="3.3562445640563965e-01" cType="1" res="-3.8185782730579376e-02" rms="2.7966475486755371e-01" purity="9.1246508061885834e-02" nType="0">
                <Node pos="l" depth="5" NCoef="0" IVar="0" Cut="6.4506030082702637e-01" cType="1" res="-4.5979633927345276e-02" rms="2.2489380836486816e-01" purity="5.4945215582847595e-02" nType="0">
                  <Node pos="l" depth="6" NCoef="0" IVar="-1" Cut="0.0000000000000000e+00" cType="1" res="-1.2915363535284996e-02" rms="3.3673369884490967e-01" purity="1.3176879286766052e-01" nType="-99"/>
                  <Node pos="r" depth="6" NCoef="0" IVar="1" Cut="1.2063033580780029e+00" cType="1" res="-4.2282782495021820e-02" rms="2.0785534381866455e-01" purity="4.6088814735412598e-02" nType="0">
                    <Node pos="l" depth="7" NCoef="0" IVar="-1" Cut="0.0000000000000000e+00" cType="1" res="-1.6462292522192001e-02" rms="2.0425809919834137e-01" purity="4.4552661478519440e-02" nType="-99"/>
                    <Node pos="r" depth="7" NCoef="0" IVar="-1" Cut="0.0000000000000000e+00" cType="1" res="-1.1315857060253620e-02" rms="2.2275470197200775e-01" purity="5.2974987775087357e-02" nType="-99"/>
                  </Node>
                </Node>
                <Node pos="r" depth="5" NCoef="0" IVar="2" Cut="1.9532449340820312e+02" cType="1" res="-3.0149901285767555e-02" rms="3.2646366953849792e-01" purity="1.2867513298988342e-01" nType="0">
                  <Node pos="l" depth="6" NCoef="0" IVar="4" Cut="1.1063107103109360e-01" cType="1" res="-1.9878800958395004e-02" rms="3.2733219861984253e-01" purity="1.3085585832595825e-01" nType="0">
                    <Node pos="l" depth="7" NCoef="0" IVar="-1" Cut="0.0000000000000000e+00" cType="1" res="-7.5559020042419434e-03" rms="2.9775813221931458e-01" purity="1.0326534509658813e-01" nType="-99"/>
                    <Node pos="r" depth="7" NCoef="0" IVar="-1" Cut="0.0000000000000000e+00" cType="1" res="3.8958701770752668e-03" rms="4.1558516025543213e-01" purity="2.3260509967803955e-01" nType="-99"/>
                  </Node>
                  <Node pos="r" depth="6" NCoef="0" IVar="5" Cut="4.0000000000000000e+00" cType="1" res="-3.7786893546581268e-02" rms="3.2538259029388428e-01" purity="1.2695561349391937e-01" nType="0">
                    <Node pos="l" depth="7" NCoef="0" IVar="-1" Cut="0.0000000000000000e+00" cType="1" res="-1.2025881558656693e-02" rms="3.0511131882667542e-01" purity="1.0948248207569122e-01" nType="-99"/>
                    <Node pos="r" depth="7" NCoef="0" IVar="-1" Cut="0.0000000000000000e+00" cType="1" res="-6.4119528979063034e-03" rms="3.2974302768707275e-01" purity="1.3087184727191925e-01" nType="-99"/>
                  </Node>
                </Node>
              </Node>
              <Node pos="r" depth="4" NCoef="0" IVar="-1" Cut="0.0000000000000000e+00" cType="1" res="-1.5153761487454176e-03" rms="3.8851237297058105e-01" purity="1.9140575826168060e-01" nType="-99"/>
            </Node>
          </Node>
          <Node pos="r" depth="2" NCoef="0" IVar="5" Cut="3.0000000000000000e+00" cType="1" res="-8.4442347288131714e-03" rms="4.6233820915222168e-01" purity="3.6402261257171631e-01" nType="0">
            <Node pos="l" depth="3" NCoef="0" IVar="4" Cut="6.4156517386436462e-02" cType="1" res="-3.1179981306195259e-02" rms="4.5390185713768005e-01" purity="3.2850435376167297e-01" nType="0">
              <Node pos="l" depth="4" NCoef="0" IVar="-1" Cut="0.0000000000000000e+00" cType="1" res="-6.6709872335195541e-03" rms="4.2504516243934631e-01" purity="2.6374575495719910e-01" nType="-99"/>
              <Node pos="r" depth="4" NCoef="0" IVar="2" Cut="2.6360598754882812e+02" cType="1" res="-1.7031671479344368e-02" rms="4.6708089113235474e-01" purity="3.6102336645126343e-01" nType="0">
                <Node pos="l" depth="5" NCoef="0" IVar="-1" Cut="0.0000000000000000e+00" cType="1" res="-3.9033917710185051e-04" rms="4.7278290987014771e-01" purity="3.8480249047279358e-01" nType="-99"/>
                <Node pos="r" depth="5" NCoef="0" IVar="-1" Cut="0.0000000000000000e+00" cType="1" res="-3.6216080188751221e-03" rms="4.5882135629653931e-01" purity="3.2940173149108887e-01" nType="-99"/>
              </Node>
            </Node>
            <Node pos="r" depth="3" NCoef="0" IVar="3" Cut="6.8509393930435181e-01" cType="1" res="-3.1474891584366560e-03" rms="4.6492505073547363e-01" purity="3.7329781055450439e-01" nType="0">
              <Node pos="l" depth="4" NCoef="0" IVar="4" Cut="1.4118459820747375e-01" cType="1" res="-7.7799097634851933e-03" rms="4.6117585897445679e-01" purity="3.5105746984481812e-01" nType="0">
                <Node pos="l" depth="5" NCoef="0" IVar="1" Cut="-2.7789209038019180e-02" cType="1" res="-1.1498238891363144e-02" rms="4.5911115407943726e-01" purity="3.4678190946578979e-01" nType="0">
                  <Node pos="l" depth="6" NCoef="0" IVar="2" Cut="1.3320179748535156e+02" cType="1" res="1.0962331667542458e-02" rms="4.7803103923797607e-01" purity="4.1057395935058594e-01" nType="0">
                    <Node pos="l" depth="7" NCoef="0" IVar="-1" Cut="0.0000000000000000e+00" cType="1" res="3.4009299706667662e-03" rms="4.8613792657852173e-01" purity="4.6287471055984497e-01" nType="-99"/>
                    <Node pos="r" depth="7" NCoef="0" IVar="-1" Cut="0.0000000000000000e+00" cType="1" res="-9.6977932844310999e-04" rms="4.7076469659805298e-01" purity="3.7085402011871338e-01" nType="-99"/>
                  </Node>
                  <Node pos="r" depth="6" NCoef="0" IVar="2" Cut="2.3913076782226562e+02" cType="1" res="-2.2876095026731491e-02" rms="4.4879421591758728e-01" purity="3.1446674466133118e-01" nType="0">
                    <Node pos="l" depth="7" NCoef="0" IVar="-1" Cut="0.0000000000000000e+00" cType="1" res="-1.6370827797800303e-03" rms="4.5317202806472778e-01" purity="3.2790729403495789e-01" nType="-99"/>
                    <Node pos="r" depth="7" NCoef="0" IVar="-1" Cut="0.0000000000000000e+00" cType="1" res="-4.6257427893579006e-03" rms="4.3819835782051086e-01" purity="2.8396070003509521e-01" nType="-99"/>
                  </Node>
                </Node>
                <Node pos="r" depth="5" NCoef="0" IVar="-1" Cut="0.0000000000000000e+00" cType="1" res="2.7613725978881121e-03" rms="4.7919541597366333e-01" purity="3.9239585399627686e-01" nType="-99"/>
              </Node>
              <Node pos="r" depth="4" NCoef="0" IVar="-1" Cut="0.0000000000000000e+00" cType="1" res="2.5958712212741375e-03" rms="4.8965293169021606e-01" purity="5.3252404928207397e-01" nType="-99"/>
            </Node>
          </Node>
        </Node>
        <Node pos="r" depth="1" NCoef="0" IVar="4" Cut="9.0283580124378204e-02" cType="1" res="3.8587726652622223e-02" rms="4.3782377243041992e-01" purity="7.1618419885635376e-01" nType="0">
          <Node pos="l" depth="2" NCoef="0" IVar="3" Cut="8.3506441116333008e-01" cType="1" res="4.0572118014097214e-02" rms="4.3666434288024902e-01" purity="7.2073119878768921e-01" nType="0">
            <Node pos="l" depth="3" NCoef="0" IVar="1" Cut="6.1059898138046265e-01" cType="1" res="1.6407918184995651e-02" rms="4.8238125443458557e-01" purity="5.9467786550521851e-01" nType="0">
              <Node pos="l" depth="4" NCoef="0" IVar="4" Cut="4.0992651134729385e-02" cType="1" res="2.3325048387050629e-02" rms="4.8127588629722595e-01" purity="6.1530393362045288e-01" nType="0">
                <Node pos="l" depth="5" NCoef="0" IVar="2" Cut="7.7566596984863281e+01" cType="1" res="7.5484924018383026e-03" rms="4.8508602380752563e-01" purity="5.9724938869476318e-01" nType="0">
                  <Node pos="l" depth="6" NCoef="0" IVar="4" Cut="2.0042108371853828e-02" cType="1" res="2.1233567968010902e-02" rms="4.8132765293121338e-01" purity="6.1690497398376465e-01" nType="0">
                    <Node pos="l" depth="7" NCoef="0" IVar="-1" Cut="0.0000000000000000e+00" cType="1" res="-4.7312726383097470e-04" rms="4.8631867766380310e-01" purity="5.8836823701858521e-01" nType="-99"/>
                    <Node pos="r" depth="7" NCoef="0" IVar="-1" Cut="0.0000000000000000e+00" cType="1" res="3.1712285708636045e-03" rms="4.7746562957763672e-01" purity="6.3458216190338135e-01" nType="-99"/>
                  </Node>
                  <Node pos="r" depth="6" NCoef="0" IVar="-1" Cut="0.0000000000000000e+00" cType="1" res="-2.1841297857463360e-03" rms="4.9211198091506958e-01" purity="5.5254828929901123e-01" nType="-99"/>
                </Node>
                <Node pos="r" depth="5" NCoef="0" IVar="2" Cut="1.8249458312988281e+02" cType="1" res="3.2881267368793488e-02" rms="4.7870042920112610e-01" purity="6.2624001502990723e-01" nType="0">
                  <Node pos="l" depth="6" NCoef="0" IVar="1" Cut="4.3808750808238983e-02" cType="1" res="4.2297601699829102e-02" rms="4.7417801618576050e-01" purity="6.4461177587509155e-01" nType="0">
                    <Node pos="l" depth="7" NCoef="0" IVar="-1" Cut="0.0000000000000000e+00" cType="1" res="4.5370808802545071e-03" rms="4.6649873256683350e-01" purity="6.7031067609786987e-01" nType="-99"/>
                    <Node pos="r" depth="7" NCoef="0" IVar="-1" Cut="0.0000000000000000e+00" cType="1" res="2.0173597149550915e-03" rms="4.8432838916778564e-01" purity="6.0812902450561523e-01" nType="-99"/>
                  </Node>
                  <Node pos="r" depth="6" NCoef="0" IVar="3" Cut="7.7268064022064209e-01" cType="1" res="1.5705941244959831e-02" rms="4.8637181520462036e-01" purity="5.9272992610931396e-01" nType="0">
                    <Node pos="l" depth="7" NCoef="0" IVar="-1" Cut="0.0000000000000000e+00" cType="1" res="4.1637773392722011e-04" rms="4.9493879079818726e-01" purity="5.4783254861831665e-01" nType="-99"/>
                    <Node pos="r" depth="7" NCoef="0" IVar="-1" Cut="0.0000000000000000e+00" cType="1" res="2.3632857482880354e-03" rms="4.7838866710662842e-01" purity="6.3275361061096191e-01" nType="-99"/>
                  </Node>
                </Node>
              </Node>
              <Node pos="r" depth="4" NCoef="0" IVar="-1" Cut="0.0000000000000000e+00" cType="1" res="-3.4643518738448620e-03" rms="4.8764342069625854e-01" purity="4.2733970284461975e-01" nType="-99"/>
            </Node>
            <Node pos="r" depth="3" NCoef="0" IVar="1" Cut="9.6058297157287598e-01" cType="1" res="4.7471873462200165e-02" rms="4.2245042324066162e-01" purity="7.5672394037246704e-01" nType="0">
              <Node pos="l" depth="4" NCoef="0" IVar="3" Cut="9.0783542394638062e-01" cType="1" res="4.9096263945102692e-02" rms="4.1897168755531311e-01" purity="7.6512092351913452e-01" nType="0">
                <Node pos="l" depth="5" NCoef="0" IVar="1" Cut="1.4223167300224304e-01" cType="1" res="3.7500958889722824e-02" rms="4.4866418838500977e-01" purity="7.1242630481719971e-01" nType="0">
                  <Node pos="l" depth="6" NCoef="0" IVar="4" Cut="3.7554468959569931e-02" cType="1" res="4.3982531875371933e-02" rms="4.3915995955467224e-01" purity="7.3543417453765869e-01" nType="0">
                    <Node pos="l" depth="7" NCoef="0" IVar="-1" Cut="0.0000000000000000e+00" cType="1" res="3.5347908269613981e-03" rms="4.4221916794776917e-01" purity="7.2886526584625244e-01" nType="-99"/>
                    <Node pos="r" depth="7" NCoef="0" IVar="-1" Cut="0.0000000000000000e+00" cType="1" res="5.1918122917413712e-03" rms="4.3453225493431091e-01" purity="7.4470633268356323e-01" nType="-99"/>
                  </Node>
                  <Node pos="r" depth="6" NCoef="0" IVar="2" Cut="9.6588378906250000e+01" cType="1" res="2.3434709757566452e-02" rms="4.6831911802291870e-01" purity="6.6249471902847290e-01" nType="0">
                    <Node pos="l" depth="7" NCoef="0" IVar="-1" Cut="0.0000000000000000e+00" cType="1" res="2.7765557169914246e-03" rms="4.6638041734695435e-01" purity="6.6922158002853394e-01" nType="-99"/>
                    <Node pos="r" depth="7" NCoef="0" IVar="-1" Cut="0.0000000000000000e+00" cType="1" res="1.3023343635722995e-03" rms="4.7051066160202026e-01" purity="6.5424484014511108e-01" nType="-99"/>
                  </Node>
                </Node>
                <Node pos="r" depth="5" NCoef="0" IVar="1" Cut="-2.5092068314552307e-01" cType="1" res="5.2692998200654984e-02" rms="4.0925720334053040e-01" purity="7.8146618604660034e-01" nType="0">
                  <Node pos="l" depth="6" NCoef="0" IVar="-1" Cut="0.0000000000000000e+00" cType="1" res="3.1331127975136042e-03" rms="4.1900795698165894e-01" purity="7.6726055145263672e-01" nType="-99"/>
                  <Node pos="r" depth="6" NCoef="0" IVar="1" Cut="1.0080128163099289e-01" cType="1" res="5.3856220096349716e-02" rms="4.0860533714294434e-01" purity="7.8236389160156250e-01" nType="0">
                    <Node pos="l" depth="7" NCoef="0" IVar="-1" Cut="0.0000000000000000e+00" cType="1" res="6.2230103649199009e-03" rms="3.9614102244377136e-01" purity="8.0201524496078491e-01" nType="-99"/>
                    <Node pos="r" depth="7" NCoef="0" IVar="-1" Cut="0.0000000000000000e+00" cType="1" res="3.9521451108157635e-03" rms="4.2842063307762146e-01" purity="7.4940514564514160e-01" nType="-99"/>
                  </Node>
                </Node>
              </Node>
              <Node pos="r" depth="4" NCoef="0" IVar="-1" Cut="0.0000000000000000e+00" cType="1" res="1.2074899859726429e-03" rms="4.8656135797500610e-01" purity="5.8627021312713623e-01" nType="-99"/>
            </Node>
          </Node>
          <Node pos="r" depth="2" NCoef="0" IVar="-1" Cut="0.0000000000000000e+00" cType="1" res="-5.5601317435503006e-03" rms="4.8269322514533997e-01" purity="4.8400750756263733e-01" nType="-99"/>
        </Node>
      </Node>
    </BinaryTree>
    <BinaryTree type="DecisionTree" boostWeight="1.0000000000000000e+00" itree="45">
      <Node pos="s" depth="0" NCoef="0" IVar="3" Cut="7.7976024150848389e-01" cType="1" res="1.0481964796781540e-02" rms="4.1326409578323364e-01" purity="4.9987363815307617e-01" nType="0">
        <Node pos="l" depth="1" NCoef="0" IVar="3" Cut="5.5660748481750488e-01" cType="1" res="-1.9604345783591270e-02" rms="3.9232575893402100e-01" purity="2.5981450080871582e-01" nType="0">
          <Node pos="l" depth="2" NCoef="0" IVar="4" Cut="1.2838450074195862e-01" cType="1" res="-3.0492493882775307e-02" rms="3.1670898199081421e-01" purity="1.2558820843696594e-01" nType="0">
            <Node pos="l" depth="3" NCoef="0" IVar="2" Cut="9.6424552917480469e+01" cType="1" res="-3.7370018661022186e-02" rms="2.8874164819717407e-01" purity="1.0148943960666656e-01" nType="0">
              <Node pos="l" depth="4" NCoef="0" IVar="4" Cut="4.9855258315801620e-02" cType="1" res="-2.3516172543168068e-02" rms="3.1665909290313721e-01" purity="1.2642611563205719e-01" nType="0">
                <Node pos="l" depth="5" NCoef="0" IVar="2" Cut="4.3658660888671875e+01" cType="1" res="-3.9493847638368607e-02" rms="2.9131135344505310e-01" purity="1.0167232900857925e-01" nType="0">
                  <Node pos="l" depth="6" NCoef="0" IVar="-1" Cut="0.0000000000000000e+00" cType="1" res="-5.9910472482442856e-03" rms="3.1287160515785217e-01" purity="1.2188018113374710e-01" nType="-99"/>
                  <Node pos="r" depth="6" NCoef="0" IVar="-1" Cut="0.0000000000000000e+00" cType="1" res="-1.1959965340793133e-02" rms="2.7194386720657349e-01" purity="8.5104517638683319e-02" nType="-99"/>
                </Node>
                <Node pos="r" depth="5" NCoef="0" IVar="3" Cut="3.9973890781402588e-01" cType="1" res="-3.4875120036303997e-03" rms="3.4477493166923523e-01" purity="1.5745598077774048e-01" nType="0">
                  <Node pos="l" depth="6" NCoef="0" IVar="-1" Cut="0.0000000000000000e+00" cType="1" res="-9.2808483168482780e-03" rms="2.4942925572395325e-01" purity="6.8371489644050598e-02" nType="-99"/>
                  <Node pos="r" depth="6" NCoef="0" IVar="-1" Cut="0.0000000000000000e+00" cType="1" res="2.5401408784091473e-03" rms="4.1676518321037292e-01" purity="2.4514250457286835e-01" nType="-99"/>
                </Node>
              </Node>
              <Node pos="r" depth="4" NCoef="0" IVar="2" Cut="3.6877340698242188e+02" cType="1" res="-4.2740210890769958e-02" rms="2.7697843313217163e-01" purity="9.1823183000087738e-02" nType="0">
                <Node pos="l" depth="5" NCoef="0" IVar="4" Cut="9.2261269688606262e-02" cType="1" res="-3.9442274719476700e-02" rms="2.8040322661399841e-01" purity="9.4670467078685760e-02" nType="0">
                  <Node pos="l" depth="6" NCoef="0" IVar="4" Cut="5.5558271706104279e-02" cType="1" res="-4.5441161841154099e-02" rms="2.5869438052177429e-01" purity="7.7794305980205536e-02" nType="0">
                    <Node pos="l" depth="7" NCoef="0" IVar="-1" Cut="0.0000000000000000e+00" cType="1" res="-1.4724081382155418e-02" rms="2.3363690078258514e-01" purity="6.1275154352188110e-02" nType="-99"/>
                    <Node pos="r" depth="7" NCoef="0" IVar="-1" Cut="0.0000000000000000e+00" cType="1" res="-1.0462008416652679e-02" rms="2.6960474252700806e-01" purity="8.5599258542060852e-02" nType="-99"/>
                  </Node>
                  <Node pos="r" depth="6" NCoef="0" IVar="3" Cut="3.4820631146430969e-01" cType="1" res="-2.8313914313912392e-02" rms="3.1645795702934265e-01" purity="1.2597694993019104e-01" nType="0">
                    <Node pos="l" depth="7" NCoef="0" IVar="-1" Cut="0.0000000000000000e+00" cType="1" res="-1.9044701009988785e-02" rms="1.8560937047004700e-01" purity="3.5995375365018845e-02" nType="-99"/>
                    <Node pos="r" depth="7" NCoef="0" IVar="-1" Cut="0.0000000000000000e+00" cType="1" res="-2.6188152842223644e-03" rms="3.7941572070121765e-01" purity="1.8651127815246582e-01" nType="-99"/>
                  </Node>
                </Node>
                <Node pos="r" depth="5" NCoef="0" IVar="4" Cut="1.0509493201971054e-01" cType="1" res="-5.7610444724559784e-02" rms="2.6046043634414673e-01" purity="7.8984946012496948e-02" nType="0">
                  <Node pos="l" depth="6" NCoef="0" IVar="-1" Cut="0.0000000000000000e+00" cType="1" res="-1.5326659195125103e-02" rms="2.3633144795894623e-01" purity="6.3339732587337494e-02" nType="-99"/>
                  <Node pos="r" depth="6" NCoef="0" IVar="-1" Cut="0.0000000000000000e+00" cType="1" res="-1.1474776081740856e-02" rms="2.7798774838447571e-01" purity="9.1459035873413086e-02" nType="-99"/>
                </Node>
              </Node>
            </Node>
            <Node pos="r" depth="3" NCoef="0" IVar="3" Cut="3.9820805191993713e-01" cType="1" res="-1.9716324284672737e-02" rms="3.5587334632873535e-01" purity="1.6334778070449829e-01" nType="0">
              <Node pos="l" depth="4" NCoef="0" IVar="4" Cut="2.7588048577308655e-01" cType="1" res="-2.8162539005279541e-02" rms="3.1731706857681274e-01" purity="1.2017593532800674e-01" nType="0">
                <Node pos="l" depth="5" NCoef="0" IVar="5" Cut="5.0000000000000000e+00" cType="1" res="-3.2930985093116760e-02" rms="3.0213841795921326e-01" purity="1.0738814622163773e-01" nType="0">
                  <Node pos="l" depth="6" NCoef="0" IVar="-1" Cut="0.0000000000000000e+00" cType="1" res="-4.0844837203621864e-03" rms="3.4334233403205872e-01" purity="1.4503192901611328e-01" nType="-99"/>
                  <Node pos="r" depth="6" NCoef="0" IVar="0" Cut="6.3833242654800415e-01" cType="1" res="-3.7882216274738312e-02" rms="2.8618842363357544e-01" purity="9.2464037239551544e-02" nType="0">
                    <Node pos="l" depth="7" NCoef="0" IVar="-1" Cut="0.0000000000000000e+00" cType="1" res="-9.8154414445161819e-03" rms="3.5316875576972961e-01" purity="1.4750060439109802e-01" nType="-99"/>
                    <Node pos="r" depth="7" NCoef="0" IVar="-1" Cut="0.0000000000000000e+00" cType="1" res="-9.4388118013739586e-03" rms="2.6299229264259338e-01" purity="7.6328046619892120e-02" nType="-99"/>
                  </Node>
                </Node>
                <Node pos="r" depth="5" NCoef="0" IVar="-1" Cut="0.0000000000000000e+00" cType="1" res="4.7439592890441418e-04" rms="3.9580336213111877e-01" purity="2.0598520338535309e-01" nType="-99"/>
              </Node>
              <Node pos="r" depth="4" NCoef="0" IVar="2" Cut="2.6173025512695312e+02" cType="1" res="2.3576372768729925e-04" rms="4.3288931250572205e-01" purity="2.6533055305480957e-01" nType="0">
                <Node pos="l" depth="5" NCoef="0" IVar="-1" Cut="0.0000000000000000e+00" cType="1" res="3.6034330260008574e-03" rms="4.5579603314399719e-01" purity="3.1708428263664246e-01" nType="-99"/>
                <Node pos="r" depth="5" NCoef="0" IVar="2" Cut="5.0880700683593750e+02" cType="1" res="-1.4272299595177174e-02" rms="4.2085614800453186e-01" purity="2.4088045954704285e-01" nType="0">
                  <Node pos="l" depth="6" NCoef="0" IVar="-1" Cut="0.0000000000000000e+00" cType="1" res="-4.5916842645965517e-04" rms="4.2600184679031372e-01" purity="2.5149163603782654e-01" nType="-99"/>
                  <Node pos="r" depth="6" NCoef="0" IVar="-1" Cut="0.0000000000000000e+00" cType="1" res="-3.2938302028924227e-03" rms="4.1552147269248962e-01" purity="2.3056258261203766e-01" nType="-99"/>
                </Node>
              </Node>
            </Node>
          </Node>
          <Node pos="r" depth="2" NCoef="0" IVar="5" Cut="3.0000000000000000e+00" cType="1" res="-2.4452907964587212e-03" rms="4.8020178079605103e-01" purity="4.5502978563308716e-01" nType="0">
            <Node pos="l" depth="3" NCoef="0" IVar="1" Cut="1.4113518595695496e-01" cType="1" res="-2.0806035026907921e-02" rms="4.7812515497207642e-01" purity="4.3480467796325684e-01" nType="0">
              <Node pos="l" depth="4" NCoef="0" IVar="3" Cut="7.4376022815704346e-01" cType="1" res="-2.9811281710863113e-03" rms="4.8767817020416260e-01" purity="4.8865598440170288e-01" nType="0">
                <Node pos="l" depth="5" NCoef="0" IVar="2" Cut="1.2454938507080078e+02" cType="1" res="-1.4550746418535709e-02" rms="4.8648029565811157e-01" purity="4.3865799903869629e-01" nType="0">
                  <Node pos="l" depth="6" NCoef="0" IVar="-1" Cut="0.0000000000000000e+00" cType="1" res="-3.5474909236654639e-04" rms="4.8883336782455444e-01" purity="4.6052178740501404e-01" nType="-99"/>
                  <Node pos="r" depth="6" NCoef="0" IVar="-1" Cut="0.0000000000000000e+00" cType="1" res="-2.1695983596146107e-03" rms="4.8438286781311035e-01" purity="4.2078736424446106e-01" nType="-99"/>
                </Node>
                <Node pos="r" depth="5" NCoef="0" IVar="-1" Cut="0.0000000000000000e+00" cType="1" res="1.6261723358184099e-03" rms="4.8922312259674072e-01" purity="5.8651965856552124e-01" nType="-99"/>
              </Node>
              <Node pos="r" depth="4" NCoef="0" IVar="1" Cut="4.5777502655982971e-01" cType="1" res="-4.3114971369504929e-02" rms="4.6493119001388550e-01" purity="3.6740645766258240e-01" nType="0">
                <Node pos="l" depth="5" NCoef="0" IVar="-1" Cut="0.0000000000000000e+00" cType="1" res="-1.2767353327944875e-03" rms="4.8339697718620300e-01" purity="4.3367153406143188e-01" nType="-99"/>
                <Node pos="r" depth="5" NCoef="0" IVar="-1" Cut="0.0000000000000000e+00" cType="1" res="-7.5185424648225307e-03" rms="4.4286817312240601e-01" purity="2.9844075441360474e-01" nType="-99"/>
              </Node>
            </Node>
            <Node pos="r" depth="3" NCoef="0" IVar="2" Cut="9.7393821716308594e+01" cType="1" res="4.4778357259929180e-03" rms="4.8234072327613831e-01" purity="4.6481969952583313e-01" nType="0">
              <Node pos="l" depth="4" NCoef="0" IVar="4" Cut="4.3140638619661331e-02" cType="1" res="2.2645194083452225e-02" rms="4.8448663949966431e-01" purity="5.0858861207962036e-01" nType="0">
                <Node pos="l" depth="5" NCoef="0" IVar="2" Cut="4.7350948333740234e+01" cType="1" res="-3.5045450204052031e-04" rms="4.8475652933120728e-01" purity="4.8057016730308533e-01" nType="0">
                  <Node pos="l" depth="6" NCoef="0" IVar="-1" Cut="0.0000000000000000e+00" cType="1" res="1.9028019160032272e-03" rms="4.8511335253715515e-01" purity="5.0796949863433838e-01" nType="-99"/>
                  <Node pos="r" depth="6" NCoef="0" IVar="-1" Cut="0.0000000000000000e+00" cType="1" res="-2.7757841162383556e-03" rms="4.8278924822807312e-01" purity="4.4373801350593567e-01" nType="-99"/>
                </Node>
                <Node pos="r" depth="5" NCoef="0" IVar="3" Cut="6.6455024480819702e-01" cType="1" res="4.9191936850547791e-02" rms="4.8281478881835938e-01" purity="5.4093378782272339e-01" nType="0">
                  <Node pos="l" depth="6" NCoef="0" IVar="-1" Cut="0.0000000000000000e+00" cType="1" res="3.0365716665983200e-03" rms="4.8808172345161438e-01" purity="4.5865502953529358e-01" nType="-99"/>
                  <Node pos="r" depth="6" NCoef="0" IVar="-1" Cut="0.0000000000000000e+00" cType="1" res="5.1256059668958187e-03" rms="4.7726565599441528e-01" purity="6.2042331695556641e-01" nType="-99"/>
                </Node>
              </Node>
              <Node pos="r" depth="4" NCoef="0" IVar="4" Cut="8.8990420103073120e-02" cType="1" res="-5.3562754765152931e-03" rms="4.8088893294334412e-01" purity="4.4112724065780640e-01" nType="0">
                <Node pos="l" depth="5" NCoef="0" IVar="2" Cut="2.3478627014160156e+02" cType="1" res="-1.7920220270752907e-02" rms="4.7790640592575073e-01" purity="4.3433940410614014e-01" nType="0">
                  <Node pos="l" depth="6" NCoef="0" IVar="4" Cut="5.4043769836425781e-02" cType="1" res="-6.4789908938109875e-03" rms="4.8070633411407471e-01" purity="4.5258301496505737e-01" nType="0">
                    <Node pos="l" depth="7" NCoef="0" IVar="-1" Cut="0.0000000000000000e+00" cType="1" res="-2.4427790194749832e-03" rms="4.7713655233383179e-01" purity="4.2217567563056946e-01" nType="-99"/>
                    <Node pos="r" depth="7" NCoef="0" IVar="-1" Cut="0.0000000000000000e+00" cType="1" res="8.3482870832085609e-04" rms="4.8321056365966797e-01" purity="4.7862952947616577e-01" nType="-99"/>
                  </Node>
                  <Node pos="r" depth="6" NCoef="0" IVar="-1" Cut="0.0000000000000000e+00" cType="1" res="-4.3718344531953335e-03" rms="4.7061467170715332e-01" purity="3.9372035861015320e-01" nType="-99"/>
                </Node>
                <Node pos="r" depth="5" NCoef="0" IVar="3" Cut="6.2129986286163330e-01" cType="1" res="1.3903158716857433e-02" rms="4.8479357361793518e-01" purity="4.5153242349624634e-01" nType="0">
                  <Node pos="l" depth="6" NCoef="0" IVar="-1" Cut="0.0000000000000000e+00" cType="1" res="-2.6243095635436475e-04" rms="4.7845503687858582e-01" purity="3.7772557139396667e-01" nType="-99"/>
                  <Node pos="r" depth="6" NCoef="0" IVar="-1" Cut="0.0000000000000000e+00" cType="1" res="2.6419397909194231e-03" rms="4.9023282527923584e-01" purity="5.2178817987442017e-01" nType="-99"/>
                </Node>
              </Node>
            </Node>
          </Node>
        </Node>
        <Node pos="r" depth="1" NCoef="0" IVar="0" Cut="5.6309032440185547e-01" cType="1" res="4.0081281214952469e-02" rms="4.3083086609840393e-01" purity="7.3604708909988403e-01" nType="0">
          <Node pos="l" depth="2" NCoef="0" IVar="3" Cut="9.7605204582214355e-01" cType="1" res="4.2091183364391327e-02" rms="4.2916956543922424e-01" purity="7.4447119235992432e-01" nType="0">
            <Node pos="l" depth="3" NCoef="0" IVar="1" Cut="8.2945275306701660e-01" cType="1" res="3.0195057392120361e-02" rms="4.5473790168762207e-01" purity="6.9260203838348389e-01" nType="0">
              <Node pos="l" depth="4" NCoef="0" IVar="1" Cut="-1.2182808481156826e-02" cType="1" res="3.3352371305227280e-02" rms="4.5184916257858276e-01" purity="7.0459568500518799e-01" nType="0">
                <Node pos="l" depth="5" NCoef="0" IVar="3" Cut="9.4438672065734863e-01" cType="1" res="4.1812211275100708e-02" rms="4.4115120172500610e-01" purity="7.2968053817749023e-01" nType="0">
                  <Node pos="l" depth="6" NCoef="0" IVar="4" Cut="2.3997260257601738e-02" cType="1" res="3.9406821131706238e-02" rms="4.4616097211837769e-01" purity="7.2055757045745850e-01" nType="0">
                    <Node pos="l" depth="7" NCoef="0" IVar="-1" Cut="0.0000000000000000e+00" cType="1" res="2.4798430968075991e-03" rms="4.4798019528388977e-01" purity="7.1683251857757568e-01" nType="-99"/>
                    <Node pos="r" depth="7" NCoef="0" IVar="-1" Cut="0.0000000000000000e+00" cType="1" res="4.1348207741975784e-03" rms="4.4534614682197571e-01" purity="7.2198390960693359e-01" nType="-99"/>
                  </Node>
                  <Node pos="r" depth="6" NCoef="0" IVar="-1" Cut="0.0000000000000000e+00" cType="1" res="5.7331463322043419e-03" rms="4.0367177128791809e-01" purity="7.9398912191390991e-01" nType="-99"/>
                </Node>
                <Node pos="r" depth="5" NCoef="0" IVar="0" Cut="1.8156511709094048e-02" cType="1" res="2.5662822648882866e-02" rms="4.6122330427169800e-01" purity="6.8179494142532349e-01" nType="0">
                  <Node pos="l" depth="6" NCoef="0" IVar="1" Cut="2.3215717077255249e-01" cType="1" res="3.0465157702565193e-02" rms="4.5619398355484009e-01" purity="6.9776833057403564e-01" nType="0">
                    <Node pos="l" depth="7" NCoef="0" IVar="-1" Cut="0.0000000000000000e+00" cType="1" res="3.5438088234513998e-03" rms="4.4457557797431946e-01" purity="7.2536027431488037e-01" nType="-99"/>
                    <Node pos="r" depth="7" NCoef="0" IVar="-1" Cut="0.0000000000000000e+00" cType="1" res="1.7438904615119100e-03" rms="4.7325828671455383e-01" purity="6.5546363592147827e-01" nType="-99"/>
                  </Node>
                  <Node pos="r" depth="6" NCoef="0" IVar="-1" Cut="0.0000000000000000e+00" cType="1" res="-3.1999405473470688e-04" rms="4.8961061239242554e-01" purity="5.8493125438690186e-01" nType="-99"/>
                </Node>
              </Node>
              <Node pos="r" depth="4" NCoef="0" IVar="-1" Cut="0.0000000000000000e+00" cType="1" res="-1.9044431392103434e-03" rms="4.9730005860328674e-01" purity="4.9371829628944397e-01" nType="-99"/>
            </Node>
            <Node pos="r" depth="3" NCoef="0" IVar="3" Cut="1.0419073104858398e+00" cType="1" res="5.0989665091037750e-02" rms="4.0877413749694824e-01" purity="7.8327012062072754e-01" nType="0">
              <Node pos="l" depth="4" NCoef="0" IVar="3" Cut="1.0015442371368408e+00" cType="1" res="5.3417101502418518e-02" rms="4.0719297528266907e-01" purity="7.8603619337081909e-01" nType="0">
                <Node pos="l" depth="5" NCoef="0" IVar="1" Cut="2.6834896206855774e-01" cType="1" res="4.6169918030500412e-02" rms="4.1367006301879883e-01" purity="7.7627670764923096e-01" nType="0">
                  <Node pos="l" depth="6" NCoef="0" IVar="3" Cut="9.9825537204742432e-01" cType="1" res="5.0360318273305893e-02" rms="4.0202862024307251e-01" purity="7.9603725671768188e-01" nType="0">
                    <Node pos="l" depth="7" NCoef="0" IVar="-1" Cut="0.0000000000000000e+00" cType="1" res="4.9021220766007900e-03" rms="4.0516567230224609e-01" purity="7.9172742366790771e-01" nType="-99"/>
                    <Node pos="r" depth="7" NCoef="0" IVar="-1" Cut="0.0000000000000000e+00" cType="1" res="5.6789801456034184e-03" rms="3.9528441429138184e-01" purity="8.0508863925933838e-01" nType="-99"/>
                  </Node>
                  <Node pos="r" depth="6" NCoef="0" IVar="3" Cut="9.9579453468322754e-01" cType="1" res="3.3759813755750656e-02" rms="4.4613856077194214e-01" purity="7.1775466203689575e-01" nType="0">
                    <Node pos="l" depth="7" NCoef="0" IVar="-1" Cut="0.0000000000000000e+00" cType="1" res="1.5907945344224572e-03" rms="4.5553445816040039e-01" purity="6.9541054964065552e-01" nType="-99"/>
                    <Node pos="r" depth="7" NCoef="0" IVar="-1" Cut="0.0000000000000000e+00" cType="1" res="3.9092083461582661e-03" rms="4.4022855162620544e-01" purity="7.3089617490768433e-01" nType="-99"/>
                  </Node>
                </Node>
                <Node pos="r" depth="5" NCoef="0" IVar="3" Cut="1.0275797843933105e+00" cType="1" res="6.6204138100147247e-02" rms="3.9518213272094727e-01" purity="8.0325591564178467e-01" nType="0">
                  <Node pos="l" depth="6" NCoef="0" IVar="3" Cut="1.0040637254714966e+00" cType="1" res="6.8331062793731689e-02" rms="3.9340350031852722e-01" purity="8.0596870183944702e-01" nType="0">
                    <Node pos="l" depth="7" NCoef="0" IVar="-1" Cut="0.0000000000000000e+00" cType="1" res="7.0279217325150967e-03" rms="3.9080825448036194e-01" purity="8.0918943881988525e-01" nType="-99"/>
                    <Node pos="r" depth="7" NCoef="0" IVar="-1" Cut="0.0000000000000000e+00" cType="1" res="6.4622890204191208e-03" rms="3.9456969499588013e-01" purity="8.0448293685913086e-01" nType="-99"/>
                  </Node>
                  <Node pos="r" depth="6" NCoef="0" IVar="-1" Cut="0.0000000000000000e+00" cType="1" res="5.0637559033930302e-03" rms="4.0598800778388977e-01" purity="7.8610700368881226e-01" nType="-99"/>
                </Node>
              </Node>
              <Node pos="r" depth="4" NCoef="0" IVar="-1" Cut="0.0000000000000000e+00" cType="1" res="1.1791014112532139e-03" rms="4.3133586645126343e-01" purity="7.3922908306121826e-01" nType="-99"/>
            </Node>
          </Node>
          <Node pos="r" depth="2" NCoef="0" IVar="-1" Cut="0.0000000000000000e+00" cType="1" res="-3.4719007089734077e-03" rms="4.8517975211143494e-01" purity="4.0472826361656189e-01" nType="-99"/>
        </Node>
      </Node>
    </BinaryTree>
    <BinaryTree type="DecisionTree" boostWeight="1.0000000000000000e+00" itree="46">
      <Node pos="s" depth="0" NCoef="0" IVar="3" Cut="7.8013855218887329e-01" cType="1" res="1.1461559683084488e-02" rms="4.1272202134132385e-01" purity="5.0060838460922241e-01" nType="0">
        <Node pos="l" depth="1" NCoef="0" IVar="3" Cut="5.0748562812805176e-01" cType="1" res="-1.7455330118536949e-02" rms="3.9239808917045593e-01" purity="2.6029974222183228e-01" nType="0">
          <Node pos="l" depth="2" NCoef="0" IVar="4" Cut="1.0270782560110092e-01" cType="1" res="-3.0419794842600822e-02" rms="2.9739469289779663e-01" purity="1.0656882822513580e-01" nType="0">
            <Node pos="l" depth="3" NCoef="0" IVar="2" Cut="5.9444839477539062e+01" cType="1" res="-4.0580969303846359e-02" rms="2.4708117544651031e-01" purity="6.8820573389530182e-02" nType="0">
              <Node pos="l" depth="4" NCoef="0" IVar="-1" Cut="0.0000000000000000e+00" cType="1" res="-6.4591178670525551e-03" rms="2.9189205169677734e-01" purity="1.0042393207550049e-01" nType="-99"/>
              <Node pos="r" depth="4" NCoef="0" IVar="0" Cut="9.6733784675598145e-01" cType="1" res="-4.3626531958580017e-02" rms="2.3705458641052246e-01" purity="6.2541902065277100e-02" nType="0">
                <Node pos="l" depth="5" NCoef="0" IVar="3" Cut="4.5950841903686523e-01" cType="1" res="-5.4181795567274094e-02" rms="3.2356238365173340e-01" purity="1.2316821515560150e-01" nType="0">
                  <Node pos="l" depth="6" NCoef="0" IVar="-1" Cut="0.0000000000000000e+00" cType="1" res="-1.3895258307456970e-02" rms="2.8331384062767029e-01" purity="9.0060107409954071e-02" nType="-99"/>
                  <Node pos="r" depth="6" NCoef="0" IVar="-1" Cut="0.0000000000000000e+00" cType="1" res="-6.9731217809021473e-03" rms="3.5874798893928528e-01" purity="1.5608030557632446e-01" nType="-99"/>
                </Node>
                <Node pos="r" depth="5" NCoef="0" IVar="5" Cut="5.0000000000000000e+00" cType="1" res="-4.0157236158847809e-02" rms="2.0274679362773895e-01" purity="4.4996272772550583e-02" nType="0">
                  <Node pos="l" depth="6" NCoef="0" IVar="0" Cut="1.8410727977752686e+00" cType="1" res="-3.5562377423048019e-02" rms="2.4250692129135132e-01" purity="6.3746474683284760e-02" nType="0">
                    <Node pos="l" depth="7" NCoef="0" IVar="-1" Cut="0.0000000000000000e+00" cType="1" res="-1.1165062896907330e-02" rms="2.5285327434539795e-01" purity="6.9884799420833588e-02" nType="-99"/>
                    <Node pos="r" depth="7" NCoef="0" IVar="-1" Cut="0.0000000000000000e+00" cType="1" res="-1.1332006193697453e-02" rms="2.2075758874416351e-01" purity="5.1768444478511810e-02" nType="-99"/>
                  </Node>
                  <Node pos="r" depth="6" NCoef="0" IVar="0" Cut="2.1313014030456543e+00" cType="1" res="-4.4030848890542984e-02" rms="1.7482121288776398e-01" purity="3.2048944383859634e-02" nType="0">
                    <Node pos="l" depth="7" NCoef="0" IVar="-1" Cut="0.0000000000000000e+00" cType="1" res="-1.3684631325304508e-02" rms="2.0699067413806915e-01" purity="4.5370955020189285e-02" nType="-99"/>
                    <Node pos="r" depth="7" NCoef="0" IVar="-1" Cut="0.0000000000000000e+00" cType="1" res="-2.4118712171912193e-02" rms="1.2460752576589584e-01" purity="1.5814341604709625e-02" nType="-99"/>
                  </Node>
                </Node>
              </Node>
            </Node>
            <Node pos="r" depth="3" NCoef="0" IVar="2" Cut="1.8859780883789062e+02" cType="1" res="-2.2061504423618317e-02" rms="3.3290052413940430e-01" purity="1.3761946558952332e-01" nType="0">
              <Node pos="l" depth="4" NCoef="0" IVar="3" Cut="3.3461946249008179e-01" cType="1" res="4.2789668077602983e-04" rms="3.5581427812576294e-01" purity="1.6414524614810944e-01" nType="0">
                <Node pos="l" depth="5" NCoef="0" IVar="-1" Cut="0.0000000000000000e+00" cType="1" res="-9.5615722239017487e-03" rms="2.6163494586944580e-01" purity="7.5479924678802490e-02" nType="-99"/>
                <Node pos="r" depth="5" NCoef="0" IVar="-1" Cut="0.0000000000000000e+00" cType="1" res="3.6149758379906416e-03" rms="4.1537216305732727e-01" purity="2.3599579930305481e-01" nType="-99"/>
              </Node>
              <Node pos="r" depth="4" NCoef="0" IVar="4" Cut="1.6924424469470978e-01" cType="1" res="-2.6735907420516014e-02" rms="3.2774335145950317e-01" purity="1.3210609555244446e-01" nType="0">
                <Node pos="l" depth="5" NCoef="0" IVar="1" Cut="1.5664039552211761e-01" cType="1" res="-3.6975812166929245e-02" rms="2.8938129544258118e-01" purity="9.9304772913455963e-02" nType="0">
                  <Node pos="l" depth="6" NCoef="0" IVar="3" Cut="3.5020703077316284e-01" cType="1" res="-2.7778329327702522e-02" rms="3.2197543978691101e-01" purity="1.2665109336376190e-01" nType="0">
                    <Node pos="l" depth="7" NCoef="0" IVar="-1" Cut="0.0000000000000000e+00" cType="1" res="-1.3558135367929935e-02" rms="2.2621649503707886e-01" purity="5.5589102208614349e-02" nType="-99"/>
                    <Node pos="r" depth="7" NCoef="0" IVar="-1" Cut="0.0000000000000000e+00" cType="1" res="-3.2763020135462284e-03" rms="3.7175086140632629e-01" purity="1.7362436652183533e-01" nType="-99"/>
                  </Node>
                  <Node pos="r" depth="6" NCoef="0" IVar="2" Cut="4.7176037597656250e+02" cType="1" res="-4.4124037027359009e-02" rms="2.6103222370147705e-01" purity="7.8051410615444183e-02" nType="0">
                    <Node pos="l" depth="7" NCoef="0" IVar="-1" Cut="0.0000000000000000e+00" cType="1" res="-1.0737673379480839e-02" rms="2.6507502794265747e-01" purity="8.1267721951007843e-02" nType="-99"/>
                    <Node pos="r" depth="7" NCoef="0" IVar="-1" Cut="0.0000000000000000e+00" cType="1" res="-1.3209313154220581e-02" rms="2.5325700640678406e-01" purity="7.2201654314994812e-02" nType="-99"/>
                  </Node>
                </Node>
                <Node pos="r" depth="5" NCoef="0" IVar="5" Cut="5.0000000000000000e+00" cType="1" res="-1.6554387286305428e-02" rms="3.6139091849327087e-01" purity="1.6479215025901794e-01" nType="0">
                  <Node pos="l" depth="6" NCoef="0" IVar="-1" Cut="0.0000000000000000e+00" cType="1" res="-2.1839214605279267e-04" rms="4.0638151764869690e-01" purity="2.1886299550533295e-01" nType="-99"/>
                  <Node pos="r" depth="6" NCoef="0" IVar="3" Cut="3.0065524578094482e-01" cType="1" res="-2.3583564907312393e-02" rms="3.3854702115058899e-01" purity="1.3956114649772644e-01" nType="0">
                    <Node pos="l" depth="7" NCoef="0" IVar="-1" Cut="0.0000000000000000e+00" cType="1" res="-7.1470914408564568e-03" rms="3.1473240256309509e-01" purity="1.1684217303991318e-01" nType="-99"/>
                    <Node pos="r" depth="7" NCoef="0" IVar="-1" Cut="0.0000000000000000e+00" cType="1" res="-6.8230635952204466e-04" rms="3.8816589117050171e-01" purity="1.9300097227096558e-01" nType="-99"/>
                  </Node>
                </Node>
              </Node>
            </Node>
          </Node>
          <Node pos="r" depth="2" NCoef="0" IVar="1" Cut="9.7956651449203491e-01" cType="1" res="-3.4457521978765726e-03" rms="4.7372341156005859e-01" purity="4.2642349004745483e-01" nType="0">
            <Node pos="l" depth="3" NCoef="0" IVar="1" Cut="-1.7053745687007904e-02" cType="1" res="8.1700162263587117e-04" rms="4.7684946656227112e-01" purity="4.3856436014175415e-01" nType="0">
              <Node pos="l" depth="4" NCoef="0" IVar="3" Cut="6.8339067697525024e-01" cType="1" res="1.5621737577021122e-02" rms="4.8304244875907898e-01" purity="4.8822933435440063e-01" nType="0">
                <Node pos="l" depth="5" NCoef="0" IVar="5" Cut="4.0000000000000000e+00" cType="1" res="5.2922135218977928e-03" rms="4.7919598221778870e-01" purity="4.0858516097068787e-01" nType="0">
                  <Node pos="l" depth="6" NCoef="0" IVar="2" Cut="1.5431942749023438e+02" cType="1" res="-6.6694421693682671e-03" rms="4.7815498709678650e-01" purity="3.9611101150512695e-01" nType="0">
                    <Node pos="l" depth="7" NCoef="0" IVar="-1" Cut="0.0000000000000000e+00" cType="1" res="1.2019425630569458e-03" rms="4.8465925455093384e-01" purity="4.3462669849395752e-01" nType="-99"/>
                    <Node pos="r" depth="7" NCoef="0" IVar="-1" Cut="0.0000000000000000e+00" cType="1" res="-2.4246152024716139e-03" rms="4.7177308797836304e-01" purity="3.6280548572540283e-01" nType="-99"/>
                  </Node>
                  <Node pos="r" depth="6" NCoef="0" IVar="-1" Cut="0.0000000000000000e+00" cType="1" res="2.1451218053698540e-03" rms="4.8133614659309387e-01" purity="4.2755016684532166e-01" nType="-99"/>
                </Node>
                <Node pos="r" depth="5" NCoef="0" IVar="4" Cut="6.2802113592624664e-02" cType="1" res="2.9728822410106659e-02" rms="4.8706448078155518e-01" purity="5.9123361110687256e-01" nType="0">
                  <Node pos="l" depth="6" NCoef="0" IVar="-1" Cut="0.0000000000000000e+00" cType="1" res="1.6399800078943372e-03" rms="4.8930817842483521e-01" purity="5.7630807161331177e-01" nType="-99"/>
                  <Node pos="r" depth="6" NCoef="0" IVar="-1" Cut="0.0000000000000000e+00" cType="1" res="3.4999572671949863e-03" rms="4.8423707485198975e-01" purity="6.0802364349365234e-01" nType="-99"/>
                </Node>
              </Node>
              <Node pos="r" depth="4" NCoef="0" IVar="4" Cut="6.1626955866813660e-02" cType="1" res="-8.8472804054617882e-03" rms="4.7251287102699280e-01" purity="4.0614384412765503e-01" nType="0">
                <Node pos="l" depth="5" NCoef="0" IVar="2" Cut="4.7726345062255859e+01" cType="1" res="-2.1198520436882973e-02" rms="4.6928551793098450e-01" purity="3.9963278174400330e-01" nType="0">
                  <Node pos="l" depth="6" NCoef="0" IVar="-1" Cut="0.0000000000000000e+00" cType="1" res="5.2155565936118364e-04" rms="4.8285990953445435e-01" purity="4.5022502541542053e-01" nType="-99"/>
                  <Node pos="r" depth="6" NCoef="0" IVar="0" Cut="2.2813530266284943e-01" cType="1" res="-3.2197963446378708e-02" rms="4.6317136287689209e-01" purity="3.7894836068153381e-01" nType="0">
                    <Node pos="l" depth="7" NCoef="0" IVar="-1" Cut="0.0000000000000000e+00" cType="1" res="5.3510782890953124e-05" rms="4.9331825971603394e-01" purity="5.3409355878829956e-01" nType="-99"/>
                    <Node pos="r" depth="7" NCoef="0" IVar="-1" Cut="0.0000000000000000e+00" cType="1" res="-5.0569255836308002e-03" rms="4.4889938831329346e-01" purity="3.1245768070220947e-01" nType="-99"/>
                  </Node>
                </Node>
                <Node pos="r" depth="5" NCoef="0" IVar="2" Cut="2.1551504516601562e+02" cType="1" res="-1.1046170402551070e-04" rms="4.7458848357200623e-01" purity="4.1074955463409424e-01" nType="0">
                  <Node pos="l" depth="6" NCoef="0" IVar="2" Cut="9.1597518920898438e+01" cType="1" res="1.9990481436252594e-02" rms="4.8136597871780396e-01" purity="4.5498520135879517e-01" nType="0">
                    <Node pos="l" depth="7" NCoef="0" IVar="-1" Cut="0.0000000000000000e+00" cType="1" res="4.3640113435685635e-03" rms="4.8182445764541626e-01" purity="5.0400769710540771e-01" nType="-99"/>
                    <Node pos="r" depth="7" NCoef="0" IVar="-1" Cut="0.0000000000000000e+00" cType="1" res="8.2815386122092605e-04" rms="4.8070284724235535e-01" purity="4.3788412213325500e-01" nType="-99"/>
                  </Node>
                  <Node pos="r" depth="6" NCoef="0" IVar="4" Cut="1.1310356855392456e-01" cType="1" res="-1.9397728145122528e-02" rms="4.6718069911003113e-01" purity="3.6830452084541321e-01" nType="0">
                    <Node pos="l" depth="7" NCoef="0" IVar="-1" Cut="0.0000000000000000e+00" cType="1" res="-2.7990757953375578e-03" rms="4.6360579133033752e-01" purity="3.6962759494781494e-01" nType="-99"/>
                    <Node pos="r" depth="7" NCoef="0" IVar="-1" Cut="0.0000000000000000e+00" cType="1" res="-5.1280972547829151e-04" rms="4.7354578971862793e-01" purity="3.6579832434654236e-01" nType="-99"/>
                  </Node>
                </Node>
              </Node>
            </Node>
            <Node pos="r" depth="3" NCoef="0" IVar="-1" Cut="0.0000000000000000e+00" cType="1" res="-7.7689248137176037e-03" rms="4.1938647627830505e-01" purity="2.4570459127426147e-01" nType="-99"/>
          </Node>
        </Node>
        <Node pos="r" depth="1" NCoef="0" IVar="1" Cut="1.0628899335861206e+00" cType="1" res="4.0043469518423080e-02" rms="4.2996472120285034e-01" purity="7.3813319206237793e-01" nType="0">
          <Node pos="l" depth="2" NCoef="0" IVar="2" Cut="1.2118641662597656e+02" cType="1" res="4.2426150292158127e-02" rms="4.2706683278083801e-01" purity="7.4676090478897095e-01" nType="0">
            <Node pos="l" depth="3" NCoef="0" IVar="3" Cut="9.9252671003341675e-01" cType="1" res="4.6660237014293671e-02" rms="4.2134043574333191e-01" purity="7.5958412885665894e-01" nType="0">
              <Node pos="l" depth="4" NCoef="0" IVar="1" Cut="1.8140655755996704e-01" cType="1" res="3.8405921310186386e-02" rms="4.4086378812789917e-01" purity="7.2475892305374146e-01" nType="0">
                <Node pos="l" depth="5" NCoef="0" IVar="4" Cut="3.1484287232160568e-02" cType="1" res="4.4937945902347565e-02" rms="4.3178889155387878e-01" purity="7.4588912725448608e-01" nType="0">
                  <Node pos="l" depth="6" NCoef="0" IVar="3" Cut="8.5552978515625000e-01" cType="1" res="4.0745869278907776e-02" rms="4.2793211340904236e-01" purity="7.5202071666717529e-01" nType="0">
                    <Node pos="l" depth="7" NCoef="0" IVar="-1" Cut="0.0000000000000000e+00" cType="1" res="1.4141835272312164e-03" rms="4.7281938791275024e-01" purity="6.5412431955337524e-01" nType="-99"/>
                    <Node pos="r" depth="7" NCoef="0" IVar="-1" Cut="0.0000000000000000e+00" cType="1" res="4.5911222696304321e-03" rms="4.1883108019828796e-01" purity="7.7034282684326172e-01" nType="-99"/>
                  </Node>
                  <Node pos="r" depth="6" NCoef="0" IVar="2" Cut="7.4257629394531250e+01" cType="1" res="5.5534157902002335e-02" rms="4.4120982289314270e-01" purity="7.3039036989212036e-01" nType="0">
                    <Node pos="l" depth="7" NCoef="0" IVar="-1" Cut="0.0000000000000000e+00" cType="1" res="5.6148613803088665e-03" rms="4.3564310669898987e-01" purity="7.4150782823562622e-01" nType="-99"/>
                    <Node pos="r" depth="7" NCoef="0" IVar="-1" Cut="0.0000000000000000e+00" cType="1" res="3.7862877361476421e-03" rms="4.4868794083595276e-01" purity="7.1442472934722900e-01" nType="-99"/>
                  </Node>
                </Node>
                <Node pos="r" depth="5" NCoef="0" IVar="4" Cut="3.1279340386390686e-02" cType="1" res="1.8020272254943848e-02" rms="4.6746882796287537e-01" purity="6.5881395339965820e-01" nType="0">
                  <Node pos="l" depth="6" NCoef="0" IVar="1" Cut="3.2358008623123169e-01" cType="1" res="8.0383522436022758e-03" rms="4.6589395403862000e-01" purity="6.6038602590560913e-01" nType="0">
                    <Node pos="l" depth="7" NCoef="0" IVar="-1" Cut="0.0000000000000000e+00" cType="1" res="2.5147122796624899e-03" rms="4.4761461019515991e-01" purity="7.0913159847259521e-01" nType="-99"/>
                    <Node pos="r" depth="7" NCoef="0" IVar="-1" Cut="0.0000000000000000e+00" cType="1" res="-5.6896341266110539e-04" rms="4.7912195324897766e-01" purity="6.2251734733581543e-01" nType="-99"/>
                  </Node>
                  <Node pos="r" depth="6" NCoef="0" IVar="-1" Cut="0.0000000000000000e+00" cType="1" res="3.5036536864936352e-03" rms="4.7043821215629578e-01" purity="6.5491616725921631e-01" nType="-99"/>
                </Node>
              </Node>
              <Node pos="r" depth="4" NCoef="0" IVar="3" Cut="1.0496189594268799e+00" cType="1" res="5.3752724081277847e-02" rms="4.0367698669433594e-01" purity="7.8950756788253784e-01" nType="0">
                <Node pos="l" depth="5" NCoef="0" IVar="3" Cut="1.0017347335815430e+00" cType="1" res="5.4471630603075027e-02" rms="4.0297648310661316e-01" purity="7.9058957099914551e-01" nType="0">
                  <Node pos="l" depth="6" NCoef="0" IVar="3" Cut="9.9520003795623779e-01" cType="1" res="4.8724930733442307e-02" rms="4.0798985958099365e-01" purity="7.8252750635147095e-01" nType="0">
                    <Node pos="l" depth="7" NCoef="0" IVar="-1" Cut="0.0000000000000000e+00" cType="1" res="4.1389786638319492e-03" rms="4.1554158926010132e-01" purity="7.7296262979507446e-01" nType="-99"/>
                    <Node pos="r" depth="7" NCoef="0" IVar="-1" Cut="0.0000000000000000e+00" cType="1" res="4.9938503652811050e-03" rms="4.0635007619857788e-01" purity="7.8455311059951782e-01" nType="-99"/>
                  </Node>
                  <Node pos="r" depth="6" NCoef="0" IVar="3" Cut="1.0048240423202515e+00" cType="1" res="6.1714898794889450e-02" rms="3.9644861221313477e-01" purity="8.0075103044509888e-01" nType="0">
                    <Node pos="l" depth="7" NCoef="0" IVar="-1" Cut="0.0000000000000000e+00" cType="1" res="7.0937555283308029e-03" rms="3.8771834969520569e-01" purity="8.1090378761291504e-01" nType="-99"/>
                    <Node pos="r" depth="7" NCoef="0" IVar="-1" Cut="0.0000000000000000e+00" cType="1" res="5.6221429258584976e-03" rms="3.9975956082344055e-01" purity="7.9674416780471802e-01" nType="-99"/>
                  </Node>
                </Node>
                <Node pos="r" depth="5" NCoef="0" IVar="-1" Cut="0.0000000000000000e+00" cType="1" res="3.8981062825769186e-03" rms="4.1590118408203125e-01" purity="7.6998430490493774e-01" nType="-99"/>
              </Node>
            </Node>
            <Node pos="r" depth="3" NCoef="0" IVar="2" Cut="2.3456741333007812e+02" cType="1" res="1.1021459475159645e-02" rms="4.6615630388259888e-01" purity="6.5164983272552490e-01" nType="0">
              <Node pos="l" depth="4" NCoef="0" IVar="3" Cut="8.1937009096145630e-01" cType="1" res="2.0588027313351631e-02" rms="4.6300590038299561e-01" purity="6.7141157388687134e-01" nType="0">
                <Node pos="l" depth="5" NCoef="0" IVar="-1" Cut="0.0000000000000000e+00" cType="1" res="2.3156708630267531e-04" rms="4.8417136073112488e-01" purity="6.0373419523239136e-01" nType="-99"/>
                <Node pos="r" depth="5" NCoef="0" IVar="2" Cut="1.7603694152832031e+02" cType="1" res="2.6826823130249977e-02" rms="4.5526066422462463e-01" purity="6.9491153955459595e-01" nType="0">
                  <Node pos="l" depth="6" NCoef="0" IVar="-1" Cut="0.0000000000000000e+00" cType="1" res="2.8155937325209379e-03" rms="4.5441958308219910e-01" purity="7.0006716251373291e-01" nType="-99"/>
                  <Node pos="r" depth="6" NCoef="0" IVar="-1" Cut="0.0000000000000000e+00" cType="1" res="2.1878993138670921e-03" rms="4.5688113570213318e-01" purity="6.8471956253051758e-01" nType="-99"/>
                </Node>
              </Node>
              <Node pos="r" depth="4" NCoef="0" IVar="-1" Cut="0.0000000000000000e+00" cType="1" res="-2.4917072150856256e-03" rms="4.7620582580566406e-01" purity="5.7640594244003296e-01" nType="-99"/>
            </Node>
          </Node>
          <Node pos="r" depth="2" NCoef="0" IVar="-1" Cut="0.0000000000000000e+00" cType="1" res="-1.3223638525232673e-03" rms="4.8940917849540710e-01" purity="5.3711116313934326e-01" nType="-99"/>
        </Node>
      </Node>
    </BinaryTree>
    <BinaryTree type="DecisionTree" boostWeight="1.0000000000000000e+00" itree="47">
      <Node pos="s" depth="0" NCoef="0" IVar="3" Cut="7.7941602468490601e-01" cType="1" res="1.0295790620148182e-02" rms="4.1246774792671204e-01" purity="4.9984219670295715e-01" nType="0">
        <Node pos="l" depth="1" NCoef="0" IVar="0" Cut="3.2252913713455200e-01" cType="1" res="-1.8043804913759232e-02" rms="3.9179453253746033e-01" purity="2.5875559449195862e-01" nType="0">
          <Node pos="l" depth="2" NCoef="0" IVar="3" Cut="5.0865876674652100e-01" cType="1" res="2.5873808772303164e-04" rms="4.7739282250404358e-01" purity="4.5623356103897095e-01" nType="0">
            <Node pos="l" depth="3" NCoef="0" IVar="4" Cut="1.9301772117614746e-01" cType="1" res="-2.3141548037528992e-02" rms="4.2232999205589294e-01" purity="2.4031345546245575e-01" nType="0">
              <Node pos="l" depth="4" NCoef="0" IVar="-1" Cut="0.0000000000000000e+00" cType="1" res="-6.1606676317751408e-03" rms="4.0631860494613647e-01" purity="2.1794988214969635e-01" nType="-99"/>
              <Node pos="r" depth="4" NCoef="0" IVar="-1" Cut="0.0000000000000000e+00" cType="1" res="4.0530328988097608e-04" rms="4.3790885806083679e-01" purity="2.6511934399604797e-01" nType="-99"/>
            </Node>
            <Node pos="r" depth="3" NCoef="0" IVar="4" Cut="3.8706336170434952e-02" cType="1" res="5.8841085992753506e-03" rms="4.8954084515571594e-01" purity="5.0814026594161987e-01" nType="0">
              <Node pos="l" depth="4" NCoef="0" IVar="4" Cut="2.7542859315872192e-02" cType="1" res="-1.4539327472448349e-02" rms="4.9212595820426941e-01" purity="5.1492607593536377e-01" nType="0">
                <Node pos="l" depth="5" NCoef="0" IVar="-1" Cut="0.0000000000000000e+00" cType="1" res="-2.0030857995152473e-03" rms="4.9201640486717224e-01" purity="5.1065075397491455e-01" nType="-99"/>
                <Node pos="r" depth="5" NCoef="0" IVar="-1" Cut="0.0000000000000000e+00" cType="1" res="-5.2564457291737199e-04" rms="4.9210876226425171e-01" purity="5.1982504129409790e-01" nType="-99"/>
              </Node>
              <Node pos="r" depth="4" NCoef="0" IVar="2" Cut="1.0136483001708984e+02" cType="1" res="1.0174809023737907e-02" rms="4.8888754844665527e-01" purity="5.0671464204788208e-01" nType="0">
                <Node pos="l" depth="5" NCoef="0" IVar="2" Cut="7.0516326904296875e+01" cType="1" res="3.7850286811590195e-02" rms="4.8571056127548218e-01" purity="5.7880663871765137e-01" nType="0">
                  <Node pos="l" depth="6" NCoef="0" IVar="-1" Cut="0.0000000000000000e+00" cType="1" res="3.5718942526727915e-03" rms="4.8384153842926025e-01" purity="5.9110933542251587e-01" nType="-99"/>
                  <Node pos="r" depth="6" NCoef="0" IVar="-1" Cut="0.0000000000000000e+00" cType="1" res="2.4414090439677238e-03" rms="4.8742571473121643e-01" purity="5.6656497716903687e-01" nType="-99"/>
                </Node>
                <Node pos="r" depth="5" NCoef="0" IVar="5" Cut="3.0000000000000000e+00" cType="1" res="4.3516289442777634e-03" rms="4.2414650321006775e-01" purity="4.8450157046318054e-01" nType="0">
                  <Node pos="l" depth="6" NCoef="0" IVar="-1" Cut="0.0000000000000000e+00" cType="1" res="-1.1539626866579056e-03" rms="4.9219071865081787e-01" purity="4.9585855007171631e-01" nType="-99"/>
                  <Node pos="r" depth="6" NCoef="0" IVar="0" Cut="1.0403778403997421e-02" cType="1" res="6.3240551389753819e-03" rms="4.8861652612686157e-01" purity="4.8091739416122437e-01" nType="0">
                    <Node pos="l" depth="7" NCoef="0" IVar="-1" Cut="0.0000000000000000e+00" cType="1" res="1.2898185523226857e-03" rms="4.9038475751876831e-01" purity="5.0717955827713013e-01" nType="-99"/>
                    <Node pos="r" depth="7" NCoef="0" IVar="-1" Cut="0.0000000000000000e+00" cType="1" res="-1.3091324362903833e-03" rms="4.8372107744216919e-01" purity="4.1691422462463379e-01" nType="-99"/>
                  </Node>
                </Node>
              </Node>
            </Node>
          </Node>
          <Node pos="r" depth="2" NCoef="0" IVar="1" Cut="1.2869656085968018e+00" cType="1" res="-2.7183193713426590e-02" rms="3.4073448181152344e-01" purity="1.6014480590820312e-01" nType="0">
            <Node pos="l" depth="3" NCoef="0" IVar="2" Cut="6.6164817810058594e+01" cType="1" res="-2.4689365178346634e-02" rms="3.4835118055343628e-01" purity="1.6944426298141479e-01" nType="0">
              <Node pos="l" depth="4" NCoef="0" IVar="4" Cut="5.0052572041749954e-02" cType="1" res="-2.2984745446592569e-03" rms="4.0551778674125671e-01" purity="2.6115730404853821e-01" nType="0">
                <Node pos="l" depth="5" NCoef="0" IVar="2" Cut="4.4995273590087891e+01" cType="1" res="-1.8499655649065971e-02" rms="3.9389124512672424e-01" purity="2.3662662506103516e-01" nType="0">
                  <Node pos="l" depth="6" NCoef="0" IVar="-1" Cut="0.0000000000000000e+00" cType="1" res="2.5111302966251969e-04" rms="4.0866383910179138e-01" purity="2.6150301098823547e-01" nType="-99"/>
                  <Node pos="r" depth="6" NCoef="0" IVar="-1" Cut="0.0000000000000000e+00" cType="1" res="-8.2336207851767540e-03" rms="3.6282184720039368e-01" purity="1.9169542193412781e-01" nType="-99"/>
                </Node>
                <Node pos="r" depth="5" NCoef="0" IVar="-1" Cut="0.0000000000000000e+00" cType="1" res="4.9288948066532612e-03" rms="4.3261107802391052e-01" purity="3.2814812660217285e-01" nType="-99"/>
              </Node>
              <Node pos="r" depth="4" NCoef="0" IVar="4" Cut="4.8802282661199570e-02" cType="1" res="-2.8107944875955582e-02" rms="3.3864513039588928e-01" purity="1.5544177591800690e-01" nType="0">
                <Node pos="l" depth="5" NCoef="0" IVar="5" Cut="4.0000000000000000e+00" cType="1" res="-5.2489057183265686e-02" rms="3.3563479781150818e-01" purity="1.5547902882099152e-01" nType="0">
                  <Node pos="l" depth="6" NCoef="0" IVar="-1" Cut="0.0000000000000000e+00" cType="1" res="-8.4979739040136337e-03" rms="4.0009835362434387e-01" purity="2.3362979292869568e-01" nType="-99"/>
                  <Node pos="r" depth="6" NCoef="0" IVar="-1" Cut="0.0000000000000000e+00" cType="1" res="-9.6849193796515465e-03" rms="2.7408260107040405e-01" purity="9.4153746962547302e-02" nType="-99"/>
                </Node>
                <Node pos="r" depth="5" NCoef="0" IVar="2" Cut="2.5668188476562500e+02" cType="1" res="-2.4673620238900185e-02" rms="3.3891761302947998e-01" purity="1.5543663501739502e-01" nType="0">
                  <Node pos="l" depth="6" NCoef="0" IVar="3" Cut="3.3760696649551392e-01" cType="1" res="-1.5730280429124832e-02" rms="3.6081621050834656e-01" purity="1.8702228367328644e-01" nType="0">
                    <Node pos="l" depth="7" NCoef="0" IVar="-1" Cut="0.0000000000000000e+00" cType="1" res="-1.4195643365383148e-02" rms="2.1039131283760071e-01" purity="4.8173826187849045e-02" nType="-99"/>
                    <Node pos="r" depth="7" NCoef="0" IVar="-1" Cut="0.0000000000000000e+00" cType="1" res="-1.0470272973179817e-03" rms="4.0662449598312378e-01" purity="2.4420827627182007e-01" nType="-99"/>
                  </Node>
                  <Node pos="r" depth="6" NCoef="0" IVar="4" Cut="9.3780703842639923e-02" cType="1" res="-3.3228289335966110e-02" rms="3.1631982326507568e-01" purity="1.2522369623184204e-01" nType="0">
                    <Node pos="l" depth="7" NCoef="0" IVar="-1" Cut="0.0000000000000000e+00" cType="1" res="-9.0367095544934273e-03" rms="3.2123938202857971e-01" purity="1.3931611180305481e-01" nType="-99"/>
                    <Node pos="r" depth="7" NCoef="0" IVar="-1" Cut="0.0000000000000000e+00" cType="1" res="-6.1497897841036320e-03" rms="3.1462895870208740e-01" purity="1.2093994766473770e-01" nType="-99"/>
                  </Node>
                </Node>
              </Node>
            </Node>
            <Node pos="r" depth="3" NCoef="0" IVar="3" Cut="3.8311916589736938e-01" cType="1" res="-5.1295198500156403e-02" rms="2.5438526272773743e-01" purity="7.0231340825557709e-02" nType="0">
              <Node pos="l" depth="4" NCoef="0" IVar="5" Cut="6.0000000000000000e+00" cType="1" res="-2.9780983924865723e-02" rms="2.1831472218036652e-01" purity="5.3036030381917953e-02" nType="0">
                <Node pos="l" depth="5" NCoef="0" IVar="-1" Cut="0.0000000000000000e+00" cType="1" res="-4.8956954851746559e-03" rms="2.6293960213661194e-01" purity="7.5055316090583801e-02" nType="-99"/>
                <Node pos="r" depth="5" NCoef="0" IVar="-1" Cut="0.0000000000000000e+00" cType="1" res="-1.9732974469661713e-02" rms="1.7150932550430298e-01" purity="3.1087381765246391e-02" nType="-99"/>
              </Node>
              <Node pos="r" depth="4" NCoef="0" IVar="-1" Cut="0.0000000000000000e+00" cType="1" res="-1.6908213496208191e-02" rms="3.0580171942710876e-01" purity="1.0600112378597260e-01" nType="-99"/>
            </Node>
          </Node>
        </Node>
        <Node pos="r" depth="1" NCoef="0" IVar="1" Cut="9.6058297157287598e-01" cType="1" res="3.8237787783145905e-02" rms="4.3005862832069397e-01" purity="7.3754638433456421e-01" nType="0">
          <Node pos="l" depth="2" NCoef="0" IVar="2" Cut="1.8170098876953125e+02" cType="1" res="4.0779385715723038e-02" rms="4.2679485678672791e-01" purity="7.4735236167907715e-01" nType="0">
            <Node pos="l" depth="3" NCoef="0" IVar="3" Cut="9.7562026977539062e-01" cType="1" res="4.3320611119270325e-02" rms="4.2397207021713257e-01" purity="7.5465393066406250e-01" nType="0">
              <Node pos="l" depth="4" NCoef="0" IVar="4" Cut="2.6008708402514458e-02" cType="1" res="3.5122405737638474e-02" rms="4.5016300678253174e-01" purity="7.0655572414398193e-01" nType="0">
                <Node pos="l" depth="5" NCoef="0" IVar="3" Cut="8.4908849000930786e-01" cType="1" res="2.6700541377067566e-02" rms="4.4740733504295349e-01" purity="7.1089798212051392e-01" nType="0">
                  <Node pos="l" depth="6" NCoef="0" IVar="-1" Cut="0.0000000000000000e+00" cType="1" res="4.6662951353937387e-04" rms="4.8108854889869690e-01" purity="6.2304186820983887e-01" nType="-99"/>
                  <Node pos="r" depth="6" NCoef="0" IVar="3" Cut="9.6337515115737915e-01" cType="1" res="3.1932100653648376e-02" rms="4.3864411115646362e-01" purity="7.3231929540634155e-01" nType="0">
                    <Node pos="l" depth="7" NCoef="0" IVar="-1" Cut="0.0000000000000000e+00" cType="1" res="2.7659554034471512e-03" rms="4.4364389777183533e-01" purity="7.2286367416381836e-01" nType="-99"/>
                    <Node pos="r" depth="7" NCoef="0" IVar="-1" Cut="0.0000000000000000e+00" cType="1" res="4.5163282193243504e-03" rms="4.1808339953422546e-01" purity="7.6940590143203735e-01" nType="-99"/>
                  </Node>
                </Node>
                <Node pos="r" depth="5" NCoef="0" IVar="2" Cut="7.8940933227539062e+01" cType="1" res="4.1628431528806686e-02" rms="4.5217293500900269e-01" purity="7.0320123434066772e-01" nType="0">
                  <Node pos="l" depth="6" NCoef="0" IVar="2" Cut="5.8004871368408203e+01" cType="1" res="5.0845935940742493e-02" rms="4.4727584719657898e-01" purity="7.1580213308334351e-01" nType="0">
                    <Node pos="l" depth="7" NCoef="0" IVar="-1" Cut="0.0000000000000000e+00" cType="1" res="3.7223973777145147e-03" rms="4.5132142305374146e-01" purity="7.0848232507705688e-01" nType="-99"/>
                    <Node pos="r" depth="7" NCoef="0" IVar="-1" Cut="0.0000000000000000e+00" cType="1" res="5.6698843836784363e-03" rms="4.3988230824470520e-01" purity="7.2848302125930786e-01" nType="-99"/>
                  </Node>
                  <Node pos="r" depth="6" NCoef="0" IVar="3" Cut="8.1094992160797119e-01" cType="1" res="3.4120358526706696e-02" rms="4.5598527789115906e-01" purity="6.9293731451034546e-01" nType="0">
                    <Node pos="l" depth="7" NCoef="0" IVar="-1" Cut="0.0000000000000000e+00" cType="1" res="1.3669228646904230e-03" rms="4.8098447918891907e-01" purity="6.2441176176071167e-01" nType="-99"/>
                    <Node pos="r" depth="7" NCoef="0" IVar="-1" Cut="0.0000000000000000e+00" cType="1" res="3.6387837026268244e-03" rms="4.4944620132446289e-01" purity="7.0994806289672852e-01" nType="-99"/>
                  </Node>
                </Node>
              </Node>
              <Node pos="r" depth="4" NCoef="0" IVar="0" Cut="2.6778465509414673e-01" cType="1" res="4.8687282949686050e-02" rms="4.0582323074340820e-01" purity="7.8613978624343872e-01" nType="0">
                <Node pos="l" depth="5" NCoef="0" IVar="1" Cut="8.8699251413345337e-02" cType="1" res="5.0195004791021347e-02" rms="4.0123274922370911e-01" purity="7.9684334993362427e-01" nType="0">
                  <Node pos="l" depth="6" NCoef="0" IVar="1" Cut="-1.7380808293819427e-01" cType="1" res="5.4819643497467041e-02" rms="3.9005371928215027e-01" purity="8.1256335973739624e-01" nType="0">
                    <Node pos="l" depth="7" NCoef="0" IVar="-1" Cut="0.0000000000000000e+00" cType="1" res="4.7126179561018944e-03" rms="3.9765083789825439e-01" purity="8.0273205041885376e-01" nType="-99"/>
                    <Node pos="r" depth="7" NCoef="0" IVar="-1" Cut="0.0000000000000000e+00" cType="1" res="6.0072406195104122e-03" rms="3.8783019781112671e-01" purity="8.1538105010986328e-01" nType="-99"/>
                  </Node>
                  <Node pos="r" depth="6" NCoef="0" IVar="3" Cut="9.9063342809677124e-01" cType="1" res="4.2474407702684402e-02" rms="4.1911819577217102e-01" purity="7.7059972286224365e-01" nType="0">
                    <Node pos="l" depth="7" NCoef="0" IVar="-1" Cut="0.0000000000000000e+00" cType="1" res="1.5618820907548070e-03" rms="4.3829238414764404e-01" purity="7.3451727628707886e-01" nType="-99"/>
                    <Node pos="r" depth="7" NCoef="0" IVar="-1" Cut="0.0000000000000000e+00" cType="1" res="4.4485861435532570e-03" rms="4.1632238030433655e-01" purity="7.7548891305923462e-01" nType="-99"/>
                  </Node>
                </Node>
                <Node pos="r" depth="5" NCoef="0" IVar="-1" Cut="0.0000000000000000e+00" cType="1" res="1.7352993600070477e-03" rms="4.8289334774017334e-01" purity="5.8583104610443115e-01" nType="-99"/>
              </Node>
            </Node>
            <Node pos="r" depth="3" NCoef="0" IVar="4" Cut="5.5064111948013306e-02" cType="1" res="-3.2197032123804092e-03" rms="4.7083556652069092e-01" purity="6.2093198299407959e-01" nType="0">
              <Node pos="l" depth="4" NCoef="0" IVar="-1" Cut="0.0000000000000000e+00" cType="1" res="1.7635258845984936e-03" rms="4.6358814835548401e-01" purity="6.6858744621276855e-01" nType="-99"/>
              <Node pos="r" depth="4" NCoef="0" IVar="-1" Cut="0.0000000000000000e+00" cType="1" res="-1.8056558910757303e-03" rms="4.7582441568374634e-01" purity="5.8355414867401123e-01" nType="-99"/>
            </Node>
          </Node>
          <Node pos="r" depth="2" NCoef="0" IVar="1" Cut="1.5421541929244995e+00" cType="1" res="-1.2248963117599487e-02" rms="4.8767292499542236e-01" purity="5.4275906085968018e-01" nType="0">
            <Node pos="l" depth="3" NCoef="0" IVar="-1" Cut="0.0000000000000000e+00" cType="1" res="-7.2962499689310789e-04" rms="4.8786368966102600e-01" purity="5.4997116327285767e-01" nType="-99"/>
            <Node pos="r" depth="3" NCoef="0" IVar="-1" Cut="0.0000000000000000e+00" cType="1" res="-1.3620697427541018e-03" rms="4.8745757341384888e-01" purity="5.3556233644485474e-01" nType="-99"/>
          </Node>
        </Node>
      </Node>
    </BinaryTree>
    <BinaryTree type="DecisionTree" boostWeight="1.0000000000000000e+00" itree="48">
      <Node pos="s" depth="0" NCoef="0" IVar="3" Cut="7.7976024150848389e-01" cType="1" res="1.1702203191816807e-02" rms="4.1221269965171814e-01" purity="5.0211507081985474e-01" nType="0">
        <Node pos="l" depth="1" NCoef="0" IVar="3" Cut="6.0619157552719116e-01" cType="1" res="-1.5845233574509621e-02" rms="3.9212030172348022e-01" purity="2.6056563854217529e-01" nType="0">
          <Node pos="l" depth="2" NCoef="0" IVar="4" Cut="1.4113855361938477e-01" cType="1" res="-2.4692155420780182e-02" rms="3.3672568202018738e-01" purity="1.4963504672050476e-01" nType="0">
            <Node pos="l" depth="3" NCoef="0" IVar="1" Cut="-1.4020439982414246e-01" cType="1" res="-3.0229708179831505e-02" rms="3.2231137156486511e-01" purity="1.3667947053909302e-01" nType="0">
              <Node pos="l" depth="4" NCoef="0" IVar="2" Cut="1.8478276062011719e+02" cType="1" res="-3.6574120167642832e-03" rms="3.7513631582260132e-01" purity="2.0704656839370728e-01" nType="0">
                <Node pos="l" depth="5" NCoef="0" IVar="-1" Cut="0.0000000000000000e+00" cType="1" res="3.9052795618772507e-03" rms="4.0755754709243774e-01" purity="2.6168292760848999e-01" nType="-99"/>
                <Node pos="r" depth="5" NCoef="0" IVar="-1" Cut="0.0000000000000000e+00" cType="1" res="-5.0943009555339813e-03" rms="3.4526407718658447e-01" purity="1.6369321942329407e-01" nType="-99"/>
              </Node>
              <Node pos="r" depth="4" NCoef="0" IVar="2" Cut="1.3354611206054688e+02" cType="1" res="-3.3569179475307465e-02" rms="3.1488814949989319e-01" purity="1.2783610820770264e-01" nType="0">
                <Node pos="l" depth="5" NCoef="0" IVar="1" Cut="5.0616699457168579e-01" cType="1" res="-2.5048563256859779e-02" rms="3.3347332477569580e-01" purity="1.4881387352943420e-01" nType="0">
                  <Node pos="l" depth="6" NCoef="0" IVar="3" Cut="4.3602663278579712e-01" cType="1" res="-1.4886601828038692e-02" rms="3.7636336684226990e-01" purity="1.9931662082672119e-01" nType="0">
                    <Node pos="l" depth="7" NCoef="0" IVar="-1" Cut="0.0000000000000000e+00" cType="1" res="-9.6812322735786438e-03" rms="2.5590825080871582e-01" purity="7.2688259184360504e-02" nType="-99"/>
                    <Node pos="r" depth="7" NCoef="0" IVar="-1" Cut="0.0000000000000000e+00" cType="1" res="-5.8415520470589399e-04" rms="4.3653279542922974e-01" purity="2.8106781840324402e-01" nType="-99"/>
                  </Node>
                  <Node pos="r" depth="6" NCoef="0" IVar="3" Cut="4.3873709440231323e-01" cType="1" res="-3.8923125714063644e-02" rms="2.6325494050979614e-01" purity="7.9860299825668335e-02" nType="0">
                    <Node pos="l" depth="7" NCoef="0" IVar="-1" Cut="0.0000000000000000e+00" cType="1" res="-1.3266543857753277e-02" rms="2.1738067269325256e-01" purity="5.1002338528633118e-02" nType="-99"/>
                    <Node pos="r" depth="7" NCoef="0" IVar="-1" Cut="0.0000000000000000e+00" cType="1" res="-8.1058321520686150e-03" rms="3.4834632277488708e-01" purity="1.4811642467975616e-01" nType="-99"/>
                  </Node>
                </Node>
                <Node pos="r" depth="5" NCoef="0" IVar="5" Cut="4.0000000000000000e+00" cType="1" res="-3.9277605712413788e-02" rms="3.0001023411750793e-01" purity="1.1339756101369858e-01" nType="0">
                  <Node pos="l" depth="6" NCoef="0" IVar="4" Cut="8.1389427185058594e-02" cType="1" res="-4.9375515431165695e-02" rms="3.3726835250854492e-01" purity="1.4232239127159119e-01" nType="0">
                    <Node pos="l" depth="7" NCoef="0" IVar="-1" Cut="0.0000000000000000e+00" cType="1" res="-1.2172342278063297e-02" rms="2.9609572887420654e-01" purity="1.0143590718507767e-01" nType="-99"/>
                    <Node pos="r" depth="7" NCoef="0" IVar="-1" Cut="0.0000000000000000e+00" cType="1" res="-7.1766660548746586e-03" rms="3.5846975445747375e-01" purity="1.6562870144844055e-01" nType="-99"/>
                  </Node>
                  <Node pos="r" depth="6" NCoef="0" IVar="2" Cut="3.5720925903320312e+02" cType="1" res="-3.5882554948329926e-02" rms="2.8726732730865479e-01" purity="1.0306569188833237e-01" nType="0">
                    <Node pos="l" depth="7" NCoef="0" IVar="-1" Cut="0.0000000000000000e+00" cType="1" res="-7.5673558749258518e-03" rms="2.8904214501380920e-01" purity="1.0563852638006210e-01" nType="-99"/>
                    <Node pos="r" depth="7" NCoef="0" IVar="-1" Cut="0.0000000000000000e+00" cType="1" res="-1.0217429138720036e-02" rms="2.8250822424888611e-01" purity="9.6583813428878784e-02" nType="-99"/>
                  </Node>
                </Node>
              </Node>
            </Node>
            <Node pos="r" depth="3" NCoef="0" IVar="3" Cut="4.3340265750885010e-01" cType="1" res="-1.1997465044260025e-02" rms="3.6732846498489380e-01" purity="1.7933531105518341e-01" nType="0">
              <Node pos="l" depth="4" NCoef="0" IVar="5" Cut="4.0000000000000000e+00" cType="1" res="-2.0000755786895752e-02" rms="3.3483222126960754e-01" purity="1.3659310340881348e-01" nType="0">
                <Node pos="l" depth="5" NCoef="0" IVar="-1" Cut="0.0000000000000000e+00" cType="1" res="4.8028416931629181e-03" rms="4.0634873509407043e-01" purity="2.2346216440200806e-01" nType="-99"/>
                <Node pos="r" depth="5" NCoef="0" IVar="4" Cut="2.7337864041328430e-01" cType="1" res="-2.7588360011577606e-02" rms="3.2169350981712341e-01" purity="1.2278979271650314e-01" nType="0">
                  <Node pos="l" depth="6" NCoef="0" IVar="3" Cut="3.5232406854629517e-01" cType="1" res="-3.2532673329114914e-02" rms="3.0788576602935791e-01" purity="1.1040101200342178e-01" nType="0">
                    <Node pos="l" depth="7" NCoef="0" IVar="-1" Cut="0.0000000000000000e+00" cType="1" res="-1.0476903989911079e-02" rms="2.7863714098930359e-01" purity="8.6621843278408051e-02" nType="-99"/>
                    <Node pos="r" depth="7" NCoef="0" IVar="-1" Cut="0.0000000000000000e+00" cType="1" res="-1.7661382444202900e-03" rms="3.8264793157577515e-01" purity="1.8283995985984802e-01" nType="-99"/>
                  </Node>
                  <Node pos="r" depth="6" NCoef="0" IVar="-1" Cut="0.0000000000000000e+00" cType="1" res="8.4384810179471970e-05" rms="3.8975453376770020e-01" purity="1.9311788678169250e-01" nType="-99"/>
                </Node>
              </Node>
              <Node pos="r" depth="4" NCoef="0" IVar="2" Cut="3.7024673461914062e+02" cType="1" res="1.5388807281851768e-02" rms="4.6101337671279907e-01" purity="3.2780286669731140e-01" nType="0">
                <Node pos="l" depth="5" NCoef="0" IVar="-1" Cut="0.0000000000000000e+00" cType="1" res="3.5496398340910673e-03" rms="4.7299462556838989e-01" purity="3.6593654751777649e-01" nType="-99"/>
                <Node pos="r" depth="5" NCoef="0" IVar="-1" Cut="0.0000000000000000e+00" cType="1" res="-4.1901981603587046e-05" rms="4.5027399063110352e-01" purity="2.9632174968719482e-01" nType="-99"/>
              </Node>
            </Node>
          </Node>
          <Node pos="r" depth="2" NCoef="0" IVar="1" Cut="8.1335194408893585e-03" cType="1" res="2.3710103705525398e-03" rms="4.8620748519897461e-01" purity="4.8897719383239746e-01" nType="0">
            <Node pos="l" depth="3" NCoef="0" IVar="2" Cut="9.7486206054687500e+01" cType="1" res="2.1167472004890442e-02" rms="4.8923662304878235e-01" purity="5.4452806711196899e-01" nType="0">
              <Node pos="l" depth="4" NCoef="0" IVar="4" Cut="4.9078080803155899e-02" cType="1" res="3.8480717688798904e-02" rms="4.8509418964385986e-01" purity="5.8370000123977661e-01" nType="0">
                <Node pos="l" depth="5" NCoef="0" IVar="-1" Cut="0.0000000000000000e+00" cType="1" res="2.0643516909331083e-03" rms="4.8740100860595703e-01" purity="5.6108897924423218e-01" nType="-99"/>
                <Node pos="r" depth="5" NCoef="0" IVar="-1" Cut="0.0000000000000000e+00" cType="1" res="4.5278756879270077e-03" rms="4.8124900460243225e-01" purity="6.1434197425842285e-01" nType="-99"/>
              </Node>
              <Node pos="r" depth="4" NCoef="0" IVar="4" Cut="7.7138021588325500e-02" cType="1" res="1.0289547964930534e-02" rms="4.9150958657264709e-01" purity="5.1991629600524902e-01" nType="0">
                <Node pos="l" depth="5" NCoef="0" IVar="3" Cut="7.1256965398788452e-01" cType="1" res="3.9174157427623868e-04" rms="4.8983207345008850e-01" purity="5.0451570749282837e-01" nType="0">
                  <Node pos="l" depth="6" NCoef="0" IVar="-1" Cut="0.0000000000000000e+00" cType="1" res="-9.6150703029707074e-04" rms="4.8860415816307068e-01" purity="4.3283650279045105e-01" nType="-99"/>
                  <Node pos="r" depth="6" NCoef="0" IVar="-1" Cut="0.0000000000000000e+00" cType="1" res="9.3910750001668930e-04" rms="4.9079504609107971e-01" purity="5.7326155900955200e-01" nType="-99"/>
                </Node>
                <Node pos="r" depth="5" NCoef="0" IVar="4" Cut="9.7203418612480164e-02" cType="1" res="1.9786430522799492e-02" rms="4.9292701482772827e-01" purity="5.3469312191009521e-01" nType="0">
                  <Node pos="l" depth="6" NCoef="0" IVar="-1" Cut="0.0000000000000000e+00" cType="1" res="1.2959552695974708e-03" rms="4.9106568098068237e-01" purity="5.3655070066452026e-01" nType="-99"/>
                  <Node pos="r" depth="6" NCoef="0" IVar="-1" Cut="0.0000000000000000e+00" cType="1" res="2.1492321975529194e-03" rms="4.9461427330970764e-01" purity="5.3295177221298218e-01" nType="-99"/>
                </Node>
              </Node>
            </Node>
            <Node pos="r" depth="3" NCoef="0" IVar="1" Cut="9.5352584123611450e-01" cType="1" res="-1.1684178374707699e-02" rms="4.8345276713371277e-01" purity="4.4743856787681580e-01" nType="0">
              <Node pos="l" depth="4" NCoef="0" IVar="4" Cut="6.0540396720170975e-02" cType="1" res="-2.8284471482038498e-03" rms="4.8781353235244751e-01" purity="4.6807006001472473e-01" nType="0">
                <Node pos="l" depth="5" NCoef="0" IVar="2" Cut="4.5261943817138672e+01" cType="1" res="-1.7667740583419800e-02" rms="4.8510304093360901e-01" purity="4.5007252693176270e-01" nType="0">
                  <Node pos="l" depth="6" NCoef="0" IVar="-1" Cut="0.0000000000000000e+00" cType="1" res="1.1714124120771885e-03" rms="4.8994898796081543e-01" purity="5.0331932306289673e-01" nType="-99"/>
                  <Node pos="r" depth="6" NCoef="0" IVar="3" Cut="7.0138323307037354e-01" cType="1" res="-2.9270786792039871e-02" rms="4.8278361558914185e-01" purity="4.3039745092391968e-01" nType="0">
                    <Node pos="l" depth="7" NCoef="0" IVar="-1" Cut="0.0000000000000000e+00" cType="1" res="-4.2942198924720287e-03" rms="4.6885809302330017e-01" purity="3.4961643815040588e-01" nType="-99"/>
                    <Node pos="r" depth="7" NCoef="0" IVar="-1" Cut="0.0000000000000000e+00" cType="1" res="-1.6014029970392585e-03" rms="4.9372729659080505e-01" purity="4.9730575084686279e-01" nType="-99"/>
                  </Node>
                </Node>
                <Node pos="r" depth="5" NCoef="0" IVar="2" Cut="3.1159771728515625e+02" cType="1" res="1.0014005005359650e-02" rms="4.8978438973426819e-01" purity="4.8364579677581787e-01" nType="0">
                  <Node pos="l" depth="6" NCoef="0" IVar="4" Cut="8.2256890833377838e-02" cType="1" res="1.9429842010140419e-02" rms="4.9067670106887817e-01" purity="5.0178056955337524e-01" nType="0">
                    <Node pos="l" depth="7" NCoef="0" IVar="-1" Cut="0.0000000000000000e+00" cType="1" res="5.3804821800440550e-04" rms="4.8944336175918579e-01" purity="4.8569214344024658e-01" nType="-99"/>
                    <Node pos="r" depth="7" NCoef="0" IVar="-1" Cut="0.0000000000000000e+00" cType="1" res="2.8364264871925116e-03" rms="4.9160706996917725e-01" purity="5.1932692527770996e-01" nType="-99"/>
                  </Node>
                  <Node pos="r" depth="6" NCoef="0" IVar="-1" Cut="0.0000000000000000e+00" cType="1" res="-1.5010532224550843e-03" rms="4.8644232749938965e-01" purity="4.3449574708938599e-01" nType="-99"/>
                </Node>
              </Node>
              <Node pos="r" depth="4" NCoef="0" IVar="-1" Cut="0.0000000000000000e+00" cType="1" res="-8.9081553742289543e-03" rms="4.3922796845436096e-01" purity="2.7767753601074219e-01" nType="-99"/>
            </Node>
          </Node>
        </Node>
        <Node pos="r" depth="1" NCoef="0" IVar="2" Cut="2.3143063354492188e+02" cType="1" res="3.8734626024961472e-02" rms="4.2930489778518677e-01" purity="7.3914867639541626e-01" nType="0">
          <Node pos="l" depth="2" NCoef="0" IVar="3" Cut="9.7080606222152710e-01" cType="1" res="4.0690761059522629e-02" rms="4.2772939801216125e-01" purity="7.4429666996002197e-01" nType="0">
            <Node pos="l" depth="3" NCoef="0" IVar="4" Cut="3.5548627376556396e-02" cType="1" res="3.1225943937897682e-02" rms="4.5367628335952759e-01" purity="6.9261169433593750e-01" nType="0">
              <Node pos="l" depth="4" NCoef="0" IVar="3" Cut="8.5371708869934082e-01" cType="1" res="2.3882701992988586e-02" rms="4.5202735066413879e-01" purity="6.9428515434265137e-01" nType="0">
                <Node pos="l" depth="5" NCoef="0" IVar="2" Cut="4.0605159759521484e+01" cType="1" res="7.4483752250671387e-03" rms="4.7858202457427979e-01" purity="6.2108856439590454e-01" nType="0">
                  <Node pos="l" depth="6" NCoef="0" IVar="-1" Cut="0.0000000000000000e+00" cType="1" res="2.3799675982445478e-03" rms="4.7150170803070068e-01" purity="6.4790850877761841e-01" nType="-99"/>
                  <Node pos="r" depth="6" NCoef="0" IVar="-1" Cut="0.0000000000000000e+00" cType="1" res="-1.0962125379592180e-03" rms="4.8433023691177368e-01" purity="5.9591299295425415e-01" nType="-99"/>
                </Node>
                <Node pos="r" depth="5" NCoef="0" IVar="3" Cut="9.5568412542343140e-01" cType="1" res="3.0140819028019905e-02" rms="4.4133490324020386e-01" purity="7.2215813398361206e-01" nType="0">
                  <Node pos="l" depth="6" NCoef="0" IVar="4" Cut="2.1805208176374435e-02" cType="1" res="2.6036502793431282e-02" rms="4.4562023878097534e-01" purity="7.1386516094207764e-01" nType="0">
                    <Node pos="l" depth="7" NCoef="0" IVar="-1" Cut="0.0000000000000000e+00" cType="1" res="1.5559064922854304e-03" rms="4.4897559285163879e-01" purity="7.0431435108184814e-01" nType="-99"/>
                    <Node pos="r" depth="7" NCoef="0" IVar="-1" Cut="0.0000000000000000e+00" cType="1" res="3.9917645044624805e-03" rms="4.4103154540061951e-01" purity="7.2585529088973999e-01" nType="-99"/>
                  </Node>
                  <Node pos="r" depth="6" NCoef="0" IVar="-1" Cut="0.0000000000000000e+00" cType="1" res="4.8721265047788620e-03" rms="4.1750696301460266e-01" purity="7.6560652256011963e-01" nType="-99"/>
                </Node>
              </Node>
              <Node pos="r" depth="4" NCoef="0" IVar="3" Cut="8.7219953536987305e-01" cType="1" res="4.0974609553813934e-02" rms="4.5567330718040466e-01" purity="6.9038999080657959e-01" nType="0">
                <Node pos="l" depth="5" NCoef="0" IVar="2" Cut="1.0866355895996094e+02" cType="1" res="3.5574883222579956e-02" rms="4.6396091580390930e-01" purity="6.7166954278945923e-01" nType="0">
                  <Node pos="l" depth="6" NCoef="0" IVar="2" Cut="5.7181640625000000e+01" cType="1" res="4.3608345091342926e-02" rms="4.5821288228034973e-01" purity="6.8766623735427856e-01" nType="0">
                    <Node pos="l" depth="7" NCoef="0" IVar="-1" Cut="0.0000000000000000e+00" cType="1" res="3.0328386928886175e-03" rms="4.6012267470359802e-01" purity="6.8374943733215332e-01" nType="-99"/>
                    <Node pos="r" depth="7" NCoef="0" IVar="-1" Cut="0.0000000000000000e+00" cType="1" res="3.9379135705530643e-03" rms="4.5706674456596375e-01" purity="6.8996095657348633e-01" nType="-99"/>
                  </Node>
                  <Node pos="r" depth="6" NCoef="0" IVar="2" Cut="1.7995126342773438e+02" cType="1" res="2.7248656377196312e-02" rms="4.6969923377037048e-01" purity="6.5508985519409180e-01" nType="0">
                    <Node pos="l" depth="7" NCoef="0" IVar="-1" Cut="0.0000000000000000e+00" cType="1" res="2.9383869841694832e-03" rms="4.6591517329216003e-01" purity="6.6738474369049072e-01" nType="-99"/>
                    <Node pos="r" depth="7" NCoef="0" IVar="-1" Cut="0.0000000000000000e+00" cType="1" res="1.3079753844067454e-03" rms="4.7659468650817871e-01" purity="6.3155370950698853e-01" nType="-99"/>
                  </Node>
                </Node>
                <Node pos="r" depth="5" NCoef="0" IVar="-1" Cut="0.0000000000000000e+00" cType="1" res="5.9024849906563759e-03" rms="4.2753827571868896e-01" purity="7.5045871734619141e-01" nType="-99"/>
              </Node>
            </Node>
            <Node pos="r" depth="3" NCoef="0" IVar="0" Cut="2.2830463945865631e-01" cType="1" res="4.7031678259372711e-02" rms="4.0930518507957458e-01" purity="7.7892285585403442e-01" nType="0">
              <Node pos="l" depth="4" NCoef="0" IVar="3" Cut="1.0348242521286011e+00" cType="1" res="4.9354735761880875e-02" rms="4.0413010120391846e-01" purity="7.9140031337738037e-01" nType="0">
                <Node pos="l" depth="5" NCoef="0" IVar="3" Cut="9.9352782964706421e-01" cType="1" res="5.0439629703760147e-02" rms="4.0322613716125488e-01" purity="7.9277080297470093e-01" nType="0">
                  <Node pos="l" depth="6" NCoef="0" IVar="3" Cut="9.8986405134201050e-01" cType="1" res="3.5082615911960602e-02" rms="4.1609498858451843e-01" purity="7.7305173873901367e-01" nType="0">
                    <Node pos="l" depth="7" NCoef="0" IVar="-1" Cut="0.0000000000000000e+00" cType="1" res="4.0692100301384926e-03" rms="4.1309598088264465e-01" purity="7.7732682228088379e-01" nType="-99"/>
                    <Node pos="r" depth="7" NCoef="0" IVar="-1" Cut="0.0000000000000000e+00" cType="1" res="2.5612767785787582e-03" rms="4.2160415649414062e-01" purity="7.6481115818023682e-01" nType="-99"/>
                  </Node>
                  <Node pos="r" depth="6" NCoef="0" IVar="3" Cut="1.0015202760696411e+00" cType="1" res="5.4965041577816010e-02" rms="3.9924219250679016e-01" purity="7.9858160018920898e-01" nType="0">
                    <Node pos="l" depth="7" NCoef="0" IVar="-1" Cut="0.0000000000000000e+00" cType="1" res="5.2165174856781960e-03" rms="4.0405884385108948e-01" purity="7.9186826944351196e-01" nType="-99"/>
                    <Node pos="r" depth="7" NCoef="0" IVar="-1" Cut="0.0000000000000000e+00" cType="1" res="5.8647738769650459e-03" rms="3.9303174614906311e-01" purity="8.0707734823226929e-01" nType="-99"/>
                  </Node>
                </Node>
                <Node pos="r" depth="5" NCoef="0" IVar="-1" Cut="0.0000000000000000e+00" cType="1" res="3.5022525116801262e-03" rms="4.1472825407981873e-01" purity="7.7475029230117798e-01" nType="-99"/>
              </Node>
              <Node pos="r" depth="4" NCoef="0" IVar="-1" Cut="0.0000000000000000e+00" cType="1" res="1.0146057466045022e-03" rms="4.7982347011566162e-01" purity="5.8913260698318481e-01" nType="-99"/>
            </Node>
          </Node>
          <Node pos="r" depth="2" NCoef="0" IVar="-1" Cut="0.0000000000000000e+00" cType="1" res="-2.8332767542451620e-03" rms="4.7567349672317505e-01" purity="5.6123381853103638e-01" nType="-99"/>
        </Node>
      </Node>
    </BinaryTree>
    <BinaryTree type="DecisionTree" boostWeight="1.0000000000000000e+00" itree="49">
      <Node pos="s" depth="0" NCoef="0" IVar="3" Cut="7.8184992074966431e-01" cType="1" res="1.0268119163811207e-02" rms="4.1191476583480835e-01" purity="5.0049316883087158e-01" nType="0">
        <Node pos="l" depth="1" NCoef="0" IVar="3" Cut="6.3333833217620850e-01" cType="1" res="-1.5976533293724060e-02" rms="3.9167869091033936e-01" purity="2.6032885909080505e-01" nType="0">
          <Node pos="l" depth="2" NCoef="0" IVar="4" Cut="1.4115174114704132e-01" cType="1" res="-2.3701971396803856e-02" rms="3.4615522623062134e-01" purity="1.6239866614341736e-01" nType="0">
            <Node pos="l" depth="3" NCoef="0" IVar="3" Cut="4.9400675296783447e-01" cType="1" res="-2.8363101184368134e-02" rms="3.3653721213340759e-01" purity="1.5471050143241882e-01" nType="0">
              <Node pos="l" depth="4" NCoef="0" IVar="2" Cut="4.0065423583984375e+02" cType="1" res="-3.4208633005619049e-02" rms="2.5166711211204529e-01" purity="7.1639835834503174e-02" nType="0">
                <Node pos="l" depth="5" NCoef="0" IVar="3" Cut="3.8613563776016235e-01" cType="1" res="-3.2268300652503967e-02" rms="2.5434678792953491e-01" purity="7.3512144386768341e-02" nType="0">
                  <Node pos="l" depth="6" NCoef="0" IVar="0" Cut="3.8693552017211914e+00" cType="1" res="-3.7220783531665802e-02" rms="1.9808189570903778e-01" purity="4.1867632418870926e-02" nType="0">
                    <Node pos="l" depth="7" NCoef="0" IVar="-1" Cut="0.0000000000000000e+00" cType="1" res="-1.5706805512309074e-02" rms="1.9657589495182037e-01" purity="4.1265476495027542e-02" nType="-99"/>
                    <Node pos="r" depth="7" NCoef="0" IVar="-1" Cut="0.0000000000000000e+00" cType="1" res="-1.0095851495862007e-02" rms="2.0827820897102356e-01" purity="4.6371534466743469e-02" nType="-99"/>
                  </Node>
                  <Node pos="r" depth="6" NCoef="0" IVar="4" Cut="4.1713833808898926e-02" cType="1" res="-2.4313906207680702e-02" rms="3.2476967573165894e-01" purity="1.2433769553899765e-01" nType="0">
                    <Node pos="l" depth="7" NCoef="0" IVar="-1" Cut="0.0000000000000000e+00" cType="1" res="-1.1835228651762009e-02" rms="2.7719512581825256e-01" purity="8.4373757243156433e-02" nType="-99"/>
                    <Node pos="r" depth="7" NCoef="0" IVar="-1" Cut="0.0000000000000000e+00" cType="1" res="-3.7947976961731911e-03" rms="3.3460730314254761e-01" purity="1.3366307318210602e-01" nType="-99"/>
                  </Node>
                </Node>
                <Node pos="r" depth="5" NCoef="0" IVar="-1" Cut="0.0000000000000000e+00" cType="1" res="-1.3410730287432671e-02" rms="2.3195071518421173e-01" purity="5.8755550533533096e-02" nType="-99"/>
              </Node>
              <Node pos="r" depth="4" NCoef="0" IVar="1" Cut="9.3935318291187286e-02" cType="1" res="-1.8750924617052078e-02" rms="4.4181093573570251e-01" purity="2.9130893945693970e-01" nType="0">
                <Node pos="l" depth="5" NCoef="0" IVar="2" Cut="8.0678161621093750e+01" cType="1" res="2.2204543347470462e-04" rms="4.6616017818450928e-01" purity="3.4864169359207153e-01" nType="0">
                  <Node pos="l" depth="6" NCoef="0" IVar="-1" Cut="0.0000000000000000e+00" cType="1" res="2.2807221394032240e-03" rms="4.8388299345970154e-01" purity="3.9698582887649536e-01" nType="-99"/>
                  <Node pos="r" depth="6" NCoef="0" IVar="3" Cut="5.4794389009475708e-01" cType="1" res="-6.5821423195302486e-03" rms="4.6075740456581116e-01" purity="3.3486208319664001e-01" nType="0">
                    <Node pos="l" depth="7" NCoef="0" IVar="-1" Cut="0.0000000000000000e+00" cType="1" res="-3.1264128629118204e-03" rms="4.2484948039054871e-01" purity="2.4893188476562500e-01" nType="-99"/>
                    <Node pos="r" depth="7" NCoef="0" IVar="-1" Cut="0.0000000000000000e+00" cType="1" res="2.5407987413927913e-04" rms="4.7744044661521912e-01" purity="3.7782591581344604e-01" nType="-99"/>
                  </Node>
                </Node>
                <Node pos="r" depth="5" NCoef="0" IVar="4" Cut="4.6020474284887314e-02" cType="1" res="-3.5953093320131302e-02" rms="4.1776746511459351e-01" purity="2.3932717740535736e-01" nType="0">
                  <Node pos="l" depth="6" NCoef="0" IVar="-1" Cut="0.0000000000000000e+00" cType="1" res="-8.3714229986071587e-03" rms="3.8445782661437988e-01" purity="1.9097943603992462e-01" nType="-99"/>
                  <Node pos="r" depth="6" NCoef="0" IVar="0" Cut="5.1286005973815918e-01" cType="1" res="-2.8451826423406601e-02" rms="4.2686530947685242e-01" purity="2.5367531180381775e-01" nType="0">
                    <Node pos="l" depth="7" NCoef="0" IVar="-1" Cut="0.0000000000000000e+00" cType="1" res="-3.5268084611743689e-03" rms="4.5807585120201111e-01" purity="3.1107842922210693e-01" nType="-99"/>
                    <Node pos="r" depth="7" NCoef="0" IVar="-1" Cut="0.0000000000000000e+00" cType="1" res="-3.5505145788192749e-03" rms="3.9334434270858765e-01" purity="1.9662414491176605e-01" nType="-99"/>
                  </Node>
                </Node>
              </Node>
            </Node>
            <Node pos="r" depth="3" NCoef="0" IVar="2" Cut="3.4332235717773438e+02" cType="1" res="-1.2209420092403889e-02" rms="3.6854767799377441e-01" purity="1.8135473132133484e-01" nType="0">
              <Node pos="l" depth="4" NCoef="0" IVar="3" Cut="4.1733160614967346e-01" cType="1" res="6.9379271008074284e-03" rms="3.8734817504882812e-01" purity="2.1445567905902863e-01" nType="0">
                <Node pos="l" depth="5" NCoef="0" IVar="4" Cut="1.8046320974826813e-01" cType="1" res="-1.0963040404021740e-02" rms="3.3718860149383545e-01" purity="1.3853573799133301e-01" nType="0">
                  <Node pos="l" depth="6" NCoef="0" IVar="-1" Cut="0.0000000000000000e+00" cType="1" res="-7.0171859115362167e-03" rms="2.9684397578239441e-01" purity="1.0070757567882538e-01" nType="-99"/>
                  <Node pos="r" depth="6" NCoef="0" IVar="-1" Cut="0.0000000000000000e+00" cType="1" res="9.4402598915621638e-04" rms="3.7261927127838135e-01" purity="1.7647135257720947e-01" nType="-99"/>
                </Node>
                <Node pos="r" depth="5" NCoef="0" IVar="-1" Cut="0.0000000000000000e+00" cType="1" res="4.5440169051289558e-03" rms="4.7261673212051392e-01" purity="3.7190636992454529e-01" nType="-99"/>
              </Node>
              <Node pos="r" depth="4" NCoef="0" IVar="3" Cut="1.9419549405574799e-01" cType="1" res="-2.2110026329755783e-02" rms="3.5803845524787903e-01" purity="1.6423906385898590e-01" nType="0">
                <Node pos="l" depth="5" NCoef="0" IVar="-1" Cut="0.0000000000000000e+00" cType="1" res="-2.4820314138196409e-04" rms="3.4318301081657410e-01" purity="1.5224328637123108e-01" nType="-99"/>
                <Node pos="r" depth="5" NCoef="0" IVar="2" Cut="6.4689105224609375e+02" cType="1" res="-2.8166381642222404e-02" rms="3.6199182271957397e-01" purity="1.6770546138286591e-01" nType="0">
                  <Node pos="l" depth="6" NCoef="0" IVar="3" Cut="3.3590850234031677e-01" cType="1" res="-1.8576098605990410e-02" rms="3.6762723326683044e-01" purity="1.7840415239334106e-01" nType="0">
                    <Node pos="l" depth="7" NCoef="0" IVar="-1" Cut="0.0000000000000000e+00" cType="1" res="-8.6246561259031296e-03" rms="2.8934422135353088e-01" purity="9.7341321408748627e-02" nType="-99"/>
                    <Node pos="r" depth="7" NCoef="0" IVar="-1" Cut="0.0000000000000000e+00" cType="1" res="-1.0311537189409137e-03" rms="4.1523456573486328e-01" purity="2.3761703073978424e-01" nType="-99"/>
                  </Node>
                  <Node pos="r" depth="6" NCoef="0" IVar="0" Cut="4.6877235174179077e-01" cType="1" res="-4.0712993592023849e-02" rms="3.5409200191497803e-01" purity="1.5370878577232361e-01" nType="0">
                    <Node pos="l" depth="7" NCoef="0" IVar="-1" Cut="0.0000000000000000e+00" cType="1" res="-8.0444328486919403e-03" rms="3.9491710066795349e-01" purity="2.0120103657245636e-01" nType="-99"/>
                    <Node pos="r" depth="7" NCoef="0" IVar="-1" Cut="0.0000000000000000e+00" cType="1" res="-5.3885914385318756e-03" rms="3.1237614154815674e-01" purity="1.1148713529109955e-01" nType="-99"/>
                  </Node>
                </Node>
              </Node>
            </Node>
          </Node>
          <Node pos="r" depth="2" NCoef="0" IVar="1" Cut="3.6824730038642883e-01" cType="1" res="3.4638540819287300e-03" rms="4.8724451661109924e-01" purity="5.0676149129867554e-01" nType="0">
            <Node pos="l" depth="3" NCoef="0" IVar="2" Cut="1.9055923461914062e+02" cType="1" res="1.2540481053292751e-02" rms="4.8949590325355530e-01" purity="5.3713667392730713e-01" nType="0">
              <Node pos="l" depth="4" NCoef="0" IVar="4" Cut="4.4876478612422943e-02" cType="1" res="2.1237989887595177e-02" rms="4.8824283480644226e-01" purity="5.5468493700027466e-01" nType="0">
                <Node pos="l" depth="5" NCoef="0" IVar="2" Cut="4.9487182617187500e+01" cType="1" res="3.7702533882111311e-03" rms="4.8890522122383118e-01" purity="5.2735102176666260e-01" nType="0">
                  <Node pos="l" depth="6" NCoef="0" IVar="-1" Cut="0.0000000000000000e+00" cType="1" res="2.2658540401607752e-03" rms="4.8843392729759216e-01" purity="5.6582206487655640e-01" nType="-99"/>
                  <Node pos="r" depth="6" NCoef="0" IVar="-1" Cut="0.0000000000000000e+00" cType="1" res="-1.5670250868424773e-03" rms="4.8839947581291199e-01" purity="4.9258208274841309e-01" nType="-99"/>
                </Node>
                <Node pos="r" depth="5" NCoef="0" IVar="2" Cut="7.2062583923339844e+01" cType="1" res="3.3901106566190720e-02" rms="4.8737081885337830e-01" purity="5.7450044155120850e-01" nType="0">
                  <Node pos="l" depth="6" NCoef="0" IVar="-1" Cut="0.0000000000000000e+00" cType="1" res="3.8809119723737240e-03" rms="4.8480445146560669e-01" purity="6.0186284780502319e-01" nType="-99"/>
                  <Node pos="r" depth="6" NCoef="0" IVar="4" Cut="6.4614109694957733e-02" cType="1" res="2.8533658012747765e-02" rms="4.8813700675964355e-01" purity="5.6507068872451782e-01" nType="0">
                    <Node pos="l" depth="7" NCoef="0" IVar="-1" Cut="0.0000000000000000e+00" cType="1" res="1.4981594868004322e-03" rms="4.8914992809295654e-01" purity="5.3419303894042969e-01" nType="-99"/>
                    <Node pos="r" depth="7" NCoef="0" IVar="-1" Cut="0.0000000000000000e+00" cType="1" res="2.9269277583807707e-03" rms="4.8744684457778931e-01" purity="5.8237409591674805e-01" nType="-99"/>
                  </Node>
                </Node>
              </Node>
              <Node pos="r" depth="4" NCoef="0" IVar="5" Cut="3.0000000000000000e+00" cType="1" res="-4.4978572987020016e-03" rms="4.8952788114547729e-01" purity="4.9836114048957825e-01" nType="0">
                <Node pos="l" depth="5" NCoef="0" IVar="-1" Cut="0.0000000000000000e+00" cType="1" res="-2.8060593176633120e-03" rms="4.9115568399429321e-01" purity="4.6198672056198120e-01" nType="-99"/>
                <Node pos="r" depth="5" NCoef="0" IVar="3" Cut="6.9082361459732056e-01" cType="1" res="8.3024073392152786e-03" rms="4.9145537614822388e-01" purity="5.2095311880111694e-01" nType="0">
                  <Node pos="l" depth="6" NCoef="0" IVar="-1" Cut="0.0000000000000000e+00" cType="1" res="-8.7754902779124677e-05" rms="4.9359562993049622e-01" purity="4.6688294410705566e-01" nType="-99"/>
                  <Node pos="r" depth="6" NCoef="0" IVar="-1" Cut="0.0000000000000000e+00" cType="1" res="1.5623954823240638e-03" rms="4.8924592137336731e-01" purity="5.7244664430618286e-01" nType="-99"/>
                </Node>
              </Node>
            </Node>
            <Node pos="r" depth="3" NCoef="0" IVar="0" Cut="2.4024154245853424e-01" cType="1" res="-2.9164366424083710e-02" rms="4.7764167189598083e-01" purity="3.9757046103477478e-01" nType="0">
              <Node pos="l" depth="4" NCoef="0" IVar="-1" Cut="0.0000000000000000e+00" cType="1" res="-2.5498078321106732e-04" rms="4.9457398056983948e-01" purity="4.7539278864860535e-01" nType="-99"/>
              <Node pos="r" depth="4" NCoef="0" IVar="-1" Cut="0.0000000000000000e+00" cType="1" res="-5.6095155887305737e-03" rms="4.5876303315162659e-01" purity="3.2041209936141968e-01" nType="-99"/>
            </Node>
          </Node>
        </Node>
        <Node pos="r" depth="1" NCoef="0" IVar="3" Cut="1.0561801195144653e+00" cType="1" res="3.6360330879688263e-02" rms="4.2950588464736938e-01" purity="7.3926246166229248e-01" nType="0">
          <Node pos="l" depth="2" NCoef="0" IVar="3" Cut="9.9422830343246460e-01" cType="1" res="3.8104366511106491e-02" rms="4.2917436361312866e-01" purity="7.4125295877456665e-01" nType="0">
            <Node pos="l" depth="3" NCoef="0" IVar="1" Cut="4.1195714473724365e-01" cType="1" res="2.9237354174256325e-02" rms="4.4656458497047424e-01" purity="7.0671218633651733e-01" nType="0">
              <Node pos="l" depth="4" NCoef="0" IVar="2" Cut="1.7325730895996094e+02" cType="1" res="3.4867241978645325e-02" rms="4.3915191292762756e-01" purity="7.2907358407974243e-01" nType="0">
                <Node pos="l" depth="5" NCoef="0" IVar="2" Cut="8.3832603454589844e+01" cType="1" res="3.6868859082460403e-02" rms="4.3611106276512146e-01" purity="7.3620164394378662e-01" nType="0">
                  <Node pos="l" depth="6" NCoef="0" IVar="4" Cut="3.6137957125902176e-02" cType="1" res="3.9756651967763901e-02" rms="4.3113759160041809e-01" purity="7.4634802341461182e-01" nType="0">
                    <Node pos="l" depth="7" NCoef="0" IVar="-1" Cut="0.0000000000000000e+00" cType="1" res="3.6355941556394100e-03" rms="4.2898958921432495e-01" purity="7.4929916858673096e-01" nType="-99"/>
                    <Node pos="r" depth="7" NCoef="0" IVar="-1" Cut="0.0000000000000000e+00" cType="1" res="4.7337003052234650e-03" rms="4.4203296303749084e-01" purity="7.3066449165344238e-01" nType="-99"/>
                  </Node>
                  <Node pos="r" depth="6" NCoef="0" IVar="3" Cut="8.8662248849868774e-01" cType="1" res="2.6818821206688881e-02" rms="4.5285055041313171e-01" purity="7.0089042186737061e-01" nType="0">
                    <Node pos="l" depth="7" NCoef="0" IVar="-1" Cut="0.0000000000000000e+00" cType="1" res="2.0680732559412718e-03" rms="4.6107235550880432e-01" purity="6.8279802799224854e-01" nType="-99"/>
                    <Node pos="r" depth="7" NCoef="0" IVar="-1" Cut="0.0000000000000000e+00" cType="1" res="4.5689167454838753e-03" rms="4.2518851161003113e-01" purity="7.5873893499374390e-01" nType="-99"/>
                  </Node>
                </Node>
                <Node pos="r" depth="5" NCoef="0" IVar="3" Cut="8.3659863471984863e-01" cType="1" res="1.6806289553642273e-02" rms="4.6530401706695557e-01" purity="6.6475623846054077e-01" nType="0">
                  <Node pos="l" depth="6" NCoef="0" IVar="-1" Cut="0.0000000000000000e+00" cType="1" res="1.8271462759003043e-03" rms="4.7623735666275024e-01" purity="6.3712573051452637e-01" nType="-99"/>
                  <Node pos="r" depth="6" NCoef="0" IVar="-1" Cut="0.0000000000000000e+00" cType="1" res="1.4001030940562487e-03" rms="4.5323976874351501e-01" purity="6.9444507360458374e-01" nType="-99"/>
                </Node>
              </Node>
              <Node pos="r" depth="4" NCoef="0" IVar="4" Cut="1.2812647968530655e-02" cType="1" res="-3.2955138012766838e-03" rms="4.8591965436935425e-01" purity="5.7749450206756592e-01" nType="0">
                <Node pos="l" depth="5" NCoef="0" IVar="-1" Cut="0.0000000000000000e+00" cType="1" res="-4.0872562676668167e-03" rms="4.8353451490402222e-01" purity="5.7725095748901367e-01" nType="-99"/>
                <Node pos="r" depth="5" NCoef="0" IVar="3" Cut="8.3664238452911377e-01" cType="1" res="1.7858007922768593e-02" rms="4.8573067784309387e-01" purity="5.7761639356613159e-01" nType="0">
                  <Node pos="l" depth="6" NCoef="0" IVar="-1" Cut="0.0000000000000000e+00" cType="1" res="-1.1343014193698764e-04" rms="4.9295523762702942e-01" purity="5.2135467529296875e-01" nType="-99"/>
                  <Node pos="r" depth="6" NCoef="0" IVar="-1" Cut="0.0000000000000000e+00" cType="1" res="2.6577850803732872e-03" rms="4.8048362135887146e-01" purity="6.1473453044891357e-01" nType="-99"/>
                </Node>
              </Node>
            </Node>
            <Node pos="r" depth="3" NCoef="0" IVar="3" Cut="1.0002233982086182e+00" cType="1" res="4.9306455999612808e-02" rms="4.0586447715759277e-01" purity="7.8488981723785400e-01" nType="0">
              <Node pos="l" depth="4" NCoef="0" IVar="3" Cut="9.9732273817062378e-01" cType="1" res="4.3366730213165283e-02" rms="4.1164940595626831e-01" purity="7.7561056613922119e-01" nType="0">
                <Node pos="l" depth="5" NCoef="0" IVar="3" Cut="9.9542641639709473e-01" cType="1" res="4.7179993242025375e-02" rms="4.0916469693183899e-01" purity="7.7931833267211914e-01" nType="0">
                  <Node pos="l" depth="6" NCoef="0" IVar="-1" Cut="0.0000000000000000e+00" cType="1" res="3.8794321008026600e-03" rms="4.1678911447525024e-01" purity="7.6861912012100220e-01" nType="-99"/>
                  <Node pos="r" depth="6" NCoef="0" IVar="3" Cut="9.9640512466430664e-01" cType="1" res="5.1742371171712875e-02" rms="4.0555763244628906e-01" purity="7.8419828414916992e-01" nType="0">
                    <Node pos="l" depth="7" NCoef="0" IVar="-1" Cut="0.0000000000000000e+00" cType="1" res="5.5392952635884285e-03" rms="4.0282645821571350e-01" purity="7.8789740800857544e-01" nType="-99"/>
                    <Node pos="r" depth="7" NCoef="0" IVar="-1" Cut="0.0000000000000000e+00" cType="1" res="5.1574506796896458e-03" rms="4.0785923600196838e-01" purity="7.8105205297470093e-01" nType="-99"/>
                  </Node>
                </Node>
                <Node pos="r" depth="5" NCoef="0" IVar="3" Cut="9.9835205078125000e-01" cType="1" res="4.0610063821077347e-02" rms="4.1341444849967957e-01" purity="7.7293026447296143e-01" nType="0">
                  <Node pos="l" depth="6" NCoef="0" IVar="-1" Cut="0.0000000000000000e+00" cType="1" res="3.2815930899232626e-03" rms="4.1884693503379822e-01" purity="7.6497745513916016e-01" nType="-99"/>
                  <Node pos="r" depth="6" NCoef="0" IVar="3" Cut="9.9907636642456055e-01" cType="1" res="4.4475860893726349e-02" rms="4.1070708632469177e-01" purity="7.7677416801452637e-01" nType="0">
                    <Node pos="l" depth="7" NCoef="0" IVar="-1" Cut="0.0000000000000000e+00" cType="1" res="3.9538005366921425e-03" rms="4.1406574845314026e-01" purity="7.7165848016738892e-01" nType="-99"/>
                    <Node pos="r" depth="7" NCoef="0" IVar="-1" Cut="0.0000000000000000e+00" cType="1" res="4.6012923121452332e-03" rms="4.0877589583396912e-01" purity="7.7966356277465820e-01" nType="-99"/>
                  </Node>
                </Node>
              </Node>
              <Node pos="r" depth="4" NCoef="0" IVar="3" Cut="1.0236859321594238e+00" cType="1" res="5.3364023566246033e-02" rms="4.0181431174278259e-01" purity="7.9122871160507202e-01" nType="0">
                <Node pos="l" depth="5" NCoef="0" IVar="3" Cut="1.0161163806915283e+00" cType="1" res="5.7448141276836395e-02" rms="3.9854890108108521e-01" purity="7.9646080732345581e-01" nType="0">
                  <Node pos="l" depth="6" NCoef="0" IVar="3" Cut="1.0043244361877441e+00" cType="1" res="5.6168183684349060e-02" rms="3.9946526288986206e-01" purity="7.9495406150817871e-01" nType="0">
                    <Node pos="l" depth="7" NCoef="0" IVar="-1" Cut="0.0000000000000000e+00" cType="1" res="5.7080816477537155e-03" rms="3.9918377995491028e-01" purity="7.9520112276077271e-01" nType="-99"/>
                    <Node pos="r" depth="7" NCoef="0" IVar="-1" Cut="0.0000000000000000e+00" cType="1" res="5.2835871465504169e-03" rms="3.9982050657272339e-01" purity="7.9461586475372314e-01" nType="-99"/>
                  </Node>
                  <Node pos="r" depth="6" NCoef="0" IVar="-1" Cut="0.0000000000000000e+00" cType="1" res="6.4879073761403561e-03" rms="3.9204058051109314e-01" purity="8.0687767267227173e-01" nType="-99"/>
                </Node>
                <Node pos="r" depth="5" NCoef="0" IVar="3" Cut="1.0341652631759644e+00" cType="1" res="3.7153407931327820e-02" rms="4.1412466764450073e-01" purity="7.7046167850494385e-01" nType="0">
                  <Node pos="l" depth="6" NCoef="0" IVar="-1" Cut="0.0000000000000000e+00" cType="1" res="2.8537348844110966e-03" rms="4.1561511158943176e-01" purity="7.6637107133865356e-01" nType="-99"/>
                  <Node pos="r" depth="6" NCoef="0" IVar="-1" Cut="0.0000000000000000e+00" cType="1" res="4.3503292836248875e-03" rms="4.1260588169097900e-01" purity="7.7419549226760864e-01" nType="-99"/>
                </Node>
              </Node>
            </Node>
          </Node>
          <Node pos="r" depth="2" NCoef="0" IVar="-1" Cut="0.0000000000000000e+00" cType="1" res="-3.9633456617593765e-03" rms="4.3700587749481201e-01" purity="6.5220844745635986e-01" nType="-99"/>
        </Node>
      </Node>
    </BinaryTree>
    <BinaryTree type="DecisionTree" boostWeight="1.0000000000000000e+00" itree="50">
      <Node pos="s" depth="0" NCoef="0" IVar="3" Cut="7.1878063678741455e-01" cType="1" res="1.1027969419956207e-02" rms="4.1203352808952332e-01" purity="5.0130385160446167e-01" nType="0">
        <Node pos="l" depth="1" NCoef="0" IVar="1" Cut="4.2258355021476746e-01" cType="1" res="-1.5932215377688408e-02" rms="3.7623733282089233e-01" purity="2.1828190982341766e-01" nType="0">
          <Node pos="l" depth="2" NCoef="0" IVar="3" Cut="5.3780603408813477e-01" cType="1" res="-7.4110468849539757e-03" rms="4.0364518761634827e-01" purity="2.6271975040435791e-01" nType="0">
            <Node pos="l" depth="3" NCoef="0" IVar="4" Cut="1.9254131615161896e-01" cType="1" res="-1.8164839595556259e-02" rms="3.3722943067550659e-01" purity="1.4373038709163666e-01" nType="0">
              <Node pos="l" depth="4" NCoef="0" IVar="3" Cut="4.0381237864494324e-01" cType="1" res="-2.2463018074631691e-02" rms="3.2457488775253296e-01" purity="1.3218404352664948e-01" nType="0">
                <Node pos="l" depth="5" NCoef="0" IVar="4" Cut="1.4307004213333130e-01" cType="1" res="-3.0902253463864326e-02" rms="2.4472832679748535e-01" purity="6.6358797252178192e-02" nType="0">
                  <Node pos="l" depth="6" NCoef="0" IVar="2" Cut="1.3581266784667969e+02" cType="1" res="-3.5293750464916229e-02" rms="2.1681445837020874e-01" purity="5.1039636135101318e-02" nType="0">
                    <Node pos="l" depth="7" NCoef="0" IVar="-1" Cut="0.0000000000000000e+00" cType="1" res="-8.6253741756081581e-03" rms="2.4610403180122375e-01" purity="6.6364750266075134e-02" nType="-99"/>
                    <Node pos="r" depth="7" NCoef="0" IVar="-1" Cut="0.0000000000000000e+00" cType="1" res="-1.4977015554904938e-02" rms="2.0126399397850037e-01" purity="4.3790675699710846e-02" nType="-99"/>
                  </Node>
                  <Node pos="r" depth="6" NCoef="0" IVar="-1" Cut="0.0000000000000000e+00" cType="1" res="-5.0733829848468304e-03" rms="3.0440720915794373e-01" purity="1.0553497076034546e-01" nType="-99"/>
                </Node>
                <Node pos="r" depth="5" NCoef="0" IVar="5" Cut="4.0000000000000000e+00" cType="1" res="-1.3415897265076637e-02" rms="3.9115303754806519e-01" purity="2.0149482786655426e-01" nType="0">
                  <Node pos="l" depth="6" NCoef="0" IVar="2" Cut="2.1059306335449219e+02" cType="1" res="-3.2953538000583649e-02" rms="3.7579545378684998e-01" purity="1.7778223752975464e-01" nType="0">
                    <Node pos="l" depth="7" NCoef="0" IVar="-1" Cut="0.0000000000000000e+00" cType="1" res="-4.3076756410300732e-03" rms="3.8142153620719910e-01" purity="1.8210549652576447e-01" nType="-99"/>
                    <Node pos="r" depth="7" NCoef="0" IVar="-1" Cut="0.0000000000000000e+00" cType="1" res="-6.3838874921202660e-03" rms="3.6959221959114075e-01" purity="1.7317718267440796e-01" nType="-99"/>
                  </Node>
                  <Node pos="r" depth="6" NCoef="0" IVar="2" Cut="2.4805155944824219e+02" cType="1" res="-4.9752760678529739e-03" rms="3.9758351445198059e-01" purity="2.1202126145362854e-01" nType="0">
                    <Node pos="l" depth="7" NCoef="0" IVar="-1" Cut="0.0000000000000000e+00" cType="1" res="8.5479777771979570e-04" rms="4.0420758724212646e-01" purity="2.2462986409664154e-01" nType="-99"/>
                    <Node pos="r" depth="7" NCoef="0" IVar="-1" Cut="0.0000000000000000e+00" cType="1" res="-3.0955648981034756e-03" rms="3.8739943504333496e-01" purity="1.9400115311145782e-01" nType="-99"/>
                  </Node>
                </Node>
              </Node>
              <Node pos="r" depth="4" NCoef="0" IVar="5" Cut="5.0000000000000000e+00" cType="1" res="-5.7238334557041526e-04" rms="3.8426291942596436e-01" purity="1.9143490493297577e-01" nType="0">
                <Node pos="l" depth="5" NCoef="0" IVar="-1" Cut="0.0000000000000000e+00" cType="1" res="3.0108706559985876e-03" rms="4.2979237437248230e-01" purity="2.5697606801986694e-01" nType="-99"/>
                <Node pos="r" depth="5" NCoef="0" IVar="4" Cut="2.3879162967205048e-01" cType="1" res="-1.0120847262442112e-02" rms="3.6215338110923767e-01" purity="1.6208700835704803e-01" nType="0">
                  <Node pos="l" depth="6" NCoef="0" IVar="-1" Cut="0.0000000000000000e+00" cType="1" res="-3.5232163500040770e-03" rms="3.3871290087699890e-01" purity="1.4002850651741028e-01" nType="-99"/>
                  <Node pos="r" depth="6" NCoef="0" IVar="-1" Cut="0.0000000000000000e+00" cType="1" res="-6.7618646426126361e-04" rms="3.8215264678001404e-01" purity="1.8218632042407990e-01" nType="-99"/>
                </Node>
              </Node>
            </Node>
            <Node pos="r" depth="3" NCoef="0" IVar="5" Cut="3.0000000000000000e+00" cType="1" res="8.8781900703907013e-03" rms="4.8155340552330017e-01" purity="4.3217232823371887e-01" nType="0">
              <Node pos="l" depth="4" NCoef="0" IVar="2" Cut="1.8821179199218750e+02" cType="1" res="-1.7075261101126671e-02" rms="4.7623085975646973e-01" purity="3.8673684000968933e-01" nType="0">
                <Node pos="l" depth="5" NCoef="0" IVar="-1" Cut="0.0000000000000000e+00" cType="1" res="-4.8943801084533334e-04" rms="4.8194867372512817e-01" purity="4.0425890684127808e-01" nType="-99"/>
                <Node pos="r" depth="5" NCoef="0" IVar="-1" Cut="0.0000000000000000e+00" cType="1" res="-3.3539410214871168e-03" rms="4.6754673123359680e-01" purity="3.6201840639114380e-01" nType="-99"/>
              </Node>
              <Node pos="r" depth="4" NCoef="0" IVar="4" Cut="3.8335375487804413e-02" cType="1" res="1.4977993443608284e-02" rms="4.8375853896141052e-01" purity="4.4504079222679138e-01" nType="0">
                <Node pos="l" depth="5" NCoef="0" IVar="-1" Cut="0.0000000000000000e+00" cType="1" res="-1.0871345875784755e-03" rms="4.8014289140701294e-01" purity="4.1624301671981812e-01" nType="-99"/>
                <Node pos="r" depth="5" NCoef="0" IVar="3" Cut="6.8959218263626099e-01" cType="1" res="2.0321829244494438e-02" rms="4.8431748151779175e-01" purity="4.5090651512145996e-01" nType="0">
                  <Node pos="l" depth="6" NCoef="0" IVar="5" Cut="4.0000000000000000e+00" cType="1" res="1.5674885362386703e-02" rms="4.8166418075561523e-01" purity="4.2829552292823792e-01" nType="0">
                    <Node pos="l" depth="7" NCoef="0" IVar="-1" Cut="0.0000000000000000e+00" cType="1" res="1.5184331277851015e-04" rms="4.8071762919425964e-01" purity="4.1677573323249817e-01" nType="-99"/>
                    <Node pos="r" depth="7" NCoef="0" IVar="-1" Cut="0.0000000000000000e+00" cType="1" res="2.9846255201846361e-03" rms="4.8696908354759216e-01" purity="4.4298473000526428e-01" nType="-99"/>
                  </Node>
                  <Node pos="r" depth="6" NCoef="0" IVar="-1" Cut="0.0000000000000000e+00" cType="1" res="4.6130223199725151e-03" rms="4.8659265041351318e-01" purity="5.8383607864379883e-01" nType="-99"/>
                </Node>
              </Node>
            </Node>
          </Node>
          <Node pos="r" depth="2" NCoef="0" IVar="4" Cut="6.3750408589839935e-02" cType="1" res="-3.3559285104274750e-02" rms="3.1125071644783020e-01" purity="1.2635684013366699e-01" nType="0">
            <Node pos="l" depth="3" NCoef="0" IVar="3" Cut="5.8399677276611328e-01" cType="1" res="-4.1023485362529755e-02" rms="3.0185657739639282e-01" purity="1.1706314235925674e-01" nType="0">
              <Node pos="l" depth="4" NCoef="0" IVar="5" Cut="6.0000000000000000e+00" cType="1" res="-3.3890917897224426e-02" rms="2.4368610978126526e-01" purity="7.0149689912796021e-02" nType="0">
                <Node pos="l" depth="5" NCoef="0" IVar="2" Cut="8.4090942382812500e+01" cType="1" res="-2.8164751827716827e-02" rms="2.7854272723197937e-01" purity="8.9332863688468933e-02" nType="0">
                  <Node pos="l" depth="6" NCoef="0" IVar="-1" Cut="0.0000000000000000e+00" cType="1" res="-5.1860683597624302e-03" rms="3.0228897929191589e-01" purity="1.0689575225114822e-01" nType="-99"/>
                  <Node pos="r" depth="6" NCoef="0" IVar="-1" Cut="0.0000000000000000e+00" cType="1" res="-1.0103142820298672e-02" rms="2.5331956148147583e-01" purity="7.2385348379611969e-02" nType="-99"/>
                </Node>
                <Node pos="r" depth="5" NCoef="0" IVar="-1" Cut="0.0000000000000000e+00" cType="1" res="-1.8837107345461845e-02" rms="1.6516329348087311e-01" purity="2.8718117624521255e-02" nType="-99"/>
              </Node>
              <Node pos="r" depth="4" NCoef="0" IVar="-1" Cut="0.0000000000000000e+00" cType="1" res="-6.9744726642966270e-03" rms="4.3088823556900024e-01" purity="2.6913991570472717e-01" nType="-99"/>
            </Node>
            <Node pos="r" depth="3" NCoef="0" IVar="0" Cut="6.4506101608276367e-01" cType="1" res="-3.0017605051398277e-02" rms="3.1554856896400452e-01" purity="1.3076660037040710e-01" nType="0">
              <Node pos="l" depth="4" NCoef="0" IVar="1" Cut="7.3121690750122070e-01" cType="1" res="-1.8752451986074448e-02" rms="4.3280300498008728e-01" purity="2.7395093441009521e-01" nType="0">
                <Node pos="l" depth="5" NCoef="0" IVar="-1" Cut="0.0000000000000000e+00" cType="1" res="-9.3249336350709200e-04" rms="4.4564276933670044e-01" purity="3.0375540256500244e-01" nType="-99"/>
                <Node pos="r" depth="5" NCoef="0" IVar="-1" Cut="0.0000000000000000e+00" cType="1" res="-3.9338422939181328e-03" rms="4.1745439171791077e-01" purity="2.4019348621368408e-01" nType="-99"/>
              </Node>
              <Node pos="r" depth="4" NCoef="0" IVar="3" Cut="4.4673448801040649e-01" cType="1" res="-3.5147517919540405e-02" rms="2.4398444592952728e-01" purity="6.5563470125198364e-02" nType="0">
                <Node pos="l" depth="5" NCoef="0" IVar="3" Cut="2.2460712492465973e-01" cType="1" res="-3.3305656164884567e-02" rms="2.2392253577709198e-01" purity="5.4074127227067947e-02" nType="0">
                  <Node pos="l" depth="6" NCoef="0" IVar="-1" Cut="0.0000000000000000e+00" cType="1" res="-1.6109980642795563e-02" rms="1.9898244738578796e-01" purity="4.2378518730401993e-02" nType="-99"/>
                  <Node pos="r" depth="6" NCoef="0" IVar="4" Cut="1.1594035476446152e-01" cType="1" res="-3.0381716787815094e-02" rms="2.3450860381126404e-01" purity="5.9485431760549545e-02" nType="0">
                    <Node pos="l" depth="7" NCoef="0" IVar="-1" Cut="0.0000000000000000e+00" cType="1" res="-1.3851177878677845e-02" rms="2.0488974452018738e-01" purity="4.4362701475620270e-02" nType="-99"/>
                    <Node pos="r" depth="7" NCoef="0" IVar="-1" Cut="0.0000000000000000e+00" cType="1" res="-7.6477783732116222e-03" rms="2.6740702986717224e-01" purity="7.8751564025878906e-02" nType="-99"/>
                  </Node>
                </Node>
                <Node pos="r" depth="5" NCoef="0" IVar="-1" Cut="0.0000000000000000e+00" cType="1" res="-8.6115915328264236e-03" rms="3.3436509966850281e-01" purity="1.2969376146793365e-01" nType="-99"/>
              </Node>
            </Node>
          </Node>
        </Node>
        <Node pos="r" depth="1" NCoef="0" IVar="0" Cut="6.1320698261260986e-01" cType="1" res="3.1739447265863419e-02" rms="4.3641880154609680e-01" purity="7.1872830390930176e-01" nType="0">
          <Node pos="l" depth="2" NCoef="0" IVar="3" Cut="8.8356536626815796e-01" cType="1" res="3.3688511699438095e-02" rms="4.3507575988769531e-01" purity="7.2694110870361328e-01" nType="0">
            <Node pos="l" depth="3" NCoef="0" IVar="1" Cut="4.1280838847160339e-01" cType="1" res="1.9679127261042595e-02" rms="4.7305595874786377e-01" purity="6.3669550418853760e-01" nType="0">
              <Node pos="l" depth="4" NCoef="0" IVar="2" Cut="8.8870864868164062e+01" cType="1" res="2.3955721408128738e-02" rms="4.6911764144897461e-01" purity="6.5912365913391113e-01" nType="0">
                <Node pos="l" depth="5" NCoef="0" IVar="4" Cut="3.4358128905296326e-02" cType="1" res="3.0913613736629486e-02" rms="4.6362319588661194e-01" purity="6.7750859260559082e-01" nType="0">
                  <Node pos="l" depth="6" NCoef="0" IVar="3" Cut="8.0914682149887085e-01" cType="1" res="1.7893975600600243e-02" rms="4.6771842241287231e-01" purity="6.6312915086746216e-01" nType="0">
                    <Node pos="l" depth="7" NCoef="0" IVar="-1" Cut="0.0000000000000000e+00" cType="1" res="-6.1555156207759865e-06" rms="4.8833858966827393e-01" purity="5.9316009283065796e-01" nType="-99"/>
                    <Node pos="r" depth="7" NCoef="0" IVar="-1" Cut="0.0000000000000000e+00" cType="1" res="2.5052258279174566e-03" rms="4.5651927590370178e-01" purity="6.9897830486297607e-01" nType="-99"/>
                  </Node>
                  <Node pos="r" depth="6" NCoef="0" IVar="1" Cut="-1.0642068460583687e-02" cType="1" res="4.6712379902601242e-02" rms="4.5810803771018982e-01" purity="6.9495725631713867e-01" nType="0">
                    <Node pos="l" depth="7" NCoef="0" IVar="-1" Cut="0.0000000000000000e+00" cType="1" res="4.5717163011431694e-03" rms="4.4975399971008301e-01" purity="7.1505719423294067e-01" nType="-99"/>
                    <Node pos="r" depth="7" NCoef="0" IVar="-1" Cut="0.0000000000000000e+00" cType="1" res="3.1139778438955545e-03" rms="4.6703130006790161e-01" purity="6.7260992527008057e-01" nType="-99"/>
                  </Node>
                </Node>
                <Node pos="r" depth="5" NCoef="0" IVar="4" Cut="4.0030900388956070e-02" cType="1" res="1.7096742987632751e-02" rms="4.7437182068824768e-01" purity="6.4100009202957153e-01" nType="0">
                  <Node pos="l" depth="6" NCoef="0" IVar="-1" Cut="0.0000000000000000e+00" cType="1" res="-3.7138734478503466e-04" rms="4.7488108277320862e-01" purity="6.3374668359756470e-01" nType="-99"/>
                  <Node pos="r" depth="6" NCoef="0" IVar="3" Cut="7.5598627328872681e-01" cType="1" res="2.2593772038817406e-02" rms="4.7408479452133179e-01" purity="6.4290648698806763e-01" nType="0">
                    <Node pos="l" depth="7" NCoef="0" IVar="-1" Cut="0.0000000000000000e+00" cType="1" res="2.1891594224143773e-04" rms="4.9340084195137024e-01" purity="5.6289190053939819e-01" nType="-99"/>
                    <Node pos="r" depth="7" NCoef="0" IVar="-1" Cut="0.0000000000000000e+00" cType="1" res="2.6615273673087358e-03" rms="4.6725419163703918e-01" purity="6.6966438293457031e-01" nType="-99"/>
                  </Node>
                </Node>
              </Node>
              <Node pos="r" depth="4" NCoef="0" IVar="4" Cut="3.6403916776180267e-02" cType="1" res="-1.5062298625707626e-03" rms="4.9155256152153015e-01" purity="5.2559095621109009e-01" nType="0">
                <Node pos="l" depth="5" NCoef="0" IVar="-1" Cut="0.0000000000000000e+00" cType="1" res="-2.6715451385825872e-03" rms="4.9160289764404297e-01" purity="5.0345420837402344e-01" nType="-99"/>
                <Node pos="r" depth="5" NCoef="0" IVar="-1" Cut="0.0000000000000000e+00" cType="1" res="1.1805593967437744e-03" rms="4.9081826210021973e-01" purity="5.3764444589614868e-01" nType="-99"/>
              </Node>
            </Node>
            <Node pos="r" depth="3" NCoef="0" IVar="1" Cut="3.2599627971649170e-01" cType="1" res="4.1235074400901794e-02" rms="4.1297534108161926e-01" purity="7.7555459737777710e-01" nType="0">
              <Node pos="l" depth="4" NCoef="0" IVar="3" Cut="1.0270916223526001e+00" cType="1" res="4.5512612909078598e-02" rms="4.0273219347000122e-01" purity="7.9422098398208618e-01" nType="0">
                <Node pos="l" depth="5" NCoef="0" IVar="3" Cut="9.9931198358535767e-01" cType="1" res="4.6874355524778366e-02" rms="4.0202027559280396e-01" purity="7.9556852579116821e-01" nType="0">
                  <Node pos="l" depth="6" NCoef="0" IVar="4" Cut="1.2193093076348305e-02" cType="1" res="4.3603062629699707e-02" rms="4.0876132249832153e-01" purity="7.8603291511535645e-01" nType="0">
                    <Node pos="l" depth="7" NCoef="0" IVar="-1" Cut="0.0000000000000000e+00" cType="1" res="4.3866680935025215e-03" rms="4.0672531723976135e-01" purity="7.8880995512008667e-01" nType="-99"/>
                    <Node pos="r" depth="7" NCoef="0" IVar="-1" Cut="0.0000000000000000e+00" cType="1" res="5.4444856941699982e-03" rms="4.1733598709106445e-01" purity="7.7412253618240356e-01" nType="-99"/>
                  </Node>
                  <Node pos="r" depth="6" NCoef="0" IVar="3" Cut="1.0011043548583984e+00" cType="1" res="5.2446592599153519e-02" rms="3.9020663499832153e-01" purity="8.1181120872497559e-01" nType="0">
                    <Node pos="l" depth="7" NCoef="0" IVar="-1" Cut="0.0000000000000000e+00" cType="1" res="4.4955480843782425e-03" rms="3.9875432848930359e-01" purity="8.0045276880264282e-01" nType="-99"/>
                    <Node pos="r" depth="7" NCoef="0" IVar="-1" Cut="0.0000000000000000e+00" cType="1" res="5.6968438439071178e-03" rms="3.8729196786880493e-01" purity="8.1557548046112061e-01" nType="-99"/>
                  </Node>
                </Node>
                <Node pos="r" depth="5" NCoef="0" IVar="-1" Cut="0.0000000000000000e+00" cType="1" res="3.1383789610117674e-03" rms="4.0991106629371643e-01" purity="7.7996432781219482e-01" nType="-99"/>
              </Node>
              <Node pos="r" depth="4" NCoef="0" IVar="3" Cut="9.8921477794647217e-01" cType="1" res="2.3263407871127129e-02" rms="4.5304888486862183e-01" purity="6.9712966680526733e-01" nType="0">
                <Node pos="l" depth="5" NCoef="0" IVar="-1" Cut="0.0000000000000000e+00" cType="1" res="-7.1689061587676406e-04" rms="4.7824257612228394e-01" purity="6.2723749876022339e-01" nType="-99"/>
                <Node pos="r" depth="5" NCoef="0" IVar="1" Cut="6.3723236322402954e-01" cType="1" res="3.3462848514318466e-02" rms="4.4398233294487000e-01" purity="7.2010415792465210e-01" nType="0">
                  <Node pos="l" depth="6" NCoef="0" IVar="1" Cut="4.2638725042343140e-01" cType="1" res="4.0432076901197433e-02" rms="4.2318239808082581e-01" purity="7.6259279251098633e-01" nType="0">
                    <Node pos="l" depth="7" NCoef="0" IVar="-1" Cut="0.0000000000000000e+00" cType="1" res="4.4232206419110298e-03" rms="4.1428259015083313e-01" purity="7.7713465690612793e-01" nType="-99"/>
                    <Node pos="r" depth="7" NCoef="0" IVar="-1" Cut="0.0000000000000000e+00" cType="1" res="3.3047541510313749e-03" rms="4.3021959066390991e-01" purity="7.5078690052032471e-01" nType="-99"/>
                  </Node>
                  <Node pos="r" depth="6" NCoef="0" IVar="-1" Cut="0.0000000000000000e+00" cType="1" res="2.0502887200564146e-03" rms="4.6945738792419434e-01" purity="6.6494709253311157e-01" nType="-99"/>
                </Node>
              </Node>
            </Node>
          </Node>
          <Node pos="r" depth="2" NCoef="0" IVar="-1" Cut="0.0000000000000000e+00" cType="1" res="-4.2575858533382416e-03" rms="4.8099759221076965e-01" purity="3.8727173209190369e-01" nType="-99"/>
        </Node>
      </Node>
    </BinaryTree>
    <BinaryTree type="DecisionTree" boostWeight="1.0000000000000000e+00" itree="51">
      <Node pos="s" depth="0" NCoef="0" IVar="3" Cut="7.7976024150848389e-01" cType="1" res="9.6476580947637558e-03" rms="4.1128212213516235e-01" purity="5.0058996677398682e-01" nType="0">
        <Node pos="l" depth="1" NCoef="0" IVar="3" Cut="5.0702184438705444e-01" cType="1" res="-1.4566448517143726e-02" rms="3.9088273048400879e-01" purity="2.5895011425018311e-01" nType="0">
          <Node pos="l" depth="2" NCoef="0" IVar="4" Cut="2.6924476027488708e-01" cType="1" res="-2.5294082239270210e-02" rms="2.9528057575225830e-01" purity="1.0418617725372314e-01" nType="0">
            <Node pos="l" depth="3" NCoef="0" IVar="2" Cut="1.4971466064453125e+02" cType="1" res="-2.7126828208565712e-02" rms="2.8905227780342102e-01" purity="9.9046029150485992e-02" nType="0">
              <Node pos="l" depth="4" NCoef="0" IVar="4" Cut="7.3390841484069824e-02" cType="1" res="-1.9730158150196075e-02" rms="2.8687918186187744e-01" purity="9.7167059779167175e-02" nType="0">
                <Node pos="l" depth="5" NCoef="0" IVar="1" Cut="9.0282148122787476e-01" cType="1" res="-3.0835013836622238e-02" rms="2.5554588437080383e-01" purity="7.3286630213260651e-02" nType="0">
                  <Node pos="l" depth="6" NCoef="0" IVar="2" Cut="5.3486972808837891e+01" cType="1" res="-3.4964360296726227e-02" rms="2.6117008924484253e-01" purity="7.7333584427833557e-02" nType="0">
                    <Node pos="l" depth="7" NCoef="0" IVar="-1" Cut="0.0000000000000000e+00" cType="1" res="-5.5935280397534370e-03" rms="3.0181765556335449e-01" purity="1.0717949271202087e-01" nType="-99"/>
                    <Node pos="r" depth="7" NCoef="0" IVar="-1" Cut="0.0000000000000000e+00" cType="1" res="-1.2203876860439777e-02" rms="2.4138192832469940e-01" purity="6.4493834972381592e-02" nType="-99"/>
                  </Node>
                  <Node pos="r" depth="6" NCoef="0" IVar="-1" Cut="0.0000000000000000e+00" cType="1" res="-7.7714356593787670e-03" rms="2.4042186141014099e-01" purity="6.3052885234355927e-02" nType="-99"/>
                </Node>
                <Node pos="r" depth="5" NCoef="0" IVar="1" Cut="5.0149577856063843e-01" cType="1" res="-1.5652391593903303e-03" rms="3.3101266622543335e-01" purity="1.3622978329658508e-01" nType="0">
                  <Node pos="l" depth="6" NCoef="0" IVar="-1" Cut="0.0000000000000000e+00" cType="1" res="2.6050340384244919e-03" rms="3.6930802464485168e-01" purity="1.7671546339988708e-01" nType="-99"/>
                  <Node pos="r" depth="6" NCoef="0" IVar="-1" Cut="0.0000000000000000e+00" cType="1" res="-7.5999377295374870e-03" rms="2.6498553156852722e-01" purity="7.7951207756996155e-02" nType="-99"/>
                </Node>
              </Node>
              <Node pos="r" depth="4" NCoef="0" IVar="4" Cut="8.8420227169990540e-02" cType="1" res="-3.0504018068313599e-02" rms="2.8997632861137390e-01" purity="9.9903941154479980e-02" nType="0">
                <Node pos="l" depth="5" NCoef="0" IVar="2" Cut="2.5773553466796875e+02" cType="1" res="-4.1478075087070465e-02" rms="2.1369706094264984e-01" purity="4.9448486417531967e-02" nType="0">
                  <Node pos="l" depth="6" NCoef="0" IVar="2" Cut="1.8804014587402344e+02" cType="1" res="-3.7274625152349472e-02" rms="2.1986548602581024e-01" purity="5.2822023630142212e-02" nType="0">
                    <Node pos="l" depth="7" NCoef="0" IVar="-1" Cut="0.0000000000000000e+00" cType="1" res="-1.4169939793646336e-02" rms="2.1420726180076599e-01" purity="5.0187353044748306e-02" nType="-99"/>
                    <Node pos="r" depth="7" NCoef="0" IVar="-1" Cut="0.0000000000000000e+00" cType="1" res="-1.1884439736604691e-02" rms="2.2382916510105133e-01" purity="5.4728925228118896e-02" nType="-99"/>
                  </Node>
                  <Node pos="r" depth="6" NCoef="0" IVar="-1" Cut="0.0000000000000000e+00" cType="1" res="-1.5263205394148827e-02" rms="2.0299655199050903e-01" purity="4.3920408934354782e-02" nType="-99"/>
                </Node>
                <Node pos="r" depth="5" NCoef="0" IVar="3" Cut="4.7506892681121826e-01" cType="1" res="-2.7266535907983780e-02" rms="3.0882775783538818e-01" purity="1.1478891223669052e-01" nType="0">
                  <Node pos="l" depth="6" NCoef="0" IVar="2" Cut="7.7988214111328125e+02" cType="1" res="-2.9615759849548340e-02" rms="2.9603207111358643e-01" purity="1.0302148014307022e-01" nType="0">
                    <Node pos="l" depth="7" NCoef="0" IVar="-1" Cut="0.0000000000000000e+00" cType="1" res="-6.9800456985831261e-03" rms="2.9366898536682129e-01" purity="1.0152842849493027e-01" nType="-99"/>
                    <Node pos="r" depth="7" NCoef="0" IVar="-1" Cut="0.0000000000000000e+00" cType="1" res="-9.2368246987462044e-03" rms="3.1561926007270813e-01" purity="1.1629378795623779e-01" nType="-99"/>
                  </Node>
                  <Node pos="r" depth="6" NCoef="0" IVar="-1" Cut="0.0000000000000000e+00" cType="1" res="-1.5782030823174864e-04" rms="4.2501002550125122e-01" purity="2.4554742872714996e-01" nType="-99"/>
                </Node>
              </Node>
            </Node>
            <Node pos="r" depth="3" NCoef="0" IVar="-1" Cut="0.0000000000000000e+00" cType="1" res="2.0826505497097969e-03" rms="4.0034124255180359e-01" purity="2.0949356257915497e-01" nType="-99"/>
          </Node>
          <Node pos="r" depth="2" NCoef="0" IVar="1" Cut="1.0051903724670410e+00" cType="1" res="-3.0168341472744942e-03" rms="4.7239503264427185e-01" purity="4.2557248473167419e-01" nType="0">
            <Node pos="l" depth="3" NCoef="0" IVar="1" Cut="1.1625528335571289e-02" cType="1" res="1.5663084341213107e-03" rms="4.7604387998580933e-01" purity="4.3862158060073853e-01" nType="0">
              <Node pos="l" depth="4" NCoef="0" IVar="2" Cut="1.5367112731933594e+02" cType="1" res="1.5385827980935574e-02" rms="4.8248657584190369e-01" purity="4.8966777324676514e-01" nType="0">
                <Node pos="l" depth="5" NCoef="0" IVar="4" Cut="3.2499946653842926e-02" cType="1" res="2.5159277021884918e-02" rms="4.8245665431022644e-01" purity="5.2799272537231445e-01" nType="0">
                  <Node pos="l" depth="6" NCoef="0" IVar="-1" Cut="0.0000000000000000e+00" cType="1" res="-2.5693231145851314e-04" rms="4.7982722520828247e-01" purity="4.9427902698516846e-01" nType="-99"/>
                  <Node pos="r" depth="6" NCoef="0" IVar="5" Cut="3.0000000000000000e+00" cType="1" res="3.4350469708442688e-02" rms="4.8238551616668701e-01" purity="5.3878730535507202e-01" nType="0">
                    <Node pos="l" depth="7" NCoef="0" IVar="-1" Cut="0.0000000000000000e+00" cType="1" res="1.1831718729808927e-03" rms="4.8756080865859985e-01" purity="5.3041332960128784e-01" nType="-99"/>
                    <Node pos="r" depth="7" NCoef="0" IVar="-1" Cut="0.0000000000000000e+00" cType="1" res="3.7338824477046728e-03" rms="4.8065778613090515e-01" purity="5.4246401786804199e-01" nType="-99"/>
                  </Node>
                </Node>
                <Node pos="r" depth="5" NCoef="0" IVar="4" Cut="8.6537852883338928e-02" cType="1" res="4.2090206407010555e-03" rms="4.8227807879447937e-01" purity="4.4583973288536072e-01" nType="0">
                  <Node pos="l" depth="6" NCoef="0" IVar="3" Cut="6.8294960260391235e-01" cType="1" res="-8.8024539873003960e-03" rms="4.7915843129158020e-01" purity="4.4487085938453674e-01" nType="0">
                    <Node pos="l" depth="7" NCoef="0" IVar="-1" Cut="0.0000000000000000e+00" cType="1" res="-2.1203218493610620e-03" rms="4.6308615803718567e-01" purity="3.4114840626716614e-01" nType="-99"/>
                    <Node pos="r" depth="7" NCoef="0" IVar="-1" Cut="0.0000000000000000e+00" cType="1" res="1.3800128363072872e-04" rms="4.9360018968582153e-01" purity="5.4259288311004639e-01" nType="-99"/>
                  </Node>
                  <Node pos="r" depth="6" NCoef="0" IVar="2" Cut="3.3811929321289062e+02" cType="1" res="1.5020142309367657e-02" rms="4.8458924889564514e-01" purity="4.4664472341537476e-01" nType="0">
                    <Node pos="l" depth="7" NCoef="0" IVar="-1" Cut="0.0000000000000000e+00" cType="1" res="2.1588113158941269e-03" rms="4.8705947399139404e-01" purity="4.7243523597717285e-01" nType="-99"/>
                    <Node pos="r" depth="7" NCoef="0" IVar="-1" Cut="0.0000000000000000e+00" cType="1" res="5.7019246742129326e-04" rms="4.8168951272964478e-01" purity="4.1831335425376892e-01" nType="-99"/>
                  </Node>
                </Node>
              </Node>
              <Node pos="r" depth="4" NCoef="0" IVar="5" Cut="3.0000000000000000e+00" cType="1" res="-8.5339006036520004e-03" rms="4.6969780325889587e-01" purity="3.9795553684234619e-01" nType="0">
                <Node pos="l" depth="5" NCoef="0" IVar="3" Cut="7.0938754081726074e-01" cType="1" res="-2.4866912513971329e-02" rms="4.7283011674880981e-01" purity="4.0081137418746948e-01" nType="0">
                  <Node pos="l" depth="6" NCoef="0" IVar="-1" Cut="0.0000000000000000e+00" cType="1" res="-4.1795102879405022e-03" rms="4.4972869753837585e-01" purity="3.0574834346771240e-01" nType="-99"/>
                  <Node pos="r" depth="6" NCoef="0" IVar="-1" Cut="0.0000000000000000e+00" cType="1" res="-8.3560874918475747e-04" rms="4.9541363120079041e-01" purity="5.0030398368835449e-01" nType="-99"/>
                </Node>
                <Node pos="r" depth="5" NCoef="0" IVar="3" Cut="6.0378366708755493e-01" cType="1" res="-3.3000912517309189e-03" rms="4.6950873732566833e-01" purity="3.9681810140609741e-01" nType="0">
                  <Node pos="l" depth="6" NCoef="0" IVar="5" Cut="4.0000000000000000e+00" cType="1" res="-1.4231852255761623e-02" rms="4.3624496459960938e-01" purity="2.7711156010627747e-01" nType="0">
                    <Node pos="l" depth="7" NCoef="0" IVar="-1" Cut="0.0000000000000000e+00" cType="1" res="-3.7207419518381357e-03" rms="4.2417219281196594e-01" purity="2.4932859838008881e-01" nType="-99"/>
                    <Node pos="r" depth="7" NCoef="0" IVar="-1" Cut="0.0000000000000000e+00" cType="1" res="-5.8472907403483987e-04" rms="4.4800758361816406e-01" purity="2.9671365022659302e-01" nType="-99"/>
                  </Node>
                  <Node pos="r" depth="6" NCoef="0" IVar="0" Cut="2.1520812809467316e-01" cType="1" res="4.9169412814080715e-03" rms="4.8928961157798767e-01" purity="4.7809958457946777e-01" nType="0">
                    <Node pos="l" depth="7" NCoef="0" IVar="-1" Cut="0.0000000000000000e+00" cType="1" res="1.2700667139142752e-03" rms="4.9432685971260071e-01" purity="5.4188221693038940e-01" nType="-99"/>
                    <Node pos="r" depth="7" NCoef="0" IVar="-1" Cut="0.0000000000000000e+00" cType="1" res="-7.0212245918810368e-04" rms="4.8269963264465332e-01" purity="3.9903581142425537e-01" nType="-99"/>
                  </Node>
                </Node>
              </Node>
            </Node>
            <Node pos="r" depth="3" NCoef="0" IVar="-1" Cut="0.0000000000000000e+00" cType="1" res="-9.0634012594819069e-03" rms="4.0526220202445984e-01" purity="2.2360636293888092e-01" nType="-99"/>
          </Node>
        </Node>
        <Node pos="r" depth="1" NCoef="0" IVar="0" Cut="5.5713766813278198e-01" cType="1" res="3.3511113375425339e-02" rms="4.2910647392272949e-01" purity="7.3873054981231689e-01" nType="0">
          <Node pos="l" depth="2" NCoef="0" IVar="0" Cut="1.7965627834200859e-02" cType="1" res="3.5350233316421509e-02" rms="4.2746350169181824e-01" purity="7.4722766876220703e-01" nType="0">
            <Node pos="l" depth="3" NCoef="0" IVar="1" Cut="1.8640251457691193e-01" cType="1" res="3.8583032786846161e-02" rms="4.2226570844650269e-01" purity="7.5915211439132690e-01" nType="0">
              <Node pos="l" depth="4" NCoef="0" IVar="2" Cut="9.6283401489257812e+01" cType="1" res="4.2635589838027954e-02" rms="4.1043591499328613e-01" purity="7.8190803527832031e-01" nType="0">
                <Node pos="l" depth="5" NCoef="0" IVar="1" Cut="-1.3301521539688110e-01" cType="1" res="4.5194149017333984e-02" rms="4.0422436594963074e-01" purity="7.9186904430389404e-01" nType="0">
                  <Node pos="l" depth="6" NCoef="0" IVar="3" Cut="9.8989003896713257e-01" cType="1" res="3.4701336175203323e-02" rms="4.1003406047821045e-01" purity="7.8393381834030151e-01" nType="0">
                    <Node pos="l" depth="7" NCoef="0" IVar="-1" Cut="0.0000000000000000e+00" cType="1" res="2.1263640373945236e-03" rms="4.3628758192062378e-01" purity="7.4203747510910034e-01" nType="-99"/>
                    <Node pos="r" depth="7" NCoef="0" IVar="-1" Cut="0.0000000000000000e+00" cType="1" res="4.0964507497847080e-03" rms="3.9673662185668945e-01" purity="8.0397701263427734e-01" nType="-99"/>
                  </Node>
                  <Node pos="r" depth="6" NCoef="0" IVar="1" Cut="9.3663103878498077e-02" cType="1" res="4.8748556524515152e-02" rms="4.0217524766921997e-01" purity="7.9455715417861938e-01" nType="0">
                    <Node pos="l" depth="7" NCoef="0" IVar="-1" Cut="0.0000000000000000e+00" cType="1" res="5.3799967281520367e-03" rms="3.9857834577560425e-01" purity="7.9961204528808594e-01" nType="-99"/>
                    <Node pos="r" depth="7" NCoef="0" IVar="-1" Cut="0.0000000000000000e+00" cType="1" res="3.4939239267259836e-03" rms="4.1770982742309570e-01" purity="7.7176034450531006e-01" nType="-99"/>
                  </Node>
                </Node>
                <Node pos="r" depth="5" NCoef="0" IVar="4" Cut="4.0904447436332703e-02" cType="1" res="2.5318050757050514e-02" rms="4.4984886050224304e-01" purity="7.1448677778244019e-01" nType="0">
                  <Node pos="l" depth="6" NCoef="0" IVar="-1" Cut="0.0000000000000000e+00" cType="1" res="1.9725335296243429e-03" rms="4.4256308674812317e-01" purity="7.2864454984664917e-01" nType="-99"/>
                  <Node pos="r" depth="6" NCoef="0" IVar="2" Cut="1.8636100769042969e+02" cType="1" res="2.9226258397102356e-02" rms="4.5387563109397888e-01" purity="7.0647066831588745e-01" nType="0">
                    <Node pos="l" depth="7" NCoef="0" IVar="-1" Cut="0.0000000000000000e+00" cType="1" res="3.3356358762830496e-03" rms="4.4630530476570129e-01" purity="7.2341108322143555e-01" nType="-99"/>
                    <Node pos="r" depth="7" NCoef="0" IVar="-1" Cut="0.0000000000000000e+00" cType="1" res="1.9383366452530026e-03" rms="4.6320572495460510e-01" purity="6.8480402231216431e-01" nType="-99"/>
                  </Node>
                </Node>
              </Node>
              <Node pos="r" depth="4" NCoef="0" IVar="3" Cut="9.9069374799728394e-01" cType="1" res="2.8787627816200256e-02" rms="4.4942489266395569e-01" purity="7.0414906740188599e-01" nType="0">
                <Node pos="l" depth="5" NCoef="0" IVar="4" Cut="3.7713609635829926e-02" cType="1" res="1.8285579979419708e-02" rms="4.7079831361770630e-01" purity="6.5090745687484741e-01" nType="0">
                  <Node pos="l" depth="6" NCoef="0" IVar="1" Cut="4.9689847230911255e-01" cType="1" res="6.2375604175031185e-03" rms="4.6901357173919678e-01" purity="6.5239530801773071e-01" nType="0">
                    <Node pos="l" depth="7" NCoef="0" IVar="-1" Cut="0.0000000000000000e+00" cType="1" res="2.3902209941297770e-03" rms="4.5272096991539001e-01" purity="7.0853972434997559e-01" nType="-99"/>
                    <Node pos="r" depth="7" NCoef="0" IVar="-1" Cut="0.0000000000000000e+00" cType="1" res="-2.0555781666189432e-03" rms="4.9178570508956909e-01" purity="5.6516736745834351e-01" nType="-99"/>
                  </Node>
                  <Node pos="r" depth="6" NCoef="0" IVar="2" Cut="1.5570423889160156e+02" cType="1" res="3.8805544376373291e-02" rms="4.7311687469482422e-01" purity="6.4837330579757690e-01" nType="0">
                    <Node pos="l" depth="7" NCoef="0" IVar="-1" Cut="0.0000000000000000e+00" cType="1" res="3.7847249768674374e-03" rms="4.6779519319534302e-01" purity="6.6536128520965576e-01" nType="-99"/>
                    <Node pos="r" depth="7" NCoef="0" IVar="-1" Cut="0.0000000000000000e+00" cType="1" res="2.6522411499172449e-03" rms="4.7855126857757568e-01" purity="6.3026499748229980e-01" nType="-99"/>
                  </Node>
                </Node>
                <Node pos="r" depth="5" NCoef="0" IVar="1" Cut="8.1704455614089966e-01" cType="1" res="3.7548508495092392e-02" rms="4.3058857321739197e-01" purity="7.4856358766555786e-01" nType="0">
                  <Node pos="l" depth="6" NCoef="0" IVar="1" Cut="2.6777958869934082e-01" cType="1" res="3.9545092731714249e-02" rms="4.1886627674102783e-01" purity="7.7196091413497925e-01" nType="0">
                    <Node pos="l" depth="7" NCoef="0" IVar="-1" Cut="0.0000000000000000e+00" cType="1" res="4.6330983750522137e-03" rms="4.0174353122711182e-01" purity="7.9739874601364136e-01" nType="-99"/>
                    <Node pos="r" depth="7" NCoef="0" IVar="-1" Cut="0.0000000000000000e+00" cType="1" res="3.5330466926097870e-03" rms="4.2452907562255859e-01" purity="7.6328718662261963e-01" nType="-99"/>
                  </Node>
                  <Node pos="r" depth="6" NCoef="0" IVar="-1" Cut="0.0000000000000000e+00" cType="1" res="2.4346786085516214e-03" rms="4.7494533658027649e-01" purity="6.5399354696273804e-01" nType="-99"/>
                </Node>
              </Node>
            </Node>
            <Node pos="r" depth="3" NCoef="0" IVar="1" Cut="1.9635096192359924e-01" cType="1" res="-5.4470519535243511e-04" rms="4.7995918989181519e-01" purity="6.1482650041580200e-01" nType="0">
              <Node pos="l" depth="4" NCoef="0" IVar="2" Cut="4.3594383239746094e+01" cType="1" res="1.6427552327513695e-02" rms="4.7384738922119141e-01" purity="6.5034955739974976e-01" nType="0">
                <Node pos="l" depth="5" NCoef="0" IVar="-1" Cut="0.0000000000000000e+00" cType="1" res="3.2970686443150043e-03" rms="4.6137642860412598e-01" purity="6.8932652473449707e-01" nType="-99"/>
                <Node pos="r" depth="5" NCoef="0" IVar="-1" Cut="0.0000000000000000e+00" cType="1" res="-4.2870870674960315e-04" rms="4.8607489466667175e-01" purity="6.0830217599868774e-01" nType="-99"/>
              </Node>
              <Node pos="r" depth="4" NCoef="0" IVar="-1" Cut="0.0000000000000000e+00" cType="1" res="-3.3142082393169403e-03" rms="4.9064320325851440e-01" purity="5.4020148515701294e-01" nType="-99"/>
            </Node>
          </Node>
          <Node pos="r" depth="2" NCoef="0" IVar="-1" Cut="0.0000000000000000e+00" cType="1" res="-3.4944803919643164e-03" rms="4.8376122117042542e-01" purity="4.0522763133049011e-01" nType="-99"/>
        </Node>
      </Node>
    </BinaryTree>
    <BinaryTree type="DecisionTree" boostWeight="1.0000000000000000e+00" itree="52">
      <Node pos="s" depth="0" NCoef="0" IVar="3" Cut="7.1270596981048584e-01" cType="1" res="8.4138978272676468e-03" rms="4.1216138005256653e-01" purity="4.9912029504776001e-01" nType="0">
        <Node pos="l" depth="1" NCoef="0" IVar="1" Cut="-1.8844728171825409e-01" cType="1" res="-1.6342012211680412e-02" rms="3.7337723374366760e-01" purity="2.1133625507354736e-01" nType="0">
          <Node pos="l" depth="2" NCoef="0" IVar="3" Cut="3.5379701852798462e-01" cType="1" res="1.2912184000015259e-02" rms="4.1253721714019775e-01" purity="2.8011414408683777e-01" nType="0">
            <Node pos="l" depth="3" NCoef="0" IVar="-1" Cut="0.0000000000000000e+00" cType="1" res="-5.4745716042816639e-03" rms="2.9043644666671753e-01" purity="1.0112206637859344e-01" nType="-99"/>
            <Node pos="r" depth="3" NCoef="0" IVar="5" Cut="4.0000000000000000e+00" cType="1" res="2.8325067833065987e-02" rms="4.5644715428352356e-01" purity="3.6173588037490845e-01" nType="0">
              <Node pos="l" depth="4" NCoef="0" IVar="-1" Cut="0.0000000000000000e+00" cType="1" res="8.9145445963367820e-04" rms="4.6317470073699951e-01" purity="3.8568419218063354e-01" nType="-99"/>
              <Node pos="r" depth="4" NCoef="0" IVar="-1" Cut="0.0000000000000000e+00" cType="1" res="6.0048801824450493e-03" rms="4.4895517826080322e-01" purity="3.3655515313148499e-01" nType="-99"/>
            </Node>
          </Node>
          <Node pos="r" depth="2" NCoef="0" IVar="1" Cut="4.6821761131286621e-01" cType="1" res="-1.9412273541092873e-02" rms="3.6889198422431946e-01" purity="2.0411793887615204e-01" nType="0">
            <Node pos="l" depth="3" NCoef="0" IVar="3" Cut="6.4480865001678467e-01" cType="1" res="-1.2936353683471680e-02" rms="3.9715808629989624e-01" purity="2.4729788303375244e-01" nType="0">
              <Node pos="l" depth="4" NCoef="0" IVar="2" Cut="2.1005943298339844e+02" cType="1" res="-1.7617767676711082e-02" rms="3.7469273805618286e-01" purity="1.9815015792846680e-01" nType="0">
                <Node pos="l" depth="5" NCoef="0" IVar="1" Cut="-1.8988121300935745e-02" cType="1" res="-1.0726955719292164e-02" rms="3.8952967524528503e-01" purity="2.2585402429103851e-01" nType="0">
                  <Node pos="l" depth="6" NCoef="0" IVar="4" Cut="6.3391380012035370e-02" cType="1" res="6.6499025560915470e-03" rms="4.2057892680168152e-01" purity="2.8472894430160522e-01" nType="0">
                    <Node pos="l" depth="7" NCoef="0" IVar="-1" Cut="0.0000000000000000e+00" cType="1" res="-1.9991160370409489e-03" rms="4.0019512176513672e-01" purity="2.4650692939758301e-01" nType="-99"/>
                    <Node pos="r" depth="7" NCoef="0" IVar="-1" Cut="0.0000000000000000e+00" cType="1" res="2.5895463768392801e-03" rms="4.3314287066459656e-01" purity="3.1037998199462891e-01" nType="-99"/>
                  </Node>
                  <Node pos="r" depth="6" NCoef="0" IVar="2" Cut="5.5006523132324219e+01" cType="1" res="-1.8371671438217163e-02" rms="3.7480163574218750e-01" purity="1.9995281100273132e-01" nType="0">
                    <Node pos="l" depth="7" NCoef="0" IVar="-1" Cut="0.0000000000000000e+00" cType="1" res="8.9381763245910406e-04" rms="4.0895444154739380e-01" purity="2.4584831297397614e-01" nType="-99"/>
                    <Node pos="r" depth="7" NCoef="0" IVar="-1" Cut="0.0000000000000000e+00" cType="1" res="-3.7409076467156410e-03" rms="3.6789980530738831e-01" purity="1.9139510393142700e-01" nType="-99"/>
                  </Node>
                </Node>
                <Node pos="r" depth="5" NCoef="0" IVar="4" Cut="8.2470133900642395e-02" cType="1" res="-2.3730915039777756e-02" rms="3.6091002821922302e-01" purity="1.7357283830642700e-01" nType="0">
                  <Node pos="l" depth="6" NCoef="0" IVar="-1" Cut="0.0000000000000000e+00" cType="1" res="-8.4629021584987640e-03" rms="3.2322818040847778e-01" purity="1.3417756557464600e-01" nType="-99"/>
                  <Node pos="r" depth="6" NCoef="0" IVar="2" Cut="4.6173690795898438e+02" cType="1" res="-2.0131526514887810e-02" rms="3.6648806929588318e-01" purity="1.7991602420806885e-01" nType="0">
                    <Node pos="l" depth="7" NCoef="0" IVar="-1" Cut="0.0000000000000000e+00" cType="1" res="-2.2020072210580111e-03" rms="3.7184074521064758e-01" purity="1.9070513546466827e-01" nType="-99"/>
                    <Node pos="r" depth="7" NCoef="0" IVar="-1" Cut="0.0000000000000000e+00" cType="1" res="-5.0428058020770550e-03" rms="3.5925173759460449e-01" purity="1.6600033640861511e-01" nType="-99"/>
                  </Node>
                </Node>
              </Node>
              <Node pos="r" depth="4" NCoef="0" IVar="1" Cut="-6.1390511691570282e-02" cType="1" res="1.0110642760992050e-02" rms="4.9240359663963318e-01" purity="4.8925623297691345e-01" nType="0">
                <Node pos="l" depth="5" NCoef="0" IVar="-1" Cut="0.0000000000000000e+00" cType="1" res="3.4899308811873198e-03" rms="4.9103561043739319e-01" purity="5.4372692108154297e-01" nType="-99"/>
                <Node pos="r" depth="5" NCoef="0" IVar="4" Cut="7.6995439827442169e-02" cType="1" res="-1.0196344228461385e-03" rms="4.9243086576461792e-01" purity="4.6939581632614136e-01" nType="0">
                  <Node pos="l" depth="6" NCoef="0" IVar="-1" Cut="0.0000000000000000e+00" cType="1" res="-1.0600280947983265e-03" rms="4.9080130457878113e-01" purity="4.4627359509468079e-01" nType="-99"/>
                  <Node pos="r" depth="6" NCoef="0" IVar="-1" Cut="0.0000000000000000e+00" cType="1" res="1.2498217402026057e-03" rms="4.9439126253128052e-01" purity="5.0316619873046875e-01" nType="-99"/>
                </Node>
              </Node>
            </Node>
            <Node pos="r" depth="3" NCoef="0" IVar="4" Cut="8.9161142706871033e-02" cType="1" res="-3.2325845211744308e-02" rms="3.0438849329948425e-01" purity="1.1801323294639587e-01" nType="0">
              <Node pos="l" depth="4" NCoef="0" IVar="3" Cut="5.7720494270324707e-01" cType="1" res="-4.0339611470699310e-02" rms="2.9073524475097656e-01" purity="1.0669880360364914e-01" nType="0">
                <Node pos="l" depth="5" NCoef="0" IVar="1" Cut="1.3866378068923950e+00" cType="1" res="-3.4439332783222198e-02" rms="2.4043744802474976e-01" purity="6.4639173448085785e-02" nType="0">
                  <Node pos="l" depth="6" NCoef="0" IVar="4" Cut="4.0833204984664917e-02" cType="1" res="-3.9167918264865875e-02" rms="2.3759675025939941e-01" purity="6.3869342207908630e-02" nType="0">
                    <Node pos="l" depth="7" NCoef="0" IVar="-1" Cut="0.0000000000000000e+00" cType="1" res="-1.5610058791935444e-02" rms="2.1887229382991791e-01" purity="5.2892237901687622e-02" nType="-99"/>
                    <Node pos="r" depth="7" NCoef="0" IVar="-1" Cut="0.0000000000000000e+00" cType="1" res="-1.0407681576907635e-02" rms="2.4442373216152191e-01" purity="6.8213798105716705e-02" nType="-99"/>
                  </Node>
                  <Node pos="r" depth="6" NCoef="0" IVar="-1" Cut="0.0000000000000000e+00" cType="1" res="-7.5658941641449928e-03" rms="2.4776817858219147e-01" purity="6.6803991794586182e-02" nType="-99"/>
                </Node>
                <Node pos="r" depth="5" NCoef="0" IVar="-1" Cut="0.0000000000000000e+00" cType="1" res="-6.9688046351075172e-03" rms="4.2710447311401367e-01" purity="2.6175352931022644e-01" nType="-99"/>
              </Node>
              <Node pos="r" depth="4" NCoef="0" IVar="3" Cut="5.3339302539825439e-01" cType="1" res="-2.3838361725211143e-02" rms="3.1799054145812988e-01" purity="1.2999646365642548e-01" nType="0">
                <Node pos="l" depth="5" NCoef="0" IVar="4" Cut="1.5701852738857269e-01" cType="1" res="-2.7089070528745651e-02" rms="2.8206348419189453e-01" purity="9.2504955828189850e-02" nType="0">
                  <Node pos="l" depth="6" NCoef="0" IVar="2" Cut="3.8759143066406250e+02" cType="1" res="-3.4416299313306808e-02" rms="2.4893246591091156e-01" purity="6.9528423249721527e-02" nType="0">
                    <Node pos="l" depth="7" NCoef="0" IVar="-1" Cut="0.0000000000000000e+00" cType="1" res="-9.3912109732627869e-03" rms="2.5670278072357178e-01" purity="7.4350476264953613e-02" nType="-99"/>
                    <Node pos="r" depth="7" NCoef="0" IVar="-1" Cut="0.0000000000000000e+00" cType="1" res="-1.3469826430082321e-02" rms="2.3130355775356293e-01" purity="5.9352990239858627e-02" nType="-99"/>
                  </Node>
                  <Node pos="r" depth="6" NCoef="0" IVar="-1" Cut="0.0000000000000000e+00" cType="1" res="-3.2458761706948280e-03" rms="3.3164799213409424e-01" purity="1.3258436322212219e-01" nType="-99"/>
                </Node>
                <Node pos="r" depth="5" NCoef="0" IVar="-1" Cut="0.0000000000000000e+00" cType="1" res="-7.7444221824407578e-04" rms="4.5980829000473022e-01" purity="3.2240596413612366e-01" nType="-99"/>
              </Node>
            </Node>
          </Node>
        </Node>
        <Node pos="r" depth="1" NCoef="0" IVar="1" Cut="7.1646428108215332e-01" cType="1" res="2.6919681578874588e-02" rms="4.3800798058509827e-01" purity="7.1424746513366699e-01" nType="0">
          <Node pos="l" depth="2" NCoef="0" IVar="5" Cut="2.0000000000000000e+00" cType="1" res="3.0977834016084671e-02" rms="4.3314787745475769e-01" purity="7.2878736257553101e-01" nType="0">
            <Node pos="l" depth="3" NCoef="0" IVar="3" Cut="9.7370105981826782e-01" cType="1" res="3.9453186094760895e-02" rms="4.0721523761749268e-01" purity="7.8420501947402954e-01" nType="0">
              <Node pos="l" depth="4" NCoef="0" IVar="3" Cut="9.4325339794158936e-01" cType="1" res="2.5492459535598755e-02" rms="4.3228924274444580e-01" purity="7.4346363544464111e-01" nType="0">
                <Node pos="l" depth="5" NCoef="0" IVar="-1" Cut="0.0000000000000000e+00" cType="1" res="1.0345308110117912e-03" rms="4.4681099057197571e-01" purity="7.1568125486373901e-01" nType="-99"/>
                <Node pos="r" depth="5" NCoef="0" IVar="-1" Cut="0.0000000000000000e+00" cType="1" res="3.2907784916460514e-03" rms="4.2345276474952698e-01" purity="7.5949668884277344e-01" nType="-99"/>
              </Node>
              <Node pos="r" depth="4" NCoef="0" IVar="0" Cut="1.8473967909812927e-01" cType="1" res="4.1135083884000778e-02" rms="4.0405693650245667e-01" purity="7.8911322355270386e-01" nType="0">
                <Node pos="l" depth="5" NCoef="0" IVar="1" Cut="-2.4424290657043457e-01" cType="1" res="4.2451322078704834e-02" rms="3.9917522668838501e-01" purity="8.0020517110824585e-01" nType="0">
                  <Node pos="l" depth="6" NCoef="0" IVar="-1" Cut="0.0000000000000000e+00" cType="1" res="1.8293306929990649e-03" rms="4.1541323065757751e-01" purity="7.7807331085205078e-01" nType="-99"/>
                  <Node pos="r" depth="6" NCoef="0" IVar="1" Cut="6.5659940242767334e-02" cType="1" res="4.4164910912513733e-02" rms="3.9791285991668701e-01" purity="8.0181640386581421e-01" nType="0">
                    <Node pos="l" depth="7" NCoef="0" IVar="-1" Cut="0.0000000000000000e+00" cType="1" res="5.3726253099739552e-03" rms="3.8565188646316528e-01" purity="8.1811755895614624e-01" nType="-99"/>
                    <Node pos="r" depth="7" NCoef="0" IVar="-1" Cut="0.0000000000000000e+00" cType="1" res="3.5928071010857821e-03" rms="4.1440901160240173e-01" purity="7.7888381481170654e-01" nType="-99"/>
                  </Node>
                </Node>
                <Node pos="r" depth="5" NCoef="0" IVar="-1" Cut="0.0000000000000000e+00" cType="1" res="1.9360301084816456e-03" rms="4.7035554051399231e-01" purity="6.2396478652954102e-01" nType="-99"/>
              </Node>
            </Node>
            <Node pos="r" depth="3" NCoef="0" IVar="2" Cut="2.7126931762695312e+02" cType="1" res="1.8360726535320282e-02" rms="4.6624934673309326e-01" purity="6.5600275993347168e-01" nType="0">
              <Node pos="l" depth="4" NCoef="0" IVar="2" Cut="1.9253732299804688e+02" cType="1" res="2.0783152431249619e-02" rms="4.6473711729049683e-01" purity="6.6329383850097656e-01" nType="0">
                <Node pos="l" depth="5" NCoef="0" IVar="4" Cut="4.0013726800680161e-02" cType="1" res="2.3222900927066803e-02" rms="4.6287706494331360e-01" purity="6.7006057500839233e-01" nType="0">
                  <Node pos="l" depth="6" NCoef="0" IVar="1" Cut="6.0522248968482018e-03" cType="1" res="1.4624288305640221e-02" rms="4.6138012409210205e-01" purity="6.6985535621643066e-01" nType="0">
                    <Node pos="l" depth="7" NCoef="0" IVar="-1" Cut="0.0000000000000000e+00" cType="1" res="2.5258294772356749e-03" rms="4.5157817006111145e-01" purity="6.9992041587829590e-01" nType="-99"/>
                    <Node pos="r" depth="7" NCoef="0" IVar="-1" Cut="0.0000000000000000e+00" cType="1" res="3.0333080212585628e-04" rms="4.7093889117240906e-01" purity="6.3904571533203125e-01" nType="-99"/>
                  </Node>
                  <Node pos="r" depth="6" NCoef="0" IVar="0" Cut="2.8460499644279480e-01" cType="1" res="3.4338414669036865e-02" rms="4.6456927061080933e-01" purity="6.7032593488693237e-01" nType="0">
                    <Node pos="l" depth="7" NCoef="0" IVar="-1" Cut="0.0000000000000000e+00" cType="1" res="2.5815535336732864e-03" rms="4.5956689119338989e-01" purity="6.8760913610458374e-01" nType="-99"/>
                    <Node pos="r" depth="7" NCoef="0" IVar="-1" Cut="0.0000000000000000e+00" cType="1" res="4.6388325281441212e-03" rms="4.8925310373306274e-01" purity="5.7978659868240356e-01" nType="-99"/>
                  </Node>
                </Node>
                <Node pos="r" depth="5" NCoef="0" IVar="2" Cut="2.2556095886230469e+02" cType="1" res="5.8854924282059073e-04" rms="4.7937989234924316e-01" purity="6.0728329420089722e-01" nType="0">
                  <Node pos="l" depth="6" NCoef="0" IVar="-1" Cut="0.0000000000000000e+00" cType="1" res="-2.0468233560677618e-04" rms="4.7974073886871338e-01" purity="6.1392349004745483e-01" nType="-99"/>
                  <Node pos="r" depth="6" NCoef="0" IVar="-1" Cut="0.0000000000000000e+00" cType="1" res="3.4829377545975149e-04" rms="4.7895264625549316e-01" purity="5.9978449344635010e-01" nType="-99"/>
                </Node>
              </Node>
              <Node pos="r" depth="4" NCoef="0" IVar="-1" Cut="0.0000000000000000e+00" cType="1" res="-1.4740680344402790e-03" rms="4.8568162322044373e-01" purity="5.5380785465240479e-01" nType="-99"/>
            </Node>
          </Node>
          <Node pos="r" depth="2" NCoef="0" IVar="3" Cut="9.5962303876876831e-01" cType="1" res="-1.4324832707643509e-02" rms="4.8354381322860718e-01" purity="5.3868997097015381e-01" nType="0">
            <Node pos="l" depth="3" NCoef="0" IVar="3" Cut="8.2423627376556396e-01" cType="1" res="-3.1818475574254990e-02" rms="4.8933270573616028e-01" purity="4.5591515302658081e-01" nType="0">
              <Node pos="l" depth="4" NCoef="0" IVar="-1" Cut="0.0000000000000000e+00" cType="1" res="-3.7338647525757551e-03" rms="4.8333749175071716e-01" purity="3.9559525251388550e-01" nType="-99"/>
              <Node pos="r" depth="4" NCoef="0" IVar="-1" Cut="0.0000000000000000e+00" cType="1" res="-1.9334406824782491e-03" rms="4.9491995573043823e-01" purity="5.1468509435653687e-01" nType="-99"/>
            </Node>
            <Node pos="r" depth="3" NCoef="0" IVar="-1" Cut="0.0000000000000000e+00" cType="1" res="2.3073858756106347e-04" rms="4.7720563411712646e-01" purity="6.1950951814651489e-01" nType="-99"/>
          </Node>
        </Node>
      </Node>
    </BinaryTree>
    <BinaryTree type="DecisionTree" boostWeight="1.0000000000000000e+00" itree="53">
      <Node pos="s" depth="0" NCoef="0" IVar="3" Cut="7.8150576353073120e-01" cType="1" res="7.6129636727273464e-03" rms="4.1195899248123169e-01" purity="4.9892285466194153e-01" nType="0">
        <Node pos="l" depth="1" NCoef="0" IVar="0" Cut="9.6759217977523804e-01" cType="1" res="-1.3310145586729050e-02" rms="3.9105847477912903e-01" purity="2.5956568121910095e-01" nType="0">
          <Node pos="l" depth="2" NCoef="0" IVar="1" Cut="1.1525396108627319e+00" cType="1" res="-5.6045311503112316e-03" rms="4.4989681243896484e-01" purity="3.6237862706184387e-01" nType="0">
            <Node pos="l" depth="3" NCoef="0" IVar="1" Cut="-3.5313773900270462e-02" cType="1" res="-3.2784715294837952e-03" rms="4.5244997739791870e-01" purity="3.6985450983047485e-01" nType="0">
              <Node pos="l" depth="4" NCoef="0" IVar="2" Cut="3.3893191528320312e+02" cType="1" res="1.2173338793218136e-02" rms="4.6457281708717346e-01" purity="4.2483097314834595e-01" nType="0">
                <Node pos="l" depth="5" NCoef="0" IVar="4" Cut="3.8593094795942307e-02" cType="1" res="2.0911302417516708e-02" rms="4.7381958365440369e-01" purity="4.6710366010665894e-01" nType="0">
                  <Node pos="l" depth="6" NCoef="0" IVar="-1" Cut="0.0000000000000000e+00" cType="1" res="-5.0969340372830629e-04" rms="4.7754591703414917e-01" purity="4.7529712319374084e-01" nType="-99"/>
                  <Node pos="r" depth="6" NCoef="0" IVar="2" Cut="1.3429693603515625e+02" cType="1" res="2.7118800207972527e-02" rms="4.7272244095802307e-01" purity="4.6516990661621094e-01" nType="0">
                    <Node pos="l" depth="7" NCoef="0" IVar="-1" Cut="0.0000000000000000e+00" cType="1" res="4.0202517993748188e-03" rms="4.7837504744529724e-01" purity="5.2999800443649292e-01" nType="-99"/>
                    <Node pos="r" depth="7" NCoef="0" IVar="-1" Cut="0.0000000000000000e+00" cType="1" res="1.3634565984830260e-03" rms="4.6814399957656860e-01" purity="4.1876459121704102e-01" nType="-99"/>
                  </Node>
                </Node>
                <Node pos="r" depth="5" NCoef="0" IVar="4" Cut="1.3440239429473877e-01" cType="1" res="-1.5010426752269268e-02" rms="4.3342480063438416e-01" purity="2.9332101345062256e-01" nType="0">
                  <Node pos="l" depth="6" NCoef="0" IVar="-1" Cut="0.0000000000000000e+00" cType="1" res="-3.4222672693431377e-03" rms="4.5099464058876038e-01" purity="3.4712126851081848e-01" nType="-99"/>
                  <Node pos="r" depth="6" NCoef="0" IVar="-1" Cut="0.0000000000000000e+00" cType="1" res="-4.3898777221329510e-04" rms="4.1946804523468018e-01" purity="2.5323024392127991e-01" nType="-99"/>
                </Node>
              </Node>
              <Node pos="r" depth="4" NCoef="0" IVar="0" Cut="3.1210260465741158e-02" cType="1" res="-1.1555968783795834e-02" rms="4.4559988379478455e-01" purity="3.4040370583534241e-01" nType="0">
                <Node pos="l" depth="5" NCoef="0" IVar="3" Cut="5.0997954607009888e-01" cType="1" res="7.3261436773464084e-04" rms="4.7876128554344177e-01" purity="4.5713049173355103e-01" nType="0">
                  <Node pos="l" depth="6" NCoef="0" IVar="-1" Cut="0.0000000000000000e+00" cType="1" res="-2.6630316860973835e-03" rms="4.2459002137184143e-01" purity="2.4224619567394257e-01" nType="-99"/>
                  <Node pos="r" depth="6" NCoef="0" IVar="5" Cut="3.0000000000000000e+00" cType="1" res="-9.5322156994370744e-06" rms="1.8737426726147532e-03" purity="5.1290124654769897e-01" nType="0">
                    <Node pos="l" depth="7" NCoef="0" IVar="-1" Cut="0.0000000000000000e+00" cType="1" res="-1.7524543218314648e-03" rms="4.9247398972511292e-01" purity="5.0008374452590942e-01" nType="-99"/>
                    <Node pos="r" depth="7" NCoef="0" IVar="-1" Cut="0.0000000000000000e+00" cType="1" res="1.3687378959730268e-03" rms="4.9108666181564331e-01" purity="5.1728326082229614e-01" nType="-99"/>
                  </Node>
                </Node>
                <Node pos="r" depth="5" NCoef="0" IVar="4" Cut="6.1933040618896484e-02" cType="1" res="-1.8021868541836739e-02" rms="4.2697682976722717e-01" purity="2.7898544073104858e-01" nType="0">
                  <Node pos="l" depth="6" NCoef="0" IVar="2" Cut="4.7379882812500000e+01" cType="1" res="-3.1949333846569061e-02" rms="4.4300350546836853e-01" purity="3.1632667779922485e-01" nType="0">
                    <Node pos="l" depth="7" NCoef="0" IVar="-1" Cut="0.0000000000000000e+00" cType="1" res="5.4954657571215648e-06" rms="4.6489700675010681e-01" purity="3.7384307384490967e-01" nType="-99"/>
                    <Node pos="r" depth="7" NCoef="0" IVar="-1" Cut="0.0000000000000000e+00" cType="1" res="-4.9921213649213314e-03" rms="4.3439143896102905e-01" purity="2.9588940739631653e-01" nType="-99"/>
                  </Node>
                  <Node pos="r" depth="6" NCoef="0" IVar="2" Cut="1.6831030273437500e+02" cType="1" res="-9.3497699126601219e-03" rms="4.1645109653472900e-01" purity="2.5573450326919556e-01" nType="0">
                    <Node pos="l" depth="7" NCoef="0" IVar="-1" Cut="0.0000000000000000e+00" cType="1" res="1.2905825860798359e-03" rms="4.4848152995109558e-01" purity="3.3236131072044373e-01" nType="-99"/>
                    <Node pos="r" depth="7" NCoef="0" IVar="-1" Cut="0.0000000000000000e+00" cType="1" res="-2.6727716904133558e-03" rms="4.0111619234085083e-01" purity="2.2181940078735352e-01" nType="-99"/>
                  </Node>
                </Node>
              </Node>
            </Node>
            <Node pos="r" depth="3" NCoef="0" IVar="-1" Cut="0.0000000000000000e+00" cType="1" res="-7.3817810043692589e-03" rms="3.9012825489044189e-01" purity="2.0737032592296600e-01" nType="-99"/>
          </Node>
          <Node pos="r" depth="2" NCoef="0" IVar="2" Cut="6.5850463867187500e+01" cType="1" res="-2.7768254280090332e-02" rms="2.4447041749954224e-01" purity="6.6656850278377533e-02" nType="0">
            <Node pos="l" depth="3" NCoef="0" IVar="-1" Cut="0.0000000000000000e+00" cType="1" res="-3.8214474916458130e-03" rms="2.8427115082740784e-01" purity="9.5933705568313599e-02" nType="-99"/>
            <Node pos="r" depth="3" NCoef="0" IVar="4" Cut="6.1367347836494446e-02" cType="1" res="-2.9608841985464096e-02" rms="2.3894892632961273e-01" purity="6.2985755503177643e-02" nType="0">
              <Node pos="l" depth="4" NCoef="0" IVar="3" Cut="3.4675750136375427e-01" cType="1" res="-4.1809752583503723e-02" rms="2.0040480792522430e-01" purity="4.2702216655015945e-02" nType="0">
                <Node pos="l" depth="5" NCoef="0" IVar="-1" Cut="0.0000000000000000e+00" cType="1" res="-1.8104998394846916e-02" rms="1.5145923197269440e-01" purity="2.3745698854327202e-02" nType="-99"/>
                <Node pos="r" depth="5" NCoef="0" IVar="-1" Cut="0.0000000000000000e+00" cType="1" res="-1.3771629892289639e-02" rms="2.4112658202648163e-01" purity="6.2602572143077850e-02" nType="-99"/>
              </Node>
              <Node pos="r" depth="4" NCoef="0" IVar="2" Cut="1.2845333862304688e+02" cType="1" res="-2.6709146797657013e-02" rms="2.4713860452175140e-01" purity="6.7806385457515717e-02" nType="0">
                <Node pos="l" depth="5" NCoef="0" IVar="-1" Cut="0.0000000000000000e+00" cType="1" res="-2.5074814911931753e-03" rms="2.8198587894439697e-01" purity="9.3023426830768585e-02" nType="-99"/>
                <Node pos="r" depth="5" NCoef="0" IVar="2" Cut="3.7075857543945312e+02" cType="1" res="-2.9754260554909706e-02" rms="2.4097582697868347e-01" purity="6.3784569501876831e-02" nType="0">
                  <Node pos="l" depth="6" NCoef="0" IVar="4" Cut="1.4252802729606628e-01" cType="1" res="-2.5426648557186127e-02" rms="2.4319691956043243e-01" purity="6.5947994589805603e-02" nType="0">
                    <Node pos="l" depth="7" NCoef="0" IVar="-1" Cut="0.0000000000000000e+00" cType="1" res="-1.1119926348328590e-02" rms="2.2493608295917511e-01" purity="5.6134533137083054e-02" nType="-99"/>
                    <Node pos="r" depth="7" NCoef="0" IVar="-1" Cut="0.0000000000000000e+00" cType="1" res="-3.4945914521813393e-03" rms="2.9411160945892334e-01" purity="9.7654253244400024e-02" nType="-99"/>
                  </Node>
                  <Node pos="r" depth="6" NCoef="0" IVar="3" Cut="3.1096318364143372e-01" cType="1" res="-3.5652786493301392e-02" rms="2.3778828978538513e-01" purity="6.0835830867290497e-02" nType="0">
                    <Node pos="l" depth="7" NCoef="0" IVar="-1" Cut="0.0000000000000000e+00" cType="1" res="-1.0101733729243279e-02" rms="2.3593062162399292e-01" purity="6.0502003878355026e-02" nType="-99"/>
                    <Node pos="r" depth="7" NCoef="0" IVar="-1" Cut="0.0000000000000000e+00" cType="1" res="-1.3637601397931576e-02" rms="2.4049235880374908e-01" purity="6.1423502862453461e-02" nType="-99"/>
                  </Node>
                </Node>
              </Node>
            </Node>
          </Node>
        </Node>
        <Node pos="r" depth="1" NCoef="0" IVar="0" Cut="6.1320686340332031e-01" cType="1" res="2.8379509225487709e-02" rms="4.3069985508918762e-01" purity="7.3648899793624878e-01" nType="0">
          <Node pos="l" depth="2" NCoef="0" IVar="0" Cut="1.9779587164521217e-02" cType="1" res="3.0056908726692200e-02" rms="4.2937821149826050e-01" purity="7.4410003423690796e-01" nType="0">
            <Node pos="l" depth="3" NCoef="0" IVar="1" Cut="1.8981309235095978e-01" cType="1" res="3.3159669488668442e-02" rms="4.2414051294326782e-01" purity="7.5656712055206299e-01" nType="0">
              <Node pos="l" depth="4" NCoef="0" IVar="2" Cut="9.6283401489257812e+01" cType="1" res="3.7405259907245636e-02" rms="4.1206154227256775e-01" purity="7.7973008155822754e-01" nType="0">
                <Node pos="l" depth="5" NCoef="0" IVar="1" Cut="-1.3038663566112518e-01" cType="1" res="3.9478182792663574e-02" rms="4.0611594915390015e-01" purity="7.8930723667144775e-01" nType="0">
                  <Node pos="l" depth="6" NCoef="0" IVar="3" Cut="9.7678297758102417e-01" cType="1" res="3.1703621149063110e-02" rms="4.0992510318756104e-01" purity="7.8402328491210938e-01" nType="0">
                    <Node pos="l" depth="7" NCoef="0" IVar="-1" Cut="0.0000000000000000e+00" cType="1" res="2.0891933236271143e-03" rms="4.4031557440757751e-01" purity="7.3397034406661987e-01" nType="-99"/>
                    <Node pos="r" depth="7" NCoef="0" IVar="-1" Cut="0.0000000000000000e+00" cType="1" res="3.5832200665026903e-03" rms="3.9907470345497131e-01" purity="8.0095571279525757e-01" nType="-99"/>
                  </Node>
                  <Node pos="r" depth="6" NCoef="0" IVar="1" Cut="-2.7103032916784286e-02" cType="1" res="4.2161382734775543e-02" rms="4.0475833415985107e-01" purity="7.9113084077835083e-01" nType="0">
                    <Node pos="l" depth="7" NCoef="0" IVar="-1" Cut="0.0000000000000000e+00" cType="1" res="5.1603601314127445e-03" rms="3.9683461189270020e-01" purity="8.0236309766769409e-01" nType="-99"/>
                    <Node pos="r" depth="7" NCoef="0" IVar="-1" Cut="0.0000000000000000e+00" cType="1" res="3.7797640543431044e-03" rms="4.1094765067100525e-01" purity="7.8207004070281982e-01" nType="-99"/>
                  </Node>
                </Node>
                <Node pos="r" depth="5" NCoef="0" IVar="2" Cut="1.8636016845703125e+02" cType="1" res="2.3282643407583237e-02" rms="4.5023062825202942e-01" purity="7.1448218822479248e-01" nType="0">
                  <Node pos="l" depth="6" NCoef="0" IVar="1" Cut="-2.8742326423525810e-02" cType="1" res="0.0000000000000000e+00" rms="0.0000000000000000e+00" purity="7.2886276245117188e-01" nType="0">
                    <Node pos="l" depth="7" NCoef="0" IVar="-1" Cut="0.0000000000000000e+00" cType="1" res="3.9005102589726448e-03" rms="4.3563953042030334e-01" purity="7.4348777532577515e-01" nType="-99"/>
                    <Node pos="r" depth="7" NCoef="0" IVar="-1" Cut="0.0000000000000000e+00" cType="1" res="1.1179930297657847e-03" rms="4.5446255803108215e-01" purity="7.0642817020416260e-01" nType="-99"/>
                  </Node>
                  <Node pos="r" depth="6" NCoef="0" IVar="-1" Cut="0.0000000000000000e+00" cType="1" res="1.0253222426399589e-03" rms="4.6556004881858826e-01" purity="6.8091005086898804e-01" nType="-99"/>
                </Node>
              </Node>
              <Node pos="r" depth="4" NCoef="0" IVar="3" Cut="9.9210083484649658e-01" cType="1" res="2.2829473018646240e-02" rms="4.5201838016510010e-01" purity="7.0020776987075806e-01" nType="0">
                <Node pos="l" depth="5" NCoef="0" IVar="2" Cut="5.3837486267089844e+01" cType="1" res="1.2108049355447292e-02" rms="4.7274732589721680e-01" purity="6.4788037538528442e-01" nType="0">
                  <Node pos="l" depth="6" NCoef="0" IVar="3" Cut="9.5815753936767578e-01" cType="1" res="-7.8507130965590477e-03" rms="4.7014904022216797e-01" purity="6.4852482080459595e-01" nType="0">
                    <Node pos="l" depth="7" NCoef="0" IVar="-1" Cut="0.0000000000000000e+00" cType="1" res="-1.8334876513108611e-03" rms="4.8258882761001587e-01" purity="6.0326707363128662e-01" nType="-99"/>
                    <Node pos="r" depth="7" NCoef="0" IVar="-1" Cut="0.0000000000000000e+00" cType="1" res="5.2968761883676052e-04" rms="4.5662790536880493e-01" purity="6.9498276710510254e-01" nType="-99"/>
                  </Node>
                  <Node pos="r" depth="6" NCoef="0" IVar="2" Cut="1.1866635894775391e+02" cType="1" res="3.0260104686021805e-02" rms="4.7436946630477905e-01" purity="6.4729428291320801e-01" nType="0">
                    <Node pos="l" depth="7" NCoef="0" IVar="-1" Cut="0.0000000000000000e+00" cType="1" res="1.5166415832936764e-03" rms="4.7453638911247253e-01" purity="6.4193290472030640e-01" nType="-99"/>
                    <Node pos="r" depth="7" NCoef="0" IVar="-1" Cut="0.0000000000000000e+00" cType="1" res="3.5995163489133120e-03" rms="4.7398132085800171e-01" purity="6.5155804157257080e-01" nType="-99"/>
                  </Node>
                </Node>
                <Node pos="r" depth="5" NCoef="0" IVar="1" Cut="8.2193839550018311e-01" cType="1" res="3.2190307974815369e-02" rms="4.3289244174957275e-01" purity="7.4589467048645020e-01" nType="0">
                  <Node pos="l" depth="6" NCoef="0" IVar="1" Cut="3.9367225766181946e-01" cType="1" res="3.0027365311980247e-02" rms="4.2314258217811584e-01" purity="7.6521134376525879e-01" nType="0">
                    <Node pos="l" depth="7" NCoef="0" IVar="-1" Cut="0.0000000000000000e+00" cType="1" res="2.7884126175194979e-03" rms="4.1599023342132568e-01" purity="7.7706199884414673e-01" nType="-99"/>
                    <Node pos="r" depth="7" NCoef="0" IVar="-1" Cut="0.0000000000000000e+00" cType="1" res="3.0662755016237497e-03" rms="4.3170315027236938e-01" purity="7.5072294473648071e-01" nType="-99"/>
                  </Node>
                  <Node pos="r" depth="6" NCoef="0" IVar="-1" Cut="0.0000000000000000e+00" cType="1" res="3.3523000311106443e-03" rms="4.7056475281715393e-01" purity="6.6689723730087280e-01" nType="-99"/>
                </Node>
              </Node>
            </Node>
            <Node pos="r" depth="3" NCoef="0" IVar="2" Cut="5.6190647125244141e+01" cType="1" res="-3.1933567952364683e-03" rms="4.8069137334823608e-01" purity="6.1049836874008179e-01" nType="0">
              <Node pos="l" depth="4" NCoef="0" IVar="0" Cut="2.9673197865486145e-01" cType="1" res="1.2081803753972054e-02" rms="4.7276097536087036e-01" purity="6.4544296264648438e-01" nType="0">
                <Node pos="l" depth="5" NCoef="0" IVar="-1" Cut="0.0000000000000000e+00" cType="1" res="-7.5356120942160487e-04" rms="4.6462494134902954e-01" purity="6.5625405311584473e-01" nType="-99"/>
                <Node pos="r" depth="5" NCoef="0" IVar="-1" Cut="0.0000000000000000e+00" cType="1" res="2.4056297261267900e-03" rms="4.7910118103027344e-01" purity="6.3601720333099365e-01" nType="-99"/>
              </Node>
              <Node pos="r" depth="4" NCoef="0" IVar="-1" Cut="0.0000000000000000e+00" cType="1" res="-2.2447926457971334e-03" rms="4.9041306972503662e-01" purity="5.6346231698989868e-01" nType="-99"/>
            </Node>
          </Node>
          <Node pos="r" depth="2" NCoef="0" IVar="-1" Cut="0.0000000000000000e+00" cType="1" res="-4.5360764488577843e-03" rms="4.8180297017097473e-01" purity="3.8266864418983459e-01" nType="-99"/>
        </Node>
      </Node>
    </BinaryTree>
    <BinaryTree type="DecisionTree" boostWeight="1.0000000000000000e+00" itree="54">
      <Node pos="s" depth="0" NCoef="0" IVar="3" Cut="7.8077578544616699e-01" cType="1" res="9.4643700867891312e-03" rms="4.1076326370239258e-01" purity="5.0137889385223389e-01" nType="0">
        <Node pos="l" depth="1" NCoef="0" IVar="3" Cut="6.0736149549484253e-01" cType="1" res="-1.3037757948040962e-02" rms="3.9086705446243286e-01" purity="2.5910463929176331e-01" nType="0">
          <Node pos="l" depth="2" NCoef="0" IVar="4" Cut="1.4116869866847992e-01" cType="1" res="-1.9476132467389107e-02" rms="3.3504924178123474e-01" purity="1.4790853857994080e-01" nType="0">
            <Node pos="l" depth="3" NCoef="0" IVar="2" Cut="1.3597877502441406e+02" cType="1" res="-2.2995108738541603e-02" rms="3.2205337285995483e-01" purity="1.3651338219642639e-01" nType="0">
              <Node pos="l" depth="4" NCoef="0" IVar="4" Cut="5.0263807177543640e-02" cType="1" res="-1.2743799015879631e-02" rms="3.4034216403961182e-01" purity="1.5893024206161499e-01" nType="0">
                <Node pos="l" depth="5" NCoef="0" IVar="2" Cut="3.5245124816894531e+01" cType="1" res="-2.5453753769397736e-02" rms="3.1368002295494080e-01" purity="1.2867280840873718e-01" nType="0">
                  <Node pos="l" depth="6" NCoef="0" IVar="-1" Cut="0.0000000000000000e+00" cType="1" res="-8.6469197412952781e-04" rms="3.5139870643615723e-01" purity="1.7241001129150391e-01" nType="-99"/>
                  <Node pos="r" depth="6" NCoef="0" IVar="4" Cut="3.9066795259714127e-02" cType="1" res="-3.2621882855892181e-02" rms="2.9930406808853149e-01" purity="1.1365925520658493e-01" nType="0">
                    <Node pos="l" depth="7" NCoef="0" IVar="-1" Cut="0.0000000000000000e+00" cType="1" res="-8.7116071954369545e-03" rms="2.9169088602066040e-01" purity="1.0452867299318314e-01" nType="-99"/>
                    <Node pos="r" depth="7" NCoef="0" IVar="-1" Cut="0.0000000000000000e+00" cType="1" res="-4.8004519194364548e-03" rms="3.1323018670082092e-01" purity="1.3131037354469299e-01" nType="-99"/>
                  </Node>
                </Node>
                <Node pos="r" depth="5" NCoef="0" IVar="3" Cut="3.8237917423248291e-01" cType="1" res="-2.2254555951803923e-03" rms="3.6058184504508972e-01" purity="1.8397028744220734e-01" nType="0">
                  <Node pos="l" depth="6" NCoef="0" IVar="-1" Cut="0.0000000000000000e+00" cType="1" res="-7.6977624557912350e-03" rms="2.3205623030662537e-01" purity="5.8558914810419083e-02" nType="-99"/>
                  <Node pos="r" depth="6" NCoef="0" IVar="5" Cut="4.0000000000000000e+00" cType="1" res="7.8790839761495590e-03" rms="4.2128685116767883e-01" purity="2.6324000954627991e-01" nType="0">
                    <Node pos="l" depth="7" NCoef="0" IVar="-1" Cut="0.0000000000000000e+00" cType="1" res="-6.8863667547702789e-04" rms="4.1945797204971313e-01" purity="2.5199547410011292e-01" nType="-99"/>
                    <Node pos="r" depth="7" NCoef="0" IVar="-1" Cut="0.0000000000000000e+00" cType="1" res="2.1998162847012281e-03" rms="4.2319229245185852e-01" purity="2.7102965116500854e-01" nType="-99"/>
                  </Node>
                </Node>
              </Node>
              <Node pos="r" depth="4" NCoef="0" IVar="4" Cut="9.1812349855899811e-02" cType="1" res="-2.9916297644376755e-02" rms="3.0890199542045593e-01" purity="1.2137857824563980e-01" nType="0">
                <Node pos="l" depth="5" NCoef="0" IVar="5" Cut="4.0000000000000000e+00" cType="1" res="-3.6059275269508362e-02" rms="2.8364253044128418e-01" purity="9.9533841013908386e-02" nType="0">
                  <Node pos="l" depth="6" NCoef="0" IVar="-1" Cut="0.0000000000000000e+00" cType="1" res="-1.0421425104141235e-02" rms="3.0880299210548401e-01" purity="1.1349052935838699e-01" nType="-99"/>
                  <Node pos="r" depth="6" NCoef="0" IVar="2" Cut="2.6589761352539062e+02" cType="1" res="-3.0406096950173378e-02" rms="2.7565163373947144e-01" purity="9.4387449324131012e-02" nType="0">
                    <Node pos="l" depth="7" NCoef="0" IVar="-1" Cut="0.0000000000000000e+00" cType="1" res="-6.0426592826843262e-03" rms="2.8286719322204590e-01" purity="1.0129986703395844e-01" nType="-99"/>
                    <Node pos="r" depth="7" NCoef="0" IVar="-1" Cut="0.0000000000000000e+00" cType="1" res="-1.1025463230907917e-02" rms="2.6029044389724731e-01" purity="8.0763958394527435e-02" nType="-99"/>
                  </Node>
                </Node>
                <Node pos="r" depth="5" NCoef="0" IVar="2" Cut="4.7760614013671875e+02" cType="1" res="-2.4479808285832405e-02" rms="3.2804802060127258e-01" purity="1.4033509790897369e-01" nType="0">
                  <Node pos="l" depth="6" NCoef="0" IVar="3" Cut="4.1733750700950623e-01" cType="1" res="-1.9590014591813087e-02" rms="3.3360016345977783e-01" purity="1.4677812159061432e-01" nType="0">
                    <Node pos="l" depth="7" NCoef="0" IVar="-1" Cut="0.0000000000000000e+00" cType="1" res="-1.1023763567209244e-02" rms="2.2232536971569061e-01" purity="5.4086476564407349e-02" nType="-99"/>
                    <Node pos="r" depth="7" NCoef="0" IVar="-1" Cut="0.0000000000000000e+00" cType="1" res="-1.4167925110086799e-03" rms="4.1953796148300171e-01" purity="2.4400486052036285e-01" nType="-99"/>
                  </Node>
                  <Node pos="r" depth="6" NCoef="0" IVar="-1" Cut="0.0000000000000000e+00" cType="1" res="-8.8749481365084648e-03" rms="3.0389627814292908e-01" purity="1.1441382765769958e-01" nType="-99"/>
                </Node>
              </Node>
            </Node>
            <Node pos="r" depth="3" NCoef="0" IVar="2" Cut="2.0880789184570312e+02" cType="1" res="-1.1384314857423306e-02" rms="3.6304372549057007e-01" purity="1.7411153018474579e-01" nType="0">
              <Node pos="l" depth="4" NCoef="0" IVar="-1" Cut="0.0000000000000000e+00" cType="1" res="3.0235357116907835e-03" rms="3.9696055650711060e-01" purity="2.3756991326808929e-01" nType="-99"/>
              <Node pos="r" depth="4" NCoef="0" IVar="3" Cut="1.4840914309024811e-01" cType="1" res="-1.6671754419803619e-02" rms="3.5671344399452209e-01" purity="1.6337022185325623e-01" nType="0">
                <Node pos="l" depth="5" NCoef="0" IVar="-1" Cut="0.0000000000000000e+00" cType="1" res="2.8080919291824102e-03" rms="3.5140031576156616e-01" purity="1.6422061622142792e-01" nType="-99"/>
                <Node pos="r" depth="5" NCoef="0" IVar="3" Cut="3.7049323320388794e-01" cType="1" res="-2.0858809351921082e-02" rms="3.5725224018096924e-01" purity="1.6325104236602783e-01" nType="0">
                  <Node pos="l" depth="6" NCoef="0" IVar="0" Cut="4.9712505936622620e-01" cType="1" res="-2.8915699571371078e-02" rms="3.0814319849014282e-01" purity="1.1055304110050201e-01" nType="0">
                    <Node pos="l" depth="7" NCoef="0" IVar="-1" Cut="0.0000000000000000e+00" cType="1" res="-7.1006589569151402e-03" rms="3.7780562043190002e-01" purity="1.7732387781143188e-01" nType="-99"/>
                    <Node pos="r" depth="7" NCoef="0" IVar="-1" Cut="0.0000000000000000e+00" cType="1" res="-6.7066666670143604e-03" rms="2.7829614281654358e-01" purity="8.6291871964931488e-02" nType="-99"/>
                  </Node>
                  <Node pos="r" depth="6" NCoef="0" IVar="5" Cut="4.0000000000000000e+00" cType="1" res="-7.5107323937118053e-03" rms="4.2324465513229370e-01" purity="2.4727141857147217e-01" nType="0">
                    <Node pos="l" depth="7" NCoef="0" IVar="-1" Cut="0.0000000000000000e+00" cType="1" res="-3.3510650973767042e-03" rms="4.2649656534194946e-01" purity="2.5172749161720276e-01" nType="-99"/>
                    <Node pos="r" depth="7" NCoef="0" IVar="-1" Cut="0.0000000000000000e+00" cType="1" res="3.2063457183539867e-04" rms="4.2164531350135803e-01" purity="2.4475340545177460e-01" nType="-99"/>
                  </Node>
                </Node>
              </Node>
            </Node>
          </Node>
          <Node pos="r" depth="2" NCoef="0" IVar="1" Cut="-1.5616862475872040e-01" cType="1" res="2.2630946477875113e-04" rms="4.8578941822052002e-01" purity="4.8818618059158325e-01" nType="0">
            <Node pos="l" depth="3" NCoef="0" IVar="4" Cut="6.0907509177923203e-02" cType="1" res="2.9253654181957245e-02" rms="4.8853713274002075e-01" purity="5.5148214101791382e-01" nType="0">
              <Node pos="l" depth="4" NCoef="0" IVar="-1" Cut="0.0000000000000000e+00" cType="1" res="1.5036227414384484e-03" rms="4.8815950751304626e-01" purity="5.4000401496887207e-01" nType="-99"/>
              <Node pos="r" depth="4" NCoef="0" IVar="-1" Cut="0.0000000000000000e+00" cType="1" res="3.2207169570028782e-03" rms="4.8862323164939880e-01" purity="5.6000846624374390e-01" nType="-99"/>
            </Node>
            <Node pos="r" depth="3" NCoef="0" IVar="1" Cut="8.0511492490768433e-01" cType="1" res="-4.9631013534963131e-03" rms="4.8511356115341187e-01" purity="4.7687029838562012e-01" nType="0">
              <Node pos="l" depth="4" NCoef="0" IVar="2" Cut="2.1519413757324219e+02" cType="1" res="1.5787008451297879e-03" rms="4.8882716894149780e-01" purity="4.9647083878517151e-01" nType="0">
                <Node pos="l" depth="5" NCoef="0" IVar="4" Cut="4.5131437480449677e-02" cType="1" res="7.0731313899159431e-03" rms="4.8864978551864624e-01" purity="5.1236325502395630e-01" nType="0">
                  <Node pos="l" depth="6" NCoef="0" IVar="2" Cut="3.4689929962158203e+01" cType="1" res="-8.0535188317298889e-03" rms="4.8804721236228943e-01" purity="4.8394572734832764e-01" nType="0">
                    <Node pos="l" depth="7" NCoef="0" IVar="-1" Cut="0.0000000000000000e+00" cType="1" res="2.3051369935274124e-03" rms="4.9127471446990967e-01" purity="5.4274708032608032e-01" nType="-99"/>
                    <Node pos="r" depth="7" NCoef="0" IVar="-1" Cut="0.0000000000000000e+00" cType="1" res="-2.1725145634263754e-03" rms="4.8588460683822632e-01" purity="4.5874890685081482e-01" nType="-99"/>
                  </Node>
                  <Node pos="r" depth="6" NCoef="0" IVar="3" Cut="6.8567800521850586e-01" cType="1" res="1.6688510775566101e-02" rms="4.8878911137580872e-01" purity="5.3042715787887573e-01" nType="0">
                    <Node pos="l" depth="7" NCoef="0" IVar="-1" Cut="0.0000000000000000e+00" cType="1" res="-2.7649301046039909e-05" rms="4.8916661739349365e-01" purity="4.5535492897033691e-01" nType="-99"/>
                    <Node pos="r" depth="7" NCoef="0" IVar="-1" Cut="0.0000000000000000e+00" cType="1" res="2.4171581026166677e-03" rms="4.8816296458244324e-01" purity="5.8364522457122803e-01" nType="-99"/>
                  </Node>
                </Node>
                <Node pos="r" depth="5" NCoef="0" IVar="4" Cut="8.4244288504123688e-02" cType="1" res="-1.2957911007106304e-02" rms="4.8899856209754944e-01" purity="4.5442417263984680e-01" nType="0">
                  <Node pos="l" depth="6" NCoef="0" IVar="-1" Cut="0.0000000000000000e+00" cType="1" res="-2.3949127644300461e-03" rms="4.8422387242317200e-01" purity="4.3873190879821777e-01" nType="-99"/>
                  <Node pos="r" depth="6" NCoef="0" IVar="-1" Cut="0.0000000000000000e+00" cType="1" res="-3.5740269231610000e-04" rms="4.9243482947349548e-01" purity="4.6645835041999817e-01" nType="-99"/>
                </Node>
              </Node>
              <Node pos="r" depth="4" NCoef="0" IVar="-1" Cut="0.0000000000000000e+00" cType="1" res="-7.1261371485888958e-03" rms="4.4286635518074036e-01" purity="2.8814551234245300e-01" nType="-99"/>
            </Node>
          </Node>
        </Node>
        <Node pos="r" depth="1" NCoef="0" IVar="2" Cut="1.9100065612792969e+02" cType="1" res="3.1671289354562759e-02" rms="4.2833837866783142e-01" purity="7.4047476053237915e-01" nType="0">
          <Node pos="l" depth="2" NCoef="0" IVar="1" Cut="5.5088925361633301e-01" cType="1" res="3.3852584660053253e-02" rms="4.2585411667823792e-01" purity="7.4760872125625610e-01" nType="0">
            <Node pos="l" depth="3" NCoef="0" IVar="3" Cut="1.0007437467575073e+00" cType="1" res="3.6986548453569412e-02" rms="4.1944828629493713e-01" purity="7.6335150003433228e-01" nType="0">
              <Node pos="l" depth="4" NCoef="0" IVar="3" Cut="8.3044761419296265e-01" cType="1" res="3.2456099987030029e-02" rms="4.2883902788162231e-01" purity="7.4771934747695923e-01" nType="0">
                <Node pos="l" depth="5" NCoef="0" IVar="4" Cut="3.1521137803792953e-02" cType="1" res="1.9824422895908356e-02" rms="4.7336325049400330e-01" purity="6.5039151906967163e-01" nType="0">
                  <Node pos="l" depth="6" NCoef="0" IVar="-1" Cut="0.0000000000000000e+00" cType="1" res="3.6588095827028155e-04" rms="4.8083600401878357e-01" purity="6.2047779560089111e-01" nType="-99"/>
                  <Node pos="r" depth="6" NCoef="0" IVar="2" Cut="8.3938064575195312e+01" cType="1" res="2.6912486180663109e-02" rms="4.6978491544723511e-01" purity="6.6387140750885010e-01" nType="0">
                    <Node pos="l" depth="7" NCoef="0" IVar="-1" Cut="0.0000000000000000e+00" cType="1" res="3.2927491702139378e-03" rms="4.6201920509338379e-01" purity="6.8659824132919312e-01" nType="-99"/>
                    <Node pos="r" depth="7" NCoef="0" IVar="-1" Cut="0.0000000000000000e+00" cType="1" res="1.2279814109206200e-03" rms="4.7621414065361023e-01" purity="6.4365202188491821e-01" nType="-99"/>
                  </Node>
                </Node>
                <Node pos="r" depth="5" NCoef="0" IVar="2" Cut="1.4786941528320312e+02" cType="1" res="3.4406721591949463e-02" rms="4.2151075601577759e-01" purity="7.6274901628494263e-01" nType="0">
                  <Node pos="l" depth="6" NCoef="0" IVar="4" Cut="2.6923570781946182e-02" cType="1" res="3.5033714026212692e-02" rms="4.2022460699081421e-01" purity="7.6498931646347046e-01" nType="0">
                    <Node pos="l" depth="7" NCoef="0" IVar="-1" Cut="0.0000000000000000e+00" cType="1" res="3.4457009751349688e-03" rms="4.1642829775810242e-01" purity="7.7083653211593628e-01" nType="-99"/>
                    <Node pos="r" depth="7" NCoef="0" IVar="-1" Cut="0.0000000000000000e+00" cType="1" res="3.9895488880574703e-03" rms="4.3558669090270996e-01" purity="7.4067908525466919e-01" nType="-99"/>
                  </Node>
                  <Node pos="r" depth="6" NCoef="0" IVar="-1" Cut="0.0000000000000000e+00" cType="1" res="2.0114472135901451e-03" rms="4.4954025745391846e-01" purity="7.1178531646728516e-01" nType="-99"/>
                </Node>
              </Node>
              <Node pos="r" depth="4" NCoef="0" IVar="3" Cut="1.0303090810775757e+00" cType="1" res="4.9235723912715912e-02" rms="3.9267438650131226e-01" purity="8.0561685562133789e-01" nType="0">
                <Node pos="l" depth="5" NCoef="0" IVar="3" Cut="1.0188624858856201e+00" cType="1" res="5.2089489996433258e-02" rms="3.8869065046310425e-01" purity="8.1133145093917847e-01" nType="0">
                  <Node pos="l" depth="6" NCoef="0" IVar="3" Cut="1.0042492151260376e+00" cType="1" res="5.0773121416568756e-02" rms="3.8990184664726257e-01" purity="8.1007260084152222e-01" nType="0">
                    <Node pos="l" depth="7" NCoef="0" IVar="-1" Cut="0.0000000000000000e+00" cType="1" res="5.6369695812463760e-03" rms="3.8667574524879456e-01" purity="8.1349295377731323e-01" nType="-99"/>
                    <Node pos="r" depth="7" NCoef="0" IVar="-1" Cut="0.0000000000000000e+00" cType="1" res="4.9021299928426743e-03" rms="3.9286386966705322e-01" purity="8.0686587095260620e-01" nType="-99"/>
                  </Node>
                  <Node pos="r" depth="6" NCoef="0" IVar="-1" Cut="0.0000000000000000e+00" cType="1" res="6.0488744638860226e-03" rms="3.8249361515045166e-01" purity="8.1764185428619385e-01" nType="-99"/>
                </Node>
                <Node pos="r" depth="5" NCoef="0" IVar="-1" Cut="0.0000000000000000e+00" cType="1" res="3.8155182264745235e-03" rms="4.0739965438842773e-01" purity="7.8371071815490723e-01" nType="-99"/>
              </Node>
            </Node>
            <Node pos="r" depth="3" NCoef="0" IVar="3" Cut="9.7035449743270874e-01" cType="1" res="7.3132785037159920e-03" rms="4.7583478689193726e-01" purity="6.1429405212402344e-01" nType="0">
              <Node pos="l" depth="4" NCoef="0" IVar="-1" Cut="0.0000000000000000e+00" cType="1" res="-6.9383752997964621e-04" rms="4.9117642641067505e-01" purity="5.3555822372436523e-01" nType="-99"/>
              <Node pos="r" depth="4" NCoef="0" IVar="1" Cut="1.1588573455810547e+00" cType="1" res="1.6328813508152962e-02" rms="4.6642419695854187e-01" purity="6.6018319129943848e-01" nType="0">
                <Node pos="l" depth="5" NCoef="0" IVar="-1" Cut="0.0000000000000000e+00" cType="1" res="1.3122454984113574e-03" rms="4.5836541056632996e-01" purity="6.8264180421829224e-01" nType="-99"/>
                <Node pos="r" depth="5" NCoef="0" IVar="-1" Cut="0.0000000000000000e+00" cType="1" res="1.5495009720325470e-03" rms="4.8179849982261658e-01" purity="6.1622881889343262e-01" nType="-99"/>
              </Node>
            </Node>
          </Node>
          <Node pos="r" depth="2" NCoef="0" IVar="2" Cut="2.4853236389160156e+02" cType="1" res="-1.1478412896394730e-02" rms="4.7275289893150330e-01" purity="5.9935235977172852e-01" nType="0">
            <Node pos="l" depth="3" NCoef="0" IVar="-1" Cut="0.0000000000000000e+00" cType="1" res="9.6861546626314521e-04" rms="4.7086381912231445e-01" purity="6.4030832052230835e-01" nType="-99"/>
            <Node pos="r" depth="3" NCoef="0" IVar="-1" Cut="0.0000000000000000e+00" cType="1" res="-4.0149358101189137e-03" rms="4.7373121976852417e-01" purity="5.4435312747955322e-01" nType="-99"/>
          </Node>
        </Node>
      </Node>
    </BinaryTree>
    <BinaryTree type="DecisionTree" boostWeight="1.0000000000000000e+00" itree="55">
      <Node pos="s" depth="0" NCoef="0" IVar="3" Cut="7.1202093362808228e-01" cType="1" res="9.2298835515975952e-03" rms="4.1199964284896851e-01" purity="5.0079506635665894e-01" nType="0">
        <Node pos="l" depth="1" NCoef="0" IVar="0" Cut="1.2901240587234497e+00" cType="1" res="-1.2265557423233986e-02" rms="3.7430706620216370e-01" purity="2.1265839040279388e-01" nType="0">
          <Node pos="l" depth="2" NCoef="0" IVar="1" Cut="7.1228903532028198e-01" cType="1" res="-5.9955948963761330e-03" rms="4.2439484596252441e-01" purity="2.8264972567558289e-01" nType="0">
            <Node pos="l" depth="3" NCoef="0" IVar="2" Cut="1.3989646911621094e+02" cType="1" res="-3.1185774132609367e-03" rms="4.3205282092094421e-01" purity="2.9860341548919678e-01" nType="0">
              <Node pos="l" depth="4" NCoef="0" IVar="4" Cut="6.8469628691673279e-02" cType="1" res="8.8479276746511459e-03" rms="4.5368283987045288e-01" purity="3.5994419455528259e-01" nType="0">
                <Node pos="l" depth="5" NCoef="0" IVar="2" Cut="5.4483676910400391e+01" cType="1" res="-5.5204252712428570e-03" rms="4.4701302051544189e-01" purity="3.3579438924789429e-01" nType="0">
                  <Node pos="l" depth="6" NCoef="0" IVar="4" Cut="2.8910543769598007e-02" cType="1" res="1.2954313308000565e-02" rms="4.6290710568428040e-01" purity="3.7854948639869690e-01" nType="0">
                    <Node pos="l" depth="7" NCoef="0" IVar="-1" Cut="0.0000000000000000e+00" cType="1" res="-3.1217330251820385e-04" rms="4.5383095741271973e-01" purity="3.5459694266319275e-01" nType="-99"/>
                    <Node pos="r" depth="7" NCoef="0" IVar="-1" Cut="0.0000000000000000e+00" cType="1" res="2.7420774567872286e-03" rms="4.7055047750473022e-01" purity="4.0034696459770203e-01" nType="-99"/>
                  </Node>
                  <Node pos="r" depth="6" NCoef="0" IVar="4" Cut="4.2001001536846161e-02" cType="1" res="-1.8333533778786659e-02" rms="4.3518894910812378e-01" purity="3.0614170432090759e-01" nType="0">
                    <Node pos="l" depth="7" NCoef="0" IVar="-1" Cut="0.0000000000000000e+00" cType="1" res="-4.1806958615779877e-03" rms="4.2052617669105530e-01" purity="2.7050331234931946e-01" nType="-99"/>
                    <Node pos="r" depth="7" NCoef="0" IVar="-1" Cut="0.0000000000000000e+00" cType="1" res="-7.4160535586997867e-04" rms="4.4580832123756409e-01" purity="3.3363237977027893e-01" nType="-99"/>
                  </Node>
                </Node>
                <Node pos="r" depth="5" NCoef="0" IVar="5" Cut="4.0000000000000000e+00" cType="1" res="1.9771018996834755e-02" rms="3.6330810189247131e-01" purity="3.9915797114372253e-01" nType="0">
                  <Node pos="l" depth="6" NCoef="0" IVar="-1" Cut="0.0000000000000000e+00" cType="1" res="1.6057747416198254e-03" rms="4.7337177395820618e-01" purity="4.3462711572647095e-01" nType="-99"/>
                  <Node pos="r" depth="6" NCoef="0" IVar="-1" Cut="0.0000000000000000e+00" cType="1" res="5.6028212420642376e-03" rms="4.5098635554313660e-01" purity="3.5833477973937988e-01" nType="-99"/>
                </Node>
              </Node>
              <Node pos="r" depth="4" NCoef="0" IVar="4" Cut="9.7103662788867950e-02" cType="1" res="-9.4988225027918816e-03" rms="4.1992589831352234e-01" purity="2.6589801907539368e-01" nType="0">
                <Node pos="l" depth="5" NCoef="0" IVar="2" Cut="2.5130177307128906e+02" cType="1" res="-2.1604187786579132e-02" rms="4.1866770386695862e-01" purity="2.7229112386703491e-01" nType="0">
                  <Node pos="l" depth="6" NCoef="0" IVar="4" Cut="5.5163271725177765e-02" cType="1" res="-9.4076292589306831e-03" rms="4.2706876993179321e-01" purity="2.9201224446296692e-01" nType="0">
                    <Node pos="l" depth="7" NCoef="0" IVar="-1" Cut="0.0000000000000000e+00" cType="1" res="-4.7481688670814037e-03" rms="4.0789374709129333e-01" purity="2.4436616897583008e-01" nType="-99"/>
                    <Node pos="r" depth="7" NCoef="0" IVar="-1" Cut="0.0000000000000000e+00" cType="1" res="4.0263784467242658e-04" rms="4.3541601300239563e-01" purity="3.1492564082145691e-01" nType="-99"/>
                  </Node>
                  <Node pos="r" depth="6" NCoef="0" IVar="5" Cut="4.0000000000000000e+00" cType="1" res="-1.8665116280317307e-02" rms="3.2976451516151428e-01" purity="2.4531507492065430e-01" nType="0">
                    <Node pos="l" depth="7" NCoef="0" IVar="-1" Cut="0.0000000000000000e+00" cType="1" res="-6.3659716397523880e-03" rms="4.2918270826339722e-01" purity="2.7531793713569641e-01" nType="-99"/>
                    <Node pos="r" depth="7" NCoef="0" IVar="-1" Cut="0.0000000000000000e+00" cType="1" res="-3.5415531601756811e-03" rms="3.8381290435791016e-01" purity="2.1809828281402588e-01" nType="-99"/>
                  </Node>
                </Node>
                <Node pos="r" depth="5" NCoef="0" IVar="5" Cut="3.0000000000000000e+00" cType="1" res="-3.1986110843718052e-03" rms="4.0470138192176819e-01" purity="2.6248261332511902e-01" nType="0">
                  <Node pos="l" depth="6" NCoef="0" IVar="-1" Cut="0.0000000000000000e+00" cType="1" res="2.3642538581043482e-03" rms="4.7967460751533508e-01" purity="3.8119703531265259e-01" nType="-99"/>
                  <Node pos="r" depth="6" NCoef="0" IVar="2" Cut="5.9618078613281250e+02" cType="1" res="-6.3634822145104408e-03" rms="4.1204369068145752e-01" purity="2.4710609018802643e-01" nType="0">
                    <Node pos="l" depth="7" NCoef="0" IVar="-1" Cut="0.0000000000000000e+00" cType="1" res="-1.7999445844907314e-04" rms="4.1970261931419373e-01" purity="2.6442041993141174e-01" nType="-99"/>
                    <Node pos="r" depth="7" NCoef="0" IVar="-1" Cut="0.0000000000000000e+00" cType="1" res="-3.3801335375756025e-03" rms="3.8712000846862793e-01" purity="1.9383329153060913e-01" nType="-99"/>
                  </Node>
                </Node>
              </Node>
            </Node>
            <Node pos="r" depth="3" NCoef="0" IVar="1" Cut="1.0115447044372559e+00" cType="1" res="-2.5432083755731583e-02" rms="3.6792460083961487e-01" purity="1.7487008869647980e-01" nType="0">
              <Node pos="l" depth="4" NCoef="0" IVar="-1" Cut="0.0000000000000000e+00" cType="1" res="-1.4015551423653960e-03" rms="3.8337633013725281e-01" purity="1.9762058556079865e-01" nType="-99"/>
              <Node pos="r" depth="4" NCoef="0" IVar="-1" Cut="0.0000000000000000e+00" cType="1" res="-7.0124994963407516e-03" rms="3.5294792056083679e-01" purity="1.5462885797023773e-01" nType="-99"/>
            </Node>
          </Node>
          <Node pos="r" depth="2" NCoef="0" IVar="1" Cut="1.7258813381195068e+00" cType="1" res="-2.6653487235307693e-02" rms="2.1910503506660461e-01" purity="5.2046503871679306e-02" nType="0">
            <Node pos="l" depth="3" NCoef="0" IVar="4" Cut="1.2857218086719513e-01" cType="1" res="-2.8563139960169792e-02" rms="2.1555602550506592e-01" purity="5.0426989793777466e-02" nType="0">
              <Node pos="l" depth="4" NCoef="0" IVar="2" Cut="7.3731475830078125e+01" cType="1" res="-3.2759454101324081e-02" rms="1.9043608009815216e-01" purity="3.9071492850780487e-02" nType="0">
                <Node pos="l" depth="5" NCoef="0" IVar="-1" Cut="0.0000000000000000e+00" cType="1" res="-6.7448155023157597e-03" rms="2.4411360919475555e-01" purity="6.7456044256687164e-02" nType="-99"/>
                <Node pos="r" depth="5" NCoef="0" IVar="4" Cut="1.0994599759578705e-01" cType="1" res="-3.6021873354911804e-02" rms="1.7629183828830719e-01" purity="3.2831259071826935e-02" nType="0">
                  <Node pos="l" depth="6" NCoef="0" IVar="5" Cut="5.0000000000000000e+00" cType="1" res="-3.8071323186159134e-02" rms="1.6582892835140228e-01" purity="2.9808124527335167e-02" nType="0">
                    <Node pos="l" depth="7" NCoef="0" IVar="-1" Cut="0.0000000000000000e+00" cType="1" res="-1.7476823180913925e-02" rms="1.9111870229244232e-01" purity="3.8796894252300262e-02" nType="-99"/>
                    <Node pos="r" depth="7" NCoef="0" IVar="-1" Cut="0.0000000000000000e+00" cType="1" res="-1.7421690747141838e-02" rms="1.5418772399425507e-01" purity="2.4671019986271858e-02" nType="-99"/>
                  </Node>
                  <Node pos="r" depth="6" NCoef="0" IVar="-1" Cut="0.0000000000000000e+00" cType="1" res="-1.1807361617684364e-02" rms="2.0779730379581451e-01" purity="4.6821869909763336e-02" nType="-99"/>
                </Node>
              </Node>
              <Node pos="r" depth="4" NCoef="0" IVar="5" Cut="8.0000000000000000e+00" cType="1" res="-1.9866500049829483e-02" rms="2.6012712717056274e-01" purity="7.4493914842605591e-02" nType="0">
                <Node pos="l" depth="5" NCoef="0" IVar="1" Cut="2.5828278064727783e-01" cType="1" res="-1.4823728241026402e-02" rms="2.7067291736602783e-01" purity="8.0805152654647827e-02" nType="0">
                  <Node pos="l" depth="6" NCoef="0" IVar="-1" Cut="0.0000000000000000e+00" cType="1" res="-8.5867126472294331e-04" rms="2.9405471682548523e-01" purity="9.7319290041923523e-02" nType="-99"/>
                  <Node pos="r" depth="6" NCoef="0" IVar="-1" Cut="0.0000000000000000e+00" cType="1" res="-1.0726683773100376e-02" rms="2.3989398777484894e-01" purity="6.1616379767656326e-02" nType="-99"/>
                </Node>
                <Node pos="r" depth="5" NCoef="0" IVar="-1" Cut="0.0000000000000000e+00" cType="1" res="-1.1688311584293842e-02" rms="2.3189267516136169e-01" purity="5.7869255542755127e-02" nType="-99"/>
              </Node>
            </Node>
            <Node pos="r" depth="3" NCoef="0" IVar="-1" Cut="0.0000000000000000e+00" cType="1" res="-3.9537386037409306e-03" rms="2.4806374311447144e-01" purity="6.6592633724212646e-02" nType="-99"/>
          </Node>
        </Node>
        <Node pos="r" depth="1" NCoef="0" IVar="0" Cut="5.2993136644363403e-01" cType="1" res="2.5254508480429649e-02" rms="4.3730676174163818e-01" purity="7.1559792757034302e-01" nType="0">
          <Node pos="l" depth="2" NCoef="0" IVar="3" Cut="9.5704919099807739e-01" cType="1" res="2.7088949456810951e-02" rms="4.3574717640876770e-01" purity="7.2482907772064209e-01" nType="0">
            <Node pos="l" depth="3" NCoef="0" IVar="1" Cut="6.3768815994262695e-01" cType="1" res="1.7605800181627274e-02" rms="4.6522131562232971e-01" purity="6.5664839744567871e-01" nType="0">
              <Node pos="l" depth="4" NCoef="0" IVar="4" Cut="2.5483043864369392e-02" cType="1" res="2.0856494084000587e-02" rms="4.6227118372917175e-01" purity="6.7383104562759399e-01" nType="0">
                <Node pos="l" depth="5" NCoef="0" IVar="2" Cut="3.9258708953857422e+01" cType="1" res="1.1198516003787518e-02" rms="4.5669037103652954e-01" purity="6.9000923633575439e-01" nType="0">
                  <Node pos="l" depth="6" NCoef="0" IVar="4" Cut="1.1585648171603680e-02" cType="1" res="2.0119680091738701e-02" rms="4.5158752799034119e-01" purity="7.0484453439712524e-01" nType="0">
                    <Node pos="l" depth="7" NCoef="0" IVar="-1" Cut="0.0000000000000000e+00" cType="1" res="1.1642713798210025e-03" rms="4.4803312420845032e-01" purity="7.1188640594482422e-01" nType="-99"/>
                    <Node pos="r" depth="7" NCoef="0" IVar="-1" Cut="0.0000000000000000e+00" cType="1" res="3.0718543566763401e-03" rms="4.5694586634635925e-01" purity="6.9350844621658325e-01" nType="-99"/>
                  </Node>
                  <Node pos="r" depth="6" NCoef="0" IVar="-1" Cut="0.0000000000000000e+00" cType="1" res="-6.8982521770521998e-04" rms="4.6625745296478271e-01" purity="6.6020601987838745e-01" nType="-99"/>
                </Node>
                <Node pos="r" depth="5" NCoef="0" IVar="3" Cut="7.9105937480926514e-01" cType="1" res="2.4451363831758499e-02" rms="4.6428003907203674e-01" purity="6.6780930757522583e-01" nType="0">
                  <Node pos="l" depth="6" NCoef="0" IVar="5" Cut="3.0000000000000000e+00" cType="1" res="1.1036411859095097e-02" rms="3.7752407789230347e-01" purity="5.9484970569610596e-01" nType="0">
                    <Node pos="l" depth="7" NCoef="0" IVar="-1" Cut="0.0000000000000000e+00" cType="1" res="3.2804478541947901e-04" rms="4.9113076925277710e-01" purity="5.6663900613784790e-01" nType="-99"/>
                    <Node pos="r" depth="7" NCoef="0" IVar="-1" Cut="0.0000000000000000e+00" cType="1" res="2.7184162754565477e-03" rms="4.8025622963905334e-01" purity="6.2483322620391846e-01" nType="-99"/>
                  </Node>
                  <Node pos="r" depth="6" NCoef="0" IVar="2" Cut="5.8634574890136719e+01" cType="1" res="2.8825698420405388e-02" rms="4.5146015286445618e-01" purity="7.0898872613906860e-01" nType="0">
                    <Node pos="l" depth="7" NCoef="0" IVar="-1" Cut="0.0000000000000000e+00" cType="1" res="3.5681910812854767e-03" rms="4.4304648041725159e-01" purity="7.2902464866638184e-01" nType="-99"/>
                    <Node pos="r" depth="7" NCoef="0" IVar="-1" Cut="0.0000000000000000e+00" cType="1" res="2.4020103737711906e-03" rms="4.5405736565589905e-01" purity="7.0257234573364258e-01" nType="-99"/>
                  </Node>
                </Node>
              </Node>
              <Node pos="r" depth="4" NCoef="0" IVar="4" Cut="4.3809790164232254e-02" cType="1" res="-1.4645941555500031e-02" rms="4.9237528443336487e-01" purity="4.8617109656333923e-01" nType="0">
                <Node pos="l" depth="5" NCoef="0" IVar="-1" Cut="0.0000000000000000e+00" cType="1" res="-4.0802732110023499e-03" rms="4.8993837833404541e-01" purity="4.7134035825729370e-01" nType="-99"/>
                <Node pos="r" depth="5" NCoef="0" IVar="-1" Cut="0.0000000000000000e+00" cType="1" res="1.9173072651028633e-03" rms="4.9271675944328308e-01" purity="5.0403010845184326e-01" nType="-99"/>
              </Node>
            </Node>
            <Node pos="r" depth="3" NCoef="0" IVar="0" Cut="2.2210396826267242e-01" cType="1" res="3.5187572240829468e-02" rms="4.0872356295585632e-01" purity="7.8305542469024658e-01" nType="0">
              <Node pos="l" depth="4" NCoef="0" IVar="1" Cut="6.2359780073165894e-01" cType="1" res="3.6696247756481171e-02" rms="4.0563625097274780e-01" purity="7.8883403539657593e-01" nType="0">
                <Node pos="l" depth="5" NCoef="0" IVar="1" Cut="-2.4362510442733765e-01" cType="1" res="3.7857778370380402e-02" rms="3.9922496676445007e-01" purity="8.0010956525802612e-01" nType="0">
                  <Node pos="l" depth="6" NCoef="0" IVar="-1" Cut="0.0000000000000000e+00" cType="1" res="1.7575235106050968e-03" rms="4.1376835107803345e-01" purity="7.8039026260375977e-01" nType="-99"/>
                  <Node pos="r" depth="6" NCoef="0" IVar="1" Cut="8.1396186724305153e-03" cType="1" res="3.9333689957857132e-02" rms="3.9808082580566406e-01" purity="8.0157858133316040e-01" nType="0">
                    <Node pos="l" depth="7" NCoef="0" IVar="-1" Cut="0.0000000000000000e+00" cType="1" res="4.9742627888917923e-03" rms="3.8549241423606873e-01" purity="8.1826633214950562e-01" nType="-99"/>
                    <Node pos="r" depth="7" NCoef="0" IVar="-1" Cut="0.0000000000000000e+00" cType="1" res="3.3694775775074959e-03" rms="4.1027981042861938e-01" purity="7.8474968671798706e-01" nType="-99"/>
                  </Node>
                </Node>
                <Node pos="r" depth="5" NCoef="0" IVar="-1" Cut="0.0000000000000000e+00" cType="1" res="2.0614655222743750e-03" rms="4.6812286972999573e-01" purity="6.6916799545288086e-01" nType="-99"/>
              </Node>
              <Node pos="r" depth="4" NCoef="0" IVar="-1" Cut="0.0000000000000000e+00" cType="1" res="9.1963971499353647e-05" rms="4.7196146845817566e-01" purity="6.5225189924240112e-01" nType="-99"/>
            </Node>
          </Node>
          <Node pos="r" depth="2" NCoef="0" IVar="-1" Cut="0.0000000000000000e+00" cType="1" res="-3.2038742210716009e-03" rms="4.8204302787780762e-01" purity="4.1120931506156921e-01" nType="-99"/>
        </Node>
      </Node>
    </BinaryTree>
    <BinaryTree type="DecisionTree" boostWeight="1.0000000000000000e+00" itree="56">
      <Node pos="s" depth="0" NCoef="0" IVar="0" Cut="3.2215392589569092e-01" cType="1" res="7.8044654801487923e-03" rms="4.1124278306961060e-01" purity="4.9883210659027100e-01" nType="0">
        <Node pos="l" depth="1" NCoef="0" IVar="3" Cut="9.0091216564178467e-01" cType="1" res="2.1354511380195618e-02" rms="4.4026145339012146e-01" purity="6.7427361011505127e-01" nType="0">
          <Node pos="l" depth="2" NCoef="0" IVar="0" Cut="1.0390379466116428e-02" cType="1" res="8.6188428103923798e-03" rms="4.6941360831260681e-01" purity="5.6295341253280640e-01" nType="0">
            <Node pos="l" depth="3" NCoef="0" IVar="3" Cut="6.1557906866073608e-01" cType="1" res="1.4401304535567760e-02" rms="4.6750152111053467e-01" purity="5.9086048603057861e-01" nType="0">
              <Node pos="l" depth="4" NCoef="0" IVar="5" Cut="5.0000000000000000e+00" cType="1" res="-5.4684826172888279e-03" rms="4.5689836144447327e-01" purity="3.2447999715805054e-01" nType="0">
                <Node pos="l" depth="5" NCoef="0" IVar="4" Cut="1.4188274741172791e-01" cType="1" res="-1.3533134013414383e-02" rms="4.6189281344413757e-01" purity="3.3078026771545410e-01" nType="0">
                  <Node pos="l" depth="6" NCoef="0" IVar="-1" Cut="0.0000000000000000e+00" cType="1" res="-4.0872031822800636e-03" rms="4.6041244268417358e-01" purity="3.3673745393753052e-01" nType="-99"/>
                  <Node pos="r" depth="6" NCoef="0" IVar="-1" Cut="0.0000000000000000e+00" cType="1" res="7.4638955993577838e-04" rms="4.6194735169410706e-01" purity="3.2634776830673218e-01" nType="-99"/>
                </Node>
                <Node pos="r" depth="5" NCoef="0" IVar="-1" Cut="0.0000000000000000e+00" cType="1" res="1.4432065654546022e-03" rms="4.4538137316703796e-01" purity="3.1055369973182678e-01" nType="-99"/>
              </Node>
              <Node pos="r" depth="4" NCoef="0" IVar="5" Cut="3.0000000000000000e+00" cType="1" res="1.8637185916304588e-02" rms="4.6958446502685547e-01" purity="6.4728665351867676e-01" nType="0">
                <Node pos="l" depth="5" NCoef="0" IVar="3" Cut="7.8127223253250122e-01" cType="1" res="1.3832530006766319e-02" rms="4.6301212906837463e-01" purity="6.6854548454284668e-01" nType="0">
                  <Node pos="l" depth="6" NCoef="0" IVar="3" Cut="7.3852491378784180e-01" cType="1" res="-6.7152557894587517e-03" rms="4.9194598197937012e-01" purity="5.4143893718719482e-01" nType="0">
                    <Node pos="l" depth="7" NCoef="0" IVar="-1" Cut="0.0000000000000000e+00" cType="1" res="-8.2575785927474499e-04" rms="4.9358746409416199e-01" purity="5.0201129913330078e-01" nType="-99"/>
                    <Node pos="r" depth="7" NCoef="0" IVar="-1" Cut="0.0000000000000000e+00" cType="1" res="-2.7945986948907375e-04" rms="4.9018874764442444e-01" purity="5.8300340175628662e-01" nType="-99"/>
                  </Node>
                  <Node pos="r" depth="6" NCoef="0" IVar="4" Cut="4.8085093498229980e-02" cType="1" res="1.7612375319004059e-02" rms="4.5738989114761353e-01" purity="6.9192725419998169e-01" nType="0">
                    <Node pos="l" depth="7" NCoef="0" IVar="-1" Cut="0.0000000000000000e+00" cType="1" res="1.0614111088216305e-03" rms="4.5669385790824890e-01" purity="6.9296759366989136e-01" nType="-99"/>
                    <Node pos="r" depth="7" NCoef="0" IVar="-1" Cut="0.0000000000000000e+00" cType="1" res="2.7095866389572620e-03" rms="4.5860370993614197e-01" purity="6.8962877988815308e-01" nType="-99"/>
                  </Node>
                </Node>
                <Node pos="r" depth="5" NCoef="0" IVar="2" Cut="7.6794197082519531e+01" cType="1" res="2.8832659125328064e-02" rms="4.8316279053688049e-01" purity="6.0198074579238892e-01" nType="0">
                  <Node pos="l" depth="6" NCoef="0" IVar="-1" Cut="0.0000000000000000e+00" cType="1" res="3.3253193832933903e-03" rms="4.7501248121261597e-01" purity="6.3469690084457397e-01" nType="-99"/>
                  <Node pos="r" depth="6" NCoef="0" IVar="4" Cut="5.0380356609821320e-02" cType="1" res="2.4348078295588493e-02" rms="4.8655810952186584e-01" purity="5.8790731430053711e-01" nType="0">
                    <Node pos="l" depth="7" NCoef="0" IVar="-1" Cut="0.0000000000000000e+00" cType="1" res="-7.3446048190817237e-05" rms="4.8579064011573792e-01" purity="5.8909016847610474e-01" nType="-99"/>
                    <Node pos="r" depth="7" NCoef="0" IVar="-1" Cut="0.0000000000000000e+00" cType="1" res="2.8269933536648750e-03" rms="4.8653244972229004e-01" purity="5.8754050731658936e-01" nType="-99"/>
                  </Node>
                </Node>
              </Node>
            </Node>
            <Node pos="r" depth="3" NCoef="0" IVar="1" Cut="3.6824730038642883e-01" cType="1" res="-1.3114525005221367e-02" rms="4.7590371966362000e-01" purity="4.5806464552879333e-01" nType="0">
              <Node pos="l" depth="4" NCoef="0" IVar="0" Cut="2.8224271535873413e-01" cType="1" res="-8.5290143033489585e-04" rms="4.7963637113571167e-01" purity="4.8935341835021973e-01" nType="0">
                <Node pos="l" depth="5" NCoef="0" IVar="2" Cut="1.2755870056152344e+02" cType="1" res="-1.0786291211843491e-02" rms="4.7929784655570984e-01" purity="4.9838936328887939e-01" nType="0">
                  <Node pos="l" depth="6" NCoef="0" IVar="-1" Cut="0.0000000000000000e+00" cType="1" res="-3.7581205833703279e-04" rms="4.8609060049057007e-01" purity="5.6435573101043701e-01" nType="-99"/>
                  <Node pos="r" depth="6" NCoef="0" IVar="-1" Cut="0.0000000000000000e+00" cType="1" res="-1.8417320679873228e-03" rms="4.7227945923805237e-01" purity="4.3217208981513977e-01" nType="-99"/>
                </Node>
                <Node pos="r" depth="5" NCoef="0" IVar="-1" Cut="0.0000000000000000e+00" cType="1" res="2.1389035973697901e-03" rms="4.7963216900825500e-01" purity="4.6850055456161499e-01" nType="-99"/>
              </Node>
              <Node pos="r" depth="4" NCoef="0" IVar="-1" Cut="0.0000000000000000e+00" cType="1" res="-6.5996129997074604e-03" rms="4.5751580595970154e-01" purity="3.3361020684242249e-01" nType="-99"/>
            </Node>
          </Node>
          <Node pos="r" depth="2" NCoef="0" IVar="3" Cut="1.0395035743713379e+00" cType="1" res="3.3744446933269501e-02" rms="4.0953606367111206e-01" purity="7.8257179260253906e-01" nType="0">
            <Node pos="l" depth="3" NCoef="0" IVar="3" Cut="9.9926829338073730e-01" cType="1" res="3.4647975116968155e-02" rms="4.0884718298912048e-01" purity="7.8364521265029907e-01" nType="0">
              <Node pos="l" depth="4" NCoef="0" IVar="1" Cut="7.0233374834060669e-01" cType="1" res="2.8843199834227562e-02" rms="4.1645786166191101e-01" purity="7.7127027511596680e-01" nType="0">
                <Node pos="l" depth="5" NCoef="0" IVar="1" Cut="2.4250735342502594e-01" cType="1" res="3.1377740204334259e-02" rms="4.1102230548858643e-01" purity="7.8278726339340210e-01" nType="0">
                  <Node pos="l" depth="6" NCoef="0" IVar="1" Cut="-2.0247951149940491e-01" cType="1" res="3.3555496484041214e-02" rms="4.0495461225509644e-01" purity="7.9241943359375000e-01" nType="0">
                    <Node pos="l" depth="7" NCoef="0" IVar="-1" Cut="0.0000000000000000e+00" cType="1" res="1.9885820802301168e-03" rms="4.1505274176597595e-01" purity="7.7830010652542114e-01" nType="-99"/>
                    <Node pos="r" depth="7" NCoef="0" IVar="-1" Cut="0.0000000000000000e+00" cType="1" res="3.8493669126182795e-03" rms="4.0364295244216919e-01" purity="7.9417890310287476e-01" nType="-99"/>
                  </Node>
                  <Node pos="r" depth="6" NCoef="0" IVar="3" Cut="9.9292403459548950e-01" cType="1" res="2.1483425050973892e-02" rms="4.3739512562751770e-01" purity="7.3902505636215210e-01" nType="0">
                    <Node pos="l" depth="7" NCoef="0" IVar="-1" Cut="0.0000000000000000e+00" cType="1" res="8.5189065430313349e-04" rms="4.5250400900840759e-01" purity="7.0874410867691040e-01" nType="-99"/>
                    <Node pos="r" depth="7" NCoef="0" IVar="-1" Cut="0.0000000000000000e+00" cType="1" res="3.3716000616550446e-03" rms="4.2215788364410400e-01" purity="7.6784503459930420e-01" nType="-99"/>
                  </Node>
                </Node>
                <Node pos="r" depth="5" NCoef="0" IVar="-1" Cut="0.0000000000000000e+00" cType="1" res="-5.7313148863613605e-04" rms="4.8482605814933777e-01" purity="6.1003565788269043e-01" nType="-99"/>
              </Node>
              <Node pos="r" depth="4" NCoef="0" IVar="3" Cut="1.0135451555252075e+00" cType="1" res="4.2510904371738434e-02" rms="3.9817127585411072e-01" purity="8.0040788650512695e-01" nType="0">
                <Node pos="l" depth="5" NCoef="0" IVar="3" Cut="1.0015708208084106e+00" cType="1" res="4.4573221355676651e-02" rms="3.9705437421798706e-01" purity="8.0189251899719238e-01" nType="0">
                  <Node pos="l" depth="6" NCoef="0" IVar="3" Cut="1.0006052255630493e+00" cType="1" res="3.7653218954801559e-02" rms="4.0593948960304260e-01" purity="7.9000604152679443e-01" nType="0">
                    <Node pos="l" depth="7" NCoef="0" IVar="-1" Cut="0.0000000000000000e+00" cType="1" res="4.2032096534967422e-03" rms="4.0463954210281372e-01" purity="7.9194074869155884e-01" nType="-99"/>
                    <Node pos="r" depth="7" NCoef="0" IVar="-1" Cut="0.0000000000000000e+00" cType="1" res="3.2797174062579870e-03" rms="4.0779170393943787e-01" purity="7.8716093301773071e-01" nType="-99"/>
                  </Node>
                  <Node pos="r" depth="6" NCoef="0" IVar="3" Cut="1.0042742490768433e+00" cType="1" res="4.9289084970951080e-02" rms="3.9081344008445740e-01" purity="8.0999296903610229e-01" nType="0">
                    <Node pos="l" depth="7" NCoef="0" IVar="-1" Cut="0.0000000000000000e+00" cType="1" res="5.5960179306566715e-03" rms="3.8768643140792847e-01" purity="8.1399130821228027e-01" nType="-99"/>
                    <Node pos="r" depth="7" NCoef="0" IVar="-1" Cut="0.0000000000000000e+00" cType="1" res="4.6875355765223503e-03" rms="3.9340403676033020e-01" purity="8.0657792091369629e-01" nType="-99"/>
                  </Node>
                </Node>
                <Node pos="r" depth="5" NCoef="0" IVar="3" Cut="1.0244311094284058e+00" cType="1" res="3.6656856536865234e-02" rms="4.0126702189445496e-01" purity="7.9619348049163818e-01" nType="0">
                  <Node pos="l" depth="6" NCoef="0" IVar="-1" Cut="0.0000000000000000e+00" cType="1" res="3.5834715235978365e-03" rms="4.0149292349815369e-01" purity="7.9597836732864380e-01" nType="-99"/>
                  <Node pos="r" depth="6" NCoef="0" IVar="-1" Cut="0.0000000000000000e+00" cType="1" res="4.0423385798931122e-03" rms="4.0095964074134827e-01" purity="7.9646992683410645e-01" nType="-99"/>
                </Node>
              </Node>
            </Node>
            <Node pos="r" depth="3" NCoef="0" IVar="-1" Cut="0.0000000000000000e+00" cType="1" res="1.8422256689518690e-03" rms="4.2071416974067688e-01" purity="7.6443082094192505e-01" nType="-99"/>
          </Node>
        </Node>
        <Node pos="r" depth="1" NCoef="0" IVar="0" Cut="9.4568216800689697e-01" cType="1" res="-1.6375590115785599e-02" rms="3.5229834914207458e-01" purity="1.8575677275657654e-01" nType="0">
          <Node pos="l" depth="2" NCoef="0" IVar="1" Cut="6.8879085779190063e-01" cType="1" res="-6.7916056141257286e-03" rms="4.2893633246421814e-01" purity="2.9954943060874939e-01" nType="0">
            <Node pos="l" depth="3" NCoef="0" IVar="2" Cut="6.5641311645507812e+01" cType="1" res="-1.1842347448691726e-03" rms="4.3636560440063477e-01" purity="3.1728008389472961e-01" nType="0">
              <Node pos="l" depth="4" NCoef="0" IVar="3" Cut="6.6652065515518188e-01" cType="1" res="2.7599567547440529e-02" rms="4.7250312566757202e-01" purity="4.7080162167549133e-01" nType="0">
                <Node pos="l" depth="5" NCoef="0" IVar="-1" Cut="0.0000000000000000e+00" cType="1" res="-3.2195638050325215e-04" rms="4.4987887144088745e-01" purity="3.0481427907943726e-01" nType="-99"/>
                <Node pos="r" depth="5" NCoef="0" IVar="-1" Cut="0.0000000000000000e+00" cType="1" res="4.0025888010859489e-03" rms="4.8691606521606445e-01" purity="5.8988016843795776e-01" nType="-99"/>
              </Node>
              <Node pos="r" depth="4" NCoef="0" IVar="4" Cut="4.9178361892700195e-02" cType="1" res="-9.9630914628505707e-03" rms="4.2434409260749817e-01" purity="2.7045708894729614e-01" nType="0">
                <Node pos="l" depth="5" NCoef="0" IVar="-1" Cut="0.0000000000000000e+00" cType="1" res="-4.1136918589472771e-03" rms="4.3422186374664307e-01" purity="2.9228827357292175e-01" nType="-99"/>
                <Node pos="r" depth="5" NCoef="0" IVar="2" Cut="3.8325778198242188e+02" cType="1" res="-5.3309090435504913e-03" rms="4.2234542965888977e-01" purity="2.6645761728286743e-01" nType="0">
                  <Node pos="l" depth="6" NCoef="0" IVar="3" Cut="5.1822036504745483e-01" cType="1" res="2.0925470162183046e-03" rms="4.3670246005058289e-01" purity="2.9731193184852600e-01" nType="0">
                    <Node pos="l" depth="7" NCoef="0" IVar="-1" Cut="0.0000000000000000e+00" cType="1" res="-1.8587390659376979e-03" rms="3.7549978494644165e-01" purity="1.7780554294586182e-01" nType="-99"/>
                    <Node pos="r" depth="7" NCoef="0" IVar="-1" Cut="0.0000000000000000e+00" cType="1" res="1.0469760745763779e-03" rms="4.7087210416793823e-01" purity="3.7227776646614075e-01" nType="-99"/>
                  </Node>
                  <Node pos="r" depth="6" NCoef="0" IVar="5" Cut="5.0000000000000000e+00" cType="1" res="-2.2693311795592308e-02" rms="3.4856134653091431e-01" purity="1.7692019045352936e-01" nType="0">
                    <Node pos="l" depth="7" NCoef="0" IVar="-1" Cut="0.0000000000000000e+00" cType="1" res="-5.4130782373249531e-03" rms="3.9942812919616699e-01" purity="2.0451633632183075e-01" nType="-99"/>
                    <Node pos="r" depth="7" NCoef="0" IVar="-1" Cut="0.0000000000000000e+00" cType="1" res="-3.1136395409703255e-03" rms="3.5408148169517517e-01" purity="1.5122261643409729e-01" nType="-99"/>
                  </Node>
                </Node>
              </Node>
            </Node>
            <Node pos="r" depth="3" NCoef="0" IVar="1" Cut="9.8527383804321289e-01" cType="1" res="-4.1446235030889511e-02" rms="3.7797003984451294e-01" purity="1.8997061252593994e-01" nType="0">
              <Node pos="l" depth="4" NCoef="0" IVar="-1" Cut="0.0000000000000000e+00" cType="1" res="-1.8274633912369609e-03" rms="3.9946746826171875e-01" purity="2.2089558839797974e-01" nType="-99"/>
              <Node pos="r" depth="4" NCoef="0" IVar="-1" Cut="0.0000000000000000e+00" cType="1" res="-1.0276543907821178e-02" rms="3.5687646269798279e-01" purity="1.6368642449378967e-01" nType="-99"/>
            </Node>
          </Node>
          <Node pos="r" depth="2" NCoef="0" IVar="3" Cut="5.8163696527481079e-01" cType="1" res="-2.5556374341249466e-02" rms="2.5804743170738220e-01" purity="7.6751388609409332e-02" nType="0">
            <Node pos="l" depth="3" NCoef="0" IVar="5" Cut="3.0000000000000000e+00" cType="1" res="-2.1098926663398743e-02" rms="2.4190717935562134e-01" purity="6.4900845289230347e-02" nType="0">
              <Node pos="l" depth="4" NCoef="0" IVar="-1" Cut="0.0000000000000000e+00" cType="1" res="1.8398682586848736e-03" rms="3.2692903280258179e-01" purity="1.2559956312179565e-01" nType="-99"/>
              <Node pos="r" depth="4" NCoef="0" IVar="0" Cut="1.8206316232681274e+00" cType="1" res="-2.3151364177465439e-02" rms="2.3516498506069183e-01" purity="6.0721281915903091e-02" nType="0">
                <Node pos="l" depth="5" NCoef="0" IVar="2" Cut="1.2994671630859375e+02" cType="1" res="-1.8537078052759171e-02" rms="2.6857665181159973e-01" purity="8.0621942877769470e-02" nType="0">
                  <Node pos="l" depth="6" NCoef="0" IVar="4" Cut="5.7706136256456375e-02" cType="1" res="-6.9939480163156986e-03" rms="2.9185712337493896e-01" purity="9.7961962223052979e-02" nType="0">
                    <Node pos="l" depth="7" NCoef="0" IVar="-1" Cut="0.0000000000000000e+00" cType="1" res="-6.9553223438560963e-03" rms="2.6482662558555603e-01" purity="7.8196398913860321e-02" nType="-99"/>
                    <Node pos="r" depth="7" NCoef="0" IVar="-1" Cut="0.0000000000000000e+00" cType="1" res="4.1290028020739555e-03" rms="3.2370096445083618e-01" purity="1.2478008121252060e-01" nType="-99"/>
                  </Node>
                  <Node pos="r" depth="6" NCoef="0" IVar="4" Cut="1.3154757022857666e-01" cType="1" res="-2.3138094693422318e-02" rms="2.5857034325599670e-01" purity="7.3710322380065918e-02" nType="0">
                    <Node pos="l" depth="7" NCoef="0" IVar="-1" Cut="0.0000000000000000e+00" cType="1" res="-1.0029376484453678e-02" rms="2.3168261349201202e-01" purity="5.8006983250379562e-02" nType="-99"/>
                    <Node pos="r" depth="7" NCoef="0" IVar="-1" Cut="0.0000000000000000e+00" cType="1" res="-3.9977342821657658e-03" rms="2.9466173052787781e-01" purity="9.7657695412635803e-02" nType="-99"/>
                  </Node>
                </Node>
                <Node pos="r" depth="5" NCoef="0" IVar="5" Cut="5.0000000000000000e+00" cType="1" res="-2.8012814000248909e-02" rms="1.9090521335601807e-01" purity="3.9325773715972900e-02" nType="0">
                  <Node pos="l" depth="6" NCoef="0" IVar="-1" Cut="0.0000000000000000e+00" cType="1" res="-7.5639984570443630e-03" rms="2.3425987362861633e-01" purity="5.8949913829565048e-02" nType="-99"/>
                  <Node pos="r" depth="6" NCoef="0" IVar="4" Cut="7.7187381684780121e-02" cType="1" res="-3.1514775007963181e-02" rms="1.7690889537334442e-01" purity="3.2883573323488235e-02" nType="0">
                    <Node pos="l" depth="7" NCoef="0" IVar="-1" Cut="0.0000000000000000e+00" cType="1" res="-2.1573655307292938e-02" rms="1.2836469709873199e-01" purity="1.6827950254082680e-02" nType="-99"/>
                    <Node pos="r" depth="7" NCoef="0" IVar="-1" Cut="0.0000000000000000e+00" cType="1" res="-1.2972240336239338e-02" rms="1.9846256077289581e-01" purity="4.1690807789564133e-02" nType="-99"/>
                  </Node>
                </Node>
              </Node>
            </Node>
            <Node pos="r" depth="3" NCoef="0" IVar="-1" Cut="0.0000000000000000e+00" cType="1" res="-1.0344898328185081e-02" rms="4.4192630052566528e-01" purity="2.7830365300178528e-01" nType="-99"/>
          </Node>
        </Node>
      </Node>
    </BinaryTree>
    <BinaryTree type="DecisionTree" boostWeight="1.0000000000000000e+00" itree="57">
      <Node pos="s" depth="0" NCoef="0" IVar="3" Cut="6.5178853273391724e-01" cType="1" res="7.5538367964327335e-03" rms="4.1157805919647217e-01" purity="5.0009590387344360e-01" nType="0">
        <Node pos="l" depth="1" NCoef="0" IVar="3" Cut="4.2467999458312988e-01" cType="1" res="-1.5729699283838272e-02" rms="3.5168147087097168e-01" purity="1.7251580953598022e-01" nType="0">
          <Node pos="l" depth="2" NCoef="0" IVar="4" Cut="2.0539504289627075e-01" cType="1" res="-2.1623842418193817e-02" rms="2.6684007048606873e-01" purity="8.2482434809207916e-02" nType="0">
            <Node pos="l" depth="3" NCoef="0" IVar="4" Cut="1.2613512575626373e-01" cType="1" res="-2.4696027860045433e-02" rms="2.3957818746566772e-01" purity="6.3799366354942322e-02" nType="0">
              <Node pos="l" depth="4" NCoef="0" IVar="3" Cut="2.9147973656654358e-01" cType="1" res="-2.7422925457358360e-02" rms="2.0850962400436401e-01" purity="4.6880308538675308e-02" nType="0">
                <Node pos="l" depth="5" NCoef="0" IVar="1" Cut="1.2066360712051392e+00" cType="1" res="-3.1458035111427307e-02" rms="1.6751176118850708e-01" purity="2.9594806954264641e-02" nType="0">
                  <Node pos="l" depth="6" NCoef="0" IVar="4" Cut="6.1591580510139465e-02" cType="1" res="-3.6522150039672852e-02" rms="1.5158088505268097e-01" purity="2.4054085835814476e-02" nType="0">
                    <Node pos="l" depth="7" NCoef="0" IVar="-1" Cut="0.0000000000000000e+00" cType="1" res="-2.2256731986999512e-02" rms="1.3341535627841949e-01" purity="1.8355727195739746e-02" nType="-99"/>
                    <Node pos="r" depth="7" NCoef="0" IVar="-1" Cut="0.0000000000000000e+00" cType="1" res="-1.7952794209122658e-02" rms="1.6010178625583649e-01" purity="2.7004726231098175e-02" nType="-99"/>
                  </Node>
                  <Node pos="r" depth="6" NCoef="0" IVar="-1" Cut="0.0000000000000000e+00" cType="1" res="-9.3154357746243477e-03" rms="2.0250889658927917e-01" purity="4.3970078229904175e-02" nType="-99"/>
                </Node>
                <Node pos="r" depth="5" NCoef="0" IVar="2" Cut="2.8506756591796875e+02" cType="1" res="-2.4426389485597610e-02" rms="2.3431478440761566e-01" purity="5.9716794639825821e-02" nType="0">
                  <Node pos="l" depth="6" NCoef="0" IVar="4" Cut="8.9714281260967255e-02" cType="1" res="-2.1432805806398392e-02" rms="2.4194599688053131e-01" purity="6.4003631472587585e-02" nType="0">
                    <Node pos="l" depth="7" NCoef="0" IVar="-1" Cut="0.0000000000000000e+00" cType="1" res="-9.5827076584100723e-03" rms="2.2688262164592743e-01" purity="5.5385630577802658e-02" nType="-99"/>
                    <Node pos="r" depth="7" NCoef="0" IVar="-1" Cut="0.0000000000000000e+00" cType="1" res="-3.4268288873136044e-03" rms="2.8274628520011902e-01" purity="9.0306282043457031e-02" nType="-99"/>
                  </Node>
                  <Node pos="r" depth="6" NCoef="0" IVar="-1" Cut="0.0000000000000000e+00" cType="1" res="-1.2478507123887539e-02" rms="2.0794704556465149e-01" purity="4.6102292835712433e-02" nType="-99"/>
                </Node>
              </Node>
              <Node pos="r" depth="4" NCoef="0" IVar="0" Cut="9.6759283542633057e-01" cType="1" res="-1.9465545192360878e-02" rms="2.8992912173271179e-01" purity="9.6251927316188812e-02" nType="0">
                <Node pos="l" depth="5" NCoef="0" IVar="-1" Cut="0.0000000000000000e+00" cType="1" res="-5.8257132768630981e-03" rms="3.4566387534141541e-01" purity="1.4292341470718384e-01" nType="-99"/>
                <Node pos="r" depth="5" NCoef="0" IVar="3" Cut="2.6735594868659973e-01" cType="1" res="-1.3702705502510071e-02" rms="2.5762042403221130e-01" purity="7.3076620697975159e-02" nType="0">
                  <Node pos="l" depth="6" NCoef="0" IVar="-1" Cut="0.0000000000000000e+00" cType="1" res="-1.2083325535058975e-02" rms="2.1104198694229126e-01" purity="4.7258615493774414e-02" nType="-99"/>
                  <Node pos="r" depth="6" NCoef="0" IVar="-1" Cut="0.0000000000000000e+00" cType="1" res="-5.6825479259714484e-04" rms="2.9252228140830994e-01" purity="9.6141718327999115e-02" nType="-99"/>
                </Node>
              </Node>
            </Node>
            <Node pos="r" depth="3" NCoef="0" IVar="5" Cut="6.0000000000000000e+00" cType="1" res="-7.6842638663947582e-03" rms="3.6572420597076416e-01" purity="1.6777387261390686e-01" nType="0">
              <Node pos="l" depth="4" NCoef="0" IVar="-1" Cut="0.0000000000000000e+00" cType="1" res="1.2307367287576199e-03" rms="3.9973610639572144e-01" purity="2.1038891375064850e-01" nType="-99"/>
              <Node pos="r" depth="4" NCoef="0" IVar="-1" Cut="0.0000000000000000e+00" cType="1" res="-3.9998712018132210e-03" rms="3.3832186460494995e-01" purity="1.3600939512252808e-01" nType="-99"/>
            </Node>
          </Node>
          <Node pos="r" depth="2" NCoef="0" IVar="5" Cut="4.0000000000000000e+00" cType="1" res="-9.0207271277904510e-03" rms="4.2573550343513489e-01" purity="2.7155780792236328e-01" nType="0">
            <Node pos="l" depth="3" NCoef="0" IVar="4" Cut="3.7950448691844940e-02" cType="1" res="-2.0122665911912918e-02" rms="4.2405483126640320e-01" purity="2.6550397276878357e-01" nType="0">
              <Node pos="l" depth="4" NCoef="0" IVar="-1" Cut="0.0000000000000000e+00" cType="1" res="-6.8793888203799725e-03" rms="3.8639914989471436e-01" purity="1.9907437264919281e-01" nType="-99"/>
              <Node pos="r" depth="4" NCoef="0" IVar="2" Cut="1.2204116821289062e+02" cType="1" res="-1.5983657911419868e-02" rms="4.2901188135147095e-01" purity="2.7500659227371216e-01" nType="0">
                <Node pos="l" depth="5" NCoef="0" IVar="-1" Cut="0.0000000000000000e+00" cType="1" res="8.3614460891112685e-04" rms="4.4607737660408020e-01" purity="3.1886890530586243e-01" nType="-99"/>
                <Node pos="r" depth="5" NCoef="0" IVar="3" Cut="6.1515754461288452e-01" cType="1" res="-2.4630863219499588e-02" rms="4.2223474383354187e-01" purity="2.5887933373451233e-01" nType="0">
                  <Node pos="l" depth="6" NCoef="0" IVar="4" Cut="1.4019213616847992e-01" cType="1" res="-2.9940783977508545e-02" rms="4.0391600131988525e-01" purity="2.2297273576259613e-01" nType="0">
                    <Node pos="l" depth="7" NCoef="0" IVar="-1" Cut="0.0000000000000000e+00" cType="1" res="-5.5152201093733311e-03" rms="3.8554677367210388e-01" purity="1.9455820322036743e-01" nType="-99"/>
                    <Node pos="r" depth="7" NCoef="0" IVar="-1" Cut="0.0000000000000000e+00" cType="1" res="-1.2712397146970034e-03" rms="4.5099869370460510e-01" purity="3.0277514457702637e-01" nType="-99"/>
                  </Node>
                  <Node pos="r" depth="6" NCoef="0" IVar="-1" Cut="0.0000000000000000e+00" cType="1" res="-7.0008781040087342e-04" rms="4.7739669680595398e-01" purity="3.7757122516632080e-01" nType="-99"/>
                </Node>
              </Node>
            </Node>
            <Node pos="r" depth="3" NCoef="0" IVar="1" Cut="3.2338973134756088e-02" cType="1" res="7.8172958455979824e-04" rms="4.2720425128936768e-01" purity="2.7713894844055176e-01" nType="0">
              <Node pos="l" depth="4" NCoef="0" IVar="0" Cut="3.2121926546096802e-01" cType="1" res="1.5739824622869492e-02" rms="4.5049804449081421e-01" purity="3.3277240395545959e-01" nType="0">
                <Node pos="l" depth="5" NCoef="0" IVar="-1" Cut="0.0000000000000000e+00" cType="1" res="3.3246641978621483e-03" rms="4.8702299594879150e-01" purity="4.4205233454704285e-01" nType="-99"/>
                <Node pos="r" depth="5" NCoef="0" IVar="3" Cut="4.9792215228080750e-01" cType="1" res="1.0079704225063324e-03" rms="4.1933086514472961e-01" purity="2.4783918261528015e-01" nType="0">
                  <Node pos="l" depth="6" NCoef="0" IVar="-1" Cut="0.0000000000000000e+00" cType="1" res="-2.7857741224579513e-04" rms="3.7951225042343140e-01" purity="1.8202352523803711e-01" nType="-99"/>
                  <Node pos="r" depth="6" NCoef="0" IVar="-1" Cut="0.0000000000000000e+00" cType="1" res="4.0429856744594872e-04" rms="4.5476353168487549e-01" purity="3.1195005774497986e-01" nType="-99"/>
                </Node>
              </Node>
              <Node pos="r" depth="4" NCoef="0" IVar="2" Cut="9.7582855224609375e+01" cType="1" res="-9.1447550803422928e-03" rms="4.1071733832359314e-01" purity="2.4021945893764496e-01" nType="0">
                <Node pos="l" depth="5" NCoef="0" IVar="-1" Cut="0.0000000000000000e+00" cType="1" res="4.3744212598539889e-04" rms="4.2182883620262146e-01" purity="2.6464334130287170e-01" nType="-99"/>
                <Node pos="r" depth="5" NCoef="0" IVar="4" Cut="7.7784419059753418e-02" cType="1" res="-1.3276073150336742e-02" rms="4.0688613057136536e-01" purity="2.3213051259517670e-01" nType="0">
                  <Node pos="l" depth="6" NCoef="0" IVar="-1" Cut="0.0000000000000000e+00" cType="1" res="-4.1129938326776028e-03" rms="3.7661266326904297e-01" purity="1.8948431313037872e-01" nType="-99"/>
                  <Node pos="r" depth="6" NCoef="0" IVar="0" Cut="4.7755733132362366e-01" cType="1" res="-6.7874900996685028e-03" rms="4.2064192891120911e-01" purity="2.5282886624336243e-01" nType="0">
                    <Node pos="l" depth="7" NCoef="0" IVar="-1" Cut="0.0000000000000000e+00" cType="1" res="-5.0102153181796893e-05" rms="4.5590403676033020e-01" purity="3.1643837690353394e-01" nType="-99"/>
                    <Node pos="r" depth="7" NCoef="0" IVar="-1" Cut="0.0000000000000000e+00" cType="1" res="-2.7120066806674004e-03" rms="3.6616113781929016e-01" purity="1.6488540172576904e-01" nType="-99"/>
                  </Node>
                </Node>
              </Node>
            </Node>
          </Node>
        </Node>
        <Node pos="r" depth="1" NCoef="0" IVar="2" Cut="3.6355923461914062e+02" cType="1" res="2.1322906017303467e-02" rms="4.4263026118278503e-01" purity="6.9381529092788696e-01" nType="0">
          <Node pos="l" depth="2" NCoef="0" IVar="1" Cut="1.3683842495083809e-02" cType="1" res="2.2760178893804550e-02" rms="4.4163540005683899e-01" purity="6.9867008924484253e-01" nType="0">
            <Node pos="l" depth="3" NCoef="0" IVar="2" Cut="7.0354896545410156e+01" cType="1" res="3.0912095680832863e-02" rms="4.2924153804779053e-01" purity="7.3623055219650269e-01" nType="0">
              <Node pos="l" depth="4" NCoef="0" IVar="4" Cut="4.2214974761009216e-02" cType="1" res="3.4953385591506958e-02" rms="4.1346278786659241e-01" purity="7.7135747671127319e-01" nType="0">
                <Node pos="l" depth="5" NCoef="0" IVar="2" Cut="3.1773000717163086e+01" cType="1" res="3.3539362251758575e-02" rms="4.1009277105331421e-01" purity="7.7693778276443481e-01" nType="0">
                  <Node pos="l" depth="6" NCoef="0" IVar="3" Cut="1.0099208354949951e+00" cType="1" res="3.5673640668392181e-02" rms="4.0398398041725159e-01" purity="7.8858530521392822e-01" nType="0">
                    <Node pos="l" depth="7" NCoef="0" IVar="-1" Cut="0.0000000000000000e+00" cType="1" res="3.5530198365449905e-03" rms="4.0699005126953125e-01" purity="7.8391009569168091e-01" nType="-99"/>
                    <Node pos="r" depth="7" NCoef="0" IVar="-1" Cut="0.0000000000000000e+00" cType="1" res="4.4274074025452137e-03" rms="3.9048388600349426e-01" purity="8.0905461311340332e-01" nType="-99"/>
                  </Node>
                  <Node pos="r" depth="6" NCoef="0" IVar="4" Cut="2.8203926980495453e-02" cType="1" res="1.6493035480380058e-02" rms="4.5559647679328918e-01" purity="6.8390941619873047e-01" nType="0">
                    <Node pos="l" depth="7" NCoef="0" IVar="-1" Cut="0.0000000000000000e+00" cType="1" res="1.1461328249424696e-03" rms="4.5682621002197266e-01" purity="6.7867064476013184e-01" nType="-99"/>
                    <Node pos="r" depth="7" NCoef="0" IVar="-1" Cut="0.0000000000000000e+00" cType="1" res="2.0969088654965162e-03" rms="4.5426043868064880e-01" purity="6.8933379650115967e-01" nType="-99"/>
                  </Node>
                </Node>
                <Node pos="r" depth="5" NCoef="0" IVar="-1" Cut="0.0000000000000000e+00" cType="1" res="4.3421406298875809e-03" rms="4.5640000700950623e-01" purity="6.9546359777450562e-01" nType="-99"/>
              </Node>
              <Node pos="r" depth="4" NCoef="0" IVar="4" Cut="7.3117353022098541e-02" cType="1" res="2.0291669294238091e-02" rms="4.6801325678825378e-01" purity="6.4391773939132690e-01" nType="0">
                <Node pos="l" depth="5" NCoef="0" IVar="3" Cut="8.7787091732025146e-01" cType="1" res="1.4214539900422096e-02" rms="4.6381345391273499e-01" purity="6.5287369489669800e-01" nType="0">
                  <Node pos="l" depth="6" NCoef="0" IVar="4" Cut="4.1994273662567139e-02" cType="1" res="9.8337037488818169e-03" rms="4.7423774003982544e-01" purity="6.2359708547592163e-01" nType="0">
                    <Node pos="l" depth="7" NCoef="0" IVar="-1" Cut="0.0000000000000000e+00" cType="1" res="-3.9094878593459725e-04" rms="4.7581428289413452e-01" purity="6.1498183012008667e-01" nType="-99"/>
                    <Node pos="r" depth="7" NCoef="0" IVar="-1" Cut="0.0000000000000000e+00" cType="1" res="1.5370510518550873e-03" rms="4.7330245375633240e-01" purity="6.2786823511123657e-01" nType="-99"/>
                  </Node>
                  <Node pos="r" depth="6" NCoef="0" IVar="-1" Cut="0.0000000000000000e+00" cType="1" res="3.5688092466443777e-03" rms="4.2043927311897278e-01" purity="7.6661324501037598e-01" nType="-99"/>
                </Node>
                <Node pos="r" depth="5" NCoef="0" IVar="-1" Cut="0.0000000000000000e+00" cType="1" res="3.3738715574145317e-03" rms="4.8123461008071899e-01" purity="6.1396884918212891e-01" nType="-99"/>
              </Node>
            </Node>
            <Node pos="r" depth="3" NCoef="0" IVar="1" Cut="9.7891533374786377e-01" cType="1" res="1.5124371275305748e-02" rms="4.5280396938323975e-01" purity="6.6348755359649658e-01" nType="0">
              <Node pos="l" depth="4" NCoef="0" IVar="2" Cut="1.1726984024047852e+01" cType="1" res="1.8467199057340622e-02" rms="4.4973477721214294e-01" purity="6.8044185638427734e-01" nType="0">
                <Node pos="l" depth="5" NCoef="0" IVar="2" Cut="3.7825468182563782e-01" cType="1" res="2.6352958753705025e-02" rms="4.2306593060493469e-01" purity="7.5799697637557983e-01" nType="0">
                  <Node pos="l" depth="6" NCoef="0" IVar="1" Cut="6.3639926910400391e-01" cType="1" res="3.1220054253935814e-02" rms="4.1844871640205383e-01" purity="7.6725310087203979e-01" nType="0">
                    <Node pos="l" depth="7" NCoef="0" IVar="-1" Cut="0.0000000000000000e+00" cType="1" res="3.3554758410900831e-03" rms="4.1381713747978210e-01" purity="7.7635049819946289e-01" nType="-99"/>
                    <Node pos="r" depth="7" NCoef="0" IVar="-1" Cut="0.0000000000000000e+00" cType="1" res="1.0339589789509773e-03" rms="4.6040233969688416e-01" purity="6.7926979064941406e-01" nType="-99"/>
                  </Node>
                  <Node pos="r" depth="6" NCoef="0" IVar="-1" Cut="0.0000000000000000e+00" cType="1" res="-1.8069740617647767e-03" rms="4.6068957448005676e-01" purity="6.7357820272445679e-01" nType="-99"/>
                </Node>
                <Node pos="r" depth="5" NCoef="0" IVar="4" Cut="2.6728555560112000e-02" cType="1" res="9.7702890634536743e-03" rms="4.7727143764495850e-01" purity="5.9490925073623657e-01" nType="0">
                  <Node pos="l" depth="6" NCoef="0" IVar="2" Cut="3.9840457916259766e+01" cType="1" res="-1.2785941362380981e-02" rms="4.7704932093620300e-01" purity="5.9779185056686401e-01" nType="0">
                    <Node pos="l" depth="7" NCoef="0" IVar="-1" Cut="0.0000000000000000e+00" cType="1" res="2.5306257884949446e-04" rms="4.7569572925567627e-01" purity="6.1312991380691528e-01" nType="-99"/>
                    <Node pos="r" depth="7" NCoef="0" IVar="-1" Cut="0.0000000000000000e+00" cType="1" res="-2.6503251865506172e-03" rms="4.7783109545707703e-01" purity="5.8405941724777222e-01" nType="-99"/>
                  </Node>
                  <Node pos="r" depth="6" NCoef="0" IVar="3" Cut="7.7963823080062866e-01" cType="1" res="1.5456730499863625e-02" rms="4.7715914249420166e-01" purity="5.9418255090713501e-01" nType="0">
                    <Node pos="l" depth="7" NCoef="0" IVar="-1" Cut="0.0000000000000000e+00" cType="1" res="6.0869223671033978e-04" rms="4.9156811833381653e-01" purity="5.0499939918518066e-01" nType="-99"/>
                    <Node pos="r" depth="7" NCoef="0" IVar="-1" Cut="0.0000000000000000e+00" cType="1" res="2.0317218732088804e-03" rms="4.6506536006927490e-01" purity="6.6631746292114258e-01" nType="-99"/>
                  </Node>
                </Node>
              </Node>
              <Node pos="r" depth="4" NCoef="0" IVar="3" Cut="9.8108965158462524e-01" cType="1" res="-1.7264110967516899e-02" rms="4.8032605648040771e-01" purity="4.9921789765357971e-01" nType="0">
                <Node pos="l" depth="5" NCoef="0" IVar="-1" Cut="0.0000000000000000e+00" cType="1" res="-3.4312738571316004e-03" rms="4.7994890809059143e-01" purity="4.1228637099266052e-01" nType="-99"/>
                <Node pos="r" depth="5" NCoef="0" IVar="-1" Cut="0.0000000000000000e+00" cType="1" res="7.0108356885612011e-04" rms="4.7958809137344360e-01" purity="6.1040568351745605e-01" nType="-99"/>
              </Node>
            </Node>
          </Node>
          <Node pos="r" depth="2" NCoef="0" IVar="-1" Cut="0.0000000000000000e+00" cType="1" res="-5.2807438187301159e-03" rms="4.8616972565650940e-01" purity="4.3852412700653076e-01" nType="-99"/>
        </Node>
      </Node>
    </BinaryTree>
    <BinaryTree type="DecisionTree" boostWeight="1.0000000000000000e+00" itree="58">
      <Node pos="s" depth="0" NCoef="0" IVar="3" Cut="7.1646219491958618e-01" cType="1" res="8.1248981878161430e-03" rms="4.1156893968582153e-01" purity="5.0083386898040771e-01" nType="0">
        <Node pos="l" depth="1" NCoef="0" IVar="3" Cut="5.8026891946792603e-01" cType="1" res="-1.1173964478075504e-02" rms="3.7432059645652771e-01" purity="2.1493247151374817e-01" nType="0">
          <Node pos="l" depth="2" NCoef="0" IVar="4" Cut="1.4129491150379181e-01" cType="1" res="-1.5764497220516205e-02" rms="3.2559525966644287e-01" purity="1.3542293012142181e-01" nType="0">
            <Node pos="l" depth="3" NCoef="0" IVar="2" Cut="1.0911431884765625e+02" cType="1" res="-1.9996786490082741e-02" rms="3.0662336945533752e-01" purity="1.1879798769950867e-01" nType="0">
              <Node pos="l" depth="4" NCoef="0" IVar="4" Cut="8.6699433624744415e-02" cType="1" res="-7.9118888825178146e-03" rms="3.3146971464157104e-01" purity="1.4375177025794983e-01" nType="0">
                <Node pos="l" depth="5" NCoef="0" IVar="2" Cut="4.6070796966552734e+01" cType="1" res="-1.2738732621073723e-02" rms="3.2076328992843628e-01" purity="1.3134917616844177e-01" nType="0">
                  <Node pos="l" depth="6" NCoef="0" IVar="-1" Cut="0.0000000000000000e+00" cType="1" res="1.3366070343181491e-03" rms="3.4718957543373108e-01" purity="1.5944983065128326e-01" nType="-99"/>
                  <Node pos="r" depth="6" NCoef="0" IVar="4" Cut="6.1381105333566666e-02" cType="1" res="-2.0862819626927376e-02" rms="3.0848518013954163e-01" purity="1.1940184980630875e-01" nType="0">
                    <Node pos="l" depth="7" NCoef="0" IVar="-1" Cut="0.0000000000000000e+00" cType="1" res="-6.5703671425580978e-03" rms="2.9172289371490479e-01" purity="1.0377398133277893e-01" nType="-99"/>
                    <Node pos="r" depth="7" NCoef="0" IVar="-1" Cut="0.0000000000000000e+00" cType="1" res="-2.1304022520780563e-03" rms="3.3914878964424133e-01" purity="1.5052002668380737e-01" nType="-99"/>
                  </Node>
                </Node>
                <Node pos="r" depth="5" NCoef="0" IVar="-1" Cut="0.0000000000000000e+00" cType="1" res="2.9958144295960665e-03" rms="3.8183847069740295e-01" purity="2.0892404019832611e-01" nType="-99"/>
              </Node>
              <Node pos="r" depth="4" NCoef="0" IVar="2" Cut="4.6372427368164062e+02" cType="1" res="-2.5307344272732735e-02" rms="2.9488736391067505e-01" purity="1.0783237218856812e-01" nType="0">
                <Node pos="l" depth="5" NCoef="0" IVar="4" Cut="8.2358144223690033e-02" cType="1" res="-2.3228155449032784e-02" rms="2.9622408747673035e-01" purity="1.0941193997859955e-01" nType="0">
                  <Node pos="l" depth="6" NCoef="0" IVar="4" Cut="5.5994123220443726e-02" cType="1" res="-3.0152698978781700e-02" rms="2.6432281732559204e-01" purity="8.3237826824188232e-02" nType="0">
                    <Node pos="l" depth="7" NCoef="0" IVar="-1" Cut="0.0000000000000000e+00" cType="1" res="-9.9406735971570015e-03" rms="2.4874866008758545e-01" purity="7.1402102708816528e-02" nType="-99"/>
                    <Node pos="r" depth="7" NCoef="0" IVar="-1" Cut="0.0000000000000000e+00" cType="1" res="-7.3928646743297577e-03" rms="2.7319508790969849e-01" purity="9.0326867997646332e-02" nType="-99"/>
                  </Node>
                  <Node pos="r" depth="6" NCoef="0" IVar="0" Cut="1.5972411632537842e+00" cType="1" res="-1.8002633005380630e-02" rms="3.1808766722679138e-01" purity="1.2916390597820282e-01" nType="0">
                    <Node pos="l" depth="7" NCoef="0" IVar="-1" Cut="0.0000000000000000e+00" cType="1" res="-2.4503916501998901e-03" rms="3.6723500490188599e-01" purity="1.7589499056339264e-01" nType="-99"/>
                    <Node pos="r" depth="7" NCoef="0" IVar="-1" Cut="0.0000000000000000e+00" cType="1" res="-1.4292429201304913e-02" rms="1.7995075881481171e-01" purity="3.3856030553579330e-02" nType="-99"/>
                  </Node>
                </Node>
                <Node pos="r" depth="5" NCoef="0" IVar="-1" Cut="0.0000000000000000e+00" cType="1" res="-9.6407709643244743e-03" rms="2.8278017044067383e-01" purity="9.4536259770393372e-02" nType="-99"/>
              </Node>
            </Node>
            <Node pos="r" depth="3" NCoef="0" IVar="2" Cut="6.1464453125000000e+02" cType="1" res="-6.7579522728919983e-03" rms="3.6251586675643921e-01" purity="1.7080177366733551e-01" nType="0">
              <Node pos="l" depth="4" NCoef="0" IVar="3" Cut="4.7070685029029846e-01" cType="1" res="5.0662079593166709e-04" rms="3.6902639269828796e-01" purity="1.8165679275989532e-01" nType="0">
                <Node pos="l" depth="5" NCoef="0" IVar="4" Cut="1.8242086470127106e-01" cType="1" res="-3.8108197040855885e-03" rms="3.4499990940093994e-01" purity="1.4713434875011444e-01" nType="0">
                  <Node pos="l" depth="6" NCoef="0" IVar="5" Cut="5.0000000000000000e+00" cType="1" res="-1.3671273365616798e-02" rms="3.1515729427337646e-01" purity="1.1978993564844131e-01" nType="0">
                    <Node pos="l" depth="7" NCoef="0" IVar="-1" Cut="0.0000000000000000e+00" cType="1" res="-5.7714986614882946e-03" rms="3.3459600806236267e-01" purity="1.3230542838573456e-01" nType="-99"/>
                    <Node pos="r" depth="7" NCoef="0" IVar="-1" Cut="0.0000000000000000e+00" cType="1" res="-1.6027700621634722e-03" rms="3.0519688129425049e-01" purity="1.1227543652057648e-01" nType="-99"/>
                  </Node>
                  <Node pos="r" depth="6" NCoef="0" IVar="2" Cut="3.3059411621093750e+02" cType="1" res="6.8621798418462276e-03" rms="3.7287834286689758e-01" purity="1.7668579518795013e-01" nType="0">
                    <Node pos="l" depth="7" NCoef="0" IVar="-1" Cut="0.0000000000000000e+00" cType="1" res="3.2228366471827030e-03" rms="3.8594588637351990e-01" purity="1.9443711638450623e-01" nType="-99"/>
                    <Node pos="r" depth="7" NCoef="0" IVar="-1" Cut="0.0000000000000000e+00" cType="1" res="-3.5354014835320413e-04" rms="3.6157903075218201e-01" purity="1.6212481260299683e-01" nType="-99"/>
                  </Node>
                </Node>
                <Node pos="r" depth="5" NCoef="0" IVar="-1" Cut="0.0000000000000000e+00" cType="1" res="2.3362087085843086e-03" rms="4.7277846932411194e-01" purity="3.5858845710754395e-01" nType="-99"/>
              </Node>
              <Node pos="r" depth="4" NCoef="0" IVar="3" Cut="1.9814248383045197e-01" cType="1" res="-2.0234739407896996e-02" rms="3.4971806406974792e-01" purity="1.5066416561603546e-01" nType="0">
                <Node pos="l" depth="5" NCoef="0" IVar="-1" Cut="0.0000000000000000e+00" cType="1" res="-1.4236308634281158e-03" rms="3.3874386548995972e-01" purity="1.4656008780002594e-01" nType="-99"/>
                <Node pos="r" depth="5" NCoef="0" IVar="0" Cut="5.8468443155288696e-01" cType="1" res="-2.5821940973401070e-02" rms="3.5402369499206543e-01" purity="1.5236793458461761e-01" nType="0">
                  <Node pos="l" depth="6" NCoef="0" IVar="-1" Cut="0.0000000000000000e+00" cType="1" res="-6.4249895513057709e-03" rms="3.9139831066131592e-01" purity="1.9362971186637878e-01" nType="-99"/>
                  <Node pos="r" depth="6" NCoef="0" IVar="-1" Cut="0.0000000000000000e+00" cType="1" res="-1.6728641930967569e-03" rms="3.0986544489860535e-01" purity="1.1004459112882614e-01" nType="-99"/>
                </Node>
              </Node>
            </Node>
          </Node>
          <Node pos="r" depth="2" NCoef="0" IVar="5" Cut="3.0000000000000000e+00" cType="1" res="1.8871404463425279e-03" rms="4.7942802309989929e-01" purity="4.2580801248550415e-01" nType="0">
            <Node pos="l" depth="3" NCoef="0" IVar="4" Cut="6.2981098890304565e-02" cType="1" res="-2.3229116573929787e-02" rms="4.6698203682899475e-01" purity="3.6267754435539246e-01" nType="0">
              <Node pos="l" depth="4" NCoef="0" IVar="-1" Cut="0.0000000000000000e+00" cType="1" res="-5.1698614843189716e-03" rms="4.4083917140960693e-01" purity="2.9384362697601318e-01" nType="-99"/>
              <Node pos="r" depth="4" NCoef="0" IVar="-1" Cut="0.0000000000000000e+00" cType="1" res="-9.6173759084194899e-04" rms="4.7944551706314087e-01" purity="3.9833462238311768e-01" nType="-99"/>
            </Node>
            <Node pos="r" depth="3" NCoef="0" IVar="2" Cut="9.6013160705566406e+01" cType="1" res="9.4364797696471214e-03" rms="4.8411202430725098e-01" purity="4.4778600335121155e-01" nType="0">
              <Node pos="l" depth="4" NCoef="0" IVar="1" Cut="-4.6561458148062229e-03" cType="1" res="2.4551097303628922e-02" rms="4.8569700121879578e-01" purity="4.8572531342506409e-01" nType="0">
                <Node pos="l" depth="5" NCoef="0" IVar="-1" Cut="0.0000000000000000e+00" cType="1" res="4.2564012110233307e-03" rms="4.9069452285766602e-01" purity="5.5932110548019409e-01" nType="-99"/>
                <Node pos="r" depth="5" NCoef="0" IVar="-1" Cut="0.0000000000000000e+00" cType="1" res="4.7414618893526495e-04" rms="4.8114073276519775e-01" purity="4.3285456299781799e-01" nType="-99"/>
              </Node>
              <Node pos="r" depth="4" NCoef="0" IVar="4" Cut="5.3820092231035233e-02" cType="1" res="2.0961908157914877e-03" rms="4.8316988348960876e-01" purity="4.2936113476753235e-01" nType="0">
                <Node pos="l" depth="5" NCoef="0" IVar="-1" Cut="0.0000000000000000e+00" cType="1" res="-2.8665980789810419e-03" rms="4.6928790211677551e-01" purity="3.6001691222190857e-01" nType="-99"/>
                <Node pos="r" depth="5" NCoef="0" IVar="2" Cut="2.2939059448242188e+02" cType="1" res="8.6873034015297890e-03" rms="4.8590981960296631e-01" purity="4.4455429911613464e-01" nType="0">
                  <Node pos="l" depth="6" NCoef="0" IVar="2" Cut="1.5626963806152344e+02" cType="1" res="2.2363232448697090e-02" rms="4.8917198181152344e-01" purity="4.8175251483917236e-01" nType="0">
                    <Node pos="l" depth="7" NCoef="0" IVar="-1" Cut="0.0000000000000000e+00" cType="1" res="1.0064151138067245e-03" rms="4.9011674523353577e-01" purity="4.8264843225479126e-01" nType="-99"/>
                    <Node pos="r" depth="7" NCoef="0" IVar="-1" Cut="0.0000000000000000e+00" cType="1" res="3.1217893119901419e-03" rms="4.8786619305610657e-01" purity="4.8079112172126770e-01" nType="-99"/>
                  </Node>
                  <Node pos="r" depth="6" NCoef="0" IVar="4" Cut="9.7737811505794525e-02" cType="1" res="-3.2040800433605909e-03" rms="4.8274061083793640e-01" purity="4.1221004724502563e-01" nType="0">
                    <Node pos="l" depth="7" NCoef="0" IVar="-1" Cut="0.0000000000000000e+00" cType="1" res="-2.0533972419798374e-03" rms="4.7594830393791199e-01" purity="3.8410890102386475e-01" nType="-99"/>
                    <Node pos="r" depth="7" NCoef="0" IVar="-1" Cut="0.0000000000000000e+00" cType="1" res="1.4441959792748094e-03" rms="4.8925060033798218e-01" purity="4.4234368205070496e-01" nType="-99"/>
                  </Node>
                </Node>
              </Node>
            </Node>
          </Node>
        </Node>
        <Node pos="r" depth="1" NCoef="0" IVar="4" Cut="9.0274930000305176e-02" cType="1" res="2.2718014195561409e-02" rms="4.3706941604614258e-01" purity="7.1702235937118530e-01" nType="0">
          <Node pos="l" depth="2" NCoef="0" IVar="3" Cut="8.7622815370559692e-01" cType="1" res="2.4225847795605659e-02" rms="4.3608281016349792e-01" purity="7.2140574455261230e-01" nType="0">
            <Node pos="l" depth="3" NCoef="0" IVar="4" Cut="4.0935337543487549e-02" cType="1" res="1.2391880154609680e-02" rms="4.7462990880012512e-01" purity="6.2469649314880371e-01" nType="0">
              <Node pos="l" depth="4" NCoef="0" IVar="1" Cut="2.7401523664593697e-02" cType="1" res="1.5129195526242256e-04" rms="4.7546520829200745e-01" purity="6.1654180288314819e-01" nType="0">
                <Node pos="l" depth="5" NCoef="0" IVar="2" Cut="5.4241764068603516e+01" cType="1" res="1.4028787612915039e-02" rms="4.6806401014328003e-01" purity="6.6240078210830688e-01" nType="0">
                  <Node pos="l" depth="6" NCoef="0" IVar="-1" Cut="0.0000000000000000e+00" cType="1" res="2.2746259346604347e-03" rms="4.6263825893402100e-01" purity="6.8050032854080200e-01" nType="-99"/>
                  <Node pos="r" depth="6" NCoef="0" IVar="-1" Cut="0.0000000000000000e+00" cType="1" res="-2.3682007110892300e-07" rms="4.7429388761520386e-01" purity="6.4008051156997681e-01" nType="-99"/>
                </Node>
                <Node pos="r" depth="5" NCoef="0" IVar="0" Cut="2.1632945537567139e-01" cType="1" res="-1.3475289568305016e-02" rms="4.8223373293876648e-01" purity="5.7151210308074951e-01" nType="0">
                  <Node pos="l" depth="6" NCoef="0" IVar="2" Cut="4.6433673858642578e+01" cType="1" res="-7.2703388286754489e-04" rms="4.8001736402511597e-01" purity="6.1686176061630249e-01" nType="0">
                    <Node pos="l" depth="7" NCoef="0" IVar="-1" Cut="0.0000000000000000e+00" cType="1" res="-1.0728470515459776e-03" rms="4.7920334339141846e-01" purity="6.0586535930633545e-01" nType="-99"/>
                    <Node pos="r" depth="7" NCoef="0" IVar="-1" Cut="0.0000000000000000e+00" cType="1" res="7.5914745684713125e-04" rms="4.8045712709426880e-01" purity="6.2545335292816162e-01" nType="-99"/>
                  </Node>
                  <Node pos="r" depth="6" NCoef="0" IVar="-1" Cut="0.0000000000000000e+00" cType="1" res="-4.4801356270909309e-03" rms="4.8652395606040955e-01" purity="4.4817373156547546e-01" nType="-99"/>
                </Node>
              </Node>
              <Node pos="r" depth="4" NCoef="0" IVar="2" Cut="8.6513191223144531e+01" cType="1" res="2.1953294053673744e-02" rms="4.7375643253326416e-01" purity="6.3106620311737061e-01" nType="0">
                <Node pos="l" depth="5" NCoef="0" IVar="1" Cut="-3.4228354692459106e-02" cType="1" res="3.6723181605339050e-02" rms="4.6355867385864258e-01" purity="6.6941606998443604e-01" nType="0">
                  <Node pos="l" depth="6" NCoef="0" IVar="-1" Cut="0.0000000000000000e+00" cType="1" res="4.3356320820748806e-03" rms="4.4945272803306580e-01" purity="7.1704161167144775e-01" nType="-99"/>
                  <Node pos="r" depth="6" NCoef="0" IVar="-1" Cut="0.0000000000000000e+00" cType="1" res="2.0780761260539293e-03" rms="4.7218793630599976e-01" purity="6.3837116956710815e-01" nType="-99"/>
                </Node>
                <Node pos="r" depth="5" NCoef="0" IVar="3" Cut="7.6284617185592651e-01" cType="1" res="1.5829075127840042e-02" rms="4.7778716683387756e-01" purity="6.1516475677490234e-01" nType="0">
                  <Node pos="l" depth="6" NCoef="0" IVar="-1" Cut="0.0000000000000000e+00" cType="1" res="-1.3694792869500816e-04" rms="4.9285057187080383e-01" purity="5.3534537553787231e-01" nType="-99"/>
                  <Node pos="r" depth="6" NCoef="0" IVar="3" Cut="8.4696912765502930e-01" cType="1" res="2.2346021607518196e-02" rms="4.7184574604034424e-01" purity="6.4511674642562866e-01" nType="0">
                    <Node pos="l" depth="7" NCoef="0" IVar="-1" Cut="0.0000000000000000e+00" cType="1" res="1.5775857027620077e-03" rms="4.7729006409645081e-01" purity="6.2627673149108887e-01" nType="-99"/>
                    <Node pos="r" depth="7" NCoef="0" IVar="-1" Cut="0.0000000000000000e+00" cType="1" res="3.4986650571227074e-03" rms="4.5292195677757263e-01" purity="7.0780265331268311e-01" nType="-99"/>
                  </Node>
                </Node>
              </Node>
            </Node>
            <Node pos="r" depth="3" NCoef="0" IVar="1" Cut="9.6830618381500244e-01" cType="1" res="2.9970370233058929e-02" rms="4.1596415638923645e-01" purity="7.6835101842880249e-01" nType="0">
              <Node pos="l" depth="4" NCoef="0" IVar="3" Cut="1.0501672029495239e+00" cType="1" res="3.1324423849582672e-02" rms="4.1233247518539429e-01" purity="7.7675682306289673e-01" nType="0">
                <Node pos="l" depth="5" NCoef="0" IVar="3" Cut="9.9966794252395630e-01" cType="1" res="3.2146386802196503e-02" rms="4.1181477904319763e-01" purity="7.7762395143508911e-01" nType="0">
                  <Node pos="l" depth="6" NCoef="0" IVar="1" Cut="-2.4373443424701691e-01" cType="1" res="2.8398858383297920e-02" rms="4.1907218098640442e-01" purity="7.6632064580917358e-01" nType="0">
                    <Node pos="l" depth="7" NCoef="0" IVar="-1" Cut="0.0000000000000000e+00" cType="1" res="7.8829354606568813e-04" rms="4.2900502681732178e-01" purity="7.5201636552810669e-01" nType="-99"/>
                    <Node pos="r" depth="7" NCoef="0" IVar="-1" Cut="0.0000000000000000e+00" cType="1" res="3.1287667807191610e-03" rms="4.1840803623199463e-01" purity="7.6721733808517456e-01" nType="-99"/>
                  </Node>
                  <Node pos="r" depth="6" NCoef="0" IVar="1" Cut="1.1706028878688812e-01" cType="1" res="3.8334738463163376e-02" rms="3.9946508407592773e-01" purity="7.9628926515579224e-01" nType="0">
                    <Node pos="l" depth="7" NCoef="0" IVar="-1" Cut="0.0000000000000000e+00" cType="1" res="4.4063767418265343e-03" rms="3.8933163881301880e-01" purity="8.1107175350189209e-01" nType="-99"/>
                    <Node pos="r" depth="7" NCoef="0" IVar="-1" Cut="0.0000000000000000e+00" cType="1" res="3.2425939571112394e-03" rms="4.1827273368835449e-01" purity="7.6777189970016479e-01" nType="-99"/>
                  </Node>
                </Node>
                <Node pos="r" depth="5" NCoef="0" IVar="-1" Cut="0.0000000000000000e+00" cType="1" res="6.6954852081835270e-04" rms="4.2684769630432129e-01" purity="7.5072020292282104e-01" nType="-99"/>
              </Node>
              <Node pos="r" depth="4" NCoef="0" IVar="-1" Cut="0.0000000000000000e+00" cType="1" res="1.3266103633213788e-04" rms="4.8507341742515564e-01" purity="5.9198242425918579e-01" nType="-99"/>
            </Node>
          </Node>
          <Node pos="r" depth="2" NCoef="0" IVar="-1" Cut="0.0000000000000000e+00" cType="1" res="-5.0347731448709965e-03" rms="4.7948497533798218e-01" purity="4.8664319515228271e-01" nType="-99"/>
        </Node>
      </Node>
    </BinaryTree>
    <BinaryTree type="DecisionTree" boostWeight="1.0000000000000000e+00" itree="59">
      <Node pos="s" depth="0" NCoef="0" IVar="3" Cut="7.8013855218887329e-01" cType="1" res="6.6973059438169003e-03" rms="4.1090321540832520e-01" purity="4.9911591410636902e-01" nType="0">
        <Node pos="l" depth="1" NCoef="0" IVar="3" Cut="6.3141798973083496e-01" cType="1" res="-9.9202366545796394e-03" rms="3.8998782634735107e-01" purity="2.5876012444496155e-01" nType="0">
          <Node pos="l" depth="2" NCoef="0" IVar="0" Cut="1.2874433994293213e+00" cType="1" res="-1.5597427263855934e-02" rms="3.4324815869331360e-01" purity="1.5975171327590942e-01" nType="0">
            <Node pos="l" depth="3" NCoef="0" IVar="4" Cut="3.8484394550323486e-02" cType="1" res="-1.1636467650532722e-02" rms="3.9808648824691772e-01" purity="2.2215123474597931e-01" nType="0">
              <Node pos="l" depth="4" NCoef="0" IVar="4" Cut="2.6140781119465828e-02" cType="1" res="-3.6198377609252930e-02" rms="3.7658831477165222e-01" purity="1.9057117402553558e-01" nType="0">
                <Node pos="l" depth="5" NCoef="0" IVar="-1" Cut="0.0000000000000000e+00" cType="1" res="-6.8918215110898018e-03" rms="3.7634727358818054e-01" purity="1.8950393795967102e-01" nType="-99"/>
                <Node pos="r" depth="5" NCoef="0" IVar="-1" Cut="0.0000000000000000e+00" cType="1" res="-4.0321587584912777e-03" rms="3.7652206420898438e-01" purity="1.9156466424465179e-01" nType="-99"/>
              </Node>
              <Node pos="r" depth="4" NCoef="0" IVar="1" Cut="1.0800988674163818e+00" cType="1" res="-8.9849987998604774e-03" rms="4.0024808049201965e-01" purity="2.2556030750274658e-01" nType="0">
                <Node pos="l" depth="5" NCoef="0" IVar="2" Cut="2.2919627380371094e+02" cType="1" res="-7.1969958953559399e-03" rms="4.0444776415824890e-01" purity="2.3176921904087067e-01" nType="0">
                  <Node pos="l" depth="6" NCoef="0" IVar="1" Cut="1.6565558314323425e-01" cType="1" res="1.1226732749491930e-03" rms="4.2027062177658081e-01" purity="2.6396465301513672e-01" nType="0">
                    <Node pos="l" depth="7" NCoef="0" IVar="-1" Cut="0.0000000000000000e+00" cType="1" res="1.4719059690833092e-03" rms="4.4331565499305725e-01" purity="3.0917659401893616e-01" nType="-99"/>
                    <Node pos="r" depth="7" NCoef="0" IVar="-1" Cut="0.0000000000000000e+00" cType="1" res="-2.1825178992003202e-03" rms="3.8644596934318542e-01" purity="2.0288163423538208e-01" nType="-99"/>
                  </Node>
                  <Node pos="r" depth="6" NCoef="0" IVar="4" Cut="2.4616529047489166e-01" cType="1" res="-1.3699326664209366e-02" rms="3.9151337742805481e-01" purity="2.0660653710365295e-01" nType="0">
                    <Node pos="l" depth="7" NCoef="0" IVar="-1" Cut="0.0000000000000000e+00" cType="1" res="-2.7163173072040081e-03" rms="3.8780656456947327e-01" purity="2.0313361287117004e-01" nType="-99"/>
                    <Node pos="r" depth="7" NCoef="0" IVar="-1" Cut="0.0000000000000000e+00" cType="1" res="2.7174802962690592e-03" rms="4.1753649711608887e-01" purity="2.3324830830097198e-01" nType="-99"/>
                  </Node>
                </Node>
                <Node pos="r" depth="5" NCoef="0" IVar="-1" Cut="0.0000000000000000e+00" cType="1" res="-7.6997382566332817e-03" rms="3.2440876960754395e-01" purity="1.2618879973888397e-01" nType="-99"/>
              </Node>
            </Node>
            <Node pos="r" depth="3" NCoef="0" IVar="5" Cut="4.0000000000000000e+00" cType="1" res="-2.2435579448938370e-02" rms="2.1488499641418457e-01" purity="5.0127450376749039e-02" nType="0">
              <Node pos="l" depth="4" NCoef="0" IVar="0" Cut="1.8480249643325806e+00" cType="1" res="-1.0499062947928905e-02" rms="2.7772408723831177e-01" purity="8.6631782352924347e-02" nType="0">
                <Node pos="l" depth="5" NCoef="0" IVar="-1" Cut="0.0000000000000000e+00" cType="1" res="-8.4554273635149002e-03" rms="2.6040866971015930e-01" purity="7.6112329959869385e-02" nType="-99"/>
                <Node pos="r" depth="5" NCoef="0" IVar="-1" Cut="0.0000000000000000e+00" cType="1" res="1.8280040239915252e-03" rms="2.9249697923660278e-01" purity="9.6716985106468201e-02" nType="-99"/>
              </Node>
              <Node pos="r" depth="4" NCoef="0" IVar="3" Cut="3.6943832039833069e-01" cType="1" res="-2.5015527382493019e-02" rms="2.0000647008419037e-01" purity="4.2681161314249039e-02" nType="0">
                <Node pos="l" depth="5" NCoef="0" IVar="2" Cut="2.0860792541503906e+02" cType="1" res="-2.6786793023347855e-02" rms="1.8931585550308228e-01" purity="3.7824351340532303e-02" nType="0">
                  <Node pos="l" depth="6" NCoef="0" IVar="0" Cut="2.6857769489288330e+00" cType="1" res="-2.3574410006403923e-02" rms="1.8330426514148712e-01" purity="3.5271424800157547e-02" nType="0">
                    <Node pos="l" depth="7" NCoef="0" IVar="-1" Cut="0.0000000000000000e+00" cType="1" res="-1.0303121060132980e-02" rms="1.9798023998737335e-01" purity="4.1321646422147751e-02" nType="-99"/>
                    <Node pos="r" depth="7" NCoef="0" IVar="-1" Cut="0.0000000000000000e+00" cType="1" res="-1.8107211217284203e-02" rms="1.5580397844314575e-01" purity="2.5252496823668480e-02" nType="-99"/>
                  </Node>
                  <Node pos="r" depth="6" NCoef="0" IVar="4" Cut="1.9938895106315613e-01" cType="1" res="-2.9487600550055504e-02" rms="1.9418504834175110e-01" purity="3.9970733225345612e-02" nType="0">
                    <Node pos="l" depth="7" NCoef="0" IVar="-1" Cut="0.0000000000000000e+00" cType="1" res="-1.6126371920108795e-02" rms="1.6754184663295746e-01" purity="2.9115077108144760e-02" nType="-99"/>
                    <Node pos="r" depth="7" NCoef="0" IVar="-1" Cut="0.0000000000000000e+00" cType="1" res="-6.3384808599948883e-03" rms="2.7712064981460571e-01" purity="8.4120087325572968e-02" nType="-99"/>
                  </Node>
                </Node>
                <Node pos="r" depth="5" NCoef="0" IVar="-1" Cut="0.0000000000000000e+00" cType="1" res="-3.2233642414212227e-03" rms="2.7370247244834900e-01" purity="8.3710812032222748e-02" nType="-99"/>
              </Node>
            </Node>
          </Node>
          <Node pos="r" depth="2" NCoef="0" IVar="1" Cut="7.9824644327163696e-01" cType="1" res="4.2245853692293167e-03" rms="4.8702922463417053e-01" purity="5.0544136762619019e-01" nType="0">
            <Node pos="l" depth="3" NCoef="0" IVar="1" Cut="-5.3629022091627121e-02" cType="1" res="8.1180147826671600e-03" rms="4.8946136236190796e-01" purity="5.2217042446136475e-01" nType="0">
              <Node pos="l" depth="4" NCoef="0" IVar="5" Cut="3.0000000000000000e+00" cType="1" res="2.2371890023350716e-02" rms="4.8481556773185730e-01" purity="5.6274813413619995e-01" nType="0">
                <Node pos="l" depth="5" NCoef="0" IVar="-1" Cut="0.0000000000000000e+00" cType="1" res="1.2009705824311823e-04" rms="4.9076449871063232e-01" purity="5.2295756340026855e-01" nType="-99"/>
                <Node pos="r" depth="5" NCoef="0" IVar="4" Cut="5.1627457141876221e-02" cType="1" res="3.1849246472120285e-02" rms="4.8431533575057983e-01" purity="5.8571439981460571e-01" nType="0">
                  <Node pos="l" depth="6" NCoef="0" IVar="-1" Cut="0.0000000000000000e+00" cType="1" res="1.3218604726716876e-03" rms="4.8851916193962097e-01" purity="5.6836706399917603e-01" nType="-99"/>
                  <Node pos="r" depth="6" NCoef="0" IVar="-1" Cut="0.0000000000000000e+00" cType="1" res="3.6769316066056490e-03" rms="4.8113986849784851e-01" purity="5.9734207391738892e-01" nType="-99"/>
                </Node>
              </Node>
              <Node pos="r" depth="4" NCoef="0" IVar="3" Cut="7.6094746589660645e-01" cType="1" res="1.1506506707519293e-03" rms="4.9073010683059692e-01" purity="4.9972778558731079e-01" nType="0">
                <Node pos="l" depth="5" NCoef="0" IVar="2" Cut="4.7074916839599609e+01" cType="1" res="-3.4928391687572002e-03" rms="4.9128720164299011e-01" purity="4.8321440815925598e-01" nType="0">
                  <Node pos="l" depth="6" NCoef="0" IVar="-1" Cut="0.0000000000000000e+00" cType="1" res="1.6431926051154733e-03" rms="4.9438875913619995e-01" purity="5.2229112386703491e-01" nType="-99"/>
                  <Node pos="r" depth="6" NCoef="0" IVar="4" Cut="5.9174295514822006e-02" cType="1" res="-7.3052952066063881e-03" rms="4.9066424369812012e-01" purity="4.7669458389282227e-01" nType="0">
                    <Node pos="l" depth="7" NCoef="0" IVar="-1" Cut="0.0000000000000000e+00" cType="1" res="-2.6808651164174080e-03" rms="4.8681968450546265e-01" purity="4.3524906039237976e-01" nType="-99"/>
                    <Node pos="r" depth="7" NCoef="0" IVar="-1" Cut="0.0000000000000000e+00" cType="1" res="3.8369250250980258e-04" rms="4.9238318204879761e-01" purity="4.9954837560653687e-01" nType="-99"/>
                  </Node>
                </Node>
                <Node pos="r" depth="5" NCoef="0" IVar="-1" Cut="0.0000000000000000e+00" cType="1" res="2.5210573803633451e-03" rms="4.8641124367713928e-01" purity="5.9944802522659302e-01" nType="-99"/>
              </Node>
            </Node>
            <Node pos="r" depth="3" NCoef="0" IVar="-1" Cut="0.0000000000000000e+00" cType="1" res="-3.8995321374386549e-03" rms="4.5703762769699097e-01" purity="3.2026416063308716e-01" nType="-99"/>
          </Node>
        </Node>
        <Node pos="r" depth="1" NCoef="0" IVar="0" Cut="6.1320698261260986e-01" cType="1" res="2.3125587031245232e-02" rms="4.2995199561119080e-01" purity="7.3673421144485474e-01" nType="0">
          <Node pos="l" depth="2" NCoef="0" IVar="0" Cut="1.7801789939403534e-01" cType="1" res="2.4492109194397926e-02" rms="4.2863386869430542e-01" purity="7.4440121650695801e-01" nType="0">
            <Node pos="l" depth="3" NCoef="0" IVar="1" Cut="5.5203229188919067e-01" cType="1" res="2.7215056121349335e-02" rms="4.2341864109039307e-01" purity="7.5694352388381958e-01" nType="0">
              <Node pos="l" depth="4" NCoef="0" IVar="3" Cut="8.1838726997375488e-01" cType="1" res="2.8955915942788124e-02" rms="4.1693642735481262e-01" purity="7.7133780717849731e-01" nType="0">
                <Node pos="l" depth="5" NCoef="0" IVar="3" Cut="7.9988020658493042e-01" cType="1" res="1.1396796442568302e-02" rms="4.7259756922721863e-01" purity="6.5997219085693359e-01" nType="0">
                  <Node pos="l" depth="6" NCoef="0" IVar="-1" Cut="0.0000000000000000e+00" cType="1" res="3.0481588328257203e-04" rms="4.7591039538383484e-01" purity="6.4844423532485962e-01" nType="-99"/>
                  <Node pos="r" depth="6" NCoef="0" IVar="-1" Cut="0.0000000000000000e+00" cType="1" res="1.6585810808464885e-03" rms="4.6918553113937378e-01" purity="6.7131620645523071e-01" nType="-99"/>
                </Node>
                <Node pos="r" depth="5" NCoef="0" IVar="1" Cut="-1.3187056779861450e-01" cType="1" res="3.0189383774995804e-02" rms="4.1271626949310303e-01" purity="7.7916085720062256e-01" nType="0">
                  <Node pos="l" depth="6" NCoef="0" IVar="3" Cut="1.0034378767013550e+00" cType="1" res="2.3218683898448944e-02" rms="4.1353935003280640e-01" purity="7.7875083684921265e-01" nType="0">
                    <Node pos="l" depth="7" NCoef="0" IVar="-1" Cut="0.0000000000000000e+00" cType="1" res="2.0836291369050741e-03" rms="4.1862863302230835e-01" purity="7.7110189199447632e-01" nType="-99"/>
                    <Node pos="r" depth="7" NCoef="0" IVar="-1" Cut="0.0000000000000000e+00" cType="1" res="3.6507889162749052e-03" rms="3.9041665196418762e-01" purity="8.1198865175247192e-01" nType="-99"/>
                  </Node>
                  <Node pos="r" depth="6" NCoef="0" IVar="1" Cut="2.2557033225893974e-02" cType="1" res="3.2020982354879379e-02" rms="4.1248017549514771e-01" purity="7.7926856279373169e-01" nType="0">
                    <Node pos="l" depth="7" NCoef="0" IVar="-1" Cut="0.0000000000000000e+00" cType="1" res="4.1423263028264046e-03" rms="3.9939436316490173e-01" purity="7.9855990409851074e-01" nType="-99"/>
                    <Node pos="r" depth="7" NCoef="0" IVar="-1" Cut="0.0000000000000000e+00" cType="1" res="2.7223378419876099e-03" rms="4.2317730188369751e-01" purity="7.6292800903320312e-01" nType="-99"/>
                  </Node>
                </Node>
              </Node>
              <Node pos="r" depth="4" NCoef="0" IVar="2" Cut="6.1332218170166016e+01" cType="1" res="1.2265747413039207e-02" rms="4.7519689798355103e-01" purity="6.3333576917648315e-01" nType="0">
                <Node pos="l" depth="5" NCoef="0" IVar="1" Cut="8.5630172491073608e-01" cType="1" res="3.0750154983252287e-03" rms="4.7110354900360107e-01" purity="6.4517027139663696e-01" nType="0">
                  <Node pos="l" depth="6" NCoef="0" IVar="-1" Cut="0.0000000000000000e+00" cType="1" res="8.3788798656314611e-04" rms="4.5690751075744629e-01" purity="6.9362443685531616e-01" nType="-99"/>
                  <Node pos="r" depth="6" NCoef="0" IVar="-1" Cut="0.0000000000000000e+00" cType="1" res="-2.3174945090431720e-04" rms="4.8377868533134460e-01" purity="6.0039311647415161e-01" nType="-99"/>
                </Node>
                <Node pos="r" depth="5" NCoef="0" IVar="-1" Cut="0.0000000000000000e+00" cType="1" res="3.4090180415660143e-03" rms="4.8644694685935974e-01" purity="5.9706795215606689e-01" nType="-99"/>
              </Node>
            </Node>
            <Node pos="r" depth="3" NCoef="0" IVar="1" Cut="2.4499364197254181e-01" cType="1" res="-4.7350144013762474e-03" rms="4.8009353876113892e-01" purity="6.0977625846862793e-01" nType="0">
              <Node pos="l" depth="4" NCoef="0" IVar="2" Cut="4.5484363555908203e+01" cType="1" res="9.0035330504179001e-03" rms="4.7493591904640198e-01" purity="6.4329057931900024e-01" nType="0">
                <Node pos="l" depth="5" NCoef="0" IVar="-1" Cut="0.0000000000000000e+00" cType="1" res="1.9580870866775513e-03" rms="4.6534192562103271e-01" purity="6.7550528049468994e-01" nType="-99"/>
                <Node pos="r" depth="5" NCoef="0" IVar="-1" Cut="0.0000000000000000e+00" cType="1" res="-4.7923595411702991e-04" rms="4.8533990979194641e-01" purity="6.0630136728286743e-01" nType="-99"/>
              </Node>
              <Node pos="r" depth="4" NCoef="0" IVar="-1" Cut="0.0000000000000000e+00" cType="1" res="-3.5434851888567209e-03" rms="4.9102583527565002e-01" purity="5.2639776468276978e-01" nType="-99"/>
            </Node>
          </Node>
          <Node pos="r" depth="2" NCoef="0" IVar="-1" Cut="0.0000000000000000e+00" cType="1" res="-3.5232447553426027e-03" rms="4.8174956440925598e-01" purity="3.9042899012565613e-01" nType="-99"/>
        </Node>
      </Node>
    </BinaryTree>
    <BinaryTree type="DecisionTree" boostWeight="1.0000000000000000e+00" itree="60">
      <Node pos="s" depth="0" NCoef="0" IVar="0" Cut="3.2252985239028931e-01" cType="1" res="8.0976048484444618e-03" rms="4.1135287284851074e-01" purity="5.0045174360275269e-01" nType="0">
        <Node pos="l" depth="1" NCoef="0" IVar="0" Cut="1.0401775129139423e-02" cType="1" res="1.9725255668163300e-02" rms="4.4011148810386658e-01" purity="6.7510962486267090e-01" nType="0">
          <Node pos="l" depth="2" NCoef="0" IVar="3" Cut="9.5822465419769287e-01" cType="1" res="2.3694749921560287e-02" rms="4.3540304899215698e-01" purity="7.0016074180603027e-01" nType="0">
            <Node pos="l" depth="3" NCoef="0" IVar="1" Cut="8.7618023157119751e-01" cType="1" res="1.6208598390221596e-02" rms="4.6355235576629639e-01" purity="6.1027497053146362e-01" nType="0">
              <Node pos="l" depth="4" NCoef="0" IVar="3" Cut="5.9361100196838379e-01" cType="1" res="1.7641548067331314e-02" rms="4.6236932277679443e-01" purity="6.2189519405364990e-01" nType="0">
                <Node pos="l" depth="5" NCoef="0" IVar="1" Cut="-6.2132533639669418e-02" cType="1" res="1.8223426304757595e-03" rms="4.5787918567657471e-01" purity="3.2213729619979858e-01" nType="0">
                  <Node pos="l" depth="6" NCoef="0" IVar="-1" Cut="0.0000000000000000e+00" cType="1" res="1.7732599517330527e-03" rms="4.6758478879928589e-01" purity="3.5575884580612183e-01" nType="-99"/>
                  <Node pos="r" depth="6" NCoef="0" IVar="4" Cut="1.5346471965312958e-01" cType="1" res="-5.4517579264938831e-03" rms="4.5293167233467102e-01" purity="3.0587729811668396e-01" nType="0">
                    <Node pos="l" depth="7" NCoef="0" IVar="-1" Cut="0.0000000000000000e+00" cType="1" res="-1.3406692305579782e-03" rms="4.5845255255699158e-01" purity="3.2697960734367371e-01" nType="-99"/>
                    <Node pos="r" depth="7" NCoef="0" IVar="-1" Cut="0.0000000000000000e+00" cType="1" res="5.4904478020034730e-05" rms="4.4829431176185608e-01" purity="2.8867569565773010e-01" nType="-99"/>
                  </Node>
                </Node>
                <Node pos="r" depth="5" NCoef="0" IVar="5" Cut="3.0000000000000000e+00" cType="1" res="-6.9393563535413705e-06" rms="1.9775491673499346e-03" purity="6.6832685470581055e-01" nType="0">
                  <Node pos="l" depth="6" NCoef="0" IVar="3" Cut="8.5237056016921997e-01" cType="1" res="1.5418543480336666e-02" rms="4.5482790470123291e-01" purity="6.9380122423171997e-01" nType="0">
                    <Node pos="l" depth="7" NCoef="0" IVar="-1" Cut="0.0000000000000000e+00" cType="1" res="6.5337767591699958e-04" rms="4.7539693117141724e-01" purity="6.3772135972976685e-01" nType="-99"/>
                    <Node pos="r" depth="7" NCoef="0" IVar="-1" Cut="0.0000000000000000e+00" cType="1" res="2.1954334806650877e-03" rms="4.3791058659553528e-01" purity="7.3783117532730103e-01" nType="-99"/>
                  </Node>
                  <Node pos="r" depth="6" NCoef="0" IVar="1" Cut="-1.3611631095409393e-01" cType="1" res="3.1538233160972595e-02" rms="4.8228174448013306e-01" purity="6.0593342781066895e-01" nType="0">
                    <Node pos="l" depth="7" NCoef="0" IVar="-1" Cut="0.0000000000000000e+00" cType="1" res="3.7708710879087448e-03" rms="4.7607743740081787e-01" purity="6.4026063680648804e-01" nType="-99"/>
                    <Node pos="r" depth="7" NCoef="0" IVar="-1" Cut="0.0000000000000000e+00" cType="1" res="2.5006320793181658e-03" rms="4.8380196094512939e-01" purity="5.9713286161422729e-01" nType="-99"/>
                  </Node>
                </Node>
              </Node>
              <Node pos="r" depth="4" NCoef="0" IVar="-1" Cut="0.0000000000000000e+00" cType="1" res="-6.5480422927066684e-04" rms="4.8165458440780640e-01" purity="4.2273721098899841e-01" nType="-99"/>
            </Node>
            <Node pos="r" depth="3" NCoef="0" IVar="3" Cut="9.9063873291015625e-01" cType="1" res="3.1123317778110504e-02" rms="4.0540680289268494e-01" purity="7.8935503959655762e-01" nType="0">
              <Node pos="l" depth="4" NCoef="0" IVar="1" Cut="1.5867404639720917e-01" cType="1" res="2.3942748084664345e-02" rms="4.1425338387489319e-01" purity="7.7410304546356201e-01" nType="0">
                <Node pos="l" depth="5" NCoef="0" IVar="1" Cut="-7.4938438832759857e-02" cType="1" res="3.1538639217615128e-02" rms="4.0005630254745483e-01" purity="7.9952633380889893e-01" nType="0">
                  <Node pos="l" depth="6" NCoef="0" IVar="-1" Cut="0.0000000000000000e+00" cType="1" res="2.0547613967210054e-03" rms="4.0729960799217224e-01" purity="7.8961288928985596e-01" nType="-99"/>
                  <Node pos="r" depth="6" NCoef="0" IVar="3" Cut="9.8122686147689819e-01" cType="1" res="3.8511320948600769e-02" rms="3.9559024572372437e-01" purity="8.0532687902450562e-01" nType="0">
                    <Node pos="l" depth="7" NCoef="0" IVar="-1" Cut="0.0000000000000000e+00" cType="1" res="4.3015168048441410e-03" rms="3.9668050408363342e-01" purity="8.0369198322296143e-01" nType="-99"/>
                    <Node pos="r" depth="7" NCoef="0" IVar="-1" Cut="0.0000000000000000e+00" cType="1" res="3.9824484847486019e-03" rms="3.9439940452575684e-01" purity="8.0708056688308716e-01" nType="-99"/>
                  </Node>
                </Node>
                <Node pos="r" depth="5" NCoef="0" IVar="-1" Cut="0.0000000000000000e+00" cType="1" res="2.7972573298029602e-04" rms="4.5046183466911316e-01" purity="7.0393264293670654e-01" nType="-99"/>
              </Node>
              <Node pos="r" depth="4" NCoef="0" IVar="3" Cut="1.0220031738281250e+00" cType="1" res="3.2719649374485016e-02" rms="4.0339636802673340e-01" purity="7.9274576902389526e-01" nType="0">
                <Node pos="l" depth="5" NCoef="0" IVar="3" Cut="9.9974459409713745e-01" cType="1" res="3.3872131258249283e-02" rms="4.0253823995590210e-01" purity="7.9411107301712036e-01" nType="0">
                  <Node pos="l" depth="6" NCoef="0" IVar="3" Cut="9.9504482746124268e-01" cType="1" res="2.6416176930069923e-02" rms="4.1058489680290222e-01" purity="7.8212797641754150e-01" nType="0">
                    <Node pos="l" depth="7" NCoef="0" IVar="-1" Cut="0.0000000000000000e+00" cType="1" res="1.8632590072229505e-03" rms="4.1744416952133179e-01" purity="7.7209299802780151e-01" nType="-99"/>
                    <Node pos="r" depth="7" NCoef="0" IVar="-1" Cut="0.0000000000000000e+00" cType="1" res="3.2422745134681463e-03" rms="4.0747675299644470e-01" purity="7.8652250766754150e-01" nType="-99"/>
                  </Node>
                  <Node pos="r" depth="6" NCoef="0" IVar="1" Cut="4.9795541167259216e-01" cType="1" res="4.0852651000022888e-02" rms="3.9472845196723938e-01" purity="8.0532997846603394e-01" nType="0">
                    <Node pos="l" depth="7" NCoef="0" IVar="-1" Cut="0.0000000000000000e+00" cType="1" res="4.1688592173159122e-03" rms="3.8771054148674011e-01" purity="8.1542009115219116e-01" nType="-99"/>
                    <Node pos="r" depth="7" NCoef="0" IVar="-1" Cut="0.0000000000000000e+00" cType="1" res="4.7508515417575836e-03" rms="4.3911314010620117e-01" purity="7.3681485652923584e-01" nType="-99"/>
                  </Node>
                </Node>
                <Node pos="r" depth="5" NCoef="0" IVar="1" Cut="8.1262372434139252e-02" cType="1" res="2.6249568909406662e-02" rms="4.0812006592750549e-01" purity="7.8508108854293823e-01" nType="0">
                  <Node pos="l" depth="6" NCoef="0" IVar="-1" Cut="0.0000000000000000e+00" cType="1" res="3.3634933643043041e-03" rms="3.9476004242897034e-01" purity="8.0647724866867065e-01" nType="-99"/>
                  <Node pos="r" depth="6" NCoef="0" IVar="-1" Cut="0.0000000000000000e+00" cType="1" res="1.5929068904370070e-03" rms="4.3052625656127930e-01" purity="7.4732005596160889e-01" nType="-99"/>
                </Node>
              </Node>
            </Node>
          </Node>
          <Node pos="r" depth="2" NCoef="0" IVar="0" Cut="2.7737405896186829e-01" cType="1" res="-1.0346919298171997e-02" rms="4.7318527102470398e-01" purity="4.8532694578170776e-01" nType="0">
            <Node pos="l" depth="3" NCoef="0" IVar="3" Cut="7.7365726232528687e-01" cType="1" res="-1.6906121745705605e-02" rms="4.7281038761138916e-01" purity="5.0233334302902222e-01" nType="0">
              <Node pos="l" depth="4" NCoef="0" IVar="4" Cut="6.4802870154380798e-02" cType="1" res="-2.8049008920788765e-02" rms="4.7139066457748413e-01" purity="3.9747133851051331e-01" nType="0">
                <Node pos="l" depth="5" NCoef="0" IVar="-1" Cut="0.0000000000000000e+00" cType="1" res="-3.8289378862828016e-03" rms="4.8590505123138428e-01" purity="4.5195415616035461e-01" nType="-99"/>
                <Node pos="r" depth="5" NCoef="0" IVar="-1" Cut="0.0000000000000000e+00" cType="1" res="-1.8996376311406493e-03" rms="4.5657798647880554e-01" purity="3.4453594684600830e-01" nType="-99"/>
              </Node>
              <Node pos="r" depth="4" NCoef="0" IVar="0" Cut="2.3477940261363983e-01" cType="1" res="-3.9765527471899986e-03" rms="4.7412431240081787e-01" purity="6.2400919198989868e-01" nType="0">
                <Node pos="l" depth="5" NCoef="0" IVar="-1" Cut="0.0000000000000000e+00" cType="1" res="-2.8577438206411898e-04" rms="4.6964278817176819e-01" purity="6.3745099306106567e-01" nType="-99"/>
                <Node pos="r" depth="5" NCoef="0" IVar="-1" Cut="0.0000000000000000e+00" cType="1" res="-5.2300700917840004e-04" rms="4.7908124327659607e-01" purity="6.0898214578628540e-01" nType="-99"/>
              </Node>
            </Node>
            <Node pos="r" depth="3" NCoef="0" IVar="4" Cut="5.0629928708076477e-02" cType="1" res="1.8021101132035255e-03" rms="4.7363892197608948e-01" purity="4.5382750034332275e-01" nType="0">
              <Node pos="l" depth="4" NCoef="0" IVar="-1" Cut="0.0000000000000000e+00" cType="1" res="8.4659311687573791e-04" rms="4.8511731624603271e-01" purity="5.3280991315841675e-01" nType="-99"/>
              <Node pos="r" depth="4" NCoef="0" IVar="-1" Cut="0.0000000000000000e+00" cType="1" res="-4.8212014371529222e-04" rms="4.6342071890830994e-01" purity="3.8572743535041809e-01" nType="-99"/>
            </Node>
          </Node>
        </Node>
        <Node pos="r" depth="1" NCoef="0" IVar="2" Cut="6.9695243835449219e+01" cType="1" res="-1.2789720669388771e-02" rms="3.5290929675102234e-01" purity="1.8670518696308136e-01" nType="0">
          <Node pos="l" depth="2" NCoef="0" IVar="1" Cut="5.5100512504577637e-01" cType="1" res="8.7514417245984077e-03" rms="4.2030727863311768e-01" purity="3.3055272698402405e-01" nType="0">
            <Node pos="l" depth="3" NCoef="0" IVar="4" Cut="3.7935636937618256e-02" cType="1" res="2.3418055847287178e-02" rms="4.4671586155891418e-01" purity="3.9795777201652527e-01" nType="0">
              <Node pos="l" depth="4" NCoef="0" IVar="2" Cut="3.3720565795898438e+01" cType="1" res="9.5552830025553703e-03" rms="4.4551980495452881e-01" purity="4.1003346443176270e-01" nType="0">
                <Node pos="l" depth="5" NCoef="0" IVar="0" Cut="5.8302307128906250e-01" cType="1" res="2.8378549963235855e-02" rms="4.6467149257659912e-01" purity="4.8089009523391724e-01" nType="0">
                  <Node pos="l" depth="6" NCoef="0" IVar="-1" Cut="0.0000000000000000e+00" cType="1" res="2.8838422149419785e-03" rms="4.7909605503082275e-01" purity="5.9383845329284668e-01" nType="-99"/>
                  <Node pos="r" depth="6" NCoef="0" IVar="-1" Cut="0.0000000000000000e+00" cType="1" res="2.3792684078216553e-03" rms="4.4758903980255127e-01" purity="3.5233500599861145e-01" nType="-99"/>
                </Node>
                <Node pos="r" depth="5" NCoef="0" IVar="-1" Cut="0.0000000000000000e+00" cType="1" res="-3.8925369735807180e-03" rms="4.0027600526809692e-01" purity="2.6361131668090820e-01" nType="-99"/>
              </Node>
              <Node pos="r" depth="4" NCoef="0" IVar="-1" Cut="0.0000000000000000e+00" cType="1" res="5.3946776315569878e-03" rms="4.4779893755912781e-01" purity="3.7500199675559998e-01" nType="-99"/>
            </Node>
            <Node pos="r" depth="3" NCoef="0" IVar="-1" Cut="0.0000000000000000e+00" cType="1" res="-5.1172534003853798e-03" rms="3.4505921602249146e-01" purity="1.6631169617176056e-01" nType="-99"/>
          </Node>
          <Node pos="r" depth="2" NCoef="0" IVar="3" Cut="7.1310418844223022e-01" cType="1" res="-1.7878763377666473e-02" rms="3.3481013774871826e-01" purity="1.5272159874439240e-01" nType="0">
            <Node pos="l" depth="3" NCoef="0" IVar="4" Cut="7.4066460132598877e-02" cType="1" res="-1.5805149450898170e-02" rms="3.2307040691375732e-01" purity="1.3594309985637665e-01" nType="0">
              <Node pos="l" depth="4" NCoef="0" IVar="5" Cut="3.0000000000000000e+00" cType="1" res="-2.5054384022951126e-02" rms="3.1997206807136536e-01" purity="1.3728547096252441e-01" nType="0">
                <Node pos="l" depth="5" NCoef="0" IVar="-1" Cut="0.0000000000000000e+00" cType="1" res="-8.0720214173197746e-03" rms="3.7863364815711975e-01" purity="1.9199456274509430e-01" nType="-99"/>
                <Node pos="r" depth="5" NCoef="0" IVar="3" Cut="5.1254147291183472e-01" cType="1" res="-2.0005177706480026e-02" rms="3.1003105640411377e-01" purity="1.2814268469810486e-01" nType="0">
                  <Node pos="l" depth="6" NCoef="0" IVar="0" Cut="1.2531840801239014e+00" cType="1" res="-2.6932084932923317e-02" rms="2.2020643949508667e-01" purity="5.2551865577697754e-02" nType="0">
                    <Node pos="l" depth="7" NCoef="0" IVar="-1" Cut="0.0000000000000000e+00" cType="1" res="-8.6342860013246536e-03" rms="2.7898108959197998e-01" purity="8.6369700729846954e-02" nType="-99"/>
                    <Node pos="r" depth="7" NCoef="0" IVar="-1" Cut="0.0000000000000000e+00" cType="1" res="-1.2313057668507099e-02" rms="1.7613056302070618e-01" purity="3.2467041164636612e-02" nType="-99"/>
                  </Node>
                  <Node pos="r" depth="6" NCoef="0" IVar="4" Cut="5.4101850837469101e-02" cType="1" res="-6.0405023396015167e-03" rms="4.3800285458564758e-01" purity="2.8053408861160278e-01" nType="0">
                    <Node pos="l" depth="7" NCoef="0" IVar="-1" Cut="0.0000000000000000e+00" cType="1" res="-1.6376386629417539e-03" rms="4.3061432242393494e-01" purity="2.6375266909599304e-01" nType="-99"/>
                    <Node pos="r" depth="7" NCoef="0" IVar="-1" Cut="0.0000000000000000e+00" cType="1" res="1.5244793030433357e-04" rms="4.4544669985771179e-01" purity="2.9800400137901306e-01" nType="-99"/>
                  </Node>
                </Node>
              </Node>
              <Node pos="r" depth="4" NCoef="0" IVar="3" Cut="6.2259572744369507e-01" cType="1" res="-1.1835693381726742e-02" rms="3.2386705279350281e-01" purity="1.3537128269672394e-01" nType="0">
                <Node pos="l" depth="5" NCoef="0" IVar="4" Cut="2.2997152805328369e-01" cType="1" res="-1.4179543592035770e-02" rms="3.1203180551528931e-01" purity="1.1974125355482101e-01" nType="0">
                  <Node pos="l" depth="6" NCoef="0" IVar="3" Cut="3.8613846898078918e-01" cType="1" res="-1.6091955825686455e-02" rms="3.0742129683494568e-01" purity="1.1665932834148407e-01" nType="0">
                    <Node pos="l" depth="7" NCoef="0" IVar="-1" Cut="0.0000000000000000e+00" cType="1" res="-8.6329309269785881e-03" rms="2.3264025151729584e-01" purity="5.8876380324363708e-02" nType="-99"/>
                    <Node pos="r" depth="7" NCoef="0" IVar="-1" Cut="0.0000000000000000e+00" cType="1" res="-1.4175283722579479e-03" rms="3.8330355286598206e-01" purity="1.9179002940654755e-01" nType="-99"/>
                  </Node>
                  <Node pos="r" depth="6" NCoef="0" IVar="-1" Cut="0.0000000000000000e+00" cType="1" res="1.1353349545970559e-03" rms="3.5473057627677917e-01" purity="1.5090681612491608e-01" nType="-99"/>
                </Node>
                <Node pos="r" depth="5" NCoef="0" IVar="-1" Cut="0.0000000000000000e+00" cType="1" res="2.7468877378851175e-03" rms="4.8358452320098877e-01" purity="4.0684387087821960e-01" nType="-99"/>
              </Node>
            </Node>
            <Node pos="r" depth="3" NCoef="0" IVar="-1" Cut="0.0000000000000000e+00" cType="1" res="-4.6459659934043884e-03" rms="4.8045477271080017e-01" purity="4.1306865215301514e-01" nType="-99"/>
          </Node>
        </Node>
      </Node>
    </BinaryTree>
    <BinaryTree type="DecisionTree" boostWeight="1.0000000000000000e+00" itree="61">
      <Node pos="s" depth="0" NCoef="0" IVar="3" Cut="7.8043156862258911e-01" cType="1" res="7.4473447166383266e-03" rms="4.1142532229423523e-01" purity="5.0046008825302124e-01" nType="0">
        <Node pos="l" depth="1" NCoef="0" IVar="0" Cut="1.2901246547698975e+00" cType="1" res="-7.5644757598638535e-03" rms="3.9222070574760437e-01" purity="2.6093658804893494e-01" nType="0">
          <Node pos="l" depth="2" NCoef="0" IVar="4" Cut="2.5755783542990685e-02" cType="1" res="-3.3892178907990456e-03" rms="4.3629786372184753e-01" purity="3.3356666564941406e-01" nType="0">
            <Node pos="l" depth="3" NCoef="0" IVar="2" Cut="2.8742324829101562e+01" cType="1" res="-2.9740409925580025e-02" rms="4.4881755113601685e-01" purity="3.6682417988777161e-01" nType="0">
              <Node pos="l" depth="4" NCoef="0" IVar="-1" Cut="0.0000000000000000e+00" cType="1" res="5.0154468044638634e-04" rms="4.6607682108879089e-01" purity="4.2585816979408264e-01" nType="-99"/>
              <Node pos="r" depth="4" NCoef="0" IVar="-1" Cut="0.0000000000000000e+00" cType="1" res="-6.3156136311590672e-03" rms="4.3385329842567444e-01" purity="3.2323256134986877e-01" nType="-99"/>
            </Node>
            <Node pos="r" depth="3" NCoef="0" IVar="2" Cut="3.5339440917968750e+02" cType="1" res="-1.4119213446974754e-03" rms="4.3527957797050476e-01" purity="3.3107113838195801e-01" nType="0">
              <Node pos="l" depth="4" NCoef="0" IVar="4" Cut="6.1547741293907166e-02" cType="1" res="2.9722095932811499e-03" rms="4.4520217180252075e-01" purity="3.6191383004188538e-01" nType="0">
                <Node pos="l" depth="5" NCoef="0" IVar="2" Cut="4.6393825531005859e+01" cType="1" res="-1.0597837157547474e-02" rms="4.4610333442687988e-01" purity="3.6547493934631348e-01" nType="0">
                  <Node pos="l" depth="6" NCoef="0" IVar="-1" Cut="0.0000000000000000e+00" cType="1" res="2.1615100558847189e-03" rms="4.6821078658103943e-01" purity="4.4855111837387085e-01" nType="-99"/>
                  <Node pos="r" depth="6" NCoef="0" IVar="1" Cut="-5.7465950958430767e-03" cType="1" res="-1.7577709630131721e-02" rms="4.4097280502319336e-01" purity="3.4791728854179382e-01" nType="0">
                    <Node pos="l" depth="7" NCoef="0" IVar="-1" Cut="0.0000000000000000e+00" cType="1" res="-2.4950396618805826e-04" rms="4.6616521477699280e-01" purity="4.3017026782035828e-01" nType="-99"/>
                    <Node pos="r" depth="7" NCoef="0" IVar="-1" Cut="0.0000000000000000e+00" cType="1" res="-3.1341069843620062e-03" rms="4.2636644840240479e-01" purity="3.0301973223686218e-01" nType="-99"/>
                  </Node>
                </Node>
                <Node pos="r" depth="5" NCoef="0" IVar="3" Cut="6.8183171749114990e-01" cType="1" res="1.0654292069375515e-02" rms="4.4450762867927551e-01" purity="3.5989785194396973e-01" nType="0">
                  <Node pos="l" depth="6" NCoef="0" IVar="1" Cut="4.9955293536186218e-01" cType="1" res="4.8149796202778816e-03" rms="4.2961844801902771e-01" purity="2.9189777374267578e-01" nType="0">
                    <Node pos="l" depth="7" NCoef="0" IVar="-1" Cut="0.0000000000000000e+00" cType="1" res="1.0985032422468066e-03" rms="4.4143763184547424e-01" purity="3.1605532765388489e-01" nType="-99"/>
                    <Node pos="r" depth="7" NCoef="0" IVar="-1" Cut="0.0000000000000000e+00" cType="1" res="-2.2496380843222141e-03" rms="3.7584233283996582e-01" purity="1.9126473367214203e-01" nType="-99"/>
                  </Node>
                  <Node pos="r" depth="6" NCoef="0" IVar="0" Cut="2.9083350300788879e-01" cType="1" res="2.8918858617544174e-02" rms="4.8770475387573242e-01" purity="5.7259285449981689e-01" nType="0">
                    <Node pos="l" depth="7" NCoef="0" IVar="-1" Cut="0.0000000000000000e+00" cType="1" res="1.7119463300332427e-03" rms="4.8615282773971558e-01" purity="5.9487020969390869e-01" nType="-99"/>
                    <Node pos="r" depth="7" NCoef="0" IVar="-1" Cut="0.0000000000000000e+00" cType="1" res="4.4042030349373817e-03" rms="4.9111226201057434e-01" purity="5.1273608207702637e-01" nType="-99"/>
                  </Node>
                </Node>
              </Node>
              <Node pos="r" depth="4" NCoef="0" IVar="4" Cut="1.1486207693815231e-01" cType="1" res="-1.4355420134961605e-02" rms="4.0428990125656128e-01" purity="2.4001269042491913e-01" nType="0">
                <Node pos="l" depth="5" NCoef="0" IVar="4" Cut="9.3779623508453369e-02" cType="1" res="-3.3324845135211945e-02" rms="4.1541776061058044e-01" purity="2.8230828046798706e-01" nType="0">
                  <Node pos="l" depth="6" NCoef="0" IVar="-1" Cut="0.0000000000000000e+00" cType="1" res="-5.5856723338365555e-03" rms="4.0730434656143188e-01" purity="2.8064095973968506e-01" nType="-99"/>
                  <Node pos="r" depth="6" NCoef="0" IVar="-1" Cut="0.0000000000000000e+00" cType="1" res="-3.1546461395919323e-03" rms="4.2134872078895569e-01" purity="2.8359228372573853e-01" nType="-99"/>
                </Node>
                <Node pos="r" depth="5" NCoef="0" IVar="3" Cut="5.0608420372009277e-01" cType="1" res="-6.9565484300255775e-03" rms="3.9962160587310791e-01" purity="2.2351564466953278e-01" nType="0">
                  <Node pos="l" depth="6" NCoef="0" IVar="4" Cut="1.8748596310615540e-01" cType="1" res="-1.1693561449646950e-02" rms="3.7114509940147400e-01" purity="1.7408885061740875e-01" nType="0">
                    <Node pos="l" depth="7" NCoef="0" IVar="-1" Cut="0.0000000000000000e+00" cType="1" res="-5.1603964529931545e-03" rms="3.4109041094779968e-01" purity="1.4180311560630798e-01" nType="-99"/>
                    <Node pos="r" depth="7" NCoef="0" IVar="-1" Cut="0.0000000000000000e+00" cType="1" res="2.6745800278149545e-04" rms="3.9480465650558472e-01" purity="2.0200064778327942e-01" nType="-99"/>
                  </Node>
                  <Node pos="r" depth="6" NCoef="0" IVar="-1" Cut="0.0000000000000000e+00" cType="1" res="7.6332455500960350e-04" rms="4.7517517209053040e-01" purity="3.7296885251998901e-01" nType="-99"/>
                </Node>
              </Node>
            </Node>
          </Node>
          <Node pos="r" depth="2" NCoef="0" IVar="5" Cut="4.0000000000000000e+00" cType="1" res="-1.9477309659123421e-02" rms="2.2244992852210999e-01" purity="5.3995802998542786e-02" nType="0">
            <Node pos="l" depth="3" NCoef="0" IVar="3" Cut="3.6460310220718384e-01" cType="1" res="-7.6937470585107803e-03" rms="3.0019006133079529e-01" purity="1.0245715826749802e-01" nType="0">
              <Node pos="l" depth="4" NCoef="0" IVar="-1" Cut="0.0000000000000000e+00" cType="1" res="4.8086373135447502e-03" rms="2.9102963209152222e-01" purity="9.5467098057270050e-02" nType="-99"/>
              <Node pos="r" depth="4" NCoef="0" IVar="-1" Cut="0.0000000000000000e+00" cType="1" res="-6.8419980816543102e-03" rms="3.0778723955154419e-01" purity="1.0950522869825363e-01" nType="-99"/>
            </Node>
            <Node pos="r" depth="3" NCoef="0" IVar="0" Cut="2.4137902259826660e+00" cType="1" res="-2.2031273692846298e-02" rms="2.0175987482070923e-01" purity="4.3409574776887894e-02" nType="0">
              <Node pos="l" depth="4" NCoef="0" IVar="4" Cut="1.0239973664283752e-01" cType="1" res="-1.7526820302009583e-02" rms="2.2123609483242035e-01" purity="5.2626471966505051e-02" nType="0">
                <Node pos="l" depth="5" NCoef="0" IVar="3" Cut="3.1171274185180664e-01" cType="1" res="-2.3797577247023582e-02" rms="1.8835453689098358e-01" purity="3.7606377154588699e-02" nType="0">
                  <Node pos="l" depth="6" NCoef="0" IVar="-1" Cut="0.0000000000000000e+00" cType="1" res="-1.1175573803484440e-02" rms="1.7503316700458527e-01" purity="3.1730204820632935e-02" nType="-99"/>
                  <Node pos="r" depth="6" NCoef="0" IVar="2" Cut="1.3805801391601562e+02" cType="1" res="-2.7209809049963951e-02" rms="1.9600884616374969e-01" purity="4.1214808821678162e-02" nType="0">
                    <Node pos="l" depth="7" NCoef="0" IVar="-1" Cut="0.0000000000000000e+00" cType="1" res="-1.1586534790694714e-02" rms="2.0769023895263672e-01" purity="4.7064792364835739e-02" nType="-99"/>
                    <Node pos="r" depth="7" NCoef="0" IVar="-1" Cut="0.0000000000000000e+00" cType="1" res="-1.2280448339879513e-02" rms="1.8381194770336151e-01" purity="3.5470131784677505e-02" nType="-99"/>
                  </Node>
                </Node>
                <Node pos="r" depth="5" NCoef="0" IVar="5" Cut="7.0000000000000000e+00" cType="1" res="-7.6327836140990257e-03" rms="2.2598867118358612e-01" purity="6.9496355950832367e-02" nType="0">
                  <Node pos="l" depth="6" NCoef="0" IVar="-1" Cut="0.0000000000000000e+00" cType="1" res="-5.9165116399526596e-03" rms="2.4645829200744629e-01" purity="6.5858341753482819e-02" nType="-99"/>
                  <Node pos="r" depth="6" NCoef="0" IVar="-1" Cut="0.0000000000000000e+00" cType="1" res="-1.2436516117304564e-03" rms="2.6315018534660339e-01" purity="7.5515791773796082e-02" nType="-99"/>
                </Node>
              </Node>
              <Node pos="r" depth="4" NCoef="0" IVar="1" Cut="1.1669918298721313e+00" cType="1" res="-2.8488332405686378e-02" rms="1.6978432238101959e-01" purity="3.0197298154234886e-02" nType="0">
                <Node pos="l" depth="5" NCoef="0" IVar="0" Cut="2.9019269943237305e+00" cType="1" res="-3.2729983329772949e-02" rms="1.5900547802448273e-01" purity="2.6537926867604256e-02" nType="0">
                  <Node pos="l" depth="6" NCoef="0" IVar="-1" Cut="0.0000000000000000e+00" cType="1" res="-1.3068472035229206e-02" rms="1.8155403435230255e-01" purity="3.4838315099477768e-02" nType="-99"/>
                  <Node pos="r" depth="6" NCoef="0" IVar="-1" Cut="0.0000000000000000e+00" cType="1" res="-2.1380564197897911e-02" rms="1.4396750926971436e-01" purity="2.1686607971787453e-02" nType="-99"/>
                </Node>
                <Node pos="r" depth="5" NCoef="0" IVar="-1" Cut="0.0000000000000000e+00" cType="1" res="-1.0055689141154289e-02" rms="1.9350975751876831e-01" purity="3.9257135242223740e-02" nType="-99"/>
              </Node>
            </Node>
          </Node>
        </Node>
        <Node pos="r" depth="1" NCoef="0" IVar="2" Cut="1.7325149536132812e+02" cType="1" res="2.2324329242110252e-02" rms="4.2909350991249084e-01" purity="7.3783230781555176e-01" nType="0">
          <Node pos="l" depth="2" NCoef="0" IVar="1" Cut="9.6058297157287598e-01" cType="1" res="2.5116551667451859e-02" rms="4.2584547400474548e-01" purity="7.4700498580932617e-01" nType="0">
            <Node pos="l" depth="3" NCoef="0" IVar="3" Cut="9.7646880149841309e-01" cType="1" res="2.6965886354446411e-02" rms="4.2257279157638550e-01" purity="7.5646305084228516e-01" nType="0">
              <Node pos="l" depth="4" NCoef="0" IVar="1" Cut="1.1132567375898361e-01" cType="1" res="2.0438583567738533e-02" rms="4.4916576147079468e-01" purity="7.0706343650817871e-01" nType="0">
                <Node pos="l" depth="5" NCoef="0" IVar="2" Cut="8.9461563110351562e+01" cType="1" res="2.6692923158407211e-02" rms="4.3911394476890564e-01" purity="7.3204141855239868e-01" nType="0">
                  <Node pos="l" depth="6" NCoef="0" IVar="4" Cut="1.7826480790972710e-02" cType="1" res="3.0619872733950615e-02" rms="4.3495681881904602e-01" purity="7.4066650867462158e-01" nType="0">
                    <Node pos="l" depth="7" NCoef="0" IVar="-1" Cut="0.0000000000000000e+00" cType="1" res="2.0220566075295210e-03" rms="4.3076792359352112e-01" purity="7.4587941169738770e-01" nType="-99"/>
                    <Node pos="r" depth="7" NCoef="0" IVar="-1" Cut="0.0000000000000000e+00" cType="1" res="3.7083895877003670e-03" rms="4.3824073672294617e-01" purity="7.3629248142242432e-01" nType="-99"/>
                  </Node>
                  <Node pos="r" depth="6" NCoef="0" IVar="4" Cut="3.8124196231365204e-02" cType="1" res="1.5444137156009674e-02" rms="4.5062050223350525e-01" purity="7.0733481645584106e-01" nType="0">
                    <Node pos="l" depth="7" NCoef="0" IVar="-1" Cut="0.0000000000000000e+00" cType="1" res="1.5215693565551192e-04" rms="4.5280668139457703e-01" purity="7.0189130306243896e-01" nType="-99"/>
                    <Node pos="r" depth="7" NCoef="0" IVar="-1" Cut="0.0000000000000000e+00" cType="1" res="2.4235637392848730e-03" rms="4.4873547554016113e-01" purity="7.1131998300552368e-01" nType="-99"/>
                  </Node>
                </Node>
                <Node pos="r" depth="5" NCoef="0" IVar="4" Cut="3.8810707628726959e-02" cType="1" res="7.4256411753594875e-03" rms="4.6912336349487305e-01" purity="6.5509349107742310e-01" nType="0">
                  <Node pos="l" depth="6" NCoef="0" IVar="4" Cut="1.8833031877875328e-02" cType="1" res="-6.3539820257574320e-04" rms="4.6971127390861511e-01" purity="6.5131878852844238e-01" nType="0">
                    <Node pos="l" depth="7" NCoef="0" IVar="-1" Cut="0.0000000000000000e+00" cType="1" res="-1.0449256515130401e-03" rms="4.6890407800674438e-01" purity="6.5192127227783203e-01" nType="-99"/>
                    <Node pos="r" depth="7" NCoef="0" IVar="-1" Cut="0.0000000000000000e+00" cType="1" res="7.5877178460359573e-04" rms="4.7020167112350464e-01" purity="6.5082156658172607e-01" nType="-99"/>
                  </Node>
                  <Node pos="r" depth="6" NCoef="0" IVar="-1" Cut="0.0000000000000000e+00" cType="1" res="2.1615060977637768e-03" rms="4.6725603938102722e-01" purity="6.6371679306030273e-01" nType="-99"/>
                </Node>
              </Node>
              <Node pos="r" depth="4" NCoef="0" IVar="1" Cut="-2.5094634294509888e-01" cType="1" res="3.1221807003021240e-02" rms="4.0423595905303955e-01" purity="7.8867250680923462e-01" nType="0">
                <Node pos="l" depth="5" NCoef="0" IVar="-1" Cut="0.0000000000000000e+00" cType="1" res="1.4670275850221515e-03" rms="4.1826409101486206e-01" purity="7.6971048116683960e-01" nType="-99"/>
                <Node pos="r" depth="5" NCoef="0" IVar="1" Cut="3.3525830507278442e-01" cType="1" res="3.2360259443521500e-02" rms="4.0321248769760132e-01" purity="7.8999805450439453e-01" nType="0">
                  <Node pos="l" depth="6" NCoef="0" IVar="1" Cut="1.3781570829451084e-02" cType="1" res="3.5386841744184494e-02" rms="3.9575922489166260e-01" purity="8.0232173204421997e-01" nType="0">
                    <Node pos="l" depth="7" NCoef="0" IVar="-1" Cut="0.0000000000000000e+00" cType="1" res="4.3974667787551880e-03" rms="3.8762798905372620e-01" purity="8.1314206123352051e-01" nType="-99"/>
                    <Node pos="r" depth="7" NCoef="0" IVar="-1" Cut="0.0000000000000000e+00" cType="1" res="3.1395256519317627e-03" rms="4.0661001205444336e-01" purity="7.8742718696594238e-01" nType="-99"/>
                  </Node>
                  <Node pos="r" depth="6" NCoef="0" IVar="1" Cut="6.1764299869537354e-01" cType="1" res="1.7510600388050079e-02" rms="4.3764397501945496e-01" purity="7.2953325510025024e-01" nType="0">
                    <Node pos="l" depth="7" NCoef="0" IVar="-1" Cut="0.0000000000000000e+00" cType="1" res="2.3208123166114092e-03" rms="4.2798361182212830e-01" purity="7.5124669075012207e-01" nType="-99"/>
                    <Node pos="r" depth="7" NCoef="0" IVar="-1" Cut="0.0000000000000000e+00" cType="1" res="1.4870688028167933e-04" rms="4.5935738086700439e-01" purity="6.7803281545639038e-01" nType="-99"/>
                  </Node>
                </Node>
              </Node>
            </Node>
            <Node pos="r" depth="3" NCoef="0" IVar="1" Cut="1.5421084165573120e+00" cType="1" res="-1.2507604435086250e-02" rms="4.8615643382072449e-01" purity="5.5458229780197144e-01" nType="0">
              <Node pos="l" depth="4" NCoef="0" IVar="-1" Cut="0.0000000000000000e+00" cType="1" res="1.4516996452584863e-04" rms="4.8528879880905151e-01" purity="5.7266628742218018e-01" nType="-99"/>
              <Node pos="r" depth="4" NCoef="0" IVar="-1" Cut="0.0000000000000000e+00" cType="1" res="-2.3271345999091864e-03" rms="4.8659887909889221e-01" purity="5.3688287734985352e-01" nType="-99"/>
            </Node>
          </Node>
          <Node pos="r" depth="2" NCoef="0" IVar="3" Cut="8.5769432783126831e-01" cType="1" res="-1.8993318080902100e-02" rms="4.7264093160629272e-01" purity="6.0210084915161133e-01" nType="0">
            <Node pos="l" depth="3" NCoef="0" IVar="-1" Cut="0.0000000000000000e+00" cType="1" res="1.2603747563844081e-05" rms="4.8087513446807861e-01" purity="6.1049497127532959e-01" nType="-99"/>
            <Node pos="r" depth="3" NCoef="0" IVar="-1" Cut="0.0000000000000000e+00" cType="1" res="-6.1739669181406498e-03" rms="4.5329648256301880e-01" purity="5.8530092239379883e-01" nType="-99"/>
          </Node>
        </Node>
      </Node>
    </BinaryTree>
    <BinaryTree type="DecisionTree" boostWeight="1.0000000000000000e+00" itree="62">
      <Node pos="s" depth="0" NCoef="0" IVar="3" Cut="6.4561271667480469e-01" cType="1" res="6.8887691013514996e-03" rms="4.1078627109527588e-01" purity="5.0037783384323120e-01" nType="0">
        <Node pos="l" depth="1" NCoef="0" IVar="4" Cut="8.9897297322750092e-02" cType="1" res="-1.1473019607365131e-02" rms="3.4983310103416443e-01" purity="1.6951906681060791e-01" nType="0">
          <Node pos="l" depth="2" NCoef="0" IVar="2" Cut="5.1318801879882812e+01" cType="1" res="-1.8757697194814682e-02" rms="3.3259892463684082e-01" purity="1.5365692973136902e-01" nType="0">
            <Node pos="l" depth="3" NCoef="0" IVar="4" Cut="2.6203351095318794e-02" cType="1" res="-1.3746477197855711e-03" rms="3.7287652492523193e-01" purity="2.0260687172412872e-01" nType="0">
              <Node pos="l" depth="4" NCoef="0" IVar="-1" Cut="0.0000000000000000e+00" cType="1" res="-3.8492470048367977e-03" rms="3.5120344161987305e-01" purity="1.6988110542297363e-01" nType="-99"/>
              <Node pos="r" depth="4" NCoef="0" IVar="-1" Cut="0.0000000000000000e+00" cType="1" res="2.3504381533712149e-03" rms="3.8922557234764099e-01" purity="2.2983972728252411e-01" nType="-99"/>
            </Node>
            <Node pos="r" depth="3" NCoef="0" IVar="2" Cut="2.8212597656250000e+02" cType="1" res="-2.2253112867474556e-02" rms="3.2378289103507996e-01" purity="1.4381396770477295e-01" nType="0">
              <Node pos="l" depth="4" NCoef="0" IVar="4" Cut="6.6374413669109344e-02" cType="1" res="-1.9888479262590408e-02" rms="3.2767274975776672e-01" purity="1.4923602342605591e-01" nType="0">
                <Node pos="l" depth="5" NCoef="0" IVar="2" Cut="1.9274316406250000e+02" cType="1" res="-2.6233462616801262e-02" rms="3.1541958451271057e-01" purity="1.3314920663833618e-01" nType="0">
                  <Node pos="l" depth="6" NCoef="0" IVar="4" Cut="3.4842137247323990e-02" cType="1" res="-2.3461038246750832e-02" rms="3.2175609469413757e-01" purity="1.3976544141769409e-01" nType="0">
                    <Node pos="l" depth="7" NCoef="0" IVar="-1" Cut="0.0000000000000000e+00" cType="1" res="-6.9314683787524700e-03" rms="3.0693319439888000e-01" purity="1.1918336898088455e-01" nType="-99"/>
                    <Node pos="r" depth="7" NCoef="0" IVar="-1" Cut="0.0000000000000000e+00" cType="1" res="-4.1714813560247421e-03" rms="3.2710796594619751e-01" purity="1.4751251041889191e-01" nType="-99"/>
                  </Node>
                  <Node pos="r" depth="6" NCoef="0" IVar="-1" Cut="0.0000000000000000e+00" cType="1" res="-8.9883590117096901e-03" rms="2.8469002246856689e-01" purity="1.0324389487504959e-01" nType="-99"/>
                </Node>
                <Node pos="r" depth="5" NCoef="0" IVar="3" Cut="5.4512423276901245e-01" cType="1" res="-8.9587355032563210e-03" rms="3.4749734401702881e-01" purity="1.7694684863090515e-01" nType="0">
                  <Node pos="l" depth="6" NCoef="0" IVar="1" Cut="5.4131281375885010e-01" cType="1" res="-2.1026834845542908e-02" rms="2.7709418535232544e-01" purity="9.1352656483650208e-02" nType="0">
                    <Node pos="l" depth="7" NCoef="0" IVar="-1" Cut="0.0000000000000000e+00" cType="1" res="-4.1458215564489365e-03" rms="3.0656072497367859e-01" purity="1.1521621793508530e-01" nType="-99"/>
                    <Node pos="r" depth="7" NCoef="0" IVar="-1" Cut="0.0000000000000000e+00" cType="1" res="-1.1787073686718941e-02" rms="2.1688660979270935e-01" purity="5.0213731825351715e-02" nType="-99"/>
                  </Node>
                  <Node pos="r" depth="6" NCoef="0" IVar="-1" Cut="0.0000000000000000e+00" cType="1" res="2.0096669904887676e-03" rms="4.7456085681915283e-01" purity="3.8258379697799683e-01" nType="-99"/>
                </Node>
              </Node>
              <Node pos="r" depth="4" NCoef="0" IVar="-1" Cut="0.0000000000000000e+00" cType="1" res="-7.9729883000254631e-03" rms="2.9855301976203918e-01" purity="1.1073645204305649e-01" nType="-99"/>
            </Node>
          </Node>
          <Node pos="r" depth="2" NCoef="0" IVar="3" Cut="4.4093847274780273e-01" cType="1" res="-6.0418648645281792e-03" rms="3.6205351352691650e-01" purity="1.8134520947933197e-01" nType="0">
            <Node pos="l" depth="3" NCoef="0" IVar="4" Cut="2.7833652496337891e-01" cType="1" res="-1.1909420602023602e-02" rms="3.0223849415779114e-01" purity="1.0923390090465546e-01" nType="0">
              <Node pos="l" depth="4" NCoef="0" IVar="2" Cut="1.4890151977539062e+02" cType="1" res="-1.4911473728716373e-02" rms="2.9264262318611145e-01" purity="1.0039424151182175e-01" nType="0">
                <Node pos="l" depth="5" NCoef="0" IVar="-1" Cut="0.0000000000000000e+00" cType="1" res="1.4882582472637296e-03" rms="3.1143563985824585e-01" purity="1.1468045413494110e-01" nType="-99"/>
                <Node pos="r" depth="5" NCoef="0" IVar="4" Cut="1.3245360553264618e-01" cType="1" res="-1.7644526436924934e-02" rms="2.8985780477523804e-01" purity="9.8430663347244263e-02" nType="0">
                  <Node pos="l" depth="6" NCoef="0" IVar="2" Cut="3.8637960815429688e+02" cType="1" res="-2.7313247323036194e-02" rms="2.1371512115001678e-01" purity="4.9617342650890350e-02" nType="0">
                    <Node pos="l" depth="7" NCoef="0" IVar="-1" Cut="0.0000000000000000e+00" cType="1" res="-9.4885732978582382e-03" rms="2.2445787489414215e-01" purity="5.5017769336700439e-02" nType="-99"/>
                    <Node pos="r" depth="7" NCoef="0" IVar="-1" Cut="0.0000000000000000e+00" cType="1" res="-1.3470037840306759e-02" rms="1.9352217018604279e-01" purity="4.0272898972034454e-02" nType="-99"/>
                  </Node>
                  <Node pos="r" depth="6" NCoef="0" IVar="5" Cut="4.0000000000000000e+00" cType="1" res="-1.3553624041378498e-02" rms="3.1818568706512451e-01" purity="1.2155577540397644e-01" nType="0">
                    <Node pos="l" depth="7" NCoef="0" IVar="-1" Cut="0.0000000000000000e+00" cType="1" res="1.9008183153346181e-03" rms="3.8429188728332520e-01" purity="1.8809638917446136e-01" nType="-99"/>
                    <Node pos="r" depth="7" NCoef="0" IVar="-1" Cut="0.0000000000000000e+00" cType="1" res="-4.3129133991897106e-03" rms="3.0728873610496521e-01" purity="1.1047831177711487e-01" nType="-99"/>
                  </Node>
                </Node>
              </Node>
              <Node pos="r" depth="4" NCoef="0" IVar="-1" Cut="0.0000000000000000e+00" cType="1" res="4.2976667173206806e-03" rms="4.0072077512741089e-01" purity="2.1875244379043579e-01" nType="-99"/>
            </Node>
            <Node pos="r" depth="3" NCoef="0" IVar="5" Cut="4.0000000000000000e+00" cType="1" res="4.7435550950467587e-03" rms="4.4830819964408875e-01" purity="3.0914556980133057e-01" nType="0">
              <Node pos="l" depth="4" NCoef="0" IVar="0" Cut="2.4900075793266296e-01" cType="1" res="-8.7498258799314499e-03" rms="4.4687086343765259e-01" purity="3.0470627546310425e-01" nType="0">
                <Node pos="l" depth="5" NCoef="0" IVar="-1" Cut="0.0000000000000000e+00" cType="1" res="-2.9302972834557295e-03" rms="4.7445398569107056e-01" purity="3.6846512556076050e-01" nType="-99"/>
                <Node pos="r" depth="5" NCoef="0" IVar="3" Cut="5.5316960811614990e-01" cType="1" res="6.2503558583557606e-03" rms="4.2613220214843750e-01" purity="2.6066461205482483e-01" nType="0">
                  <Node pos="l" depth="6" NCoef="0" IVar="-1" Cut="0.0000000000000000e+00" cType="1" res="-1.5028940979391336e-03" rms="3.8952153921127319e-01" purity="1.9394405186176300e-01" nType="-99"/>
                  <Node pos="r" depth="6" NCoef="0" IVar="-1" Cut="0.0000000000000000e+00" cType="1" res="2.6868977583944798e-03" rms="4.6538794040679932e-01" purity="3.4027147293090820e-01" nType="-99"/>
                </Node>
              </Node>
              <Node pos="r" depth="4" NCoef="0" IVar="2" Cut="1.9641271972656250e+02" cType="1" res="1.7518153414130211e-02" rms="4.5015037059783936e-01" purity="3.1360322237014771e-01" nType="0">
                <Node pos="l" depth="5" NCoef="0" IVar="-1" Cut="0.0000000000000000e+00" cType="1" res="3.9140800945460796e-03" rms="4.7046840190887451e-01" purity="3.7225231528282166e-01" nType="-99"/>
                <Node pos="r" depth="5" NCoef="0" IVar="3" Cut="5.2677977085113525e-01" cType="1" res="9.7537795081734657e-03" rms="4.4143170118331909e-01" purity="2.8988665342330933e-01" nType="0">
                  <Node pos="l" depth="6" NCoef="0" IVar="-1" Cut="0.0000000000000000e+00" cType="1" res="4.8703540232963860e-04" rms="4.1604101657867432e-01" purity="2.3477192223072052e-01" nType="-99"/>
                  <Node pos="r" depth="6" NCoef="0" IVar="-1" Cut="0.0000000000000000e+00" cType="1" res="1.9921525381505489e-03" rms="4.7639811038970947e-01" purity="3.7149465084075928e-01" nType="-99"/>
                </Node>
              </Node>
            </Node>
          </Node>
        </Node>
        <Node pos="r" depth="1" NCoef="0" IVar="0" Cut="8.2133221626281738e-01" cType="1" res="1.7521288245916367e-02" rms="4.4190883636474609e-01" purity="6.9196391105651855e-01" nType="0">
          <Node pos="l" depth="2" NCoef="0" IVar="1" Cut="9.7939169406890869e-01" cType="1" res="1.9270310178399086e-02" rms="4.4144448637962341e-01" purity="6.9838172197341919e-01" nType="0">
            <Node pos="l" depth="3" NCoef="0" IVar="5" Cut="2.0000000000000000e+00" cType="1" res="1.9851738587021828e-02" rms="3.9197438955307007e-01" purity="7.0833873748779297e-01" nType="0">
              <Node pos="l" depth="4" NCoef="0" IVar="3" Cut="9.5411741733551025e-01" cType="1" res="2.8329098597168922e-02" rms="4.0724664926528931e-01" purity="7.8598541021347046e-01" nType="0">
                <Node pos="l" depth="5" NCoef="0" IVar="-1" Cut="0.0000000000000000e+00" cType="1" res="4.2329201824031770e-04" rms="4.4417065382003784e-01" purity="7.2243005037307739e-01" nType="-99"/>
                <Node pos="r" depth="5" NCoef="0" IVar="0" Cut="2.6486491784453392e-02" cType="1" res="2.9698975384235382e-02" rms="4.0500065684318542e-01" purity="7.8960299491882324e-01" nType="0">
                  <Node pos="l" depth="6" NCoef="0" IVar="1" Cut="3.9883497357368469e-01" cType="1" res="3.0637551099061966e-02" rms="4.0063661336898804e-01" purity="7.9756712913513184e-01" nType="0">
                    <Node pos="l" depth="7" NCoef="0" IVar="-1" Cut="0.0000000000000000e+00" cType="1" res="3.4977318719029427e-03" rms="3.9481520652770996e-01" purity="8.0635130405426025e-01" nType="-99"/>
                    <Node pos="r" depth="7" NCoef="0" IVar="-1" Cut="0.0000000000000000e+00" cType="1" res="1.7547719180583954e-03" rms="4.4074496626853943e-01" purity="7.3326343297958374e-01" nType="-99"/>
                  </Node>
                  <Node pos="r" depth="6" NCoef="0" IVar="-1" Cut="0.0000000000000000e+00" cType="1" res="1.2476231204345822e-03" rms="4.7288417816162109e-01" purity="6.5399748086929321e-01" nType="-99"/>
                </Node>
              </Node>
              <Node pos="r" depth="4" NCoef="0" IVar="4" Cut="1.3155635446310043e-02" cType="1" res="1.3301501981914043e-02" rms="4.7135475277900696e-01" purity="6.2430667877197266e-01" nType="0">
                <Node pos="l" depth="5" NCoef="0" IVar="-1" Cut="0.0000000000000000e+00" cType="1" res="-2.7164111379534006e-03" rms="4.7545236349105835e-01" purity="6.1010205745697021e-01" nType="-99"/>
                <Node pos="r" depth="5" NCoef="0" IVar="1" Cut="1.2254966050386429e-01" cType="1" res="1.5580021776258945e-02" rms="4.7102117538452148e-01" purity="6.2509697675704956e-01" nType="0">
                  <Node pos="l" depth="6" NCoef="0" IVar="2" Cut="9.6556129455566406e+01" cType="1" res="2.1268580108880997e-02" rms="4.6523156762123108e-01" purity="6.5403372049331665e-01" nType="0">
                    <Node pos="l" depth="7" NCoef="0" IVar="-1" Cut="0.0000000000000000e+00" cType="1" res="2.7732499875128269e-03" rms="4.5648026466369629e-01" purity="6.8714416027069092e-01" nType="-99"/>
                    <Node pos="r" depth="7" NCoef="0" IVar="-1" Cut="0.0000000000000000e+00" cType="1" res="1.1369297280907631e-03" rms="4.7357085347175598e-01" purity="6.2120777368545532e-01" nType="-99"/>
                  </Node>
                  <Node pos="r" depth="6" NCoef="0" IVar="0" Cut="2.6474948972463608e-02" cType="1" res="5.1914346404373646e-03" rms="4.8124110698699951e-01" purity="5.7225209474563599e-01" nType="0">
                    <Node pos="l" depth="7" NCoef="0" IVar="-1" Cut="0.0000000000000000e+00" cType="1" res="1.2034816900268197e-03" rms="4.7641533613204956e-01" purity="6.2705415487289429e-01" nType="-99"/>
                    <Node pos="r" depth="7" NCoef="0" IVar="-1" Cut="0.0000000000000000e+00" cType="1" res="-1.1991157662123442e-03" rms="4.9091482162475586e-01" purity="4.5504441857337952e-01" nType="-99"/>
                  </Node>
                </Node>
              </Node>
            </Node>
            <Node pos="r" depth="3" NCoef="0" IVar="3" Cut="8.6023288965225220e-01" cType="1" res="-1.7637630924582481e-02" rms="4.8150840401649475e-01" purity="4.9884659051895142e-01" nType="0">
              <Node pos="l" depth="4" NCoef="0" IVar="-1" Cut="0.0000000000000000e+00" cType="1" res="-4.1196667589247227e-03" rms="4.7096446156501770e-01" purity="3.6574697494506836e-01" nType="-99"/>
              <Node pos="r" depth="4" NCoef="0" IVar="-1" Cut="0.0000000000000000e+00" cType="1" res="5.2556362788891420e-05" rms="4.8777574300765991e-01" purity="5.9021198749542236e-01" nType="-99"/>
            </Node>
          </Node>
          <Node pos="r" depth="2" NCoef="0" IVar="-1" Cut="0.0000000000000000e+00" cType="1" res="-8.2512889057397842e-03" rms="4.5677876472473145e-01" purity="3.1463533639907837e-01" nType="-99"/>
        </Node>
      </Node>
    </BinaryTree>
    <BinaryTree type="DecisionTree" boostWeight="1.0000000000000000e+00" itree="63">
      <Node pos="s" depth="0" NCoef="0" IVar="3" Cut="7.7976024150848389e-01" cType="1" res="6.7371665500104427e-03" rms="4.1105097532272339e-01" purity="5.0004994869232178e-01" nType="0">
        <Node pos="l" depth="1" NCoef="0" IVar="1" Cut="3.6709692329168320e-02" cType="1" res="-7.2134025394916534e-03" rms="3.9068397879600525e-01" purity="2.5927650928497314e-01" nType="0">
          <Node pos="l" depth="2" NCoef="0" IVar="2" Cut="3.7446997070312500e+02" cType="1" res="6.3583417795598507e-03" rms="4.2917594313621521e-01" purity="3.4493026137351990e-01" nType="0">
            <Node pos="l" depth="3" NCoef="0" IVar="2" Cut="6.1212448120117188e+01" cType="1" res="1.1516863480210304e-02" rms="4.4147816300392151e-01" purity="3.8298678398132324e-01" nType="0">
              <Node pos="l" depth="4" NCoef="0" IVar="4" Cut="3.2855253666639328e-02" cType="1" res="3.0212817713618279e-02" rms="4.7180384397506714e-01" purity="4.9497985839843750e-01" nType="0">
                <Node pos="l" depth="5" NCoef="0" IVar="-1" Cut="0.0000000000000000e+00" cType="1" res="1.4149381313472986e-03" rms="4.6435338258743286e-01" purity="4.6482402086257935e-01" nType="-99"/>
                <Node pos="r" depth="5" NCoef="0" IVar="-1" Cut="0.0000000000000000e+00" cType="1" res="3.9970492944121361e-03" rms="4.7813773155212402e-01" purity="5.2298063039779663e-01" nType="-99"/>
              </Node>
              <Node pos="r" depth="4" NCoef="0" IVar="4" Cut="4.7737766057252884e-02" cType="1" res="7.7400756999850273e-03" rms="4.3499797582626343e-01" purity="3.6036294698715210e-01" nType="0">
                <Node pos="l" depth="5" NCoef="0" IVar="-1" Cut="0.0000000000000000e+00" cType="1" res="-2.1978749427944422e-03" rms="4.3198603391647339e-01" purity="3.5539683699607849e-01" nType="-99"/>
                <Node pos="r" depth="5" NCoef="0" IVar="3" Cut="6.5698999166488647e-01" cType="1" res="1.2624607421457767e-02" rms="4.3537542223930359e-01" purity="3.6127910017967224e-01" nType="0">
                  <Node pos="l" depth="6" NCoef="0" IVar="4" Cut="8.1357486546039581e-02" cType="1" res="6.5302751027047634e-03" rms="4.1036066412925720e-01" purity="2.6040488481521606e-01" nType="0">
                    <Node pos="l" depth="7" NCoef="0" IVar="-1" Cut="0.0000000000000000e+00" cType="1" res="-1.6980639193207026e-03" rms="3.8938429951667786e-01" purity="2.3224107921123505e-01" nType="-99"/>
                    <Node pos="r" depth="7" NCoef="0" IVar="-1" Cut="0.0000000000000000e+00" cType="1" res="1.9934524316340685e-03" rms="4.1906818747520447e-01" purity="2.7286145091056824e-01" nType="-99"/>
                  </Node>
                  <Node pos="r" depth="6" NCoef="0" IVar="4" Cut="6.8101845681667328e-02" cType="1" res="2.6151752099394798e-02" rms="4.8604992032051086e-01" purity="5.8518213033676147e-01" nType="0">
                    <Node pos="l" depth="7" NCoef="0" IVar="-1" Cut="0.0000000000000000e+00" cType="1" res="1.2561297044157982e-03" rms="4.8819619417190552e-01" purity="5.5941379070281982e-01" nType="-99"/>
                    <Node pos="r" depth="7" NCoef="0" IVar="-1" Cut="0.0000000000000000e+00" cType="1" res="2.8001172468066216e-03" rms="4.8470336198806763e-01" purity="5.9969544410705566e-01" nType="-99"/>
                  </Node>
                </Node>
              </Node>
            </Node>
            <Node pos="r" depth="3" NCoef="0" IVar="3" Cut="2.5901263952255249e-01" cType="1" res="-1.0983583517372608e-02" rms="3.8443925976753235e-01" purity="2.1699185669422150e-01" nType="0">
              <Node pos="l" depth="4" NCoef="0" IVar="-1" Cut="0.0000000000000000e+00" cType="1" res="1.3424081262201071e-03" rms="3.3744969964027405e-01" purity="1.4730274677276611e-01" nType="-99"/>
              <Node pos="r" depth="4" NCoef="0" IVar="3" Cut="4.1013726592063904e-01" cType="1" res="-1.6768278554081917e-02" rms="3.9914402365684509e-01" purity="2.4093282222747803e-01" nType="0">
                <Node pos="l" depth="5" NCoef="0" IVar="-1" Cut="0.0000000000000000e+00" cType="1" res="-6.2272390350699425e-03" rms="3.0975469946861267e-01" purity="1.1164519935846329e-01" nType="-99"/>
                <Node pos="r" depth="5" NCoef="0" IVar="-1" Cut="0.0000000000000000e+00" cType="1" res="-1.1633395915850997e-03" rms="4.4776991009712219e-01" purity="3.2518970966339111e-01" nType="-99"/>
              </Node>
            </Node>
          </Node>
          <Node pos="r" depth="2" NCoef="0" IVar="0" Cut="3.2215213775634766e-01" cType="1" res="-1.5163294039666653e-02" rms="3.6602899432182312e-01" purity="2.0910330116748810e-01" nType="0">
            <Node pos="l" depth="3" NCoef="0" IVar="0" Cut="1.0388593189418316e-02" cType="1" res="-5.6949807330965996e-03" rms="4.7319144010543823e-01" purity="4.1490274667739868e-01" nType="0">
              <Node pos="l" depth="4" NCoef="0" IVar="3" Cut="6.0736232995986938e-01" cType="1" res="4.5765317045152187e-03" rms="4.7713643312454224e-01" purity="4.3895331025123596e-01" nType="0">
                <Node pos="l" depth="5" NCoef="0" IVar="4" Cut="1.5416999161243439e-01" cType="1" res="-2.6052247267216444e-03" rms="4.4786912202835083e-01" purity="2.9500153660774231e-01" nType="0">
                  <Node pos="l" depth="6" NCoef="0" IVar="-1" Cut="0.0000000000000000e+00" cType="1" res="-9.0948061551898718e-04" rms="4.5291754603385925e-01" purity="3.1290832161903381e-01" nType="-99"/>
                  <Node pos="r" depth="6" NCoef="0" IVar="-1" Cut="0.0000000000000000e+00" cType="1" res="3.5607552854344249e-04" rms="4.4289198517799377e-01" purity="2.7778476476669312e-01" nType="-99"/>
                </Node>
                <Node pos="r" depth="5" NCoef="0" IVar="5" Cut="3.0000000000000000e+00" cType="1" res="-8.1475947808939964e-05" rms="5.4461215622723103e-03" purity="5.2610951662063599e-01" nType="0">
                  <Node pos="l" depth="6" NCoef="0" IVar="-1" Cut="0.0000000000000000e+00" cType="1" res="-8.5216236766427755e-04" rms="4.9274662137031555e-01" purity="4.9998596310615540e-01" nType="-99"/>
                  <Node pos="r" depth="6" NCoef="0" IVar="3" Cut="7.1301996707916260e-01" cType="1" res="1.6859851777553558e-02" rms="4.9424636363983154e-01" purity="5.3687846660614014e-01" nType="0">
                    <Node pos="l" depth="7" NCoef="0" IVar="-1" Cut="0.0000000000000000e+00" cType="1" res="2.2157803177833557e-03" rms="4.9611896276473999e-01" purity="5.1029050350189209e-01" nType="-99"/>
                    <Node pos="r" depth="7" NCoef="0" IVar="-1" Cut="0.0000000000000000e+00" cType="1" res="4.0103530045598745e-04" rms="4.9151059985160828e-01" purity="5.7167571783065796e-01" nType="-99"/>
                  </Node>
                </Node>
              </Node>
              <Node pos="r" depth="4" NCoef="0" IVar="1" Cut="3.5780182480812073e-01" cType="1" res="-3.0645718798041344e-02" rms="4.6251973509788513e-01" purity="3.5648104548454285e-01" nType="0">
                <Node pos="l" depth="5" NCoef="0" IVar="-1" Cut="0.0000000000000000e+00" cType="1" res="-1.9596100319176912e-03" rms="4.7457727789878845e-01" purity="4.0048354864120483e-01" nType="-99"/>
                <Node pos="r" depth="5" NCoef="0" IVar="-1" Cut="0.0000000000000000e+00" cType="1" res="-5.4227183572947979e-03" rms="4.4341436028480530e-01" purity="2.9100936651229858e-01" nType="-99"/>
              </Node>
            </Node>
            <Node pos="r" depth="3" NCoef="0" IVar="2" Cut="7.0471824645996094e+01" cType="1" res="-1.8754163756966591e-02" rms="3.1594800949096680e-01" purity="1.3105359673500061e-01" nType="0">
              <Node pos="l" depth="4" NCoef="0" IVar="1" Cut="3.5406926274299622e-01" cType="1" res="-7.9511813819408417e-03" rms="3.5835725069046021e-01" purity="1.8743221461772919e-01" nType="0">
                <Node pos="l" depth="5" NCoef="0" IVar="-1" Cut="0.0000000000000000e+00" cType="1" res="1.7972220666706562e-03" rms="4.1881325840950012e-01" purity="2.8744605183601379e-01" nType="-99"/>
                <Node pos="r" depth="5" NCoef="0" IVar="2" Cut="4.3497329711914062e+01" cType="1" res="-2.0609602332115173e-02" rms="3.1753817200660706e-01" purity="1.2963528931140900e-01" nType="0">
                  <Node pos="l" depth="6" NCoef="0" IVar="-1" Cut="0.0000000000000000e+00" cType="1" res="-3.1213106121867895e-03" rms="3.2921251654624939e-01" purity="1.4135684072971344e-01" nType="-99"/>
                  <Node pos="r" depth="6" NCoef="0" IVar="-1" Cut="0.0000000000000000e+00" cType="1" res="-5.9019569307565689e-03" rms="3.0710804462432861e-01" purity="1.1961117386817932e-01" nType="-99"/>
                </Node>
              </Node>
              <Node pos="r" depth="4" NCoef="0" IVar="4" Cut="6.3098572194576263e-02" cType="1" res="-2.0802710205316544e-02" rms="3.0720365047454834e-01" purity="1.2036263942718506e-01" nType="0">
                <Node pos="l" depth="5" NCoef="0" IVar="3" Cut="5.3723609447479248e-01" cType="1" res="-3.2728362828493118e-02" rms="3.0807748436927795e-01" purity="1.2269496917724609e-01" nType="0">
                  <Node pos="l" depth="6" NCoef="0" IVar="4" Cut="4.2379658669233322e-02" cType="1" res="-2.1221738308668137e-02" rms="2.2345589101314545e-01" purity="5.4700039327144623e-02" nType="0">
                    <Node pos="l" depth="7" NCoef="0" IVar="-1" Cut="0.0000000000000000e+00" cType="1" res="-3.7440841551870108e-03" rms="2.4395315349102020e-01" purity="6.5917313098907471e-02" nType="-99"/>
                    <Node pos="r" depth="7" NCoef="0" IVar="-1" Cut="0.0000000000000000e+00" cType="1" res="-1.0896940715610981e-02" rms="2.1054464578628540e-01" purity="4.8278059810400009e-02" nType="-99"/>
                  </Node>
                  <Node pos="r" depth="6" NCoef="0" IVar="-1" Cut="0.0000000000000000e+00" cType="1" res="-6.4830095507204533e-03" rms="4.1876190900802612e-01" purity="2.4532265961170197e-01" nType="-99"/>
                </Node>
                <Node pos="r" depth="5" NCoef="0" IVar="2" Cut="1.3790866088867188e+02" cType="1" res="-1.7212977632880211e-02" rms="3.0684939026832581e-01" purity="1.1966059356927872e-01" nType="0">
                  <Node pos="l" depth="6" NCoef="0" IVar="4" Cut="8.5119187831878662e-02" cType="1" res="-6.2539917416870594e-03" rms="3.4172469377517700e-01" purity="1.6254630684852600e-01" nType="0">
                    <Node pos="l" depth="7" NCoef="0" IVar="-1" Cut="0.0000000000000000e+00" cType="1" res="-2.9760915786027908e-03" rms="3.3881482481956482e-01" purity="1.6852773725986481e-01" nType="-99"/>
                    <Node pos="r" depth="7" NCoef="0" IVar="-1" Cut="0.0000000000000000e+00" cType="1" res="2.0193429372739047e-04" rms="3.4378406405448914e-01" purity="1.5792252123355865e-01" nType="-99"/>
                  </Node>
                  <Node pos="r" depth="6" NCoef="0" IVar="4" Cut="1.7086239159107208e-01" cType="1" res="-1.9596785306930542e-02" rms="2.9867139458656311e-01" purity="1.1033205687999725e-01" nType="0">
                    <Node pos="l" depth="7" NCoef="0" IVar="-1" Cut="0.0000000000000000e+00" cType="1" res="-5.6427107192575932e-03" rms="2.9287058115005493e-01" purity="1.0822781920433044e-01" nType="-99"/>
                    <Node pos="r" depth="7" NCoef="0" IVar="-1" Cut="0.0000000000000000e+00" cType="1" res="-2.1973110269755125e-03" rms="3.1851837038993835e-01" purity="1.1793864518404007e-01" nType="-99"/>
                  </Node>
                </Node>
              </Node>
            </Node>
          </Node>
        </Node>
        <Node pos="r" depth="1" NCoef="0" IVar="1" Cut="9.6557956933975220e-01" cType="1" res="2.0484752953052521e-02" rms="4.2973649501800537e-01" purity="7.3732006549835205e-01" nType="0">
          <Node pos="l" depth="2" NCoef="0" IVar="2" Cut="2.3143063354492188e+02" cType="1" res="2.2220622748136520e-02" rms="4.2659255862236023e-01" purity="7.4714469909667969e-01" nType="0">
            <Node pos="l" depth="3" NCoef="0" IVar="2" Cut="7.4644897460937500e+01" cType="1" res="2.3306284099817276e-02" rms="4.2518272995948792e-01" purity="7.5157338380813599e-01" nType="0">
              <Node pos="l" depth="4" NCoef="0" IVar="3" Cut="1.0026450157165527e+00" cType="1" res="2.5111069902777672e-02" rms="4.1779461503028870e-01" purity="7.6566302776336670e-01" nType="0">
                <Node pos="l" depth="5" NCoef="0" IVar="3" Cut="9.9545484781265259e-01" cType="1" res="2.2807056084275246e-02" rms="4.2373308539390564e-01" purity="7.5558286905288696e-01" nType="0">
                  <Node pos="l" depth="6" NCoef="0" IVar="4" Cut="1.4308515004813671e-02" cType="1" res="1.8972259014844894e-02" rms="4.3507605791091919e-01" purity="7.3609924316406250e-01" nType="0">
                    <Node pos="l" depth="7" NCoef="0" IVar="-1" Cut="0.0000000000000000e+00" cType="1" res="1.2990486575290561e-03" rms="4.2781043052673340e-01" purity="7.4895662069320679e-01" nType="-99"/>
                    <Node pos="r" depth="7" NCoef="0" IVar="-1" Cut="0.0000000000000000e+00" cType="1" res="2.8697105590254068e-03" rms="4.4810560345649719e-01" purity="7.1202772855758667e-01" nType="-99"/>
                  </Node>
                  <Node pos="r" depth="6" NCoef="0" IVar="3" Cut="9.9893385171890259e-01" cType="1" res="2.9322780668735504e-02" rms="4.0364652872085571e-01" purity="7.8868764638900757e-01" nType="0">
                    <Node pos="l" depth="7" NCoef="0" IVar="-1" Cut="0.0000000000000000e+00" cType="1" res="2.8240198735147715e-03" rms="4.0615686774253845e-01" purity="7.8422087430953979e-01" nType="-99"/>
                    <Node pos="r" depth="7" NCoef="0" IVar="-1" Cut="0.0000000000000000e+00" cType="1" res="3.3119006548076868e-03" rms="4.0154916048049927e-01" purity="7.9236507415771484e-01" nType="-99"/>
                  </Node>
                </Node>
                <Node pos="r" depth="5" NCoef="0" IVar="1" Cut="1.1406602710485458e-01" cType="1" res="3.2045435160398483e-02" rms="3.9930909872055054e-01" purity="7.9600119590759277e-01" nType="0">
                  <Node pos="l" depth="6" NCoef="0" IVar="3" Cut="1.0202575922012329e+00" cType="1" res="3.9195101708173752e-02" rms="3.8626381754875183e-01" purity="8.1444561481475830e-01" nType="0">
                    <Node pos="l" depth="7" NCoef="0" IVar="-1" Cut="0.0000000000000000e+00" cType="1" res="4.6133971773087978e-03" rms="3.8073268532752991e-01" purity="8.2154458761215210e-01" nType="-99"/>
                    <Node pos="r" depth="7" NCoef="0" IVar="-1" Cut="0.0000000000000000e+00" cType="1" res="3.7314866203814745e-03" rms="3.9393481612205505e-01" purity="8.0439215898513794e-01" nType="-99"/>
                  </Node>
                  <Node pos="r" depth="6" NCoef="0" IVar="1" Cut="2.5134855508804321e-01" cType="1" res="1.6746468842029572e-02" rms="4.2547994852066040e-01" purity="7.5653332471847534e-01" nType="0">
                    <Node pos="l" depth="7" NCoef="0" IVar="-1" Cut="0.0000000000000000e+00" cType="1" res="2.8695594519376755e-03" rms="4.0658372640609741e-01" purity="7.8702706098556519e-01" nType="-99"/>
                    <Node pos="r" depth="7" NCoef="0" IVar="-1" Cut="0.0000000000000000e+00" cType="1" res="9.6057931659743190e-04" rms="4.3752023577690125e-01" purity="7.3616242408752441e-01" nType="-99"/>
                  </Node>
                </Node>
              </Node>
              <Node pos="r" depth="4" NCoef="0" IVar="4" Cut="4.7392968088388443e-02" cType="1" res="1.4702764339745045e-02" rms="4.5867207646369934e-01" purity="6.8440723419189453e-01" nType="0">
                <Node pos="l" depth="5" NCoef="0" IVar="3" Cut="8.7969553470611572e-01" cType="1" res="7.6080122962594032e-03" rms="4.5785167813301086e-01" purity="6.8471926450729370e-01" nType="0">
                  <Node pos="l" depth="6" NCoef="0" IVar="4" Cut="3.8605902343988419e-02" cType="1" res="-2.1925137843936682e-03" rms="4.7229132056236267e-01" purity="6.4750564098358154e-01" nType="0">
                    <Node pos="l" depth="7" NCoef="0" IVar="-1" Cut="0.0000000000000000e+00" cType="1" res="-1.2979909079149365e-03" rms="4.7581902146339417e-01" purity="6.3071262836456299e-01" nType="-99"/>
                    <Node pos="r" depth="7" NCoef="0" IVar="-1" Cut="0.0000000000000000e+00" cType="1" res="1.2275686021894217e-03" rms="4.6701100468635559e-01" purity="6.7034929990768433e-01" nType="-99"/>
                  </Node>
                  <Node pos="r" depth="6" NCoef="0" IVar="-1" Cut="0.0000000000000000e+00" cType="1" res="2.4681172799319029e-03" rms="4.3540915846824646e-01" purity="7.3930144309997559e-01" nType="-99"/>
                </Node>
                <Node pos="r" depth="5" NCoef="0" IVar="3" Cut="8.1797224283218384e-01" cType="1" res="2.6432748883962631e-02" rms="4.5978522300720215e-01" purity="6.8389129638671875e-01" nType="0">
                  <Node pos="l" depth="6" NCoef="0" IVar="-1" Cut="0.0000000000000000e+00" cType="1" res="2.7807857841253281e-03" rms="4.6948778629302979e-01" purity="6.6169559955596924e-01" nType="-99"/>
                  <Node pos="r" depth="6" NCoef="0" IVar="-1" Cut="0.0000000000000000e+00" cType="1" res="2.0378790795803070e-03" rms="4.5348006486892700e-01" purity="6.9796609878540039e-01" nType="-99"/>
                </Node>
              </Node>
            </Node>
            <Node pos="r" depth="3" NCoef="0" IVar="-1" Cut="0.0000000000000000e+00" cType="1" res="-1.6612325562164187e-03" rms="4.7282037138938904e-01" purity="5.8804380893707275e-01" nType="-99"/>
          </Node>
          <Node pos="r" depth="2" NCoef="0" IVar="1" Cut="1.5465900897979736e+00" cType="1" res="-1.3787037692964077e-02" rms="4.8640838265419006e-01" purity="5.4334867000579834e-01" nType="0">
            <Node pos="l" depth="3" NCoef="0" IVar="-1" Cut="0.0000000000000000e+00" cType="1" res="-5.1787792472168803e-04" rms="4.8609849810600281e-01" purity="5.5597996711730957e-01" nType="-99"/>
            <Node pos="r" depth="3" NCoef="0" IVar="-1" Cut="0.0000000000000000e+00" cType="1" res="-1.8293389584869146e-03" rms="4.8659089207649231e-01" purity="5.3147828578948975e-01" nType="-99"/>
          </Node>
        </Node>
      </Node>
    </BinaryTree>
    <BinaryTree type="DecisionTree" boostWeight="1.0000000000000000e+00" itree="64">
      <Node pos="s" depth="0" NCoef="0" IVar="0" Cut="3.2188761234283447e-01" cType="1" res="5.9664691798388958e-03" rms="4.1083678603172302e-01" purity="4.9903571605682373e-01" nType="0">
        <Node pos="l" depth="1" NCoef="0" IVar="3" Cut="8.4406012296676636e-01" cType="1" res="1.5636237338185310e-02" rms="4.3979656696319580e-01" purity="6.7411625385284424e-01" nType="0">
          <Node pos="l" depth="2" NCoef="0" IVar="1" Cut="9.7239744663238525e-01" cType="1" res="2.7845387812703848e-03" rms="4.7561049461364746e-01" purity="5.1263576745986938e-01" nType="0">
            <Node pos="l" depth="3" NCoef="0" IVar="1" Cut="1.3768701255321503e-01" cType="1" res="4.5542065054178238e-03" rms="4.7648787498474121e-01" purity="5.2253979444503784e-01" nType="0">
              <Node pos="l" depth="4" NCoef="0" IVar="2" Cut="3.6993139648437500e+02" cType="1" res="9.5295161008834839e-03" rms="4.7580131888389587e-01" purity="5.5213540792465210e-01" nType="0">
                <Node pos="l" depth="5" NCoef="0" IVar="3" Cut="7.3816454410552979e-01" cType="1" res="1.2761939316987991e-02" rms="4.7824454307556152e-01" purity="5.8554273843765259e-01" nType="0">
                  <Node pos="l" depth="6" NCoef="0" IVar="5" Cut="4.0000000000000000e+00" cType="1" res="4.3031121604144573e-03" rms="4.0738368034362793e-01" purity="4.9591857194900513e-01" nType="0">
                    <Node pos="l" depth="7" NCoef="0" IVar="-1" Cut="0.0000000000000000e+00" cType="1" res="-2.2662701667286456e-04" rms="4.8920139670372009e-01" purity="5.2200174331665039e-01" nType="-99"/>
                    <Node pos="r" depth="7" NCoef="0" IVar="-1" Cut="0.0000000000000000e+00" cType="1" res="1.9374701660126448e-03" rms="4.8335322737693787e-01" purity="4.5983824133872986e-01" nType="-99"/>
                  </Node>
                  <Node pos="r" depth="6" NCoef="0" IVar="5" Cut="3.0000000000000000e+00" cType="1" res="1.2872597202658653e-02" rms="4.0742439031600952e-01" purity="6.6299784183502197e-01" nType="0">
                    <Node pos="l" depth="7" NCoef="0" IVar="-1" Cut="0.0000000000000000e+00" cType="1" res="6.9573830114677548e-04" rms="4.7330054640769958e-01" purity="6.5454822778701782e-01" nType="-99"/>
                    <Node pos="r" depth="7" NCoef="0" IVar="-1" Cut="0.0000000000000000e+00" cType="1" res="3.8670033682137728e-03" rms="4.6356561779975891e-01" purity="6.8229442834854126e-01" nType="-99"/>
                  </Node>
                </Node>
                <Node pos="r" depth="5" NCoef="0" IVar="4" Cut="1.4963887631893158e-01" cType="1" res="-9.8619228228926659e-03" rms="4.6039640903472900e-01" purity="3.5172393918037415e-01" nType="0">
                  <Node pos="l" depth="6" NCoef="0" IVar="-1" Cut="0.0000000000000000e+00" cType="1" res="-2.4142300244420767e-03" rms="4.7914335131645203e-01" purity="4.2384853959083557e-01" nType="-99"/>
                  <Node pos="r" depth="6" NCoef="0" IVar="-1" Cut="0.0000000000000000e+00" cType="1" res="4.2296489118598402e-04" rms="4.4143810868263245e-01" purity="2.8320643305778503e-01" nType="-99"/>
                </Node>
              </Node>
              <Node pos="r" depth="4" NCoef="0" IVar="4" Cut="3.9196677505970001e-02" cType="1" res="-4.6684206463396549e-03" rms="4.7762081027030945e-01" purity="4.6767899394035339e-01" nType="0">
                <Node pos="l" depth="5" NCoef="0" IVar="-1" Cut="0.0000000000000000e+00" cType="1" res="-2.3738311138004065e-03" rms="4.8879486322402954e-01" purity="5.1009470224380493e-01" nType="-99"/>
                <Node pos="r" depth="5" NCoef="0" IVar="3" Cut="6.8385577201843262e-01" cType="1" res="1.0944354580715299e-03" rms="4.7444209456443787e-01" purity="4.5641365647315979e-01" nType="0">
                  <Node pos="l" depth="6" NCoef="0" IVar="5" Cut="4.0000000000000000e+00" cType="1" res="-9.7479568794369698e-03" rms="3.9966493844985962e-01" purity="3.2803216576576233e-01" nType="0">
                    <Node pos="l" depth="7" NCoef="0" IVar="-1" Cut="0.0000000000000000e+00" cType="1" res="-3.1807206105440855e-03" rms="4.6666505932807922e-01" purity="3.4522563219070435e-01" nType="-99"/>
                    <Node pos="r" depth="7" NCoef="0" IVar="-1" Cut="0.0000000000000000e+00" cType="1" res="-4.3647534766932949e-05" rms="4.5216462016105652e-01" purity="3.1526613235473633e-01" nType="-99"/>
                  </Node>
                  <Node pos="r" depth="6" NCoef="0" IVar="1" Cut="4.3375715613365173e-01" cType="1" res="1.5268130227923393e-02" rms="4.8886731266975403e-01" purity="5.8105355501174927e-01" nType="0">
                    <Node pos="l" depth="7" NCoef="0" IVar="-1" Cut="0.0000000000000000e+00" cType="1" res="7.7532749855890870e-04" rms="4.8692384362220764e-01" purity="5.9683704376220703e-01" nType="-99"/>
                    <Node pos="r" depth="7" NCoef="0" IVar="-1" Cut="0.0000000000000000e+00" cType="1" res="2.2265377920120955e-03" rms="4.9218004941940308e-01" purity="5.5230200290679932e-01" nType="-99"/>
                  </Node>
                </Node>
              </Node>
            </Node>
            <Node pos="r" depth="3" NCoef="0" IVar="-1" Cut="0.0000000000000000e+00" cType="1" res="-3.0512702651321888e-03" rms="4.5815461874008179e-01" purity="3.3235895633697510e-01" nType="-99"/>
          </Node>
          <Node pos="r" depth="2" NCoef="0" IVar="0" Cut="1.8688590824604034e-01" cType="1" res="2.3155119270086288e-02" rms="4.1723778843879700e-01" purity="7.6859039068222046e-01" nType="0">
            <Node pos="l" depth="3" NCoef="0" IVar="3" Cut="9.9090605974197388e-01" cType="1" res="2.4519024416804314e-02" rms="4.1560605168342590e-01" purity="7.7162760496139526e-01" nType="0">
              <Node pos="l" depth="4" NCoef="0" IVar="1" Cut="3.5242307186126709e-01" cType="1" res="1.8107777461409569e-02" rms="4.3406966328620911e-01" purity="7.3982900381088257e-01" nType="0">
                <Node pos="l" depth="5" NCoef="0" IVar="1" Cut="-1.9538921117782593e-01" cType="1" res="2.2564366459846497e-02" rms="4.2448329925537109e-01" purity="7.6227450370788574e-01" nType="0">
                  <Node pos="l" depth="6" NCoef="0" IVar="-1" Cut="0.0000000000000000e+00" cType="1" res="9.0842921053990722e-05" rms="4.3817761540412903e-01" purity="7.3862516880035400e-01" nType="-99"/>
                  <Node pos="r" depth="6" NCoef="0" IVar="4" Cut="4.3786671012639999e-02" cType="1" res="2.4977300316095352e-02" rms="4.2286136746406555e-01" purity="7.6490950584411621e-01" nType="0">
                    <Node pos="l" depth="7" NCoef="0" IVar="-1" Cut="0.0000000000000000e+00" cType="1" res="2.4940760340541601e-03" rms="4.2182520031929016e-01" purity="7.6648896932601929e-01" nType="-99"/>
                    <Node pos="r" depth="7" NCoef="0" IVar="-1" Cut="0.0000000000000000e+00" cType="1" res="3.5200461279600859e-03" rms="4.2989638447761536e-01" purity="7.5381809473037720e-01" nType="-99"/>
                  </Node>
                </Node>
                <Node pos="r" depth="5" NCoef="0" IVar="2" Cut="3.9628803253173828e+01" cType="1" res="-5.2394764497876167e-03" rms="4.8050475120544434e-01" purity="6.2224143743515015e-01" nType="0">
                  <Node pos="l" depth="6" NCoef="0" IVar="-1" Cut="0.0000000000000000e+00" cType="1" res="-4.0436913259327412e-03" rms="4.8224842548370361e-01" purity="5.9644508361816406e-01" nType="-99"/>
                  <Node pos="r" depth="6" NCoef="0" IVar="-1" Cut="0.0000000000000000e+00" cType="1" res="2.6060438249260187e-03" rms="4.7637650370597839e-01" purity="6.4427071809768677e-01" nType="-99"/>
                </Node>
              </Node>
              <Node pos="r" depth="4" NCoef="0" IVar="1" Cut="5.8087074756622314e-01" cType="1" res="2.8912296518683434e-02" rms="4.0240621566772461e-01" purity="7.9341733455657959e-01" nType="0">
                <Node pos="l" depth="5" NCoef="0" IVar="1" Cut="-2.3615200817584991e-01" cType="1" res="2.9940964654088020e-02" rms="3.9497202634811401e-01" purity="8.0598860979080200e-01" nType="0">
                  <Node pos="l" depth="6" NCoef="0" IVar="-1" Cut="0.0000000000000000e+00" cType="1" res="1.1198753491044044e-03" rms="4.1131734848022461e-01" purity="7.8406262397766113e-01" nType="-99"/>
                  <Node pos="r" depth="6" NCoef="0" IVar="1" Cut="-5.1650512963533401e-02" cType="1" res="3.1647492200136185e-02" rms="3.9341521263122559e-01" purity="8.0797231197357178e-01" nType="0">
                    <Node pos="l" depth="7" NCoef="0" IVar="-1" Cut="0.0000000000000000e+00" cType="1" res="4.0908427909016609e-03" rms="3.8210657238960266e-01" purity="8.2235574722290039e-01" nType="-99"/>
                    <Node pos="r" depth="7" NCoef="0" IVar="-1" Cut="0.0000000000000000e+00" cType="1" res="3.1592359300702810e-03" rms="3.9945137500762939e-01" purity="8.0009591579437256e-01" nType="-99"/>
                  </Node>
                </Node>
                <Node pos="r" depth="5" NCoef="0" IVar="-1" Cut="0.0000000000000000e+00" cType="1" res="1.7027813009917736e-03" rms="4.6264708042144775e-01" purity="6.8270915746688843e-01" nType="-99"/>
              </Node>
            </Node>
            <Node pos="r" depth="3" NCoef="0" IVar="-1" Cut="0.0000000000000000e+00" cType="1" res="-2.6224981993436813e-03" rms="4.6883824467658997e-01" purity="6.6104608774185181e-01" nType="-99"/>
          </Node>
        </Node>
        <Node pos="r" depth="1" NCoef="0" IVar="0" Cut="9.4490480422973633e-01" cType="1" res="-1.1313385330140591e-02" rms="3.5256206989288330e-01" purity="1.8616725504398346e-01" nType="0">
          <Node pos="l" depth="2" NCoef="0" IVar="1" Cut="6.6207087039947510e-01" cType="1" res="-1.1388903949409723e-03" rms="4.3101105093955994e-01" purity="3.0205607414245605e-01" nType="0">
            <Node pos="l" depth="3" NCoef="0" IVar="2" Cut="6.4904457092285156e+01" cType="1" res="3.9057075046002865e-03" rms="4.3889260292053223e-01" purity="3.2055053114891052e-01" nType="0">
              <Node pos="l" depth="4" NCoef="0" IVar="0" Cut="5.4295909404754639e-01" cType="1" res="2.9006734490394592e-02" rms="4.7851565480232239e-01" purity="4.7718968987464905e-01" nType="0">
                <Node pos="l" depth="5" NCoef="0" IVar="4" Cut="2.2728102281689644e-02" cType="1" res="1.1803932487964630e-02" rms="4.8437342047691345e-01" purity="5.2751952409744263e-01" nType="0">
                  <Node pos="l" depth="6" NCoef="0" IVar="-1" Cut="0.0000000000000000e+00" cType="1" res="-7.6060596620664001e-04" rms="4.7855889797210693e-01" purity="5.6197077035903931e-01" nType="-99"/>
                  <Node pos="r" depth="6" NCoef="0" IVar="-1" Cut="0.0000000000000000e+00" cType="1" res="2.8207339346408844e-03" rms="4.8940640687942505e-01" purity="4.9190399050712585e-01" nType="-99"/>
                </Node>
                <Node pos="r" depth="5" NCoef="0" IVar="-1" Cut="0.0000000000000000e+00" cType="1" res="5.6272181682288647e-03" rms="4.6826168894767761e-01" purity="4.0067869424819946e-01" nType="-99"/>
              </Node>
              <Node pos="r" depth="4" NCoef="0" IVar="4" Cut="4.8721678555011749e-02" cType="1" res="-3.5013856831938028e-03" rms="4.2621499300003052e-01" purity="2.7432769536972046e-01" nType="0">
                <Node pos="l" depth="5" NCoef="0" IVar="-1" Cut="0.0000000000000000e+00" cType="1" res="-3.3704647794365883e-03" rms="4.3192654848098755e-01" purity="2.9347345232963562e-01" nType="-99"/>
                <Node pos="r" depth="5" NCoef="0" IVar="2" Cut="3.1614804077148438e+02" cType="1" res="9.8083098419010639e-04" rms="4.2502608895301819e-01" purity="2.7088999748229980e-01" nType="0">
                  <Node pos="l" depth="6" NCoef="0" IVar="1" Cut="-5.0490576773881912e-02" cType="1" res="9.5723690465092659e-03" rms="4.4303071498870850e-01" purity="3.1194221973419189e-01" nType="0">
                    <Node pos="l" depth="7" NCoef="0" IVar="-1" Cut="0.0000000000000000e+00" cType="1" res="3.3094610553234816e-03" rms="4.6065342426300049e-01" purity="3.5982152819633484e-01" nType="-99"/>
                    <Node pos="r" depth="7" NCoef="0" IVar="-1" Cut="0.0000000000000000e+00" cType="1" res="-4.1045139369089156e-05" rms="4.3401435017585754e-01" purity="2.8908032178878784e-01" nType="-99"/>
                  </Node>
                  <Node pos="r" depth="6" NCoef="0" IVar="4" Cut="1.1005534976720810e-01" cType="1" res="-1.4752323739230633e-02" rms="3.8941490650177002e-01" purity="1.9571357965469360e-01" nType="0">
                    <Node pos="l" depth="7" NCoef="0" IVar="-1" Cut="0.0000000000000000e+00" cType="1" res="-4.6137240715324879e-03" rms="3.9981153607368469e-01" purity="2.1898093819618225e-01" nType="-99"/>
                    <Node pos="r" depth="7" NCoef="0" IVar="-1" Cut="0.0000000000000000e+00" cType="1" res="-1.0294946841895580e-03" rms="3.8421717286109924e-01" purity="1.8499867618083954e-01" nType="-99"/>
                  </Node>
                </Node>
              </Node>
            </Node>
            <Node pos="r" depth="3" NCoef="0" IVar="4" Cut="7.6277345418930054e-02" cType="1" res="-3.0760098248720169e-02" rms="3.8011181354522705e-01" purity="1.9345924258232117e-01" nType="0">
              <Node pos="l" depth="4" NCoef="0" IVar="-1" Cut="0.0000000000000000e+00" cType="1" res="-7.3752044700086117e-03" rms="3.8332685828208923e-01" purity="2.0556113123893738e-01" nType="-99"/>
              <Node pos="r" depth="4" NCoef="0" IVar="-1" Cut="0.0000000000000000e+00" cType="1" res="-8.3273160271346569e-04" rms="3.7451797723770142e-01" purity="1.7870430648326874e-01" nType="-99"/>
            </Node>
          </Node>
          <Node pos="r" depth="2" NCoef="0" IVar="3" Cut="5.8795392513275146e-01" cType="1" res="-2.1166965365409851e-02" rms="2.5410825014114380e-01" purity="7.3933668434619904e-02" nType="0">
            <Node pos="l" depth="3" NCoef="0" IVar="5" Cut="5.0000000000000000e+00" cType="1" res="-1.6170574352145195e-02" rms="2.3855824768543243e-01" purity="6.3055299222469330e-02" nType="0">
              <Node pos="l" depth="4" NCoef="0" IVar="3" Cut="2.7775031328201294e-01" cType="1" res="-1.0906478390097618e-02" rms="2.7599787712097168e-01" purity="8.5972413420677185e-02" nType="0">
                <Node pos="l" depth="5" NCoef="0" IVar="-1" Cut="0.0000000000000000e+00" cType="1" res="5.6318934075534344e-03" rms="2.7839714288711548e-01" purity="8.6693316698074341e-02" nType="-99"/>
                <Node pos="r" depth="5" NCoef="0" IVar="2" Cut="9.6311492919921875e+01" cType="1" res="-1.5857134014368057e-02" rms="2.7523908019065857e-01" purity="8.5823148488998413e-02" nType="0">
                  <Node pos="l" depth="6" NCoef="0" IVar="-1" Cut="0.0000000000000000e+00" cType="1" res="-1.2638360494747758e-03" rms="3.0405539274215698e-01" purity="1.0800409317016602e-01" nType="-99"/>
                  <Node pos="r" depth="6" NCoef="0" IVar="4" Cut="1.1133387684822083e-01" cType="1" res="-1.9533865153789520e-02" rms="2.6515585184097290e-01" purity="7.8656479716300964e-02" nType="0">
                    <Node pos="l" depth="7" NCoef="0" IVar="-1" Cut="0.0000000000000000e+00" cType="1" res="-8.8999653235077858e-03" rms="2.3742502927780151e-01" purity="6.1802826821804047e-02" nType="-99"/>
                    <Node pos="r" depth="7" NCoef="0" IVar="-1" Cut="0.0000000000000000e+00" cType="1" res="-2.9952058102935553e-03" rms="3.0364346504211426e-01" purity="1.0528162121772766e-01" nType="-99"/>
                  </Node>
                </Node>
              </Node>
              <Node pos="r" depth="4" NCoef="0" IVar="0" Cut="2.1105961799621582e+00" cType="1" res="-1.9515916705131531e-02" rms="2.1211527287960052e-01" purity="4.8619009554386139e-02" nType="0">
                <Node pos="l" depth="5" NCoef="0" IVar="1" Cut="3.0323940515518188e-01" cType="1" res="-1.1231831274926662e-02" rms="2.4797461926937103e-01" purity="6.7453183233737946e-02" nType="0">
                  <Node pos="l" depth="6" NCoef="0" IVar="2" Cut="3.8691302490234375e+02" cType="1" res="-5.3416546434164047e-03" rms="2.6759350299835205e-01" purity="7.9751268029212952e-02" nType="0">
                    <Node pos="l" depth="7" NCoef="0" IVar="-1" Cut="0.0000000000000000e+00" cType="1" res="2.3265639902092516e-04" rms="2.7095797657966614e-01" purity="8.2237519323825836e-02" nType="-99"/>
                    <Node pos="r" depth="7" NCoef="0" IVar="-1" Cut="0.0000000000000000e+00" cType="1" res="-5.4775495082139969e-03" rms="2.6061326265335083e-01" purity="7.4967145919799805e-02" nType="-99"/>
                  </Node>
                  <Node pos="r" depth="6" NCoef="0" IVar="4" Cut="9.0971395373344421e-02" cType="1" res="-1.7614616081118584e-02" rms="2.2461585700511932e-01" purity="5.4126594215631485e-02" nType="0">
                    <Node pos="l" depth="7" NCoef="0" IVar="-1" Cut="0.0000000000000000e+00" cType="1" res="-1.1711452156305313e-02" rms="1.8928475677967072e-01" purity="3.7389505654573441e-02" nType="-99"/>
                    <Node pos="r" depth="7" NCoef="0" IVar="-1" Cut="0.0000000000000000e+00" cType="1" res="-4.5315832830965519e-03" rms="2.5018307566642761e-01" purity="6.8112395703792572e-02" nType="-99"/>
                  </Node>
                </Node>
                <Node pos="r" depth="5" NCoef="0" IVar="5" Cut="6.0000000000000000e+00" cType="1" res="-2.9036996886134148e-02" rms="1.5515491366386414e-01" purity="2.5421300902962685e-02" nType="0">
                  <Node pos="l" depth="6" NCoef="0" IVar="-1" Cut="0.0000000000000000e+00" cType="1" res="-1.3609818182885647e-02" rms="1.7577490210533142e-01" purity="3.2379571348428726e-02" nType="-99"/>
                  <Node pos="r" depth="6" NCoef="0" IVar="2" Cut="3.7776943969726562e+02" cType="1" res="-3.1671065837144852e-02" rms="1.5031163394451141e-01" purity="2.3389322683215141e-02" nType="0">
                    <Node pos="l" depth="7" NCoef="0" IVar="-1" Cut="0.0000000000000000e+00" cType="1" res="-1.9041266292333603e-02" rms="1.4103257656097412e-01" purity="2.0513931289315224e-02" nType="-99"/>
                    <Node pos="r" depth="7" NCoef="0" IVar="-1" Cut="0.0000000000000000e+00" cType="1" res="-1.7407013103365898e-02" rms="1.7177066206932068e-01" purity="3.0794873833656311e-02" nType="-99"/>
                  </Node>
                </Node>
              </Node>
            </Node>
            <Node pos="r" depth="3" NCoef="0" IVar="-1" Cut="0.0000000000000000e+00" cType="1" res="-1.1320164427161217e-02" rms="4.3059003353118896e-01" purity="2.6011350750923157e-01" nType="-99"/>
          </Node>
        </Node>
      </Node>
    </BinaryTree>
    <BinaryTree type="DecisionTree" boostWeight="1.0000000000000000e+00" itree="65">
      <Node pos="s" depth="0" NCoef="0" IVar="2" Cut="6.9694526672363281e+01" cType="1" res="6.2679345719516277e-03" rms="4.1078794002532959e-01" purity="5.0056689977645874e-01" nType="0">
        <Node pos="l" depth="1" NCoef="0" IVar="1" Cut="9.6846055984497070e-01" cType="1" res="1.9578889012336731e-02" rms="4.2126008868217468e-01" purity="6.9263070821762085e-01" nType="0">
          <Node pos="l" depth="2" NCoef="0" IVar="0" Cut="1.2658056020736694e+00" cType="1" res="2.1765310317277908e-02" rms="4.2060875892639160e-01" purity="7.1133100986480713e-01" nType="0">
            <Node pos="l" depth="3" NCoef="0" IVar="3" Cut="8.6502408981323242e-01" cType="1" res="2.3111585527658463e-02" rms="4.2338183522224426e-01" purity="7.2693496942520142e-01" nType="0">
              <Node pos="l" depth="4" NCoef="0" IVar="4" Cut="2.6494612917304039e-02" cType="1" res="1.4246412552893162e-02" rms="4.6584206819534302e-01" purity="5.4310333728790283e-01" nType="0">
                <Node pos="l" depth="5" NCoef="0" IVar="2" Cut="3.3945991516113281e+01" cType="1" res="-7.7763195149600506e-03" rms="4.6698802709579468e-01" purity="5.2293568849563599e-01" nType="0">
                  <Node pos="l" depth="6" NCoef="0" IVar="4" Cut="1.3803340494632721e-02" cType="1" res="5.7202796451747417e-03" rms="4.6865165233612061e-01" purity="5.4774463176727295e-01" nType="0">
                    <Node pos="l" depth="7" NCoef="0" IVar="-1" Cut="0.0000000000000000e+00" cType="1" res="-1.6155912308022380e-03" rms="4.6940374374389648e-01" purity="5.2450317144393921e-01" nType="-99"/>
                    <Node pos="r" depth="7" NCoef="0" IVar="-1" Cut="0.0000000000000000e+00" cType="1" res="2.3256412241607904e-03" rms="4.6708723902702332e-01" purity="5.6833755970001221e-01" nType="-99"/>
                  </Node>
                  <Node pos="r" depth="6" NCoef="0" IVar="-1" Cut="0.0000000000000000e+00" cType="1" res="-3.2128267921507359e-03" rms="4.6310594677925110e-01" purity="4.7941473126411438e-01" nType="-99"/>
                </Node>
                <Node pos="r" depth="5" NCoef="0" IVar="1" Cut="2.2740259766578674e-01" cType="1" res="2.7302607893943787e-02" rms="4.6466878056526184e-01" purity="5.5505967140197754e-01" nType="0">
                  <Node pos="l" depth="6" NCoef="0" IVar="0" Cut="2.0393072068691254e-01" cType="1" res="3.3538009971380234e-02" rms="4.6685540676116943e-01" purity="5.9786874055862427e-01" nType="0">
                    <Node pos="l" depth="7" NCoef="0" IVar="-1" Cut="0.0000000000000000e+00" cType="1" res="2.0244594197720289e-03" rms="4.5959141850471497e-01" purity="6.8201470375061035e-01" nType="-99"/>
                    <Node pos="r" depth="7" NCoef="0" IVar="-1" Cut="0.0000000000000000e+00" cType="1" res="4.2146700434386730e-03" rms="4.7590035200119019e-01" purity="4.8827353119850159e-01" nType="-99"/>
                  </Node>
                  <Node pos="r" depth="6" NCoef="0" IVar="-1" Cut="0.0000000000000000e+00" cType="1" res="8.5840979591012001e-04" rms="4.5762702822685242e-01" purity="4.2816644906997681e-01" nType="-99"/>
                </Node>
              </Node>
              <Node pos="r" depth="4" NCoef="0" IVar="3" Cut="9.9733340740203857e-01" cType="1" res="2.5723086670041084e-02" rms="4.0999981760978699e-01" purity="7.8108805418014526e-01" nType="0">
                <Node pos="l" depth="5" NCoef="0" IVar="1" Cut="8.9909084141254425e-02" cType="1" res="2.0937219262123108e-02" rms="4.2029890418052673e-01" purity="7.6507312059402466e-01" nType="0">
                  <Node pos="l" depth="6" NCoef="0" IVar="4" Cut="2.0527051761746407e-02" cType="1" res="2.7113467454910278e-02" rms="4.0872114896774292e-01" purity="7.8565949201583862e-01" nType="0">
                    <Node pos="l" depth="7" NCoef="0" IVar="-1" Cut="0.0000000000000000e+00" cType="1" res="2.7340415399521589e-03" rms="4.0827324986457825e-01" purity="7.8608828783035278e-01" nType="-99"/>
                    <Node pos="r" depth="7" NCoef="0" IVar="-1" Cut="0.0000000000000000e+00" cType="1" res="4.4603855349123478e-03" rms="4.1157373785972595e-01" purity="7.8263175487518311e-01" nType="-99"/>
                  </Node>
                  <Node pos="r" depth="6" NCoef="0" IVar="1" Cut="4.0157130360603333e-01" cType="1" res="9.1578103601932526e-03" rms="4.4129973649978638e-01" purity="7.2581076622009277e-01" nType="0">
                    <Node pos="l" depth="7" NCoef="0" IVar="-1" Cut="0.0000000000000000e+00" cType="1" res="1.6253822250291705e-03" rms="4.3029880523681641e-01" purity="7.5017642974853516e-01" nType="-99"/>
                    <Node pos="r" depth="7" NCoef="0" IVar="-1" Cut="0.0000000000000000e+00" cType="1" res="-6.6515192156657577e-04" rms="4.6712389588356018e-01" purity="6.6525572538375854e-01" nType="-99"/>
                  </Node>
                </Node>
                <Node pos="r" depth="5" NCoef="0" IVar="3" Cut="1.0328997373580933e+00" cType="1" res="2.9968861490488052e-02" rms="4.0059357881546021e-01" purity="7.9529565572738647e-01" nType="0">
                  <Node pos="l" depth="6" NCoef="0" IVar="3" Cut="1.0007752180099487e+00" cType="1" res="3.1125437468290329e-02" rms="3.9907729625701904e-01" purity="7.9756778478622437e-01" nType="0">
                    <Node pos="l" depth="7" NCoef="0" IVar="-1" Cut="0.0000000000000000e+00" cType="1" res="2.8962024953216314e-03" rms="4.0477815270423889e-01" purity="7.8858387470245361e-01" nType="-99"/>
                    <Node pos="r" depth="7" NCoef="0" IVar="-1" Cut="0.0000000000000000e+00" cType="1" res="3.5485737025737762e-03" rms="3.9576241374015808e-01" purity="8.0270767211914062e-01" nType="-99"/>
                  </Node>
                  <Node pos="r" depth="6" NCoef="0" IVar="-1" Cut="0.0000000000000000e+00" cType="1" res="2.2579228971153498e-03" rms="4.1084337234497070e-01" purity="7.7957284450531006e-01" nType="-99"/>
                </Node>
              </Node>
            </Node>
            <Node pos="r" depth="3" NCoef="0" IVar="-1" Cut="0.0000000000000000e+00" cType="1" res="-8.5042519494891167e-03" rms="2.8688356280326843e-01" purity="9.9605612456798553e-02" nType="-99"/>
          </Node>
          <Node pos="r" depth="2" NCoef="0" IVar="3" Cut="9.6773898601531982e-01" cType="1" res="-1.4672907069325447e-02" rms="4.2988610267639160e-01" purity="3.9967834949493408e-01" nType="0">
            <Node pos="l" depth="3" NCoef="0" IVar="-1" Cut="0.0000000000000000e+00" cType="1" res="-5.7861506938934326e-03" rms="3.7428894639015198e-01" purity="2.0471613109111786e-01" nType="-99"/>
            <Node pos="r" depth="3" NCoef="0" IVar="-1" Cut="0.0000000000000000e+00" cType="1" res="6.9399521453306079e-04" rms="4.8189824819564819e-01" purity="6.1088293790817261e-01" nType="-99"/>
          </Node>
        </Node>
        <Node pos="r" depth="1" NCoef="0" IVar="0" Cut="6.4506030082702637e-01" cType="1" res="-5.8922129683196545e-03" rms="4.0059581398963928e-01" purity="3.2510805130004883e-01" nType="0">
          <Node pos="l" depth="2" NCoef="0" IVar="0" Cut="2.0804110914468765e-02" cType="1" res="1.6272064531221986e-03" rms="4.6237581968307495e-01" purity="4.7644457221031189e-01" nType="0">
            <Node pos="l" depth="3" NCoef="0" IVar="3" Cut="6.5043240785598755e-01" cType="1" res="8.2679446786642075e-03" rms="4.6804353594779968e-01" purity="5.6573379039764404e-01" nType="0">
              <Node pos="l" depth="4" NCoef="0" IVar="5" Cut="4.0000000000000000e+00" cType="1" res="5.1745923701673746e-04" rms="6.1712130904197693e-02" purity="3.4874379634857178e-01" nType="0">
                <Node pos="l" depth="5" NCoef="0" IVar="2" Cut="3.4955978393554688e+02" cType="1" res="-1.4369590207934380e-02" rms="4.6994024515151978e-01" purity="3.5221627354621887e-01" nType="0">
                  <Node pos="l" depth="6" NCoef="0" IVar="-1" Cut="0.0000000000000000e+00" cType="1" res="-3.1858829315751791e-03" rms="4.7171562910079956e-01" purity="3.6635276675224304e-01" nType="-99"/>
                  <Node pos="r" depth="6" NCoef="0" IVar="-1" Cut="0.0000000000000000e+00" cType="1" res="6.8536691833287477e-04" rms="4.6709561347961426e-01" purity="3.3649232983589172e-01" nType="-99"/>
                </Node>
                <Node pos="r" depth="5" NCoef="0" IVar="3" Cut="4.4589880108833313e-01" cType="1" res="5.6167514994740486e-03" rms="4.5991837978363037e-01" purity="3.4592908620834351e-01" nType="0">
                  <Node pos="l" depth="6" NCoef="0" IVar="-1" Cut="0.0000000000000000e+00" cType="1" res="-2.9577510431408882e-03" rms="4.1183486580848694e-01" purity="2.2241722047328949e-01" nType="-99"/>
                  <Node pos="r" depth="6" NCoef="0" IVar="-1" Cut="0.0000000000000000e+00" cType="1" res="2.0394111052155495e-03" rms="4.8460099101066589e-01" purity="4.1653227806091309e-01" nType="-99"/>
                </Node>
              </Node>
              <Node pos="r" depth="4" NCoef="0" IVar="3" Cut="7.3634660243988037e-01" cType="1" res="1.2696095742285252e-02" rms="4.6929928660392761e-01" purity="6.4857465028762817e-01" nType="0">
                <Node pos="l" depth="5" NCoef="0" IVar="3" Cut="7.0862817764282227e-01" cType="1" res="1.6363923205062747e-03" rms="4.9368810653686523e-01" purity="5.4322803020477295e-01" nType="0">
                  <Node pos="l" depth="6" NCoef="0" IVar="-1" Cut="0.0000000000000000e+00" cType="1" res="5.7133915834128857e-04" rms="4.9475595355033875e-01" purity="5.3488147258758545e-01" nType="-99"/>
                  <Node pos="r" depth="6" NCoef="0" IVar="-1" Cut="0.0000000000000000e+00" cType="1" res="-6.7165883956477046e-04" rms="4.9160477519035339e-01" purity="5.5840444564819336e-01" nType="-99"/>
                </Node>
                <Node pos="r" depth="5" NCoef="0" IVar="5" Cut="3.0000000000000000e+00" cType="1" res="-1.8600889234221540e-05" rms="3.6332732997834682e-03" purity="6.7870289087295532e-01" nType="0">
                  <Node pos="l" depth="6" NCoef="0" IVar="3" Cut="8.9712202548980713e-01" cType="1" res="1.3137005269527435e-02" rms="4.5943066477775574e-01" purity="6.8524587154388428e-01" nType="0">
                    <Node pos="l" depth="7" NCoef="0" IVar="-1" Cut="0.0000000000000000e+00" cType="1" res="9.8205229733139277e-04" rms="4.6380388736724854e-01" purity="6.7494106292724609e-01" nType="-99"/>
                    <Node pos="r" depth="7" NCoef="0" IVar="-1" Cut="0.0000000000000000e+00" cType="1" res="3.2774072606116533e-03" rms="4.3057128787040710e-01" purity="7.5008457899093628e-01" nType="-99"/>
                  </Node>
                  <Node pos="r" depth="6" NCoef="0" IVar="-1" Cut="0.0000000000000000e+00" cType="1" res="2.6508618611842394e-03" rms="4.7293528914451599e-01" purity="6.5050733089447021e-01" nType="-99"/>
                </Node>
              </Node>
            </Node>
            <Node pos="r" depth="3" NCoef="0" IVar="4" Cut="6.1426479369401932e-02" cType="1" res="-7.5027830898761749e-03" rms="4.5430979132652283e-01" purity="3.5368579626083374e-01" nType="0">
              <Node pos="l" depth="4" NCoef="0" IVar="4" Cut="3.2945554703474045e-02" cType="1" res="-1.9496735185384750e-02" rms="4.7125774621963501e-01" purity="4.2223343253135681e-01" nType="0">
                <Node pos="l" depth="5" NCoef="0" IVar="-1" Cut="0.0000000000000000e+00" cType="1" res="-4.3534077703952789e-03" rms="4.6729704737663269e-01" purity="4.0760472416877747e-01" nType="-99"/>
                <Node pos="r" depth="5" NCoef="0" IVar="2" Cut="1.9183468627929688e+02" cType="1" res="-1.3270941562950611e-02" rms="4.7214812040328979e-01" purity="4.2624747753143311e-01" nType="0">
                  <Node pos="l" depth="6" NCoef="0" IVar="3" Cut="6.9069761037826538e-01" cType="1" res="-2.4329612497240305e-03" rms="4.7501912713050842e-01" purity="4.4352859258651733e-01" nType="0">
                    <Node pos="l" depth="7" NCoef="0" IVar="-1" Cut="0.0000000000000000e+00" cType="1" res="-2.0197930280119181e-03" rms="4.5279064774513245e-01" purity="3.0904108285903931e-01" nType="-99"/>
                    <Node pos="r" depth="7" NCoef="0" IVar="-1" Cut="0.0000000000000000e+00" cType="1" res="7.9953734530135989e-04" rms="4.9010276794433594e-01" purity="5.4035007953643799e-01" nType="-99"/>
                  </Node>
                  <Node pos="r" depth="6" NCoef="0" IVar="-1" Cut="0.0000000000000000e+00" cType="1" res="-4.2523508891463280e-03" rms="4.6378514170646667e-01" purity="3.8303893804550171e-01" nType="-99"/>
                </Node>
              </Node>
              <Node pos="r" depth="4" NCoef="0" IVar="2" Cut="3.3949584960937500e+02" cType="1" res="-8.4903760580345988e-04" rms="4.4448971748352051e-01" purity="3.1565839052200317e-01" nType="0">
                <Node pos="l" depth="5" NCoef="0" IVar="3" Cut="5.2234220504760742e-01" cType="1" res="8.6658289656043053e-03" rms="4.6116170287132263e-01" purity="3.6191022396087646e-01" nType="0">
                  <Node pos="l" depth="6" NCoef="0" IVar="-1" Cut="0.0000000000000000e+00" cType="1" res="-1.8051833612844348e-03" rms="4.0156537294387817e-01" purity="2.1010148525238037e-01" nType="-99"/>
                  <Node pos="r" depth="6" NCoef="0" IVar="3" Cut="6.6080611944198608e-01" cType="1" res="1.7130635678768158e-02" rms="4.8314219713211060e-01" purity="4.2392459511756897e-01" nType="0">
                    <Node pos="l" depth="7" NCoef="0" IVar="-1" Cut="0.0000000000000000e+00" cType="1" res="9.8605174571275711e-04" rms="4.7584399580955505e-01" purity="3.6597710847854614e-01" nType="-99"/>
                    <Node pos="r" depth="7" NCoef="0" IVar="-1" Cut="0.0000000000000000e+00" cType="1" res="2.4982602335512638e-03" rms="4.9308568239212036e-01" purity="5.0589627027511597e-01" nType="-99"/>
                  </Node>
                </Node>
                <Node pos="r" depth="5" NCoef="0" IVar="0" Cut="4.6011441946029663e-01" cType="1" res="-1.7780758440494537e-02" rms="4.1261920332908630e-01" purity="2.3335322737693787e-01" nType="0">
                  <Node pos="l" depth="6" NCoef="0" IVar="-1" Cut="0.0000000000000000e+00" cType="1" res="-1.6308935591951013e-03" rms="4.2611959576606750e-01" purity="2.5900390744209290e-01" nType="-99"/>
                  <Node pos="r" depth="6" NCoef="0" IVar="-1" Cut="0.0000000000000000e+00" cType="1" res="-4.2083621956408024e-03" rms="3.8742813467979431e-01" purity="1.8800979852676392e-01" nType="-99"/>
                </Node>
              </Node>
            </Node>
          </Node>
          <Node pos="r" depth="2" NCoef="0" IVar="3" Cut="5.8458846807479858e-01" cType="1" res="-1.7518656328320503e-02" rms="2.7896282076835632e-01" purity="9.1113097965717316e-02" nType="0">
            <Node pos="l" depth="3" NCoef="0" IVar="4" Cut="9.9579475820064545e-02" cType="1" res="-1.3945137150585651e-02" rms="2.6567283272743225e-01" purity="8.0826133489608765e-02" nType="0">
              <Node pos="l" depth="4" NCoef="0" IVar="2" Cut="2.8681732177734375e+02" cType="1" res="-2.0490173250436783e-02" rms="2.4138882756233215e-01" purity="6.5942548215389252e-02" nType="0">
                <Node pos="l" depth="5" NCoef="0" IVar="3" Cut="4.5545831322669983e-01" cType="1" res="-1.8304303288459778e-02" rms="2.4612490832805634e-01" purity="6.9006249308586121e-02" nType="0">
                  <Node pos="l" depth="6" NCoef="0" IVar="2" Cut="2.1674169921875000e+02" cType="1" res="-2.1482452750205994e-02" rms="1.9752302765846252e-01" purity="4.1496634483337402e-02" nType="0">
                    <Node pos="l" depth="7" NCoef="0" IVar="-1" Cut="0.0000000000000000e+00" cType="1" res="-1.1639120988547802e-02" rms="1.9385077059268951e-01" purity="3.9892401546239853e-02" nType="-99"/>
                    <Node pos="r" depth="7" NCoef="0" IVar="-1" Cut="0.0000000000000000e+00" cType="1" res="-5.7878005318343639e-03" rms="2.1104760468006134e-01" purity="4.7803167253732681e-02" nType="-99"/>
                  </Node>
                  <Node pos="r" depth="6" NCoef="0" IVar="-1" Cut="0.0000000000000000e+00" cType="1" res="-1.8538009608164430e-03" rms="3.4858205914497375e-01" purity="1.4688488841056824e-01" nType="-99"/>
                </Node>
                <Node pos="r" depth="5" NCoef="0" IVar="-1" Cut="0.0000000000000000e+00" cType="1" res="-1.0479340329766273e-02" rms="2.1982717514038086e-01" purity="5.2889112383127213e-02" nType="-99"/>
              </Node>
              <Node pos="r" depth="4" NCoef="0" IVar="5" Cut="7.0000000000000000e+00" cType="1" res="-8.5557308048009872e-03" rms="2.8407725691795349e-01" purity="9.3940012156963348e-02" nType="0">
                <Node pos="l" depth="5" NCoef="0" IVar="4" Cut="1.6554984450340271e-01" cType="1" res="-3.4204144030809402e-03" rms="3.0255982279777527e-01" purity="1.0725866258144379e-01" nType="0">
                  <Node pos="l" depth="6" NCoef="0" IVar="2" Cut="1.5666313171386719e+02" cType="1" res="-7.9028429463505745e-03" rms="2.9248195886611938e-01" purity="1.0049466788768768e-01" nType="0">
                    <Node pos="l" depth="7" NCoef="0" IVar="-1" Cut="0.0000000000000000e+00" cType="1" res="3.7897680886089802e-03" rms="3.4162011742591858e-01" purity="1.4465512335300446e-01" nType="-99"/>
                    <Node pos="r" depth="7" NCoef="0" IVar="-1" Cut="0.0000000000000000e+00" cType="1" res="-4.1678124107420444e-03" rms="2.7864328026771545e-01" purity="8.9527256786823273e-02" nType="-99"/>
                  </Node>
                  <Node pos="r" depth="6" NCoef="0" IVar="-1" Cut="0.0000000000000000e+00" cType="1" res="2.2887161467224360e-03" rms="3.2727107405662537e-01" purity="1.2502984702587128e-01" nType="-99"/>
                </Node>
                <Node pos="r" depth="5" NCoef="0" IVar="3" Cut="1.7933514714241028e-01" cType="1" res="-1.9011372700333595e-02" rms="2.4084973335266113e-01" purity="6.3615478575229645e-02" nType="0">
                  <Node pos="l" depth="6" NCoef="0" IVar="-1" Cut="0.0000000000000000e+00" cType="1" res="-1.1242666281759739e-02" rms="2.2892019152641296e-01" purity="5.7337336242198944e-02" nType="-99"/>
                  <Node pos="r" depth="6" NCoef="0" IVar="-1" Cut="0.0000000000000000e+00" cType="1" res="-5.1342523656785488e-03" rms="2.4672168493270874e-01" purity="6.6920727491378784e-02" nType="-99"/>
                </Node>
              </Node>
            </Node>
            <Node pos="r" depth="3" NCoef="0" IVar="-1" Cut="0.0000000000000000e+00" cType="1" res="-8.4636826068162918e-03" rms="4.3091884255409241e-01" purity="2.4897147715091705e-01" nType="-99"/>
          </Node>
        </Node>
      </Node>
    </BinaryTree>
    <BinaryTree type="DecisionTree" boostWeight="1.0000000000000000e+00" itree="66">
      <Node pos="s" depth="0" NCoef="0" IVar="3" Cut="7.7510434389114380e-01" cType="1" res="5.3688217885792255e-03" rms="4.1066455841064453e-01" purity="4.9959972500801086e-01" nType="0">
        <Node pos="l" depth="1" NCoef="0" IVar="0" Cut="1.6094523668289185e+00" cType="1" res="-7.7879200689494610e-03" rms="3.8881957530975342e-01" purity="2.5439256429672241e-01" nType="0">
          <Node pos="l" depth="2" NCoef="0" IVar="1" Cut="7.0244264602661133e-01" cType="1" res="-4.6490109525620937e-03" rms="4.2301806807518005e-01" purity="3.0744585394859314e-01" nType="0">
            <Node pos="l" depth="3" NCoef="0" IVar="2" Cut="6.8823211669921875e+01" cType="1" res="-2.0360825583338737e-03" rms="4.3173494935035706e-01" purity="3.2796320319175720e-01" nType="0">
              <Node pos="l" depth="4" NCoef="0" IVar="4" Cut="1.9926484674215317e-02" cType="1" res="1.1331155896186829e-02" rms="4.6461069583892822e-01" purity="4.3145948648452759e-01" nType="0">
                <Node pos="l" depth="5" NCoef="0" IVar="-1" Cut="0.0000000000000000e+00" cType="1" res="-2.1431469358503819e-03" rms="4.5083418488502502e-01" purity="3.7977600097656250e-01" nType="-99"/>
                <Node pos="r" depth="5" NCoef="0" IVar="2" Cut="4.2818691253662109e+01" cType="1" res="2.0706545561552048e-02" rms="4.6822360157966614e-01" purity="4.4684150815010071e-01" nType="0">
                  <Node pos="l" depth="6" NCoef="0" IVar="-1" Cut="0.0000000000000000e+00" cType="1" res="3.5868464037775993e-03" rms="4.7304323315620422e-01" purity="4.7597932815551758e-01" nType="-99"/>
                  <Node pos="r" depth="6" NCoef="0" IVar="4" Cut="5.6490041315555573e-02" cType="1" res="9.7594289109110832e-03" rms="4.6492901444435120e-01" purity="4.2913135886192322e-01" nType="0">
                    <Node pos="l" depth="7" NCoef="0" IVar="-1" Cut="0.0000000000000000e+00" cType="1" res="-2.3626213078387082e-04" rms="4.5918408036231995e-01" purity="4.0564686059951782e-01" nType="-99"/>
                    <Node pos="r" depth="7" NCoef="0" IVar="-1" Cut="0.0000000000000000e+00" cType="1" res="2.5414836127310991e-03" rms="4.7290259599685669e-01" purity="4.6462643146514893e-01" nType="-99"/>
                  </Node>
                </Node>
              </Node>
              <Node pos="r" depth="4" NCoef="0" IVar="4" Cut="4.9803812056779861e-02" cType="1" res="-4.5892437919974327e-03" rms="4.2511880397796631e-01" purity="3.0819526314735413e-01" nType="0">
                <Node pos="l" depth="5" NCoef="0" IVar="4" Cut="4.0190558880567551e-02" cType="1" res="-2.6695018634200096e-02" rms="4.2993789911270142e-01" purity="3.1742766499519348e-01" nType="0">
                  <Node pos="l" depth="6" NCoef="0" IVar="-1" Cut="0.0000000000000000e+00" cType="1" res="-4.3985624797642231e-03" rms="4.2449268698692322e-01" purity="3.0599346756935120e-01" nType="-99"/>
                  <Node pos="r" depth="6" NCoef="0" IVar="-1" Cut="0.0000000000000000e+00" cType="1" res="-1.7153464723378420e-03" rms="4.3651098012924194e-01" purity="3.3210784196853638e-01" nType="-99"/>
                </Node>
                <Node pos="r" depth="5" NCoef="0" IVar="3" Cut="6.0399246215820312e-01" cType="1" res="-1.4139856211841106e-03" rms="4.2432752251625061e-01" purity="3.0686914920806885e-01" nType="0">
                  <Node pos="l" depth="6" NCoef="0" IVar="3" Cut="2.0658160746097565e-01" cType="1" res="-6.7554600536823273e-03" rms="3.8519266247749329e-01" purity="2.0231311023235321e-01" nType="0">
                    <Node pos="l" depth="7" NCoef="0" IVar="-1" Cut="0.0000000000000000e+00" cType="1" res="4.1947336867451668e-03" rms="3.9466631412506104e-01" purity="2.1243858337402344e-01" nType="-99"/>
                    <Node pos="r" depth="7" NCoef="0" IVar="-1" Cut="0.0000000000000000e+00" cType="1" res="-1.4031961327418685e-03" rms="3.8447585701942444e-01" purity="2.0164926350116730e-01" nType="-99"/>
                  </Node>
                  <Node pos="r" depth="6" NCoef="0" IVar="4" Cut="1.0588146746158600e-01" cType="1" res="8.7429741397500038e-03" rms="4.9003845453262329e-01" purity="5.0568526983261108e-01" nType="0">
                    <Node pos="l" depth="7" NCoef="0" IVar="-1" Cut="0.0000000000000000e+00" cType="1" res="3.3088380587287247e-04" rms="4.8902031779289246e-01" purity="5.0275063514709473e-01" nType="-99"/>
                    <Node pos="r" depth="7" NCoef="0" IVar="-1" Cut="0.0000000000000000e+00" cType="1" res="2.4204866494983435e-03" rms="4.9343785643577576e-01" purity="5.1693689823150635e-01" nType="-99"/>
                  </Node>
                </Node>
              </Node>
            </Node>
            <Node pos="r" depth="3" NCoef="0" IVar="1" Cut="1.6012201309204102e+00" cType="1" res="-2.1331094205379486e-02" rms="3.6201277375221252e-01" purity="1.7645415663719177e-01" nType="0">
              <Node pos="l" depth="4" NCoef="0" IVar="4" Cut="8.9393801987171173e-02" cType="1" res="-1.2749782763421535e-02" rms="3.6556777358055115e-01" purity="1.8307583034038544e-01" nType="0">
                <Node pos="l" depth="5" NCoef="0" IVar="0" Cut="6.7457741498947144e-01" cType="1" res="-2.0679797977209091e-02" rms="3.6404880881309509e-01" purity="1.8371987342834473e-01" nType="0">
                  <Node pos="l" depth="6" NCoef="0" IVar="-1" Cut="0.0000000000000000e+00" cType="1" res="-3.4826251212507486e-03" rms="4.2863413691520691e-01" purity="2.7351224422454834e-01" nType="-99"/>
                  <Node pos="r" depth="6" NCoef="0" IVar="-1" Cut="0.0000000000000000e+00" cType="1" res="-3.4297003876417875e-03" rms="2.8278920054435730e-01" purity="9.1819360852241516e-02" nType="-99"/>
                </Node>
                <Node pos="r" depth="5" NCoef="0" IVar="-1" Cut="0.0000000000000000e+00" cType="1" res="-5.3748133359476924e-04" rms="3.6718821525573730e-01" purity="1.8228599429130554e-01" nType="-99"/>
              </Node>
              <Node pos="r" depth="4" NCoef="0" IVar="-1" Cut="0.0000000000000000e+00" cType="1" res="-9.7000738605856895e-03" rms="3.4508383274078369e-01" purity="1.4965911209583282e-01" nType="-99"/>
            </Node>
          </Node>
          <Node pos="r" depth="2" NCoef="0" IVar="1" Cut="1.7435727119445801e+00" cType="1" res="-2.0241605117917061e-02" rms="2.0207349956035614e-01" purity="4.3902598321437836e-02" nType="0">
            <Node pos="l" depth="3" NCoef="0" IVar="4" Cut="1.6540724039077759e-01" cType="1" res="-2.3181425407528877e-02" rms="1.9499582052230835e-01" purity="4.0825705975294113e-02" nType="0">
              <Node pos="l" depth="4" NCoef="0" IVar="4" Cut="6.9907359778881073e-02" cType="1" res="-2.4845542386174202e-02" rms="1.7642900347709656e-01" purity="3.3191002905368805e-02" nType="0">
                <Node pos="l" depth="5" NCoef="0" IVar="2" Cut="7.8914001464843750e+01" cType="1" res="-2.7587156742811203e-02" rms="1.6723631322383881e-01" purity="3.0244115740060806e-02" nType="0">
                  <Node pos="l" depth="6" NCoef="0" IVar="-1" Cut="0.0000000000000000e+00" cType="1" res="-1.0792133398354053e-02" rms="1.9995246827602386e-01" purity="4.6206209808588028e-02" nType="-99"/>
                  <Node pos="r" depth="6" NCoef="0" IVar="-1" Cut="0.0000000000000000e+00" cType="1" res="-1.8554307520389557e-02" rms="1.4318527281284332e-01" purity="2.0353021100163460e-02" nType="-99"/>
                </Node>
                <Node pos="r" depth="5" NCoef="0" IVar="4" Cut="1.2226840108633041e-01" cType="1" res="-2.3214895278215408e-02" rms="1.8165650963783264e-01" purity="3.4943740814924240e-02" nType="0">
                  <Node pos="l" depth="6" NCoef="0" IVar="4" Cut="9.8618343472480774e-02" cType="1" res="-2.1191030740737915e-02" rms="1.7678791284561157e-01" purity="3.3033110201358795e-02" nType="0">
                    <Node pos="l" depth="7" NCoef="0" IVar="-1" Cut="0.0000000000000000e+00" cType="1" res="-1.4370302669703960e-02" rms="1.6503641009330750e-01" purity="2.8756823390722275e-02" nType="-99"/>
                    <Node pos="r" depth="7" NCoef="0" IVar="-1" Cut="0.0000000000000000e+00" cType="1" res="-9.7594596445560455e-03" rms="1.9240514934062958e-01" purity="3.9198722690343857e-02" nType="-99"/>
                  </Node>
                  <Node pos="r" depth="6" NCoef="0" IVar="-1" Cut="0.0000000000000000e+00" cType="1" res="-1.3567955233156681e-02" rms="1.9027648866176605e-01" purity="3.8477517664432526e-02" nType="-99"/>
                </Node>
              </Node>
              <Node pos="r" depth="4" NCoef="0" IVar="-1" Cut="0.0000000000000000e+00" cType="1" res="-5.6633013300597668e-03" rms="2.6304253935813904e-01" purity="7.5408361852169037e-02" nType="-99"/>
            </Node>
            <Node pos="r" depth="3" NCoef="0" IVar="-1" Cut="0.0000000000000000e+00" cType="1" res="7.4381090234965086e-04" rms="2.4723534286022186e-01" purity="6.6708877682685852e-02" nType="-99"/>
          </Node>
        </Node>
        <Node pos="r" depth="1" NCoef="0" IVar="0" Cut="5.6920993328094482e-01" cType="1" res="1.8048783764243126e-02" rms="4.3029013276100159e-01" purity="7.3592090606689453e-01" nType="0">
          <Node pos="l" depth="2" NCoef="0" IVar="0" Cut="1.8356053158640862e-02" cType="1" res="1.9329437986016273e-02" rms="4.2889457941055298e-01" purity="7.4436354637145996e-01" nType="0">
            <Node pos="l" depth="3" NCoef="0" IVar="3" Cut="9.6977901458740234e-01" cType="1" res="2.1552134305238724e-02" rms="4.2372736334800720e-01" purity="7.5676596164703369e-01" nType="0">
              <Node pos="l" depth="4" NCoef="0" IVar="5" Cut="3.0000000000000000e+00" cType="1" res="1.6454769298434258e-02" rms="4.5141664147377014e-01" purity="7.0509707927703857e-01" nType="0">
                <Node pos="l" depth="5" NCoef="0" IVar="2" Cut="3.5343353271484375e+01" cType="1" res="1.4286925084888935e-02" rms="4.5043438673019409e-01" purity="7.0689940452575684e-01" nType="0">
                  <Node pos="l" depth="6" NCoef="0" IVar="1" Cut="1.5308803319931030e-01" cType="1" res="0.0000000000000000e+00" rms="0.0000000000000000e+00" purity="7.1467530727386475e-01" nType="0">
                    <Node pos="l" depth="7" NCoef="0" IVar="-1" Cut="0.0000000000000000e+00" cType="1" res="1.4875764027237892e-03" rms="4.3321982026100159e-01" purity="7.4720227718353271e-01" nType="-99"/>
                    <Node pos="r" depth="7" NCoef="0" IVar="-1" Cut="0.0000000000000000e+00" cType="1" res="-1.7566452734172344e-03" rms="4.7652709484100342e-01" purity="6.2399715185165405e-01" nType="-99"/>
                  </Node>
                  <Node pos="r" depth="6" NCoef="0" IVar="3" Cut="8.5016608238220215e-01" cType="1" res="1.8184607848525047e-02" rms="4.5272707939147949e-01" purity="7.0329594612121582e-01" nType="0">
                    <Node pos="l" depth="7" NCoef="0" IVar="-1" Cut="0.0000000000000000e+00" cType="1" res="6.0577737167477608e-04" rms="4.7207850217819214e-01" purity="6.5660125017166138e-01" nType="-99"/>
                    <Node pos="r" depth="7" NCoef="0" IVar="-1" Cut="0.0000000000000000e+00" cType="1" res="2.6004409883171320e-03" rms="4.3989294767379761e-01" purity="7.3286074399948120e-01" nType="-99"/>
                  </Node>
                </Node>
                <Node pos="r" depth="5" NCoef="0" IVar="-1" Cut="0.0000000000000000e+00" cType="1" res="3.9971536025404930e-03" rms="4.6177715063095093e-01" purity="6.8521678447723389e-01" nType="-99"/>
              </Node>
              <Node pos="r" depth="4" NCoef="0" IVar="1" Cut="-2.0178374648094177e-01" cType="1" res="2.4845235049724579e-02" rms="4.0492615103721619e-01" purity="7.8989344835281372e-01" nType="0">
                <Node pos="l" depth="5" NCoef="0" IVar="1" Cut="-2.7063444256782532e-01" cType="1" res="1.2843742966651917e-02" rms="4.0723416209220886e-01" purity="7.8963696956634521e-01" nType="0">
                  <Node pos="l" depth="6" NCoef="0" IVar="-1" Cut="0.0000000000000000e+00" cType="1" res="3.7569229607470334e-04" rms="4.1649582982063293e-01" purity="7.7629721164703369e-01" nType="-99"/>
                  <Node pos="r" depth="6" NCoef="0" IVar="-1" Cut="0.0000000000000000e+00" cType="1" res="2.2819589357823133e-03" rms="3.9836114645004272e-01" purity="8.0188232660293579e-01" nType="-99"/>
                </Node>
                <Node pos="r" depth="5" NCoef="0" IVar="1" Cut="1.1952556669712067e-01" cType="1" res="2.6175700128078461e-02" rms="4.0464755892753601e-01" purity="7.8992187976837158e-01" nType="0">
                  <Node pos="l" depth="6" NCoef="0" IVar="1" Cut="1.5878751873970032e-02" cType="1" res="2.9400752857327461e-02" rms="3.8835492730140686e-01" purity="8.1473326683044434e-01" nType="0">
                    <Node pos="l" depth="7" NCoef="0" IVar="-1" Cut="0.0000000000000000e+00" cType="1" res="3.6326460540294647e-03" rms="3.8478422164916992e-01" purity="8.1916290521621704e-01" nType="-99"/>
                    <Node pos="r" depth="7" NCoef="0" IVar="-1" Cut="0.0000000000000000e+00" cType="1" res="2.5320735294371843e-03" rms="3.9867365360260010e-01" purity="8.0160272121429443e-01" nType="-99"/>
                  </Node>
                  <Node pos="r" depth="6" NCoef="0" IVar="3" Cut="9.9995464086532593e-01" cType="1" res="2.1462246775627136e-02" rms="4.2729976773262024e-01" purity="7.5365972518920898e-01" nType="0">
                    <Node pos="l" depth="7" NCoef="0" IVar="-1" Cut="0.0000000000000000e+00" cType="1" res="1.2317801592871547e-03" rms="4.3561699986457825e-01" purity="7.3844444751739502e-01" nType="-99"/>
                    <Node pos="r" depth="7" NCoef="0" IVar="-1" Cut="0.0000000000000000e+00" cType="1" res="3.0286046676337719e-03" rms="4.1796010732650757e-01" purity="7.7000194787979126e-01" nType="-99"/>
                  </Node>
                </Node>
              </Node>
            </Node>
            <Node pos="r" depth="3" NCoef="0" IVar="1" Cut="1.5893098711967468e-01" cType="1" res="-4.2687221430242062e-03" rms="4.7970423102378845e-01" purity="6.1268800497055054e-01" nType="0">
              <Node pos="l" depth="4" NCoef="0" IVar="0" Cut="2.7157172560691833e-01" cType="1" res="9.7089391201734543e-03" rms="4.7388440370559692e-01" purity="6.4989036321640015e-01" nType="0">
                <Node pos="l" depth="5" NCoef="0" IVar="-1" Cut="0.0000000000000000e+00" cType="1" res="-8.3966000238433480e-04" rms="4.7355994582176208e-01" purity="6.5042650699615479e-01" nType="-99"/>
                <Node pos="r" depth="5" NCoef="0" IVar="-1" Cut="0.0000000000000000e+00" cType="1" res="2.3623190354555845e-03" rms="4.7354555130004883e-01" purity="6.4935994148254395e-01" nType="-99"/>
              </Node>
              <Node pos="r" depth="4" NCoef="0" IVar="-1" Cut="0.0000000000000000e+00" cType="1" res="-2.7384806890040636e-03" rms="4.8905071616172791e-01" purity="5.4532676935195923e-01" nType="-99"/>
            </Node>
          </Node>
          <Node pos="r" depth="2" NCoef="0" IVar="-1" Cut="0.0000000000000000e+00" cType="1" res="-3.0465724412351847e-03" rms="4.8013541102409363e-01" purity="3.9735224843025208e-01" nType="-99"/>
        </Node>
      </Node>
    </BinaryTree>
    <BinaryTree type="DecisionTree" boostWeight="1.0000000000000000e+00" itree="67">
      <Node pos="s" depth="0" NCoef="0" IVar="0" Cut="3.2188862562179565e-01" cType="1" res="6.1228661797940731e-03" rms="4.1065579652786255e-01" purity="5.0025749206542969e-01" nType="0">
        <Node pos="l" depth="1" NCoef="0" IVar="3" Cut="8.4263724088668823e-01" cType="1" res="1.4910041354596615e-02" rms="4.4000002741813660e-01" purity="6.7497241497039795e-01" nType="0">
          <Node pos="l" depth="2" NCoef="0" IVar="1" Cut="9.7078776359558105e-01" cType="1" res="5.1345252431929111e-03" rms="4.7585317492485046e-01" purity="5.1375603675842285e-01" nType="0">
            <Node pos="l" depth="3" NCoef="0" IVar="1" Cut="1.3604435324668884e-01" cType="1" res="7.0597706362605095e-03" rms="4.7666743397712708e-01" purity="5.2399557828903198e-01" nType="0">
              <Node pos="l" depth="4" NCoef="0" IVar="5" Cut="3.0000000000000000e+00" cType="1" res="7.1418089792132378e-03" rms="4.0812680125236511e-01" purity="5.5284553766250610e-01" nType="0">
                <Node pos="l" depth="5" NCoef="0" IVar="0" Cut="1.8688613176345825e-01" cType="1" res="3.6471849307417870e-03" rms="4.7865724563598633e-01" purity="6.1804413795471191e-01" nType="0">
                  <Node pos="l" depth="6" NCoef="0" IVar="4" Cut="6.3257187604904175e-02" cType="1" res="-7.3312548920512199e-04" rms="4.7644081711769104e-01" purity="6.2244361639022827e-01" nType="0">
                    <Node pos="l" depth="7" NCoef="0" IVar="-1" Cut="0.0000000000000000e+00" cType="1" res="-1.0615536011755466e-03" rms="4.7106033563613892e-01" purity="6.5945357084274292e-01" nType="-99"/>
                    <Node pos="r" depth="7" NCoef="0" IVar="-1" Cut="0.0000000000000000e+00" cType="1" res="9.4184896443039179e-04" rms="4.8148402571678162e-01" purity="5.8538526296615601e-01" nType="-99"/>
                  </Node>
                  <Node pos="r" depth="6" NCoef="0" IVar="-1" Cut="0.0000000000000000e+00" cType="1" res="1.6658798558637500e-03" rms="4.8555502295494080e-01" purity="6.0366535186767578e-01" nType="-99"/>
                </Node>
                <Node pos="r" depth="5" NCoef="0" IVar="3" Cut="4.6947836875915527e-01" cType="1" res="1.5934210270643234e-02" rms="4.7520256042480469e-01" purity="5.1153165102005005e-01" nType="0">
                  <Node pos="l" depth="6" NCoef="0" IVar="-1" Cut="0.0000000000000000e+00" cType="1" res="-2.1365587599575520e-03" rms="4.1663807630538940e-01" purity="2.2958816587924957e-01" nType="-99"/>
                  <Node pos="r" depth="6" NCoef="0" IVar="2" Cut="8.0979789733886719e+01" cType="1" res="2.1063009276986122e-02" rms="4.8385760188102722e-01" purity="5.5735522508621216e-01" nType="0">
                    <Node pos="l" depth="7" NCoef="0" IVar="-1" Cut="0.0000000000000000e+00" cType="1" res="3.1372485682368279e-03" rms="4.7792121767997742e-01" purity="6.2569528818130493e-01" nType="-99"/>
                    <Node pos="r" depth="7" NCoef="0" IVar="-1" Cut="0.0000000000000000e+00" cType="1" res="1.3884038198739290e-03" rms="4.8610794544219971e-01" purity="5.2970260381698608e-01" nType="-99"/>
                  </Node>
                </Node>
              </Node>
              <Node pos="r" depth="4" NCoef="0" IVar="0" Cut="1.0382110252976418e-02" cType="1" res="-4.4698314741253853e-04" rms="4.7672998905181885e-01" purity="4.7128406167030334e-01" nType="0">
                <Node pos="l" depth="5" NCoef="0" IVar="3" Cut="7.0937168598175049e-01" cType="1" res="7.5025935657322407e-03" rms="4.7870919108390808e-01" purity="4.9838370084762573e-01" nType="0">
                  <Node pos="l" depth="6" NCoef="0" IVar="2" Cut="3.1885180664062500e+02" cType="1" res="-5.0147128058597445e-04" rms="4.7086688876152039e-01" purity="3.7612950801849365e-01" nType="0">
                    <Node pos="l" depth="7" NCoef="0" IVar="-1" Cut="0.0000000000000000e+00" cType="1" res="1.0139036457985640e-03" rms="4.8293420672416687e-01" purity="4.2535078525543213e-01" nType="-99"/>
                    <Node pos="r" depth="7" NCoef="0" IVar="-1" Cut="0.0000000000000000e+00" cType="1" res="-1.6963771777227521e-03" rms="4.5477938652038574e-01" purity="3.1404766440391541e-01" nType="-99"/>
                  </Node>
                  <Node pos="r" depth="6" NCoef="0" IVar="4" Cut="5.4879821836948395e-02" cType="1" res="1.4664500020444393e-02" rms="4.8550719022750854e-01" purity="6.0777479410171509e-01" nType="0">
                    <Node pos="l" depth="7" NCoef="0" IVar="-1" Cut="0.0000000000000000e+00" cType="1" res="4.1560726822353899e-04" rms="4.8554536700248718e-01" purity="6.0509538650512695e-01" nType="-99"/>
                    <Node pos="r" depth="7" NCoef="0" IVar="-1" Cut="0.0000000000000000e+00" cType="1" res="1.9747109618037939e-03" rms="4.8529136180877686e-01" purity="6.1031246185302734e-01" nType="-99"/>
                  </Node>
                </Node>
                <Node pos="r" depth="5" NCoef="0" IVar="1" Cut="3.5161757469177246e-01" cType="1" res="-2.1999927237629890e-02" rms="4.7064706683158875e-01" purity="3.9781141281127930e-01" nType="0">
                  <Node pos="l" depth="6" NCoef="0" IVar="-1" Cut="0.0000000000000000e+00" cType="1" res="-2.3599699488840997e-04" rms="4.7877669334411621e-01" purity="4.4615292549133301e-01" nType="-99"/>
                  <Node pos="r" depth="6" NCoef="0" IVar="-1" Cut="0.0000000000000000e+00" cType="1" res="-4.6836282126605511e-03" rms="4.6054837107658386e-01" purity="3.4452247619628906e-01" nType="-99"/>
                </Node>
              </Node>
            </Node>
            <Node pos="r" depth="3" NCoef="0" IVar="-1" Cut="0.0000000000000000e+00" cType="1" res="-3.1234195921570063e-03" rms="4.5937469601631165e-01" purity="3.2739660143852234e-01" nType="-99"/>
          </Node>
          <Node pos="r" depth="2" NCoef="0" IVar="3" Cut="9.9100327491760254e-01" cType="1" res="2.0559195429086685e-02" rms="4.1777652502059937e-01" purity="7.6813751459121704e-01" nType="0">
            <Node pos="l" depth="3" NCoef="0" IVar="1" Cut="4.9032869935035706e-01" cType="1" res="1.5981309115886688e-02" rms="4.3497967720031738e-01" purity="7.3802107572555542e-01" nType="0">
              <Node pos="l" depth="4" NCoef="0" IVar="3" Cut="8.8571310043334961e-01" cType="1" res="1.7913511022925377e-02" rms="4.2860242724418640e-01" purity="7.5431406497955322e-01" nType="0">
                <Node pos="l" depth="5" NCoef="0" IVar="4" Cut="2.4159062653779984e-02" cType="1" res="1.1098822578787804e-02" rms="4.4851049780845642e-01" purity="7.1836251020431519e-01" nType="0">
                  <Node pos="l" depth="6" NCoef="0" IVar="-1" Cut="0.0000000000000000e+00" cType="1" res="-7.2140741394832730e-04" rms="4.5998466014862061e-01" purity="6.9286221265792847e-01" nType="-99"/>
                  <Node pos="r" depth="6" NCoef="0" IVar="2" Cut="1.4136013793945312e+02" cType="1" res="1.7242524772882462e-02" rms="4.4443202018737793e-01" purity="7.2690337896347046e-01" nType="0">
                    <Node pos="l" depth="7" NCoef="0" IVar="-1" Cut="0.0000000000000000e+00" cType="1" res="1.3023819774389267e-03" rms="4.4416332244873047e-01" purity="7.2737801074981689e-01" nType="-99"/>
                    <Node pos="r" depth="7" NCoef="0" IVar="-1" Cut="0.0000000000000000e+00" cType="1" res="2.6702256873250008e-03" rms="4.4495528936386108e-01" purity="7.2575026750564575e-01" nType="-99"/>
                  </Node>
                </Node>
                <Node pos="r" depth="5" NCoef="0" IVar="4" Cut="1.1049043387174606e-02" cType="1" res="2.1605890244245529e-02" rms="4.1737282276153564e-01" purity="7.7379357814788818e-01" nType="0">
                  <Node pos="l" depth="6" NCoef="0" IVar="4" Cut="3.6237720632925630e-04" cType="1" res="1.8884582445025444e-02" rms="4.1539883613586426e-01" purity="7.7663111686706543e-01" nType="0">
                    <Node pos="l" depth="7" NCoef="0" IVar="-1" Cut="0.0000000000000000e+00" cType="1" res="2.6246632914990187e-03" rms="4.0796160697937012e-01" purity="7.8811931610107422e-01" nType="-99"/>
                    <Node pos="r" depth="7" NCoef="0" IVar="-1" Cut="0.0000000000000000e+00" cType="1" res="-3.4697505179792643e-04" rms="4.4425976276397705e-01" purity="7.2891116142272949e-01" nType="-99"/>
                  </Node>
                  <Node pos="r" depth="6" NCoef="0" IVar="2" Cut="1.0348482513427734e+02" cType="1" res="2.7378687635064125e-02" rms="4.2147150635719299e-01" purity="7.6777410507202148e-01" nType="0">
                    <Node pos="l" depth="7" NCoef="0" IVar="-1" Cut="0.0000000000000000e+00" cType="1" res="3.7389073986560106e-03" rms="4.1662129759788513e-01" purity="7.7512013912200928e-01" nType="-99"/>
                    <Node pos="r" depth="7" NCoef="0" IVar="-1" Cut="0.0000000000000000e+00" cType="1" res="2.0482435356825590e-03" rms="4.3040218949317932e-01" purity="7.5376439094543457e-01" nType="-99"/>
                  </Node>
                </Node>
              </Node>
              <Node pos="r" depth="4" NCoef="0" IVar="-1" Cut="0.0000000000000000e+00" cType="1" res="-3.4124714147765189e-05" rms="4.8535051941871643e-01" purity="5.9998703002929688e-01" nType="-99"/>
            </Node>
            <Node pos="r" depth="3" NCoef="0" IVar="1" Cut="2.5814467668533325e-01" cType="1" res="2.3858150467276573e-02" rms="4.0489453077316284e-01" purity="7.8984022140502930e-01" nType="0">
              <Node pos="l" depth="4" NCoef="0" IVar="3" Cut="1.0233081579208374e+00" cType="1" res="2.5547787547111511e-02" rms="3.9316201210021973e-01" purity="8.0831724405288696e-01" nType="0">
                <Node pos="l" depth="5" NCoef="0" IVar="3" Cut="9.9517154693603516e-01" cType="1" res="2.4285700172185898e-02" rms="3.9351335167884827e-01" purity="8.0793696641921997e-01" nType="0">
                  <Node pos="l" depth="6" NCoef="0" IVar="-1" Cut="0.0000000000000000e+00" cType="1" res="1.3404585188254714e-03" rms="4.0829390287399292e-01" purity="7.8773075342178345e-01" nType="-99"/>
                  <Node pos="r" depth="6" NCoef="0" IVar="1" Cut="-2.2626629471778870e-01" cType="1" res="2.6516551151871681e-02" rms="3.9081269502639771e-01" purity="8.1149172782897949e-01" nType="0">
                    <Node pos="l" depth="7" NCoef="0" IVar="-1" Cut="0.0000000000000000e+00" cType="1" res="1.2907101772725582e-03" rms="4.0776476263999939e-01" purity="7.8896844387054443e-01" nType="-99"/>
                    <Node pos="r" depth="7" NCoef="0" IVar="-1" Cut="0.0000000000000000e+00" cType="1" res="3.2499933149665594e-03" rms="3.8838413357734680e-01" purity="8.1459099054336548e-01" nType="-99"/>
                  </Node>
                </Node>
                <Node pos="r" depth="5" NCoef="0" IVar="-1" Cut="0.0000000000000000e+00" cType="1" res="3.4816614352166653e-03" rms="3.9117592573165894e-01" purity="8.1038379669189453e-01" nType="-99"/>
              </Node>
              <Node pos="r" depth="4" NCoef="0" IVar="1" Cut="8.8587337732315063e-01" cType="1" res="1.8795950338244438e-02" rms="4.3812999129295349e-01" purity="7.3448264598846436e-01" nType="0">
                <Node pos="l" depth="5" NCoef="0" IVar="1" Cut="4.4039231538772583e-01" cType="1" res="1.6599955037236214e-02" rms="4.2716941237449646e-01" purity="7.5733375549316406e-01" nType="0">
                  <Node pos="l" depth="6" NCoef="0" IVar="-1" Cut="0.0000000000000000e+00" cType="1" res="2.3294456768780947e-03" rms="4.1325953602790833e-01" purity="7.8050303459167480e-01" nType="-99"/>
                  <Node pos="r" depth="6" NCoef="0" IVar="-1" Cut="0.0000000000000000e+00" cType="1" res="9.5133046852424741e-04" rms="4.4134339690208435e-01" purity="7.3277813196182251e-01" nType="-99"/>
                </Node>
                <Node pos="r" depth="5" NCoef="0" IVar="-1" Cut="0.0000000000000000e+00" cType="1" res="2.2071008570492268e-03" rms="4.7535532712936401e-01" purity="6.5235972404479980e-01" nType="-99"/>
              </Node>
            </Node>
          </Node>
        </Node>
        <Node pos="r" depth="1" NCoef="0" IVar="0" Cut="9.4490736722946167e-01" cType="1" res="-9.6743982285261154e-03" rms="3.5124683380126953e-01" purity="1.8616129457950592e-01" nType="0">
          <Node pos="l" depth="2" NCoef="0" IVar="1" Cut="7.0047676563262939e-01" cType="1" res="-2.8961233329027891e-04" rms="4.2884930968284607e-01" purity="3.0220291018486023e-01" nType="0">
            <Node pos="l" depth="3" NCoef="0" IVar="2" Cut="6.5641593933105469e+01" cType="1" res="4.2244568467140198e-03" rms="4.3631175160408020e-01" purity="3.1931349635124207e-01" nType="0">
              <Node pos="l" depth="4" NCoef="0" IVar="3" Cut="7.5889354944229126e-01" cType="1" res="2.7185665443539619e-02" rms="4.7395944595336914e-01" purity="4.7678822278976440e-01" nType="0">
                <Node pos="l" depth="5" NCoef="0" IVar="4" Cut="3.5560943186283112e-02" cType="1" res="8.1832204014062881e-03" rms="4.6795982122421265e-01" purity="3.6692240834236145e-01" nType="0">
                  <Node pos="l" depth="6" NCoef="0" IVar="-1" Cut="0.0000000000000000e+00" cType="1" res="-1.4968770556151867e-03" rms="4.5891144871711731e-01" purity="3.2989859580993652e-01" nType="-99"/>
                  <Node pos="r" depth="6" NCoef="0" IVar="-1" Cut="0.0000000000000000e+00" cType="1" res="2.8271873015910387e-03" rms="4.7557920217514038e-01" purity="4.0269589424133301e-01" nType="-99"/>
                </Node>
                <Node pos="r" depth="5" NCoef="0" IVar="-1" Cut="0.0000000000000000e+00" cType="1" res="4.3940450996160507e-03" rms="4.8099133372306824e-01" purity="6.3103139400482178e-01" nType="-99"/>
              </Node>
              <Node pos="r" depth="4" NCoef="0" IVar="4" Cut="4.8577576875686646e-02" cType="1" res="-2.7154153212904930e-03" rms="4.2403146624565125e-01" purity="2.7171778678894043e-01" nType="0">
                <Node pos="l" depth="5" NCoef="0" IVar="-1" Cut="0.0000000000000000e+00" cType="1" res="-3.1431119423359632e-03" rms="4.2978328466415405e-01" purity="2.8932109475135803e-01" nType="-99"/>
                <Node pos="r" depth="5" NCoef="0" IVar="3" Cut="3.3316293358802795e-01" cType="1" res="1.3380118180066347e-03" rms="4.2289999127388000e-01" purity="2.6868340373039246e-01" nType="0">
                  <Node pos="l" depth="6" NCoef="0" IVar="-1" Cut="0.0000000000000000e+00" cType="1" res="-6.0562789440155029e-03" rms="3.2696098089218140e-01" purity="1.2503261864185333e-01" nType="-99"/>
                  <Node pos="r" depth="6" NCoef="0" IVar="0" Cut="4.0229797363281250e-01" cType="1" res="5.2394056692719460e-03" rms="4.3374949693679810e-01" purity="2.8750434517860413e-01" nType="0">
                    <Node pos="l" depth="7" NCoef="0" IVar="-1" Cut="0.0000000000000000e+00" cType="1" res="2.2596989292651415e-03" rms="4.7327777743339539e-01" purity="4.0400293469429016e-01" nType="-99"/>
                    <Node pos="r" depth="7" NCoef="0" IVar="-1" Cut="0.0000000000000000e+00" cType="1" res="6.8172092142049223e-05" rms="4.2226043343544006e-01" purity="2.5588893890380859e-01" nType="-99"/>
                  </Node>
                </Node>
              </Node>
            </Node>
            <Node pos="r" depth="3" NCoef="0" IVar="1" Cut="9.9967265129089355e-01" cType="1" res="-2.9986403882503510e-02" rms="3.7472930550575256e-01" purity="1.8963718414306641e-01" nType="0">
              <Node pos="l" depth="4" NCoef="0" IVar="-1" Cut="0.0000000000000000e+00" cType="1" res="-1.6713789664208889e-03" rms="3.8947027921676636e-01" purity="2.1103413403034210e-01" nType="-99"/>
              <Node pos="r" depth="4" NCoef="0" IVar="-1" Cut="0.0000000000000000e+00" cType="1" res="-7.4391891248524189e-03" rms="3.6097273230552673e-01" purity="1.7149318754673004e-01" nType="-99"/>
            </Node>
          </Node>
          <Node pos="r" depth="2" NCoef="0" IVar="3" Cut="5.8009386062622070e-01" cType="1" res="-1.8794968724250793e-02" rms="2.5371736288070679e-01" purity="7.3386676609516144e-02" nType="0">
            <Node pos="l" depth="3" NCoef="0" IVar="2" Cut="3.8677975463867188e+02" cType="1" res="-1.4028243720531464e-02" rms="2.3817725479602814e-01" purity="6.2589555978775024e-02" nType="0">
              <Node pos="l" depth="4" NCoef="0" IVar="4" Cut="1.2385163456201553e-01" cType="1" res="-1.1527791619300842e-02" rms="2.3868899047374725e-01" purity="6.3176430761814117e-02" nType="0">
                <Node pos="l" depth="5" NCoef="0" IVar="4" Cut="5.6054383516311646e-02" cType="1" res="-1.5364391729235649e-02" rms="2.2429442405700684e-01" purity="5.5015031248331070e-02" nType="0">
                  <Node pos="l" depth="6" NCoef="0" IVar="1" Cut="6.1491018533706665e-01" cType="1" res="-2.2250726819038391e-02" rms="2.1248143911361694e-01" purity="4.8550125211477280e-02" nType="0">
                    <Node pos="l" depth="7" NCoef="0" IVar="-1" Cut="0.0000000000000000e+00" cType="1" res="-1.2215588241815567e-02" rms="2.0845162868499756e-01" purity="4.7067422419786453e-02" nType="-99"/>
                    <Node pos="r" depth="7" NCoef="0" IVar="-1" Cut="0.0000000000000000e+00" cType="1" res="-5.5546564981341362e-03" rms="2.1694138646125793e-01" purity="5.0407044589519501e-02" nType="-99"/>
                  </Node>
                  <Node pos="r" depth="6" NCoef="0" IVar="2" Cut="9.9464317321777344e+01" cType="1" res="-1.1331814341247082e-02" rms="2.3083628714084625e-01" purity="5.8800812810659409e-02" nType="0">
                    <Node pos="l" depth="7" NCoef="0" IVar="-1" Cut="0.0000000000000000e+00" cType="1" res="1.6591395251452923e-03" rms="2.7928799390792847e-01" purity="8.9396283030509949e-02" nType="-99"/>
                    <Node pos="r" depth="7" NCoef="0" IVar="-1" Cut="0.0000000000000000e+00" cType="1" res="-6.8745398893952370e-03" rms="2.1824309229850769e-01" purity="5.1884617656469345e-02" nType="-99"/>
                  </Node>
                </Node>
                <Node pos="r" depth="5" NCoef="0" IVar="3" Cut="2.8985127806663513e-01" cType="1" res="4.3477802537381649e-03" rms="2.9023519158363342e-01" purity="9.6947751939296722e-02" nType="0">
                  <Node pos="l" depth="6" NCoef="0" IVar="-1" Cut="0.0000000000000000e+00" cType="1" res="-4.2592827230691910e-03" rms="2.4438624083995819e-01" purity="6.5166659653186798e-02" nType="-99"/>
                  <Node pos="r" depth="6" NCoef="0" IVar="-1" Cut="0.0000000000000000e+00" cType="1" res="5.8446759358048439e-03" rms="3.3762127161026001e-01" purity="1.3620653748512268e-01" nType="-99"/>
                </Node>
              </Node>
              <Node pos="r" depth="4" NCoef="0" IVar="4" Cut="1.3040050864219666e-01" cType="1" res="-2.1654831245541573e-02" rms="2.3644632101058960e-01" purity="6.0799520462751389e-02" nType="0">
                <Node pos="l" depth="5" NCoef="0" IVar="-1" Cut="0.0000000000000000e+00" cType="1" res="-1.5008700080215931e-02" rms="1.7147937417030334e-01" purity="3.0615607276558876e-02" nType="-99"/>
                <Node pos="r" depth="5" NCoef="0" IVar="3" Cut="2.1624667942523956e-01" cType="1" res="-1.5929143875837326e-02" rms="2.6060062646865845e-01" purity="7.4592523276805878e-02" nType="0">
                  <Node pos="l" depth="6" NCoef="0" IVar="-1" Cut="0.0000000000000000e+00" cType="1" res="-9.2034274712204933e-03" rms="2.4304105341434479e-01" purity="6.4637340605258942e-02" nType="-99"/>
                  <Node pos="r" depth="6" NCoef="0" IVar="-1" Cut="0.0000000000000000e+00" cType="1" res="-3.2456482294946909e-03" rms="2.7148261666297913e-01" purity="8.1223674118518829e-02" nType="-99"/>
                </Node>
              </Node>
            </Node>
            <Node pos="r" depth="3" NCoef="0" IVar="-1" Cut="0.0000000000000000e+00" cType="1" res="-1.0827145539224148e-02" rms="4.3089345097541809e-01" purity="2.5425979495048523e-01" nType="-99"/>
          </Node>
        </Node>
      </Node>
    </BinaryTree>
    <BinaryTree type="DecisionTree" boostWeight="1.0000000000000000e+00" itree="68">
      <Node pos="s" depth="0" NCoef="0" IVar="3" Cut="7.7304130792617798e-01" cType="1" res="4.5736627653241158e-03" rms="4.1063368320465088e-01" purity="4.9846726655960083e-01" nType="0">
        <Node pos="l" depth="1" NCoef="0" IVar="0" Cut="1.6107751131057739e+00" cType="1" res="-7.8407172113656998e-03" rms="3.8840180635452271e-01" purity="2.5216203927993774e-01" nType="0">
          <Node pos="l" depth="2" NCoef="0" IVar="4" Cut="6.3952669501304626e-02" cType="1" res="-5.3957221098244190e-03" rms="4.2220973968505859e-01" purity="3.0426293611526489e-01" nType="0">
            <Node pos="l" depth="3" NCoef="0" IVar="2" Cut="4.8802829742431641e+01" cType="1" res="-1.3776637613773346e-02" rms="4.3123966455459595e-01" purity="3.3611130714416504e-01" nType="0">
              <Node pos="l" depth="4" NCoef="0" IVar="4" Cut="2.0809028297662735e-02" cType="1" res="1.2864848831668496e-03" rms="4.5133781433105469e-01" purity="3.9686086773872375e-01" nType="0">
                <Node pos="l" depth="5" NCoef="0" IVar="-1" Cut="0.0000000000000000e+00" cType="1" res="-2.2220259997993708e-03" rms="4.4280195236206055e-01" purity="3.5970449447631836e-01" nType="-99"/>
                <Node pos="r" depth="5" NCoef="0" IVar="2" Cut="3.6604850769042969e+01" cType="1" res="1.3073934242129326e-02" rms="4.5556125044822693e-01" purity="4.1740733385086060e-01" nType="0">
                  <Node pos="l" depth="6" NCoef="0" IVar="-1" Cut="0.0000000000000000e+00" cType="1" res="2.2011511027812958e-03" rms="4.6104827523231506e-01" purity="4.3243524432182312e-01" nType="-99"/>
                  <Node pos="r" depth="6" NCoef="0" IVar="-1" Cut="0.0000000000000000e+00" cType="1" res="3.1018967274576426e-04" rms="4.4930815696716309e-01" purity="4.0109020471572876e-01" nType="-99"/>
                </Node>
              </Node>
              <Node pos="r" depth="4" NCoef="0" IVar="5" Cut="3.0000000000000000e+00" cType="1" res="-1.2699932791292667e-02" rms="3.8207519054412842e-01" purity="3.1287524104118347e-01" nType="0">
                <Node pos="l" depth="5" NCoef="0" IVar="-1" Cut="0.0000000000000000e+00" cType="1" res="-4.6877716667950153e-03" rms="4.3797165155410767e-01" purity="3.2416790723800659e-01" nType="-99"/>
                <Node pos="r" depth="5" NCoef="0" IVar="4" Cut="4.6134892851114273e-02" cType="1" res="-1.3517184183001518e-02" rms="4.1901984810829163e-01" purity="3.0994555354118347e-01" nType="0">
                  <Node pos="l" depth="6" NCoef="0" IVar="0" Cut="2.5970241427421570e-01" cType="1" res="-1.9627677276730537e-02" rms="4.1995519399642944e-01" purity="3.0243527889251709e-01" nType="0">
                    <Node pos="l" depth="7" NCoef="0" IVar="-1" Cut="0.0000000000000000e+00" cType="1" res="-3.0280128121376038e-03" rms="4.8953819274902344e-01" purity="4.9260112643241882e-01" nType="-99"/>
                    <Node pos="r" depth="7" NCoef="0" IVar="-1" Cut="0.0000000000000000e+00" cType="1" res="-2.0905064884573221e-03" rms="3.7942090630531311e-01" purity="2.0544752478599548e-01" nType="-99"/>
                  </Node>
                  <Node pos="r" depth="6" NCoef="0" IVar="3" Cut="5.1181936264038086e-01" cType="1" res="-7.6753781177103519e-03" rms="4.1804015636444092e-01" purity="3.1712555885314941e-01" nType="0">
                    <Node pos="l" depth="7" NCoef="0" IVar="-1" Cut="0.0000000000000000e+00" cType="1" res="-6.5499683842062950e-03" rms="2.6707831025123596e-01" purity="8.1128329038619995e-02" nType="-99"/>
                    <Node pos="r" depth="7" NCoef="0" IVar="-1" Cut="0.0000000000000000e+00" cType="1" res="-1.2336100917309523e-04" rms="4.6949705481529236e-01" purity="4.2164579033851624e-01" nType="-99"/>
                  </Node>
                </Node>
              </Node>
            </Node>
            <Node pos="r" depth="3" NCoef="0" IVar="2" Cut="3.0914187622070312e+02" cType="1" res="-1.2614538427442312e-03" rms="4.1762146353721619e-01" purity="2.8855222463607788e-01" nType="0">
              <Node pos="l" depth="4" NCoef="0" IVar="1" Cut="7.8095662593841553e-01" cType="1" res="4.8357113264501095e-03" rms="4.3254706263542175e-01" purity="3.3218812942504883e-01" nType="0">
                <Node pos="l" depth="5" NCoef="0" IVar="2" Cut="7.9100112915039062e+01" cType="1" res="7.7423173934221268e-03" rms="4.4015887379646301e-01" purity="3.5028856992721558e-01" nType="0">
                  <Node pos="l" depth="6" NCoef="0" IVar="-1" Cut="0.0000000000000000e+00" cType="1" res="3.1534212175756693e-03" rms="4.6458789706230164e-01" purity="4.6131920814514160e-01" nType="-99"/>
                  <Node pos="r" depth="6" NCoef="0" IVar="4" Cut="1.3654562830924988e-01" cType="1" res="4.8147956840693951e-03" rms="4.3734559416770935e-01" purity="3.3832994103431702e-01" nType="0">
                    <Node pos="l" depth="7" NCoef="0" IVar="-1" Cut="0.0000000000000000e+00" cType="1" res="1.0471740824868903e-04" rms="4.3957510590553284e-01" purity="3.5335516929626465e-01" nType="-99"/>
                    <Node pos="r" depth="7" NCoef="0" IVar="-1" Cut="0.0000000000000000e+00" cType="1" res="2.7484570164233446e-03" rms="4.2790192365646362e-01" purity="2.7789866924285889e-01" nType="-99"/>
                  </Node>
                </Node>
                <Node pos="r" depth="5" NCoef="0" IVar="-1" Cut="0.0000000000000000e+00" cType="1" res="-3.5410530399531126e-03" rms="3.5867202281951904e-01" purity="1.7485935986042023e-01" nType="-99"/>
              </Node>
              <Node pos="r" depth="4" NCoef="0" IVar="4" Cut="1.1737067997455597e-01" cType="1" res="-9.0498412027955055e-03" rms="3.9760598540306091e-01" purity="2.3281271755695343e-01" nType="0">
                <Node pos="l" depth="5" NCoef="0" IVar="2" Cut="3.8148571777343750e+02" cType="1" res="-2.1914174780249596e-02" rms="4.0711581707000732e-01" purity="2.6983097195625305e-01" nType="0">
                  <Node pos="l" depth="6" NCoef="0" IVar="-1" Cut="0.0000000000000000e+00" cType="1" res="-1.3595625059679151e-03" rms="4.1692501306533813e-01" purity="2.8907433152198792e-01" nType="-99"/>
                  <Node pos="r" depth="6" NCoef="0" IVar="4" Cut="1.0024975985288620e-01" cType="1" res="-3.2290309667587280e-02" rms="3.9792019128799438e-01" purity="2.5275248289108276e-01" nType="0">
                    <Node pos="l" depth="7" NCoef="0" IVar="-1" Cut="0.0000000000000000e+00" cType="1" res="-5.2120345644652843e-03" rms="3.9405718445777893e-01" purity="2.5331398844718933e-01" nType="-99"/>
                    <Node pos="r" depth="7" NCoef="0" IVar="-1" Cut="0.0000000000000000e+00" cType="1" res="-3.6611664108932018e-03" rms="4.0165352821350098e-01" purity="2.5219023227691650e-01" nType="-99"/>
                  </Node>
                </Node>
                <Node pos="r" depth="5" NCoef="0" IVar="2" Cut="6.6747711181640625e+02" cType="1" res="-2.0770989358425140e-03" rms="3.9217883348464966e-01" purity="2.1274803578853607e-01" nType="0">
                  <Node pos="l" depth="6" NCoef="0" IVar="3" Cut="4.2830792069435120e-01" cType="1" res="5.2983867935836315e-03" rms="4.0004923939704895e-01" purity="2.3004530370235443e-01" nType="0">
                    <Node pos="l" depth="7" NCoef="0" IVar="-1" Cut="0.0000000000000000e+00" cType="1" res="-1.3147227000445127e-03" rms="3.4051501750946045e-01" purity="1.4204254746437073e-01" nType="-99"/>
                    <Node pos="r" depth="7" NCoef="0" IVar="-1" Cut="0.0000000000000000e+00" cType="1" res="2.0436099730432034e-03" rms="4.5531097054481506e-01" purity="3.2496809959411621e-01" nType="-99"/>
                  </Node>
                  <Node pos="r" depth="6" NCoef="0" IVar="3" Cut="2.8060743212699890e-01" cType="1" res="-1.6457861289381981e-02" rms="3.7594416737556458e-01" purity="1.7902171611785889e-01" nType="0">
                    <Node pos="l" depth="7" NCoef="0" IVar="-1" Cut="0.0000000000000000e+00" cType="1" res="8.4681413136422634e-04" rms="3.7987154722213745e-01" purity="1.8584705889225006e-01" nType="-99"/>
                    <Node pos="r" depth="7" NCoef="0" IVar="-1" Cut="0.0000000000000000e+00" cType="1" res="-5.0073671154677868e-03" rms="3.7250459194183350e-01" purity="1.7430821061134338e-01" nType="-99"/>
                  </Node>
                </Node>
              </Node>
            </Node>
          </Node>
          <Node pos="r" depth="2" NCoef="0" IVar="3" Cut="3.3241146802902222e-01" cType="1" res="-1.7567936331033707e-02" rms="2.0422670245170593e-01" purity="4.4882725924253464e-02" nType="0">
            <Node pos="l" depth="3" NCoef="0" IVar="5" Cut="5.0000000000000000e+00" cType="1" res="-1.5561880543828011e-02" rms="1.9450795650482178e-01" purity="4.0912698954343796e-02" nType="0">
              <Node pos="l" depth="4" NCoef="0" IVar="-1" Cut="0.0000000000000000e+00" cType="1" res="6.7423214204609394e-04" rms="2.4993070960044861e-01" purity="6.8693876266479492e-02" nType="-99"/>
              <Node pos="r" depth="4" NCoef="0" IVar="4" Cut="1.5445853769779205e-01" cType="1" res="-2.0519604906439781e-02" rms="1.7545901238918304e-01" purity="3.2371353358030319e-02" nType="0">
                <Node pos="l" depth="5" NCoef="0" IVar="5" Cut="6.0000000000000000e+00" cType="1" res="-2.2277701646089554e-02" rms="1.3889679312705994e-01" purity="2.1479811519384384e-02" nType="0">
                  <Node pos="l" depth="6" NCoef="0" IVar="-1" Cut="0.0000000000000000e+00" cType="1" res="-1.1239730753004551e-02" rms="1.7124029994010925e-01" purity="3.0401540920138359e-02" nType="-99"/>
                  <Node pos="r" depth="6" NCoef="0" IVar="0" Cut="2.9622766971588135e+00" cType="1" res="-2.5561541318893433e-02" rms="1.3442310690879822e-01" purity="1.8503578379750252e-02" nType="0">
                    <Node pos="l" depth="7" NCoef="0" IVar="-1" Cut="0.0000000000000000e+00" cType="1" res="-1.4283206313848495e-02" rms="1.5245038270950317e-01" purity="2.3922529071569443e-02" nType="-99"/>
                    <Node pos="r" depth="7" NCoef="0" IVar="-1" Cut="0.0000000000000000e+00" cType="1" res="-2.4225603789091110e-02" rms="1.0374810546636581e-01" purity="1.0918990708887577e-02" nType="-99"/>
                  </Node>
                </Node>
                <Node pos="r" depth="5" NCoef="0" IVar="-1" Cut="0.0000000000000000e+00" cType="1" res="-5.0850217230618000e-03" rms="2.4687197804450989e-01" purity="6.5703250467777252e-02" nType="-99"/>
              </Node>
            </Node>
            <Node pos="r" depth="3" NCoef="0" IVar="-1" Cut="0.0000000000000000e+00" cType="1" res="-9.9479611963033676e-03" rms="2.4214118719100952e-01" purity="6.4896106719970703e-02" nType="-99"/>
          </Node>
        </Node>
        <Node pos="r" depth="1" NCoef="0" IVar="1" Cut="9.7163480520248413e-01" cType="1" res="1.6484161838889122e-02" rms="4.3055003881454468e-01" purity="7.3477536439895630e-01" nType="0">
          <Node pos="l" depth="2" NCoef="0" IVar="2" Cut="1.8177961730957031e+02" cType="1" res="1.8167445436120033e-02" rms="4.2757418751716614e-01" purity="7.4461549520492554e-01" nType="0">
            <Node pos="l" depth="3" NCoef="0" IVar="5" Cut="2.0000000000000000e+00" cType="1" res="2.0119026303291321e-02" rms="4.2381960153579712e-01" purity="7.5250273942947388e-01" nType="0">
              <Node pos="l" depth="4" NCoef="0" IVar="1" Cut="-2.4023130536079407e-01" cType="1" res="2.2387344390153885e-02" rms="4.0843433141708374e-01" purity="7.8226983547210693e-01" nType="0">
                <Node pos="l" depth="5" NCoef="0" IVar="-1" Cut="0.0000000000000000e+00" cType="1" res="6.8775878753513098e-04" rms="4.1959452629089355e-01" purity="7.6686263084411621e-01" nType="-99"/>
                <Node pos="r" depth="5" NCoef="0" IVar="1" Cut="4.2432719469070435e-01" cType="1" res="2.3483334109187126e-02" rms="4.0760710835456848e-01" purity="7.8336507081985474e-01" nType="0">
                  <Node pos="l" depth="6" NCoef="0" IVar="1" Cut="1.7003422603011131e-02" cType="1" res="2.5281848385930061e-02" rms="4.0195369720458984e-01" purity="7.9328507184982300e-01" nType="0">
                    <Node pos="l" depth="7" NCoef="0" IVar="-1" Cut="0.0000000000000000e+00" cType="1" res="3.1504374928772449e-03" rms="3.9361807703971863e-01" purity="8.0489146709442139e-01" nType="-99"/>
                    <Node pos="r" depth="7" NCoef="0" IVar="-1" Cut="0.0000000000000000e+00" cType="1" res="2.3220672737807035e-03" rms="4.1200470924377441e-01" purity="7.7892851829528809e-01" nType="-99"/>
                  </Node>
                  <Node pos="r" depth="6" NCoef="0" IVar="1" Cut="5.4791134595870972e-01" cType="1" res="9.8691415041685104e-03" rms="4.4786003232002258e-01" purity="7.0827406644821167e-01" nType="0">
                    <Node pos="l" depth="7" NCoef="0" IVar="-1" Cut="0.0000000000000000e+00" cType="1" res="1.1834538308903575e-03" rms="4.3716037273406982e-01" purity="7.3433077335357666e-01" nType="-99"/>
                    <Node pos="r" depth="7" NCoef="0" IVar="-1" Cut="0.0000000000000000e+00" cType="1" res="7.2996329981833696e-04" rms="4.5493698120117188e-01" purity="6.9067507982254028e-01" nType="-99"/>
                  </Node>
                </Node>
              </Node>
              <Node pos="r" depth="4" NCoef="0" IVar="4" Cut="1.9785692915320396e-02" cType="1" res="1.4601285569369793e-02" rms="4.5660638809204102e-01" purity="6.9070309400558472e-01" nType="0">
                <Node pos="l" depth="5" NCoef="0" IVar="4" Cut="1.4052722603082657e-02" cType="1" res="1.5882399166002870e-03" rms="4.6370103955268860e-01" purity="6.7192977666854858e-01" nType="0">
                  <Node pos="l" depth="6" NCoef="0" IVar="-1" Cut="0.0000000000000000e+00" cType="1" res="-8.9253397891297936e-04" rms="4.6880340576171875e-01" purity="6.5788978338241577e-01" nType="-99"/>
                  <Node pos="r" depth="6" NCoef="0" IVar="-1" Cut="0.0000000000000000e+00" cType="1" res="1.2531138490885496e-03" rms="4.5799803733825684e-01" purity="6.8672311305999756e-01" nType="-99"/>
                </Node>
                <Node pos="r" depth="5" NCoef="0" IVar="2" Cut="8.2266311645507812e+01" cType="1" res="1.7402239143848419e-02" rms="4.5501619577407837e-01" purity="6.9474393129348755e-01" nType="0">
                  <Node pos="l" depth="6" NCoef="0" IVar="3" Cut="8.4776926040649414e-01" cType="1" res="2.2305397316813469e-02" rms="4.5111134648323059e-01" purity="7.0510238409042358e-01" nType="0">
                    <Node pos="l" depth="7" NCoef="0" IVar="-1" Cut="0.0000000000000000e+00" cType="1" res="1.1546367313712835e-03" rms="4.7002038359642029e-01" purity="6.6175323724746704e-01" nType="-99"/>
                    <Node pos="r" depth="7" NCoef="0" IVar="-1" Cut="0.0000000000000000e+00" cType="1" res="3.0564684420824051e-03" rms="4.3272116780281067e-01" purity="7.4522131681442261e-01" nType="-99"/>
                  </Node>
                  <Node pos="r" depth="6" NCoef="0" IVar="1" Cut="1.2509627640247345e-01" cType="1" res="1.2381360866129398e-02" rms="4.5892608165740967e-01" purity="6.8413680791854858e-01" nType="0">
                    <Node pos="l" depth="7" NCoef="0" IVar="-1" Cut="0.0000000000000000e+00" cType="1" res="7.5032626045867801e-04" rms="4.5449757575988770e-01" purity="6.9853603839874268e-01" nType="-99"/>
                    <Node pos="r" depth="7" NCoef="0" IVar="-1" Cut="0.0000000000000000e+00" cType="1" res="1.9172417232766747e-03" rms="4.6664792299270630e-01" purity="6.5827715396881104e-01" nType="-99"/>
                  </Node>
                </Node>
              </Node>
            </Node>
            <Node pos="r" depth="3" NCoef="0" IVar="4" Cut="5.4459836333990097e-02" cType="1" res="-9.2861298471689224e-03" rms="4.7085577249526978e-01" purity="6.1639511585235596e-01" nType="0">
              <Node pos="l" depth="4" NCoef="0" IVar="-1" Cut="0.0000000000000000e+00" cType="1" res="3.8202977157197893e-04" rms="4.6494907140731812e-01" purity="6.6238498687744141e-01" nType="-99"/>
              <Node pos="r" depth="4" NCoef="0" IVar="-1" Cut="0.0000000000000000e+00" cType="1" res="-1.6970246797427535e-03" rms="4.7459560632705688e-01" purity="5.8539956808090210e-01" nType="-99"/>
            </Node>
          </Node>
          <Node pos="r" depth="2" NCoef="0" IVar="3" Cut="9.6560895442962646e-01" cType="1" res="-1.7692657187581062e-02" rms="4.8579472303390503e-01" purity="5.3498518466949463e-01" nType="0">
            <Node pos="l" depth="3" NCoef="0" IVar="-1" Cut="0.0000000000000000e+00" cType="1" res="-3.1465552747249603e-03" rms="4.9265542626380920e-01" purity="4.5266553759574890e-01" nType="-99"/>
            <Node pos="r" depth="3" NCoef="0" IVar="-1" Cut="0.0000000000000000e+00" cType="1" res="-3.8316173595376313e-04" rms="4.8031461238861084e-01" purity="5.9486073255538940e-01" nType="-99"/>
          </Node>
        </Node>
      </Node>
    </BinaryTree>
    <BinaryTree type="DecisionTree" boostWeight="1.0000000000000000e+00" itree="69">
      <Node pos="s" depth="0" NCoef="0" IVar="3" Cut="7.1422064304351807e-01" cType="1" res="7.1198665536940098e-03" rms="4.1050830483436584e-01" purity="5.0117850303649902e-01" nType="0">
        <Node pos="l" depth="1" NCoef="0" IVar="3" Cut="6.6907471418380737e-01" cType="1" res="-5.4624248296022415e-03" rms="3.7281113862991333e-01" purity="2.1277512609958649e-01" nType="0">
          <Node pos="l" depth="2" NCoef="0" IVar="4" Cut="2.5895297527313232e-02" cType="1" res="-7.2829881682991982e-03" rms="3.5816586017608643e-01" purity="1.8366521596908569e-01" nType="0">
            <Node pos="l" depth="3" NCoef="0" IVar="3" Cut="4.8064258694648743e-01" cType="1" res="-2.8558474034070969e-02" rms="3.4168875217437744e-01" purity="1.6345851123332977e-01" nType="0">
              <Node pos="l" depth="4" NCoef="0" IVar="-1" Cut="0.0000000000000000e+00" cType="1" res="-9.1985901817679405e-03" rms="2.2990085184574127e-01" purity="5.7522531598806381e-02" nType="-99"/>
              <Node pos="r" depth="4" NCoef="0" IVar="-1" Cut="0.0000000000000000e+00" cType="1" res="-3.8770120590925217e-03" rms="4.2538028955459595e-01" purity="2.6994097232818604e-01" nType="-99"/>
            </Node>
            <Node pos="r" depth="3" NCoef="0" IVar="2" Cut="1.4579092407226562e+02" cType="1" res="-6.1151445843279362e-03" rms="3.5901191830635071e-01" purity="1.8477438390254974e-01" nType="0">
              <Node pos="l" depth="4" NCoef="0" IVar="1" Cut="8.3052849769592285e-01" cType="1" res="9.4263005303218961e-04" rms="3.7628626823425293e-01" purity="2.1859380602836609e-01" nType="0">
                <Node pos="l" depth="5" NCoef="0" IVar="1" Cut="-1.7501799389719963e-02" cType="1" res="5.8348691090941429e-03" rms="4.0003275871276855e-01" purity="2.5411224365234375e-01" nType="0">
                  <Node pos="l" depth="6" NCoef="0" IVar="4" Cut="6.8076990544795990e-02" cType="1" res="2.5013718754053116e-02" rms="4.4319307804107666e-01" purity="3.4121406078338623e-01" nType="0">
                    <Node pos="l" depth="7" NCoef="0" IVar="-1" Cut="0.0000000000000000e+00" cType="1" res="1.7503895796835423e-03" rms="4.3165665864944458e-01" purity="3.0828836560249329e-01" nType="-99"/>
                    <Node pos="r" depth="7" NCoef="0" IVar="-1" Cut="0.0000000000000000e+00" cType="1" res="3.8858416955918074e-03" rms="4.5367312431335449e-01" purity="3.7260875105857849e-01" nType="-99"/>
                  </Node>
                  <Node pos="r" depth="6" NCoef="0" IVar="2" Cut="6.1205760955810547e+01" cType="1" res="-3.1102492939680815e-03" rms="3.7788930535316467e-01" purity="2.1348752081394196e-01" nType="0">
                    <Node pos="l" depth="7" NCoef="0" IVar="-1" Cut="0.0000000000000000e+00" cType="1" res="2.9517638031393290e-03" rms="4.0922072529792786e-01" purity="2.6385706663131714e-01" nType="-99"/>
                    <Node pos="r" depth="7" NCoef="0" IVar="-1" Cut="0.0000000000000000e+00" cType="1" res="-1.6227292362600565e-03" rms="3.6873662471771240e-01" purity="1.9994187355041504e-01" nType="-99"/>
                  </Node>
                </Node>
                <Node pos="r" depth="5" NCoef="0" IVar="0" Cut="1.9173618555068970e+00" cType="1" res="-1.7898863181471825e-02" rms="2.6485085487365723e-01" purity="8.1801451742649078e-02" nType="0">
                  <Node pos="l" depth="6" NCoef="0" IVar="-1" Cut="0.0000000000000000e+00" cType="1" res="-5.8637904003262520e-03" rms="3.0448964238166809e-01" purity="1.1143241822719574e-01" nType="-99"/>
                  <Node pos="r" depth="6" NCoef="0" IVar="-1" Cut="0.0000000000000000e+00" cType="1" res="-5.8985492214560509e-03" rms="2.0472614467144012e-01" purity="4.4877897948026657e-02" nType="-99"/>
                </Node>
              </Node>
              <Node pos="r" depth="4" NCoef="0" IVar="4" Cut="1.8189984560012817e-01" cType="1" res="-9.2067802324891090e-03" rms="3.5113275051116943e-01" purity="1.6995988786220551e-01" nType="0">
                <Node pos="l" depth="5" NCoef="0" IVar="5" Cut="4.0000000000000000e+00" cType="1" res="-1.2263736687600613e-02" rms="3.4545254707336426e-01" purity="1.6850949823856354e-01" nType="0">
                  <Node pos="l" depth="6" NCoef="0" IVar="4" Cut="1.1691459268331528e-01" cType="1" res="-1.9265525043010712e-02" rms="3.9857813715934753e-01" purity="2.3081088066101074e-01" nType="0">
                    <Node pos="l" depth="7" NCoef="0" IVar="-1" Cut="0.0000000000000000e+00" cType="1" res="-3.8285378832370043e-03" rms="3.8286635279655457e-01" purity="2.0714347064495087e-01" nType="-99"/>
                    <Node pos="r" depth="7" NCoef="0" IVar="-1" Cut="0.0000000000000000e+00" cType="1" res="-1.3621919788420200e-03" rms="4.2210611701011658e-01" purity="2.6828449964523315e-01" nType="-99"/>
                  </Node>
                  <Node pos="r" depth="6" NCoef="0" IVar="3" Cut="4.8068809509277344e-01" cType="1" res="-9.0677049010992050e-03" rms="3.1717887520790100e-01" purity="1.3823951780796051e-01" nType="0">
                    <Node pos="l" depth="7" NCoef="0" IVar="-1" Cut="0.0000000000000000e+00" cType="1" res="-5.4073575884103775e-03" rms="2.5137799978256226e-01" purity="7.2131305932998657e-02" nType="-99"/>
                    <Node pos="r" depth="7" NCoef="0" IVar="-1" Cut="0.0000000000000000e+00" cType="1" res="9.4456085935235023e-04" rms="4.5027202367782593e-01" purity="3.1944480538368225e-01" nType="-99"/>
                  </Node>
                </Node>
                <Node pos="r" depth="5" NCoef="0" IVar="2" Cut="6.9921154785156250e+02" cType="1" res="3.2043361570686102e-03" rms="3.7033957242965698e-01" purity="1.7559304833412170e-01" nType="0">
                  <Node pos="l" depth="6" NCoef="0" IVar="3" Cut="2.8855586051940918e-01" cType="1" res="1.2904039584100246e-02" rms="3.7898659706115723e-01" purity="1.8759222328662872e-01" nType="0">
                    <Node pos="l" depth="7" NCoef="0" IVar="-1" Cut="0.0000000000000000e+00" cType="1" res="1.3542526867240667e-03" rms="3.4300598502159119e-01" purity="1.4670440554618835e-01" nType="-99"/>
                    <Node pos="r" depth="7" NCoef="0" IVar="-1" Cut="0.0000000000000000e+00" cType="1" res="3.2566983718425035e-03" rms="4.1679742932319641e-01" purity="2.3515212535858154e-01" nType="-99"/>
                  </Node>
                  <Node pos="r" depth="6" NCoef="0" IVar="4" Cut="2.4446097016334534e-01" cType="1" res="-1.1401337571442127e-02" rms="3.5642632842063904e-01" purity="1.5752483904361725e-01" nType="0">
                    <Node pos="l" depth="7" NCoef="0" IVar="-1" Cut="0.0000000000000000e+00" cType="1" res="-4.5353565365076065e-03" rms="3.3505403995513916e-01" purity="1.3347412645816803e-01" nType="-99"/>
                    <Node pos="r" depth="7" NCoef="0" IVar="-1" Cut="0.0000000000000000e+00" cType="1" res="-2.4205502995755523e-04" rms="3.7534630298614502e-01" purity="1.8039558827877045e-01" nType="-99"/>
                  </Node>
                </Node>
              </Node>
            </Node>
          </Node>
          <Node pos="r" depth="2" NCoef="0" IVar="4" Cut="6.4334876835346222e-02" cType="1" res="1.1542869731783867e-02" rms="4.8853170871734619e-01" purity="4.8468163609504700e-01" nType="0">
            <Node pos="l" depth="3" NCoef="0" IVar="-1" Cut="0.0000000000000000e+00" cType="1" res="-1.8105727212969214e-04" rms="4.8559445142745972e-01" purity="4.4762954115867615e-01" nType="-99"/>
            <Node pos="r" depth="3" NCoef="0" IVar="2" Cut="2.2160221862792969e+02" cType="1" res="2.3836318403482437e-02" rms="4.9086675047874451e-01" purity="5.1840382814407349e-01" nType="0">
              <Node pos="l" depth="4" NCoef="0" IVar="-1" Cut="0.0000000000000000e+00" cType="1" res="2.7176511939615011e-03" rms="4.8918047547340393e-01" purity="5.5441880226135254e-01" nType="-99"/>
              <Node pos="r" depth="4" NCoef="0" IVar="-1" Cut="0.0000000000000000e+00" cType="1" res="1.2598301982507110e-03" rms="4.9252790212631226e-01" purity="4.7863680124282837e-01" nType="-99"/>
            </Node>
          </Node>
        </Node>
        <Node pos="r" depth="1" NCoef="0" IVar="4" Cut="9.0138100087642670e-02" cType="1" res="1.6563855111598969e-02" rms="4.3643188476562500e-01" purity="7.1764761209487915e-01" nType="0">
          <Node pos="l" depth="2" NCoef="0" IVar="3" Cut="9.9618846178054810e-01" cType="1" res="1.7665157094597816e-02" rms="4.3551313877105713e-01" purity="7.2189170122146606e-01" nType="0">
            <Node pos="l" depth="3" NCoef="0" IVar="1" Cut="9.6670395135879517e-01" cType="1" res="1.3891506940126419e-02" rms="4.5139956474304199e-01" purity="6.8634325265884399e-01" nType="0">
              <Node pos="l" depth="4" NCoef="0" IVar="4" Cut="4.3613843619823456e-02" cType="1" res="1.5188500285148621e-02" rms="4.4945019483566284e-01" purity="6.9650280475616455e-01" nType="0">
                <Node pos="l" depth="5" NCoef="0" IVar="2" Cut="6.6315025329589844e+01" cType="1" res="1.2800907716155052e-02" rms="4.4145929813385010e-01" purity="7.1559405326843262e-01" nType="0">
                  <Node pos="l" depth="6" NCoef="0" IVar="0" Cut="2.3563739657402039e-01" cType="1" res="1.6550032421946526e-02" rms="4.3483066558837891e-01" purity="7.3301661014556885e-01" nType="0">
                    <Node pos="l" depth="7" NCoef="0" IVar="-1" Cut="0.0000000000000000e+00" cType="1" res="1.5236460603773594e-03" rms="4.2932677268981934e-01" purity="7.4795752763748169e-01" nType="-99"/>
                    <Node pos="r" depth="7" NCoef="0" IVar="-1" Cut="0.0000000000000000e+00" cType="1" res="2.8232038021087646e-03" rms="4.8135480284690857e-01" purity="5.9822273254394531e-01" nType="-99"/>
                  </Node>
                  <Node pos="r" depth="6" NCoef="0" IVar="3" Cut="8.6262756586074829e-01" cType="1" res="7.9964468022808433e-04" rms="4.6183443069458008e-01" purity="6.5982276201248169e-01" nType="0">
                    <Node pos="l" depth="7" NCoef="0" IVar="-1" Cut="0.0000000000000000e+00" cType="1" res="-1.4368868432939053e-03" rms="4.8336392641067505e-01" purity="5.8740246295928955e-01" nType="-99"/>
                    <Node pos="r" depth="7" NCoef="0" IVar="-1" Cut="0.0000000000000000e+00" cType="1" res="1.8198387697339058e-03" rms="4.3927133083343506e-01" purity="7.3038607835769653e-01" nType="-99"/>
                  </Node>
                </Node>
                <Node pos="r" depth="5" NCoef="0" IVar="1" Cut="2.3231640458106995e-01" cType="1" res="2.1125458180904388e-02" rms="4.6867746114730835e-01" purity="6.4903092384338379e-01" nType="0">
                  <Node pos="l" depth="6" NCoef="0" IVar="2" Cut="8.6751197814941406e+01" cType="1" res="2.4790309369564056e-02" rms="4.6422430872917175e-01" purity="6.6995555162429810e-01" nType="0">
                    <Node pos="l" depth="7" NCoef="0" IVar="-1" Cut="0.0000000000000000e+00" cType="1" res="3.2013531308621168e-03" rms="4.5202681422233582e-01" purity="7.0831197500228882e-01" nType="-99"/>
                    <Node pos="r" depth="7" NCoef="0" IVar="-1" Cut="0.0000000000000000e+00" cType="1" res="1.7279899911954999e-03" rms="4.6952506899833679e-01" purity="6.5256279706954956e-01" nType="-99"/>
                  </Node>
                  <Node pos="r" depth="6" NCoef="0" IVar="2" Cut="1.7986759948730469e+02" cType="1" res="9.9385455250740051e-03" rms="4.8184379935264587e-01" purity="5.8515864610671997e-01" nType="0">
                    <Node pos="l" depth="7" NCoef="0" IVar="-1" Cut="0.0000000000000000e+00" cType="1" res="2.6646774495020509e-04" rms="4.8077026009559631e-01" purity="5.9199410676956177e-01" nType="-99"/>
                    <Node pos="r" depth="7" NCoef="0" IVar="-1" Cut="0.0000000000000000e+00" cType="1" res="1.6941453795880079e-03" rms="4.8307180404663086e-01" purity="5.7645261287689209e-01" nType="-99"/>
                  </Node>
                </Node>
              </Node>
              <Node pos="r" depth="4" NCoef="0" IVar="-1" Cut="0.0000000000000000e+00" cType="1" res="-1.1447479482740164e-03" rms="4.8913297057151794e-01" purity="4.7667860984802246e-01" nType="-99"/>
            </Node>
            <Node pos="r" depth="3" NCoef="0" IVar="3" Cut="1.0273743867874146e+00" cType="1" res="2.4239012971520424e-02" rms="4.0627390146255493e-01" purity="7.8381878137588501e-01" nType="0">
              <Node pos="l" depth="4" NCoef="0" IVar="3" Cut="1.0002129077911377e+00" cType="1" res="2.5326713919639587e-02" rms="4.0521773695945740e-01" purity="7.8577631711959839e-01" nType="0">
                <Node pos="l" depth="5" NCoef="0" IVar="3" Cut="9.9722737073898315e-01" cType="1" res="1.9103800877928734e-02" rms="4.1208103299140930e-01" purity="7.7381116151809692e-01" nType="0">
                  <Node pos="l" depth="6" NCoef="0" IVar="-1" Cut="0.0000000000000000e+00" cType="1" res="2.9627587646245956e-03" rms="4.0590509772300720e-01" purity="7.8255760669708252e-01" nType="-99"/>
                  <Node pos="r" depth="6" NCoef="0" IVar="1" Cut="3.1614252924919128e-01" cType="1" res="1.6790535300970078e-02" rms="4.1385960578918457e-01" purity="7.7122724056243896e-01" nType="0">
                    <Node pos="l" depth="7" NCoef="0" IVar="-1" Cut="0.0000000000000000e+00" cType="1" res="2.1212375722825527e-03" rms="4.0177491307258606e-01" purity="7.9337292909622192e-01" nType="-99"/>
                    <Node pos="r" depth="7" NCoef="0" IVar="-1" Cut="0.0000000000000000e+00" cType="1" res="9.3444954836741090e-04" rms="4.4774433970451355e-01" purity="7.0549327135086060e-01" nType="-99"/>
                  </Node>
                </Node>
                <Node pos="r" depth="5" NCoef="0" IVar="1" Cut="4.1220322251319885e-01" cType="1" res="2.9104627668857574e-02" rms="4.0094661712646484e-01" purity="7.9304033517837524e-01" nType="0">
                  <Node pos="l" depth="6" NCoef="0" IVar="3" Cut="1.0028415918350220e+00" cType="1" res="2.7229627594351768e-02" rms="3.9303642511367798e-01" purity="8.0646288394927979e-01" nType="0">
                    <Node pos="l" depth="7" NCoef="0" IVar="-1" Cut="0.0000000000000000e+00" cType="1" res="2.6469251606613398e-03" rms="3.9649769663810730e-01" purity="8.0150800943374634e-01" nType="-99"/>
                    <Node pos="r" depth="7" NCoef="0" IVar="-1" Cut="0.0000000000000000e+00" cType="1" res="3.2110158354043961e-03" rms="3.9106598496437073e-01" purity="8.0925196409225464e-01" nType="-99"/>
                  </Node>
                  <Node pos="r" depth="6" NCoef="0" IVar="-1" Cut="0.0000000000000000e+00" cType="1" res="3.3746217377483845e-03" rms="4.3926852941513062e-01" purity="7.2398936748504639e-01" nType="-99"/>
                </Node>
              </Node>
              <Node pos="r" depth="4" NCoef="0" IVar="-1" Cut="0.0000000000000000e+00" cType="1" res="1.8635331653058529e-03" rms="4.1212880611419678e-01" purity="7.7277314662933350e-01" nType="-99"/>
            </Node>
          </Node>
          <Node pos="r" depth="2" NCoef="0" IVar="-1" Cut="0.0000000000000000e+00" cType="1" res="-3.6231169942766428e-03" rms="4.7820767760276794e-01" purity="4.9761402606964111e-01" nType="-99"/>
        </Node>
      </Node>
    </BinaryTree>
    <BinaryTree type="DecisionTree" boostWeight="1.0000000000000000e+00" itree="70">
      <Node pos="s" depth="0" NCoef="0" IVar="3" Cut="6.5137040615081787e-01" cType="1" res="5.7231248356401920e-03" rms="4.1047886013984680e-01" purity="5.0033700466156006e-01" nType="0">
        <Node pos="l" depth="1" NCoef="0" IVar="3" Cut="1.3505661487579346e-01" cType="1" res="-7.6252012513577938e-03" rms="3.5160467028617859e-01" purity="1.7272113263607025e-01" nType="0">
          <Node pos="l" depth="2" NCoef="0" IVar="-1" Cut="0.0000000000000000e+00" cType="1" res="4.4433018192648888e-03" rms="3.1885552406311035e-01" purity="1.3190783560276031e-01" nType="-99"/>
          <Node pos="r" depth="2" NCoef="0" IVar="2" Cut="1.2726118469238281e+02" cType="1" res="-8.5546122863888741e-03" rms="3.5278037190437317e-01" purity="1.7430347204208374e-01" nType="0">
            <Node pos="l" depth="3" NCoef="0" IVar="4" Cut="5.7588722556829453e-02" cType="1" res="-5.5631902068853378e-04" rms="3.6886796355247498e-01" purity="2.0263023674488068e-01" nType="0">
              <Node pos="l" depth="4" NCoef="0" IVar="4" Cut="3.1718559563159943e-02" cType="1" res="-1.0132661089301109e-02" rms="3.4942319989204407e-01" purity="1.7200616002082825e-01" nType="0">
                <Node pos="l" depth="5" NCoef="0" IVar="0" Cut="1.1034090518951416e+00" cType="1" res="-2.1097786724567413e-02" rms="3.3984911441802979e-01" purity="1.5435749292373657e-01" nType="0">
                  <Node pos="l" depth="6" NCoef="0" IVar="-1" Cut="0.0000000000000000e+00" cType="1" res="-4.0924367494881153e-03" rms="4.0255495905876160e-01" purity="2.2702500224113464e-01" nType="-99"/>
                  <Node pos="r" depth="6" NCoef="0" IVar="-1" Cut="0.0000000000000000e+00" cType="1" res="-4.2706010863184929e-03" rms="2.3529733717441559e-01" purity="6.0836128890514374e-02" nType="-99"/>
                </Node>
                <Node pos="r" depth="5" NCoef="0" IVar="3" Cut="4.5161208510398865e-01" cType="1" res="-7.0253480225801468e-04" rms="3.5718283057212830e-01" purity="1.8718422949314117e-01" nType="0">
                  <Node pos="l" depth="6" NCoef="0" IVar="-1" Cut="0.0000000000000000e+00" cType="1" res="-7.0687457919120789e-03" rms="2.2367970645427704e-01" purity="5.4421763867139816e-02" nType="-99"/>
                  <Node pos="r" depth="6" NCoef="0" IVar="-1" Cut="0.0000000000000000e+00" cType="1" res="1.4295910950750113e-03" rms="4.3760478496551514e-01" purity="2.9718321561813354e-01" nType="-99"/>
                </Node>
              </Node>
              <Node pos="r" depth="4" NCoef="0" IVar="2" Cut="9.2985466003417969e+01" cType="1" res="1.0665860958397388e-02" rms="3.9012512564659119e-01" purity="2.3851752281188965e-01" nType="0">
                <Node pos="l" depth="5" NCoef="0" IVar="3" Cut="5.1816481351852417e-01" cType="1" res="2.6683799922466278e-02" rms="4.0112423896789551e-01" purity="2.6305723190307617e-01" nType="0">
                  <Node pos="l" depth="6" NCoef="0" IVar="-1" Cut="0.0000000000000000e+00" cType="1" res="2.9253582470118999e-03" rms="3.3048498630523682e-01" purity="1.3827502727508545e-01" nType="-99"/>
                  <Node pos="r" depth="6" NCoef="0" IVar="-1" Cut="0.0000000000000000e+00" cType="1" res="4.3462044559419155e-03" rms="4.8258608579635620e-01" purity="4.3876257538795471e-01" nType="-99"/>
                </Node>
                <Node pos="r" depth="5" NCoef="0" IVar="4" Cut="8.9469894766807556e-02" cType="1" res="-5.7489997707307339e-03" rms="3.7781810760498047e-01" purity="2.1336974203586578e-01" nType="0">
                  <Node pos="l" depth="6" NCoef="0" IVar="-1" Cut="0.0000000000000000e+00" cType="1" res="-2.4009060580283403e-03" rms="3.5408687591552734e-01" purity="1.8284399807453156e-01" nType="-99"/>
                  <Node pos="r" depth="6" NCoef="0" IVar="-1" Cut="0.0000000000000000e+00" cType="1" res="-3.4972483263118193e-05" rms="3.9460965991020203e-01" purity="2.3628953099250793e-01" nType="-99"/>
                </Node>
              </Node>
            </Node>
            <Node pos="r" depth="3" NCoef="0" IVar="4" Cut="1.4295569062232971e-01" cType="1" res="-1.1828863993287086e-02" rms="3.4592553973197937e-01" purity="1.6270737349987030e-01" nType="0">
              <Node pos="l" depth="4" NCoef="0" IVar="5" Cut="4.0000000000000000e+00" cType="1" res="-1.4590364880859852e-02" rms="3.3467468619346619e-01" purity="1.5539029240608215e-01" nType="0">
                <Node pos="l" depth="5" NCoef="0" IVar="3" Cut="5.6813168525695801e-01" cType="1" res="-2.1549457684159279e-02" rms="3.8237556815147400e-01" purity="2.0546787977218628e-01" nType="0">
                  <Node pos="l" depth="6" NCoef="0" IVar="4" Cut="9.2374041676521301e-02" cType="1" res="-2.5972597301006317e-02" rms="3.1193447113037109e-01" purity="1.1716019362211227e-01" nType="0">
                    <Node pos="l" depth="7" NCoef="0" IVar="-1" Cut="0.0000000000000000e+00" cType="1" res="-9.4858258962631226e-03" rms="2.6874390244483948e-01" purity="8.1034250557422638e-02" nType="-99"/>
                    <Node pos="r" depth="7" NCoef="0" IVar="-1" Cut="0.0000000000000000e+00" cType="1" res="-3.5820456687361002e-03" rms="3.4570109844207764e-01" purity="1.4933760464191437e-01" nType="-99"/>
                  </Node>
                  <Node pos="r" depth="6" NCoef="0" IVar="0" Cut="4.9723044037818909e-01" cType="1" res="-1.5842644497752190e-02" rms="4.5744422078132629e-01" purity="3.1940400600433350e-01" nType="0">
                    <Node pos="l" depth="7" NCoef="0" IVar="-1" Cut="0.0000000000000000e+00" cType="1" res="-2.2626228164881468e-03" rms="4.7940951585769653e-01" purity="3.7245890498161316e-01" nType="-99"/>
                    <Node pos="r" depth="7" NCoef="0" IVar="-1" Cut="0.0000000000000000e+00" cType="1" res="-8.5154117550700903e-04" rms="4.2714309692382812e-01" purity="2.5069656968116760e-01" nType="-99"/>
                  </Node>
                </Node>
                <Node pos="r" depth="5" NCoef="0" IVar="3" Cut="5.0147646665573120e-01" cType="1" res="-1.1272967793047428e-02" rms="3.1032747030258179e-01" purity="1.3145560026168823e-01" nType="0">
                  <Node pos="l" depth="6" NCoef="0" IVar="2" Cut="4.5008129882812500e+02" cType="1" res="-1.6519138589501381e-02" rms="2.4259065091609955e-01" purity="6.6783271729946136e-02" nType="0">
                    <Node pos="l" depth="7" NCoef="0" IVar="-1" Cut="0.0000000000000000e+00" cType="1" res="-5.4832012392580509e-03" rms="2.4374632537364960e-01" purity="6.7818522453308105e-02" nType="-99"/>
                    <Node pos="r" depth="7" NCoef="0" IVar="-1" Cut="0.0000000000000000e+00" cType="1" res="-9.1799320653080940e-03" rms="2.3515489697456360e-01" purity="6.0521516948938370e-02" nType="-99"/>
                  </Node>
                  <Node pos="r" depth="6" NCoef="0" IVar="4" Cut="9.6531271934509277e-02" cType="1" res="4.1741426102817059e-03" rms="4.5416066050529480e-01" purity="3.2188034057617188e-01" nType="0">
                    <Node pos="l" depth="7" NCoef="0" IVar="-1" Cut="0.0000000000000000e+00" cType="1" res="-4.1366016375832260e-04" rms="4.4128504395484924e-01" purity="2.9399603605270386e-01" nType="-99"/>
                    <Node pos="r" depth="7" NCoef="0" IVar="-1" Cut="0.0000000000000000e+00" cType="1" res="1.6021922929212451e-03" rms="4.7141373157501221e-01" purity="3.6097404360771179e-01" nType="-99"/>
                  </Node>
                </Node>
              </Node>
              <Node pos="r" depth="4" NCoef="0" IVar="2" Cut="2.4612934875488281e+02" cType="1" res="-6.6045494750142097e-03" rms="3.6498254537582397e-01" purity="1.7652063071727753e-01" nType="0">
                <Node pos="l" depth="5" NCoef="0" IVar="-1" Cut="0.0000000000000000e+00" cType="1" res="1.6627530567348003e-03" rms="3.8804987072944641e-01" purity="2.1990950405597687e-01" nType="-99"/>
                <Node pos="r" depth="5" NCoef="0" IVar="2" Cut="8.0207800292968750e+02" cType="1" res="-1.0638415813446045e-02" rms="3.5907688736915588e-01" purity="1.6604876518249512e-01" nType="0">
                  <Node pos="l" depth="6" NCoef="0" IVar="4" Cut="1.6746944189071655e-01" cType="1" res="-7.1014068089425564e-03" rms="3.6105018854141235e-01" purity="1.7042866349220276e-01" nType="0">
                    <Node pos="l" depth="7" NCoef="0" IVar="-1" Cut="0.0000000000000000e+00" cType="1" res="-2.5975718162953854e-03" rms="3.5453227162361145e-01" purity="1.7145273089408875e-01" nType="-99"/>
                    <Node pos="r" depth="7" NCoef="0" IVar="-1" Cut="0.0000000000000000e+00" cType="1" res="-5.6506576947867870e-04" rms="3.6485177278518677e-01" purity="1.6981245577335358e-01" nType="-99"/>
                  </Node>
                  <Node pos="r" depth="6" NCoef="0" IVar="-1" Cut="0.0000000000000000e+00" cType="1" res="-4.5139896683394909e-03" rms="3.5097241401672363e-01" purity="1.4904305338859558e-01" nType="-99"/>
                </Node>
              </Node>
            </Node>
          </Node>
        </Node>
        <Node pos="r" depth="1" NCoef="0" IVar="4" Cut="1.0305189341306686e-01" cType="1" res="1.3616276904940605e-02" rms="4.4142505526542664e-01" purity="6.9406324625015259e-01" nType="0">
          <Node pos="l" depth="2" NCoef="0" IVar="1" Cut="5.6149899959564209e-01" cType="1" res="1.4809215441346169e-02" rms="4.4042509794235229e-01" purity="6.9928652048110962e-01" nType="0">
            <Node pos="l" depth="3" NCoef="0" IVar="3" Cut="8.6157846450805664e-01" cType="1" res="1.7703138291835785e-02" rms="4.3566858768463135e-01" purity="7.1842247247695923e-01" nType="0">
              <Node pos="l" depth="4" NCoef="0" IVar="4" Cut="6.6578626632690430e-02" cType="1" res="1.0948032140731812e-02" rms="4.7933283448219299e-01" purity="6.0220062732696533e-01" nType="0">
                <Node pos="l" depth="5" NCoef="0" IVar="4" Cut="4.5187562704086304e-02" cType="1" res="5.7694367133080959e-03" rms="4.7815626859664917e-01" purity="6.0493040084838867e-01" nType="0">
                  <Node pos="l" depth="6" NCoef="0" IVar="2" Cut="3.4506263732910156e+01" cType="1" res="3.7227233406156301e-04" rms="4.7934335470199585e-01" purity="5.9918880462646484e-01" nType="0">
                    <Node pos="l" depth="7" NCoef="0" IVar="-1" Cut="0.0000000000000000e+00" cType="1" res="1.2203430524095893e-03" rms="4.7791305184364319e-01" purity="6.2806922197341919e-01" nType="-99"/>
                    <Node pos="r" depth="7" NCoef="0" IVar="-1" Cut="0.0000000000000000e+00" cType="1" res="-5.2409473573789001e-04" rms="4.7983494400978088e-01" purity="5.8672392368316650e-01" nType="-99"/>
                  </Node>
                  <Node pos="r" depth="6" NCoef="0" IVar="2" Cut="7.0744789123535156e+01" cType="1" res="1.3103104196488857e-02" rms="4.7644057869911194e-01" purity="6.1273199319839478e-01" nType="0">
                    <Node pos="l" depth="7" NCoef="0" IVar="-1" Cut="0.0000000000000000e+00" cType="1" res="2.0896915812045336e-03" rms="4.7262316942214966e-01" purity="6.5092229843139648e-01" nType="-99"/>
                    <Node pos="r" depth="7" NCoef="0" IVar="-1" Cut="0.0000000000000000e+00" cType="1" res="8.1681832671165466e-04" rms="4.7761014103889465e-01" purity="6.0022431612014771e-01" nType="-99"/>
                  </Node>
                </Node>
                <Node pos="r" depth="5" NCoef="0" IVar="2" Cut="1.0901212310791016e+02" cType="1" res="2.5665353983640671e-02" rms="4.8235750198364258e-01" purity="5.9444296360015869e-01" nType="0">
                  <Node pos="l" depth="6" NCoef="0" IVar="-1" Cut="0.0000000000000000e+00" cType="1" res="3.3678719773888588e-03" rms="4.7318062186241150e-01" purity="6.4494740962982178e-01" nType="-99"/>
                  <Node pos="r" depth="6" NCoef="0" IVar="5" Cut="3.0000000000000000e+00" cType="1" res="1.9396586343646049e-02" rms="4.7963628172874451e-01" purity="5.7603836059570312e-01" nType="0">
                    <Node pos="l" depth="7" NCoef="0" IVar="-1" Cut="0.0000000000000000e+00" cType="1" res="9.9053746089339256e-04" rms="4.8473343253135681e-01" purity="5.7211720943450928e-01" nType="-99"/>
                    <Node pos="r" depth="7" NCoef="0" IVar="-1" Cut="0.0000000000000000e+00" cType="1" res="2.6016179472208023e-03" rms="4.8623293638229370e-01" purity="5.8065748214721680e-01" nType="-99"/>
                  </Node>
                </Node>
              </Node>
              <Node pos="r" depth="4" NCoef="0" IVar="4" Cut="2.9593152925372124e-02" cType="1" res="2.1271109580993652e-02" rms="4.1069164872169495e-01" purity="7.7980953454971313e-01" nType="0">
                <Node pos="l" depth="5" NCoef="0" IVar="3" Cut="9.7594720125198364e-01" cType="1" res="1.9715154543519020e-02" rms="4.0897986292839050e-01" purity="7.8235244750976562e-01" nType="0">
                  <Node pos="l" depth="6" NCoef="0" IVar="1" Cut="-2.2572781890630722e-02" cType="1" res="1.3089818879961967e-02" rms="4.3335905671119690e-01" purity="7.4317747354507446e-01" nType="0">
                    <Node pos="l" depth="7" NCoef="0" IVar="-1" Cut="0.0000000000000000e+00" cType="1" res="2.1458831615746021e-03" rms="4.2121559381484985e-01" purity="7.6533395051956177e-01" nType="-99"/>
                    <Node pos="r" depth="7" NCoef="0" IVar="-1" Cut="0.0000000000000000e+00" cType="1" res="7.1541994111612439e-04" rms="4.4365736842155457e-01" purity="7.2371917963027954e-01" nType="-99"/>
                  </Node>
                  <Node pos="r" depth="6" NCoef="0" IVar="0" Cut="3.0660334229469299e-01" cType="1" res="2.1366868168115616e-02" rms="4.0265530347824097e-01" purity="7.9211890697479248e-01" nType="0">
                    <Node pos="l" depth="7" NCoef="0" IVar="-1" Cut="0.0000000000000000e+00" cType="1" res="2.3254735860973597e-03" rms="3.9901041984558105e-01" purity="8.0037122964859009e-01" nType="-99"/>
                    <Node pos="r" depth="7" NCoef="0" IVar="-1" Cut="0.0000000000000000e+00" cType="1" res="2.7929241769015789e-03" rms="4.7740423679351807e-01" purity="6.0589611530303955e-01" nType="-99"/>
                  </Node>
                </Node>
                <Node pos="r" depth="5" NCoef="0" IVar="2" Cut="8.8566741943359375e+01" cType="1" res="3.4644857048988342e-02" rms="4.2488560080528259e-01" purity="7.5795209407806396e-01" nType="0">
                  <Node pos="l" depth="6" NCoef="0" IVar="-1" Cut="0.0000000000000000e+00" cType="1" res="4.8400145024061203e-03" rms="4.1481935977935791e-01" purity="7.7715194225311279e-01" nType="-99"/>
                  <Node pos="r" depth="6" NCoef="0" IVar="-1" Cut="0.0000000000000000e+00" cType="1" res="2.8502524364739656e-03" rms="4.3151038885116577e-01" purity="7.4469989538192749e-01" nType="-99"/>
                </Node>
              </Node>
            </Node>
            <Node pos="r" depth="3" NCoef="0" IVar="0" Cut="2.4029983580112457e-01" cType="1" res="-8.2161622121930122e-03" rms="4.7595500946044922e-01" purity="5.4703235626220703e-01" nType="0">
              <Node pos="l" depth="4" NCoef="0" IVar="3" Cut="9.9709874391555786e-01" cType="1" res="2.8715860098600388e-03" rms="4.7914516925811768e-01" purity="6.0132193565368652e-01" nType="0">
                <Node pos="l" depth="5" NCoef="0" IVar="4" Cut="3.3233158290386200e-02" cType="1" res="-6.1890166252851486e-03" rms="4.8939353227615356e-01" purity="5.4895448684692383e-01" nType="0">
                  <Node pos="l" depth="6" NCoef="0" IVar="-1" Cut="0.0000000000000000e+00" cType="1" res="-2.3342629428952932e-03" rms="4.8605942726135254e-01" purity="5.6525826454162598e-01" nType="-99"/>
                  <Node pos="r" depth="6" NCoef="0" IVar="-1" Cut="0.0000000000000000e+00" cType="1" res="1.3983858516439795e-03" rms="4.9221903085708618e-01" purity="5.3016877174377441e-01" nType="-99"/>
                </Node>
                <Node pos="r" depth="5" NCoef="0" IVar="-1" Cut="0.0000000000000000e+00" cType="1" res="1.5831304481253028e-03" rms="4.6048131585121155e-01" purity="6.9180279970169067e-01" nType="-99"/>
              </Node>
              <Node pos="r" depth="4" NCoef="0" IVar="-1" Cut="0.0000000000000000e+00" cType="1" res="-4.9386452883481979e-03" rms="4.6154901385307312e-01" purity="3.4490764141082764e-01" nType="-99"/>
            </Node>
          </Node>
          <Node pos="r" depth="2" NCoef="0" IVar="-1" Cut="0.0000000000000000e+00" cType="1" res="-3.3835116773843765e-03" rms="4.8002576828002930e-01" purity="4.6709957718849182e-01" nType="-99"/>
        </Node>
      </Node>
    </BinaryTree>
    <BinaryTree type="DecisionTree" boostWeight="1.0000000000000000e+00" itree="71">
      <Node pos="s" depth="0" NCoef="0" IVar="0" Cut="3.2188844680786133e-01" cType="1" res="4.9369367770850658e-03" rms="4.1123589873313904e-01" purity="4.9965435266494751e-01" nType="0">
        <Node pos="l" depth="1" NCoef="0" IVar="0" Cut="1.0380893014371395e-02" cType="1" res="1.1963045224547386e-02" rms="4.4066619873046875e-01" purity="6.7392706871032715e-01" nType="0">
          <Node pos="l" depth="2" NCoef="0" IVar="2" Cut="3.2896520996093750e+02" cType="1" res="1.4218850992619991e-02" rms="4.3616643548011780e-01" purity="6.9819217920303345e-01" nType="0">
            <Node pos="l" depth="3" NCoef="0" IVar="1" Cut="1.7868930101394653e-01" cType="1" res="1.5215210616588593e-02" rms="4.3377736210823059e-01" purity="7.2031527757644653e-01" nType="0">
              <Node pos="l" depth="4" NCoef="0" IVar="2" Cut="9.5503417968750000e+01" cType="1" res="1.7114195972681046e-02" rms="4.2396643757820129e-01" purity="7.4570792913436890e-01" nType="0">
                <Node pos="l" depth="5" NCoef="0" IVar="1" Cut="-1.9490243494510651e-01" cType="1" res="1.9290521740913391e-02" rms="4.1212159395217896e-01" purity="7.7646523714065552e-01" nType="0">
                  <Node pos="l" depth="6" NCoef="0" IVar="1" Cut="-2.2955977916717529e-01" cType="1" res="6.8985982798039913e-03" rms="4.2083460092544556e-01" purity="7.6366931200027466e-01" nType="0">
                    <Node pos="l" depth="7" NCoef="0" IVar="-1" Cut="0.0000000000000000e+00" cType="1" res="1.0647313902154565e-03" rms="4.2108044028282166e-01" purity="7.6466542482376099e-01" nType="-99"/>
                    <Node pos="r" depth="7" NCoef="0" IVar="-1" Cut="0.0000000000000000e+00" cType="1" res="-2.5200762320309877e-04" rms="4.2011910676956177e-01" purity="7.6136380434036255e-01" nType="-99"/>
                  </Node>
                  <Node pos="r" depth="6" NCoef="0" IVar="1" Cut="1.0637816041707993e-01" cType="1" res="2.1267084404826164e-02" rms="4.1068014502525330e-01" purity="7.7850621938705444e-01" nType="0">
                    <Node pos="l" depth="7" NCoef="0" IVar="-1" Cut="0.0000000000000000e+00" cType="1" res="2.4517981801182032e-03" rms="4.0853586792945862e-01" purity="7.8179419040679932e-01" nType="-99"/>
                    <Node pos="r" depth="7" NCoef="0" IVar="-1" Cut="0.0000000000000000e+00" cType="1" res="1.1284046340733767e-03" rms="4.2605921626091003e-01" purity="7.5418239831924438e-01" nType="-99"/>
                  </Node>
                </Node>
                <Node pos="r" depth="5" NCoef="0" IVar="5" Cut="3.0000000000000000e+00" cType="1" res="-9.2869322543265298e-06" rms="5.2056796848773956e-03" purity="6.2570846080780029e-01" nType="0">
                  <Node pos="l" depth="6" NCoef="0" IVar="3" Cut="8.4675961732864380e-01" cType="1" res="1.6326208133250475e-03" rms="4.5689246058464050e-01" purity="6.8081820011138916e-01" nType="0">
                    <Node pos="l" depth="7" NCoef="0" IVar="-1" Cut="0.0000000000000000e+00" cType="1" res="-6.0111389029771090e-04" rms="4.7694933414459229e-01" purity="6.1509567499160767e-01" nType="-99"/>
                    <Node pos="r" depth="7" NCoef="0" IVar="-1" Cut="0.0000000000000000e+00" cType="1" res="1.0264168959110975e-03" rms="4.3778991699218750e-01" purity="7.4034959077835083e-01" nType="-99"/>
                  </Node>
                  <Node pos="r" depth="6" NCoef="0" IVar="1" Cut="-9.1482572257518768e-02" cType="1" res="1.8094146624207497e-02" rms="4.8069652915000916e-01" purity="5.5104613304138184e-01" nType="0">
                    <Node pos="l" depth="7" NCoef="0" IVar="-1" Cut="0.0000000000000000e+00" cType="1" res="2.9486566781997681e-03" rms="4.8059841990470886e-01" purity="5.8281779289245605e-01" nType="-99"/>
                    <Node pos="r" depth="7" NCoef="0" IVar="-1" Cut="0.0000000000000000e+00" cType="1" res="7.0876377867534757e-04" rms="4.8048171401023865e-01" purity="5.2859538793563843e-01" nType="-99"/>
                  </Node>
                </Node>
              </Node>
              <Node pos="r" depth="4" NCoef="0" IVar="3" Cut="1.0011276006698608e+00" cType="1" res="1.0928677394986153e-02" rms="4.5511743426322937e-01" purity="6.6299706697463989e-01" nType="0">
                <Node pos="l" depth="5" NCoef="0" IVar="2" Cut="4.2442901611328125e+01" cType="1" res="8.0046309158205986e-03" rms="4.6241614222526550e-01" purity="6.3866180181503296e-01" nType="0">
                  <Node pos="l" depth="6" NCoef="0" IVar="3" Cut="9.7042948007583618e-01" cType="1" res="7.0182821946218610e-04" rms="4.4994089007377625e-01" purity="6.9607436656951904e-01" nType="0">
                    <Node pos="l" depth="7" NCoef="0" IVar="-1" Cut="0.0000000000000000e+00" cType="1" res="-2.0190614741295576e-03" rms="4.8057460784912109e-01" purity="5.8982282876968384e-01" nType="-99"/>
                    <Node pos="r" depth="7" NCoef="0" IVar="-1" Cut="0.0000000000000000e+00" cType="1" res="8.6512678535655141e-04" rms="4.3868869543075562e-01" purity="7.3238885402679443e-01" nType="-99"/>
                  </Node>
                  <Node pos="r" depth="6" NCoef="0" IVar="1" Cut="8.0615746974945068e-01" cType="1" res="1.6303479671478271e-02" rms="4.7606042027473450e-01" purity="5.7341849803924561e-01" nType="0">
                    <Node pos="l" depth="7" NCoef="0" IVar="-1" Cut="0.0000000000000000e+00" cType="1" res="8.1118859816342592e-04" rms="4.7318920493125916e-01" purity="5.9337705373764038e-01" nType="-99"/>
                    <Node pos="r" depth="7" NCoef="0" IVar="-1" Cut="0.0000000000000000e+00" cType="1" res="4.0088258683681488e-03" rms="4.8610466718673706e-01" purity="4.9496319890022278e-01" nType="-99"/>
                  </Node>
                </Node>
                <Node pos="r" depth="5" NCoef="0" IVar="1" Cut="4.9331220984458923e-01" cType="1" res="2.2328315302729607e-02" rms="4.2527699470520020e-01" purity="7.5786995887756348e-01" nType="0">
                  <Node pos="l" depth="6" NCoef="0" IVar="-1" Cut="0.0000000000000000e+00" cType="1" res="2.2238753736019135e-03" rms="4.0686661005020142e-01" purity="7.9012376070022583e-01" nType="-99"/>
                  <Node pos="r" depth="6" NCoef="0" IVar="-1" Cut="0.0000000000000000e+00" cType="1" res="2.0566533785313368e-03" rms="4.5141470432281494e-01" purity="7.0961993932723999e-01" nType="-99"/>
                </Node>
              </Node>
            </Node>
            <Node pos="r" depth="3" NCoef="0" IVar="3" Cut="5.2367419004440308e-01" cType="1" res="-1.2621705536730587e-05" rms="4.6873295307159424e-01" purity="3.8219824433326721e-01" nType="0">
              <Node pos="l" depth="4" NCoef="0" IVar="-1" Cut="0.0000000000000000e+00" cType="1" res="1.3423342024907470e-03" rms="4.3896487355232239e-01" purity="2.6977646350860596e-01" nType="-99"/>
              <Node pos="r" depth="4" NCoef="0" IVar="2" Cut="4.2316650390625000e+02" cType="1" res="-7.4407649226486683e-03" rms="4.8864334821701050e-01" purity="4.6205973625183105e-01" nType="0">
                <Node pos="l" depth="5" NCoef="0" IVar="-1" Cut="0.0000000000000000e+00" cType="1" res="2.0425935508683324e-04" rms="4.9169573187828064e-01" purity="5.0460261106491089e-01" nType="-99"/>
                <Node pos="r" depth="5" NCoef="0" IVar="-1" Cut="0.0000000000000000e+00" cType="1" res="-1.6865989891812205e-03" rms="4.8536795377731323e-01" purity="4.1935846209526062e-01" nType="-99"/>
              </Node>
            </Node>
          </Node>
          <Node pos="r" depth="2" NCoef="0" IVar="1" Cut="2.6624229550361633e-01" cType="1" res="-5.0555351190268993e-03" rms="4.7289019823074341e-01" purity="4.9086314439773560e-01" nType="0">
            <Node pos="l" depth="3" NCoef="0" IVar="4" Cut="7.5944595038890839e-02" cType="1" res="5.0672851502895355e-03" rms="4.7433674335479736e-01" purity="5.2606093883514404e-01" nType="0">
              <Node pos="l" depth="4" NCoef="0" IVar="4" Cut="2.2045182064175606e-02" cType="1" res="1.1643921025097370e-02" rms="4.8063567280769348e-01" purity="5.8740228414535522e-01" nType="0">
                <Node pos="l" depth="5" NCoef="0" IVar="-1" Cut="0.0000000000000000e+00" cType="1" res="-1.3994667679071426e-03" rms="4.6877810359001160e-01" purity="6.3362777233123779e-01" nType="-99"/>
                <Node pos="r" depth="5" NCoef="0" IVar="2" Cut="8.3694252014160156e+01" cType="1" res="2.0653089508414268e-02" rms="4.8448282480239868e-01" purity="5.7089006900787354e-01" nType="0">
                  <Node pos="l" depth="6" NCoef="0" IVar="-1" Cut="0.0000000000000000e+00" cType="1" res="3.4062769263982773e-03" rms="4.7868207097053528e-01" purity="6.1170291900634766e-01" nType="-99"/>
                  <Node pos="r" depth="6" NCoef="0" IVar="-1" Cut="0.0000000000000000e+00" cType="1" res="1.0405009379610419e-03" rms="4.8777467012405396e-01" purity="5.4567956924438477e-01" nType="-99"/>
                </Node>
              </Node>
              <Node pos="r" depth="4" NCoef="0" IVar="-1" Cut="0.0000000000000000e+00" cType="1" res="-1.7288442468270659e-03" rms="4.5369717478752136e-01" purity="3.3631905913352966e-01" nType="-99"/>
            </Node>
            <Node pos="r" depth="3" NCoef="0" IVar="-1" Cut="0.0000000000000000e+00" cType="1" res="-3.5400909837335348e-03" rms="4.6762937307357788e-01" purity="3.9194744825363159e-01" nType="-99"/>
          </Node>
        </Node>
        <Node pos="r" depth="1" NCoef="0" IVar="2" Cut="6.9695243835449219e+01" cType="1" res="-7.7208220027387142e-03" rms="3.5170769691467285e-01" purity="1.8569636344909668e-01" nType="0">
          <Node pos="l" depth="2" NCoef="0" IVar="0" Cut="1.5636152029037476e+00" cType="1" res="6.9798417389392853e-03" rms="4.1612768173217773e-01" purity="3.2811170816421509e-01" nType="0">
            <Node pos="l" depth="3" NCoef="0" IVar="2" Cut="4.2714870452880859e+01" cType="1" res="1.4237067662179470e-02" rms="4.4651514291763306e-01" purity="3.9016574621200562e-01" nType="0">
              <Node pos="l" depth="4" NCoef="0" IVar="4" Cut="2.0167050883173943e-02" cType="1" res="2.5078937411308289e-02" rms="4.5754468441009521e-01" purity="4.4617483019828796e-01" nType="0">
                <Node pos="l" depth="5" NCoef="0" IVar="-1" Cut="0.0000000000000000e+00" cType="1" res="1.3570608571171761e-03" rms="4.6387535333633423e-01" purity="4.8448660969734192e-01" nType="-99"/>
                <Node pos="r" depth="5" NCoef="0" IVar="-1" Cut="0.0000000000000000e+00" cType="1" res="4.7773416154086590e-03" rms="4.4527459144592285e-01" purity="3.7726074457168579e-01" nType="-99"/>
              </Node>
              <Node pos="r" depth="4" NCoef="0" IVar="4" Cut="4.6098951250314713e-02" cType="1" res="-1.3451739214360714e-03" rms="4.2968934774398804e-01" purity="3.0966779589653015e-01" nType="0">
                <Node pos="l" depth="5" NCoef="0" IVar="-1" Cut="0.0000000000000000e+00" cType="1" res="-3.9292955771088600e-03" rms="4.1264942288398743e-01" purity="2.6905223727226257e-01" nType="-99"/>
                <Node pos="r" depth="5" NCoef="0" IVar="-1" Cut="0.0000000000000000e+00" cType="1" res="2.8104740194976330e-03" rms="4.4315266609191895e-01" purity="3.4705811738967896e-01" nType="-99"/>
              </Node>
            </Node>
            <Node pos="r" depth="3" NCoef="0" IVar="-1" Cut="0.0000000000000000e+00" cType="1" res="-8.4557700902223587e-03" rms="2.5307679176330566e-01" purity="7.2440586984157562e-02" nType="-99"/>
          </Node>
          <Node pos="r" depth="2" NCoef="0" IVar="3" Cut="7.1570873260498047e-01" cType="1" res="-1.1183687485754490e-02" rms="3.3463972806930542e-01" purity="1.5214924514293671e-01" nType="0">
            <Node pos="l" depth="3" NCoef="0" IVar="4" Cut="8.6632363498210907e-02" cType="1" res="-8.8063878938555717e-03" rms="3.2379394769668579e-01" purity="1.3652719557285309e-01" nType="0">
              <Node pos="l" depth="4" NCoef="0" IVar="2" Cut="3.1389288330078125e+02" cType="1" res="-1.6227379441261292e-02" rms="3.2366374135017395e-01" purity="1.4181672036647797e-01" nType="0">
                <Node pos="l" depth="5" NCoef="0" IVar="4" Cut="7.9419896006584167e-02" cType="1" res="-1.4115413650870323e-02" rms="3.2633599638938904e-01" purity="1.4530685544013977e-01" nType="0">
                  <Node pos="l" depth="6" NCoef="0" IVar="5" Cut="3.0000000000000000e+00" cType="1" res="-1.6729591414332390e-02" rms="3.2191431522369385e-01" purity="1.4088322222232819e-01" nType="0">
                    <Node pos="l" depth="7" NCoef="0" IVar="-1" Cut="0.0000000000000000e+00" cType="1" res="-4.9198605120182037e-03" rms="3.8692787289619446e-01" purity="2.1432636678218842e-01" nType="-99"/>
                    <Node pos="r" depth="7" NCoef="0" IVar="-1" Cut="0.0000000000000000e+00" cType="1" res="-3.1562801450490952e-03" rms="3.1040561199188232e-01" purity="1.2801599502563477e-01" nType="-99"/>
                  </Node>
                  <Node pos="r" depth="6" NCoef="0" IVar="-1" Cut="0.0000000000000000e+00" cType="1" res="6.0532207135111094e-04" rms="3.4836599230766296e-01" purity="1.7685540020465851e-01" nType="-99"/>
                </Node>
                <Node pos="r" depth="5" NCoef="0" IVar="-1" Cut="0.0000000000000000e+00" cType="1" res="-7.9318378120660782e-03" rms="2.9589262604713440e-01" purity="1.0816466808319092e-01" nType="-99"/>
              </Node>
              <Node pos="r" depth="4" NCoef="0" IVar="2" Cut="1.3714276123046875e+02" cType="1" res="-3.7998042535036802e-03" rms="3.2378569245338440e-01" purity="1.3295860588550568e-01" nType="0">
                <Node pos="l" depth="5" NCoef="0" IVar="-1" Cut="0.0000000000000000e+00" cType="1" res="3.8211743813008070e-03" rms="3.7462559342384338e-01" purity="2.0181909203529358e-01" nType="-99"/>
                <Node pos="r" depth="5" NCoef="0" IVar="3" Cut="3.5205268859863281e-01" cType="1" res="-7.2361361235380173e-03" rms="3.1591412425041199e-01" purity="1.2338069081306458e-01" nType="0">
                  <Node pos="l" depth="6" NCoef="0" IVar="4" Cut="1.9682763516902924e-01" cType="1" res="-1.3253355398774147e-02" rms="2.5320091843605042e-01" purity="7.1386367082595825e-02" nType="0">
                    <Node pos="l" depth="7" NCoef="0" IVar="-1" Cut="0.0000000000000000e+00" cType="1" res="-9.3130646273493767e-03" rms="2.0751695334911346e-01" purity="4.5748841017484665e-02" nType="-99"/>
                    <Node pos="r" depth="7" NCoef="0" IVar="-1" Cut="0.0000000000000000e+00" cType="1" res="-3.9731460856273770e-04" rms="3.2823041081428528e-01" purity="1.2477126717567444e-01" nType="-99"/>
                  </Node>
                  <Node pos="r" depth="6" NCoef="0" IVar="4" Cut="1.5606263279914856e-01" cType="1" res="-9.8069191153626889e-05" rms="3.7689143419265747e-01" purity="1.8506018817424774e-01" nType="0">
                    <Node pos="l" depth="7" NCoef="0" IVar="-1" Cut="0.0000000000000000e+00" cType="1" res="-7.2486390126869082e-04" rms="3.7210524082183838e-01" purity="1.8146619200706482e-01" nType="-99"/>
                    <Node pos="r" depth="7" NCoef="0" IVar="-1" Cut="0.0000000000000000e+00" cType="1" res="3.0639215838164091e-03" rms="3.9694085717201233e-01" purity="2.0100124180316925e-01" nType="-99"/>
                  </Node>
                </Node>
              </Node>
            </Node>
            <Node pos="r" depth="3" NCoef="0" IVar="-1" Cut="0.0000000000000000e+00" cType="1" res="-4.6965605579316616e-03" rms="4.7646701335906982e-01" purity="4.0730279684066772e-01" nType="-99"/>
          </Node>
        </Node>
      </Node>
    </BinaryTree>
    <BinaryTree type="DecisionTree" boostWeight="1.0000000000000000e+00" itree="72">
      <Node pos="s" depth="0" NCoef="0" IVar="0" Cut="3.2252913713455200e-01" cType="1" res="5.8230059221386909e-03" rms="4.1070023179054260e-01" purity="5.0079190731048584e-01" nType="0">
        <Node pos="l" depth="1" NCoef="0" IVar="0" Cut="1.7686712741851807e-01" cType="1" res="1.2799323536455631e-02" rms="4.3951746821403503e-01" purity="6.7508637905120850e-01" nType="0">
          <Node pos="l" depth="2" NCoef="0" IVar="3" Cut="9.6749311685562134e-01" cType="1" res="1.5663441270589828e-02" rms="4.3483126163482666e-01" purity="7.0025849342346191e-01" nType="0">
            <Node pos="l" depth="3" NCoef="0" IVar="2" Cut="4.1054617309570312e+02" cType="1" res="1.0553390718996525e-02" rms="4.6204200387001038e-01" purity="6.1386853456497192e-01" nType="0">
              <Node pos="l" depth="4" NCoef="0" IVar="4" Cut="1.2818736955523491e-02" cType="1" res="1.2017142958939075e-02" rms="4.6228435635566711e-01" purity="6.3935911655426025e-01" nType="0">
                <Node pos="l" depth="5" NCoef="0" IVar="4" Cut="4.7134919441305101e-04" cType="1" res="-9.6221733838319778e-04" rms="4.4463512301445007e-01" purity="7.0789510011672974e-01" nType="0">
                  <Node pos="l" depth="6" NCoef="0" IVar="-1" Cut="0.0000000000000000e+00" cType="1" res="2.4482584558427334e-03" rms="4.1905546188354492e-01" purity="7.6434516906738281e-01" nType="-99"/>
                  <Node pos="r" depth="6" NCoef="0" IVar="-1" Cut="0.0000000000000000e+00" cType="1" res="-2.1162475459277630e-03" rms="4.6428710222244263e-01" purity="6.5985220670700073e-01" nType="-99"/>
                </Node>
                <Node pos="r" depth="5" NCoef="0" IVar="1" Cut="-1.7474599182605743e-01" cType="1" res="1.4047177508473396e-02" rms="4.6495145559310913e-01" purity="6.2863981723785400e-01" nType="0">
                  <Node pos="l" depth="6" NCoef="0" IVar="5" Cut="3.0000000000000000e+00" cType="1" res="2.6350568979978561e-02" rms="4.6054458618164062e-01" purity="6.6751891374588013e-01" nType="0">
                    <Node pos="l" depth="7" NCoef="0" IVar="-1" Cut="0.0000000000000000e+00" cType="1" res="1.2333049671724439e-03" rms="4.5066139101982117e-01" purity="7.0460003614425659e-01" nType="-99"/>
                    <Node pos="r" depth="7" NCoef="0" IVar="-1" Cut="0.0000000000000000e+00" cType="1" res="3.9844349958002567e-03" rms="4.7786423563957214e-01" purity="6.0485517978668213e-01" nType="-99"/>
                  </Node>
                  <Node pos="r" depth="6" NCoef="0" IVar="1" Cut="8.0707192420959473e-01" cType="1" res="1.2226369231939316e-02" rms="4.6548980474472046e-01" purity="6.2269800901412964e-01" nType="0">
                    <Node pos="l" depth="7" NCoef="0" IVar="-1" Cut="0.0000000000000000e+00" cType="1" res="9.8546233493834734e-04" rms="4.6381831169128418e-01" purity="6.3443541526794434e-01" nType="-99"/>
                    <Node pos="r" depth="7" NCoef="0" IVar="-1" Cut="0.0000000000000000e+00" cType="1" res="2.9461516533046961e-03" rms="4.8490777611732483e-01" purity="4.7958374023437500e-01" nType="-99"/>
                  </Node>
                </Node>
              </Node>
              <Node pos="r" depth="4" NCoef="0" IVar="4" Cut="1.7573440074920654e-01" cType="1" res="-5.2197333425283432e-03" rms="4.5912632346153259e-01" purity="3.3918613195419312e-01" nType="0">
                <Node pos="l" depth="5" NCoef="0" IVar="-1" Cut="0.0000000000000000e+00" cType="1" res="-1.6801258316263556e-03" rms="4.7194653749465942e-01" purity="3.8662052154541016e-01" nType="-99"/>
                <Node pos="r" depth="5" NCoef="0" IVar="-1" Cut="0.0000000000000000e+00" cType="1" res="1.3108297716826200e-03" rms="4.3986105918884277e-01" purity="2.7196925878524780e-01" nType="-99"/>
              </Node>
            </Node>
            <Node pos="r" depth="3" NCoef="0" IVar="3" Cut="1.0329544544219971e+00" cType="1" res="2.0997472107410431e-02" rms="4.0441098809242249e-01" purity="7.9043501615524292e-01" nType="0">
              <Node pos="l" depth="4" NCoef="0" IVar="3" Cut="9.9494546651840210e-01" cType="1" res="2.2238332778215408e-02" rms="4.0338638424873352e-01" purity="7.9206514358520508e-01" nType="0">
                <Node pos="l" depth="5" NCoef="0" IVar="1" Cut="2.5020843744277954e-01" cType="1" res="1.2181618250906467e-02" rms="4.1496860980987549e-01" purity="7.7410870790481567e-01" nType="0">
                  <Node pos="l" depth="6" NCoef="0" IVar="3" Cut="9.8520547151565552e-01" cType="1" res="1.6803029924631119e-02" rms="4.0271577239036560e-01" purity="7.9605358839035034e-01" nType="0">
                    <Node pos="l" depth="7" NCoef="0" IVar="-1" Cut="0.0000000000000000e+00" cType="1" res="2.4678155314177275e-03" rms="4.0013223886489868e-01" purity="7.9933482408523560e-01" nType="-99"/>
                    <Node pos="r" depth="7" NCoef="0" IVar="-1" Cut="0.0000000000000000e+00" cType="1" res="1.5175644075497985e-03" rms="4.0424111485481262e-01" purity="7.9404854774475098e-01" nType="-99"/>
                  </Node>
                  <Node pos="r" depth="6" NCoef="0" IVar="-1" Cut="0.0000000000000000e+00" cType="1" res="-4.9525301437824965e-04" rms="4.5762965083122253e-01" purity="6.9173681735992432e-01" nType="-99"/>
                </Node>
                <Node pos="r" depth="5" NCoef="0" IVar="1" Cut="-2.3585113883018494e-01" cType="1" res="2.6245130226016045e-02" rms="3.9860737323760986e-01" purity="7.9921925067901611e-01" nType="0">
                  <Node pos="l" depth="6" NCoef="0" IVar="-1" Cut="0.0000000000000000e+00" cType="1" res="1.3667948078364134e-03" rms="4.0523648262023926e-01" purity="7.9271447658538818e-01" nType="-99"/>
                  <Node pos="r" depth="6" NCoef="0" IVar="3" Cut="1.0010755062103271e+00" cType="1" res="2.7285302057862282e-02" rms="3.9804351329803467e-01" purity="7.9975014925003052e-01" nType="0">
                    <Node pos="l" depth="7" NCoef="0" IVar="-1" Cut="0.0000000000000000e+00" cType="1" res="2.6871040463447571e-03" rms="4.0426614880561829e-01" purity="7.9100078344345093e-01" nType="-99"/>
                    <Node pos="r" depth="7" NCoef="0" IVar="-1" Cut="0.0000000000000000e+00" cType="1" res="3.2685038167983294e-03" rms="3.9193901419639587e-01" purity="8.0817943811416626e-01" nType="-99"/>
                  </Node>
                </Node>
              </Node>
              <Node pos="r" depth="4" NCoef="0" IVar="-1" Cut="0.0000000000000000e+00" cType="1" res="7.4197718640789390e-04" rms="4.1551977396011353e-01" purity="7.7207762002944946e-01" nType="-99"/>
            </Node>
          </Node>
          <Node pos="r" depth="2" NCoef="0" IVar="0" Cut="2.8494018316268921e-01" cType="1" res="-8.9293895289301872e-03" rms="4.7299697995185852e-01" purity="4.8411774635314941e-01" nType="0">
            <Node pos="l" depth="3" NCoef="0" IVar="0" Cut="2.1174091100692749e-01" cType="1" res="-1.5303594060242176e-02" rms="4.7321593761444092e-01" purity="4.9754765629768372e-01" nType="0">
              <Node pos="l" depth="4" NCoef="0" IVar="-1" Cut="0.0000000000000000e+00" cType="1" res="-2.9970342293381691e-03" rms="4.6825727820396423e-01" purity="5.1845085620880127e-01" nType="-99"/>
              <Node pos="r" depth="4" NCoef="0" IVar="0" Cut="2.5424516201019287e-01" cType="1" res="-1.1404179967939854e-02" rms="4.7452053427696228e-01" purity="4.9170008301734924e-01" nType="0">
                <Node pos="l" depth="5" NCoef="0" IVar="0" Cut="2.3368123173713684e-01" cType="1" res="-3.9827115833759308e-03" rms="4.7416806221008301e-01" purity="5.1342058181762695e-01" nType="0">
                  <Node pos="l" depth="6" NCoef="0" IVar="-1" Cut="0.0000000000000000e+00" cType="1" res="-1.5518297441303730e-03" rms="4.7353610396385193e-01" purity="5.1056796312332153e-01" nType="-99"/>
                  <Node pos="r" depth="6" NCoef="0" IVar="-1" Cut="0.0000000000000000e+00" cType="1" res="6.7466485779732466e-04" rms="4.7453004121780396e-01" purity="5.1613998413085938e-01" nType="-99"/>
                </Node>
                <Node pos="r" depth="5" NCoef="0" IVar="-1" Cut="0.0000000000000000e+00" cType="1" res="-2.1444011945277452e-03" rms="4.7480234503746033e-01" purity="4.6385711431503296e-01" nType="-99"/>
              </Node>
            </Node>
            <Node pos="r" depth="3" NCoef="0" IVar="0" Cut="3.0191919207572937e-01" cType="1" res="6.0601038858294487e-03" rms="4.7214275598526001e-01" purity="4.5253604650497437e-01" nType="0">
              <Node pos="l" depth="4" NCoef="0" IVar="-1" Cut="0.0000000000000000e+00" cType="1" res="1.0928785195574164e-03" rms="4.7422751784324646e-01" purity="4.6584275364875793e-01" nType="-99"/>
              <Node pos="r" depth="4" NCoef="0" IVar="-1" Cut="0.0000000000000000e+00" cType="1" res="2.0474124175962061e-04" rms="4.7037348151206970e-01" purity="4.4152718782424927e-01" nType="-99"/>
            </Node>
          </Node>
        </Node>
        <Node pos="r" depth="1" NCoef="0" IVar="1" Cut="-6.1336640268564224e-02" cType="1" res="-6.7465263418853283e-03" rms="3.5254028439521790e-01" purity="1.8675805628299713e-01" nType="0">
          <Node pos="l" depth="2" NCoef="0" IVar="2" Cut="3.7035150146484375e+02" cType="1" res="7.2708162479102612e-03" rms="3.9617609977722168e-01" purity="2.5639149546623230e-01" nType="0">
            <Node pos="l" depth="3" NCoef="0" IVar="4" Cut="8.6445063352584839e-02" cType="1" res="1.4326937496662140e-02" rms="4.1634640097618103e-01" purity="2.9910644888877869e-01" nType="0">
              <Node pos="l" depth="4" NCoef="0" IVar="3" Cut="6.8602210283279419e-01" cType="1" res="8.1050973385572433e-03" rms="4.2688879370689392e-01" purity="3.3461511135101318e-01" nType="0">
                <Node pos="l" depth="5" NCoef="0" IVar="2" Cut="1.2015892791748047e+02" cType="1" res="-5.4089014884084463e-04" rms="3.9111626148223877e-01" purity="2.2425973415374756e-01" nType="0">
                  <Node pos="l" depth="6" NCoef="0" IVar="-1" Cut="0.0000000000000000e+00" cType="1" res="1.2557833688333631e-03" rms="4.1965812444686890e-01" purity="2.7154400944709778e-01" nType="-99"/>
                  <Node pos="r" depth="6" NCoef="0" IVar="-1" Cut="0.0000000000000000e+00" cType="1" res="-1.6451990231871605e-03" rms="3.6469659209251404e-01" purity="1.8377627432346344e-01" nType="-99"/>
                </Node>
                <Node pos="r" depth="5" NCoef="0" IVar="-1" Cut="0.0000000000000000e+00" cType="1" res="2.1074563264846802e-03" rms="4.8929557204246521e-01" purity="5.5188965797424316e-01" nType="-99"/>
              </Node>
              <Node pos="r" depth="4" NCoef="0" IVar="-1" Cut="0.0000000000000000e+00" cType="1" res="4.5251403935253620e-03" rms="3.9378693699836731e-01" purity="2.2705534100532532e-01" nType="-99"/>
            </Node>
            <Node pos="r" depth="3" NCoef="0" IVar="-1" Cut="0.0000000000000000e+00" cType="1" res="-3.0118995346128941e-03" rms="3.2940900325775146e-01" purity="1.3161295652389526e-01" nType="-99"/>
          </Node>
          <Node pos="r" depth="2" NCoef="0" IVar="1" Cut="5.7959145307540894e-01" cType="1" res="-1.0552730411291122e-02" rms="3.3962553739547729e-01" purity="1.6785015165805817e-01" nType="0">
            <Node pos="l" depth="3" NCoef="0" IVar="2" Cut="6.9696220397949219e+01" cType="1" res="-6.2293037772178650e-03" rms="3.6509945988655090e-01" purity="2.0297096669673920e-01" nType="0">
              <Node pos="l" depth="4" NCoef="0" IVar="2" Cut="2.2481252670288086e+01" cType="1" res="1.2854120694100857e-02" rms="4.3551269173622131e-01" purity="3.6574041843414307e-01" nType="0">
                <Node pos="l" depth="5" NCoef="0" IVar="-1" Cut="0.0000000000000000e+00" cType="1" res="4.1561550460755825e-03" rms="4.7536799311637878e-01" purity="5.2222317457199097e-01" nType="-99"/>
                <Node pos="r" depth="5" NCoef="0" IVar="4" Cut="3.7032570689916611e-02" cType="1" res="-2.6537512894719839e-03" rms="4.1388061642646790e-01" purity="2.8971043229103088e-01" nType="0">
                  <Node pos="l" depth="6" NCoef="0" IVar="-1" Cut="0.0000000000000000e+00" cType="1" res="-3.2613791991025209e-03" rms="3.8812163472175598e-01" purity="2.5257095694541931e-01" nType="-99"/>
                  <Node pos="r" depth="6" NCoef="0" IVar="-1" Cut="0.0000000000000000e+00" cType="1" res="1.8211591523140669e-03" rms="4.3401554226875305e-01" purity="3.2164987921714783e-01" nType="-99"/>
                </Node>
              </Node>
              <Node pos="r" depth="4" NCoef="0" IVar="2" Cut="3.3948480224609375e+02" cType="1" res="-1.0718216188251972e-02" rms="3.4631091356277466e-01" purity="1.6468341648578644e-01" nType="0">
                <Node pos="l" depth="5" NCoef="0" IVar="4" Cut="6.0365747660398483e-02" cType="1" res="-6.6813658922910690e-03" rms="3.6060646176338196e-01" purity="1.8654055893421173e-01" nType="0">
                  <Node pos="l" depth="6" NCoef="0" IVar="4" Cut="4.6354111284017563e-02" cType="1" res="-2.2062959149479866e-02" rms="3.5621500015258789e-01" purity="1.8810126185417175e-01" nType="0">
                    <Node pos="l" depth="7" NCoef="0" IVar="-1" Cut="0.0000000000000000e+00" cType="1" res="-5.3899944759905338e-03" rms="3.4987109899520874e-01" purity="1.7559933662414551e-01" nType="-99"/>
                    <Node pos="r" depth="7" NCoef="0" IVar="-1" Cut="0.0000000000000000e+00" cType="1" res="-2.0849208813160658e-03" rms="3.6279955506324768e-01" purity="2.0182223618030548e-01" nType="-99"/>
                  </Node>
                  <Node pos="r" depth="6" NCoef="0" IVar="1" Cut="1.0406827926635742e-01" cType="1" res="-1.7586677859071642e-04" rms="3.6225131154060364e-01" purity="1.8588048219680786e-01" nType="0">
                    <Node pos="l" depth="7" NCoef="0" IVar="-1" Cut="0.0000000000000000e+00" cType="1" res="1.5289530856534839e-03" rms="3.8886526226997375e-01" purity="2.2904406487941742e-01" nType="-99"/>
                    <Node pos="r" depth="7" NCoef="0" IVar="-1" Cut="0.0000000000000000e+00" cType="1" res="-1.1428634170442820e-03" rms="3.4635502099990845e-01" purity="1.6173951327800751e-01" nType="-99"/>
                  </Node>
                </Node>
                <Node pos="r" depth="5" NCoef="0" IVar="3" Cut="4.6122089028358459e-01" cType="1" res="-2.0090829581022263e-02" rms="3.1039068102836609e-01" purity="1.1393631249666214e-01" nType="0">
                  <Node pos="l" depth="6" NCoef="0" IVar="1" Cut="1.0405389219522476e-01" cType="1" res="-1.4286118559539318e-02" rms="2.7551180124282837e-01" purity="8.5705712437629700e-02" nType="0">
                    <Node pos="l" depth="7" NCoef="0" IVar="-1" Cut="0.0000000000000000e+00" cType="1" res="-6.3414042815566063e-03" rms="2.7606245875358582e-01" purity="8.4675766527652740e-02" nType="-99"/>
                    <Node pos="r" depth="7" NCoef="0" IVar="-1" Cut="0.0000000000000000e+00" cType="1" res="-3.3807691652327776e-03" rms="2.7517443895339966e-01" purity="8.6202576756477356e-02" nType="-99"/>
                  </Node>
                  <Node pos="r" depth="6" NCoef="0" IVar="-1" Cut="0.0000000000000000e+00" cType="1" res="-5.4125911556184292e-03" rms="4.0162688493728638e-01" purity="2.0430316030979156e-01" nType="-99"/>
                </Node>
              </Node>
            </Node>
            <Node pos="r" depth="3" NCoef="0" IVar="3" Cut="6.5263473987579346e-01" cType="1" res="-1.8548913300037384e-02" rms="2.8643420338630676e-01" purity="1.0289406776428223e-01" nType="0">
              <Node pos="l" depth="4" NCoef="0" IVar="1" Cut="1.7787492275238037e+00" cType="1" res="-1.3645664788782597e-02" rms="2.5857236981391907e-01" purity="7.6777398586273193e-02" nType="0">
                <Node pos="l" depth="5" NCoef="0" IVar="1" Cut="8.1166893243789673e-01" cType="1" res="-1.6677154228091240e-02" rms="2.5644776225090027e-01" purity="7.6290093362331390e-02" nType="0">
                  <Node pos="l" depth="6" NCoef="0" IVar="4" Cut="8.9023739099502563e-02" cType="1" res="-9.5339417457580566e-03" rms="2.8387135267257690e-01" purity="9.6314854919910431e-02" nType="0">
                    <Node pos="l" depth="7" NCoef="0" IVar="-1" Cut="0.0000000000000000e+00" cType="1" res="-6.9051473401486874e-03" rms="2.6095998287200928e-01" purity="8.0504678189754486e-02" nType="-99"/>
                    <Node pos="r" depth="7" NCoef="0" IVar="-1" Cut="0.0000000000000000e+00" cType="1" res="1.0939030908048153e-03" rms="3.0457478761672974e-01" purity="1.1219339072704315e-01" nType="-99"/>
                  </Node>
                  <Node pos="r" depth="6" NCoef="0" IVar="4" Cut="1.2760961055755615e-01" cType="1" res="-2.0987948402762413e-02" rms="2.3827297985553741e-01" purity="6.4205534756183624e-02" nType="0">
                    <Node pos="l" depth="7" NCoef="0" IVar="-1" Cut="0.0000000000000000e+00" cType="1" res="-7.0855817757546902e-03" rms="2.3624059557914734e-01" purity="6.3658930361270905e-02" nType="-99"/>
                    <Node pos="r" depth="7" NCoef="0" IVar="-1" Cut="0.0000000000000000e+00" cType="1" res="-1.0192508809268475e-02" rms="2.4448142945766449e-01" purity="6.5949700772762299e-02" nType="-99"/>
                  </Node>
                </Node>
                <Node pos="r" depth="5" NCoef="0" IVar="-1" Cut="0.0000000000000000e+00" cType="1" res="9.7515207016840577e-05" rms="2.6765337586402893e-01" purity="7.9010218381881714e-02" nType="-99"/>
              </Node>
              <Node pos="r" depth="4" NCoef="0" IVar="-1" Cut="0.0000000000000000e+00" cType="1" res="-5.9691420756280422e-03" rms="4.5158317685127258e-01" purity="3.1560140848159790e-01" nType="-99"/>
            </Node>
          </Node>
        </Node>
      </Node>
    </BinaryTree>
    <BinaryTree type="DecisionTree" boostWeight="1.0000000000000000e+00" itree="73">
      <Node pos="s" depth="0" NCoef="0" IVar="0" Cut="9.6534371376037598e-01" cType="1" res="3.3941429574042559e-03" rms="4.1075459122657776e-01" purity="4.9861836433410645e-01" nType="0">
        <Node pos="l" depth="1" NCoef="0" IVar="3" Cut="7.7611547708511353e-01" cType="1" res="7.5905579142272472e-03" rms="4.3751952052116394e-01" purity="5.9053629636764526e-01" nType="0">
          <Node pos="l" depth="2" NCoef="0" IVar="1" Cut="7.8095662593841553e-01" cType="1" res="-1.1190603254362941e-03" rms="4.4803661108016968e-01" purity="3.5783404111862183e-01" nType="0">
            <Node pos="l" depth="3" NCoef="0" IVar="4" Cut="5.1519587635993958e-02" cType="1" res="1.3133581960573792e-03" rms="4.5349425077438354e-01" purity="3.7337419390678406e-01" nType="0">
              <Node pos="l" depth="4" NCoef="0" IVar="2" Cut="2.9694507598876953e+01" cType="1" res="-7.4143046513199806e-03" rms="4.6501639485359192e-01" purity="4.1391581296920776e-01" nType="0">
                <Node pos="l" depth="5" NCoef="0" IVar="-1" Cut="0.0000000000000000e+00" cType="1" res="2.2059972397983074e-03" rms="4.8178014159202576e-01" purity="4.9029621481895447e-01" nType="-99"/>
                <Node pos="r" depth="5" NCoef="0" IVar="5" Cut="4.0000000000000000e+00" cType="1" res="-4.5840372331440449e-03" rms="3.3324807882308960e-01" purity="3.9699953794479370e-01" nType="0">
                  <Node pos="l" depth="6" NCoef="0" IVar="3" Cut="6.5692293643951416e-01" cType="1" res="-2.2174989804625511e-02" rms="4.6955302357673645e-01" purity="4.2672315239906311e-01" nType="0">
                    <Node pos="l" depth="7" NCoef="0" IVar="-1" Cut="0.0000000000000000e+00" cType="1" res="-6.0514239594340324e-03" rms="4.1056606173515320e-01" purity="2.3260024189949036e-01" nType="-99"/>
                    <Node pos="r" depth="7" NCoef="0" IVar="-1" Cut="0.0000000000000000e+00" cType="1" res="-1.1618020944297314e-03" rms="4.8939883708953857e-01" purity="4.9911531805992126e-01" nType="-99"/>
                  </Node>
                  <Node pos="r" depth="6" NCoef="0" IVar="-1" Cut="0.0000000000000000e+00" cType="1" res="1.0294470848748460e-04" rms="4.4266465306282043e-01" purity="3.3727973699569702e-01" nType="-99"/>
                </Node>
              </Node>
              <Node pos="r" depth="4" NCoef="0" IVar="2" Cut="2.3270819091796875e+02" cType="1" res="4.0626483969390392e-03" rms="4.4976848363876343e-01" purity="3.6060318350791931e-01" nType="0">
                <Node pos="l" depth="5" NCoef="0" IVar="4" Cut="1.3873557746410370e-01" cType="1" res="1.2911058962345123e-02" rms="4.6614587306976318e-01" purity="4.2472034692764282e-01" nType="0">
                  <Node pos="l" depth="6" NCoef="0" IVar="2" Cut="9.2784271240234375e+01" cType="1" res="1.0473312810063362e-02" rms="4.6769171953201294e-01" purity="4.3478563427925110e-01" nType="0">
                    <Node pos="l" depth="7" NCoef="0" IVar="-1" Cut="0.0000000000000000e+00" cType="1" res="1.7863634275272489e-03" rms="4.7307920455932617e-01" purity="4.8686131834983826e-01" nType="-99"/>
                    <Node pos="r" depth="7" NCoef="0" IVar="-1" Cut="0.0000000000000000e+00" cType="1" res="6.5089063718914986e-04" rms="4.6534168720245361e-01" purity="4.1283574700355530e-01" nType="-99"/>
                  </Node>
                  <Node pos="r" depth="6" NCoef="0" IVar="-1" Cut="0.0000000000000000e+00" cType="1" res="3.6496971733868122e-03" rms="4.5260500907897949e-01" purity="3.4117594361305237e-01" nType="-99"/>
                </Node>
                <Node pos="r" depth="5" NCoef="0" IVar="1" Cut="-2.0918042957782745e-01" cType="1" res="-4.2122043669223785e-03" rms="4.3373036384582520e-01" purity="3.0064210295677185e-01" nType="0">
                  <Node pos="l" depth="6" NCoef="0" IVar="-1" Cut="0.0000000000000000e+00" cType="1" res="1.1729700490832329e-03" rms="4.4868934154510498e-01" purity="3.4312087297439575e-01" nType="-99"/>
                  <Node pos="r" depth="6" NCoef="0" IVar="4" Cut="2.3007948696613312e-01" cType="1" res="-6.1767497099936008e-03" rms="4.3159550428390503e-01" purity="2.9479998350143433e-01" nType="0">
                    <Node pos="l" depth="7" NCoef="0" IVar="-1" Cut="0.0000000000000000e+00" cType="1" res="-1.0206003207713366e-03" rms="4.3349331617355347e-01" purity="3.0306971073150635e-01" nType="-99"/>
                    <Node pos="r" depth="7" NCoef="0" IVar="-1" Cut="0.0000000000000000e+00" cType="1" res="1.3994806213304400e-03" rms="4.1675305366516113e-01" purity="2.3274411261081696e-01" nType="-99"/>
                  </Node>
                </Node>
              </Node>
            </Node>
            <Node pos="r" depth="3" NCoef="0" IVar="0" Cut="2.8020569682121277e-01" cType="1" res="-2.3673230782151222e-02" rms="3.9312997460365295e-01" purity="2.1374100446701050e-01" nType="0">
              <Node pos="l" depth="4" NCoef="0" IVar="-1" Cut="0.0000000000000000e+00" cType="1" res="2.8520344130811282e-05" rms="4.5728382468223572e-01" purity="3.2512265443801880e-01" nType="-99"/>
              <Node pos="r" depth="4" NCoef="0" IVar="-1" Cut="0.0000000000000000e+00" cType="1" res="-6.4509636722505093e-03" rms="3.5261115431785583e-01" purity="1.5303748846054077e-01" nType="-99"/>
            </Node>
          </Node>
          <Node pos="r" depth="2" NCoef="0" IVar="1" Cut="8.8833063840866089e-01" cType="1" res="1.3143260031938553e-02" rms="4.3058851361274719e-01" purity="7.3889261484146118e-01" nType="0">
            <Node pos="l" depth="3" NCoef="0" IVar="1" Cut="4.4785812497138977e-02" cType="1" res="1.4668021351099014e-02" rms="4.2709982395172119e-01" purity="7.4934726953506470e-01" nType="0">
              <Node pos="l" depth="4" NCoef="0" IVar="0" Cut="2.8022885322570801e-01" cType="1" res="1.8329756334424019e-02" rms="4.1676074266433716e-01" purity="7.6944452524185181e-01" nType="0">
                <Node pos="l" depth="5" NCoef="0" IVar="5" Cut="2.0000000000000000e+00" cType="1" res="1.6464514657855034e-02" rms="4.0170484781265259e-01" purity="7.7621740102767944e-01" nType="0">
                  <Node pos="l" depth="6" NCoef="0" IVar="1" Cut="-1.9639253616333008e-01" cType="1" res="1.9748501479625702e-02" rms="3.9443901181221008e-01" purity="8.0663073062896729e-01" nType="0">
                    <Node pos="l" depth="7" NCoef="0" IVar="-1" Cut="0.0000000000000000e+00" cType="1" res="1.0358806466683745e-03" rms="4.0683433413505554e-01" purity="7.8974354267120361e-01" nType="-99"/>
                    <Node pos="r" depth="7" NCoef="0" IVar="-1" Cut="0.0000000000000000e+00" cType="1" res="2.5438487064093351e-03" rms="3.9160165190696716e-01" purity="8.1037819385528564e-01" nType="-99"/>
                  </Node>
                  <Node pos="r" depth="6" NCoef="0" IVar="4" Cut="2.6283223181962967e-02" cType="1" res="1.2935787439346313e-02" rms="4.4708666205406189e-01" purity="7.1957677602767944e-01" nType="0">
                    <Node pos="l" depth="7" NCoef="0" IVar="-1" Cut="0.0000000000000000e+00" cType="1" res="1.9547951524145901e-04" rms="4.4964644312858582e-01" purity="7.1333181858062744e-01" nType="-99"/>
                    <Node pos="r" depth="7" NCoef="0" IVar="-1" Cut="0.0000000000000000e+00" cType="1" res="1.6498854383826256e-03" rms="4.4609156250953674e-01" purity="7.2183132171630859e-01" nType="-99"/>
                  </Node>
                </Node>
                <Node pos="r" depth="5" NCoef="0" IVar="-1" Cut="0.0000000000000000e+00" cType="1" res="3.2127450685948133e-03" rms="4.7640076279640198e-01" purity="6.3061577081680298e-01" nType="-99"/>
              </Node>
              <Node pos="r" depth="4" NCoef="0" IVar="3" Cut="8.9323633909225464e-01" cType="1" res="9.8182996734976768e-03" rms="4.4037294387817383e-01" purity="7.2272986173629761e-01" nType="0">
                <Node pos="l" depth="5" NCoef="0" IVar="4" Cut="2.4592306464910507e-02" cType="1" res="2.2076854947954416e-03" rms="4.7451356053352356e-01" purity="6.4361220598220825e-01" nType="0">
                  <Node pos="l" depth="6" NCoef="0" IVar="-1" Cut="0.0000000000000000e+00" cType="1" res="-2.0471448078751564e-03" rms="4.8349002003669739e-01" purity="6.1378639936447144e-01" nType="-99"/>
                  <Node pos="r" depth="6" NCoef="0" IVar="3" Cut="8.0634039640426636e-01" cType="1" res="8.7493937462568283e-03" rms="4.7183361649513245e-01" purity="6.5171372890472412e-01" nType="0">
                    <Node pos="l" depth="7" NCoef="0" IVar="-1" Cut="0.0000000000000000e+00" cType="1" res="-6.0669856611639261e-04" rms="4.8807400465011597e-01" purity="5.8902603387832642e-01" nType="-99"/>
                    <Node pos="r" depth="7" NCoef="0" IVar="-1" Cut="0.0000000000000000e+00" cType="1" res="1.2454065727069974e-03" rms="4.6649309992790222e-01" purity="6.7145437002182007e-01" nType="-99"/>
                  </Node>
                </Node>
                <Node pos="r" depth="5" NCoef="0" IVar="1" Cut="6.4340698719024658e-01" cType="1" res="1.3269035145640373e-02" rms="4.2394334077835083e-01" purity="7.5860255956649780e-01" nType="0">
                  <Node pos="l" depth="6" NCoef="0" IVar="3" Cut="9.9902552366256714e-01" cType="1" res="1.4364261180162430e-02" rms="4.2033600807189941e-01" purity="7.6559084653854370e-01" nType="0">
                    <Node pos="l" depth="7" NCoef="0" IVar="-1" Cut="0.0000000000000000e+00" cType="1" res="1.2044601608067751e-03" rms="4.2866960167884827e-01" purity="7.5257676839828491e-01" nType="-99"/>
                    <Node pos="r" depth="7" NCoef="0" IVar="-1" Cut="0.0000000000000000e+00" cType="1" res="1.8754485063254833e-03" rms="4.1047862172126770e-01" purity="7.8061205148696899e-01" nType="-99"/>
                  </Node>
                  <Node pos="r" depth="6" NCoef="0" IVar="-1" Cut="0.0000000000000000e+00" cType="1" res="6.3021696405485272e-05" rms="4.6314576268196106e-01" purity="6.7841374874114990e-01" nType="-99"/>
                </Node>
              </Node>
            </Node>
            <Node pos="r" depth="3" NCoef="0" IVar="3" Cut="9.8431825637817383e-01" cType="1" res="-1.3980302959680557e-02" rms="4.8770594596862793e-01" purity="5.5291730165481567e-01" nType="0">
              <Node pos="l" depth="4" NCoef="0" IVar="-1" Cut="0.0000000000000000e+00" cType="1" res="-2.4932012893259525e-03" rms="4.9557825922966003e-01" purity="4.7394713759422302e-01" nType="-99"/>
              <Node pos="r" depth="4" NCoef="0" IVar="-1" Cut="0.0000000000000000e+00" cType="1" res="-1.6688578762114048e-04" rms="4.8090308904647827e-01" purity="6.1685401201248169e-01" nType="-99"/>
            </Node>
          </Node>
        </Node>
        <Node pos="r" depth="1" NCoef="0" IVar="3" Cut="5.1808393001556396e-01" cType="1" res="-1.6107505187392235e-02" rms="2.5049310922622681e-01" purity="7.1455761790275574e-02" nType="0">
          <Node pos="l" depth="2" NCoef="0" IVar="5" Cut="9.0000000000000000e+00" cType="1" res="-1.1771233752369881e-02" rms="2.3305167257785797e-01" purity="5.9443093836307526e-02" nType="0">
            <Node pos="l" depth="3" NCoef="0" IVar="4" Cut="1.7519354820251465e-01" cType="1" res="-1.0797099210321903e-02" rms="2.3700329661369324e-01" purity="6.1501234769821167e-02" nType="0">
              <Node pos="l" depth="4" NCoef="0" IVar="2" Cut="3.2066473388671875e+02" cType="1" res="-1.2572375126183033e-02" rms="2.2747847437858582e-01" purity="5.6317057460546494e-02" nType="0">
                <Node pos="l" depth="5" NCoef="0" IVar="4" Cut="1.2439055740833282e-01" cType="1" res="-1.0497179813683033e-02" rms="2.3236267268657684e-01" purity="5.9160139411687851e-02" nType="0">
                  <Node pos="l" depth="6" NCoef="0" IVar="2" Cut="1.0358197021484375e+02" cType="1" res="-1.2033356353640556e-02" rms="2.2439430654048920e-01" purity="5.4695386439561844e-02" nType="0">
                    <Node pos="l" depth="7" NCoef="0" IVar="-1" Cut="0.0000000000000000e+00" cType="1" res="-3.2838936895132065e-03" rms="2.4874888360500336e-01" purity="6.8210400640964508e-02" nType="-99"/>
                    <Node pos="r" depth="7" NCoef="0" IVar="-1" Cut="0.0000000000000000e+00" cType="1" res="-7.3210280388593674e-03" rms="2.0779202878475189e-01" purity="4.6300146728754044e-02" nType="-99"/>
                  </Node>
                  <Node pos="r" depth="6" NCoef="0" IVar="-1" Cut="0.0000000000000000e+00" cType="1" res="-3.3201216865563765e-05" rms="2.8022173047065735e-01" purity="8.9406102895736694e-02" nType="-99"/>
                </Node>
                <Node pos="r" depth="5" NCoef="0" IVar="3" Cut="3.4333360195159912e-01" cType="1" res="-1.8639963120222092e-02" rms="2.1243870258331299e-01" purity="4.8004265874624252e-02" nType="0">
                  <Node pos="l" depth="6" NCoef="0" IVar="-1" Cut="0.0000000000000000e+00" cType="1" res="-7.6861134730279446e-03" rms="1.9318157434463501e-01" purity="3.9264377206563950e-02" nType="-99"/>
                  <Node pos="r" depth="6" NCoef="0" IVar="-1" Cut="0.0000000000000000e+00" cType="1" res="-8.9591322466731071e-03" rms="2.3772458732128143e-01" purity="6.0853168368339539e-02" nType="-99"/>
                </Node>
              </Node>
              <Node pos="r" depth="4" NCoef="0" IVar="-1" Cut="0.0000000000000000e+00" cType="1" res="1.0081925429403782e-03" rms="3.0093905329704285e-01" purity="1.0205883532762527e-01" nType="-99"/>
            </Node>
            <Node pos="r" depth="3" NCoef="0" IVar="-1" Cut="0.0000000000000000e+00" cType="1" res="-1.0513471439480782e-02" rms="1.9781729578971863e-01" purity="4.1590627282857895e-02" nType="-99"/>
          </Node>
          <Node pos="r" depth="2" NCoef="0" IVar="-1" Cut="0.0000000000000000e+00" cType="1" res="-8.8760247454047203e-03" rms="4.1564375162124634e-01" purity="2.3533034324645996e-01" nType="-99"/>
        </Node>
      </Node>
    </BinaryTree>
    <BinaryTree type="DecisionTree" boostWeight="1.0000000000000000e+00" itree="74">
      <Node pos="s" depth="0" NCoef="0" IVar="3" Cut="8.4096413850784302e-01" cType="1" res="5.8616343885660172e-03" rms="4.0986827015876770e-01" purity="5.0112378597259521e-01" nType="0">
        <Node pos="l" depth="1" NCoef="0" IVar="3" Cut="4.1533434391021729e-01" cType="1" res="-2.5706540327519178e-03" rms="4.0225225687026978e-01" purity="3.0734395980834961e-01" nType="0">
          <Node pos="l" depth="2" NCoef="0" IVar="5" Cut="4.0000000000000000e+00" cType="1" res="-1.1178974993526936e-02" rms="2.6315340399742126e-01" purity="8.0510146915912628e-02" nType="0">
            <Node pos="l" depth="3" NCoef="0" IVar="3" Cut="3.1235063076019287e-01" cType="1" res="6.4436043612658978e-03" rms="3.1971204280853271e-01" purity="1.2667824327945709e-01" nType="0">
              <Node pos="l" depth="4" NCoef="0" IVar="-1" Cut="0.0000000000000000e+00" cType="1" res="1.0800701566040516e-02" rms="3.6542743444442749e-01" purity="1.7714755237102509e-01" nType="-99"/>
              <Node pos="r" depth="4" NCoef="0" IVar="-1" Cut="0.0000000000000000e+00" cType="1" res="-7.6443077996373177e-03" rms="2.7186998724937439e-01" purity="8.4688782691955566e-02" nType="-99"/>
            </Node>
            <Node pos="r" depth="3" NCoef="0" IVar="3" Cut="3.3811756968498230e-01" cType="1" res="-1.3980984687805176e-02" rms="2.5330254435539246e-01" purity="7.3158502578735352e-02" nType="0">
              <Node pos="l" depth="4" NCoef="0" IVar="0" Cut="9.6558171510696411e-01" cType="1" res="-1.8191915005445480e-02" rms="2.3176279664039612e-01" purity="6.0306735336780548e-02" nType="0">
                <Node pos="l" depth="5" NCoef="0" IVar="4" Cut="2.3204730451107025e-01" cType="1" res="-2.9186774045228958e-02" rms="3.4624177217483521e-01" purity="1.4486725628376007e-01" nType="0">
                  <Node pos="l" depth="6" NCoef="0" IVar="-1" Cut="0.0000000000000000e+00" cType="1" res="-9.8227523267269135e-03" rms="2.9358065128326416e-01" purity="9.6682772040367126e-02" nType="-99"/>
                  <Node pos="r" depth="6" NCoef="0" IVar="-1" Cut="0.0000000000000000e+00" cType="1" res="-2.7911548968404531e-03" rms="3.9095810055732727e-01" purity="1.9240683317184448e-01" nType="-99"/>
                </Node>
                <Node pos="r" depth="5" NCoef="0" IVar="4" Cut="2.1759961545467377e-01" cType="1" res="-1.5673387795686722e-02" rms="1.9627261161804199e-01" purity="4.0936958044767380e-02" nType="0">
                  <Node pos="l" depth="6" NCoef="0" IVar="3" Cut="2.4526306986808777e-01" cType="1" res="-1.7005795612931252e-02" rms="1.7938223481178284e-01" purity="3.3564824610948563e-02" nType="0">
                    <Node pos="l" depth="7" NCoef="0" IVar="-1" Cut="0.0000000000000000e+00" cType="1" res="-1.3795838691294193e-02" rms="1.6311939060688019e-01" purity="2.7528634294867516e-02" nType="-99"/>
                    <Node pos="r" depth="7" NCoef="0" IVar="-1" Cut="0.0000000000000000e+00" cType="1" res="-8.4305582568049431e-03" rms="1.9212324917316437e-01" purity="3.8710717111825943e-02" nType="-99"/>
                  </Node>
                  <Node pos="r" depth="6" NCoef="0" IVar="-1" Cut="0.0000000000000000e+00" cType="1" res="-1.5752475010231137e-03" rms="2.9790580272674561e-01" purity="9.9439106881618500e-02" nType="-99"/>
                </Node>
              </Node>
              <Node pos="r" depth="4" NCoef="0" IVar="2" Cut="4.4247775268554688e+02" cType="1" res="-3.5761494655162096e-03" rms="2.9971092939376831e-01" purity="1.0491409897804260e-01" nType="0">
                <Node pos="l" depth="5" NCoef="0" IVar="4" Cut="9.9991284310817719e-02" cType="1" res="-9.9185586441308260e-04" rms="2.9256799817085266e-01" purity="9.9677257239818573e-02" nType="0">
                  <Node pos="l" depth="6" NCoef="0" IVar="4" Cut="6.1463531106710434e-02" cType="1" res="-7.2757569141685963e-03" rms="2.4638007581233978e-01" purity="6.6135048866271973e-02" nType="0">
                    <Node pos="l" depth="7" NCoef="0" IVar="-1" Cut="0.0000000000000000e+00" cType="1" res="-1.7716245492920280e-03" rms="2.4596072733402252e-01" purity="6.5759479999542236e-02" nType="-99"/>
                    <Node pos="r" depth="7" NCoef="0" IVar="-1" Cut="0.0000000000000000e+00" cType="1" res="-4.0666474960744381e-03" rms="2.4674233794212341e-01" purity="6.6491715610027313e-02" nType="-99"/>
                  </Node>
                  <Node pos="r" depth="6" NCoef="0" IVar="-1" Cut="0.0000000000000000e+00" cType="1" res="1.7787085380405188e-03" rms="3.4716844558715820e-01" purity="1.4692442119121552e-01" nType="-99"/>
                </Node>
                <Node pos="r" depth="5" NCoef="0" IVar="-1" Cut="0.0000000000000000e+00" cType="1" res="-2.7534416876733303e-03" rms="3.2202816009521484e-01" purity="1.2220726907253265e-01" nType="-99"/>
              </Node>
            </Node>
          </Node>
          <Node pos="r" depth="2" NCoef="0" IVar="1" Cut="1.3120379447937012e+00" cType="1" res="1.6709531191736460e-03" rms="4.5528468489646912e-01" purity="4.1915899515151978e-01" nType="0">
            <Node pos="l" depth="3" NCoef="0" IVar="1" Cut="-1.4098806679248810e-01" cType="1" res="3.2208922784775496e-03" rms="4.5738554000854492e-01" purity="4.2700546979904175e-01" nType="0">
              <Node pos="l" depth="4" NCoef="0" IVar="5" Cut="3.0000000000000000e+00" cType="1" res="1.4738858677446842e-02" rms="4.7027030587196350e-01" purity="4.8391407728195190e-01" nType="0">
                <Node pos="l" depth="5" NCoef="0" IVar="2" Cut="1.4002915954589844e+02" cType="1" res="6.7486043553799391e-04" rms="4.7849270701408386e-01" purity="5.5270087718963623e-01" nType="0">
                  <Node pos="l" depth="6" NCoef="0" IVar="-1" Cut="0.0000000000000000e+00" cType="1" res="6.5925193484872580e-04" rms="4.7551086544990540e-01" purity="5.9820103645324707e-01" nType="-99"/>
                  <Node pos="r" depth="6" NCoef="0" IVar="-1" Cut="0.0000000000000000e+00" cType="1" res="-6.4183829817920923e-04" rms="4.8140692710876465e-01" purity="5.0614786148071289e-01" nType="-99"/>
                </Node>
                <Node pos="r" depth="5" NCoef="0" IVar="2" Cut="2.5846398925781250e+02" cType="1" res="2.2646566852927208e-02" rms="4.6588429808616638e-01" purity="4.4559434056282043e-01" nType="0">
                  <Node pos="l" depth="6" NCoef="0" IVar="4" Cut="6.0557357966899872e-02" cType="1" res="2.9349019750952721e-02" rms="4.7063952684402466e-01" purity="4.8654198646545410e-01" nType="0">
                    <Node pos="l" depth="7" NCoef="0" IVar="-1" Cut="0.0000000000000000e+00" cType="1" res="1.6413821140304208e-03" rms="4.6848407387733459e-01" purity="4.8539033532142639e-01" nType="-99"/>
                    <Node pos="r" depth="7" NCoef="0" IVar="-1" Cut="0.0000000000000000e+00" cType="1" res="4.2161811143159866e-03" rms="4.7273510694503784e-01" purity="4.8791581392288208e-01" nType="-99"/>
                  </Node>
                  <Node pos="r" depth="6" NCoef="0" IVar="-1" Cut="0.0000000000000000e+00" cType="1" res="1.0747833875939250e-03" rms="4.5610779523849487e-01" purity="3.6512133479118347e-01" nType="-99"/>
                </Node>
              </Node>
              <Node pos="r" depth="4" NCoef="0" IVar="3" Cut="6.8992924690246582e-01" cType="1" res="9.2253397451713681e-04" rms="4.5468842983245850e-01" purity="4.1569554805755615e-01" nType="0">
                <Node pos="l" depth="5" NCoef="0" IVar="5" Cut="5.0000000000000000e+00" cType="1" res="-4.9862070009112358e-03" rms="4.3224334716796875e-01" purity="2.9072600603103638e-01" nType="0">
                  <Node pos="l" depth="6" NCoef="0" IVar="4" Cut="7.7570363879203796e-02" cType="1" res="-8.7988832965493202e-03" rms="4.3724489212036133e-01" purity="3.0027377605438232e-01" nType="0">
                    <Node pos="l" depth="7" NCoef="0" IVar="-1" Cut="0.0000000000000000e+00" cType="1" res="-1.8589644460007548e-03" rms="4.2659658193588257e-01" purity="2.7911612391471863e-01" nType="-99"/>
                    <Node pos="r" depth="7" NCoef="0" IVar="-1" Cut="0.0000000000000000e+00" cType="1" res="-4.2906391900032759e-04" rms="4.4584596157073975e-01" purity="3.1787478923797607e-01" nType="-99"/>
                  </Node>
                  <Node pos="r" depth="6" NCoef="0" IVar="1" Cut="4.6608995646238327e-02" cType="1" res="1.0260960087180138e-02" rms="4.1183152794837952e-01" purity="2.5141248106956482e-01" nType="0">
                    <Node pos="l" depth="7" NCoef="0" IVar="-1" Cut="0.0000000000000000e+00" cType="1" res="4.1004084050655365e-03" rms="4.4060802459716797e-01" purity="3.1656542420387268e-01" nType="-99"/>
                    <Node pos="r" depth="7" NCoef="0" IVar="-1" Cut="0.0000000000000000e+00" cType="1" res="-1.6955817409325391e-04" rms="3.9610514044761658e-01" purity="2.1869458258152008e-01" nType="-99"/>
                  </Node>
                </Node>
                <Node pos="r" depth="5" NCoef="0" IVar="4" Cut="7.7386945486068726e-02" cType="1" res="9.0196887031197548e-03" rms="4.8295998573303223e-01" purity="5.8442890644073486e-01" nType="0">
                  <Node pos="l" depth="6" NCoef="0" IVar="1" Cut="4.6799817681312561e-01" cType="1" res="5.0276541151106358e-03" rms="4.8228588700294495e-01" purity="5.8462220430374146e-01" nType="0">
                    <Node pos="l" depth="7" NCoef="0" IVar="-1" Cut="0.0000000000000000e+00" cType="1" res="7.7379302820190787e-04" rms="4.8153206706047058e-01" purity="6.0581380128860474e-01" nType="-99"/>
                    <Node pos="r" depth="7" NCoef="0" IVar="-1" Cut="0.0000000000000000e+00" cType="1" res="-1.3790415832772851e-03" rms="4.8601910471916199e-01" purity="4.6438112854957581e-01" nType="-99"/>
                  </Node>
                  <Node pos="r" depth="6" NCoef="0" IVar="3" Cut="7.3851883411407471e-01" cType="1" res="2.7316007763147354e-02" rms="4.8561778664588928e-01" purity="5.8354306221008301e-01" nType="0">
                    <Node pos="l" depth="7" NCoef="0" IVar="-1" Cut="0.0000000000000000e+00" cType="1" res="3.2209304627031088e-03" rms="4.8986566066741943e-01" purity="5.6376343965530396e-01" nType="-99"/>
                    <Node pos="r" depth="7" NCoef="0" IVar="-1" Cut="0.0000000000000000e+00" cType="1" res="1.3201921246945858e-03" rms="4.8043128848075867e-01" purity="6.0620331764221191e-01" nType="-99"/>
                  </Node>
                </Node>
              </Node>
            </Node>
            <Node pos="r" depth="3" NCoef="0" IVar="-1" Cut="0.0000000000000000e+00" cType="1" res="-4.9566798843443394e-03" rms="3.9842563867568970e-01" purity="2.2667290270328522e-01" nType="-99"/>
          </Node>
        </Node>
        <Node pos="r" depth="1" NCoef="0" IVar="0" Cut="5.5713766813278198e-01" cType="1" res="1.7044346779584885e-02" rms="4.1949400305747986e-01" purity="7.5811034440994263e-01" nType="0">
          <Node pos="l" depth="2" NCoef="0" IVar="1" Cut="6.1415463685989380e-01" cType="1" res="1.8192199990153313e-02" rms="4.1799673438072205e-01" purity="7.6666015386581421e-01" nType="0">
            <Node pos="l" depth="3" NCoef="0" IVar="2" Cut="1.1571531677246094e+02" cType="1" res="1.9516004249453545e-02" rms="4.1186952590942383e-01" purity="7.7984583377838135e-01" nType="0">
              <Node pos="l" depth="4" NCoef="0" IVar="4" Cut="2.5918718427419662e-02" cType="1" res="2.0348507910966873e-02" rms="4.0893024206161499e-01" purity="7.8472697734832764e-01" nType="0">
                <Node pos="l" depth="5" NCoef="0" IVar="4" Cut="8.3586515393108130e-04" cType="1" res="1.9381698220968246e-02" rms="4.0653541684150696e-01" purity="7.8826922178268433e-01" nType="0">
                  <Node pos="l" depth="6" NCoef="0" IVar="2" Cut="4.2269670963287354e-01" cType="1" res="2.0215438678860664e-02" rms="4.0222856402397156e-01" purity="7.9498654603958130e-01" nType="0">
                    <Node pos="l" depth="7" NCoef="0" IVar="-1" Cut="0.0000000000000000e+00" cType="1" res="2.3669807706028223e-03" rms="4.0026703476905823e-01" purity="7.9791498184204102e-01" nType="-99"/>
                    <Node pos="r" depth="7" NCoef="0" IVar="-1" Cut="0.0000000000000000e+00" cType="1" res="-8.9932313130702823e-05" rms="4.3159037828445435e-01" purity="7.4856483936309814e-01" nType="-99"/>
                  </Node>
                  <Node pos="r" depth="6" NCoef="0" IVar="4" Cut="1.4587149955332279e-02" cType="1" res="1.1445492506027222e-02" rms="4.4537374377250671e-01" purity="7.2432899475097656e-01" nType="0">
                    <Node pos="l" depth="7" NCoef="0" IVar="-1" Cut="0.0000000000000000e+00" cType="1" res="1.9015377620235085e-04" rms="4.5084637403488159e-01" purity="7.1079814434051514e-01" nType="-99"/>
                    <Node pos="r" depth="7" NCoef="0" IVar="-1" Cut="0.0000000000000000e+00" cType="1" res="1.8210400594398379e-03" rms="4.4188398122787476e-01" purity="7.3262131214141846e-01" nType="-99"/>
                  </Node>
                </Node>
                <Node pos="r" depth="5" NCoef="0" IVar="4" Cut="3.4617099910974503e-02" cType="1" res="2.8553280979394913e-02" rms="4.2862766981124878e-01" purity="7.5466561317443848e-01" nType="0">
                  <Node pos="l" depth="6" NCoef="0" IVar="-1" Cut="0.0000000000000000e+00" cType="1" res="3.7194597534835339e-03" rms="4.2470401525497437e-01" purity="7.6005125045776367e-01" nType="-99"/>
                  <Node pos="r" depth="6" NCoef="0" IVar="-1" Cut="0.0000000000000000e+00" cType="1" res="2.3125864099711180e-03" rms="4.3127328157424927e-01" purity="7.5090223550796509e-01" nType="-99"/>
                </Node>
              </Node>
              <Node pos="r" depth="4" NCoef="0" IVar="3" Cut="8.7765067815780640e-01" cType="1" res="9.1262320056557655e-03" rms="4.4679903984069824e-01" purity="7.1892821788787842e-01" nType="0">
                <Node pos="l" depth="5" NCoef="0" IVar="-1" Cut="0.0000000000000000e+00" cType="1" res="1.6639971872791648e-03" rms="4.5200482010841370e-01" purity="7.1142405271530151e-01" nType="-99"/>
                <Node pos="r" depth="5" NCoef="0" IVar="-1" Cut="0.0000000000000000e+00" cType="1" res="3.6728419217979535e-05" rms="4.4064772129058838e-01" purity="7.2744971513748169e-01" nType="-99"/>
              </Node>
            </Node>
            <Node pos="r" depth="3" NCoef="0" IVar="3" Cut="9.8732841014862061e-01" cType="1" res="4.6526575461030006e-03" rms="4.7594693303108215e-01" purity="6.3180112838745117e-01" nType="0">
              <Node pos="l" depth="4" NCoef="0" IVar="-1" Cut="0.0000000000000000e+00" cType="1" res="-1.0072112781926990e-03" rms="4.9227973818778992e-01" purity="5.5937778949737549e-01" nType="-99"/>
              <Node pos="r" depth="4" NCoef="0" IVar="-1" Cut="0.0000000000000000e+00" cType="1" res="1.1521478882059455e-03" rms="4.6663424372673035e-01" purity="6.7098981142044067e-01" nType="-99"/>
            </Node>
          </Node>
          <Node pos="r" depth="2" NCoef="0" IVar="-1" Cut="0.0000000000000000e+00" cType="1" res="-2.8634625487029552e-03" rms="4.7554194927215576e-01" purity="3.9993000030517578e-01" nType="-99"/>
        </Node>
      </Node>
    </BinaryTree>
    <BinaryTree type="DecisionTree" boostWeight="1.0000000000000000e+00" itree="75">
      <Node pos="s" depth="0" NCoef="0" IVar="3" Cut="7.7611547708511353e-01" cType="1" res="4.4305878691375256e-03" rms="4.1065248847007751e-01" purity="4.9961963295936584e-01" nType="0">
        <Node pos="l" depth="1" NCoef="0" IVar="4" Cut="2.5757415220141411e-02" cType="1" res="-3.8884894456714392e-03" rms="3.8933110237121582e-01" purity="2.5685355067253113e-01" nType="0">
          <Node pos="l" depth="2" NCoef="0" IVar="2" Cut="4.0118850708007812e+01" cType="1" res="-1.9574519246816635e-02" rms="4.0334370732307434e-01" purity="2.9161703586578369e-01" nType="0">
            <Node pos="l" depth="3" NCoef="0" IVar="-1" Cut="0.0000000000000000e+00" cType="1" res="-3.9187597576528788e-04" rms="4.2194727063179016e-01" purity="3.3442315459251404e-01" nType="-99"/>
            <Node pos="r" depth="3" NCoef="0" IVar="-1" Cut="0.0000000000000000e+00" cType="1" res="-5.6535378098487854e-03" rms="3.7897059321403503e-01" purity="2.4042329192161560e-01" nType="-99"/>
          </Node>
          <Node pos="r" depth="2" NCoef="0" IVar="3" Cut="4.8023211956024170e-01" cType="1" res="-2.7969272341579199e-03" rms="3.8831359148025513e-01" purity="2.5443443655967712e-01" nType="0">
            <Node pos="l" depth="3" NCoef="0" IVar="5" Cut="3.0000000000000000e+00" cType="1" res="-7.9999631270766258e-03" rms="2.8620338439941406e-01" purity="9.7563631832599640e-02" nType="0">
              <Node pos="l" depth="4" NCoef="0" IVar="-1" Cut="0.0000000000000000e+00" cType="1" res="6.8915844894945621e-03" rms="3.5681006312370300e-01" purity="1.7086808383464813e-01" nType="-99"/>
              <Node pos="r" depth="4" NCoef="0" IVar="4" Cut="2.4088275432586670e-01" cType="1" res="-9.8906559869647026e-03" rms="2.8216239809989929e-01" purity="9.3743965029716492e-02" nType="0">
                <Node pos="l" depth="5" NCoef="0" IVar="2" Cut="2.8149890136718750e+02" cType="1" res="-1.1261200532317162e-02" rms="2.7080178260803223e-01" purity="8.5214562714099884e-02" nType="0">
                  <Node pos="l" depth="6" NCoef="0" IVar="4" Cut="8.8204972445964813e-02" cType="1" res="-7.0616123266518116e-03" rms="2.6860043406486511e-01" purity="8.4020964801311493e-02" nType="0">
                    <Node pos="l" depth="7" NCoef="0" IVar="-1" Cut="0.0000000000000000e+00" cType="1" res="-5.5392789654433727e-03" rms="2.2813399136066437e-01" purity="5.7485196739435196e-02" nType="-99"/>
                    <Node pos="r" depth="7" NCoef="0" IVar="-1" Cut="0.0000000000000000e+00" cType="1" res="-9.2894821136724204e-05" rms="3.1124508380889893e-01" purity="1.1677211523056030e-01" nType="-99"/>
                  </Node>
                  <Node pos="r" depth="6" NCoef="0" IVar="3" Cut="3.7444630265235901e-01" cType="1" res="-1.6754953190684319e-02" rms="2.7355745434761047e-01" purity="8.6775980889797211e-02" nType="0">
                    <Node pos="l" depth="7" NCoef="0" IVar="-1" Cut="0.0000000000000000e+00" cType="1" res="-8.1901727244257927e-03" rms="2.3256497085094452e-01" purity="5.8916952461004257e-02" nType="-99"/>
                    <Node pos="r" depth="7" NCoef="0" IVar="-1" Cut="0.0000000000000000e+00" cType="1" res="-1.8826886080205441e-03" rms="3.3908313512802124e-01" purity="1.4080101251602173e-01" nType="-99"/>
                  </Node>
                </Node>
                <Node pos="r" depth="5" NCoef="0" IVar="-1" Cut="0.0000000000000000e+00" cType="1" res="7.4197346111759543e-04" rms="3.7803202867507935e-01" purity="1.7996591329574585e-01" nType="-99"/>
              </Node>
            </Node>
            <Node pos="r" depth="3" NCoef="0" IVar="1" Cut="1.5353540889918804e-02" cType="1" res="2.1014411468058825e-03" rms="4.6554952859878540e-01" purity="4.0506204962730408e-01" nType="0">
              <Node pos="l" depth="4" NCoef="0" IVar="2" Cut="1.7689730834960938e+02" cType="1" res="1.2164830230176449e-02" rms="4.7850385308265686e-01" purity="4.6887090802192688e-01" nType="0">
                <Node pos="l" depth="5" NCoef="0" IVar="2" Cut="1.1945731353759766e+02" cType="1" res="2.0334569737315178e-02" rms="4.8142138123512268e-01" purity="5.1220786571502686e-01" nType="0">
                  <Node pos="l" depth="6" NCoef="0" IVar="4" Cut="6.2155652791261673e-02" cType="1" res="2.6306344196200371e-02" rms="4.8303940892219543e-01" purity="5.3256702423095703e-01" nType="0">
                    <Node pos="l" depth="7" NCoef="0" IVar="-1" Cut="0.0000000000000000e+00" cType="1" res="1.0980630759149790e-03" rms="4.8289528489112854e-01" purity="5.1050287485122681e-01" nType="-99"/>
                    <Node pos="r" depth="7" NCoef="0" IVar="-1" Cut="0.0000000000000000e+00" cType="1" res="3.6678477190434933e-03" rms="4.8259130120277405e-01" purity="5.6119817495346069e-01" nType="-99"/>
                  </Node>
                  <Node pos="r" depth="6" NCoef="0" IVar="-1" Cut="0.0000000000000000e+00" cType="1" res="7.6873903162777424e-04" rms="4.7784957289695740e-01" purity="4.7042128443717957e-01" nType="-99"/>
                </Node>
                <Node pos="r" depth="5" NCoef="0" IVar="4" Cut="1.1297972500324249e-01" cType="1" res="2.4245565291494131e-03" rms="4.7481840848922729e-01" purity="4.1720294952392578e-01" nType="0">
                  <Node pos="l" depth="6" NCoef="0" IVar="3" Cut="6.9021081924438477e-01" cType="1" res="-5.7264212518930435e-03" rms="4.7144162654876709e-01" purity="4.2118853330612183e-01" nType="0">
                    <Node pos="l" depth="7" NCoef="0" IVar="-1" Cut="0.0000000000000000e+00" cType="1" res="-1.2977871811017394e-03" rms="4.5764765143394470e-01" purity="3.3766090869903564e-01" nType="-99"/>
                    <Node pos="r" depth="7" NCoef="0" IVar="-1" Cut="0.0000000000000000e+00" cType="1" res="3.6668390384875238e-04" rms="4.9285146594047546e-01" purity="5.5675715208053589e-01" nType="-99"/>
                  </Node>
                  <Node pos="r" depth="6" NCoef="0" IVar="-1" Cut="0.0000000000000000e+00" cType="1" res="1.9778455607593060e-03" rms="4.8150220513343811e-01" purity="4.0867334604263306e-01" nType="-99"/>
                </Node>
              </Node>
              <Node pos="r" depth="4" NCoef="0" IVar="1" Cut="9.8062962293624878e-01" cType="1" res="-5.0813634879887104e-03" rms="4.5594248175621033e-01" purity="3.5951808094978333e-01" nType="0">
                <Node pos="l" depth="5" NCoef="0" IVar="5" Cut="3.0000000000000000e+00" cType="1" res="-1.0726238833740354e-03" rms="4.6191757917404175e-01" purity="3.7674254179000854e-01" nType="0">
                  <Node pos="l" depth="6" NCoef="0" IVar="4" Cut="6.1485014855861664e-02" cType="1" res="-1.2264935299754143e-02" rms="4.6834486722946167e-01" purity="3.9399492740631104e-01" nType="0">
                    <Node pos="l" depth="7" NCoef="0" IVar="-1" Cut="0.0000000000000000e+00" cType="1" res="-3.5975221544504166e-03" rms="4.5796108245849609e-01" purity="3.5497707128524780e-01" nType="-99"/>
                    <Node pos="r" depth="7" NCoef="0" IVar="-1" Cut="0.0000000000000000e+00" cType="1" res="-9.6598974778316915e-05" rms="4.7287356853485107e-01" purity="4.1286495327949524e-01" nType="-99"/>
                  </Node>
                  <Node pos="r" depth="6" NCoef="0" IVar="2" Cut="1.0935924530029297e+02" cType="1" res="2.2536301985383034e-03" rms="4.6019342541694641e-01" purity="3.7051194906234741e-01" nType="0">
                    <Node pos="l" depth="7" NCoef="0" IVar="-1" Cut="0.0000000000000000e+00" cType="1" res="1.3956143520772457e-03" rms="4.7202146053314209e-01" purity="4.1819274425506592e-01" nType="-99"/>
                    <Node pos="r" depth="7" NCoef="0" IVar="-1" Cut="0.0000000000000000e+00" cType="1" res="-2.9930271557532251e-04" rms="4.5508217811584473e-01" purity="3.5064300894737244e-01" nType="-99"/>
                  </Node>
                </Node>
                <Node pos="r" depth="5" NCoef="0" IVar="-1" Cut="0.0000000000000000e+00" cType="1" res="-4.6355393715202808e-03" rms="3.9723950624465942e-01" purity="2.1707324683666229e-01" nType="-99"/>
              </Node>
            </Node>
          </Node>
        </Node>
        <Node pos="r" depth="1" NCoef="0" IVar="3" Cut="1.0493952035903931e+00" cType="1" res="1.2516695074737072e-02" rms="4.3021148443222046e-01" purity="7.3558723926544189e-01" nType="0">
          <Node pos="l" depth="2" NCoef="0" IVar="3" Cut="9.9650013446807861e-01" cType="1" res="1.3749316334724426e-02" rms="4.3025568127632141e-01" purity="7.3697900772094727e-01" nType="0">
            <Node pos="l" depth="3" NCoef="0" IVar="1" Cut="9.6670395135879517e-01" cType="1" res="9.2977778986096382e-03" rms="4.4501534104347229e-01" purity="7.0674061775207520e-01" nType="0">
              <Node pos="l" depth="4" NCoef="0" IVar="5" Cut="3.0000000000000000e+00" cType="1" res="1.1477250605821609e-02" rms="4.4171103835105896e-01" purity="7.1747148036956787e-01" nType="0">
                <Node pos="l" depth="5" NCoef="0" IVar="3" Cut="8.6142897605895996e-01" cType="1" res="9.7198886796832085e-03" rms="4.4140234589576721e-01" purity="7.2000879049301147e-01" nType="0">
                  <Node pos="l" depth="6" NCoef="0" IVar="4" Cut="6.2914878129959106e-02" cType="1" res="5.3479415364563465e-03" rms="4.7184425592422485e-01" purity="6.5006589889526367e-01" nType="0">
                    <Node pos="l" depth="7" NCoef="0" IVar="-1" Cut="0.0000000000000000e+00" cType="1" res="1.1894147610291839e-04" rms="4.7278639674186707e-01" purity="6.4744371175765991e-01" nType="-99"/>
                    <Node pos="r" depth="7" NCoef="0" IVar="-1" Cut="0.0000000000000000e+00" cType="1" res="1.9254188518971205e-03" rms="4.6727743744850159e-01" purity="6.6158574819564819e-01" nType="-99"/>
                  </Node>
                  <Node pos="r" depth="6" NCoef="0" IVar="4" Cut="2.5620380416512489e-02" cType="1" res="1.1707961559295654e-02" rms="4.2682707309722900e-01" purity="7.5181430578231812e-01" nType="0">
                    <Node pos="l" depth="7" NCoef="0" IVar="-1" Cut="0.0000000000000000e+00" cType="1" res="9.5976557349786162e-04" rms="4.2414730787277222e-01" purity="7.5604158639907837e-01" nType="-99"/>
                    <Node pos="r" depth="7" NCoef="0" IVar="-1" Cut="0.0000000000000000e+00" cType="1" res="2.1527844946831465e-03" rms="4.3456292152404785e-01" purity="7.3928618431091309e-01" nType="-99"/>
                  </Node>
                </Node>
                <Node pos="r" depth="5" NCoef="0" IVar="-1" Cut="0.0000000000000000e+00" cType="1" res="3.1192251481115818e-03" rms="4.6167236566543579e-01" purity="6.7304742336273193e-01" nType="-99"/>
              </Node>
              <Node pos="r" depth="4" NCoef="0" IVar="-1" Cut="0.0000000000000000e+00" cType="1" res="-1.9449490355327725e-03" rms="4.9078771471977234e-01" purity="4.9175351858139038e-01" nType="-99"/>
            </Node>
            <Node pos="r" depth="3" NCoef="0" IVar="3" Cut="9.9991250038146973e-01" cType="1" res="2.0987832918763161e-02" rms="4.0500444173812866e-01" purity="7.8614884614944458e-01" nType="0">
              <Node pos="l" depth="4" NCoef="0" IVar="3" Cut="9.9903166294097900e-01" cType="1" res="1.7006421461701393e-02" rms="4.1096487641334534e-01" purity="7.7569413185119629e-01" nType="0">
                <Node pos="l" depth="5" NCoef="0" IVar="3" Cut="9.9821490049362183e-01" cType="1" res="1.4400879852473736e-02" rms="4.1240006685256958e-01" purity="7.7294903993606567e-01" nType="0">
                  <Node pos="l" depth="6" NCoef="0" IVar="3" Cut="9.9744027853012085e-01" cType="1" res="1.6461713239550591e-02" rms="4.1075614094734192e-01" purity="7.7473223209381104e-01" nType="0">
                    <Node pos="l" depth="7" NCoef="0" IVar="-1" Cut="0.0000000000000000e+00" cType="1" res="1.4786609681323171e-03" rms="4.1295352578163147e-01" purity="7.7084177732467651e-01" nType="-99"/>
                    <Node pos="r" depth="7" NCoef="0" IVar="-1" Cut="0.0000000000000000e+00" cType="1" res="2.1813893690705299e-03" rms="4.0824565291404724e-01" purity="7.7910250425338745e-01" nType="-99"/>
                  </Node>
                  <Node pos="r" depth="6" NCoef="0" IVar="-1" Cut="0.0000000000000000e+00" cType="1" res="1.1202549794688821e-03" rms="4.1558092832565308e-01" purity="7.6944577693939209e-01" nType="-99"/>
                </Node>
                <Node pos="r" depth="5" NCoef="0" IVar="-1" Cut="0.0000000000000000e+00" cType="1" res="2.4202670902013779e-03" rms="4.0745437145233154e-01" purity="7.8224122524261475e-01" nType="-99"/>
              </Node>
              <Node pos="r" depth="4" NCoef="0" IVar="3" Cut="1.0286424160003662e+00" cType="1" res="2.2688839584589005e-02" rms="4.0241900086402893e-01" purity="7.9061549901962280e-01" nType="0">
                <Node pos="l" depth="5" NCoef="0" IVar="3" Cut="1.0036195516586304e+00" cType="1" res="2.4014115333557129e-02" rms="4.0113812685012817e-01" purity="7.9292345046997070e-01" nType="0">
                  <Node pos="l" depth="6" NCoef="0" IVar="3" Cut="1.0019443035125732e+00" cType="1" res="2.1198127418756485e-02" rms="4.0599167346954346e-01" purity="7.8590798377990723e-01" nType="0">
                    <Node pos="l" depth="7" NCoef="0" IVar="-1" Cut="0.0000000000000000e+00" cType="1" res="2.4522212333977222e-03" rms="4.0634909272193909e-01" purity="7.8549987077713013e-01" nType="-99"/>
                    <Node pos="r" depth="7" NCoef="0" IVar="-1" Cut="0.0000000000000000e+00" cType="1" res="1.8089584773406386e-03" rms="4.0523248910903931e-01" purity="7.8672742843627930e-01" nType="-99"/>
                  </Node>
                  <Node pos="r" depth="6" NCoef="0" IVar="3" Cut="1.0060410499572754e+00" cType="1" res="2.6408117264509201e-02" rms="3.9694952964782715e-01" purity="7.9888761043548584e-01" nType="0">
                    <Node pos="l" depth="7" NCoef="0" IVar="-1" Cut="0.0000000000000000e+00" cType="1" res="3.7513298448175192e-03" rms="3.8907921314239502e-01" purity="8.0767923593521118e-01" nType="-99"/>
                    <Node pos="r" depth="7" NCoef="0" IVar="-1" Cut="0.0000000000000000e+00" cType="1" res="2.6452760212123394e-03" rms="3.9916887879371643e-01" purity="7.9634404182434082e-01" nType="-99"/>
                  </Node>
                </Node>
                <Node pos="r" depth="5" NCoef="0" IVar="-1" Cut="0.0000000000000000e+00" cType="1" res="1.3873750576749444e-03" rms="4.1134440898895264e-01" purity="7.7409881353378296e-01" nType="-99"/>
              </Node>
            </Node>
          </Node>
          <Node pos="r" depth="2" NCoef="0" IVar="-1" Cut="0.0000000000000000e+00" cType="1" res="-3.1371959485113621e-03" rms="4.2646932601928711e-01" purity="6.8724882602691650e-01" nType="-99"/>
        </Node>
      </Node>
    </BinaryTree>
    <BinaryTree type="DecisionTree" boostWeight="1.0000000000000000e+00" itree="76">
      <Node pos="s" depth="0" NCoef="0" IVar="0" Cut="1.2874441146850586e+00" cType="1" res="5.3463242948055267e-03" rms="4.1034901142120361e-01" purity="5.0055384635925293e-01" nType="0">
        <Node pos="l" depth="1" NCoef="0" IVar="3" Cut="7.8131276369094849e-01" cType="1" res="8.4386626258492470e-03" rms="4.3164768815040588e-01" purity="5.6891328096389771e-01" nType="0">
          <Node pos="l" depth="2" NCoef="0" IVar="1" Cut="7.1358156204223633e-01" cType="1" res="5.0114229088649154e-04" rms="4.3548461794853210e-01" purity="3.3470150828361511e-01" nType="0">
            <Node pos="l" depth="3" NCoef="0" IVar="4" Cut="5.0716001540422440e-02" cType="1" res="2.9089062009006739e-03" rms="4.4265639781951904e-01" purity="3.5373732447624207e-01" nType="0">
              <Node pos="l" depth="4" NCoef="0" IVar="2" Cut="4.8815956115722656e+01" cType="1" res="-7.4759540148079395e-03" rms="4.5351403951644897e-01" purity="3.9513722062110901e-01" nType="0">
                <Node pos="l" depth="5" NCoef="0" IVar="4" Cut="1.9679028540849686e-02" cType="1" res="1.1558833532035351e-02" rms="4.6773281693458557e-01" purity="4.6135890483856201e-01" nType="0">
                  <Node pos="l" depth="6" NCoef="0" IVar="-1" Cut="0.0000000000000000e+00" cType="1" res="-1.4408404240384698e-03" rms="4.5981892943382263e-01" purity="4.2309498786926270e-01" nType="-99"/>
                  <Node pos="r" depth="6" NCoef="0" IVar="-1" Cut="0.0000000000000000e+00" cType="1" res="2.4907242041081190e-03" rms="4.7159022092819214e-01" purity="4.8342961072921753e-01" nType="-99"/>
                </Node>
                <Node pos="r" depth="5" NCoef="0" IVar="5" Cut="4.0000000000000000e+00" cType="1" res="-7.7276979573071003e-03" rms="3.7079170346260071e-01" purity="3.5648933053016663e-01" nType="0">
                  <Node pos="l" depth="6" NCoef="0" IVar="0" Cut="3.7299260497093201e-01" cType="1" res="-2.6331866160035133e-02" rms="4.6178945899009705e-01" purity="4.0057849884033203e-01" nType="0">
                    <Node pos="l" depth="7" NCoef="0" IVar="-1" Cut="0.0000000000000000e+00" cType="1" res="-1.3089120620861650e-03" rms="4.9153536558151245e-01" purity="5.0899958610534668e-01" nType="-99"/>
                    <Node pos="r" depth="7" NCoef="0" IVar="-1" Cut="0.0000000000000000e+00" cType="1" res="-5.6300261057913303e-03" rms="4.1383081674575806e-01" purity="2.4203173816204071e-01" nType="-99"/>
                  </Node>
                  <Node pos="r" depth="6" NCoef="0" IVar="-1" Cut="0.0000000000000000e+00" cType="1" res="-6.7805987782776356e-04" rms="4.1235113143920898e-01" purity="2.7890619635581970e-01" nType="-99"/>
                </Node>
              </Node>
              <Node pos="r" depth="4" NCoef="0" IVar="2" Cut="1.6050325012207031e+02" cType="1" res="6.0283471830189228e-03" rms="4.3929460644721985e-01" purity="3.4130147099494934e-01" nType="0">
                <Node pos="l" depth="5" NCoef="0" IVar="2" Cut="9.1593597412109375e+01" cType="1" res="1.6843378543853760e-02" rms="4.6250414848327637e-01" purity="4.3116790056228638e-01" nType="0">
                  <Node pos="l" depth="6" NCoef="0" IVar="0" Cut="3.3216232061386108e-01" cType="1" res="2.7462784200906754e-02" rms="4.7154897451400757e-01" purity="4.7589895129203796e-01" nType="0">
                    <Node pos="l" depth="7" NCoef="0" IVar="-1" Cut="0.0000000000000000e+00" cType="1" res="1.4373399317264557e-03" rms="4.8543077707290649e-01" purity="5.8223247528076172e-01" nType="-99"/>
                    <Node pos="r" depth="7" NCoef="0" IVar="-1" Cut="0.0000000000000000e+00" cType="1" res="3.7238902878016233e-03" rms="4.5805788040161133e-01" purity="3.7685763835906982e-01" nType="-99"/>
                  </Node>
                  <Node pos="r" depth="6" NCoef="0" IVar="4" Cut="8.0497525632381439e-02" cType="1" res="9.8724188283085823e-03" rms="4.5633506774902344e-01" purity="4.0180480480194092e-01" nType="0">
                    <Node pos="l" depth="7" NCoef="0" IVar="-1" Cut="0.0000000000000000e+00" cType="1" res="-1.7242887406609952e-04" rms="4.5314091444015503e-01" purity="4.0196114778518677e-01" nType="-99"/>
                    <Node pos="r" depth="7" NCoef="0" IVar="-1" Cut="0.0000000000000000e+00" cType="1" res="1.8465034663677216e-03" rms="4.5837247371673584e-01" purity="4.0169617533683777e-01" nType="-99"/>
                  </Node>
                </Node>
                <Node pos="r" depth="5" NCoef="0" IVar="5" Cut="3.0000000000000000e+00" cType="1" res="6.3766678795218468e-04" rms="4.1091376543045044e-01" purity="2.9994809627532959e-01" nType="0">
                  <Node pos="l" depth="6" NCoef="0" IVar="4" Cut="9.4275683164596558e-02" cType="1" res="1.4885310083627701e-02" rms="4.7573155164718628e-01" purity="4.2643594741821289e-01" nType="0">
                    <Node pos="l" depth="7" NCoef="0" IVar="-1" Cut="0.0000000000000000e+00" cType="1" res="2.7458558906801045e-04" rms="4.7404551506042480e-01" purity="4.3754646182060242e-01" nType="-99"/>
                    <Node pos="r" depth="7" NCoef="0" IVar="-1" Cut="0.0000000000000000e+00" cType="1" res="2.6356861926615238e-03" rms="4.7702780365943909e-01" purity="4.1602137684822083e-01" nType="-99"/>
                  </Node>
                  <Node pos="r" depth="6" NCoef="0" IVar="3" Cut="4.6051406860351562e-01" cType="1" res="-1.7187995836138725e-03" rms="4.1785404086112976e-01" purity="2.7461650967597961e-01" nType="0">
                    <Node pos="l" depth="7" NCoef="0" IVar="-1" Cut="0.0000000000000000e+00" cType="1" res="-1.6823229379951954e-03" rms="3.5243609547615051e-01" purity="1.5059411525726318e-01" nType="-99"/>
                    <Node pos="r" depth="7" NCoef="0" IVar="-1" Cut="0.0000000000000000e+00" cType="1" res="3.6857562372460961e-04" rms="4.6196261048316956e-01" purity="3.7027749419212341e-01" nType="-99"/>
                  </Node>
                </Node>
              </Node>
            </Node>
            <Node pos="r" depth="3" NCoef="0" IVar="1" Cut="1.3120529651641846e+00" cType="1" res="-1.6963491216301918e-02" rms="3.7897041440010071e-01" purity="1.9662611186504364e-01" nType="0">
              <Node pos="l" depth="4" NCoef="0" IVar="3" Cut="5.1058900356292725e-01" cType="1" res="-9.4886226579546928e-03" rms="3.8307183980941772e-01" purity="2.0573161542415619e-01" nType="0">
                <Node pos="l" depth="5" NCoef="0" IVar="-1" Cut="0.0000000000000000e+00" cType="1" res="-4.5482064597308636e-03" rms="3.0456233024597168e-01" purity="1.0640685260295868e-01" nType="-99"/>
                <Node pos="r" depth="5" NCoef="0" IVar="-1" Cut="0.0000000000000000e+00" cType="1" res="-2.8046043007634580e-04" rms="4.4083574414253235e-01" purity="2.9348963499069214e-01" nType="-99"/>
              </Node>
              <Node pos="r" depth="4" NCoef="0" IVar="-1" Cut="0.0000000000000000e+00" cType="1" res="-5.5080805905163288e-03" rms="3.6915528774261475e-01" purity="1.7639860510826111e-01" nType="-99"/>
            </Node>
          </Node>
          <Node pos="r" depth="2" NCoef="0" IVar="1" Cut="3.3660605549812317e-01" cType="1" res="1.4294309541583061e-02" rms="4.2870095372200012e-01" purity="7.4169540405273438e-01" nType="0">
            <Node pos="l" depth="3" NCoef="0" IVar="2" Cut="1.9890080261230469e+02" cType="1" res="1.6595153138041496e-02" rms="4.1961407661437988e-01" purity="7.6309359073638916e-01" nType="0">
              <Node pos="l" depth="4" NCoef="0" IVar="2" Cut="8.3400405883789062e+01" cType="1" res="1.7504774034023285e-02" rms="4.1743704676628113e-01" purity="7.6800310611724854e-01" nType="0">
                <Node pos="l" depth="5" NCoef="0" IVar="4" Cut="3.1949114054441452e-02" cType="1" res="1.8519276753067970e-02" rms="4.1189935803413391e-01" purity="7.7794665098190308e-01" nType="0">
                  <Node pos="l" depth="6" NCoef="0" IVar="3" Cut="8.9418822526931763e-01" cType="1" res="1.7190538346767426e-02" rms="4.0901175141334534e-01" purity="7.8234213590621948e-01" nType="0">
                    <Node pos="l" depth="7" NCoef="0" IVar="-1" Cut="0.0000000000000000e+00" cType="1" res="6.6057732328772545e-04" rms="4.5746150612831116e-01" purity="6.9198429584503174e-01" nType="-99"/>
                    <Node pos="r" depth="7" NCoef="0" IVar="-1" Cut="0.0000000000000000e+00" cType="1" res="2.0713754929602146e-03" rms="4.0240681171417236e-01" purity="7.9384458065032959e-01" nType="-99"/>
                  </Node>
                  <Node pos="r" depth="6" NCoef="0" IVar="2" Cut="5.8092597961425781e+01" cType="1" res="3.1095856800675392e-02" rms="4.3809005618095398e-01" purity="7.3634320497512817e-01" nType="0">
                    <Node pos="l" depth="7" NCoef="0" IVar="-1" Cut="0.0000000000000000e+00" cType="1" res="1.7913472838699818e-03" rms="4.4311198592185974e-01" purity="7.2651863098144531e-01" nType="-99"/>
                    <Node pos="r" depth="7" NCoef="0" IVar="-1" Cut="0.0000000000000000e+00" cType="1" res="4.2724180966615677e-03" rms="4.3101924657821655e-01" purity="7.4917650222778320e-01" nType="-99"/>
                  </Node>
                </Node>
                <Node pos="r" depth="5" NCoef="0" IVar="3" Cut="8.8897937536239624e-01" cType="1" res="1.0976812802255154e-02" rms="4.5139357447624207e-01" purity="7.0402020215988159e-01" nType="0">
                  <Node pos="l" depth="6" NCoef="0" IVar="4" Cut="5.3176458925008774e-02" cType="1" res="6.6828262060880661e-03" rms="4.5982542634010315e-01" purity="6.8688780069351196e-01" nType="0">
                    <Node pos="l" depth="7" NCoef="0" IVar="-1" Cut="0.0000000000000000e+00" cType="1" res="-1.1702788469847292e-04" rms="4.6084946393966675e-01" purity="6.8163102865219116e-01" nType="-99"/>
                    <Node pos="r" depth="7" NCoef="0" IVar="-1" Cut="0.0000000000000000e+00" cType="1" res="2.1668318659067154e-03" rms="4.5699051022529602e-01" purity="6.9882041215896606e-01" nType="-99"/>
                  </Node>
                  <Node pos="r" depth="6" NCoef="0" IVar="-1" Cut="0.0000000000000000e+00" cType="1" res="3.1981358770281076e-03" rms="4.1788011789321899e-01" purity="7.6824831962585449e-01" nType="-99"/>
                </Node>
              </Node>
              <Node pos="r" depth="4" NCoef="0" IVar="-1" Cut="0.0000000000000000e+00" cType="1" res="-6.2973820604383945e-04" rms="4.7056397795677185e-01" purity="6.3943165540695190e-01" nType="-99"/>
            </Node>
            <Node pos="r" depth="3" NCoef="0" IVar="0" Cut="4.1524488478899002e-02" cType="1" res="4.7865221276879311e-03" rms="4.6424809098243713e-01" purity="6.5327149629592896e-01" nType="0">
              <Node pos="l" depth="4" NCoef="0" IVar="4" Cut="2.5753758847713470e-02" cType="1" res="8.5307611152529716e-03" rms="4.6041616797447205e-01" purity="6.7571818828582764e-01" nType="0">
                <Node pos="l" depth="5" NCoef="0" IVar="3" Cut="9.8831701278686523e-01" cType="1" res="3.7258258089423180e-03" rms="4.5404335856437683e-01" purity="6.9332861900329590e-01" nType="0">
                  <Node pos="l" depth="6" NCoef="0" IVar="-1" Cut="0.0000000000000000e+00" cType="1" res="-2.2473651915788651e-03" rms="4.8375621438026428e-01" purity="5.9563869237899780e-01" nType="-99"/>
                  <Node pos="r" depth="6" NCoef="0" IVar="3" Cut="9.9889844655990601e-01" cType="1" res="1.2620917521417141e-02" rms="4.4404974579811096e-01" purity="7.2362262010574341e-01" nType="0">
                    <Node pos="l" depth="7" NCoef="0" IVar="-1" Cut="0.0000000000000000e+00" cType="1" res="2.6926517602987587e-04" rms="4.5202091336250305e-01" purity="7.0596247911453247e-01" nType="-99"/>
                    <Node pos="r" depth="7" NCoef="0" IVar="-1" Cut="0.0000000000000000e+00" cType="1" res="1.7039587255567312e-03" rms="4.3907886743545532e-01" purity="7.3424434661865234e-01" nType="-99"/>
                  </Node>
                </Node>
                <Node pos="r" depth="5" NCoef="0" IVar="-1" Cut="0.0000000000000000e+00" cType="1" res="1.9744350574910641e-03" rms="4.7879698872566223e-01" purity="6.2270796298980713e-01" nType="-99"/>
              </Node>
              <Node pos="r" depth="4" NCoef="0" IVar="-1" Cut="0.0000000000000000e+00" cType="1" res="-1.9543387461453676e-03" rms="4.8948132991790771e-01" purity="4.9582061171531677e-01" nType="-99"/>
            </Node>
          </Node>
        </Node>
        <Node pos="r" depth="1" NCoef="0" IVar="3" Cut="3.9454934000968933e-01" cType="1" res="-1.4756935648620129e-02" rms="2.2657243907451630e-01" purity="5.6149803102016449e-02" nType="0">
          <Node pos="l" depth="2" NCoef="0" IVar="5" Cut="4.0000000000000000e+00" cType="1" res="-1.0958006605505943e-02" rms="2.0531632006168365e-01" purity="4.5376945286989212e-02" nType="0">
            <Node pos="l" depth="3" NCoef="0" IVar="-1" Cut="0.0000000000000000e+00" cType="1" res="2.5275116786360741e-03" rms="2.7376344799995422e-01" purity="8.3689615130424500e-02" nType="-99"/>
            <Node pos="r" depth="3" NCoef="0" IVar="3" Cut="1.9841627776622772e-01" cType="1" res="-1.3431719504296780e-02" rms="1.9397190213203430e-01" purity="3.9824407547712326e-02" nType="0">
              <Node pos="l" depth="4" NCoef="0" IVar="5" Cut="8.0000000000000000e+00" cType="1" res="-2.0186718553304672e-02" rms="1.8174624443054199e-01" purity="3.6977697163820267e-02" nType="0">
                <Node pos="l" depth="5" NCoef="0" IVar="-1" Cut="0.0000000000000000e+00" cType="1" res="-8.2358419895172119e-03" rms="1.9806352257728577e-01" purity="4.1329938918352127e-02" nType="-99"/>
                <Node pos="r" depth="5" NCoef="0" IVar="-1" Cut="0.0000000000000000e+00" cType="1" res="-1.4413062483072281e-02" rms="1.7670409381389618e-01" purity="3.3179409801959991e-02" nType="-99"/>
              </Node>
              <Node pos="r" depth="4" NCoef="0" IVar="4" Cut="1.1529326438903809e-01" cType="1" res="-1.1195311322808266e-02" rms="1.9612625241279602e-01" purity="4.0755365043878555e-02" nType="0">
                <Node pos="l" depth="5" NCoef="0" IVar="4" Cut="5.2257087081670761e-02" cType="1" res="-1.6181798651814461e-02" rms="1.6591265797615051e-01" purity="2.8531610965728760e-02" nType="0">
                  <Node pos="l" depth="6" NCoef="0" IVar="-1" Cut="0.0000000000000000e+00" cType="1" res="-1.4609924517571926e-02" rms="1.5216290950775146e-01" purity="2.3858398199081421e-02" nType="-99"/>
                  <Node pos="r" depth="6" NCoef="0" IVar="2" Cut="1.9330747985839844e+02" cType="1" res="-1.3476626947522163e-02" rms="1.7177380621433258e-01" purity="3.0671387910842896e-02" nType="0">
                    <Node pos="l" depth="7" NCoef="0" IVar="-1" Cut="0.0000000000000000e+00" cType="1" res="-5.8605787344276905e-03" rms="1.9257077574729919e-01" purity="3.8873717188835144e-02" nType="-99"/>
                    <Node pos="r" depth="7" NCoef="0" IVar="-1" Cut="0.0000000000000000e+00" cType="1" res="-1.2741633690893650e-02" rms="1.5003795921802521e-01" purity="2.3140925914049149e-02" nType="-99"/>
                  </Node>
                </Node>
                <Node pos="r" depth="5" NCoef="0" IVar="4" Cut="1.4249043166637421e-01" cType="1" res="-2.1039501298218966e-03" rms="2.4141371250152588e-01" purity="6.3041716814041138e-02" nType="0">
                  <Node pos="l" depth="6" NCoef="0" IVar="-1" Cut="0.0000000000000000e+00" cType="1" res="-5.5449758656322956e-03" rms="2.0146366953849792e-01" purity="4.2524851858615875e-02" nType="-99"/>
                  <Node pos="r" depth="6" NCoef="0" IVar="-1" Cut="0.0000000000000000e+00" cType="1" res="1.1688958620652556e-03" rms="2.6501515507698059e-01" purity="7.6969794929027557e-02" nType="-99"/>
                </Node>
              </Node>
            </Node>
          </Node>
          <Node pos="r" depth="2" NCoef="0" IVar="-1" Cut="0.0000000000000000e+00" cType="1" res="-8.3466358482837677e-03" rms="3.3099898695945740e-01" purity="1.2715812027454376e-01" nType="-99"/>
        </Node>
      </Node>
    </BinaryTree>
    <BinaryTree type="DecisionTree" boostWeight="1.0000000000000000e+00" itree="77">
      <Node pos="s" depth="0" NCoef="0" IVar="3" Cut="8.4381175041198730e-01" cType="1" res="3.6762899253517389e-03" rms="4.1028538346290588e-01" purity="4.9961248040199280e-01" nType="0">
        <Node pos="l" depth="1" NCoef="0" IVar="0" Cut="1.6089084148406982e+00" cType="1" res="-3.2090058084577322e-03" rms="4.0239888429641724e-01" purity="3.0830577015876770e-01" nType="0">
          <Node pos="l" depth="2" NCoef="0" IVar="4" Cut="2.5837596505880356e-02" cType="1" res="-1.2162666535004973e-03" rms="4.3234139680862427e-01" purity="3.6343109607696533e-01" nType="0">
            <Node pos="l" depth="3" NCoef="0" IVar="2" Cut="2.9394889831542969e+01" cType="1" res="-1.9067056477069855e-02" rms="4.4904443621635437e-01" purity="4.3369415402412415e-01" nType="0">
              <Node pos="l" depth="4" NCoef="0" IVar="-1" Cut="0.0000000000000000e+00" cType="1" res="-4.6885802476026583e-06" rms="4.5857036113739014e-01" purity="4.8760783672332764e-01" nType="-99"/>
              <Node pos="r" depth="4" NCoef="0" IVar="4" Cut="2.0568991079926491e-02" cType="1" res="-3.5519722849130630e-02" rms="4.3997502326965332e-01" purity="3.8705521821975708e-01" nType="0">
                <Node pos="l" depth="5" NCoef="0" IVar="-1" Cut="0.0000000000000000e+00" cType="1" res="-5.3191510960459709e-03" rms="4.3637204170227051e-01" purity="3.7892138957977295e-01" nType="-99"/>
                <Node pos="r" depth="5" NCoef="0" IVar="-1" Cut="0.0000000000000000e+00" cType="1" res="-2.3979418911039829e-03" rms="4.4374325871467590e-01" purity="3.9658012986183167e-01" nType="-99"/>
              </Node>
            </Node>
            <Node pos="r" depth="3" NCoef="0" IVar="2" Cut="8.1483070373535156e+01" cType="1" res="5.1124597666785121e-04" rms="4.3065130710601807e-01" purity="3.5663136839866638e-01" nType="0">
              <Node pos="l" depth="4" NCoef="0" IVar="1" Cut="5.9691643714904785e-01" cType="1" res="1.0731579735875130e-02" rms="4.5771107077598572e-01" purity="4.7975611686706543e-01" nType="0">
                <Node pos="l" depth="5" NCoef="0" IVar="0" Cut="5.7047891616821289e-01" cType="1" res="1.4901688322424889e-02" rms="4.6614035964012146e-01" purity="5.1769071817398071e-01" nType="0">
                  <Node pos="l" depth="6" NCoef="0" IVar="5" Cut="3.0000000000000000e+00" cType="1" res="5.0332751125097275e-03" rms="3.5471501946449280e-01" purity="5.8249002695083618e-01" nType="0">
                    <Node pos="l" depth="7" NCoef="0" IVar="-1" Cut="0.0000000000000000e+00" cType="1" res="2.2314804664347321e-04" rms="4.7584697604179382e-01" purity="6.2129509449005127e-01" nType="-99"/>
                    <Node pos="r" depth="7" NCoef="0" IVar="-1" Cut="0.0000000000000000e+00" cType="1" res="1.6039991751313210e-03" rms="4.8014548420906067e-01" purity="5.4265427589416504e-01" nType="-99"/>
                  </Node>
                  <Node pos="r" depth="6" NCoef="0" IVar="-1" Cut="0.0000000000000000e+00" cType="1" res="4.6513802371919155e-03" rms="4.1601654887199402e-01" purity="2.6484909653663635e-01" nType="-99"/>
                </Node>
                <Node pos="r" depth="5" NCoef="0" IVar="-1" Cut="0.0000000000000000e+00" cType="1" res="-1.9053298747166991e-03" rms="4.0254780650138855e-01" purity="2.5214883685112000e-01" nType="-99"/>
              </Node>
              <Node pos="r" depth="4" NCoef="0" IVar="0" Cut="4.6707692742347717e-01" cType="1" res="-1.8370739417150617e-03" rms="4.2415520548820496e-01" purity="3.2834106683731079e-01" nType="0">
                <Node pos="l" depth="5" NCoef="0" IVar="4" Cut="6.1994045972824097e-02" cType="1" res="2.4777490179985762e-03" rms="4.7144854068756104e-01" purity="4.5188435912132263e-01" nType="0">
                  <Node pos="l" depth="6" NCoef="0" IVar="3" Cut="7.6598727703094482e-01" cType="1" res="-8.0136675387620926e-03" rms="4.8011881113052368e-01" purity="5.2018964290618896e-01" nType="0">
                    <Node pos="l" depth="7" NCoef="0" IVar="-1" Cut="0.0000000000000000e+00" cType="1" res="-1.8123934278264642e-03" rms="4.7882631421089172e-01" purity="4.2399707436561584e-01" nType="-99"/>
                    <Node pos="r" depth="7" NCoef="0" IVar="-1" Cut="0.0000000000000000e+00" cType="1" res="2.5154455215670168e-04" rms="4.8119696974754333e-01" purity="6.1841171979904175e-01" nType="-99"/>
                  </Node>
                  <Node pos="r" depth="6" NCoef="0" IVar="2" Cut="6.7355053710937500e+02" cType="1" res="6.5538813360035419e-03" rms="4.6797317266464233e-01" purity="4.2534637451171875e-01" nType="0">
                    <Node pos="l" depth="7" NCoef="0" IVar="-1" Cut="0.0000000000000000e+00" cType="1" res="8.6785899475216866e-04" rms="4.7270920872688293e-01" purity="4.4367852807044983e-01" nType="-99"/>
                    <Node pos="r" depth="7" NCoef="0" IVar="-1" Cut="0.0000000000000000e+00" cType="1" res="-2.4172337725758553e-03" rms="4.1311180591583252e-01" purity="2.2905829548835754e-01" nType="-99"/>
                  </Node>
                </Node>
                <Node pos="r" depth="5" NCoef="0" IVar="0" Cut="6.8806374073028564e-01" cType="1" res="-7.9902177676558495e-03" rms="3.4560301899909973e-01" purity="1.5216243267059326e-01" nType="0">
                  <Node pos="l" depth="6" NCoef="0" IVar="4" Cut="9.5007270574569702e-02" cType="1" res="-1.7814798280596733e-02" rms="4.0623590350151062e-01" purity="2.2686402499675751e-01" nType="0">
                    <Node pos="l" depth="7" NCoef="0" IVar="-1" Cut="0.0000000000000000e+00" cType="1" res="-3.2637207768857479e-03" rms="4.1707730293273926e-01" purity="2.4521288275718689e-01" nType="-99"/>
                    <Node pos="r" depth="7" NCoef="0" IVar="-1" Cut="0.0000000000000000e+00" cType="1" res="-1.5074876137077808e-03" rms="3.9367660880088806e-01" purity="2.0646269619464874e-01" nType="-99"/>
                  </Node>
                  <Node pos="r" depth="6" NCoef="0" IVar="2" Cut="1.4554116821289062e+02" cType="1" res="-3.8850014097988605e-03" rms="3.1675860285758972e-01" purity="1.2094824761152267e-01" nType="0">
                    <Node pos="l" depth="7" NCoef="0" IVar="-1" Cut="0.0000000000000000e+00" cType="1" res="1.2462106533348560e-03" rms="3.4518977999687195e-01" purity="1.5210916101932526e-01" nType="-99"/>
                    <Node pos="r" depth="7" NCoef="0" IVar="-1" Cut="0.0000000000000000e+00" cType="1" res="-1.7412883462384343e-03" rms="3.0810102820396423e-01" purity="1.1204699426889420e-01" nType="-99"/>
                  </Node>
                </Node>
              </Node>
            </Node>
          </Node>
          <Node pos="r" depth="2" NCoef="0" IVar="0" Cut="4.5776195526123047e+00" cType="1" res="-1.2685005553066730e-02" rms="2.0727284252643585e-01" purity="4.6170279383659363e-02" nType="0">
            <Node pos="l" depth="3" NCoef="0" IVar="0" Cut="2.2790865898132324e+00" cType="1" res="-1.4574393630027771e-02" rms="2.0439237356185913e-01" purity="4.4849932193756104e-02" nType="0">
              <Node pos="l" depth="4" NCoef="0" IVar="0" Cut="2.0196571350097656e+00" cType="1" res="-9.5571158453822136e-03" rms="2.2415485978126526e-01" purity="5.4798047989606857e-02" nType="0">
                <Node pos="l" depth="5" NCoef="0" IVar="5" Cut="6.0000000000000000e+00" cType="1" res="-7.7952500432729721e-03" rms="1.8879875540733337e-01" purity="5.3236123174428940e-02" nType="0">
                  <Node pos="l" depth="6" NCoef="0" IVar="-1" Cut="0.0000000000000000e+00" cType="1" res="-8.1587228924036026e-03" rms="2.2406421601772308e-01" purity="5.5631551891565323e-02" nType="-99"/>
                  <Node pos="r" depth="6" NCoef="0" IVar="-1" Cut="0.0000000000000000e+00" cType="1" res="-2.8217399958521128e-03" rms="2.1629472076892853e-01" purity="4.9534127116203308e-02" nType="-99"/>
                </Node>
                <Node pos="r" depth="5" NCoef="0" IVar="-1" Cut="0.0000000000000000e+00" cType="1" res="-5.8348174206912518e-04" rms="2.3036274313926697e-01" purity="5.8208126574754715e-02" nType="-99"/>
              </Node>
              <Node pos="r" depth="4" NCoef="0" IVar="1" Cut="1.1513677835464478e+00" cType="1" res="-1.9373113289475441e-02" rms="1.8338187038898468e-01" purity="3.5335171967744827e-02" nType="0">
                <Node pos="l" depth="5" NCoef="0" IVar="4" Cut="1.0304219275712967e-01" cType="1" res="-2.2505089640617371e-02" rms="1.7389096319675446e-01" purity="3.1815491616725922e-02" nType="0">
                  <Node pos="l" depth="6" NCoef="0" IVar="-1" Cut="0.0000000000000000e+00" cType="1" res="-2.0365115255117416e-02" rms="1.3147646188735962e-01" purity="1.7566790804266930e-02" nType="-99"/>
                  <Node pos="r" depth="6" NCoef="0" IVar="-1" Cut="0.0000000000000000e+00" cType="1" res="-8.4143150597810745e-03" rms="2.0954792201519012e-01" purity="4.6939343214035034e-02" nType="-99"/>
                </Node>
                <Node pos="r" depth="5" NCoef="0" IVar="-1" Cut="0.0000000000000000e+00" cType="1" res="-5.9317573904991150e-03" rms="2.0842245221138000e-01" purity="4.5635964721441269e-02" nType="-99"/>
              </Node>
            </Node>
            <Node pos="r" depth="3" NCoef="0" IVar="-1" Cut="0.0000000000000000e+00" cType="1" res="2.3488327860832214e-03" rms="2.3046456277370453e-01" purity="5.7818625122308731e-02" nType="-99"/>
          </Node>
        </Node>
        <Node pos="r" depth="1" NCoef="0" IVar="4" Cut="5.1507487893104553e-02" cType="1" res="1.2914118357002735e-02" rms="4.2045724391937256e-01" purity="7.5628381967544556e-01" nType="0">
          <Node pos="l" depth="2" NCoef="0" IVar="3" Cut="1.0004259347915649e+00" cType="1" res="1.4100315980613232e-02" rms="4.1961836814880371e-01" purity="7.6037889719009399e-01" nType="0">
            <Node pos="l" depth="3" NCoef="0" IVar="1" Cut="3.1614252924919128e-01" cType="1" res="1.0575068183243275e-02" rms="4.2736658453941345e-01" purity="7.4635702371597290e-01" nType="0">
              <Node pos="l" depth="4" NCoef="0" IVar="4" Cut="3.4889336675405502e-02" cType="1" res="1.3306573033332825e-02" rms="4.1776734590530396e-01" purity="7.6916831731796265e-01" nType="0">
                <Node pos="l" depth="5" NCoef="0" IVar="2" Cut="8.5978302001953125e+01" cType="1" res="1.1560475453734398e-02" rms="4.1604909300804138e-01" purity="7.7165001630783081e-01" nType="0">
                  <Node pos="l" depth="6" NCoef="0" IVar="4" Cut="1.4629226177930832e-02" cType="1" res="1.3046153821051121e-02" rms="4.1389206051826477e-01" purity="7.7526199817657471e-01" nType="0">
                    <Node pos="l" depth="7" NCoef="0" IVar="-1" Cut="0.0000000000000000e+00" cType="1" res="1.3299921993166208e-03" rms="4.1102927923202515e-01" purity="7.7939045429229736e-01" nType="-99"/>
                    <Node pos="r" depth="7" NCoef="0" IVar="-1" Cut="0.0000000000000000e+00" cType="1" res="2.1724393591284752e-03" rms="4.3228271603584290e-01" purity="7.4795097112655640e-01" nType="-99"/>
                  </Node>
                  <Node pos="r" depth="6" NCoef="0" IVar="-1" Cut="0.0000000000000000e+00" cType="1" res="-1.2737700017169118e-03" rms="4.4708198308944702e-01" purity="7.1650177240371704e-01" nType="-99"/>
                </Node>
                <Node pos="r" depth="5" NCoef="0" IVar="2" Cut="1.0110910034179688e+02" cType="1" res="2.5385295972228050e-02" rms="4.2927068471908569e-01" purity="7.5200062990188599e-01" nType="0">
                  <Node pos="l" depth="6" NCoef="0" IVar="-1" Cut="0.0000000000000000e+00" cType="1" res="3.6993944086134434e-03" rms="4.1951757669448853e-01" purity="7.7018016576766968e-01" nType="-99"/>
                  <Node pos="r" depth="6" NCoef="0" IVar="-1" Cut="0.0000000000000000e+00" cType="1" res="1.6748184571042657e-03" rms="4.3763086199760437e-01" purity="7.3564589023590088e-01" nType="-99"/>
                </Node>
              </Node>
              <Node pos="r" depth="4" NCoef="0" IVar="3" Cut="9.9537247419357300e-01" cType="1" res="-1.0925380047410727e-04" rms="4.6285161375999451e-01" purity="6.5713059902191162e-01" nType="0">
                <Node pos="l" depth="5" NCoef="0" IVar="2" Cut="3.7365962982177734e+01" cType="1" res="-1.1901687830686569e-02" rms="4.7562396526336670e-01" purity="6.2092643976211548e-01" nType="0">
                  <Node pos="l" depth="6" NCoef="0" IVar="-1" Cut="0.0000000000000000e+00" cType="1" res="-2.5850848760455847e-03" rms="4.7389930486679077e-01" purity="6.1956155300140381e-01" nType="-99"/>
                  <Node pos="r" depth="6" NCoef="0" IVar="-1" Cut="0.0000000000000000e+00" cType="1" res="9.4284262740984559e-04" rms="4.7710838913917542e-01" purity="6.2280178070068359e-01" nType="-99"/>
                </Node>
                <Node pos="r" depth="5" NCoef="0" IVar="-1" Cut="0.0000000000000000e+00" cType="1" res="2.0029344595968723e-03" rms="4.3809583783149719e-01" purity="7.2237557172775269e-01" nType="-99"/>
              </Node>
            </Node>
            <Node pos="r" depth="3" NCoef="0" IVar="3" Cut="1.0425264835357666e+00" cType="1" res="2.1405471488833427e-02" rms="4.0299022197723389e-01" purity="7.8943544626235962e-01" nType="0">
              <Node pos="l" depth="4" NCoef="0" IVar="3" Cut="1.0044996738433838e+00" cType="1" res="2.3394372314214706e-02" rms="4.0044337511062622e-01" purity="7.9366874694824219e-01" nType="0">
                <Node pos="l" depth="5" NCoef="0" IVar="3" Cut="1.0010827779769897e+00" cType="1" res="2.6875162497162819e-02" rms="3.9852142333984375e-01" purity="7.9435753822326660e-01" nType="0">
                  <Node pos="l" depth="6" NCoef="0" IVar="-1" Cut="0.0000000000000000e+00" cType="1" res="3.5718635190278292e-03" rms="3.9631789922714233e-01" purity="7.9574817419052124e-01" nType="-99"/>
                  <Node pos="r" depth="6" NCoef="0" IVar="3" Cut="1.0021843910217285e+00" cType="1" res="2.4227382615208626e-02" rms="3.9919736981391907e-01" purity="7.9390662908554077e-01" nType="0">
                    <Node pos="l" depth="7" NCoef="0" IVar="-1" Cut="0.0000000000000000e+00" cType="1" res="1.9081044010818005e-03" rms="4.0593999624252319e-01" purity="7.8428584337234497e-01" nType="-99"/>
                    <Node pos="r" depth="7" NCoef="0" IVar="-1" Cut="0.0000000000000000e+00" cType="1" res="3.2611684873700142e-03" rms="3.9315044879913330e-01" purity="8.0228728055953979e-01" nType="-99"/>
                  </Node>
                </Node>
                <Node pos="r" depth="5" NCoef="0" IVar="3" Cut="1.0155382156372070e+00" cType="1" res="2.0889913663268089e-02" rms="4.0180185437202454e-01" purity="7.9317319393157959e-01" nType="0">
                  <Node pos="l" depth="6" NCoef="0" IVar="3" Cut="1.0098406076431274e+00" cType="1" res="1.8503488972783089e-02" rms="4.0144008398056030e-01" purity="7.9349547624588013e-01" nType="0">
                    <Node pos="l" depth="7" NCoef="0" IVar="-1" Cut="0.0000000000000000e+00" cType="1" res="2.2993506863713264e-03" rms="4.0033432841300964e-01" purity="7.9493421316146851e-01" nType="-99"/>
                    <Node pos="r" depth="7" NCoef="0" IVar="-1" Cut="0.0000000000000000e+00" cType="1" res="1.6582248499616981e-03" rms="4.0319028496742249e-01" purity="7.9117602109909058e-01" nType="-99"/>
                  </Node>
                  <Node pos="r" depth="6" NCoef="0" IVar="3" Cut="1.0285949707031250e+00" cType="1" res="2.3452105000615120e-02" rms="4.0217417478561401e-01" purity="7.9282724857330322e-01" nType="0">
                    <Node pos="l" depth="7" NCoef="0" IVar="-1" Cut="0.0000000000000000e+00" cType="1" res="3.0225275550037622e-03" rms="3.9669626951217651e-01" purity="8.0093616247177124e-01" nType="-99"/>
                    <Node pos="r" depth="7" NCoef="0" IVar="-1" Cut="0.0000000000000000e+00" cType="1" res="1.6403304180130363e-03" rms="4.1142421960830688e-01" purity="7.7868992090225220e-01" nType="-99"/>
                  </Node>
                </Node>
              </Node>
              <Node pos="r" depth="4" NCoef="0" IVar="-1" Cut="0.0000000000000000e+00" cType="1" res="7.6176133006811142e-04" rms="4.2025974392890930e-01" purity="7.5955730676651001e-01" nType="-99"/>
            </Node>
          </Node>
          <Node pos="r" depth="2" NCoef="0" IVar="-1" Cut="0.0000000000000000e+00" cType="1" res="-2.3941351100802422e-03" rms="4.4481408596038818e-01" purity="6.2517708539962769e-01" nType="-99"/>
        </Node>
      </Node>
    </BinaryTree>
    <BinaryTree type="DecisionTree" boostWeight="1.0000000000000000e+00" itree="78">
      <Node pos="s" depth="0" NCoef="0" IVar="2" Cut="6.9252166748046875e+01" cType="1" res="3.9344341494143009e-03" rms="4.1091468930244446e-01" purity="5.0030153989791870e-01" nType="0">
        <Node pos="l" depth="1" NCoef="0" IVar="1" Cut="9.6070367097854614e-01" cType="1" res="1.1089599691331387e-02" rms="4.2189252376556396e-01" purity="6.9124227762222290e-01" nType="0">
          <Node pos="l" depth="2" NCoef="0" IVar="0" Cut="1.2832556962966919e+00" cType="1" res="1.2630526907742023e-02" rms="4.2179659008979797e-01" purity="7.1020054817199707e-01" nType="0">
            <Node pos="l" depth="3" NCoef="0" IVar="4" Cut="3.3193431794643402e-02" cType="1" res="1.3251625932753086e-02" rms="4.2450916767120361e-01" purity="7.2525477409362793e-01" nType="0">
              <Node pos="l" depth="4" NCoef="0" IVar="2" Cut="3.7975032806396484e+01" cType="1" res="1.1742025613784790e-02" rms="4.1888600587844849e-01" purity="7.4682813882827759e-01" nType="0">
                <Node pos="l" depth="5" NCoef="0" IVar="4" Cut="1.3919625431299210e-02" cType="1" res="1.3193167746067047e-02" rms="4.1612410545349121e-01" purity="7.5991106033325195e-01" nType="0">
                  <Node pos="l" depth="6" NCoef="0" IVar="4" Cut="4.4901215005666018e-04" cType="1" res="1.2086948379874229e-02" rms="4.1246595978736877e-01" purity="7.7140861749649048e-01" nType="0">
                    <Node pos="l" depth="7" NCoef="0" IVar="-1" Cut="0.0000000000000000e+00" cType="1" res="1.6589853912591934e-03" rms="4.0764063596725464e-01" purity="7.8502219915390015e-01" nType="-99"/>
                    <Node pos="r" depth="7" NCoef="0" IVar="-1" Cut="0.0000000000000000e+00" cType="1" res="-1.7892348114401102e-03" rms="4.5704713463783264e-01" purity="6.3457959890365601e-01" nType="-99"/>
                  </Node>
                  <Node pos="r" depth="6" NCoef="0" IVar="2" Cut="2.7168640136718750e+01" cType="1" res="2.6179440319538116e-02" rms="4.5668292045593262e-01" purity="6.2493777275085449e-01" nType="0">
                    <Node pos="l" depth="7" NCoef="0" IVar="-1" Cut="0.0000000000000000e+00" cType="1" res="3.0343877151608467e-03" rms="4.5967817306518555e-01" purity="6.2806749343872070e-01" nType="-99"/>
                    <Node pos="r" depth="7" NCoef="0" IVar="-1" Cut="0.0000000000000000e+00" cType="1" res="1.7140469281002879e-03" rms="4.5267000794410706e-01" purity="6.2094056606292725e-01" nType="-99"/>
                  </Node>
                </Node>
                <Node pos="r" depth="5" NCoef="0" IVar="4" Cut="2.1224698051810265e-02" cType="1" res="-6.7118187434971333e-03" rms="4.5213457942008972e-01" purity="5.8045589923858643e-01" nType="0">
                  <Node pos="l" depth="6" NCoef="0" IVar="-1" Cut="0.0000000000000000e+00" cType="1" res="-2.3935150820761919e-03" rms="4.5392784476280212e-01" purity="5.5211716890335083e-01" nType="-99"/>
                  <Node pos="r" depth="6" NCoef="0" IVar="-1" Cut="0.0000000000000000e+00" cType="1" res="5.5064324988052249e-04" rms="4.5040664076805115e-01" purity="6.0185128450393677e-01" nType="-99"/>
                </Node>
              </Node>
              <Node pos="r" depth="4" NCoef="0" IVar="0" Cut="4.1387045383453369e-01" cType="1" res="2.3162791505455971e-02" rms="4.5959955453872681e-01" purity="5.8361607789993286e-01" nType="0">
                <Node pos="l" depth="5" NCoef="0" IVar="1" Cut="3.1120726838707924e-02" cType="1" res="1.8549812957644463e-02" rms="4.6195968985557556e-01" purity="6.5294301509857178e-01" nType="0">
                  <Node pos="l" depth="6" NCoef="0" IVar="4" Cut="4.7664735466241837e-02" cType="1" res="2.3864228278398514e-02" rms="4.5474138855934143e-01" purity="6.8555867671966553e-01" nType="0">
                    <Node pos="l" depth="7" NCoef="0" IVar="-1" Cut="0.0000000000000000e+00" cType="1" res="2.6777016464620829e-03" rms="4.4654300808906555e-01" purity="7.0704090595245361e-01" nType="-99"/>
                    <Node pos="r" depth="7" NCoef="0" IVar="-1" Cut="0.0000000000000000e+00" cType="1" res="1.4241907047107816e-03" rms="4.6436372399330139e-01" purity="6.5963131189346313e-01" nType="-99"/>
                  </Node>
                  <Node pos="r" depth="6" NCoef="0" IVar="-1" Cut="0.0000000000000000e+00" cType="1" res="9.3720637960359454e-04" rms="4.7172781825065613e-01" purity="6.0752439498901367e-01" nType="-99"/>
                </Node>
                <Node pos="r" depth="5" NCoef="0" IVar="-1" Cut="0.0000000000000000e+00" cType="1" res="4.1385386139154434e-03" rms="4.5139148831367493e-01" purity="3.5489878058433533e-01" nType="-99"/>
              </Node>
            </Node>
            <Node pos="r" depth="3" NCoef="0" IVar="-1" Cut="0.0000000000000000e+00" cType="1" res="-3.4792914520949125e-03" rms="2.9240220785140991e-01" purity="1.0833349823951721e-01" nType="-99"/>
          </Node>
          <Node pos="r" depth="2" NCoef="0" IVar="3" Cut="9.6773898601531982e-01" cType="1" res="-1.2695029377937317e-02" rms="4.2265859246253967e-01" purity="3.9861616492271423e-01" nType="0">
            <Node pos="l" depth="3" NCoef="0" IVar="-1" Cut="0.0000000000000000e+00" cType="1" res="-5.5808690376579762e-03" rms="3.5933893918991089e-01" purity="1.9554704427719116e-01" nType="-99"/>
            <Node pos="r" depth="3" NCoef="0" IVar="-1" Cut="0.0000000000000000e+00" cType="1" res="7.9890218330547214e-04" rms="4.8045313358306885e-01" purity="6.1657458543777466e-01" nType="-99"/>
          </Node>
        </Node>
        <Node pos="r" depth="1" NCoef="0" IVar="1" Cut="3.5417124629020691e-02" cType="1" res="-2.5821176823228598e-03" rms="4.0054380893707275e-01" purity="3.2640272378921509e-01" nType="0">
          <Node pos="l" depth="2" NCoef="0" IVar="2" Cut="3.3081414794921875e+02" cType="1" res="5.1391841843724251e-03" rms="4.2896056175231934e-01" purity="4.1249391436576843e-01" nType="0">
            <Node pos="l" depth="3" NCoef="0" IVar="4" Cut="4.9572635442018509e-02" cType="1" res="9.1750677675008774e-03" rms="4.4059643149375916e-01" purity="4.7349259257316589e-01" nType="0">
              <Node pos="l" depth="4" NCoef="0" IVar="3" Cut="8.2120698690414429e-01" cType="1" res="1.0550046572461724e-03" rms="4.4134745001792908e-01" purity="5.8159261941909790e-01" nType="0">
                <Node pos="l" depth="5" NCoef="0" IVar="3" Cut="6.9540172815322876e-01" cType="1" res="-1.3009746558964252e-02" rms="4.4530352950096130e-01" purity="4.0839254856109619e-01" nType="0">
                  <Node pos="l" depth="6" NCoef="0" IVar="-1" Cut="0.0000000000000000e+00" cType="1" res="-3.1325898598879576e-03" rms="3.9309054613113403e-01" purity="2.2546316683292389e-01" nType="-99"/>
                  <Node pos="r" depth="6" NCoef="0" IVar="-1" Cut="0.0000000000000000e+00" cType="1" res="-5.5434106616303325e-04" rms="4.8820155858993530e-01" purity="5.7616555690765381e-01" nType="-99"/>
                </Node>
                <Node pos="r" depth="5" NCoef="0" IVar="4" Cut="3.4150753170251846e-02" cType="1" res="1.3540528714656830e-02" rms="4.3742683529853821e-01" purity="7.3534536361694336e-01" nType="0">
                  <Node pos="l" depth="6" NCoef="0" IVar="-1" Cut="0.0000000000000000e+00" cType="1" res="8.5509050404652953e-04" rms="4.3942999839782715e-01" purity="7.3228687047958374e-01" nType="-99"/>
                  <Node pos="r" depth="6" NCoef="0" IVar="-1" Cut="0.0000000000000000e+00" cType="1" res="1.9298245897516608e-03" rms="4.3579384684562683e-01" purity="7.3774391412734985e-01" nType="-99"/>
                </Node>
              </Node>
              <Node pos="r" depth="4" NCoef="0" IVar="2" Cut="1.1144345855712891e+02" cType="1" res="1.2952486053109169e-02" rms="4.4019559025764465e-01" purity="4.2320489883422852e-01" nType="0">
                <Node pos="l" depth="5" NCoef="0" IVar="4" Cut="7.4977874755859375e-02" cType="1" res="2.5184493511915207e-02" rms="4.5551878213882446e-01" purity="5.2202522754669189e-01" nType="0">
                  <Node pos="l" depth="6" NCoef="0" IVar="-1" Cut="0.0000000000000000e+00" cType="1" res="1.8945101182907820e-03" rms="4.5131129026412964e-01" purity="5.6521248817443848e-01" nType="-99"/>
                  <Node pos="r" depth="6" NCoef="0" IVar="-1" Cut="0.0000000000000000e+00" cType="1" res="3.0422995332628489e-03" rms="4.5995476841926575e-01" purity="4.7502860426902771e-01" nType="-99"/>
                </Node>
                <Node pos="r" depth="5" NCoef="0" IVar="4" Cut="1.3963839411735535e-01" cType="1" res="9.6898386254906654e-03" rms="4.3595951795578003e-01" purity="3.9684656262397766e-01" nType="0">
                  <Node pos="l" depth="6" NCoef="0" IVar="3" Cut="6.6769260168075562e-01" cType="1" res="7.1434900164604187e-03" rms="4.3931001424789429e-01" purity="4.2165639996528625e-01" nType="0">
                    <Node pos="l" depth="7" NCoef="0" IVar="-1" Cut="0.0000000000000000e+00" cType="1" res="-4.0009111398831010e-04" rms="4.0382438898086548e-01" purity="2.5065854191780090e-01" nType="-99"/>
                    <Node pos="r" depth="7" NCoef="0" IVar="-1" Cut="0.0000000000000000e+00" cType="1" res="1.6887857345864177e-03" rms="4.7756811976432800e-01" purity="6.2356966733932495e-01" nType="-99"/>
                  </Node>
                  <Node pos="r" depth="6" NCoef="0" IVar="-1" Cut="0.0000000000000000e+00" cType="1" res="3.2101164106279612e-03" rms="4.1831976175308228e-01" purity="2.7104809880256653e-01" nType="-99"/>
                </Node>
              </Node>
            </Node>
            <Node pos="r" depth="3" NCoef="0" IVar="3" Cut="5.9007960557937622e-01" cType="1" res="-6.6921613179147243e-03" rms="3.9262950420379639e-01" purity="2.3367403447628021e-01" nType="0">
              <Node pos="l" depth="4" NCoef="0" IVar="4" Cut="1.6654820740222931e-01" cType="1" res="6.7153087002225220e-05" rms="3.6190709471702576e-01" purity="1.7277978360652924e-01" nType="0">
                <Node pos="l" depth="5" NCoef="0" IVar="4" Cut="1.2769703567028046e-01" cType="1" res="-1.0923576541244984e-02" rms="3.4343037009239197e-01" purity="1.5510010719299316e-01" nType="0">
                  <Node pos="l" depth="6" NCoef="0" IVar="-1" Cut="0.0000000000000000e+00" cType="1" res="-3.0064659658819437e-03" rms="3.2819241285324097e-01" purity="1.3831904530525208e-01" nType="-99"/>
                  <Node pos="r" depth="6" NCoef="0" IVar="-1" Cut="0.0000000000000000e+00" cType="1" res="-1.3967861887067556e-03" rms="3.5843515396118164e-01" purity="1.7240665853023529e-01" nType="-99"/>
                </Node>
                <Node pos="r" depth="5" NCoef="0" IVar="2" Cut="6.7254101562500000e+02" cType="1" res="1.1385983787477016e-02" rms="3.7966513633728027e-01" purity="1.9098719954490662e-01" nType="0">
                  <Node pos="l" depth="6" NCoef="0" IVar="-1" Cut="0.0000000000000000e+00" cType="1" res="2.7148090302944183e-03" rms="3.8121739029884338e-01" purity="1.9781035184860229e-01" nType="-99"/>
                  <Node pos="r" depth="6" NCoef="0" IVar="-1" Cut="0.0000000000000000e+00" cType="1" res="1.4239328447729349e-03" rms="3.7809377908706665e-01" purity="1.8425792455673218e-01" nType="-99"/>
                </Node>
              </Node>
              <Node pos="r" depth="4" NCoef="0" IVar="-1" Cut="0.0000000000000000e+00" cType="1" res="-2.9915613122284412e-03" rms="4.8682454228401184e-01" purity="4.5327928662300110e-01" nType="-99"/>
            </Node>
          </Node>
          <Node pos="r" depth="2" NCoef="0" IVar="4" Cut="2.4811053276062012e-01" cType="1" res="-7.5817722827196121e-03" rms="3.8093128800392151e-01" purity="2.7065742015838623e-01" nType="0">
            <Node pos="l" depth="3" NCoef="0" IVar="3" Cut="6.5238207578659058e-01" cType="1" res="-6.8004271015524864e-03" rms="3.8132870197296143e-01" purity="2.7470305562019348e-01" nType="0">
              <Node pos="l" depth="4" NCoef="0" IVar="4" Cut="8.8535502552986145e-02" cType="1" res="-1.0476551018655300e-02" rms="3.2214781641960144e-01" purity="1.3640826940536499e-01" nType="0">
                <Node pos="l" depth="5" NCoef="0" IVar="3" Cut="5.7029885053634644e-01" cType="1" res="-1.8348328769207001e-02" rms="2.9431420564651489e-01" purity="1.1139480769634247e-01" nType="0">
                  <Node pos="l" depth="6" NCoef="0" IVar="2" Cut="2.7302056884765625e+02" cType="1" res="-1.4824089594185352e-02" rms="2.4952371418476105e-01" purity="7.3030881583690643e-02" nType="0">
                    <Node pos="l" depth="7" NCoef="0" IVar="-1" Cut="0.0000000000000000e+00" cType="1" res="-4.4695553369820118e-03" rms="2.5320264697074890e-01" purity="7.5846955180168152e-02" nType="-99"/>
                    <Node pos="r" depth="7" NCoef="0" IVar="-1" Cut="0.0000000000000000e+00" cType="1" res="-8.6330315098166466e-03" rms="2.3037624359130859e-01" purity="5.9222839772701263e-02" nType="-99"/>
                  </Node>
                  <Node pos="r" depth="6" NCoef="0" IVar="-1" Cut="0.0000000000000000e+00" cType="1" res="-3.9068926125764847e-03" rms="4.2942804098129272e-01" purity="2.6580137014389038e-01" nType="-99"/>
                </Node>
                <Node pos="r" depth="5" NCoef="0" IVar="2" Cut="1.5777284240722656e+02" cType="1" res="-5.3687244653701782e-03" rms="3.3889028429985046e-01" purity="1.5263894200325012e-01" nType="0">
                  <Node pos="l" depth="6" NCoef="0" IVar="3" Cut="3.9250811934471130e-01" cType="1" res="1.0535155422985554e-02" rms="3.6788159608840942e-01" purity="1.9399777054786682e-01" nType="0">
                    <Node pos="l" depth="7" NCoef="0" IVar="-1" Cut="0.0000000000000000e+00" cType="1" res="-5.4116896353662014e-04" rms="2.6189857721328735e-01" purity="7.4759833514690399e-02" nType="-99"/>
                    <Node pos="r" depth="7" NCoef="0" IVar="-1" Cut="0.0000000000000000e+00" cType="1" res="2.5347464252263308e-03" rms="4.4177186489105225e-01" purity="3.0129349231719971e-01" nType="-99"/>
                  </Node>
                  <Node pos="r" depth="6" NCoef="0" IVar="4" Cut="1.1427387595176697e-01" cType="1" res="-8.8026700541377068e-03" rms="3.3219873905181885e-01" purity="1.4370881021022797e-01" nType="0">
                    <Node pos="l" depth="7" NCoef="0" IVar="-1" Cut="0.0000000000000000e+00" cType="1" res="-4.4143139384686947e-03" rms="3.0898749828338623e-01" purity="1.2305066734552383e-01" nType="-99"/>
                    <Node pos="r" depth="7" NCoef="0" IVar="-1" Cut="0.0000000000000000e+00" cType="1" res="-1.1237572180107236e-03" rms="3.4030804038047791e-01" purity="1.5134383738040924e-01" nType="-99"/>
                  </Node>
                </Node>
              </Node>
              <Node pos="r" depth="4" NCoef="0" IVar="4" Cut="4.2307633906602859e-02" cType="1" res="5.6622561533004045e-04" rms="4.7828662395477295e-01" purity="5.5183446407318115e-01" nType="0">
                <Node pos="l" depth="5" NCoef="0" IVar="3" Cut="8.7312155961990356e-01" cType="1" res="-1.0429425165057182e-02" rms="4.7142672538757324e-01" purity="5.8189082145690918e-01" nType="0">
                  <Node pos="l" depth="6" NCoef="0" IVar="-1" Cut="0.0000000000000000e+00" cType="1" res="-2.6396566536277533e-03" rms="4.8234602808952332e-01" purity="5.0951498746871948e-01" nType="-99"/>
                  <Node pos="r" depth="6" NCoef="0" IVar="-1" Cut="0.0000000000000000e+00" cType="1" res="1.8876475514844060e-03" rms="4.5165365934371948e-01" purity="6.9986480474472046e-01" nType="-99"/>
                </Node>
                <Node pos="r" depth="5" NCoef="0" IVar="2" Cut="2.6313876342773438e+02" cType="1" res="5.4832692258059978e-03" rms="4.8124131560325623e-01" purity="5.3839385509490967e-01" nType="0">
                  <Node pos="l" depth="6" NCoef="0" IVar="4" Cut="4.8818130046129227e-02" cType="1" res="1.0865710675716400e-02" rms="4.8051431775093079e-01" purity="5.6054961681365967e-01" nType="0">
                    <Node pos="l" depth="7" NCoef="0" IVar="-1" Cut="0.0000000000000000e+00" cType="1" res="-3.2786373049020767e-04" rms="4.7519278526306152e-01" purity="5.7356488704681396e-01" nType="-99"/>
                    <Node pos="r" depth="7" NCoef="0" IVar="-1" Cut="0.0000000000000000e+00" cType="1" res="1.2832743814215064e-03" rms="4.8181435465812683e-01" purity="5.5717670917510986e-01" nType="-99"/>
                  </Node>
                  <Node pos="r" depth="6" NCoef="0" IVar="-1" Cut="0.0000000000000000e+00" cType="1" res="-1.0153373004868627e-03" rms="4.8304605484008789e-01" purity="4.7235897183418274e-01" nType="-99"/>
                </Node>
              </Node>
            </Node>
            <Node pos="r" depth="3" NCoef="0" IVar="-1" Cut="0.0000000000000000e+00" cType="1" res="-5.5019692517817020e-03" rms="3.6905938386917114e-01" purity="1.5826661884784698e-01" nType="-99"/>
          </Node>
        </Node>
      </Node>
    </BinaryTree>
    <BinaryTree type="DecisionTree" boostWeight="1.0000000000000000e+00" itree="79">
      <Node pos="s" depth="0" NCoef="0" IVar="2" Cut="6.9694526672363281e+01" cType="1" res="4.2059873230755329e-03" rms="4.1078457236289978e-01" purity="5.0005090236663818e-01" nType="0">
        <Node pos="l" depth="1" NCoef="0" IVar="1" Cut="9.7606307268142700e-01" cType="1" res="1.2728624045848846e-02" rms="4.2110329866409302e-01" purity="6.9181382656097412e-01" nType="0">
          <Node pos="l" depth="2" NCoef="0" IVar="4" Cut="5.8808688074350357e-02" cType="1" res="1.4246339909732342e-02" rms="4.2088949680328369e-01" purity="7.1017974615097046e-01" nType="0">
            <Node pos="l" depth="3" NCoef="0" IVar="3" Cut="4.6128213405609131e-01" cType="1" res="1.3109494931995869e-02" rms="4.1967526078224182e-01" purity="7.1744030714035034e-01" nType="0">
              <Node pos="l" depth="4" NCoef="0" IVar="-1" Cut="0.0000000000000000e+00" cType="1" res="-7.7618728391826153e-03" rms="2.3912984132766724e-01" purity="6.4423955976963043e-02" nType="-99"/>
              <Node pos="r" depth="4" NCoef="0" IVar="2" Cut="6.2948841094970703e+01" cType="1" res="1.4013736508786678e-02" rms="4.2343562841415405e-01" purity="7.3501747846603394e-01" nType="0">
                <Node pos="l" depth="5" NCoef="0" IVar="5" Cut="4.0000000000000000e+00" cType="1" res="1.4966280199587345e-02" rms="4.2224296927452087e-01" purity="7.3916751146316528e-01" nType="0">
                  <Node pos="l" depth="6" NCoef="0" IVar="3" Cut="8.4676176309585571e-01" cType="1" res="1.4264031313359737e-02" rms="4.2104628682136536e-01" purity="7.4736750125885010e-01" nType="0">
                    <Node pos="l" depth="7" NCoef="0" IVar="-1" Cut="0.0000000000000000e+00" cType="1" res="6.7773682530969381e-04" rms="4.7543981671333313e-01" purity="5.6456708908081055e-01" nType="-99"/>
                    <Node pos="r" depth="7" NCoef="0" IVar="-1" Cut="0.0000000000000000e+00" cType="1" res="1.6622227849438787e-03" rms="4.1154220700263977e-01" purity="7.7700024843215942e-01" nType="-99"/>
                  </Node>
                  <Node pos="r" depth="6" NCoef="0" IVar="-1" Cut="0.0000000000000000e+00" cType="1" res="3.8325653877109289e-03" rms="4.7155869007110596e-01" purity="4.2276647686958313e-01" nType="-99"/>
                </Node>
                <Node pos="r" depth="5" NCoef="0" IVar="-1" Cut="0.0000000000000000e+00" cType="1" res="-1.8331175670027733e-03" rms="4.6106213331222534e-01" purity="5.7058066129684448e-01" nType="-99"/>
              </Node>
            </Node>
            <Node pos="r" depth="3" NCoef="0" IVar="-1" Cut="0.0000000000000000e+00" cType="1" res="3.9983089081943035e-03" rms="4.5172721147537231e-01" purity="5.1162523031234741e-01" nType="-99"/>
          </Node>
          <Node pos="r" depth="2" NCoef="0" IVar="3" Cut="9.7472995519638062e-01" cType="1" res="-1.1672440916299820e-02" rms="4.2378067970275879e-01" purity="3.9653554558753967e-01" nType="0">
            <Node pos="l" depth="3" NCoef="0" IVar="-1" Cut="0.0000000000000000e+00" cType="1" res="-5.3796451538801193e-03" rms="3.6595678329467773e-01" purity="1.9696176052093506e-01" nType="-99"/>
            <Node pos="r" depth="3" NCoef="0" IVar="-1" Cut="0.0000000000000000e+00" cType="1" res="9.4013701891526580e-04" rms="4.7933140397071838e-01" purity="6.2012571096420288e-01" nType="-99"/>
          </Node>
        </Node>
        <Node pos="r" depth="1" NCoef="0" IVar="1" Cut="3.6709692329168320e-02" cType="1" res="-3.5864976234734058e-03" rms="4.0095910429954529e-01" purity="3.2471674680709839e-01" nType="0">
          <Node pos="l" depth="2" NCoef="0" IVar="2" Cut="3.9657333374023438e+02" cType="1" res="3.1831802334636450e-03" rms="4.2942252755165100e-01" purity="4.1061300039291382e-01" nType="0">
            <Node pos="l" depth="3" NCoef="0" IVar="4" Cut="6.1651337891817093e-02" cType="1" res="6.2290332280099392e-03" rms="4.3946969509124756e-01" purity="4.5627459883689880e-01" nType="0">
              <Node pos="l" depth="4" NCoef="0" IVar="3" Cut="7.1834975481033325e-01" cType="1" res="-3.1804901082068682e-03" rms="4.4253161549568176e-01" purity="5.5565780401229858e-01" nType="0">
                <Node pos="l" depth="5" NCoef="0" IVar="3" Cut="5.8611464500427246e-01" cType="1" res="-2.0851189270615578e-02" rms="4.0470936894416809e-01" purity="2.5912427902221680e-01" nType="0">
                  <Node pos="l" depth="6" NCoef="0" IVar="-1" Cut="0.0000000000000000e+00" cType="1" res="-4.4353110715746880e-03" rms="3.1120479106903076e-01" purity="1.2037926167249680e-01" nType="-99"/>
                  <Node pos="r" depth="6" NCoef="0" IVar="-1" Cut="0.0000000000000000e+00" cType="1" res="-2.2518485784530640e-03" rms="4.8143580555915833e-01" purity="4.0005755424499512e-01" nType="-99"/>
                </Node>
                <Node pos="r" depth="5" NCoef="0" IVar="4" Cut="4.5884970575571060e-02" cType="1" res="4.3904995545744896e-03" rms="4.5757246017456055e-01" purity="6.8270719051361084e-01" nType="0">
                  <Node pos="l" depth="6" NCoef="0" IVar="3" Cut="8.4465432167053223e-01" cType="1" res="-3.5678707063198090e-03" rms="4.5602262020111084e-01" purity="6.8350219726562500e-01" nType="0">
                    <Node pos="l" depth="7" NCoef="0" IVar="-1" Cut="0.0000000000000000e+00" cType="1" res="-1.8061159644275904e-03" rms="4.8622021079063416e-01" purity="5.9221297502517700e-01" nType="-99"/>
                    <Node pos="r" depth="7" NCoef="0" IVar="-1" Cut="0.0000000000000000e+00" cType="1" res="6.8555487086996436e-04" rms="4.3604335188865662e-01" purity="7.3989945650100708e-01" nType="-99"/>
                  </Node>
                  <Node pos="r" depth="6" NCoef="0" IVar="-1" Cut="0.0000000000000000e+00" cType="1" res="1.6501599457114935e-03" rms="4.5980906486511230e-01" purity="6.8140065670013428e-01" nType="-99"/>
                </Node>
              </Node>
              <Node pos="r" depth="4" NCoef="0" IVar="0" Cut="3.1676277518272400e-01" cType="1" res="1.3167096301913261e-02" rms="4.3706855177879333e-01" purity="3.8299489021301270e-01" nType="0">
                <Node pos="l" depth="5" NCoef="0" IVar="5" Cut="3.0000000000000000e+00" cType="1" res="6.7265043035149574e-03" rms="4.3684890866279602e-01" purity="5.4384136199951172e-01" nType="0">
                  <Node pos="l" depth="6" NCoef="0" IVar="-1" Cut="0.0000000000000000e+00" cType="1" res="-6.0458667576313019e-04" rms="4.7885432839393616e-01" purity="6.0416257381439209e-01" nType="-99"/>
                  <Node pos="r" depth="6" NCoef="0" IVar="3" Cut="6.3503390550613403e-01" cType="1" res="1.3968097046017647e-02" rms="4.7740039229393005e-01" purity="5.1162618398666382e-01" nType="0">
                    <Node pos="l" depth="7" NCoef="0" IVar="-1" Cut="0.0000000000000000e+00" cType="1" res="6.2952208099886775e-04" rms="4.7364777326583862e-01" purity="3.9678865671157837e-01" nType="-99"/>
                    <Node pos="r" depth="7" NCoef="0" IVar="-1" Cut="0.0000000000000000e+00" cType="1" res="1.8764693522825837e-03" rms="4.8076710104942322e-01" purity="6.1871081590652466e-01" nType="-99"/>
                  </Node>
                </Node>
                <Node pos="r" depth="5" NCoef="0" IVar="0" Cut="1.2364307641983032e+00" cType="1" res="1.8914170563220978e-02" rms="3.9714923501014709e-01" purity="2.4032740294933319e-01" nType="0">
                  <Node pos="l" depth="6" NCoef="0" IVar="3" Cut="4.9863213300704956e-01" cType="1" res="2.4595450609922409e-02" rms="4.4004940986633301e-01" purity="3.0770075321197510e-01" nType="0">
                    <Node pos="l" depth="7" NCoef="0" IVar="-1" Cut="0.0000000000000000e+00" cType="1" res="3.0442927964031696e-03" rms="3.8152718544006348e-01" purity="1.8254582583904266e-01" nType="-99"/>
                    <Node pos="r" depth="7" NCoef="0" IVar="-1" Cut="0.0000000000000000e+00" cType="1" res="3.1174523755908012e-03" rms="4.7995463013648987e-01" purity="4.0353736281394958e-01" nType="-99"/>
                  </Node>
                  <Node pos="r" depth="6" NCoef="0" IVar="-1" Cut="0.0000000000000000e+00" cType="1" res="2.3547797463834286e-03" rms="2.7070525288581848e-01" purity="8.2392670214176178e-02" nType="-99"/>
                </Node>
              </Node>
            </Node>
            <Node pos="r" depth="3" NCoef="0" IVar="3" Cut="2.6554870605468750e-01" cType="1" res="-9.9841980263590813e-03" rms="3.8268843293190002e-01" purity="2.1321552991867065e-01" nType="0">
              <Node pos="l" depth="4" NCoef="0" IVar="-1" Cut="0.0000000000000000e+00" cType="1" res="2.3855930194258690e-03" rms="3.3650434017181396e-01" purity="1.4933086931705475e-01" nType="-99"/>
              <Node pos="r" depth="4" NCoef="0" IVar="2" Cut="5.9175006103515625e+02" cType="1" res="-1.7554527148604393e-02" rms="3.9828619360923767e-01" purity="2.3705039918422699e-01" nType="0">
                <Node pos="l" depth="5" NCoef="0" IVar="-1" Cut="0.0000000000000000e+00" cType="1" res="-1.1342769721522927e-03" rms="4.0971773862838745e-01" purity="2.6659411191940308e-01" nType="-99"/>
                <Node pos="r" depth="5" NCoef="0" IVar="-1" Cut="0.0000000000000000e+00" cType="1" res="-5.4802950471639633e-03" rms="3.7654444575309753e-01" purity="1.8459534645080566e-01" nType="-99"/>
              </Node>
            </Node>
          </Node>
          <Node pos="r" depth="2" NCoef="0" IVar="0" Cut="9.6646499633789062e-01" cType="1" res="-7.9775312915444374e-03" rms="3.8129839301109314e-01" purity="2.6900166273117065e-01" nType="0">
            <Node pos="l" depth="3" NCoef="0" IVar="1" Cut="1.3209778070449829e+00" cType="1" res="-4.4755572453141212e-03" rms="4.4475129246711731e-01" purity="3.8860589265823364e-01" nType="0">
              <Node pos="l" depth="4" NCoef="0" IVar="3" Cut="4.6443024277687073e-01" cType="1" res="-2.8526759706437588e-03" rms="4.4630852341651917e-01" purity="3.9583885669708252e-01" nType="0">
                <Node pos="l" depth="5" NCoef="0" IVar="0" Cut="6.2344390153884888e-01" cType="1" res="-1.2917092069983482e-02" rms="3.5779401659965515e-01" purity="1.5643866360187531e-01" nType="0">
                  <Node pos="l" depth="6" NCoef="0" IVar="4" Cut="1.8562491238117218e-01" cType="1" res="-2.2223731502890587e-02" rms="3.7616372108459473e-01" purity="1.7685309052467346e-01" nType="0">
                    <Node pos="l" depth="7" NCoef="0" IVar="-1" Cut="0.0000000000000000e+00" cType="1" res="-6.7530632950365543e-03" rms="3.4519314765930176e-01" purity="1.4115701615810394e-01" nType="-99"/>
                    <Node pos="r" depth="7" NCoef="0" IVar="-1" Cut="0.0000000000000000e+00" cType="1" res="-1.3760230503976345e-03" rms="4.0200448036193848e-01" purity="2.0957341790199280e-01" nType="-99"/>
                  </Node>
                  <Node pos="r" depth="6" NCoef="0" IVar="-1" Cut="0.0000000000000000e+00" cType="1" res="3.9917542017064989e-04" rms="3.2660135626792908e-01" purity="1.2463729083538055e-01" nType="-99"/>
                </Node>
                <Node pos="r" depth="5" NCoef="0" IVar="1" Cut="2.4383087456226349e-01" cType="1" res="-4.7318419092334807e-04" rms="4.6474644541740417e-01" purity="4.5243930816650391e-01" nType="0">
                  <Node pos="l" depth="6" NCoef="0" IVar="5" Cut="4.0000000000000000e+00" cType="1" res="-6.1456742696464062e-03" rms="3.9203655719757080e-01" purity="4.8720061779022217e-01" nType="0">
                    <Node pos="l" depth="7" NCoef="0" IVar="-1" Cut="0.0000000000000000e+00" cType="1" res="-1.0829136008396745e-03" rms="4.7018963098526001e-01" purity="5.3071683645248413e-01" nType="-99"/>
                    <Node pos="r" depth="7" NCoef="0" IVar="-1" Cut="0.0000000000000000e+00" cType="1" res="4.4540420640259981e-04" rms="4.6024894714355469e-01" purity="3.4564375877380371e-01" nType="-99"/>
                  </Node>
                  <Node pos="r" depth="6" NCoef="0" IVar="2" Cut="3.8164044189453125e+02" cType="1" res="4.8355390317738056e-03" rms="4.6225160360336304e-01" purity="4.2599806189537048e-01" nType="0">
                    <Node pos="l" depth="7" NCoef="0" IVar="-1" Cut="0.0000000000000000e+00" cType="1" res="7.7244959538802505e-04" rms="4.6470069885253906e-01" purity="4.4452127814292908e-01" nType="-99"/>
                    <Node pos="r" depth="7" NCoef="0" IVar="-1" Cut="0.0000000000000000e+00" cType="1" res="-1.5553664416074753e-03" rms="4.4547456502914429e-01" purity="3.0475315451622009e-01" nType="-99"/>
                  </Node>
                </Node>
              </Node>
              <Node pos="r" depth="4" NCoef="0" IVar="-1" Cut="0.0000000000000000e+00" cType="1" res="-3.7009625229984522e-03" rms="4.1900756955146790e-01" purity="2.7622357010841370e-01" nType="-99"/>
            </Node>
            <Node pos="r" depth="3" NCoef="0" IVar="3" Cut="4.5692881941795349e-01" cType="1" res="-1.4174718409776688e-02" rms="2.2928772866725922e-01" purity="5.7346675544977188e-02" nType="0">
              <Node pos="l" depth="4" NCoef="0" IVar="1" Cut="1.6269032955169678e+00" cType="1" res="-1.0880747810006142e-02" rms="2.1378758549690247e-01" purity="4.9228377640247345e-02" nType="0">
                <Node pos="l" depth="5" NCoef="0" IVar="4" Cut="1.4926415681838989e-01" cType="1" res="-1.2888611294329166e-02" rms="2.1031543612480164e-01" purity="4.7627657651901245e-02" nType="0">
                  <Node pos="l" depth="6" NCoef="0" IVar="0" Cut="1.2576098442077637e+00" cType="1" res="-1.5747779980301857e-02" rms="1.8701860308647156e-01" purity="3.6934603005647659e-02" nType="0">
                    <Node pos="l" depth="7" NCoef="0" IVar="-1" Cut="0.0000000000000000e+00" cType="1" res="-9.7831320017576218e-03" rms="2.2829343378543854e-01" purity="5.5923473089933395e-02" nType="-99"/>
                    <Node pos="r" depth="7" NCoef="0" IVar="-1" Cut="0.0000000000000000e+00" cType="1" res="-8.8154273107647896e-03" rms="1.7748224735260010e-01" purity="3.3116228878498077e-02" nType="-99"/>
                  </Node>
                  <Node pos="r" depth="6" NCoef="0" IVar="1" Cut="4.4711431860923767e-01" cType="1" res="-3.6891421768814325e-03" rms="2.7185499668121338e-01" purity="8.2032918930053711e-02" nType="0">
                    <Node pos="l" depth="7" NCoef="0" IVar="-1" Cut="0.0000000000000000e+00" cType="1" res="2.7901022695004940e-03" rms="2.9518061876296997e-01" purity="9.8570749163627625e-02" nType="-99"/>
                    <Node pos="r" depth="7" NCoef="0" IVar="-1" Cut="0.0000000000000000e+00" cType="1" res="-6.9946129806339741e-03" rms="2.4216175079345703e-01" purity="6.3367880880832672e-02" nType="-99"/>
                  </Node>
                </Node>
                <Node pos="r" depth="5" NCoef="0" IVar="-1" Cut="0.0000000000000000e+00" cType="1" res="2.4163725320249796e-03" rms="2.3800393939018250e-01" purity="6.1408422887325287e-02" nType="-99"/>
              </Node>
              <Node pos="r" depth="4" NCoef="0" IVar="-1" Cut="0.0000000000000000e+00" cType="1" res="-8.7101440876722336e-03" rms="3.3701735734939575e-01" purity="1.3062438368797302e-01" nType="-99"/>
            </Node>
          </Node>
        </Node>
      </Node>
    </BinaryTree>
    <BinaryTree type="DecisionTree" boostWeight="1.0000000000000000e+00" itree="80">
      <Node pos="s" depth="0" NCoef="0" IVar="0" Cut="9.6759217977523804e-01" cType="1" res="3.9286524988710880e-03" rms="4.1083204746246338e-01" purity="5.0051116943359375e-01" nType="0">
        <Node pos="l" depth="1" NCoef="0" IVar="3" Cut="6.5238207578659058e-01" cType="1" res="6.8599386140704155e-03" rms="4.3736857175827026e-01" purity="5.9250754117965698e-01" nType="0">
          <Node pos="l" depth="2" NCoef="0" IVar="5" Cut="4.0000000000000000e+00" cType="1" res="-9.8391145002096891e-04" rms="3.9657804369926453e-01" purity="2.6593810319900513e-01" nType="0">
            <Node pos="l" depth="3" NCoef="0" IVar="2" Cut="3.0578335571289062e+02" cType="1" res="-9.4361519441008568e-03" rms="4.3951979279518127e-01" purity="2.9104077816009521e-01" nType="0">
              <Node pos="l" depth="4" NCoef="0" IVar="0" Cut="2.8090694546699524e-01" cType="1" res="-1.7198096960783005e-02" rms="4.3772277235984802e-01" purity="2.9078787565231323e-01" nType="0">
                <Node pos="l" depth="5" NCoef="0" IVar="-1" Cut="0.0000000000000000e+00" cType="1" res="-4.0899771265685558e-03" rms="4.6339645981788635e-01" purity="3.6412328481674194e-01" nType="-99"/>
                <Node pos="r" depth="5" NCoef="0" IVar="4" Cut="8.6511753499507904e-02" cType="1" res="-9.0521927922964096e-03" rms="4.2890501022338867e-01" purity="2.6743543148040771e-01" nType="0">
                  <Node pos="l" depth="6" NCoef="0" IVar="2" Cut="1.0902694702148438e+02" cType="1" res="-1.5668703243136406e-02" rms="4.2169973254203796e-01" purity="2.5319051742553711e-01" nType="0">
                    <Node pos="l" depth="7" NCoef="0" IVar="-1" Cut="0.0000000000000000e+00" cType="1" res="-3.0128955841064453e-03" rms="4.2970815300941467e-01" purity="2.6729562878608704e-01" nType="-99"/>
                    <Node pos="r" depth="7" NCoef="0" IVar="-1" Cut="0.0000000000000000e+00" cType="1" res="-6.8002770422026515e-04" rms="4.1201981902122498e-01" purity="2.3694564402103424e-01" nType="-99"/>
                  </Node>
                  <Node pos="r" depth="6" NCoef="0" IVar="-1" Cut="0.0000000000000000e+00" cType="1" res="8.1077526556327939e-04" rms="4.4546514749526978e-01" purity="3.0193287134170532e-01" nType="-99"/>
                </Node>
              </Node>
              <Node pos="r" depth="4" NCoef="0" IVar="4" Cut="1.4056840538978577e-01" cType="1" res="7.1893208660185337e-03" rms="4.4288685917854309e-01" purity="2.9158243536949158e-01" nType="0">
                <Node pos="l" depth="5" NCoef="0" IVar="-1" Cut="0.0000000000000000e+00" cType="1" res="-1.0311161167919636e-03" rms="4.3293327093124390e-01" purity="2.7582472562789917e-01" nType="-99"/>
                <Node pos="r" depth="5" NCoef="0" IVar="-1" Cut="0.0000000000000000e+00" cType="1" res="3.0952957458794117e-03" rms="4.5370692014694214e-01" purity="3.1024008989334106e-01" nType="-99"/>
              </Node>
            </Node>
            <Node pos="r" depth="3" NCoef="0" IVar="3" Cut="3.4464526176452637e-01" cType="1" res="2.6475358754396439e-03" rms="4.1344979405403137e-01" purity="2.5020438432693481e-01" nType="0">
              <Node pos="l" depth="4" NCoef="0" IVar="2" Cut="4.9300704956054688e+02" cType="1" res="-2.0785603672266006e-02" rms="3.5018640756607056e-01" purity="1.4799420535564423e-01" nType="0">
                <Node pos="l" depth="5" NCoef="0" IVar="-1" Cut="0.0000000000000000e+00" cType="1" res="-7.6542780734598637e-03" rms="3.2419258356094360e-01" purity="1.2346389889717102e-01" nType="-99"/>
                <Node pos="r" depth="5" NCoef="0" IVar="-1" Cut="0.0000000000000000e+00" cType="1" res="-1.3909070985391736e-03" rms="3.7161043286323547e-01" purity="1.7014257609844208e-01" nType="-99"/>
              </Node>
              <Node pos="r" depth="4" NCoef="0" IVar="5" Cut="6.0000000000000000e+00" cType="1" res="4.9153584986925125e-03" rms="2.7352824807167053e-01" purity="2.7293461561203003e-01" nType="0">
                <Node pos="l" depth="5" NCoef="0" IVar="3" Cut="5.5310767889022827e-01" cType="1" res="3.9956644177436829e-03" rms="4.3152266740798950e-01" purity="2.8464731574058533e-01" nType="0">
                  <Node pos="l" depth="6" NCoef="0" IVar="4" Cut="1.1468419432640076e-01" cType="1" res="-1.7763334326446056e-03" rms="4.0433338284492493e-01" purity="2.2118149697780609e-01" nType="0">
                    <Node pos="l" depth="7" NCoef="0" IVar="-1" Cut="0.0000000000000000e+00" cType="1" res="-1.2695020996034145e-03" rms="3.8805204629898071e-01" purity="1.9900886714458466e-01" nType="-99"/>
                    <Node pos="r" depth="7" NCoef="0" IVar="-1" Cut="0.0000000000000000e+00" cType="1" res="7.0357864024117589e-04" rms="4.2138326168060303e-01" purity="2.4553275108337402e-01" nType="-99"/>
                  </Node>
                  <Node pos="r" depth="6" NCoef="0" IVar="0" Cut="3.1204736232757568e-01" cType="1" res="1.4615813270211220e-02" rms="4.7733938694000244e-01" purity="4.0142083168029785e-01" nType="0">
                    <Node pos="l" depth="7" NCoef="0" IVar="-1" Cut="0.0000000000000000e+00" cType="1" res="2.4032555520534515e-03" rms="4.9055257439613342e-01" purity="4.5798060297966003e-01" nType="-99"/>
                    <Node pos="r" depth="7" NCoef="0" IVar="-1" Cut="0.0000000000000000e+00" cType="1" res="-3.1378705170936882e-04" rms="4.5510560274124146e-01" purity="3.1192371249198914e-01" nType="-99"/>
                  </Node>
                </Node>
                <Node pos="r" depth="5" NCoef="0" IVar="-1" Cut="0.0000000000000000e+00" cType="1" res="4.0877610445022583e-03" rms="4.0041989088058472e-01" purity="2.2075155377388000e-01" nType="-99"/>
              </Node>
            </Node>
          </Node>
          <Node pos="r" depth="2" NCoef="0" IVar="0" Cut="5.9279644489288330e-01" cType="1" res="9.7443452104926109e-03" rms="4.4167703390121460e-01" purity="6.9872641563415527e-01" nType="0">
            <Node pos="l" depth="3" NCoef="0" IVar="0" Cut="1.9117116928100586e-02" cType="1" res="9.0132672339677811e-03" rms="4.4077914953231812e-01" purity="7.0247614383697510e-01" nType="0">
              <Node pos="l" depth="4" NCoef="0" IVar="3" Cut="9.9369388818740845e-01" cType="1" res="1.1412005871534348e-02" rms="4.3201610445976257e-01" purity="7.3527276515960693e-01" nType="0">
                <Node pos="l" depth="5" NCoef="0" IVar="1" Cut="9.1265457868576050e-01" cType="1" res="8.5202222689986229e-03" rms="4.5152789354324341e-01" purity="6.9375276565551758e-01" nType="0">
                  <Node pos="l" depth="6" NCoef="0" IVar="3" Cut="6.8541306257247925e-01" cType="1" res="9.3412352725863457e-03" rms="4.4922184944152832e-01" purity="7.0379221439361572e-01" nType="0">
                    <Node pos="l" depth="7" NCoef="0" IVar="-1" Cut="0.0000000000000000e+00" cType="1" res="-4.8987736226990819e-04" rms="4.9683061242103577e-01" purity="5.3370469808578491e-01" nType="-99"/>
                    <Node pos="r" depth="7" NCoef="0" IVar="-1" Cut="0.0000000000000000e+00" cType="1" res="9.7855925559997559e-04" rms="4.4710209965705872e-01" purity="7.1092927455902100e-01" nType="-99"/>
                  </Node>
                  <Node pos="r" depth="6" NCoef="0" IVar="-1" Cut="0.0000000000000000e+00" cType="1" res="-7.2562863351777196e-04" rms="4.9644911289215088e-01" purity="4.8647487163543701e-01" nType="-99"/>
                </Node>
                <Node pos="r" depth="5" NCoef="0" IVar="3" Cut="1.0253477096557617e+00" cType="1" res="1.5386870130896568e-02" rms="4.0362638235092163e-01" purity="7.9234349727630615e-01" nType="0">
                  <Node pos="l" depth="6" NCoef="0" IVar="3" Cut="9.9981713294982910e-01" cType="1" res="1.6634007915854454e-02" rms="4.0247237682342529e-01" purity="7.9435694217681885e-01" nType="0">
                    <Node pos="l" depth="7" NCoef="0" IVar="-1" Cut="0.0000000000000000e+00" cType="1" res="1.1923699639737606e-03" rms="4.1085621714591980e-01" purity="7.8174257278442383e-01" nType="-99"/>
                    <Node pos="r" depth="7" NCoef="0" IVar="-1" Cut="0.0000000000000000e+00" cType="1" res="2.3102043196558952e-03" rms="3.9611974358558655e-01" purity="8.0365711450576782e-01" nType="-99"/>
                  </Node>
                  <Node pos="r" depth="6" NCoef="0" IVar="-1" Cut="0.0000000000000000e+00" cType="1" res="8.4378337487578392e-04" rms="4.1039732098579407e-01" purity="7.8027284145355225e-01" nType="-99"/>
                </Node>
              </Node>
              <Node pos="r" depth="4" NCoef="0" IVar="0" Cut="2.2188213467597961e-01" cType="1" res="-3.7697632797062397e-03" rms="4.8461392521858215e-01" purity="5.2770072221755981e-01" nType="0">
                <Node pos="l" depth="5" NCoef="0" IVar="-1" Cut="0.0000000000000000e+00" cType="1" res="-2.9688295908272266e-03" rms="4.8077133297920227e-01" purity="5.7695543766021729e-01" nType="-99"/>
                <Node pos="r" depth="5" NCoef="0" IVar="3" Cut="9.5594781637191772e-01" cType="1" res="4.0304014692083001e-04" rms="4.8510339856147766e-01" purity="5.1973748207092285e-01" nType="0">
                  <Node pos="l" depth="6" NCoef="0" IVar="4" Cut="6.3297428190708160e-02" cType="1" res="5.5735525675117970e-03" rms="4.8697707056999207e-01" purity="4.9768179655075073e-01" nType="0">
                    <Node pos="l" depth="7" NCoef="0" IVar="-1" Cut="0.0000000000000000e+00" cType="1" res="-6.1943217588122934e-05" rms="4.8494228720664978e-01" purity="5.0153887271881104e-01" nType="-99"/>
                    <Node pos="r" depth="7" NCoef="0" IVar="-1" Cut="0.0000000000000000e+00" cType="1" res="2.0132102072238922e-03" rms="4.9205160140991211e-01" purity="4.8722898960113525e-01" nType="-99"/>
                  </Node>
                  <Node pos="r" depth="6" NCoef="0" IVar="-1" Cut="0.0000000000000000e+00" cType="1" res="-2.4390779435634613e-03" rms="4.7430115938186646e-01" purity="6.3474440574645996e-01" nType="-99"/>
                </Node>
              </Node>
            </Node>
            <Node pos="r" depth="3" NCoef="0" IVar="-1" Cut="0.0000000000000000e+00" cType="1" res="4.5575336553156376e-03" rms="4.8985752463340759e-01" purity="4.7736495733261108e-01" nType="-99"/>
          </Node>
        </Node>
        <Node pos="r" depth="1" NCoef="0" IVar="3" Cut="5.2248466014862061e-01" cType="1" res="-9.6672298386693001e-03" rms="2.5329887866973877e-01" purity="7.3813870549201965e-02" nType="0">
          <Node pos="l" depth="2" NCoef="0" IVar="5" Cut="3.0000000000000000e+00" cType="1" res="-6.3076140359044075e-03" rms="2.3546998202800751e-01" purity="6.1296515166759491e-02" nType="0">
            <Node pos="l" depth="3" NCoef="0" IVar="-1" Cut="0.0000000000000000e+00" cType="1" res="3.9391112513840199e-03" rms="3.1209269165992737e-01" purity="1.1272294074296951e-01" nType="-99"/>
            <Node pos="r" depth="3" NCoef="0" IVar="3" Cut="4.4055521488189697e-01" cType="1" res="-7.5996480882167816e-03" rms="2.2977988421916962e-01" purity="5.7911057025194168e-02" nType="0">
              <Node pos="l" depth="4" NCoef="0" IVar="4" Cut="1.2855365872383118e-01" cType="1" res="-8.8475048542022705e-03" rms="2.2039677202701569e-01" purity="5.2691373974084854e-02" nType="0">
                <Node pos="l" depth="5" NCoef="0" IVar="2" Cut="3.8848608398437500e+02" cType="1" res="-1.1875647120177746e-02" rms="1.9368012249469757e-01" purity="3.9839386940002441e-02" nType="0">
                  <Node pos="l" depth="6" NCoef="0" IVar="4" Cut="9.9669687449932098e-02" cType="1" res="-1.0765104554593563e-02" rms="1.9738741219043732e-01" purity="4.1474912315607071e-02" nType="0">
                    <Node pos="l" depth="7" NCoef="0" IVar="-1" Cut="0.0000000000000000e+00" cType="1" res="-7.8928461298346519e-03" rms="1.8822695314884186e-01" purity="3.7543263286352158e-02" nType="-99"/>
                    <Node pos="r" depth="7" NCoef="0" IVar="-1" Cut="0.0000000000000000e+00" cType="1" res="-8.2293857121840119e-04" rms="2.3054850101470947e-01" purity="5.7388149201869965e-02" nType="-99"/>
                  </Node>
                  <Node pos="r" depth="6" NCoef="0" IVar="-1" Cut="0.0000000000000000e+00" cType="1" res="-1.2478813529014587e-02" rms="1.5839171409606934e-01" purity="2.5936150923371315e-02" nType="-99"/>
                </Node>
                <Node pos="r" depth="5" NCoef="0" IVar="3" Cut="2.8938859701156616e-01" cType="1" res="-2.7658434119075537e-03" rms="2.6596531271934509e-01" purity="7.8503057360649109e-02" nType="0">
                  <Node pos="l" depth="6" NCoef="0" IVar="4" Cut="1.9788162410259247e-01" cType="1" res="-7.6007107272744179e-03" rms="2.4775026738643646e-01" purity="6.7120589315891266e-02" nType="0">
                    <Node pos="l" depth="7" NCoef="0" IVar="-1" Cut="0.0000000000000000e+00" cType="1" res="-8.8638588786125183e-03" rms="2.0081681013107300e-01" purity="4.2370419949293137e-02" nType="-99"/>
                    <Node pos="r" depth="7" NCoef="0" IVar="-1" Cut="0.0000000000000000e+00" cType="1" res="1.0651811026036739e-03" rms="2.9946172237396240e-01" purity="1.0062815994024277e-01" nType="-99"/>
                  </Node>
                  <Node pos="r" depth="6" NCoef="0" IVar="-1" Cut="0.0000000000000000e+00" cType="1" res="2.1977254655212164e-03" rms="2.9824572801589966e-01" purity="1.0082278400659561e-01" nType="-99"/>
                </Node>
              </Node>
              <Node pos="r" depth="4" NCoef="0" IVar="-1" Cut="0.0000000000000000e+00" cType="1" res="1.8900845898315310e-03" rms="3.2018959522247314e-01" purity="1.1964534968137741e-01" nType="-99"/>
            </Node>
          </Node>
          <Node pos="r" depth="2" NCoef="0" IVar="-1" Cut="0.0000000000000000e+00" cType="1" res="-6.7769754678010941e-03" rms="4.2549446225166321e-01" purity="2.4760971963405609e-01" nType="-99"/>
        </Node>
      </Node>
    </BinaryTree>
    <BinaryTree type="DecisionTree" boostWeight="1.0000000000000000e+00" itree="81">
      <Node pos="s" depth="0" NCoef="0" IVar="3" Cut="5.8760577440261841e-01" cType="1" res="3.9747194387018681e-03" rms="4.0969866514205933e-01" purity="4.9961149692535400e-01" nType="0">
        <Node pos="l" depth="1" NCoef="0" IVar="3" Cut="1.5990695357322693e-01" cType="1" res="-6.7102061584591866e-03" rms="3.2580909132957458e-01" purity="1.3694962859153748e-01" nType="0">
          <Node pos="l" depth="2" NCoef="0" IVar="4" Cut="1.7905147373676300e-01" cType="1" res="1.3083217665553093e-02" rms="3.0172184109687805e-01" purity="1.1714331060647964e-01" nType="0">
            <Node pos="l" depth="3" NCoef="0" IVar="-1" Cut="0.0000000000000000e+00" cType="1" res="-9.4421295216307044e-04" rms="2.2516977787017822e-01" purity="5.6056033819913864e-02" nType="-99"/>
            <Node pos="r" depth="3" NCoef="0" IVar="-1" Cut="0.0000000000000000e+00" cType="1" res="5.8963149785995483e-03" rms="3.5862904787063599e-01" purity="1.7466481029987335e-01" nType="-99"/>
          </Node>
          <Node pos="r" depth="2" NCoef="0" IVar="0" Cut="3.2121872901916504e-01" cType="1" res="-8.1155961379408836e-03" rms="3.2740649580955505e-01" purity="1.3835592567920685e-01" nType="0">
            <Node pos="l" depth="3" NCoef="0" IVar="5" Cut="5.0000000000000000e+00" cType="1" res="-1.1610277928411961e-02" rms="3.7919610738754272e-01" purity="2.7923280000686646e-01" nType="0">
              <Node pos="l" depth="4" NCoef="0" IVar="4" Cut="1.4100937545299530e-01" cType="1" res="-3.3415034413337708e-02" rms="4.4185841083526611e-01" purity="2.8378504514694214e-01" nType="0">
                <Node pos="l" depth="5" NCoef="0" IVar="-1" Cut="0.0000000000000000e+00" cType="1" res="-6.6032656468451023e-03" rms="4.3448969721794128e-01" purity="2.7501845359802246e-01" nType="-99"/>
                <Node pos="r" depth="5" NCoef="0" IVar="-1" Cut="0.0000000000000000e+00" cType="1" res="-2.0158546976745129e-03" rms="4.4569179415702820e-01" purity="2.8929713368415833e-01" nType="-99"/>
              </Node>
              <Node pos="r" depth="4" NCoef="0" IVar="-1" Cut="0.0000000000000000e+00" cType="1" res="-1.0746379302872811e-05" rms="4.3233823776245117e-01" purity="2.7287504076957703e-01" nType="-99"/>
            </Node>
            <Node pos="r" depth="3" NCoef="0" IVar="3" Cut="3.3926469087600708e-01" cType="1" res="-5.9323902241885662e-03" rms="3.0150687694549561e-01" purity="1.1135832965373993e-01" nType="0">
              <Node pos="l" depth="4" NCoef="0" IVar="1" Cut="-1.3045538961887360e-01" cType="1" res="-1.2090100906789303e-02" rms="2.1711051464080811e-01" purity="5.1422659307718277e-02" nType="0">
                <Node pos="l" depth="5" NCoef="0" IVar="-1" Cut="0.0000000000000000e+00" cType="1" res="1.8462546868249774e-03" rms="2.7118512988090515e-01" purity="8.3030164241790771e-02" nType="-99"/>
                <Node pos="r" depth="5" NCoef="0" IVar="4" Cut="1.9214051961898804e-01" cType="1" res="-1.4203547500073910e-02" rms="2.0916634798049927e-01" purity="4.7416463494300842e-02" nType="0">
                  <Node pos="l" depth="6" NCoef="0" IVar="3" Cut="2.8718382120132446e-01" cType="1" res="-1.6579683870077133e-02" rms="1.7935892939567566e-01" purity="3.3760633319616318e-02" nType="0">
                    <Node pos="l" depth="7" NCoef="0" IVar="-1" Cut="0.0000000000000000e+00" cType="1" res="-1.3499609194695950e-02" rms="1.6094189882278442e-01" purity="2.6883183047175407e-02" nType="-99"/>
                    <Node pos="r" depth="7" NCoef="0" IVar="-1" Cut="0.0000000000000000e+00" cType="1" res="-6.4708953723311424e-03" rms="2.0623999834060669e-01" purity="4.5172881335020065e-02" nType="-99"/>
                  </Node>
                  <Node pos="r" depth="6" NCoef="0" IVar="-1" Cut="0.0000000000000000e+00" cType="1" res="-5.7964690495282412e-04" rms="3.2004189491271973e-01" purity="1.1681123822927475e-01" nType="-99"/>
                </Node>
              </Node>
              <Node pos="r" depth="4" NCoef="0" IVar="5" Cut="4.0000000000000000e+00" cType="1" res="-1.6981663648039103e-03" rms="3.4692081809043884e-01" purity="1.5182393789291382e-01" nType="0">
                <Node pos="l" depth="5" NCoef="0" IVar="2" Cut="9.3762390136718750e+01" cType="1" res="-1.0591302998363972e-02" rms="3.5064259171485901e-01" purity="1.5472766757011414e-01" nType="0">
                  <Node pos="l" depth="6" NCoef="0" IVar="-1" Cut="0.0000000000000000e+00" cType="1" res="-8.0664736742619425e-05" rms="3.7795436382293701e-01" purity="1.8381720781326294e-01" nType="-99"/>
                  <Node pos="r" depth="6" NCoef="0" IVar="3" Cut="4.9948233366012573e-01" cType="1" res="-1.4098608866333961e-02" rms="3.4061017632484436e-01" purity="1.4465984702110291e-01" nType="0">
                    <Node pos="l" depth="7" NCoef="0" IVar="-1" Cut="0.0000000000000000e+00" cType="1" res="-6.3116066157817841e-03" rms="2.8327253460884094e-01" purity="9.1394670307636261e-02" nType="-99"/>
                    <Node pos="r" depth="7" NCoef="0" IVar="-1" Cut="0.0000000000000000e+00" cType="1" res="-7.5470982119441032e-04" rms="3.9662888646125793e-01" purity="2.0639163255691528e-01" nType="-99"/>
                  </Node>
                </Node>
                <Node pos="r" depth="5" NCoef="0" IVar="4" Cut="1.0152369737625122e-01" cType="1" res="2.7354615740478039e-03" rms="3.4504649043083191e-01" purity="1.5033839643001556e-01" nType="0">
                  <Node pos="l" depth="6" NCoef="0" IVar="4" Cut="3.6222040653228760e-02" cType="1" res="-3.2560785766690969e-03" rms="3.2853549718856812e-01" purity="1.3573727011680603e-01" nType="0">
                    <Node pos="l" depth="7" NCoef="0" IVar="-1" Cut="0.0000000000000000e+00" cType="1" res="-4.1661434806883335e-03" rms="3.1745770573616028e-01" purity="1.2289290875196457e-01" nType="-99"/>
                    <Node pos="r" depth="7" NCoef="0" IVar="-1" Cut="0.0000000000000000e+00" cType="1" res="7.2209506470244378e-05" rms="3.3095780014991760e-01" purity="1.3872615993022919e-01" nType="-99"/>
                  </Node>
                  <Node pos="r" depth="6" NCoef="0" IVar="2" Cut="2.1974595642089844e+02" cType="1" res="1.2224620208144188e-02" rms="3.6949148774147034e-01" purity="1.7346306145191193e-01" nType="0">
                    <Node pos="l" depth="7" NCoef="0" IVar="-1" Cut="0.0000000000000000e+00" cType="1" res="4.9802064895629883e-03" rms="4.0671914815902710e-01" purity="2.2283411026000977e-01" nType="-99"/>
                    <Node pos="r" depth="7" NCoef="0" IVar="-1" Cut="0.0000000000000000e+00" cType="1" res="1.0487650288268924e-03" rms="3.5307803750038147e-01" purity="1.5350867807865143e-01" nType="-99"/>
                  </Node>
                </Node>
              </Node>
            </Node>
          </Node>
        </Node>
        <Node pos="r" depth="1" NCoef="0" IVar="0" Cut="8.2133209705352783e-01" cType="1" res="8.9940652251243591e-03" rms="4.4357526302337646e-01" purity="6.6997534036636353e-01" nType="0">
          <Node pos="l" depth="2" NCoef="0" IVar="1" Cut="9.6833980083465576e-01" cType="1" res="1.0195617564022541e-02" rms="4.4348576664924622e-01" purity="6.7710089683532715e-01" nType="0">
            <Node pos="l" depth="3" NCoef="0" IVar="2" Cut="3.6355923461914062e+02" cType="1" res="1.1232241056859493e-02" rms="4.4186124205589294e-01" purity="6.8737328052520752e-01" nType="0">
              <Node pos="l" depth="4" NCoef="0" IVar="0" Cut="6.0913085937500000e-01" cType="1" res="1.1750903911888599e-02" rms="4.4049820303916931e-01" purity="6.9412755966186523e-01" nType="0">
                <Node pos="l" depth="5" NCoef="0" IVar="1" Cut="6.2674462795257568e-02" cType="1" res="1.1243673972785473e-02" rms="4.3984609842300415e-01" purity="6.9932311773300171e-01" nType="0">
                  <Node pos="l" depth="6" NCoef="0" IVar="2" Cut="1.6417814636230469e+02" cType="1" res="1.6128040850162506e-02" rms="4.3019801378250122e-01" purity="7.2788745164871216e-01" nType="0">
                    <Node pos="l" depth="7" NCoef="0" IVar="-1" Cut="0.0000000000000000e+00" cType="1" res="1.8276663031429052e-03" rms="4.2315378785133362e-01" purity="7.4734014272689819e-01" nType="-99"/>
                    <Node pos="r" depth="7" NCoef="0" IVar="-1" Cut="0.0000000000000000e+00" cType="1" res="5.5101379984989762e-04" rms="4.7993186116218567e-01" purity="5.8102035522460938e-01" nType="-99"/>
                  </Node>
                  <Node pos="r" depth="6" NCoef="0" IVar="0" Cut="1.9648972898721695e-02" cType="1" res="4.4371546246111393e-03" rms="4.5286053419113159e-01" purity="6.5951776504516602e-01" nType="0">
                    <Node pos="l" depth="7" NCoef="0" IVar="-1" Cut="0.0000000000000000e+00" cType="1" res="7.8973744530230761e-04" rms="4.4438382983207703e-01" purity="7.1035146713256836e-01" nType="-99"/>
                    <Node pos="r" depth="7" NCoef="0" IVar="-1" Cut="0.0000000000000000e+00" cType="1" res="-9.0304849436506629e-04" rms="4.8382392525672913e-01" purity="4.6405670046806335e-01" nType="-99"/>
                  </Node>
                </Node>
                <Node pos="r" depth="5" NCoef="0" IVar="-1" Cut="0.0000000000000000e+00" cType="1" res="3.9525311440229416e-03" rms="4.7439718246459961e-01" purity="4.0616339445114136e-01" nType="-99"/>
              </Node>
              <Node pos="r" depth="4" NCoef="0" IVar="-1" Cut="0.0000000000000000e+00" cType="1" res="-7.0376449730247259e-04" rms="4.8753717541694641e-01" purity="4.4700416922569275e-01" nType="-99"/>
            </Node>
            <Node pos="r" depth="3" NCoef="0" IVar="3" Cut="8.1490892171859741e-01" cType="1" res="-1.0006181895732880e-02" rms="4.7358211874961853e-01" purity="4.7690945863723755e-01" nType="0">
              <Node pos="l" depth="4" NCoef="0" IVar="-1" Cut="0.0000000000000000e+00" cType="1" res="-3.1201960518956184e-03" rms="4.4826498627662659e-01" purity="3.0307415127754211e-01" nType="-99"/>
              <Node pos="r" depth="4" NCoef="0" IVar="-1" Cut="0.0000000000000000e+00" cType="1" res="9.8277967481408268e-05" rms="4.8748913407325745e-01" purity="5.7897639274597168e-01" nType="-99"/>
            </Node>
          </Node>
          <Node pos="r" depth="2" NCoef="0" IVar="-1" Cut="0.0000000000000000e+00" cType="1" res="-5.7141394354403019e-03" rms="4.4371694326400757e-01" purity="2.9714307188987732e-01" nType="-99"/>
        </Node>
      </Node>
    </BinaryTree>
    <BinaryTree type="DecisionTree" boostWeight="1.0000000000000000e+00" itree="82">
      <Node pos="s" depth="0" NCoef="0" IVar="1" Cut="3.6709692329168320e-02" cType="1" res="4.5267702080309391e-03" rms="4.1056993603706360e-01" purity="5.0032436847686768e-01" nType="0">
        <Node pos="l" depth="1" NCoef="0" IVar="2" Cut="2.5961215209960938e+02" cType="1" res="1.1282682418823242e-02" rms="4.2075204849243164e-01" purity="5.9546822309494019e-01" nType="0">
          <Node pos="l" depth="2" NCoef="0" IVar="3" Cut="6.5758979320526123e-01" cType="1" res="1.4151429757475853e-02" rms="4.2431274056434631e-01" purity="6.5945297479629517e-01" nType="0">
            <Node pos="l" depth="3" NCoef="0" IVar="5" Cut="4.0000000000000000e+00" cType="1" res="6.5860575996339321e-03" rms="4.1639405488967896e-01" purity="2.7614304423332214e-01" nType="0">
              <Node pos="l" depth="4" NCoef="0" IVar="0" Cut="5.8374732732772827e-01" cType="1" res="-4.0917410515248775e-03" rms="4.4812470674514771e-01" purity="3.2269784808158875e-01" nType="0">
                <Node pos="l" depth="5" NCoef="0" IVar="-1" Cut="0.0000000000000000e+00" cType="1" res="-1.4924668939784169e-03" rms="4.8284870386123657e-01" purity="4.1121983528137207e-01" nType="-99"/>
                <Node pos="r" depth="5" NCoef="0" IVar="-1" Cut="0.0000000000000000e+00" cType="1" res="1.4678428415209055e-03" rms="4.0587404370307922e-01" purity="2.2486615180969238e-01" nType="-99"/>
              </Node>
              <Node pos="r" depth="4" NCoef="0" IVar="3" Cut="4.5197775959968567e-01" cType="1" res="1.3157214969396591e-02" rms="3.9632445573806763e-01" purity="2.4806052446365356e-01" nType="0">
                <Node pos="l" depth="5" NCoef="0" IVar="4" Cut="8.5036329925060272e-02" cType="1" res="2.5931491982191801e-03" rms="3.0238902568817139e-01" purity="1.0995441675186157e-01" nType="0">
                  <Node pos="l" depth="6" NCoef="0" IVar="-1" Cut="0.0000000000000000e+00" cType="1" res="-1.3246795861050487e-03" rms="2.5131586194038391e-01" purity="7.1828871965408325e-02" nType="-99"/>
                  <Node pos="r" depth="6" NCoef="0" IVar="-1" Cut="0.0000000000000000e+00" cType="1" res="1.9055200973525643e-03" rms="3.4370446205139160e-01" purity="1.4602610468864441e-01" nType="-99"/>
                </Node>
                <Node pos="r" depth="5" NCoef="0" IVar="2" Cut="1.2639551544189453e+02" cType="1" res="2.3496663197875023e-02" rms="4.7020775079727173e-01" purity="3.8323017954826355e-01" nType="0">
                  <Node pos="l" depth="6" NCoef="0" IVar="-1" Cut="0.0000000000000000e+00" cType="1" res="1.5705780824646354e-03" rms="4.7370162606239319e-01" purity="3.9717680215835571e-01" nType="-99"/>
                  <Node pos="r" depth="6" NCoef="0" IVar="-1" Cut="0.0000000000000000e+00" cType="1" res="3.5123261623084545e-03" rms="4.6635398268699646e-01" purity="3.6855566501617432e-01" nType="-99"/>
                </Node>
              </Node>
            </Node>
            <Node pos="r" depth="3" NCoef="0" IVar="4" Cut="6.1760880053043365e-02" cType="1" res="1.5797400847077370e-02" rms="4.2596083879470825e-01" purity="7.4375301599502563e-01" nType="0">
              <Node pos="l" depth="4" NCoef="0" IVar="3" Cut="8.2604587078094482e-01" cType="1" res="1.3927889987826347e-02" rms="4.2099282145500183e-01" purity="7.5354850292205811e-01" nType="0">
                <Node pos="l" depth="5" NCoef="0" IVar="4" Cut="2.5963034480810165e-02" cType="1" res="5.1046400330960751e-03" rms="4.8132455348968506e-01" purity="5.9976887702941895e-01" nType="0">
                  <Node pos="l" depth="6" NCoef="0" IVar="-1" Cut="0.0000000000000000e+00" cType="1" res="-8.2847476005554199e-04" rms="4.8435568809509277e-01" purity="5.7956260442733765e-01" nType="-99"/>
                  <Node pos="r" depth="6" NCoef="0" IVar="2" Cut="1.0919073486328125e+02" cType="1" res="9.6100941300392151e-03" rms="4.8027685284614563e-01" purity="6.0613906383514404e-01" nType="0">
                    <Node pos="l" depth="7" NCoef="0" IVar="-1" Cut="0.0000000000000000e+00" cType="1" res="1.6268463805317879e-03" rms="4.7604623436927795e-01" purity="6.3324218988418579e-01" nType="-99"/>
                    <Node pos="r" depth="7" NCoef="0" IVar="-1" Cut="0.0000000000000000e+00" cType="1" res="-5.1400164375081658e-04" rms="4.8669472336769104e-01" purity="5.6209307909011841e-01" nType="-99"/>
                  </Node>
                </Node>
                <Node pos="r" depth="5" NCoef="0" IVar="3" Cut="1.0238094329833984e+00" cType="1" res="1.5707004815340042e-02" rms="4.0772438049316406e-01" purity="7.8455656766891479e-01" nType="0">
                  <Node pos="l" depth="6" NCoef="0" IVar="4" Cut="4.3825875967741013e-02" cType="1" res="1.6737101599574089e-02" rms="4.0780720114707947e-01" purity="7.8426504135131836e-01" nType="0">
                    <Node pos="l" depth="7" NCoef="0" IVar="-1" Cut="0.0000000000000000e+00" cType="1" res="1.7845197580754757e-03" rms="4.0601360797882080e-01" purity="7.8684884309768677e-01" nType="-99"/>
                    <Node pos="r" depth="7" NCoef="0" IVar="-1" Cut="0.0000000000000000e+00" cType="1" res="2.8335603419691324e-03" rms="4.3196749687194824e-01" purity="7.4806398153305054e-01" nType="-99"/>
                  </Node>
                  <Node pos="r" depth="6" NCoef="0" IVar="-1" Cut="0.0000000000000000e+00" cType="1" res="5.2169058471918106e-04" rms="4.0667340159416199e-01" purity="7.8767788410186768e-01" nType="-99"/>
                </Node>
              </Node>
              <Node pos="r" depth="4" NCoef="0" IVar="5" Cut="3.0000000000000000e+00" cType="1" res="3.4372273832559586e-02" rms="4.7088184952735901e-01" purity="6.4701366424560547e-01" nType="0">
                <Node pos="l" depth="5" NCoef="0" IVar="-1" Cut="0.0000000000000000e+00" cType="1" res="1.7976005328819156e-03" rms="4.7384509444236755e-01" purity="6.3667023181915283e-01" nType="-99"/>
                <Node pos="r" depth="5" NCoef="0" IVar="-1" Cut="0.0000000000000000e+00" cType="1" res="4.5075360685586929e-03" rms="4.6825534105300903e-01" purity="6.6228508949279785e-01" nType="-99"/>
              </Node>
            </Node>
          </Node>
          <Node pos="r" depth="2" NCoef="0" IVar="3" Cut="5.9007960557937622e-01" cType="1" res="-3.5714907571673393e-03" rms="4.0148288011550903e-01" purity="2.6415941119194031e-01" nType="0">
            <Node pos="l" depth="3" NCoef="0" IVar="4" Cut="1.1315750330686569e-01" cType="1" res="5.1423377590253949e-04" rms="3.6229172348976135e-01" purity="1.7290674149990082e-01" nType="0">
              <Node pos="l" depth="4" NCoef="0" IVar="-1" Cut="0.0000000000000000e+00" cType="1" res="-1.9831983372569084e-03" rms="3.3132275938987732e-01" purity="1.3941755890846252e-01" nType="-99"/>
              <Node pos="r" depth="4" NCoef="0" IVar="5" Cut="5.0000000000000000e+00" cType="1" res="3.3034174703061581e-03" rms="3.7058737874031067e-01" purity="1.8316733837127686e-01" nType="0">
                <Node pos="l" depth="5" NCoef="0" IVar="-1" Cut="0.0000000000000000e+00" cType="1" res="1.8156545702368021e-03" rms="4.1186442971229553e-01" purity="2.3987139761447906e-01" nType="-99"/>
                <Node pos="r" depth="5" NCoef="0" IVar="0" Cut="9.1132152080535889e-01" cType="1" res="-2.8879693709313869e-03" rms="3.3816653490066528e-01" purity="1.4158053696155548e-01" nType="0">
                  <Node pos="l" depth="6" NCoef="0" IVar="-1" Cut="0.0000000000000000e+00" cType="1" res="-1.4194314135238528e-03" rms="3.9137837290763855e-01" purity="1.9889816641807556e-01" nType="-99"/>
                  <Node pos="r" depth="6" NCoef="0" IVar="-1" Cut="0.0000000000000000e+00" cType="1" res="1.2000900460407138e-03" rms="2.7378302812576294e-01" purity="8.3514548838138580e-02" nType="-99"/>
                </Node>
              </Node>
            </Node>
            <Node pos="r" depth="3" NCoef="0" IVar="-1" Cut="0.0000000000000000e+00" cType="1" res="-1.3055932940915227e-03" rms="4.8488956689834595e-01" purity="4.8997393250465393e-01" nType="-99"/>
          </Node>
        </Node>
        <Node pos="r" depth="1" NCoef="0" IVar="1" Cut="3.2473771572113037e+00" cType="1" res="-9.5863483147695661e-04" rms="4.0202957391738892e-01" purity="4.2307314276695251e-01" nType="0">
          <Node pos="l" depth="2" NCoef="0" IVar="1" Cut="1.3824089765548706e+00" cType="1" res="-2.0631917286664248e-03" rms="4.0212756395339966e-01" purity="4.2500379681587219e-01" nType="0">
            <Node pos="l" depth="3" NCoef="0" IVar="0" Cut="9.6759396791458130e-01" cType="1" res="-1.4257967995945364e-04" rms="4.0533792972564697e-01" purity="4.3989610671997070e-01" nType="0">
              <Node pos="l" depth="4" NCoef="0" IVar="3" Cut="7.7586090564727783e-01" cType="1" res="2.9307270888239145e-03" rms="4.4096496701240540e-01" purity="5.4669159650802612e-01" nType="0">
                <Node pos="l" depth="5" NCoef="0" IVar="1" Cut="1.2351831793785095e-01" cType="1" res="-2.8896098956465721e-03" rms="4.3967187404632568e-01" purity="3.2200759649276733e-01" nType="0">
                  <Node pos="l" depth="6" NCoef="0" IVar="2" Cut="1.4054141235351562e+02" cType="1" res="1.0955951176583767e-02" rms="4.5768755674362183e-01" purity="3.9225423336029053e-01" nType="0">
                    <Node pos="l" depth="7" NCoef="0" IVar="-1" Cut="0.0000000000000000e+00" cType="1" res="2.7094720862805843e-03" rms="4.7509989142417908e-01" purity="4.7405108809471130e-01" nType="-99"/>
                    <Node pos="r" depth="7" NCoef="0" IVar="-1" Cut="0.0000000000000000e+00" cType="1" res="-4.3869190267287195e-04" rms="4.4275853037834167e-01" purity="3.2700410485267639e-01" nType="-99"/>
                  </Node>
                  <Node pos="r" depth="6" NCoef="0" IVar="4" Cut="5.0974059849977493e-02" cType="1" res="-6.3174725510179996e-03" rms="4.3502831459045410e-01" purity="3.0461606383323669e-01" nType="0">
                    <Node pos="l" depth="7" NCoef="0" IVar="-1" Cut="0.0000000000000000e+00" cType="1" res="-1.9592936150729656e-03" rms="4.4191765785217285e-01" purity="3.2132408022880554e-01" nType="-99"/>
                    <Node pos="r" depth="7" NCoef="0" IVar="-1" Cut="0.0000000000000000e+00" cType="1" res="-3.5329518141224980e-04" rms="4.3277165293693542e-01" purity="2.9933616518974304e-01" nType="-99"/>
                  </Node>
                </Node>
                <Node pos="r" depth="5" NCoef="0" IVar="1" Cut="8.0113053321838379e-02" cType="1" res="7.3465774767100811e-03" rms="4.4189235568046570e-01" purity="7.1715790033340454e-01" nType="0">
                  <Node pos="l" depth="6" NCoef="0" IVar="1" Cut="5.6307278573513031e-02" cType="1" res="1.7055289819836617e-02" rms="4.1907641291618347e-01" purity="7.6481372117996216e-01" nType="0">
                    <Node pos="l" depth="7" NCoef="0" IVar="-1" Cut="0.0000000000000000e+00" cType="1" res="2.4680972564965487e-03" rms="4.1480243206024170e-01" purity="7.7107781171798706e-01" nType="-99"/>
                    <Node pos="r" depth="7" NCoef="0" IVar="-1" Cut="0.0000000000000000e+00" cType="1" res="1.2764122802764177e-03" rms="4.2277142405509949e-01" purity="7.5924497842788696e-01" nType="-99"/>
                  </Node>
                  <Node pos="r" depth="6" NCoef="0" IVar="3" Cut="1.0085365772247314e+00" cType="1" res="5.8351946063339710e-03" rms="4.4532001018524170e-01" purity="7.0973914861679077e-01" nType="0">
                    <Node pos="l" depth="7" NCoef="0" IVar="-1" Cut="0.0000000000000000e+00" cType="1" res="6.8371690576896071e-04" rms="4.4766116142272949e-01" purity="7.0481008291244507e-01" nType="-99"/>
                    <Node pos="r" depth="7" NCoef="0" IVar="-1" Cut="0.0000000000000000e+00" cType="1" res="-2.0289469102863222e-04" rms="4.2865097522735596e-01" purity="7.4392175674438477e-01" nType="-99"/>
                  </Node>
                </Node>
              </Node>
              <Node pos="r" depth="4" NCoef="0" IVar="5" Cut="4.0000000000000000e+00" cType="1" res="-1.0924732312560081e-02" rms="2.4229918420314789e-01" purity="6.6618807613849640e-02" nType="0">
                <Node pos="l" depth="5" NCoef="0" IVar="0" Cut="1.5476349592208862e+00" cType="1" res="-2.6949824765324593e-02" rms="3.0750042200088501e-01" purity="1.1504285037517548e-01" nType="0">
                  <Node pos="l" depth="6" NCoef="0" IVar="-1" Cut="0.0000000000000000e+00" cType="1" res="-4.6858843415975571e-03" rms="3.2784879207611084e-01" purity="1.3487613201141357e-01" nType="-99"/>
                  <Node pos="r" depth="6" NCoef="0" IVar="-1" Cut="0.0000000000000000e+00" cType="1" res="-9.9984630942344666e-03" rms="2.7633130550384521e-01" purity="8.7285332381725311e-02" nType="-99"/>
                </Node>
                <Node pos="r" depth="5" NCoef="0" IVar="4" Cut="1.7976860702037811e-01" cType="1" res="-6.4821732230484486e-03" rms="2.2105623781681061e-01" purity="5.3349085152149200e-02" nType="0">
                  <Node pos="l" depth="6" NCoef="0" IVar="3" Cut="3.8310530781745911e-01" cType="1" res="-9.1101741418242455e-03" rms="2.0519392192363739e-01" purity="4.5564942061901093e-02" nType="0">
                    <Node pos="l" depth="7" NCoef="0" IVar="-1" Cut="0.0000000000000000e+00" cType="1" res="-8.1570437178015709e-03" rms="1.7835354804992676e-01" purity="3.3215884119272232e-02" nType="-99"/>
                    <Node pos="r" depth="7" NCoef="0" IVar="-1" Cut="0.0000000000000000e+00" cType="1" res="7.4799102731049061e-04" rms="2.8809887170791626e-01" purity="9.4820789992809296e-02" nType="-99"/>
                  </Node>
                  <Node pos="r" depth="6" NCoef="0" IVar="-1" Cut="0.0000000000000000e+00" cType="1" res="3.5458798520267010e-03" rms="3.0349394679069519e-01" purity="1.0351485759019852e-01" nType="-99"/>
                </Node>
              </Node>
            </Node>
            <Node pos="r" depth="3" NCoef="0" IVar="3" Cut="4.4845601916313171e-01" cType="1" res="-3.1004264950752258e-02" rms="3.4892892837524414e-01" purity="2.0059625804424286e-01" nType="0">
              <Node pos="l" depth="4" NCoef="0" IVar="-1" Cut="0.0000000000000000e+00" cType="1" res="-2.5705380830913782e-03" rms="2.3083327710628510e-01" purity="5.7440649718046188e-02" nType="-99"/>
              <Node pos="r" depth="4" NCoef="0" IVar="-1" Cut="0.0000000000000000e+00" cType="1" res="-6.2991101294755936e-03" rms="4.3456318974494934e-01" purity="3.4370708465576172e-01" nType="-99"/>
            </Node>
          </Node>
          <Node pos="r" depth="2" NCoef="0" IVar="-1" Cut="0.0000000000000000e+00" cType="1" res="6.8865325301885605e-03" rms="3.9470490813255310e-01" purity="3.3861452341079712e-01" nType="-99"/>
        </Node>
      </Node>
    </BinaryTree>
    <BinaryTree type="DecisionTree" boostWeight="1.0000000000000000e+00" itree="83">
      <Node pos="s" depth="0" NCoef="0" IVar="0" Cut="6.4506030082702637e-01" cType="1" res="3.8049879949539900e-03" rms="4.0995496511459351e-01" purity="5.0015109777450562e-01" nType="0">
        <Node pos="l" depth="1" NCoef="0" IVar="0" Cut="2.0804261788725853e-02" cType="1" res="7.5746602378785610e-03" rms="4.4144687056541443e-01" purity="6.2681645154953003e-01" nType="0">
          <Node pos="l" depth="2" NCoef="0" IVar="3" Cut="8.3263617753982544e-01" cType="1" res="1.0011150501668453e-02" rms="4.3524411320686340e-01" purity="6.9913190603256226e-01" nType="0">
            <Node pos="l" depth="3" NCoef="0" IVar="5" Cut="3.0000000000000000e+00" cType="1" res="2.0344670338090509e-04" rms="1.7987605184316635e-02" purity="5.2608060836791992e-01" nType="0">
              <Node pos="l" depth="4" NCoef="0" IVar="3" Cut="7.8024941682815552e-01" cType="1" res="-6.8975598551332951e-03" rms="4.8005595803260803e-01" purity="5.7336443662643433e-01" nType="0">
                <Node pos="l" depth="5" NCoef="0" IVar="4" Cut="1.0351141542196274e-01" cType="1" res="-1.6671501100063324e-02" rms="4.8717385530471802e-01" purity="4.8423039913177490e-01" nType="0">
                  <Node pos="l" depth="6" NCoef="0" IVar="-1" Cut="0.0000000000000000e+00" cType="1" res="-2.9700952582061291e-03" rms="4.8772543668746948e-01" purity="5.2663147449493408e-01" nType="-99"/>
                  <Node pos="r" depth="6" NCoef="0" IVar="-1" Cut="0.0000000000000000e+00" cType="1" res="6.7391537595540285e-04" rms="4.8541742563247681e-01" purity="4.2999312281608582e-01" nType="-99"/>
                </Node>
                <Node pos="r" depth="5" NCoef="0" IVar="4" Cut="4.5547846704721451e-02" cType="1" res="1.2452226364985108e-03" rms="4.7389042377471924e-01" purity="6.4762300252914429e-01" nType="0">
                  <Node pos="l" depth="6" NCoef="0" IVar="-1" Cut="0.0000000000000000e+00" cType="1" res="-6.7705893889069557e-04" rms="4.7740679979324341e-01" purity="6.3491106033325195e-01" nType="-99"/>
                  <Node pos="r" depth="6" NCoef="0" IVar="-1" Cut="0.0000000000000000e+00" cType="1" res="5.7501601986587048e-04" rms="4.7170448303222656e-01" purity="6.5514588356018066e-01" nType="-99"/>
                </Node>
              </Node>
              <Node pos="r" depth="4" NCoef="0" IVar="3" Cut="4.3760710954666138e-01" cType="1" res="1.2535545043647289e-02" rms="4.7405296564102173e-01" purity="4.9834260344505310e-01" nType="0">
                <Node pos="l" depth="5" NCoef="0" IVar="-1" Cut="0.0000000000000000e+00" cType="1" res="-2.3185135796666145e-03" rms="4.1000798344612122e-01" purity="2.2063928842544556e-01" nType="-99"/>
                <Node pos="r" depth="5" NCoef="0" IVar="1" Cut="-1.3237594068050385e-01" cType="1" res="1.6862602904438972e-02" rms="4.8280876874923706e-01" purity="5.4013687372207642e-01" nType="0">
                  <Node pos="l" depth="6" NCoef="0" IVar="-1" Cut="0.0000000000000000e+00" cType="1" res="2.8590369038283825e-03" rms="4.8214423656463623e-01" purity="5.8912503719329834e-01" nType="-99"/>
                  <Node pos="r" depth="6" NCoef="0" IVar="4" Cut="1.1434628069400787e-01" cType="1" res="1.2824984267354012e-02" rms="4.8289045691490173e-01" purity="5.2788454294204712e-01" nType="0">
                    <Node pos="l" depth="7" NCoef="0" IVar="-1" Cut="0.0000000000000000e+00" cType="1" res="1.4592658262699842e-03" rms="4.8441556096076965e-01" purity="5.7019263505935669e-01" nType="-99"/>
                    <Node pos="r" depth="7" NCoef="0" IVar="-1" Cut="0.0000000000000000e+00" cType="1" res="2.4420072440989316e-04" rms="4.7790509462356567e-01" purity="3.9454370737075806e-01" nType="-99"/>
                  </Node>
                </Node>
              </Node>
            </Node>
            <Node pos="r" depth="3" NCoef="0" IVar="4" Cut="5.1585674285888672e-02" cType="1" res="1.1872263625264168e-02" rms="4.1767558455467224e-01" purity="7.6823550462722778e-01" nType="0">
              <Node pos="l" depth="4" NCoef="0" IVar="3" Cut="9.5301067829132080e-01" cType="1" res="1.1350172571837902e-02" rms="4.1664946079254150e-01" purity="7.6988935470581055e-01" nType="0">
                <Node pos="l" depth="5" NCoef="0" IVar="4" Cut="2.0061425864696503e-02" cType="1" res="6.2859966419637203e-03" rms="4.4457423686981201e-01" purity="7.1908783912658691e-01" nType="0">
                  <Node pos="l" depth="6" NCoef="0" IVar="1" Cut="4.1252605617046356e-02" cType="1" res="-1.0445541702210903e-02" rms="4.5083817839622498e-01" purity="7.0150667428970337e-01" nType="0">
                    <Node pos="l" depth="7" NCoef="0" IVar="-1" Cut="0.0000000000000000e+00" cType="1" res="2.5221603573299944e-04" rms="4.3545192480087280e-01" purity="7.4458044767379761e-01" nType="-99"/>
                    <Node pos="r" depth="7" NCoef="0" IVar="-1" Cut="0.0000000000000000e+00" cType="1" res="-2.6743437629193068e-03" rms="4.6971291303634644e-01" purity="6.4505445957183838e-01" nType="-99"/>
                  </Node>
                  <Node pos="r" depth="6" NCoef="0" IVar="3" Cut="8.8308864831924438e-01" cType="1" res="1.4344409108161926e-02" rms="4.4129934906959534e-01" purity="7.2755545377731323e-01" nType="0">
                    <Node pos="l" depth="7" NCoef="0" IVar="-1" Cut="0.0000000000000000e+00" cType="1" res="8.9279620442539454e-04" rms="4.5278269052505493e-01" purity="7.0691215991973877e-01" nType="-99"/>
                    <Node pos="r" depth="7" NCoef="0" IVar="-1" Cut="0.0000000000000000e+00" cType="1" res="2.5092489086091518e-03" rms="4.2378565669059753e-01" purity="7.5783348083496094e-01" nType="-99"/>
                  </Node>
                </Node>
                <Node pos="r" depth="5" NCoef="0" IVar="1" Cut="-1.8093067407608032e-01" cType="1" res="1.3170499354600906e-02" rms="4.0612757205963135e-01" purity="7.8815001249313354e-01" nType="0">
                  <Node pos="l" depth="6" NCoef="0" IVar="1" Cut="-2.5113922357559204e-01" cType="1" res="5.7048550806939602e-03" rms="4.0408805012702942e-01" purity="7.9398268461227417e-01" nType="0">
                    <Node pos="l" depth="7" NCoef="0" IVar="-1" Cut="0.0000000000000000e+00" cType="1" res="-7.3941766459029168e-05" rms="4.1317501664161682e-01" purity="7.8127831220626831e-01" nType="-99"/>
                    <Node pos="r" depth="7" NCoef="0" IVar="-1" Cut="0.0000000000000000e+00" cType="1" res="1.3222090201452374e-03" rms="3.9534607529640198e-01" purity="8.0581134557723999e-01" nType="-99"/>
                  </Node>
                  <Node pos="r" depth="6" NCoef="0" IVar="3" Cut="9.9295198917388916e-01" cType="1" res="1.4185828156769276e-02" rms="4.0639355778694153e-01" purity="7.8735679388046265e-01" nType="0">
                    <Node pos="l" depth="7" NCoef="0" IVar="-1" Cut="0.0000000000000000e+00" cType="1" res="1.0789146181195974e-03" rms="4.1492018103599548e-01" purity="7.7315378189086914e-01" nType="-99"/>
                    <Node pos="r" depth="7" NCoef="0" IVar="-1" Cut="0.0000000000000000e+00" cType="1" res="1.7249359516426921e-03" rms="4.0364217758178711e-01" purity="7.9186147451400757e-01" nType="-99"/>
                  </Node>
                </Node>
              </Node>
              <Node pos="r" depth="4" NCoef="0" IVar="-1" Cut="0.0000000000000000e+00" cType="1" res="2.3922275286167860e-03" rms="4.4466283917427063e-01" purity="7.2286802530288696e-01" nType="-99"/>
            </Node>
          </Node>
          <Node pos="r" depth="2" NCoef="0" IVar="1" Cut="6.5346360206604004e-01" cType="1" res="3.1110609415918589e-04" rms="4.5936489105224609e-01" purity="4.1123294830322266e-01" nType="0">
            <Node pos="l" depth="3" NCoef="0" IVar="3" Cut="5.9270972013473511e-01" cType="1" res="4.3942262418568134e-03" rms="4.6408224105834961e-01" purity="4.3123432993888855e-01" nType="0">
              <Node pos="l" depth="4" NCoef="0" IVar="4" Cut="7.6871544122695923e-02" cType="1" res="-5.5977655574679375e-03" rms="4.2057746648788452e-01" purity="2.4512197077274323e-01" nType="0">
                <Node pos="l" depth="5" NCoef="0" IVar="-1" Cut="0.0000000000000000e+00" cType="1" res="-2.5595158804208040e-03" rms="4.2618846893310547e-01" purity="2.5760027766227722e-01" nType="-99"/>
                <Node pos="r" depth="5" NCoef="0" IVar="5" Cut="5.0000000000000000e+00" cType="1" res="-4.1742652683751658e-05" rms="3.7150356173515320e-01" purity="2.4065095186233521e-01" nType="0">
                  <Node pos="l" depth="6" NCoef="0" IVar="-1" Cut="0.0000000000000000e+00" cType="1" res="-1.1446893913671374e-03" rms="4.3158337473869324e-01" purity="2.6258733868598938e-01" nType="-99"/>
                  <Node pos="r" depth="6" NCoef="0" IVar="-1" Cut="0.0000000000000000e+00" cType="1" res="1.3134692562744021e-03" rms="4.0474626421928406e-01" purity="2.1888513863086700e-01" nType="-99"/>
                </Node>
              </Node>
              <Node pos="r" depth="4" NCoef="0" IVar="0" Cut="2.7490928769111633e-01" cType="1" res="9.2067085206508636e-03" rms="4.8356768488883972e-01" purity="5.2087235450744629e-01" nType="0">
                <Node pos="l" depth="5" NCoef="0" IVar="4" Cut="3.7936631590127945e-02" cType="1" res="-5.3570060990750790e-03" rms="4.8234105110168457e-01" purity="5.8060514926910400e-01" nType="0">
                  <Node pos="l" depth="6" NCoef="0" IVar="-1" Cut="0.0000000000000000e+00" cType="1" res="-1.5717172063887119e-03" rms="4.7669425606727600e-01" purity="6.0727226734161377e-01" nType="-99"/>
                  <Node pos="r" depth="6" NCoef="0" IVar="-1" Cut="0.0000000000000000e+00" cType="1" res="3.6040914710611105e-04" rms="4.8724088072776794e-01" purity="5.5635553598403931e-01" nType="-99"/>
                </Node>
                <Node pos="r" depth="5" NCoef="0" IVar="0" Cut="4.4207164645195007e-01" cType="1" res="1.6030102968215942e-02" rms="4.8399057984352112e-01" purity="4.9288636445999146e-01" nType="0">
                  <Node pos="l" depth="6" NCoef="0" IVar="4" Cut="5.0934638828039169e-02" cType="1" res="2.2280059754848480e-02" rms="4.8680174350738525e-01" purity="5.2585148811340332e-01" nType="0">
                    <Node pos="l" depth="7" NCoef="0" IVar="-1" Cut="0.0000000000000000e+00" cType="1" res="1.2696676421910524e-03" rms="4.8209547996520996e-01" purity="5.4364365339279175e-01" nType="-99"/>
                    <Node pos="r" depth="7" NCoef="0" IVar="-1" Cut="0.0000000000000000e+00" cType="1" res="2.7637484017759562e-03" rms="4.9195277690887451e-01" purity="5.0555640459060669e-01" nType="-99"/>
                  </Node>
                  <Node pos="r" depth="6" NCoef="0" IVar="0" Cut="5.0104928016662598e-01" cType="1" res="3.0997551511973143e-03" rms="4.7786274552345276e-01" purity="4.2468559741973877e-01" nType="0">
                    <Node pos="l" depth="7" NCoef="0" IVar="-1" Cut="0.0000000000000000e+00" cType="1" res="-9.8166684620082378e-04" rms="4.8114767670631409e-01" purity="4.4170618057250977e-01" nType="-99"/>
                    <Node pos="r" depth="7" NCoef="0" IVar="-1" Cut="0.0000000000000000e+00" cType="1" res="1.1866659624502063e-03" rms="4.7546136379241943e-01" purity="4.1343361139297485e-01" nType="-99"/>
                  </Node>
                </Node>
              </Node>
            </Node>
            <Node pos="r" depth="3" NCoef="0" IVar="3" Cut="6.6063481569290161e-01" cType="1" res="-3.0605547130107880e-02" rms="4.2065358161926270e-01" purity="2.5978621840476990e-01" nType="0">
              <Node pos="l" depth="4" NCoef="0" IVar="-1" Cut="0.0000000000000000e+00" cType="1" res="-2.2531663998961449e-03" rms="3.7933301925659180e-01" purity="1.8128472566604614e-01" nType="-99"/>
              <Node pos="r" depth="4" NCoef="0" IVar="-1" Cut="0.0000000000000000e+00" cType="1" res="-5.0660930573940277e-03" rms="4.6352007985115051e-01" purity="3.5153535008430481e-01" nType="-99"/>
            </Node>
          </Node>
        </Node>
        <Node pos="r" depth="1" NCoef="0" IVar="2" Cut="6.4727691650390625e+01" cType="1" res="-7.9480428248643875e-03" rms="2.9032006859779358e-01" purity="1.0523556917905807e-01" nType="0">
          <Node pos="l" depth="2" NCoef="0" IVar="0" Cut="1.5400853157043457e+00" cType="1" res="1.0181829333305359e-02" rms="3.6448788642883301e-01" purity="2.0207020640373230e-01" nType="0">
            <Node pos="l" depth="3" NCoef="0" IVar="3" Cut="5.2593797445297241e-01" cType="1" res="2.1047441288828850e-02" rms="4.1028943657875061e-01" purity="2.6993969082832336e-01" nType="0">
              <Node pos="l" depth="4" NCoef="0" IVar="-1" Cut="0.0000000000000000e+00" cType="1" res="1.5548702795058489e-03" rms="3.3711940050125122e-01" purity="1.3763040304183960e-01" nType="-99"/>
              <Node pos="r" depth="4" NCoef="0" IVar="-1" Cut="0.0000000000000000e+00" cType="1" res="3.4989642444998026e-03" rms="4.7089368104934692e-01" purity="4.0013068914413452e-01" nType="-99"/>
            </Node>
            <Node pos="r" depth="3" NCoef="0" IVar="-1" Cut="0.0000000000000000e+00" cType="1" res="-3.0630135443061590e-03" rms="2.6757615804672241e-01" purity="8.5963897407054901e-02" nType="-99"/>
          </Node>
          <Node pos="r" depth="2" NCoef="0" IVar="3" Cut="5.8355665206909180e-01" cType="1" res="-1.0854300111532211e-02" rms="2.7647683024406433e-01" purity="8.9712776243686676e-02" nType="0">
            <Node pos="l" depth="3" NCoef="0" IVar="4" Cut="8.6146689951419830e-02" cType="1" res="-7.9901814460754395e-03" rms="2.6277452707290649e-01" purity="7.8657247126102448e-02" nType="0">
              <Node pos="l" depth="4" NCoef="0" IVar="0" Cut="9.4549667835235596e-01" cType="1" res="-1.3510471209883690e-02" rms="2.3602704703807831e-01" purity="6.1953503638505936e-02" nType="0">
                <Node pos="l" depth="5" NCoef="0" IVar="-1" Cut="0.0000000000000000e+00" cType="1" res="-5.5673914030194283e-03" rms="3.1936371326446533e-01" purity="1.1858415603637695e-01" nType="-99"/>
                <Node pos="r" depth="5" NCoef="0" IVar="3" Cut="4.0405535697937012e-01" cType="1" res="-9.8518133163452148e-03" rms="2.0492719113826752e-01" purity="4.5246299356222153e-02" nType="0">
                  <Node pos="l" depth="6" NCoef="0" IVar="4" Cut="4.5610543340444565e-02" cType="1" res="-1.1625189334154129e-02" rms="1.7126074433326721e-01" purity="3.0567420646548271e-02" nType="0">
                    <Node pos="l" depth="7" NCoef="0" IVar="-1" Cut="0.0000000000000000e+00" cType="1" res="-3.3685795497149229e-03" rms="1.8559296429157257e-01" purity="3.6268860101699829e-02" nType="-99"/>
                    <Node pos="r" depth="7" NCoef="0" IVar="-1" Cut="0.0000000000000000e+00" cType="1" res="-9.8302084952592850e-03" rms="1.6637088358402252e-01" purity="2.8748793527483940e-02" nType="-99"/>
                  </Node>
                  <Node pos="r" depth="6" NCoef="0" IVar="-1" Cut="0.0000000000000000e+00" cType="1" res="-1.6327643534168601e-03" rms="2.7683889865875244e-01" purity="8.5437394678592682e-02" nType="-99"/>
                </Node>
              </Node>
              <Node pos="r" depth="4" NCoef="0" IVar="3" Cut="3.8041061162948608e-01" cType="1" res="-4.6581551432609558e-03" rms="2.7762192487716675e-01" purity="8.8739566504955292e-02" nType="0">
                <Node pos="l" depth="5" NCoef="0" IVar="4" Cut="2.2669023275375366e-01" cType="1" res="-8.0886902287602425e-03" rms="2.4079830944538116e-01" purity="6.3593149185180664e-02" nType="0">
                  <Node pos="l" depth="6" NCoef="0" IVar="2" Cut="5.3814398193359375e+02" cType="1" res="-9.8143881186842918e-03" rms="2.2408124804496765e-01" purity="5.4251674562692642e-02" nType="0">
                    <Node pos="l" depth="7" NCoef="0" IVar="-1" Cut="0.0000000000000000e+00" cType="1" res="-3.9549148641526699e-03" rms="2.2450980544090271e-01" purity="5.4519008845090866e-02" nType="-99"/>
                    <Node pos="r" depth="7" NCoef="0" IVar="-1" Cut="0.0000000000000000e+00" cType="1" res="-7.5085763819515705e-03" rms="2.2226439416408539e-01" purity="5.3241852670907974e-02" nType="-99"/>
                  </Node>
                  <Node pos="r" depth="6" NCoef="0" IVar="-1" Cut="0.0000000000000000e+00" cType="1" res="5.7010061573237181e-04" rms="3.2193753123283386e-01" purity="1.1862303316593170e-01" nType="-99"/>
                </Node>
                <Node pos="r" depth="5" NCoef="0" IVar="2" Cut="3.4056832885742188e+02" cType="1" res="3.6760894581675529e-03" rms="3.5121786594390869e-01" purity="1.4983102679252625e-01" nType="0">
                  <Node pos="l" depth="6" NCoef="0" IVar="4" Cut="1.0940439999103546e-01" cType="1" res="9.2326942831277847e-03" rms="3.6985579133033752e-01" purity="1.7000003159046173e-01" nType="0">
                    <Node pos="l" depth="7" NCoef="0" IVar="-1" Cut="0.0000000000000000e+00" cType="1" res="1.0158321820199490e-03" rms="3.5457974672317505e-01" purity="1.5469010174274445e-01" nType="-99"/>
                    <Node pos="r" depth="7" NCoef="0" IVar="-1" Cut="0.0000000000000000e+00" cType="1" res="2.5175441987812519e-03" rms="3.8381513953208923e-01" purity="1.8460607528686523e-01" nType="-99"/>
                  </Node>
                  <Node pos="r" depth="6" NCoef="0" IVar="-1" Cut="0.0000000000000000e+00" cType="1" res="-9.5700327074155211e-04" rms="3.2372805476188660e-01" purity="1.2213696539402008e-01" nType="-99"/>
                </Node>
              </Node>
            </Node>
            <Node pos="r" depth="3" NCoef="0" IVar="-1" Cut="0.0000000000000000e+00" cType="1" res="-6.3074682839214802e-03" rms="4.2681434750556946e-01" purity="2.5069034099578857e-01" nType="-99"/>
          </Node>
        </Node>
      </Node>
    </BinaryTree>
    <BinaryTree type="DecisionTree" boostWeight="1.0000000000000000e+00" itree="84">
      <Node pos="s" depth="0" NCoef="0" IVar="2" Cut="6.9694526672363281e+01" cType="1" res="3.7768986076116562e-03" rms="4.1020339727401733e-01" purity="5.0136542320251465e-01" nType="0">
        <Node pos="l" depth="1" NCoef="0" IVar="1" Cut="9.7606307268142700e-01" cType="1" res="1.0249198414385319e-02" rms="4.2133972048759460e-01" purity="6.9207072257995605e-01" nType="0">
          <Node pos="l" depth="2" NCoef="0" IVar="4" Cut="5.9759143739938736e-02" cType="1" res="1.2041286565363407e-02" rms="4.2100635170936584e-01" purity="7.1108108758926392e-01" nType="0">
            <Node pos="l" depth="3" NCoef="0" IVar="0" Cut="9.5909410715103149e-01" cType="1" res="1.1172398924827576e-02" rms="4.1982597112655640e-01" purity="7.1834194660186768e-01" nType="0">
              <Node pos="l" depth="4" NCoef="0" IVar="0" Cut="5.2592444419860840e-01" cType="1" res="1.1937011964619160e-02" rms="4.2270034551620483e-01" purity="7.3814833164215088e-01" nType="0">
                <Node pos="l" depth="5" NCoef="0" IVar="2" Cut="3.8219242095947266e+01" cType="1" res="1.1189986020326614e-02" rms="4.2140448093414307e-01" purity="7.5138062238693237e-01" nType="0">
                  <Node pos="l" depth="6" NCoef="0" IVar="5" Cut="3.0000000000000000e+00" cType="1" res="1.1351614259183407e-02" rms="3.9355364441871643e-01" purity="7.6851040124893188e-01" nType="0">
                    <Node pos="l" depth="7" NCoef="0" IVar="-1" Cut="0.0000000000000000e+00" cType="1" res="1.2444767635315657e-03" rms="4.1245520114898682e-01" purity="7.7607655525207520e-01" nType="-99"/>
                    <Node pos="r" depth="7" NCoef="0" IVar="-1" Cut="0.0000000000000000e+00" cType="1" res="2.9693432152271271e-03" rms="4.7835183143615723e-01" purity="5.6779539585113525e-01" nType="-99"/>
                  </Node>
                  <Node pos="r" depth="6" NCoef="0" IVar="4" Cut="3.2427623867988586e-02" cType="1" res="3.9341482333838940e-03" rms="4.6116355061531067e-01" purity="6.3805788755416870e-01" nType="0">
                    <Node pos="l" depth="7" NCoef="0" IVar="-1" Cut="0.0000000000000000e+00" cType="1" res="-1.0624616406857967e-03" rms="4.6333143115043640e-01" purity="6.2553769350051880e-01" nType="-99"/>
                    <Node pos="r" depth="7" NCoef="0" IVar="-1" Cut="0.0000000000000000e+00" cType="1" res="1.4096519444137812e-03" rms="4.5914894342422485e-01" purity="6.4782583713531494e-01" nType="-99"/>
                  </Node>
                </Node>
                <Node pos="r" depth="5" NCoef="0" IVar="-1" Cut="0.0000000000000000e+00" cType="1" res="3.3277738839387894e-03" rms="4.5551607012748718e-01" purity="3.8452711701393127e-01" nType="-99"/>
              </Node>
              <Node pos="r" depth="4" NCoef="0" IVar="-1" Cut="0.0000000000000000e+00" cType="1" res="-2.4944741744548082e-03" rms="3.2460221648216248e-01" purity="1.4276336133480072e-01" nType="-99"/>
            </Node>
            <Node pos="r" depth="3" NCoef="0" IVar="-1" Cut="0.0000000000000000e+00" cType="1" res="3.2675839029252529e-03" rms="4.5272737741470337e-01" purity="5.0365483760833740e-01" nType="-99"/>
          </Node>
          <Node pos="r" depth="2" NCoef="0" IVar="3" Cut="9.6712458133697510e-01" cType="1" res="-1.8183313310146332e-02" rms="4.2558550834655762e-01" purity="3.9046147465705872e-01" nType="0">
            <Node pos="l" depth="3" NCoef="0" IVar="-1" Cut="0.0000000000000000e+00" cType="1" res="-4.9957656301558018e-03" rms="3.6501261591911316e-01" purity="1.9335953891277313e-01" nType="-99"/>
            <Node pos="r" depth="3" NCoef="0" IVar="-1" Cut="0.0000000000000000e+00" cType="1" res="-5.0759525038301945e-04" rms="4.8224192857742310e-01" purity="6.0333693027496338e-01" nType="-99"/>
          </Node>
        </Node>
        <Node pos="r" depth="1" NCoef="0" IVar="0" Cut="3.2252985239028931e-01" cType="1" res="-2.1572166588157415e-03" rms="3.9962843060493469e-01" purity="3.2651752233505249e-01" nType="0">
          <Node pos="l" depth="2" NCoef="0" IVar="0" Cut="1.0402035899460316e-02" cType="1" res="3.3551116939634085e-03" rms="4.6758142113685608e-01" purity="5.3924864530563354e-01" nType="0">
            <Node pos="l" depth="3" NCoef="0" IVar="1" Cut="4.0991550683975220e-01" cType="1" res="7.3326644487679005e-03" rms="4.6680295467376709e-01" purity="5.6834053993225098e-01" nType="0">
              <Node pos="l" depth="4" NCoef="0" IVar="1" Cut="-4.6316131949424744e-02" cType="1" res="5.0803185440599918e-03" rms="4.6542915701866150e-01" purity="5.8846348524093628e-01" nType="0">
                <Node pos="l" depth="5" NCoef="0" IVar="4" Cut="8.7698794901371002e-02" cType="1" res="1.0973701253533363e-02" rms="4.6351012587547302e-01" purity="6.1003243923187256e-01" nType="0">
                  <Node pos="l" depth="6" NCoef="0" IVar="1" Cut="-1.3903623819351196e-01" cType="1" res="5.3486311808228493e-03" rms="4.5544371008872986e-01" purity="6.8720281124114990e-01" nType="0">
                    <Node pos="l" depth="7" NCoef="0" IVar="-1" Cut="0.0000000000000000e+00" cType="1" res="-3.2784166978672147e-04" rms="4.6076080203056335e-01" purity="6.7548066377639771e-01" nType="-99"/>
                    <Node pos="r" depth="7" NCoef="0" IVar="-1" Cut="0.0000000000000000e+00" cType="1" res="1.6574675682932138e-03" rms="4.4834700226783752e-01" purity="7.0210152864456177e-01" nType="-99"/>
                  </Node>
                  <Node pos="r" depth="6" NCoef="0" IVar="1" Cut="-1.3571950793266296e-01" cType="1" res="2.1362880244851112e-02" rms="4.7787660360336304e-01" purity="4.6750316023826599e-01" nType="0">
                    <Node pos="l" depth="7" NCoef="0" IVar="-1" Cut="0.0000000000000000e+00" cType="1" res="3.2087280414998531e-03" rms="4.7769460082054138e-01" purity="4.7802004218101501e-01" nType="-99"/>
                    <Node pos="r" depth="7" NCoef="0" IVar="-1" Cut="0.0000000000000000e+00" cType="1" res="5.4549443302676082e-04" rms="4.7761845588684082e-01" purity="4.5497620105743408e-01" nType="-99"/>
                  </Node>
                </Node>
                <Node pos="r" depth="5" NCoef="0" IVar="3" Cut="6.4506363868713379e-01" cType="1" res="3.9494698285125196e-04" rms="4.6689611673355103e-01" purity="5.7131570577621460e-01" nType="0">
                  <Node pos="l" depth="6" NCoef="0" IVar="2" Cut="3.3436932373046875e+02" cType="1" res="-1.2918049469590187e-02" rms="4.6314707398414612e-01" purity="3.3992621302604675e-01" nType="0">
                    <Node pos="l" depth="7" NCoef="0" IVar="-1" Cut="0.0000000000000000e+00" cType="1" res="-2.2719637490808964e-03" rms="4.6986991167068481e-01" purity="3.6761647462844849e-01" nType="-99"/>
                    <Node pos="r" depth="7" NCoef="0" IVar="-1" Cut="0.0000000000000000e+00" cType="1" res="-7.6459407864604145e-05" rms="4.5461767911911011e-01" purity="3.0658429861068726e-01" nType="-99"/>
                  </Node>
                  <Node pos="r" depth="6" NCoef="0" IVar="4" Cut="8.6741313338279724e-02" cType="1" res="0.0000000000000000e+00" rms="0.0000000000000000e+00" purity="6.5615659952163696e-01" nType="0">
                    <Node pos="l" depth="7" NCoef="0" IVar="-1" Cut="0.0000000000000000e+00" cType="1" res="2.0247558131814003e-04" rms="4.6329101920127869e-01" purity="6.7329931259155273e-01" nType="-99"/>
                    <Node pos="r" depth="7" NCoef="0" IVar="-1" Cut="0.0000000000000000e+00" cType="1" res="1.6829649684950709e-03" rms="4.8918852210044861e-01" purity="5.7927137613296509e-01" nType="-99"/>
                  </Node>
                </Node>
              </Node>
              <Node pos="r" depth="4" NCoef="0" IVar="3" Cut="7.8745681047439575e-01" cType="1" res="1.6976838931441307e-02" rms="4.7251877188682556e-01" purity="4.8217746615409851e-01" nType="0">
                <Node pos="l" depth="5" NCoef="0" IVar="3" Cut="6.3737314939498901e-01" cType="1" res="4.3436116538941860e-03" rms="4.6786326169967651e-01" purity="3.7613365054130554e-01" nType="0">
                  <Node pos="l" depth="6" NCoef="0" IVar="-1" Cut="0.0000000000000000e+00" cType="1" res="6.7416980164125562e-04" rms="4.4166511297225952e-01" purity="2.8021663427352905e-01" nType="-99"/>
                  <Node pos="r" depth="6" NCoef="0" IVar="-1" Cut="0.0000000000000000e+00" cType="1" res="2.8209507581777871e-04" rms="4.9327176809310913e-01" purity="4.7444769740104675e-01" nType="-99"/>
                </Node>
                <Node pos="r" depth="5" NCoef="0" IVar="-1" Cut="0.0000000000000000e+00" cType="1" res="2.9863612726330757e-03" rms="4.7834315896034241e-01" purity="6.2910211086273193e-01" nType="-99"/>
              </Node>
            </Node>
            <Node pos="r" depth="3" NCoef="0" IVar="0" Cut="2.2722126543521881e-01" cType="1" res="-1.1482933536171913e-02" rms="4.7017729282379150e-01" purity="4.3072289228439331e-01" nType="0">
              <Node pos="l" depth="4" NCoef="0" IVar="-1" Cut="0.0000000000000000e+00" cType="1" res="-2.9001950751990080e-03" rms="4.6997138857841492e-01" purity="4.5922121405601501e-01" nType="-99"/>
              <Node pos="r" depth="4" NCoef="0" IVar="4" Cut="4.9156542867422104e-02" cType="1" res="-5.4851048626005650e-03" rms="4.7010523080825806e-01" purity="4.2055651545524597e-01" nType="0">
                <Node pos="l" depth="5" NCoef="0" IVar="-1" Cut="0.0000000000000000e+00" cType="1" res="-1.8522193422541022e-03" rms="4.8534902930259705e-01" purity="4.7787889838218689e-01" nType="-99"/>
                <Node pos="r" depth="5" NCoef="0" IVar="2" Cut="2.5146424865722656e+02" cType="1" res="4.2362134990980849e-05" rms="4.6365416049957275e-01" purity="3.9726513624191284e-01" nType="0">
                  <Node pos="l" depth="6" NCoef="0" IVar="-1" Cut="0.0000000000000000e+00" cType="1" res="9.9456065800040960e-04" rms="4.7791358828544617e-01" purity="4.6831968426704407e-01" nType="-99"/>
                  <Node pos="r" depth="6" NCoef="0" IVar="-1" Cut="0.0000000000000000e+00" cType="1" res="-1.4430230949074030e-03" rms="4.4559261202812195e-01" purity="3.1174719333648682e-01" nType="-99"/>
                </Node>
              </Node>
            </Node>
          </Node>
          <Node pos="r" depth="2" NCoef="0" IVar="3" Cut="7.1970623731613159e-01" cType="1" res="-6.6496157087385654e-03" rms="3.3411371707916260e-01" purity="1.5314748883247375e-01" nType="0">
            <Node pos="l" depth="3" NCoef="0" IVar="1" Cut="-1.8973983824253082e-01" cType="1" res="-4.6736970543861389e-03" rms="3.2351896166801453e-01" purity="1.3766144216060638e-01" nType="0">
              <Node pos="l" depth="4" NCoef="0" IVar="3" Cut="4.0236046910285950e-01" cType="1" res="1.0758992284536362e-02" rms="3.6274209618568420e-01" purity="1.8834850192070007e-01" nType="0">
                <Node pos="l" depth="5" NCoef="0" IVar="-1" Cut="0.0000000000000000e+00" cType="1" res="-2.3249185178428888e-03" rms="2.6765516400337219e-01" purity="8.1664383411407471e-02" nType="-99"/>
                <Node pos="r" depth="5" NCoef="0" IVar="-1" Cut="0.0000000000000000e+00" cType="1" res="3.5922019742429256e-03" rms="4.3817225098609924e-01" purity="2.9694128036499023e-01" nType="-99"/>
              </Node>
              <Node pos="r" depth="4" NCoef="0" IVar="4" Cut="6.1855278909206390e-02" cType="1" res="-6.2340218573808670e-03" rms="3.1924366950988770e-01" purity="1.3253672420978546e-01" nType="0">
                <Node pos="l" depth="5" NCoef="0" IVar="4" Cut="3.6215089261531830e-02" cType="1" res="-1.6484446823596954e-02" rms="3.0991041660308838e-01" purity="1.2518644332885742e-01" nType="0">
                  <Node pos="l" depth="6" NCoef="0" IVar="-1" Cut="0.0000000000000000e+00" cType="1" res="-5.9656635858118534e-03" rms="3.0140414834022522e-01" purity="1.1377304047346115e-01" nType="-99"/>
                  <Node pos="r" depth="6" NCoef="0" IVar="2" Cut="1.9350276184082031e+02" cType="1" res="-1.3406728394329548e-02" rms="3.1259852647781372e-01" purity="1.2894324958324432e-01" nType="0">
                    <Node pos="l" depth="7" NCoef="0" IVar="-1" Cut="0.0000000000000000e+00" cType="1" res="-2.1935796830803156e-03" rms="3.1872755289077759e-01" purity="1.3656847178936005e-01" nType="-99"/>
                    <Node pos="r" depth="7" NCoef="0" IVar="-1" Cut="0.0000000000000000e+00" cType="1" res="-5.3433221764862537e-03" rms="2.9756337404251099e-01" purity="1.1110022664070129e-01" nType="-99"/>
                  </Node>
                </Node>
                <Node pos="r" depth="5" NCoef="0" IVar="3" Cut="5.8401930332183838e-01" cType="1" res="-3.5639395937323570e-03" rms="3.2157674431800842e-01" purity="1.3445135951042175e-01" nType="0">
                  <Node pos="l" depth="6" NCoef="0" IVar="4" Cut="2.0247015357017517e-01" cType="1" res="-5.2038403227925301e-03" rms="2.9828616976737976e-01" purity="1.0689792782068253e-01" nType="0">
                    <Node pos="l" depth="7" NCoef="0" IVar="-1" Cut="0.0000000000000000e+00" cType="1" res="-2.0805280655622482e-03" rms="2.9171207547187805e-01" purity="1.0262837260961533e-01" nType="-99"/>
                    <Node pos="r" depth="7" NCoef="0" IVar="-1" Cut="0.0000000000000000e+00" cType="1" res="2.1763590630143881e-03" rms="3.4099569916725159e-01" purity="1.3719700276851654e-01" nType="-99"/>
                  </Node>
                  <Node pos="r" depth="6" NCoef="0" IVar="2" Cut="2.0842427062988281e+02" cType="1" res="9.7027337178587914e-03" rms="4.6904981136322021e-01" purity="3.5735651850700378e-01" nType="0">
                    <Node pos="l" depth="7" NCoef="0" IVar="-1" Cut="0.0000000000000000e+00" cType="1" res="1.2202665675431490e-03" rms="4.8028549551963806e-01" purity="3.9768972992897034e-01" nType="-99"/>
                    <Node pos="r" depth="7" NCoef="0" IVar="-1" Cut="0.0000000000000000e+00" cType="1" res="7.8735360875725746e-04" rms="4.5802196860313416e-01" purity="3.1875744462013245e-01" nType="-99"/>
                  </Node>
                </Node>
              </Node>
            </Node>
            <Node pos="r" depth="3" NCoef="0" IVar="-1" Cut="0.0000000000000000e+00" cType="1" res="-3.7225058767944574e-03" rms="4.7564536333084106e-01" purity="4.1041344404220581e-01" nType="-99"/>
          </Node>
        </Node>
      </Node>
    </BinaryTree>
    <BinaryTree type="DecisionTree" boostWeight="1.0000000000000000e+00" itree="85">
      <Node pos="s" depth="0" NCoef="0" IVar="1" Cut="4.1315338015556335e-01" cType="1" res="2.9195132665336132e-03" rms="4.1106036305427551e-01" purity="4.9912860989570618e-01" nType="0">
        <Node pos="l" depth="1" NCoef="0" IVar="2" Cut="4.1551300048828125e+02" cType="1" res="6.2592541798949242e-03" rms="4.1994953155517578e-01" purity="5.5735450983047485e-01" nType="0">
          <Node pos="l" depth="2" NCoef="0" IVar="0" Cut="1.9273146390914917e+00" cType="1" res="7.7747814357280731e-03" rms="4.2419770359992981e-01" purity="5.9134960174560547e-01" nType="0">
            <Node pos="l" depth="3" NCoef="0" IVar="2" Cut="1.8764456176757812e+02" cType="1" res="8.4383329376578331e-03" rms="4.2974543571472168e-01" purity="6.1047029495239258e-01" nType="0">
              <Node pos="l" depth="4" NCoef="0" IVar="4" Cut="6.8274162709712982e-02" cType="1" res="9.5355156809091568e-03" rms="4.2958259582519531e-01" purity="6.6229188442230225e-01" nType="0">
                <Node pos="l" depth="5" NCoef="0" IVar="2" Cut="4.8423751831054688e+01" cType="1" res="8.0654555931687355e-03" rms="4.2640969157218933e-01" purity="6.9472521543502808e-01" nType="0">
                  <Node pos="l" depth="6" NCoef="0" IVar="0" Cut="4.9683842062950134e-01" cType="1" res="1.0780547745525837e-02" rms="4.1696107387542725e-01" purity="7.5263071060180664e-01" nType="0">
                    <Node pos="l" depth="7" NCoef="0" IVar="-1" Cut="0.0000000000000000e+00" cType="1" res="9.9542050156742334e-04" rms="4.1499453783035278e-01" purity="7.6832854747772217e-01" nType="-99"/>
                    <Node pos="r" depth="7" NCoef="0" IVar="-1" Cut="0.0000000000000000e+00" cType="1" res="4.9658310599625111e-03" rms="4.5681208372116089e-01" purity="4.0522208809852600e-01" nType="-99"/>
                  </Node>
                  <Node pos="r" depth="6" NCoef="0" IVar="4" Cut="2.7523212134838104e-02" cType="1" res="1.6732151852920651e-03" rms="4.4780349731445312e-01" purity="5.5839616060256958e-01" nType="0">
                    <Node pos="l" depth="7" NCoef="0" IVar="-1" Cut="0.0000000000000000e+00" cType="1" res="-2.0926350262016058e-03" rms="4.4614398479461670e-01" purity="5.6187975406646729e-01" nType="-99"/>
                    <Node pos="r" depth="7" NCoef="0" IVar="-1" Cut="0.0000000000000000e+00" cType="1" res="6.3987390603870153e-04" rms="4.4803777337074280e-01" purity="5.5764687061309814e-01" nType="-99"/>
                  </Node>
                </Node>
                <Node pos="r" depth="5" NCoef="0" IVar="3" Cut="7.2329646348953247e-01" cType="1" res="2.0146802067756653e-02" rms="4.5168307423591614e-01" purity="4.2817962169647217e-01" nType="0">
                  <Node pos="l" depth="6" NCoef="0" IVar="5" Cut="5.0000000000000000e+00" cType="1" res="1.0437825694680214e-02" rms="4.1012653708457947e-01" purity="3.6538079380989075e-01" nType="0">
                    <Node pos="l" depth="7" NCoef="0" IVar="-1" Cut="0.0000000000000000e+00" cType="1" res="1.0095705511048436e-03" rms="4.6413242816925049e-01" purity="4.0578716993331909e-01" nType="-99"/>
                    <Node pos="r" depth="7" NCoef="0" IVar="-1" Cut="0.0000000000000000e+00" cType="1" res="5.5012064985930920e-03" rms="4.0004983544349670e-01" purity="2.4690647423267365e-01" nType="-99"/>
                  </Node>
                  <Node pos="r" depth="6" NCoef="0" IVar="-1" Cut="0.0000000000000000e+00" cType="1" res="2.9050707817077637e-03" rms="4.6250694990158081e-01" purity="6.7695355415344238e-01" nType="-99"/>
                </Node>
              </Node>
              <Node pos="r" depth="4" NCoef="0" IVar="2" Cut="2.4644757080078125e+02" cType="1" res="3.2044693361967802e-03" rms="4.3048295378684998e-01" purity="3.6326703429222107e-01" nType="0">
                <Node pos="l" depth="5" NCoef="0" IVar="3" Cut="7.5160658359527588e-01" cType="1" res="-6.7384294234216213e-03" rms="4.3375518918037415e-01" purity="4.0128511190414429e-01" nType="0">
                  <Node pos="l" depth="6" NCoef="0" IVar="0" Cut="3.1076481938362122e-01" cType="1" res="-1.3022956438362598e-02" rms="4.1790607571601868e-01" purity="2.8495523333549500e-01" nType="0">
                    <Node pos="l" depth="7" NCoef="0" IVar="-1" Cut="0.0000000000000000e+00" cType="1" res="-2.5448575615882874e-03" rms="4.7813335061073303e-01" purity="4.3301275372505188e-01" nType="-99"/>
                    <Node pos="r" depth="7" NCoef="0" IVar="-1" Cut="0.0000000000000000e+00" cType="1" res="-9.2812610091641545e-04" rms="3.7975624203681946e-01" purity="2.0188893377780914e-01" nType="-99"/>
                  </Node>
                  <Node pos="r" depth="6" NCoef="0" IVar="-1" Cut="0.0000000000000000e+00" cType="1" res="7.0520141161978245e-04" rms="4.6679049730300903e-01" purity="6.6011917591094971e-01" nType="-99"/>
                </Node>
                <Node pos="r" depth="5" NCoef="0" IVar="0" Cut="7.4603199958801270e-01" cType="1" res="9.7080757841467857e-03" rms="4.2820417881011963e-01" purity="3.3839961886405945e-01" nType="0">
                  <Node pos="l" depth="6" NCoef="0" IVar="2" Cut="3.6096624755859375e+02" cType="1" res="1.2974055483937263e-02" rms="4.6662265062332153e-01" purity="4.2674279212951660e-01" nType="0">
                    <Node pos="l" depth="7" NCoef="0" IVar="-1" Cut="0.0000000000000000e+00" cType="1" res="1.8667407566681504e-03" rms="4.6803098917007446e-01" purity="4.4470727443695068e-01" nType="-99"/>
                    <Node pos="r" depth="7" NCoef="0" IVar="-1" Cut="0.0000000000000000e+00" cType="1" res="-4.5492826029658318e-04" rms="4.6130320429801941e-01" purity="3.6447653174400330e-01" nType="-99"/>
                  </Node>
                  <Node pos="r" depth="6" NCoef="0" IVar="-1" Cut="0.0000000000000000e+00" cType="1" res="3.6484716110862792e-04" rms="3.0736654996871948e-01" purity="1.1024039983749390e-01" nType="-99"/>
                </Node>
              </Node>
            </Node>
            <Node pos="r" depth="3" NCoef="0" IVar="4" Cut="9.8773546516895294e-02" cType="1" res="-1.1064298450946808e-02" rms="2.1230652928352356e-01" purity="4.8488847911357880e-02" nType="0">
              <Node pos="l" depth="4" NCoef="0" IVar="-1" Cut="0.0000000000000000e+00" cType="1" res="-1.3180723413825035e-02" rms="1.8185982108116150e-01" purity="3.4992091357707977e-02" nType="-99"/>
              <Node pos="r" depth="4" NCoef="0" IVar="-1" Cut="0.0000000000000000e+00" cType="1" res="1.6476400196552277e-03" rms="2.4607259035110474e-01" purity="6.6293545067310333e-02" nType="-99"/>
            </Node>
          </Node>
          <Node pos="r" depth="2" NCoef="0" IVar="3" Cut="2.6978552341461182e-01" cType="1" res="-9.8236221820116043e-03" rms="3.7150904536247253e-01" purity="1.9659663736820221e-01" nType="0">
            <Node pos="l" depth="3" NCoef="0" IVar="-1" Cut="0.0000000000000000e+00" cType="1" res="2.0365263335406780e-03" rms="3.3160954713821411e-01" purity="1.4066679775714874e-01" nType="-99"/>
            <Node pos="r" depth="3" NCoef="0" IVar="2" Cut="6.9867224121093750e+02" cType="1" res="-1.6989598050713539e-02" rms="3.8588103652000427e-01" purity="2.1865978837013245e-01" nType="0">
              <Node pos="l" depth="4" NCoef="0" IVar="0" Cut="5.0798463821411133e-01" cType="1" res="-8.1893503665924072e-03" rms="3.9291754364967346e-01" purity="2.3709520697593689e-01" nType="0">
                <Node pos="l" depth="5" NCoef="0" IVar="-1" Cut="0.0000000000000000e+00" cType="1" res="5.2497052820399404e-04" rms="4.6081939339637756e-01" purity="3.5570871829986572e-01" nType="-99"/>
                <Node pos="r" depth="5" NCoef="0" IVar="-1" Cut="0.0000000000000000e+00" cType="1" res="-5.8889081701636314e-03" rms="2.9475262761116028e-01" purity="9.9819786846637726e-02" nType="-99"/>
              </Node>
              <Node pos="r" depth="4" NCoef="0" IVar="-1" Cut="0.0000000000000000e+00" cType="1" res="-7.5758639723062515e-03" rms="3.5991534590721130e-01" purity="1.5727002918720245e-01" nType="-99"/>
            </Node>
          </Node>
        </Node>
        <Node pos="r" depth="1" NCoef="0" IVar="1" Cut="3.5018944740295410e+00" cType="1" res="-7.9865511506795883e-03" rms="3.8038501143455505e-01" purity="3.0898937582969666e-01" nType="0">
          <Node pos="l" depth="2" NCoef="0" IVar="1" Cut="1.4095244407653809e+00" cType="1" res="-1.1024863459169865e-02" rms="3.7940025329589844e-01" purity="3.0716210603713989e-01" nType="0">
            <Node pos="l" depth="3" NCoef="0" IVar="0" Cut="1.2901259660720825e+00" cType="1" res="-6.8292752839624882e-03" rms="3.8453838229179382e-01" purity="3.2620039582252502e-01" nType="0">
              <Node pos="l" depth="4" NCoef="0" IVar="0" Cut="4.1615512222051620e-02" cType="1" res="-3.9120488800108433e-03" rms="4.3100142478942871e-01" purity="4.2533347010612488e-01" nType="0">
                <Node pos="l" depth="5" NCoef="0" IVar="5" Cut="3.0000000000000000e+00" cType="1" res="2.0751608535647392e-03" rms="4.6473988890647888e-01" purity="6.0269653797149658e-01" nType="0">
                  <Node pos="l" depth="6" NCoef="0" IVar="3" Cut="9.8401498794555664e-01" cType="1" res="-1.2140139006078243e-03" rms="4.6239843964576721e-01" purity="6.5373629331588745e-01" nType="0">
                    <Node pos="l" depth="7" NCoef="0" IVar="-1" Cut="0.0000000000000000e+00" cType="1" res="-1.1041829129680991e-03" rms="4.8476403951644897e-01" purity="5.6222099065780640e-01" nType="-99"/>
                    <Node pos="r" depth="7" NCoef="0" IVar="-1" Cut="0.0000000000000000e+00" cType="1" res="7.0744717959314585e-04" rms="4.4416961073875427e-01" purity="7.2436076402664185e-01" nType="-99"/>
                  </Node>
                  <Node pos="r" depth="6" NCoef="0" IVar="-1" Cut="0.0000000000000000e+00" cType="1" res="1.4111525379121304e-03" rms="4.7310286760330200e-01" purity="4.1399633884429932e-01" nType="-99"/>
                </Node>
                <Node pos="r" depth="5" NCoef="0" IVar="4" Cut="7.6276302337646484e-02" cType="1" res="-1.0733015835285187e-02" rms="3.8885781168937683e-01" purity="2.2307190299034119e-01" nType="0">
                  <Node pos="l" depth="6" NCoef="0" IVar="0" Cut="4.9298542737960815e-01" cType="1" res="-2.0052943378686905e-02" rms="4.0685302019119263e-01" purity="2.6439589262008667e-01" nType="0">
                    <Node pos="l" depth="7" NCoef="0" IVar="-1" Cut="0.0000000000000000e+00" cType="1" res="-3.8511627353727818e-03" rms="4.6041402220726013e-01" purity="3.6977389454841614e-01" nType="-99"/>
                    <Node pos="r" depth="7" NCoef="0" IVar="-1" Cut="0.0000000000000000e+00" cType="1" res="-1.0987415444105864e-03" rms="3.5545217990875244e-01" purity="1.7649362981319427e-01" nType="-99"/>
                  </Node>
                  <Node pos="r" depth="6" NCoef="0" IVar="1" Cut="5.7386654615402222e-01" cType="1" res="3.1488042441196740e-04" rms="3.6607593297958374e-01" purity="1.7408624291419983e-01" nType="0">
                    <Node pos="l" depth="7" NCoef="0" IVar="-1" Cut="0.0000000000000000e+00" cType="1" res="1.6312461812049150e-03" rms="3.8630306720733643e-01" purity="2.0196539163589478e-01" nType="-99"/>
                    <Node pos="r" depth="7" NCoef="0" IVar="-1" Cut="0.0000000000000000e+00" cType="1" res="-9.4515073578804731e-04" rms="3.5426187515258789e-01" purity="1.5862859785556793e-01" nType="-99"/>
                  </Node>
                </Node>
              </Node>
              <Node pos="r" depth="4" NCoef="0" IVar="5" Cut="5.0000000000000000e+00" cType="1" res="-1.5291384421288967e-02" rms="1.9786982238292694e-01" purity="4.2402211576700211e-02" nType="0">
                <Node pos="l" depth="5" NCoef="0" IVar="-1" Cut="0.0000000000000000e+00" cType="1" res="-1.0389437898993492e-02" rms="2.2633413970470428e-01" purity="5.7204138487577438e-02" nType="-99"/>
                <Node pos="r" depth="5" NCoef="0" IVar="0" Cut="2.1328930854797363e+00" cType="1" res="-9.3444352969527245e-03" rms="1.8116644024848938e-01" purity="3.4488685429096222e-02" nType="0">
                  <Node pos="l" depth="6" NCoef="0" IVar="-1" Cut="0.0000000000000000e+00" cType="1" res="-2.4957833811640739e-03" rms="2.0869924128055573e-01" purity="4.6176485717296600e-02" nType="-99"/>
                  <Node pos="r" depth="6" NCoef="0" IVar="-1" Cut="0.0000000000000000e+00" cType="1" res="-1.1091269552707672e-02" rms="1.5585127472877502e-01" purity="2.5239974260330200e-02" nType="-99"/>
                </Node>
              </Node>
            </Node>
            <Node pos="r" depth="3" NCoef="0" IVar="3" Cut="5.5640012025833130e-01" cType="1" res="-3.4495484083890915e-02" rms="3.4833472967147827e-01" purity="2.0065973699092865e-01" nType="0">
              <Node pos="l" depth="4" NCoef="0" IVar="-1" Cut="0.0000000000000000e+00" cType="1" res="-5.1855645142495632e-03" rms="2.3409493267536163e-01" purity="5.9920292347669601e-02" nType="-99"/>
              <Node pos="r" depth="4" NCoef="0" IVar="-1" Cut="0.0000000000000000e+00" cType="1" res="-6.5155406482517719e-03" rms="4.5552855730056763e-01" purity="3.8636437058448792e-01" nType="-99"/>
            </Node>
          </Node>
          <Node pos="r" depth="2" NCoef="0" IVar="-1" Cut="0.0000000000000000e+00" cType="1" res="7.7456254512071609e-03" rms="3.9476457238197327e-01" purity="3.4582984447479248e-01" nType="-99"/>
        </Node>
      </Node>
    </BinaryTree>
    <BinaryTree type="DecisionTree" boostWeight="1.0000000000000000e+00" itree="86">
      <Node pos="s" depth="0" NCoef="0" IVar="3" Cut="7.1579146385192871e-01" cType="1" res="3.0444308649748564e-03" rms="4.0993008017539978e-01" purity="5.0005954504013062e-01" nType="0">
        <Node pos="l" depth="1" NCoef="0" IVar="3" Cut="1.7073437571525574e-01" cType="1" res="-3.0904621817171574e-03" rms="3.7180733680725098e-01" purity="2.1262779831886292e-01" nType="0">
          <Node pos="l" depth="2" NCoef="0" IVar="5" Cut="7.0000000000000000e+00" cType="1" res="1.2016920372843742e-02" rms="2.9729968309402466e-01" purity="1.1351430416107178e-01" nType="0">
            <Node pos="l" depth="3" NCoef="0" IVar="-1" Cut="0.0000000000000000e+00" cType="1" res="1.0750592686235905e-02" rms="3.5549122095108032e-01" purity="1.6875250637531281e-01" nType="-99"/>
            <Node pos="r" depth="3" NCoef="0" IVar="-1" Cut="0.0000000000000000e+00" cType="1" res="-3.2847926486283541e-03" rms="2.5044775009155273e-01" purity="7.4849702417850494e-02" nType="-99"/>
          </Node>
          <Node pos="r" depth="2" NCoef="0" IVar="3" Cut="4.5205396413803101e-01" cType="1" res="-4.0716659277677536e-03" rms="3.7581396102905273e-01" purity="2.1876187622547150e-01" nType="0">
            <Node pos="l" depth="3" NCoef="0" IVar="0" Cut="3.0897518992424011e-01" cType="1" res="-8.9039243757724762e-03" rms="2.7031850814819336e-01" purity="8.4687508642673492e-02" nType="0">
              <Node pos="l" depth="4" NCoef="0" IVar="-1" Cut="0.0000000000000000e+00" cType="1" res="-3.7484250497072935e-03" rms="3.9616829156875610e-01" purity="2.0211346447467804e-01" nType="-99"/>
              <Node pos="r" depth="4" NCoef="0" IVar="4" Cut="1.6635578870773315e-01" cType="1" res="-7.0996978320181370e-03" rms="2.5296327471733093e-01" purity="7.2020202875137329e-02" nType="0">
                <Node pos="l" depth="5" NCoef="0" IVar="2" Cut="9.4252487182617188e+01" cType="1" res="-9.0581057593226433e-03" rms="2.3273201286792755e-01" purity="5.9934332966804504e-02" nType="0">
                  <Node pos="l" depth="6" NCoef="0" IVar="4" Cut="4.2948469519615173e-02" cType="1" res="-4.6690713497810066e-04" rms="2.5235277414321899e-01" purity="7.1403644979000092e-02" nType="0">
                    <Node pos="l" depth="7" NCoef="0" IVar="-1" Cut="0.0000000000000000e+00" cType="1" res="-4.5139212161302567e-03" rms="2.2659252583980560e-01" purity="5.5706497281789780e-02" nType="-99"/>
                    <Node pos="r" depth="7" NCoef="0" IVar="-1" Cut="0.0000000000000000e+00" cType="1" res="3.4069507382810116e-03" rms="2.7486351132392883e-01" purity="8.6704455316066742e-02" nType="-99"/>
                  </Node>
                  <Node pos="r" depth="6" NCoef="0" IVar="4" Cut="7.4544198811054230e-02" cType="1" res="-1.1353502981364727e-02" rms="2.2714807093143463e-01" purity="5.6869961321353912e-02" nType="0">
                    <Node pos="l" depth="7" NCoef="0" IVar="-1" Cut="0.0000000000000000e+00" cType="1" res="-1.0806035250425339e-02" rms="1.7252224683761597e-01" purity="3.1266439706087112e-02" nType="-99"/>
                    <Node pos="r" depth="7" NCoef="0" IVar="-1" Cut="0.0000000000000000e+00" cType="1" res="-3.6616125144064426e-03" rms="2.4408096075057983e-01" purity="6.6255651414394379e-02" nType="-99"/>
                  </Node>
                </Node>
                <Node pos="r" depth="5" NCoef="0" IVar="3" Cut="2.9778182506561279e-01" cType="1" res="9.6843228675425053e-04" rms="3.2309606671333313e-01" purity="1.2181082367897034e-01" nType="0">
                  <Node pos="l" depth="6" NCoef="0" IVar="-1" Cut="0.0000000000000000e+00" cType="1" res="-1.3253885554149747e-03" rms="2.9834511876106262e-01" purity="1.0076445341110229e-01" nType="-99"/>
                  <Node pos="r" depth="6" NCoef="0" IVar="-1" Cut="0.0000000000000000e+00" cType="1" res="1.7952994676306844e-03" rms="3.5437262058258057e-01" purity="1.5092733502388000e-01" nType="-99"/>
                </Node>
              </Node>
            </Node>
            <Node pos="r" depth="3" NCoef="0" IVar="5" Cut="4.0000000000000000e+00" cType="1" res="3.8120613317005336e-04" rms="4.4907158613204956e-01" purity="3.3799690008163452e-01" nType="0">
              <Node pos="l" depth="4" NCoef="0" IVar="4" Cut="3.8304995745420456e-02" cType="1" res="-6.0987356118857861e-03" rms="4.5196682214736938e-01" purity="3.4645330905914307e-01" nType="0">
                <Node pos="l" depth="5" NCoef="0" IVar="-1" Cut="0.0000000000000000e+00" cType="1" res="-2.6041471865028143e-03" rms="4.3767386674880981e-01" purity="3.0382481217384338e-01" nType="-99"/>
                <Node pos="r" depth="5" NCoef="0" IVar="3" Cut="6.7325693368911743e-01" cType="1" res="-3.1672229524701834e-03" rms="4.5440220832824707e-01" purity="3.5404387116432190e-01" nType="0">
                  <Node pos="l" depth="6" NCoef="0" IVar="4" Cut="1.3037472963333130e-01" cType="1" res="-8.2746231928467751e-03" rms="4.4232067465782166e-01" purity="3.0794712901115417e-01" nType="0">
                    <Node pos="l" depth="7" NCoef="0" IVar="-1" Cut="0.0000000000000000e+00" cType="1" res="-1.3077007606625557e-03" rms="4.3747162818908691e-01" purity="2.9821839928627014e-01" nType="-99"/>
                    <Node pos="r" depth="7" NCoef="0" IVar="-1" Cut="0.0000000000000000e+00" cType="1" res="3.7868210347369313e-04" rms="4.6211233735084534e-01" purity="3.4916540980339050e-01" nType="-99"/>
                  </Node>
                  <Node pos="r" depth="6" NCoef="0" IVar="4" Cut="7.2783328592777252e-02" cType="1" res="1.2169130146503448e-02" rms="4.8856854438781738e-01" purity="4.9246200919151306e-01" nType="0">
                    <Node pos="l" depth="7" NCoef="0" IVar="-1" Cut="0.0000000000000000e+00" cType="1" res="-8.4458565106615424e-04" rms="4.8486647009849548e-01" purity="4.4430616497993469e-01" nType="-99"/>
                    <Node pos="r" depth="7" NCoef="0" IVar="-1" Cut="0.0000000000000000e+00" cType="1" res="2.4400595575571060e-03" rms="4.9077454209327698e-01" purity="5.2963250875473022e-01" nType="-99"/>
                  </Node>
                </Node>
              </Node>
              <Node pos="r" depth="4" NCoef="0" IVar="0" Cut="3.2121905684471130e-01" cType="1" res="9.5291882753372192e-03" rms="4.4503507018089294e-01" purity="3.2555750012397766e-01" nType="0">
                <Node pos="l" depth="5" NCoef="0" IVar="4" Cut="1.1479704082012177e-01" cType="1" res="1.6861852258443832e-02" rms="4.8273736238479614e-01" purity="4.3264293670654297e-01" nType="0">
                  <Node pos="l" depth="6" NCoef="0" IVar="2" Cut="1.3063574218750000e+02" cType="1" res="1.0148175060749054e-02" rms="4.8457223176956177e-01" purity="4.4736659526824951e-01" nType="0">
                    <Node pos="l" depth="7" NCoef="0" IVar="-1" Cut="0.0000000000000000e+00" cType="1" res="2.1935519762337208e-03" rms="4.9001851677894592e-01" purity="4.9008178710937500e-01" nType="-99"/>
                    <Node pos="r" depth="7" NCoef="0" IVar="-1" Cut="0.0000000000000000e+00" cType="1" res="-1.7345874221064150e-04" rms="4.7940129041671753e-01" purity="4.0967842936515808e-01" nType="-99"/>
                  </Node>
                  <Node pos="r" depth="6" NCoef="0" IVar="-1" Cut="0.0000000000000000e+00" cType="1" res="3.1469552777707577e-03" rms="4.7843471169471741e-01" purity="4.0088218450546265e-01" nType="-99"/>
                </Node>
                <Node pos="r" depth="5" NCoef="0" IVar="2" Cut="1.4990446472167969e+02" cType="1" res="3.0567680951207876e-03" rms="4.0876808762550354e-01" purity="2.3103493452072144e-01" nType="0">
                  <Node pos="l" depth="6" NCoef="0" IVar="2" Cut="8.2722778320312500e+01" cType="1" res="8.0410577356815338e-03" rms="4.2336216568946838e-01" purity="2.5894740223884583e-01" nType="0">
                    <Node pos="l" depth="7" NCoef="0" IVar="-1" Cut="0.0000000000000000e+00" cType="1" res="2.0359402988106012e-03" rms="4.3119168281555176e-01" purity="2.7808803319931030e-01" nType="-99"/>
                    <Node pos="r" depth="7" NCoef="0" IVar="-1" Cut="0.0000000000000000e+00" cType="1" res="3.8100879464764148e-05" rms="4.1536909341812134e-01" purity="2.4011658132076263e-01" nType="-99"/>
                  </Node>
                  <Node pos="r" depth="6" NCoef="0" IVar="4" Cut="9.7946204245090485e-02" cType="1" res="-1.0830457322299480e-03" rms="3.9619052410125732e-01" purity="2.0785158872604370e-01" nType="0">
                    <Node pos="l" depth="7" NCoef="0" IVar="-1" Cut="0.0000000000000000e+00" cType="1" res="-1.1951340129598975e-03" rms="3.7970715761184692e-01" purity="1.8762429058551788e-01" nType="-99"/>
                    <Node pos="r" depth="7" NCoef="0" IVar="-1" Cut="0.0000000000000000e+00" cType="1" res="9.5639762002974749e-04" rms="4.1577926278114319e-01" purity="2.3317775130271912e-01" nType="-99"/>
                  </Node>
                </Node>
              </Node>
            </Node>
          </Node>
        </Node>
        <Node pos="r" depth="1" NCoef="0" IVar="3" Cut="1.0461311340332031e+00" cType="1" res="7.6672276481986046e-03" rms="4.3640518188476562e-01" purity="7.1664667129516602e-01" nType="0">
          <Node pos="l" depth="2" NCoef="0" IVar="1" Cut="9.7163480520248413e-01" cType="1" res="8.8044200092554092e-03" rms="4.3670037388801575e-01" purity="7.1738195419311523e-01" nType="0">
            <Node pos="l" depth="3" NCoef="0" IVar="3" Cut="7.3710620403289795e-01" cType="1" res="9.6984663978219032e-03" rms="4.3421378731727600e-01" purity="7.2735536098480225e-01" nType="0">
              <Node pos="l" depth="4" NCoef="0" IVar="-1" Cut="0.0000000000000000e+00" cType="1" res="-6.6282053012400866e-04" rms="4.9266144633293152e-01" purity="5.4055267572402954e-01" nType="-99"/>
              <Node pos="r" depth="4" NCoef="0" IVar="4" Cut="6.4046390354633331e-02" cType="1" res="1.0386192239820957e-02" rms="4.3170917034149170e-01" purity="7.3479121923446655e-01" nType="0">
                <Node pos="l" depth="5" NCoef="0" IVar="3" Cut="8.8663470745086670e-01" cType="1" res="9.5503339543938637e-03" rms="4.2888838052749634e-01" purity="7.4141746759414673e-01" nType="0">
                  <Node pos="l" depth="6" NCoef="0" IVar="4" Cut="3.3114649355411530e-02" cType="1" res="3.3988759387284517e-03" rms="4.6831676363945007e-01" purity="6.5388160943984985e-01" nType="0">
                    <Node pos="l" depth="7" NCoef="0" IVar="-1" Cut="0.0000000000000000e+00" cType="1" res="-4.6048493823036551e-04" rms="4.7216308116912842e-01" purity="6.4323943853378296e-01" nType="-99"/>
                    <Node pos="r" depth="7" NCoef="0" IVar="-1" Cut="0.0000000000000000e+00" cType="1" res="8.0230779713019729e-04" rms="4.6573600172996521e-01" purity="6.6075879335403442e-01" nType="-99"/>
                  </Node>
                  <Node pos="r" depth="6" NCoef="0" IVar="0" Cut="3.0660352110862732e-01" cType="1" res="1.2230272404849529e-02" rms="4.1049966216087341e-01" purity="7.7955329418182373e-01" nType="0">
                    <Node pos="l" depth="7" NCoef="0" IVar="-1" Cut="0.0000000000000000e+00" cType="1" res="1.2703435495495796e-03" rms="4.0709704160690308e-01" purity="7.8756481409072876e-01" nType="-99"/>
                    <Node pos="r" depth="7" NCoef="0" IVar="-1" Cut="0.0000000000000000e+00" cType="1" res="2.8114269953221083e-03" rms="4.7716230154037476e-01" purity="6.0785567760467529e-01" nType="-99"/>
                  </Node>
                </Node>
                <Node pos="r" depth="5" NCoef="0" IVar="2" Cut="1.4824540710449219e+02" cType="1" res="2.2491818293929100e-02" rms="4.7050443291664124e-01" purity="6.3882410526275635e-01" nType="0">
                  <Node pos="l" depth="6" NCoef="0" IVar="-1" Cut="0.0000000000000000e+00" cType="1" res="3.1343123409897089e-03" rms="4.5913493633270264e-01" purity="6.8634998798370361e-01" nType="-99"/>
                  <Node pos="r" depth="6" NCoef="0" IVar="-1" Cut="0.0000000000000000e+00" cType="1" res="1.1290024267509580e-03" rms="4.7747138142585754e-01" purity="6.0801064968109131e-01" nType="-99"/>
                </Node>
              </Node>
            </Node>
            <Node pos="r" depth="3" NCoef="0" IVar="3" Cut="9.8208791017532349e-01" cType="1" res="-9.1896699741482735e-03" rms="4.8368778824806213e-01" purity="5.1665151119232178e-01" nType="0">
              <Node pos="l" depth="4" NCoef="0" IVar="-1" Cut="0.0000000000000000e+00" cType="1" res="-1.6889114631339908e-03" rms="4.8642876744270325e-01" purity="4.3334934115409851e-01" nType="-99"/>
              <Node pos="r" depth="4" NCoef="0" IVar="-1" Cut="0.0000000000000000e+00" cType="1" res="1.4264127821661532e-04" rms="4.8026096820831299e-01" purity="6.1321514844894409e-01" nType="-99"/>
            </Node>
          </Node>
          <Node pos="r" depth="2" NCoef="0" IVar="-1" Cut="0.0000000000000000e+00" cType="1" res="-3.3113239333033562e-03" rms="4.2423224449157715e-01" purity="6.9127690792083740e-01" nType="-99"/>
        </Node>
      </Node>
    </BinaryTree>
    <BinaryTree type="DecisionTree" boostWeight="1.0000000000000000e+00" itree="87">
      <Node pos="s" depth="0" NCoef="0" IVar="3" Cut="8.4379726648330688e-01" cType="1" res="4.7938697971403599e-03" rms="4.1009536385536194e-01" purity="5.0151467323303223e-01" nType="0">
        <Node pos="l" depth="1" NCoef="0" IVar="4" Cut="2.5709953159093857e-02" cType="1" res="8.9693850895855576e-05" rms="4.0329724550247192e-01" purity="3.1083858013153076e-01" nType="0">
          <Node pos="l" depth="2" NCoef="0" IVar="2" Cut="2.4102481842041016e+01" cType="1" res="-1.2057266198098660e-02" rms="4.3425992131233215e-01" purity="3.9230820536613464e-01" nType="0">
            <Node pos="l" depth="3" NCoef="0" IVar="-1" Cut="0.0000000000000000e+00" cType="1" res="1.0945720132440329e-03" rms="4.5248690247535706e-01" purity="4.5859125256538391e-01" nType="-99"/>
            <Node pos="r" depth="3" NCoef="0" IVar="4" Cut="1.9582422450184822e-02" cType="1" res="-2.4526080116629601e-02" rms="4.2336666584014893e-01" purity="3.5579019784927368e-01" nType="0">
              <Node pos="l" depth="4" NCoef="0" IVar="-1" Cut="0.0000000000000000e+00" cType="1" res="-4.9969847314059734e-03" rms="4.2212370038032532e-01" purity="3.4127914905548096e-01" nType="-99"/>
              <Node pos="r" depth="4" NCoef="0" IVar="-1" Cut="0.0000000000000000e+00" cType="1" res="-1.1725928634405136e-03" rms="4.2396467924118042e-01" purity="3.6932125687599182e-01" nType="-99"/>
            </Node>
          </Node>
          <Node pos="r" depth="2" NCoef="0" IVar="2" Cut="4.2905847167968750e+02" cType="1" res="1.1738296598196030e-03" rms="4.0039950609207153e-01" purity="3.0356729030609131e-01" nType="0">
            <Node pos="l" depth="3" NCoef="0" IVar="3" Cut="3.6331763863563538e-01" cType="1" res="3.0162394978106022e-03" rms="4.0873411297798157e-01" purity="3.2948216795921326e-01" nType="0">
              <Node pos="l" depth="4" NCoef="0" IVar="4" Cut="1.4403326809406281e-01" cType="1" res="-4.8819566145539284e-03" rms="2.3255904018878937e-01" purity="6.0934692621231079e-02" nType="0">
                <Node pos="l" depth="5" NCoef="0" IVar="1" Cut="8.1403654813766479e-01" cType="1" res="-8.2556959241628647e-03" rms="1.9221751391887665e-01" purity="3.9125066250562668e-02" nType="0">
                  <Node pos="l" depth="6" NCoef="0" IVar="3" Cut="2.4018129706382751e-01" cType="1" res="-1.2581894174218178e-02" rms="1.8554858863353729e-01" purity="3.6290951073169708e-02" nType="0">
                    <Node pos="l" depth="7" NCoef="0" IVar="-1" Cut="0.0000000000000000e+00" cType="1" res="-1.6790322959423065e-02" rms="1.4398874342441559e-01" purity="2.1769031882286072e-02" nType="-99"/>
                    <Node pos="r" depth="7" NCoef="0" IVar="-1" Cut="0.0000000000000000e+00" cType="1" res="-5.3720115683972836e-03" rms="1.9931411743164062e-01" purity="4.1965611279010773e-02" nType="-99"/>
                  </Node>
                  <Node pos="r" depth="6" NCoef="0" IVar="1" Cut="1.4047900438308716e+00" cType="1" res="-4.3214825564064085e-04" rms="2.0349064469337463e-01" purity="4.4250305742025375e-02" nType="0">
                    <Node pos="l" depth="7" NCoef="0" IVar="-1" Cut="0.0000000000000000e+00" cType="1" res="-1.1145262047648430e-02" rms="1.5840046107769012e-01" purity="2.5939308106899261e-02" nType="-99"/>
                    <Node pos="r" depth="7" NCoef="0" IVar="-1" Cut="0.0000000000000000e+00" cType="1" res="8.9558325707912445e-03" rms="2.4303358793258667e-01" purity="6.4547650516033173e-02" nType="-99"/>
                  </Node>
                </Node>
                <Node pos="r" depth="5" NCoef="0" IVar="3" Cut="2.4028208851814270e-01" cType="1" res="5.1464568823575974e-03" rms="3.2386156916618347e-01" purity="1.2576363980770111e-01" nType="0">
                  <Node pos="l" depth="6" NCoef="0" IVar="-1" Cut="0.0000000000000000e+00" cType="1" res="4.3983915820717812e-03" rms="3.1967246532440186e-01" purity="1.2544867396354675e-01" nType="-99"/>
                  <Node pos="r" depth="6" NCoef="0" IVar="-1" Cut="0.0000000000000000e+00" cType="1" res="-5.2945048082619905e-04" rms="3.2682555913925171e-01" purity="1.2600299715995789e-01" nType="-99"/>
                </Node>
              </Node>
              <Node pos="r" depth="4" NCoef="0" IVar="1" Cut="4.0134111046791077e-01" cType="1" res="5.2490313537418842e-03" rms="4.4607168436050415e-01" purity="4.0539959073066711e-01" nType="0">
                <Node pos="l" depth="5" NCoef="0" IVar="5" Cut="6.0000000000000000e+00" cType="1" res="8.6860200390219688e-03" rms="4.5736116170883179e-01" purity="4.4690397381782532e-01" nType="0">
                  <Node pos="l" depth="6" NCoef="0" IVar="0" Cut="2.4224270880222321e-01" cType="1" res="7.0551456883549690e-03" rms="4.5991903543472290e-01" purity="4.5722708106040955e-01" nType="0">
                    <Node pos="l" depth="7" NCoef="0" IVar="-1" Cut="0.0000000000000000e+00" cType="1" res="1.0150029993383214e-04" rms="4.7964683175086975e-01" purity="5.8839619159698486e-01" nType="-99"/>
                    <Node pos="r" depth="7" NCoef="0" IVar="-1" Cut="0.0000000000000000e+00" cType="1" res="1.4797328040003777e-03" rms="4.4079011678695679e-01" purity="3.3574041724205017e-01" nType="-99"/>
                  </Node>
                  <Node pos="r" depth="6" NCoef="0" IVar="-1" Cut="0.0000000000000000e+00" cType="1" res="6.8753426894545555e-03" rms="4.0543144941329956e-01" purity="2.3501619696617126e-01" nType="-99"/>
                </Node>
                <Node pos="r" depth="5" NCoef="0" IVar="1" Cut="1.3277752399444580e+00" cType="1" res="-5.7310881093144417e-03" rms="4.0645423531532288e-01" purity="2.7133336663246155e-01" nType="0">
                  <Node pos="l" depth="6" NCoef="0" IVar="3" Cut="7.5079321861267090e-01" cType="1" res="-1.0327150084776804e-04" rms="4.1257908940315247e-01" purity="2.8633937239646912e-01" nType="0">
                    <Node pos="l" depth="7" NCoef="0" IVar="-1" Cut="0.0000000000000000e+00" cType="1" res="-6.4600404584780335e-04" rms="3.9173659682273865e-01" purity="2.2433075308799744e-01" nType="-99"/>
                    <Node pos="r" depth="7" NCoef="0" IVar="-1" Cut="0.0000000000000000e+00" cType="1" res="1.4299014583230019e-03" rms="4.8975542187690735e-01" purity="5.4529994726181030e-01" nType="-99"/>
                  </Node>
                  <Node pos="r" depth="6" NCoef="0" IVar="-1" Cut="0.0000000000000000e+00" cType="1" res="-5.2203326486051083e-03" rms="3.7302643060684204e-01" purity="1.9623652100563049e-01" nType="-99"/>
                </Node>
              </Node>
            </Node>
            <Node pos="r" depth="3" NCoef="0" IVar="4" Cut="1.1385444551706314e-01" cType="1" res="-7.9894475638866425e-03" rms="3.5591906309127808e-01" purity="1.7467899620532990e-01" nType="0">
              <Node pos="l" depth="4" NCoef="0" IVar="-1" Cut="0.0000000000000000e+00" cType="1" res="-5.0785536877810955e-03" rms="3.6451116204261780e-01" purity="2.0496211946010590e-01" nType="-99"/>
              <Node pos="r" depth="4" NCoef="0" IVar="3" Cut="5.2221512794494629e-01" cType="1" res="-3.7000682204961777e-03" rms="3.5414418578147888e-01" purity="1.6909123957157135e-01" nType="0">
                <Node pos="l" depth="5" NCoef="0" IVar="3" Cut="1.7831405997276306e-01" cType="1" res="-7.2061028331518173e-03" rms="3.3002460002899170e-01" purity="1.3382801413536072e-01" nType="0">
                  <Node pos="l" depth="6" NCoef="0" IVar="-1" Cut="0.0000000000000000e+00" cType="1" res="3.7248989101499319e-03" rms="3.3815759420394897e-01" purity="1.5298821032047272e-01" nType="-99"/>
                  <Node pos="r" depth="6" NCoef="0" IVar="0" Cut="4.7620502114295959e-01" cType="1" res="-1.2605218216776848e-02" rms="3.2785686850547791e-01" purity="1.2934163212776184e-01" nType="0">
                    <Node pos="l" depth="7" NCoef="0" IVar="-1" Cut="0.0000000000000000e+00" cType="1" res="-3.9231926202774048e-03" rms="3.9444139599800110e-01" purity="1.9886825978755951e-01" nType="-99"/>
                    <Node pos="r" depth="7" NCoef="0" IVar="-1" Cut="0.0000000000000000e+00" cType="1" res="-1.6719372943043709e-03" rms="2.8593167662620544e-01" purity="9.2363663017749786e-02" nType="-99"/>
                  </Node>
                </Node>
                <Node pos="r" depth="5" NCoef="0" IVar="-1" Cut="0.0000000000000000e+00" cType="1" res="1.8049232894554734e-03" rms="4.7281745076179504e-01" purity="3.7990087270736694e-01" nType="-99"/>
              </Node>
            </Node>
          </Node>
        </Node>
        <Node pos="r" depth="1" NCoef="0" IVar="4" Cut="5.1590621471405029e-02" cType="1" res="1.1132830753922462e-02" rms="4.1899806261062622e-01" purity="7.5845414400100708e-01" nType="0">
          <Node pos="l" depth="2" NCoef="0" IVar="3" Cut="1.0010024309158325e+00" cType="1" res="1.2808686122298241e-02" rms="4.1790297627449036e-01" purity="7.6319998502731323e-01" nType="0">
            <Node pos="l" depth="3" NCoef="0" IVar="4" Cut="2.1633597090840340e-02" cType="1" res="1.0353010147809982e-02" rms="4.2511081695556641e-01" purity="7.5066071748733521e-01" nType="0">
              <Node pos="l" depth="4" NCoef="0" IVar="0" Cut="2.7238082885742188e-01" cType="1" res="7.0359311066567898e-03" rms="4.2086783051490784e-01" purity="7.5740516185760498e-01" nType="0">
                <Node pos="l" depth="5" NCoef="0" IVar="2" Cut="2.9053836822509766e+01" cType="1" res="8.6542600765824318e-03" rms="4.1683870553970337e-01" purity="7.6950025558471680e-01" nType="0">
                  <Node pos="l" depth="6" NCoef="0" IVar="1" Cut="8.7089844048023224e-02" cType="1" res="1.0098495520651340e-02" rms="4.1407796740531921e-01" purity="7.7461516857147217e-01" nType="0">
                    <Node pos="l" depth="7" NCoef="0" IVar="-1" Cut="0.0000000000000000e+00" cType="1" res="1.6881079645827413e-03" rms="3.9865988492965698e-01" purity="8.0081582069396973e-01" nType="-99"/>
                    <Node pos="r" depth="7" NCoef="0" IVar="-1" Cut="0.0000000000000000e+00" cType="1" res="3.3352861646562815e-04" rms="4.3632188439369202e-01" purity="7.3490232229232788e-01" nType="-99"/>
                  </Node>
                  <Node pos="r" depth="6" NCoef="0" IVar="-1" Cut="0.0000000000000000e+00" cType="1" res="-1.5808767639100552e-03" rms="4.5844864845275879e-01" purity="6.8700665235519409e-01" nType="-99"/>
                </Node>
                <Node pos="r" depth="5" NCoef="0" IVar="-1" Cut="0.0000000000000000e+00" cType="1" res="-1.8763105617836118e-03" rms="4.8466080427169800e-01" purity="5.4740643501281738e-01" nType="-99"/>
              </Node>
              <Node pos="r" depth="4" NCoef="0" IVar="3" Cut="8.5898232460021973e-01" cType="1" res="2.1172111853957176e-02" rms="4.3849036097526550e-01" purity="7.2866296768188477e-01" nType="0">
                <Node pos="l" depth="5" NCoef="0" IVar="-1" Cut="0.0000000000000000e+00" cType="1" res="-1.0464707429491682e-06" rms="4.6177175641059875e-01" purity="6.7683362960815430e-01" nType="-99"/>
                <Node pos="r" depth="5" NCoef="0" IVar="2" Cut="9.5869606018066406e+01" cType="1" res="2.6288466528058052e-02" rms="4.3252399563789368e-01" purity="7.4118113517761230e-01" nType="0">
                  <Node pos="l" depth="6" NCoef="0" IVar="2" Cut="5.2882678985595703e+01" cType="1" res="3.4470170736312866e-02" rms="4.2463025450706482e-01" purity="7.5863301753997803e-01" nType="0">
                    <Node pos="l" depth="7" NCoef="0" IVar="-1" Cut="0.0000000000000000e+00" cType="1" res="2.5450410321354866e-03" rms="4.3028184771537781e-01" purity="7.4936395883560181e-01" nType="-99"/>
                    <Node pos="r" depth="7" NCoef="0" IVar="-1" Cut="0.0000000000000000e+00" cType="1" res="4.6678534708917141e-03" rms="4.1956946253776550e-01" purity="7.6650863885879517e-01" nType="-99"/>
                  </Node>
                  <Node pos="r" depth="6" NCoef="0" IVar="2" Cut="1.3528730773925781e+02" cType="1" res="1.7841391265392303e-02" rms="4.4036594033241272e-01" purity="7.2316318750381470e-01" nType="0">
                    <Node pos="l" depth="7" NCoef="0" IVar="-1" Cut="0.0000000000000000e+00" cType="1" res="1.0354676051065326e-03" rms="4.4337505102157593e-01" purity="7.1818900108337402e-01" nType="-99"/>
                    <Node pos="r" depth="7" NCoef="0" IVar="-1" Cut="0.0000000000000000e+00" cType="1" res="2.6083674747496843e-03" rms="4.3801119923591614e-01" purity="7.2686713933944702e-01" nType="-99"/>
                  </Node>
                </Node>
              </Node>
            </Node>
            <Node pos="r" depth="3" NCoef="0" IVar="3" Cut="1.0432614088058472e+00" cType="1" res="1.8494589254260063e-02" rms="4.0065881609916687e-01" purity="7.9223352670669556e-01" nType="0">
              <Node pos="l" depth="4" NCoef="0" IVar="3" Cut="1.0064527988433838e+00" cType="1" res="2.1146154031157494e-02" rms="3.9736223220825195e-01" purity="7.9788845777511597e-01" nType="0">
                <Node pos="l" depth="5" NCoef="0" IVar="3" Cut="1.0018814802169800e+00" cType="1" res="2.3381564766168594e-02" rms="3.9575579762458801e-01" purity="7.9924076795578003e-01" nType="0">
                  <Node pos="l" depth="6" NCoef="0" IVar="-1" Cut="0.0000000000000000e+00" cType="1" res="1.3771024532616138e-03" rms="4.0538588166236877e-01" purity="7.8513336181640625e-01" nType="-99"/>
                  <Node pos="r" depth="6" NCoef="0" IVar="3" Cut="1.0033563375473022e+00" cType="1" res="2.7822278439998627e-02" rms="3.9157670736312866e-01" purity="8.0513495206832886e-01" nType="0">
                    <Node pos="l" depth="7" NCoef="0" IVar="-1" Cut="0.0000000000000000e+00" cType="1" res="3.5892203450202942e-03" rms="3.8937070965766907e-01" purity="8.0766838788986206e-01" nType="-99"/>
                    <Node pos="r" depth="7" NCoef="0" IVar="-1" Cut="0.0000000000000000e+00" cType="1" res="2.6131318882107735e-03" rms="3.9358279109001160e-01" purity="8.0275535583496094e-01" nType="-99"/>
                  </Node>
                </Node>
                <Node pos="r" depth="5" NCoef="0" IVar="3" Cut="1.0112010240554810e+00" cType="1" res="1.9328465685248375e-02" rms="3.9865446090698242e-01" purity="7.9678881168365479e-01" nType="0">
                  <Node pos="l" depth="6" NCoef="0" IVar="-1" Cut="0.0000000000000000e+00" cType="1" res="1.7030511517077684e-03" rms="4.0083524584770203e-01" purity="7.9486465454101562e-01" nType="-99"/>
                  <Node pos="r" depth="6" NCoef="0" IVar="3" Cut="1.0205037593841553e+00" cType="1" res="2.0875999704003334e-02" rms="3.9784467220306396e-01" purity="7.9749071598052979e-01" nType="0">
                    <Node pos="l" depth="7" NCoef="0" IVar="-1" Cut="0.0000000000000000e+00" cType="1" res="2.6531065814197063e-03" rms="3.9358133077621460e-01" purity="8.0415892601013184e-01" nType="-99"/>
                    <Node pos="r" depth="7" NCoef="0" IVar="-1" Cut="0.0000000000000000e+00" cType="1" res="2.0190605428069830e-03" rms="4.0114429593086243e-01" purity="7.9225802421569824e-01" nType="-99"/>
                  </Node>
                </Node>
              </Node>
              <Node pos="r" depth="4" NCoef="0" IVar="-1" Cut="0.0000000000000000e+00" cType="1" res="8.0963647633325309e-05" rms="4.2159810662269592e-01" purity="7.5444805622100830e-01" nType="-99"/>
            </Node>
          </Node>
          <Node pos="r" depth="2" NCoef="0" IVar="-1" Cut="0.0000000000000000e+00" cType="1" res="-4.0440550073981285e-03" rms="4.4899600744247437e-01" purity="6.0867542028427124e-01" nType="-99"/>
        </Node>
      </Node>
    </BinaryTree>
    <BinaryTree type="DecisionTree" boostWeight="1.0000000000000000e+00" itree="88">
      <Node pos="s" depth="0" NCoef="0" IVar="3" Cut="7.7941602468490601e-01" cType="1" res="4.0669054724276066e-03" rms="4.1000393033027649e-01" purity="5.0161564350128174e-01" nType="0">
        <Node pos="l" depth="1" NCoef="0" IVar="3" Cut="7.5463211536407471e-01" cType="1" res="-1.4937145169824362e-03" rms="3.8973405957221985e-01" purity="2.5932848453521729e-01" nType="0">
          <Node pos="l" depth="2" NCoef="0" IVar="4" Cut="1.2845984101295471e-01" cType="1" res="-2.6036526542156935e-03" rms="3.8385835289955139e-01" purity="2.4072958528995514e-01" nType="0">
            <Node pos="l" depth="3" NCoef="0" IVar="5" Cut="3.0000000000000000e+00" cType="1" res="-5.3080483339726925e-03" rms="3.8832473754882812e-01" purity="2.5962644815444946e-01" nType="0">
              <Node pos="l" depth="4" NCoef="0" IVar="0" Cut="3.2244506478309631e-01" cType="1" res="-1.7724409699440002e-02" rms="4.4310826063156128e-01" purity="3.3943003416061401e-01" nType="0">
                <Node pos="l" depth="5" NCoef="0" IVar="-1" Cut="0.0000000000000000e+00" cType="1" res="-2.8396253474056721e-03" rms="4.8643213510513306e-01" purity="4.7787773609161377e-01" nType="-99"/>
                <Node pos="r" depth="5" NCoef="0" IVar="4" Cut="4.5659609138965607e-02" cType="1" res="-1.2628613971173763e-02" rms="4.2668101191520691e-01" purity="2.9065150022506714e-01" nType="0">
                  <Node pos="l" depth="6" NCoef="0" IVar="-1" Cut="0.0000000000000000e+00" cType="1" res="-3.6938958801329136e-03" rms="4.2590093612670898e-01" purity="2.7100932598114014e-01" nType="-99"/>
                  <Node pos="r" depth="6" NCoef="0" IVar="3" Cut="6.2619131803512573e-01" cType="1" res="-5.8187772519886494e-03" rms="4.2679825425148010e-01" purity="2.9843312501907349e-01" nType="0">
                    <Node pos="l" depth="7" NCoef="0" IVar="-1" Cut="0.0000000000000000e+00" cType="1" res="-3.3972978126257658e-03" rms="3.4776458144187927e-01" purity="1.5536932647228241e-01" nType="-99"/>
                    <Node pos="r" depth="7" NCoef="0" IVar="-1" Cut="0.0000000000000000e+00" cType="1" res="3.4417139249853790e-04" rms="4.7876065969467163e-01" purity="4.0888354182243347e-01" nType="-99"/>
                  </Node>
                </Node>
              </Node>
              <Node pos="r" depth="4" NCoef="0" IVar="3" Cut="5.6409710645675659e-01" cType="1" res="-2.7051805518567562e-03" rms="3.7652465701103210e-01" purity="2.4319054186344147e-01" nType="0">
                <Node pos="l" depth="5" NCoef="0" IVar="2" Cut="1.9417201232910156e+02" cType="1" res="-7.8039444051682949e-03" rms="2.8836178779602051e-01" purity="1.0359338670969009e-01" nType="0">
                  <Node pos="l" depth="6" NCoef="0" IVar="4" Cut="1.0777399688959122e-01" cType="1" res="-4.6650813892483711e-03" rms="3.0051037669181824e-01" purity="1.1532764881849289e-01" nType="0">
                    <Node pos="l" depth="7" NCoef="0" IVar="-1" Cut="0.0000000000000000e+00" cType="1" res="-1.7732691485434771e-03" rms="2.9359266161918640e-01" purity="1.0843609273433685e-01" nType="-99"/>
                    <Node pos="r" depth="7" NCoef="0" IVar="-1" Cut="0.0000000000000000e+00" cType="1" res="1.9505885429680347e-03" rms="3.5548576712608337e-01" purity="1.7619024217128754e-01" nType="-99"/>
                  </Node>
                  <Node pos="r" depth="6" NCoef="0" IVar="3" Cut="4.4182318449020386e-01" cType="1" res="-1.2170977890491486e-02" rms="2.7049320936203003e-01" purity="8.7267763912677765e-02" nType="0">
                    <Node pos="l" depth="7" NCoef="0" IVar="-1" Cut="0.0000000000000000e+00" cType="1" res="-4.3695541098713875e-03" rms="2.0698687434196472e-01" purity="4.6260274946689606e-02" nType="-99"/>
                    <Node pos="r" depth="7" NCoef="0" IVar="-1" Cut="0.0000000000000000e+00" cType="1" res="-3.4688969608396292e-03" rms="3.5964575409889221e-01" purity="1.6336296498775482e-01" nType="-99"/>
                  </Node>
                </Node>
                <Node pos="r" depth="5" NCoef="0" IVar="2" Cut="7.3726455688476562e+01" cType="1" res="5.1136966794729233e-03" rms="4.8120689392089844e-01" purity="4.5726066827774048e-01" nType="0">
                  <Node pos="l" depth="6" NCoef="0" IVar="3" Cut="6.4399540424346924e-01" cType="1" res="1.9064519554376602e-02" rms="4.8516345024108887e-01" purity="5.0335603952407837e-01" nType="0">
                    <Node pos="l" depth="7" NCoef="0" IVar="-1" Cut="0.0000000000000000e+00" cType="1" res="3.0290589202195406e-03" rms="4.8027518391609192e-01" purity="4.2276126146316528e-01" nType="-99"/>
                    <Node pos="r" depth="7" NCoef="0" IVar="-1" Cut="0.0000000000000000e+00" cType="1" res="1.0013213614001870e-03" rms="4.8772674798965454e-01" purity="5.4858040809631348e-01" nType="-99"/>
                  </Node>
                  <Node pos="r" depth="6" NCoef="0" IVar="4" Cut="8.7542884051799774e-02" cType="1" res="2.3217238776851445e-04" rms="4.7971895337104797e-01" purity="4.4113150238990784e-01" nType="0">
                    <Node pos="l" depth="7" NCoef="0" IVar="-1" Cut="0.0000000000000000e+00" cType="1" res="-7.3137320578098297e-04" rms="4.7769847512245178e-01" purity="4.2811250686645508e-01" nType="-99"/>
                    <Node pos="r" depth="7" NCoef="0" IVar="-1" Cut="0.0000000000000000e+00" cType="1" res="1.4278356684371829e-03" rms="4.8332419991493225e-01" purity="4.6678522229194641e-01" nType="-99"/>
                  </Node>
                </Node>
              </Node>
            </Node>
            <Node pos="r" depth="3" NCoef="0" IVar="5" Cut="3.0000000000000000e+00" cType="1" res="4.2958292178809643e-03" rms="3.6960503458976746e-01" purity="1.8968641757965088e-01" nType="0">
              <Node pos="l" depth="4" NCoef="0" IVar="-1" Cut="0.0000000000000000e+00" cType="1" res="4.6025482006371021e-03" rms="4.5751073956489563e-01" purity="3.2969740033149719e-01" nType="-99"/>
              <Node pos="r" depth="4" NCoef="0" IVar="3" Cut="4.4202974438667297e-01" cType="1" res="1.6753185773268342e-03" rms="3.6146989464759827e-01" purity="1.7745587229728699e-01" nType="0">
                <Node pos="l" depth="5" NCoef="0" IVar="2" Cut="1.9804667663574219e+02" cType="1" res="-3.1717359088361263e-03" rms="3.2313066720962524e-01" purity="1.2506338953971863e-01" nType="0">
                  <Node pos="l" depth="6" NCoef="0" IVar="-1" Cut="0.0000000000000000e+00" cType="1" res="3.4714830107986927e-03" rms="3.4276574850082397e-01" purity="1.4660757780075073e-01" nType="-99"/>
                  <Node pos="r" depth="6" NCoef="0" IVar="5" Cut="6.0000000000000000e+00" cType="1" res="-6.0082762502133846e-03" rms="3.1901404261589050e-01" purity="1.2187700718641281e-01" nType="0">
                    <Node pos="l" depth="7" NCoef="0" IVar="-1" Cut="0.0000000000000000e+00" cType="1" res="-3.0507335904985666e-03" rms="3.3000594377517700e-01" purity="1.3054074347019196e-01" nType="-99"/>
                    <Node pos="r" depth="7" NCoef="0" IVar="-1" Cut="0.0000000000000000e+00" cType="1" res="2.7761835372075438e-04" rms="3.1079557538032532e-01" purity="1.1419769376516342e-01" nType="-99"/>
                  </Node>
                </Node>
                <Node pos="r" depth="5" NCoef="0" IVar="3" Cut="5.4242163896560669e-01" cType="1" res="1.6624696552753448e-02" rms="4.5969143509864807e-01" purity="3.3904576301574707e-01" nType="0">
                  <Node pos="l" depth="6" NCoef="0" IVar="-1" Cut="0.0000000000000000e+00" cType="1" res="1.3920867349952459e-03" rms="4.4472467899322510e-01" purity="2.8542798757553101e-01" nType="-99"/>
                  <Node pos="r" depth="6" NCoef="0" IVar="-1" Cut="0.0000000000000000e+00" cType="1" res="2.4622078053653240e-03" rms="4.8477306962013245e-01" purity="4.3342036008834839e-01" nType="-99"/>
                </Node>
              </Node>
            </Node>
          </Node>
          <Node pos="r" depth="2" NCoef="0" IVar="2" Cut="1.0458606719970703e+02" cType="1" res="1.8323149532079697e-02" rms="4.8231926560401917e-01" purity="5.9139358997344971e-01" nType="0">
            <Node pos="l" depth="3" NCoef="0" IVar="-1" Cut="0.0000000000000000e+00" cType="1" res="6.1296339845284820e-04" rms="4.7948530316352844e-01" purity="5.9436845779418945e-01" nType="-99"/>
            <Node pos="r" depth="3" NCoef="0" IVar="-1" Cut="0.0000000000000000e+00" cType="1" res="2.5422780308872461e-03" rms="4.8463144898414612e-01" purity="5.8871394395828247e-01" nType="-99"/>
          </Node>
        </Node>
        <Node pos="r" depth="1" NCoef="0" IVar="3" Cut="1.0540994405746460e+00" cType="1" res="9.5076337456703186e-03" rms="4.2884081602096558e-01" purity="7.3867893218994141e-01" nType="0">
          <Node pos="l" depth="2" NCoef="0" IVar="3" Cut="1.0009264945983887e+00" cType="1" res="1.0650245472788811e-02" rms="4.2888674139976501e-01" purity="7.4028152227401733e-01" nType="0">
            <Node pos="l" depth="3" NCoef="0" IVar="4" Cut="3.8644470274448395e-02" cType="1" res="8.7273065000772476e-03" rms="4.3729180097579956e-01" purity="7.2412902116775513e-01" nType="0">
              <Node pos="l" depth="4" NCoef="0" IVar="2" Cut="9.5631942749023438e+01" cType="1" res="7.0641511119902134e-03" rms="4.3081223964691162e-01" purity="7.3774766921997070e-01" nType="0">
                <Node pos="l" depth="5" NCoef="0" IVar="4" Cut="2.1191954612731934e-02" cType="1" res="8.5005788132548332e-03" rms="4.2784339189529419e-01" purity="7.4441891908645630e-01" nType="0">
                  <Node pos="l" depth="6" NCoef="0" IVar="3" Cut="9.3662440776824951e-01" cType="1" res="6.9119022227823734e-03" rms="4.2382785677909851e-01" purity="7.5166207551956177e-01" nType="0">
                    <Node pos="l" depth="7" NCoef="0" IVar="-1" Cut="0.0000000000000000e+00" cType="1" res="-2.1085773187223822e-04" rms="4.5838829874992371e-01" purity="6.7514169216156006e-01" nType="-99"/>
                    <Node pos="r" depth="7" NCoef="0" IVar="-1" Cut="0.0000000000000000e+00" cType="1" res="9.6294691320508718e-04" rms="4.1608336567878723e-01" purity="7.6793402433395386e-01" nType="-99"/>
                  </Node>
                  <Node pos="r" depth="6" NCoef="0" IVar="2" Cut="6.2844581604003906e+01" cType="1" res="1.7550405114889145e-02" rms="4.4992798566818237e-01" purity="7.0315861701965332e-01" nType="0">
                    <Node pos="l" depth="7" NCoef="0" IVar="-1" Cut="0.0000000000000000e+00" cType="1" res="1.2781543191522360e-03" rms="4.5221620798110962e-01" purity="6.9975543022155762e-01" nType="-99"/>
                    <Node pos="r" depth="7" NCoef="0" IVar="-1" Cut="0.0000000000000000e+00" cType="1" res="2.5838667061179876e-03" rms="4.4525378942489624e-01" purity="7.0987063646316528e-01" nType="-99"/>
                  </Node>
                </Node>
                <Node pos="r" depth="5" NCoef="0" IVar="3" Cut="8.8168257474899292e-01" cType="1" res="-8.9026736095547676e-03" rms="4.6223077178001404e-01" purity="6.6359287500381470e-01" nType="0">
                  <Node pos="l" depth="6" NCoef="0" IVar="-1" Cut="0.0000000000000000e+00" cType="1" res="-2.0101857371628284e-03" rms="4.7836256027221680e-01" purity="6.1414241790771484e-01" nType="-99"/>
                  <Node pos="r" depth="6" NCoef="0" IVar="-1" Cut="0.0000000000000000e+00" cType="1" res="5.8565125800669193e-04" rms="4.4129607081413269e-01" purity="7.2408115863800049e-01" nType="-99"/>
                </Node>
              </Node>
              <Node pos="r" depth="4" NCoef="0" IVar="3" Cut="8.7212401628494263e-01" cType="1" res="1.4509810134768486e-02" rms="4.5906209945678711e-01" purity="6.7677921056747437e-01" nType="0">
                <Node pos="l" depth="5" NCoef="0" IVar="3" Cut="8.0933111906051636e-01" cType="1" res="1.7178380861878395e-02" rms="4.6428182721138000e-01" purity="6.6685169935226440e-01" nType="0">
                  <Node pos="l" depth="6" NCoef="0" IVar="3" Cut="7.9389810562133789e-01" cType="1" res="2.3495988920331001e-02" rms="4.7314414381980896e-01" purity="6.4303517341613770e-01" nType="0">
                    <Node pos="l" depth="7" NCoef="0" IVar="-1" Cut="0.0000000000000000e+00" cType="1" res="1.3621784746646881e-03" rms="4.7723174095153809e-01" purity="6.2865483760833740e-01" nType="-99"/>
                    <Node pos="r" depth="7" NCoef="0" IVar="-1" Cut="0.0000000000000000e+00" cType="1" res="2.7139044832438231e-03" rms="4.6905866265296936e-01" purity="6.5683388710021973e-01" nType="-99"/>
                  </Node>
                  <Node pos="r" depth="6" NCoef="0" IVar="3" Cut="8.2959234714508057e-01" cType="1" res="1.3964606449007988e-02" rms="4.5967465639114380e-01" purity="6.7896717786788940e-01" nType="0">
                    <Node pos="l" depth="7" NCoef="0" IVar="-1" Cut="0.0000000000000000e+00" cType="1" res="4.8191248788498342e-04" rms="4.7184115648269653e-01" purity="6.4309883117675781e-01" nType="-99"/>
                    <Node pos="r" depth="7" NCoef="0" IVar="-1" Cut="0.0000000000000000e+00" cType="1" res="1.6580589581280947e-03" rms="4.5337104797363281e-01" purity="6.9701039791107178e-01" nType="-99"/>
                  </Node>
                </Node>
                <Node pos="r" depth="5" NCoef="0" IVar="-1" Cut="0.0000000000000000e+00" cType="1" res="3.4150484134443104e-04" rms="4.3594893813133240e-01" purity="7.1906155347824097e-01" nType="-99"/>
              </Node>
            </Node>
            <Node pos="r" depth="3" NCoef="0" IVar="3" Cut="1.0043565034866333e+00" cType="1" res="1.6912568360567093e-02" rms="4.0022906661033630e-01" purity="7.9288452863693237e-01" nType="0">
              <Node pos="l" depth="4" NCoef="0" IVar="1" Cut="-5.0636720843613148e-03" cType="1" res="2.1036429330706596e-02" rms="3.9739841222763062e-01" purity="7.9736602306365967e-01" nType="0">
                <Node pos="l" depth="5" NCoef="0" IVar="-1" Cut="0.0000000000000000e+00" cType="1" res="1.5424395678564906e-03" rms="3.8816958665847778e-01" purity="8.1155431270599365e-01" nType="-99"/>
                <Node pos="r" depth="5" NCoef="0" IVar="-1" Cut="0.0000000000000000e+00" cType="1" res="2.8557043988257647e-03" rms="4.0458086133003235e-01" purity="7.8591668605804443e-01" nType="-99"/>
              </Node>
              <Node pos="r" depth="4" NCoef="0" IVar="3" Cut="1.0236074924468994e+00" cType="1" res="1.4784056693315506e-02" rms="4.0166574716567993e-01" purity="7.9057139158248901e-01" nType="0">
                <Node pos="l" depth="5" NCoef="0" IVar="3" Cut="1.0105654001235962e+00" cType="1" res="1.3039994053542614e-02" rms="4.0077072381973267e-01" purity="7.9242241382598877e-01" nType="0">
                  <Node pos="l" depth="6" NCoef="0" IVar="3" Cut="1.0069594383239746e+00" cType="1" res="1.0886319912970066e-02" rms="4.0162399411201477e-01" purity="7.9123020172119141e-01" nType="0">
                    <Node pos="l" depth="7" NCoef="0" IVar="-1" Cut="0.0000000000000000e+00" cType="1" res="1.6003987984731793e-03" rms="3.9902877807617188e-01" purity="7.9429012537002563e-01" nType="-99"/>
                    <Node pos="r" depth="7" NCoef="0" IVar="-1" Cut="0.0000000000000000e+00" cType="1" res="8.2014006329700351e-04" rms="4.0440037846565247e-01" purity="7.8789514303207397e-01" nType="-99"/>
                  </Node>
                  <Node pos="r" depth="6" NCoef="0" IVar="3" Cut="1.0160329341888428e+00" cType="1" res="1.5090716071426868e-02" rms="3.9994573593139648e-01" purity="7.9355764389038086e-01" nType="0">
                    <Node pos="l" depth="7" NCoef="0" IVar="-1" Cut="0.0000000000000000e+00" cType="1" res="1.9322651205584407e-03" rms="3.9950245618820190e-01" purity="7.9596668481826782e-01" nType="-99"/>
                    <Node pos="r" depth="7" NCoef="0" IVar="-1" Cut="0.0000000000000000e+00" cType="1" res="1.4771227724850178e-03" rms="4.0036207437515259e-01" purity="7.9125022888183594e-01" nType="-99"/>
                  </Node>
                </Node>
                <Node pos="r" depth="5" NCoef="0" IVar="3" Cut="1.0334416627883911e+00" cType="1" res="1.8318014219403267e-02" rms="4.0345010161399841e-01" purity="7.8682082891464233e-01" nType="0">
                  <Node pos="l" depth="6" NCoef="0" IVar="-1" Cut="0.0000000000000000e+00" cType="1" res="2.1222054492682219e-03" rms="3.9817631244659424e-01" purity="7.9447138309478760e-01" nType="-99"/>
                  <Node pos="r" depth="6" NCoef="0" IVar="-1" Cut="0.0000000000000000e+00" cType="1" res="1.8441874999552965e-03" rms="4.0819671750068665e-01" purity="7.7984559535980225e-01" nType="-99"/>
                </Node>
              </Node>
            </Node>
          </Node>
          <Node pos="r" depth="2" NCoef="0" IVar="-1" Cut="0.0000000000000000e+00" cType="1" res="-3.8123365957289934e-03" rms="4.2448443174362183e-01" purity="6.7456418275833130e-01" nType="-99"/>
        </Node>
      </Node>
    </BinaryTree>
    <BinaryTree type="DecisionTree" boostWeight="1.0000000000000000e+00" itree="89">
      <Node pos="s" depth="0" NCoef="0" IVar="1" Cut="3.4636750221252441e+00" cType="1" res="4.4209882616996765e-03" rms="4.1009187698364258e-01" purity="5.0064003467559814e-01" nType="0">
        <Node pos="l" depth="1" NCoef="0" IVar="1" Cut="1.4983565807342529e+00" cType="1" res="3.8989137392491102e-03" rms="4.1029274463653564e-01" purity="5.0244063138961792e-01" nType="0">
          <Node pos="l" depth="2" NCoef="0" IVar="3" Cut="4.5950278639793396e-01" cType="1" res="4.9295313656330109e-03" rms="4.1179889440536499e-01" purity="5.1146334409713745e-01" nType="0">
            <Node pos="l" depth="3" NCoef="0" IVar="3" Cut="1.5577344596385956e-01" cType="1" res="-4.9598985351622105e-03" rms="2.8177621960639954e-01" purity="9.3704894185066223e-02" nType="0">
              <Node pos="l" depth="4" NCoef="0" IVar="-1" Cut="0.0000000000000000e+00" cType="1" res="3.9738025516271591e-03" rms="3.1907123327255249e-01" purity="1.3552768528461456e-01" nType="-99"/>
              <Node pos="r" depth="4" NCoef="0" IVar="0" Cut="9.2573916912078857e-01" cType="1" res="-6.5915519371628761e-03" rms="2.7842733263969421e-01" purity="9.0268917381763458e-02" nType="0">
                <Node pos="l" depth="5" NCoef="0" IVar="3" Cut="3.0273985862731934e-01" cType="1" res="-1.5965523198246956e-02" rms="3.6176064610481262e-01" purity="1.6122432053089142e-01" nType="0">
                  <Node pos="l" depth="6" NCoef="0" IVar="-1" Cut="0.0000000000000000e+00" cType="1" res="-5.5089103989303112e-03" rms="3.5211259126663208e-01" purity="1.5193617343902588e-01" nType="-99"/>
                  <Node pos="r" depth="6" NCoef="0" IVar="5" Cut="5.0000000000000000e+00" cType="1" res="-4.9003106541931629e-03" rms="2.5442045927047729e-01" purity="1.6426925361156464e-01" nType="0">
                    <Node pos="l" depth="7" NCoef="0" IVar="-1" Cut="0.0000000000000000e+00" cType="1" res="-4.5680510811507702e-03" rms="3.6921799182891846e-01" purity="1.7068134248256683e-01" nType="-99"/>
                    <Node pos="r" depth="7" NCoef="0" IVar="-1" Cut="0.0000000000000000e+00" cType="1" res="-5.0443375948816538e-04" rms="3.6186614632606506e-01" purity="1.6057620942592621e-01" nType="-99"/>
                  </Node>
                </Node>
                <Node pos="r" depth="5" NCoef="0" IVar="3" Cut="3.6151233315467834e-01" cType="1" res="-2.5982032530009747e-03" rms="2.3396906256675720e-01" purity="6.0041628777980804e-02" nType="0">
                  <Node pos="l" depth="6" NCoef="0" IVar="4" Cut="1.7678798735141754e-01" cType="1" res="-6.1138202436268330e-03" rms="2.0774590969085693e-01" purity="4.6442121267318726e-02" nType="0">
                    <Node pos="l" depth="7" NCoef="0" IVar="-1" Cut="0.0000000000000000e+00" cType="1" res="-6.1805471777915955e-03" rms="1.8499326705932617e-01" purity="3.5935934633016586e-02" nType="-99"/>
                    <Node pos="r" depth="7" NCoef="0" IVar="-1" Cut="0.0000000000000000e+00" cType="1" res="2.8344166930764914e-03" rms="2.9793146252632141e-01" purity="1.0034984350204468e-01" nType="-99"/>
                  </Node>
                  <Node pos="r" depth="6" NCoef="0" IVar="0" Cut="1.1450310945510864e+00" cType="1" res="5.5725066922605038e-03" rms="2.8559878468513489e-01" purity="9.1648496687412262e-02" nType="0">
                    <Node pos="l" depth="7" NCoef="0" IVar="-1" Cut="0.0000000000000000e+00" cType="1" res="-1.0480711935088038e-03" rms="2.9841631650924683e-01" purity="1.0039449483156204e-01" nType="-99"/>
                    <Node pos="r" depth="7" NCoef="0" IVar="-1" Cut="0.0000000000000000e+00" cType="1" res="3.5651098005473614e-03" rms="2.7994281053543091e-01" purity="8.7969794869422913e-02" nType="-99"/>
                  </Node>
                </Node>
              </Node>
            </Node>
            <Node pos="r" depth="3" NCoef="0" IVar="4" Cut="1.5428677201271057e-01" cType="1" res="7.5822309590876102e-03" rms="4.4015303254127502e-01" purity="6.2352108955383301e-01" nType="0">
              <Node pos="l" depth="4" NCoef="0" IVar="1" Cut="1.0950380563735962e-01" cType="1" res="8.3618490025401115e-03" rms="4.3975937366485596e-01" purity="6.2912881374359131e-01" nType="0">
                <Node pos="l" depth="5" NCoef="0" IVar="2" Cut="2.8895734786987305e+01" cType="1" res="1.1621677316725254e-02" rms="4.3451184034347534e-01" purity="6.7367064952850342e-01" nType="0">
                  <Node pos="l" depth="6" NCoef="0" IVar="0" Cut="2.2830480337142944e-01" cType="1" res="1.4789100736379623e-02" rms="4.0416455268859863e-01" purity="7.8623878955841064e-01" nType="0">
                    <Node pos="l" depth="7" NCoef="0" IVar="-1" Cut="0.0000000000000000e+00" cType="1" res="1.5030746581032872e-03" rms="3.9850747585296631e-01" purity="7.9997754096984863e-01" nType="-99"/>
                    <Node pos="r" depth="7" NCoef="0" IVar="-1" Cut="0.0000000000000000e+00" cType="1" res="3.1705547589808702e-03" rms="4.7018912434577942e-01" purity="6.1011397838592529e-01" nType="-99"/>
                  </Node>
                  <Node pos="r" depth="6" NCoef="0" IVar="4" Cut="2.9374215751886368e-02" cType="1" res="8.4484387189149857e-03" rms="4.6290245652198792e-01" purity="5.6089591979980469e-01" nType="0">
                    <Node pos="l" depth="7" NCoef="0" IVar="-1" Cut="0.0000000000000000e+00" cType="1" res="-5.3300039144232869e-04" rms="4.5433551073074341e-01" purity="6.2752401828765869e-01" nType="-99"/>
                    <Node pos="r" depth="7" NCoef="0" IVar="-1" Cut="0.0000000000000000e+00" cType="1" res="1.0458081960678101e-03" rms="4.6428883075714111e-01" purity="5.4969370365142822e-01" nType="-99"/>
                  </Node>
                </Node>
                <Node pos="r" depth="5" NCoef="0" IVar="1" Cut="5.5739903450012207e-01" cType="1" res="3.3559433650225401e-03" rms="4.4765177369117737e-01" purity="5.6072878837585449e-01" nType="0">
                  <Node pos="l" depth="6" NCoef="0" IVar="5" Cut="3.0000000000000000e+00" cType="1" res="6.5786973573267460e-03" rms="4.4715934991836548e-01" purity="5.9624409675598145e-01" nType="0">
                    <Node pos="l" depth="7" NCoef="0" IVar="-1" Cut="0.0000000000000000e+00" cType="1" res="2.0542283891700208e-04" rms="4.4174554944038391e-01" purity="6.8303978443145752e-01" nType="-99"/>
                    <Node pos="r" depth="7" NCoef="0" IVar="-1" Cut="0.0000000000000000e+00" cType="1" res="1.7842400120571256e-03" rms="4.5986196398735046e-01" purity="3.9359125494956970e-01" nType="-99"/>
                  </Node>
                  <Node pos="r" depth="6" NCoef="0" IVar="0" Cut="2.7377736568450928e-01" cType="1" res="-5.3797950968146324e-03" rms="4.4853824377059937e-01" purity="4.5814967155456543e-01" nType="0">
                    <Node pos="l" depth="7" NCoef="0" IVar="-1" Cut="0.0000000000000000e+00" cType="1" res="9.0740846644621342e-05" rms="4.7236073017120361e-01" purity="5.8506804704666138e-01" nType="-99"/>
                    <Node pos="r" depth="7" NCoef="0" IVar="-1" Cut="0.0000000000000000e+00" cType="1" res="-2.4345596320927143e-03" rms="4.0145230293273926e-01" purity="2.2781820595264435e-01" nType="-99"/>
                  </Node>
                </Node>
              </Node>
              <Node pos="r" depth="4" NCoef="0" IVar="-1" Cut="0.0000000000000000e+00" cType="1" res="-3.9140619337558746e-03" rms="4.5954036712646484e-01" purity="3.0976539850234985e-01" nType="-99"/>
            </Node>
          </Node>
          <Node pos="r" depth="2" NCoef="0" IVar="3" Cut="4.4880649447441101e-01" cType="1" res="-3.0489107593894005e-02" rms="3.5469537973403931e-01" purity="2.0138733088970184e-01" nType="0">
            <Node pos="l" depth="3" NCoef="0" IVar="-1" Cut="0.0000000000000000e+00" cType="1" res="-9.2904549092054367e-04" rms="2.3405551910400391e-01" purity="5.9680163860321045e-02" nType="-99"/>
            <Node pos="r" depth="3" NCoef="0" IVar="-1" Cut="0.0000000000000000e+00" cType="1" res="-6.4526372589170933e-03" rms="4.3755978345870972e-01" purity="3.3538970351219177e-01" nType="-99"/>
          </Node>
        </Node>
        <Node pos="r" depth="1" NCoef="0" IVar="-1" Cut="0.0000000000000000e+00" cType="1" res="7.0802923291921616e-03" rms="3.8977131247520447e-01" purity="3.4543907642364502e-01" nType="-99"/>
      </Node>
    </BinaryTree>
    <BinaryTree type="DecisionTree" boostWeight="1.0000000000000000e+00" itree="90">
      <Node pos="s" depth="0" NCoef="0" IVar="0" Cut="3.2252946496009827e-01" cType="1" res="3.2568362075835466e-03" rms="4.0970292687416077e-01" purity="5.0024676322937012e-01" nType="0">
        <Node pos="l" depth="1" NCoef="0" IVar="0" Cut="1.7686960101127625e-01" cType="1" res="7.4765449389815331e-03" rms="4.3943455815315247e-01" purity="6.7534631490707397e-01" nType="0">
          <Node pos="l" depth="2" NCoef="0" IVar="4" Cut="1.0305188596248627e-01" cType="1" res="9.1910343617200851e-03" rms="4.3474316596984863e-01" purity="7.0011496543884277e-01" nType="0">
            <Node pos="l" depth="3" NCoef="0" IVar="4" Cut="4.9862980842590332e-02" cType="1" res="9.9799651652574539e-03" rms="4.3116387724876404e-01" purity="7.3224920034408569e-01" nType="0">
              <Node pos="l" depth="4" NCoef="0" IVar="3" Cut="8.5492557287216187e-01" cType="1" res="8.8348584249615669e-03" rms="4.2250657081604004e-01" purity="7.5454074144363403e-01" nType="0">
                <Node pos="l" depth="5" NCoef="0" IVar="1" Cut="2.2473241388797760e-01" cType="1" res="-2.4169852258637547e-04" rms="4.7492283582687378e-01" purity="6.2434631586074829e-01" nType="0">
                  <Node pos="l" depth="6" NCoef="0" IVar="3" Cut="8.0283540487289429e-01" cType="1" res="-5.2037755958735943e-03" rms="4.7056671977043152e-01" purity="6.5022200345993042e-01" nType="0">
                    <Node pos="l" depth="7" NCoef="0" IVar="-1" Cut="0.0000000000000000e+00" cType="1" res="-1.4713497366756201e-03" rms="4.8314613103866577e-01" purity="5.9636145830154419e-01" nType="-99"/>
                    <Node pos="r" depth="7" NCoef="0" IVar="-1" Cut="0.0000000000000000e+00" cType="1" res="3.9627240039408207e-04" rms="4.5942673087120056e-01" purity="6.9583970308303833e-01" nType="-99"/>
                  </Node>
                  <Node pos="r" depth="6" NCoef="0" IVar="-1" Cut="0.0000000000000000e+00" cType="1" res="1.0420834878459573e-03" rms="4.8554447293281555e-01" purity="5.5887210369110107e-01" nType="-99"/>
                </Node>
                <Node pos="r" depth="5" NCoef="0" IVar="1" Cut="1.2912850081920624e-01" cType="1" res="1.0315963067114353e-02" rms="4.1330403089523315e-01" purity="7.7578574419021606e-01" nType="0">
                  <Node pos="l" depth="6" NCoef="0" IVar="1" Cut="-1.5345260500907898e-01" cType="1" res="1.1676874943077564e-02" rms="4.0044859051704407e-01" purity="7.9827207326889038e-01" nType="0">
                    <Node pos="l" depth="7" NCoef="0" IVar="-1" Cut="0.0000000000000000e+00" cType="1" res="4.2163822217844427e-04" rms="4.0862095355987549e-01" purity="7.8742229938507080e-01" nType="-99"/>
                    <Node pos="r" depth="7" NCoef="0" IVar="-1" Cut="0.0000000000000000e+00" cType="1" res="1.6643002163618803e-03" rms="3.9792323112487793e-01" purity="8.0154055356979370e-01" nType="-99"/>
                  </Node>
                  <Node pos="r" depth="6" NCoef="0" IVar="3" Cut="9.8943358659744263e-01" cType="1" res="7.7635152265429497e-03" rms="4.3638348579406738e-01" purity="7.3361164331436157e-01" nType="0">
                    <Node pos="l" depth="7" NCoef="0" IVar="-1" Cut="0.0000000000000000e+00" cType="1" res="-8.1038939242716879e-05" rms="4.5848843455314636e-01" purity="6.8268769979476929e-01" nType="-99"/>
                    <Node pos="r" depth="7" NCoef="0" IVar="-1" Cut="0.0000000000000000e+00" cType="1" res="1.2149255489930511e-03" rms="4.2518562078475952e-01" purity="7.5831198692321777e-01" nType="-99"/>
                  </Node>
                </Node>
              </Node>
              <Node pos="r" depth="4" NCoef="0" IVar="2" Cut="3.0072540283203125e+02" cType="1" res="1.5743914991617203e-02" rms="4.7229543328285217e-01" purity="6.2004351615905762e-01" nType="0">
                <Node pos="l" depth="5" NCoef="0" IVar="5" Cut="3.0000000000000000e+00" cType="1" res="1.8605915829539299e-02" rms="4.7007662057876587e-01" purity="6.3449108600616455e-01" nType="0">
                  <Node pos="l" depth="6" NCoef="0" IVar="2" Cut="1.0618717193603516e+02" cType="1" res="1.1464696377515793e-02" rms="4.6493819355964661e-01" purity="6.6514247655868530e-01" nType="0">
                    <Node pos="l" depth="7" NCoef="0" IVar="-1" Cut="0.0000000000000000e+00" cType="1" res="1.1991131032118574e-04" rms="4.5920085906982422e-01" purity="6.7383122444152832e-01" nType="-99"/>
                    <Node pos="r" depth="7" NCoef="0" IVar="-1" Cut="0.0000000000000000e+00" cType="1" res="1.5321263344958425e-03" rms="4.6839419007301331e-01" purity="6.5968900918960571e-01" nType="-99"/>
                  </Node>
                  <Node pos="r" depth="6" NCoef="0" IVar="2" Cut="1.7697856140136719e+02" cType="1" res="2.8332943096756935e-02" rms="4.7746747732162476e-01" purity="5.9290105104446411e-01" nType="0">
                    <Node pos="l" depth="7" NCoef="0" IVar="-1" Cut="0.0000000000000000e+00" cType="1" res="2.8856981080025434e-03" rms="4.7290423512458801e-01" purity="6.1153572797775269e-01" nType="-99"/>
                    <Node pos="r" depth="7" NCoef="0" IVar="-1" Cut="0.0000000000000000e+00" cType="1" res="1.7263804329559207e-03" rms="4.8578479886054993e-01" purity="5.5789512395858765e-01" nType="-99"/>
                  </Node>
                </Node>
                <Node pos="r" depth="5" NCoef="0" IVar="-1" Cut="0.0000000000000000e+00" cType="1" res="-1.8529983935877681e-04" rms="4.8357152938842773e-01" purity="5.3141152858734131e-01" nType="-99"/>
              </Node>
            </Node>
            <Node pos="r" depth="3" NCoef="0" IVar="3" Cut="5.2367419004440308e-01" cType="1" res="1.3349348446354270e-03" rms="4.6882450580596924e-01" purity="3.8012480735778809e-01" nType="0">
              <Node pos="l" depth="4" NCoef="0" IVar="1" Cut="3.8425747305154800e-02" cType="1" res="8.6068930104374886e-03" rms="4.4189125299453735e-01" purity="2.8054717183113098e-01" nType="0">
                <Node pos="l" depth="5" NCoef="0" IVar="-1" Cut="0.0000000000000000e+00" cType="1" res="2.2806110791862011e-03" rms="4.5486658811569214e-01" purity="3.1140238046646118e-01" nType="-99"/>
                <Node pos="r" depth="5" NCoef="0" IVar="-1" Cut="0.0000000000000000e+00" cType="1" res="-1.0514041787246242e-04" rms="4.3007051944732666e-01" purity="2.5371831655502319e-01" nType="-99"/>
              </Node>
              <Node pos="r" depth="4" NCoef="0" IVar="3" Cut="6.1781489849090576e-01" cType="1" res="-4.5097963884472847e-03" rms="4.8932015895843506e-01" purity="4.6015894412994385e-01" nType="0">
                <Node pos="l" depth="5" NCoef="0" IVar="-1" Cut="0.0000000000000000e+00" cType="1" res="-1.5392334898933768e-03" rms="4.8183754086494446e-01" purity="3.8545548915863037e-01" nType="-99"/>
                <Node pos="r" depth="5" NCoef="0" IVar="-1" Cut="0.0000000000000000e+00" cType="1" res="4.6818010741844773e-04" rms="4.9535736441612244e-01" purity="5.2351033687591553e-01" nType="-99"/>
              </Node>
            </Node>
          </Node>
          <Node pos="r" depth="2" NCoef="0" IVar="0" Cut="2.8494143486022949e-01" cType="1" res="-5.5773900821805000e-03" rms="4.7342932224273682e-01" purity="4.8676025867462158e-01" nType="0">
            <Node pos="l" depth="3" NCoef="0" IVar="1" Cut="9.7711130976676941e-02" cType="1" res="-1.2697738595306873e-02" rms="4.7381380200386047e-01" purity="4.9779298901557922e-01" nType="0">
              <Node pos="l" depth="4" NCoef="0" IVar="3" Cut="7.8720480203628540e-01" cType="1" res="-5.2202208898961544e-03" rms="4.7517496347427368e-01" purity="5.4203206300735474e-01" nType="0">
                <Node pos="l" depth="5" NCoef="0" IVar="-1" Cut="0.0000000000000000e+00" cType="1" res="-1.6168072761502117e-04" rms="4.7812172770500183e-01" purity="4.6134132146835327e-01" nType="-99"/>
                <Node pos="r" depth="5" NCoef="0" IVar="-1" Cut="0.0000000000000000e+00" cType="1" res="-1.0896067833527923e-03" rms="4.7087076306343079e-01" purity="6.5768027305603027e-01" nType="-99"/>
              </Node>
              <Node pos="r" depth="4" NCoef="0" IVar="0" Cut="2.3962390422821045e-01" cType="1" res="-2.3033527657389641e-02" rms="4.7173073887825012e-01" purity="4.3664351105690002e-01" nType="0">
                <Node pos="l" depth="5" NCoef="0" IVar="-1" Cut="0.0000000000000000e+00" cType="1" res="-3.4467617515474558e-03" rms="4.7247421741485596e-01" purity="4.4947403669357300e-01" nType="-99"/>
                <Node pos="r" depth="5" NCoef="0" IVar="-1" Cut="0.0000000000000000e+00" cType="1" res="-1.4246689388528466e-03" rms="4.7083961963653564e-01" purity="4.2477867007255554e-01" nType="-99"/>
              </Node>
            </Node>
            <Node pos="r" depth="3" NCoef="0" IVar="0" Cut="3.0313441157341003e-01" cType="1" res="1.1285377666354179e-02" rms="4.7208946943283081e-01" purity="4.6063196659088135e-01" nType="0">
              <Node pos="l" depth="4" NCoef="0" IVar="-1" Cut="0.0000000000000000e+00" cType="1" res="1.5094823902472854e-03" rms="4.7327584028244019e-01" purity="4.7071897983551025e-01" nType="-99"/>
              <Node pos="r" depth="4" NCoef="0" IVar="-1" Cut="0.0000000000000000e+00" cType="1" res="7.4503372889012098e-04" rms="4.7087863087654114e-01" purity="4.5061832666397095e-01" nType="-99"/>
            </Node>
          </Node>
        </Node>
        <Node pos="r" depth="1" NCoef="0" IVar="0" Cut="9.4678634405136108e-01" cType="1" res="-4.3386234901845455e-03" rms="3.4974792599678040e-01" purity="1.8506827950477600e-01" nType="0">
          <Node pos="l" depth="2" NCoef="0" IVar="5" Cut="2.0000000000000000e+00" cType="1" res="1.0324193863198161e-03" rms="3.8619908690452576e-01" purity="3.0015701055526733e-01" nType="0">
            <Node pos="l" depth="3" NCoef="0" IVar="-1" Cut="0.0000000000000000e+00" cType="1" res="1.8063025781884789e-03" rms="4.8217740654945374e-01" purity="6.1161226034164429e-01" nType="-99"/>
            <Node pos="r" depth="3" NCoef="0" IVar="4" Cut="2.6101063936948776e-02" cType="1" res="-1.4552492648363113e-03" rms="4.2301326990127563e-01" purity="2.7715644240379333e-01" nType="0">
              <Node pos="l" depth="4" NCoef="0" IVar="-1" Cut="0.0000000000000000e+00" cType="1" res="-3.4860428422689438e-03" rms="4.3706685304641724e-01" purity="3.0913227796554565e-01" nType="-99"/>
              <Node pos="r" depth="4" NCoef="0" IVar="0" Cut="4.4333180785179138e-01" cType="1" res="1.1942711425945163e-03" rms="4.2160600423812866e-01" purity="2.7423387765884399e-01" nType="0">
                <Node pos="l" depth="5" NCoef="0" IVar="4" Cut="8.6188428103923798e-02" cType="1" res="9.5765274018049240e-03" rms="4.6512323617935181e-01" purity="3.8042366504669189e-01" nType="0">
                  <Node pos="l" depth="6" NCoef="0" IVar="3" Cut="7.1171736717224121e-01" cType="1" res="2.3861750960350037e-03" rms="4.7548806667327881e-01" purity="4.2415836453437805e-01" nType="0">
                    <Node pos="l" depth="7" NCoef="0" IVar="-1" Cut="0.0000000000000000e+00" cType="1" res="-7.5767538510262966e-04" rms="4.6593788266181946e-01" purity="3.5626813769340515e-01" nType="-99"/>
                    <Node pos="r" depth="7" NCoef="0" IVar="-1" Cut="0.0000000000000000e+00" cType="1" res="1.3486489187926054e-03" rms="4.8785102367401123e-01" purity="5.1640075445175171e-01" nType="-99"/>
                  </Node>
                  <Node pos="r" depth="6" NCoef="0" IVar="-1" Cut="0.0000000000000000e+00" cType="1" res="2.6967129670083523e-03" rms="4.4599014520645142e-01" purity="3.0335193872451782e-01" nType="-99"/>
                </Node>
                <Node pos="r" depth="5" NCoef="0" IVar="5" Cut="5.0000000000000000e+00" cType="1" res="-4.7109331353567541e-04" rms="3.4683164954185486e-01" purity="2.2871716320514679e-01" nType="0">
                  <Node pos="l" depth="6" NCoef="0" IVar="2" Cut="7.4345024108886719e+01" cType="1" res="1.7711729742586613e-03" rms="4.2419046163558960e-01" purity="2.6640263199806213e-01" nType="0">
                    <Node pos="l" depth="7" NCoef="0" IVar="-1" Cut="0.0000000000000000e+00" cType="1" res="1.3659839751198888e-03" rms="4.5328468084335327e-01" purity="3.5044839978218079e-01" nType="-99"/>
                    <Node pos="r" depth="7" NCoef="0" IVar="-1" Cut="0.0000000000000000e+00" cType="1" res="-7.0721136580687016e-05" rms="4.1791403293609619e-01" purity="2.4910320341587067e-01" nType="-99"/>
                  </Node>
                  <Node pos="r" depth="6" NCoef="0" IVar="0" Cut="6.2198829650878906e-01" cType="1" res="-1.2075160630047321e-02" rms="3.4275189042091370e-01" purity="1.4126437902450562e-01" nType="0">
                    <Node pos="l" depth="7" NCoef="0" IVar="-1" Cut="0.0000000000000000e+00" cType="1" res="-4.1571310721337795e-03" rms="3.6436718702316284e-01" purity="1.6431967914104462e-01" nType="-99"/>
                    <Node pos="r" depth="7" NCoef="0" IVar="-1" Cut="0.0000000000000000e+00" cType="1" res="-1.2484252220019698e-03" rms="3.3020663261413574e-01" purity="1.2871687114238739e-01" nType="-99"/>
                  </Node>
                </Node>
              </Node>
            </Node>
          </Node>
          <Node pos="r" depth="2" NCoef="0" IVar="3" Cut="5.1991486549377441e-01" cType="1" res="-8.7057584896683693e-03" rms="2.5225368142127991e-01" purity="7.3187299072742462e-02" nType="0">
            <Node pos="l" depth="3" NCoef="0" IVar="5" Cut="3.0000000000000000e+00" cType="1" res="-5.3934156894683838e-03" rms="2.3444138467311859e-01" purity="6.0547992587089539e-02" nType="0">
              <Node pos="l" depth="4" NCoef="0" IVar="-1" Cut="0.0000000000000000e+00" cType="1" res="3.8438069168478251e-03" rms="3.1290957331657410e-01" purity="1.1241298168897629e-01" nType="-99"/>
              <Node pos="r" depth="4" NCoef="0" IVar="5" Cut="8.0000000000000000e+00" cType="1" res="-6.6551235504448414e-03" rms="2.2771458327770233e-01" purity="5.7044435292482376e-02" nType="0">
                <Node pos="l" depth="5" NCoef="0" IVar="4" Cut="1.5018060803413391e-01" cType="1" res="-5.2606821991503239e-03" rms="2.3502828180789948e-01" purity="6.0619488358497620e-02" nType="0">
                  <Node pos="l" depth="6" NCoef="0" IVar="2" Cut="1.3992304992675781e+02" cType="1" res="-7.1908719837665558e-03" rms="2.2096344828605652e-01" purity="5.3126789629459381e-02" nType="0">
                    <Node pos="l" depth="7" NCoef="0" IVar="-1" Cut="0.0000000000000000e+00" cType="1" res="-1.2594484724104404e-03" rms="2.4101543426513672e-01" purity="6.4486406743526459e-02" nType="-99"/>
                    <Node pos="r" depth="7" NCoef="0" IVar="-1" Cut="0.0000000000000000e+00" cType="1" res="-5.5466378107666969e-03" rms="2.0604732632637024e-01" purity="4.5344833284616470e-02" nType="-99"/>
                  </Node>
                  <Node pos="r" depth="6" NCoef="0" IVar="2" Cut="5.1133599853515625e+02" cType="1" res="3.1381566077470779e-03" rms="2.8819853067398071e-01" purity="9.3222476541996002e-02" nType="0">
                    <Node pos="l" depth="7" NCoef="0" IVar="-1" Cut="0.0000000000000000e+00" cType="1" res="3.8600796833634377e-03" rms="3.0068311095237732e-01" purity="1.0272099077701569e-01" nType="-99"/>
                    <Node pos="r" depth="7" NCoef="0" IVar="-1" Cut="0.0000000000000000e+00" cType="1" res="-2.3977612145245075e-03" rms="2.7106431126594543e-01" purity="8.1066988408565521e-02" nType="-99"/>
                  </Node>
                </Node>
                <Node pos="r" depth="5" NCoef="0" IVar="3" Cut="1.9334609806537628e-01" cType="1" res="-1.2778528034687042e-02" rms="1.9581961631774902e-01" purity="4.0948737412691116e-02" nType="0">
                  <Node pos="l" depth="6" NCoef="0" IVar="-1" Cut="0.0000000000000000e+00" cType="1" res="-1.2224837206304073e-02" rms="1.8836677074432373e-01" purity="3.7903666496276855e-02" nType="-99"/>
                  <Node pos="r" depth="6" NCoef="0" IVar="-1" Cut="0.0000000000000000e+00" cType="1" res="-2.5507363025099039e-03" rms="2.0173481106758118e-01" purity="4.3617755174636841e-02" nType="-99"/>
                </Node>
              </Node>
            </Node>
            <Node pos="r" depth="3" NCoef="0" IVar="-1" Cut="0.0000000000000000e+00" cType="1" res="-6.4794081263244152e-03" rms="4.2010924220085144e-01" purity="2.4330697953701019e-01" nType="-99"/>
          </Node>
        </Node>
      </Node>
    </BinaryTree>
    <BinaryTree type="DecisionTree" boostWeight="1.0000000000000000e+00" itree="91">
      <Node pos="s" depth="0" NCoef="0" IVar="2" Cut="2.0908357238769531e+02" cType="1" res="3.5240992438048124e-03" rms="4.1034692525863647e-01" purity="5.0081777572631836e-01" nType="0">
        <Node pos="l" depth="1" NCoef="0" IVar="2" Cut="7.4190368652343750e+01" cType="1" res="6.5854419954121113e-03" rms="4.2015838623046875e-01" purity="5.8823716640472412e-01" nType="0">
          <Node pos="l" depth="2" NCoef="0" IVar="4" Cut="4.8988964408636093e-02" cType="1" res="9.2514595016837120e-03" rms="4.2142194509506226e-01" purity="6.8710225820541382e-01" nType="0">
            <Node pos="l" depth="3" NCoef="0" IVar="1" Cut="9.6846055984497070e-01" cType="1" res="8.0736838281154633e-03" rms="4.2026734352111816e-01" purity="7.0551002025604248e-01" nType="0">
              <Node pos="l" depth="4" NCoef="0" IVar="4" Cut="2.0543646067380905e-02" cType="1" res="8.9108804240822792e-03" rms="4.1919958591461182e-01" purity="7.2175055742263794e-01" nType="0">
                <Node pos="l" depth="5" NCoef="0" IVar="2" Cut="2.6321895599365234e+01" cType="1" res="7.4249343015253544e-03" rms="4.1386237740516663e-01" purity="7.5316625833511353e-01" nType="0">
                  <Node pos="l" depth="6" NCoef="0" IVar="0" Cut="3.1576004624366760e-01" cType="1" res="8.8600283488631248e-03" rms="4.1248035430908203e-01" purity="7.6774120330810547e-01" nType="0">
                    <Node pos="l" depth="7" NCoef="0" IVar="-1" Cut="0.0000000000000000e+00" cType="1" res="9.1246952069923282e-04" rms="4.0887048840522766e-01" purity="7.8351551294326782e-01" nType="-99"/>
                    <Node pos="r" depth="7" NCoef="0" IVar="-1" Cut="0.0000000000000000e+00" cType="1" res="1.8473697127774358e-03" rms="4.6710050106048584e-01" purity="5.1146280765533447e-01" nType="-99"/>
                  </Node>
                  <Node pos="r" depth="6" NCoef="0" IVar="-1" Cut="0.0000000000000000e+00" cType="1" res="-1.7555212834849954e-03" rms="4.3469494581222534e-01" purity="5.2043563127517700e-01" nType="-99"/>
                </Node>
                <Node pos="r" depth="5" NCoef="0" IVar="1" Cut="2.3234803974628448e-01" cType="1" res="1.5785144641995430e-02" rms="4.4298970699310303e-01" purity="5.7641547918319702e-01" nType="0">
                  <Node pos="l" depth="6" NCoef="0" IVar="0" Cut="3.1988874077796936e-01" cType="1" res="2.2057330235838890e-02" rms="4.4951263070106506e-01" purity="6.3394629955291748e-01" nType="0">
                    <Node pos="l" depth="7" NCoef="0" IVar="-1" Cut="0.0000000000000000e+00" cType="1" res="1.4880660455673933e-03" rms="4.4917610287666321e-01" purity="7.0212614536285400e-01" nType="-99"/>
                    <Node pos="r" depth="7" NCoef="0" IVar="-1" Cut="0.0000000000000000e+00" cType="1" res="5.0766034983098507e-03" rms="4.4991454482078552e-01" purity="3.9181852340698242e-01" nType="-99"/>
                  </Node>
                  <Node pos="r" depth="6" NCoef="0" IVar="-1" Cut="0.0000000000000000e+00" cType="1" res="-3.2476041815243661e-04" rms="4.2249888181686401e-01" purity="4.0573653578758240e-01" nType="-99"/>
                </Node>
              </Node>
              <Node pos="r" depth="4" NCoef="0" IVar="3" Cut="9.5785182714462280e-01" cType="1" res="-5.9210956096649170e-03" rms="4.3749362230300903e-01" purity="4.3402850627899170e-01" nType="0">
                <Node pos="l" depth="5" NCoef="0" IVar="-1" Cut="0.0000000000000000e+00" cType="1" res="-2.7860393747687340e-03" rms="3.7739223241806030e-01" purity="2.1608680486679077e-01" nType="-99"/>
                <Node pos="r" depth="5" NCoef="0" IVar="-1" Cut="0.0000000000000000e+00" cType="1" res="2.7139973826706409e-04" rms="4.8059204220771790e-01" purity="6.1093550920486450e-01" nType="-99"/>
              </Node>
            </Node>
            <Node pos="r" depth="3" NCoef="0" IVar="3" Cut="6.7022174596786499e-01" cType="1" res="2.3297637701034546e-02" rms="4.3470987677574158e-01" purity="4.6757167577743530e-01" nType="0">
              <Node pos="l" depth="4" NCoef="0" IVar="-1" Cut="0.0000000000000000e+00" cType="1" res="2.1757751237601042e-03" rms="4.0487709641456604e-01" purity="2.7068755030632019e-01" nType="-99"/>
              <Node pos="r" depth="4" NCoef="0" IVar="-1" Cut="0.0000000000000000e+00" cType="1" res="2.4474705569446087e-03" rms="4.6182620525360107e-01" purity="6.5953373908996582e-01" nType="-99"/>
            </Node>
          </Node>
          <Node pos="r" depth="2" NCoef="0" IVar="4" Cut="1.2316534668207169e-01" cType="1" res="1.5876224497333169e-03" rms="4.1773349046707153e-01" purity="4.0290081501007080e-01" nType="0">
            <Node pos="l" depth="3" NCoef="0" IVar="0" Cut="1.2821282148361206e+00" cType="1" res="-4.6128770918585360e-05" rms="4.1932150721549988e-01" purity="4.2002969980239868e-01" nType="0">
              <Node pos="l" depth="4" NCoef="0" IVar="4" Cut="3.4061197191476822e-02" cType="1" res="2.5033445563167334e-03" rms="4.5064100623130798e-01" purity="4.9495741724967957e-01" nType="0">
                <Node pos="l" depth="5" NCoef="0" IVar="0" Cut="4.1335452347993851e-02" cType="1" res="-6.9040595553815365e-03" rms="4.4873103499412537e-01" purity="5.4863601922988892e-01" nType="0">
                  <Node pos="l" depth="6" NCoef="0" IVar="1" Cut="7.0203065872192383e-02" cType="1" res="-3.6335483309812844e-04" rms="4.5593789219856262e-01" purity="6.8165314197540283e-01" nType="0">
                    <Node pos="l" depth="7" NCoef="0" IVar="-1" Cut="0.0000000000000000e+00" cType="1" res="-4.8656627768650651e-04" rms="4.4644218683242798e-01" purity="7.1378302574157715e-01" nType="-99"/>
                    <Node pos="r" depth="7" NCoef="0" IVar="-1" Cut="0.0000000000000000e+00" cType="1" res="4.0538495522923768e-04" rms="4.6612763404846191e-01" purity="6.4628285169601440e-01" nType="-99"/>
                  </Node>
                  <Node pos="r" depth="6" NCoef="0" IVar="-1" Cut="0.0000000000000000e+00" cType="1" res="-2.1157248411327600e-03" rms="4.3668654561042786e-01" purity="3.3472138643264771e-01" nType="-99"/>
                </Node>
                <Node pos="r" depth="5" NCoef="0" IVar="3" Cut="5.8246392011642456e-01" cType="1" res="4.6778889372944832e-03" rms="4.5105344057083130e-01" purity="4.8254945874214172e-01" nType="0">
                  <Node pos="l" depth="6" NCoef="0" IVar="0" Cut="6.2037330865859985e-01" cType="1" res="-4.8997844569385052e-03" rms="3.7706184387207031e-01" purity="1.9008257985115051e-01" nType="0">
                    <Node pos="l" depth="7" NCoef="0" IVar="-1" Cut="0.0000000000000000e+00" cType="1" res="-2.3784618824720383e-03" rms="4.2936182022094727e-01" purity="2.6922595500946045e-01" nType="-99"/>
                    <Node pos="r" depth="7" NCoef="0" IVar="-1" Cut="0.0000000000000000e+00" cType="1" res="8.4116304060444236e-04" rms="3.4203979372978210e-01" purity="1.4320267736911774e-01" nType="-99"/>
                  </Node>
                  <Node pos="r" depth="6" NCoef="0" IVar="1" Cut="6.1203157901763916e-01" cType="1" res="7.9054208472371101e-03" rms="4.7334566712379456e-01" purity="5.8110636472702026e-01" nType="0">
                    <Node pos="l" depth="7" NCoef="0" IVar="-1" Cut="0.0000000000000000e+00" cType="1" res="4.4688317575491965e-04" rms="4.7291073203086853e-01" purity="5.9500676393508911e-01" nType="-99"/>
                    <Node pos="r" depth="7" NCoef="0" IVar="-1" Cut="0.0000000000000000e+00" cType="1" res="3.1441273167729378e-03" rms="4.7618374228477478e-01" purity="4.6396538615226746e-01" nType="-99"/>
                  </Node>
                </Node>
              </Node>
              <Node pos="r" depth="4" NCoef="0" IVar="2" Cut="1.0465541076660156e+02" cType="1" res="-1.2968259863555431e-02" rms="1.9372378289699554e-01" purity="4.0254998952150345e-02" nType="0">
                <Node pos="l" depth="5" NCoef="0" IVar="-1" Cut="0.0000000000000000e+00" cType="1" res="-2.6682566385716200e-03" rms="2.2364829480648041e-01" purity="5.4867178201675415e-02" nType="-99"/>
                <Node pos="r" depth="5" NCoef="0" IVar="3" Cut="3.2720342278480530e-01" cType="1" res="-1.6201743856072426e-02" rms="1.8022936582565308e-01" purity="3.4393869340419769e-02" nType="0">
                  <Node pos="l" depth="6" NCoef="0" IVar="-1" Cut="0.0000000000000000e+00" cType="1" res="-1.0479142889380455e-02" rms="1.4961016178131104e-01" purity="2.3178724572062492e-02" nType="-99"/>
                  <Node pos="r" depth="6" NCoef="0" IVar="-1" Cut="0.0000000000000000e+00" cType="1" res="-1.0029910132288933e-02" rms="2.2148644924163818e-01" purity="5.2899815142154694e-02" nType="-99"/>
                </Node>
              </Node>
            </Node>
            <Node pos="r" depth="3" NCoef="0" IVar="2" Cut="1.6993894958496094e+02" cType="1" res="1.5936732292175293e-02" rms="4.0323328971862793e-01" purity="2.5245895981788635e-01" nType="0">
              <Node pos="l" depth="4" NCoef="0" IVar="-1" Cut="0.0000000000000000e+00" cType="1" res="1.6170399030670524e-03" rms="4.0737968683242798e-01" purity="2.5648280978202820e-01" nType="-99"/>
              <Node pos="r" depth="4" NCoef="0" IVar="-1" Cut="0.0000000000000000e+00" cType="1" res="3.6412605550140142e-03" rms="3.9663389325141907e-01" purity="2.4624718725681305e-01" nType="-99"/>
            </Node>
          </Node>
        </Node>
        <Node pos="r" depth="1" NCoef="0" IVar="3" Cut="7.7911818027496338e-01" cType="1" res="-5.6868237443268299e-03" rms="3.7914982438087463e-01" purity="2.3779159784317017e-01" nType="0">
          <Node pos="l" depth="2" NCoef="0" IVar="4" Cut="8.2007206976413727e-02" cType="1" res="-3.8508372381329536e-03" rms="3.7053200602531433e-01" purity="2.0954678952693939e-01" nType="0">
            <Node pos="l" depth="3" NCoef="0" IVar="2" Cut="2.5324797058105469e+02" cType="1" res="-1.6710370779037476e-02" rms="3.7898036837577820e-01" purity="2.3911762237548828e-01" nType="0">
              <Node pos="l" depth="4" NCoef="0" IVar="-1" Cut="0.0000000000000000e+00" cType="1" res="-8.5579964797943830e-04" rms="3.8811832666397095e-01" purity="2.5706353783607483e-01" nType="-99"/>
              <Node pos="r" depth="4" NCoef="0" IVar="3" Cut="4.8245924711227417e-01" cType="1" res="-2.4047214537858963e-02" rms="3.7268161773681641e-01" purity="2.2734440863132477e-01" nType="0">
                <Node pos="l" depth="5" NCoef="0" IVar="-1" Cut="0.0000000000000000e+00" cType="1" res="-5.3219418041408062e-03" rms="2.0392595231533051e-01" purity="4.4155672192573547e-02" nType="-99"/>
                <Node pos="r" depth="5" NCoef="0" IVar="-1" Cut="0.0000000000000000e+00" cType="1" res="-3.6785493139177561e-03" rms="4.4233542680740356e-01" purity="3.3453717827796936e-01" nType="-99"/>
              </Node>
            </Node>
            <Node pos="r" depth="3" NCoef="0" IVar="2" Cut="3.9793334960937500e+02" cType="1" res="-6.6100701224058867e-04" rms="3.6833688616752625e-01" purity="2.0221169292926788e-01" nType="0">
              <Node pos="l" depth="4" NCoef="0" IVar="3" Cut="4.3579640984535217e-01" cType="1" res="7.0092426612973213e-03" rms="3.8195285201072693e-01" purity="2.3105241358280182e-01" nType="0">
                <Node pos="l" depth="5" NCoef="0" IVar="4" Cut="1.8261881172657013e-01" cType="1" res="-1.2179149780422449e-03" rms="2.8312608599662781e-01" purity="9.4809301197528839e-02" nType="0">
                  <Node pos="l" depth="6" NCoef="0" IVar="5" Cut="6.0000000000000000e+00" cType="1" res="-5.5127288214862347e-03" rms="2.4414575099945068e-01" purity="6.6647246479988098e-02" nType="0">
                    <Node pos="l" depth="7" NCoef="0" IVar="-1" Cut="0.0000000000000000e+00" cType="1" res="-4.1292537935078144e-03" rms="2.5290730595588684e-01" purity="7.1128807961940765e-02" nType="-99"/>
                    <Node pos="r" depth="7" NCoef="0" IVar="-1" Cut="0.0000000000000000e+00" cType="1" res="-4.3889122025575489e-05" rms="2.3585608601570129e-01" purity="6.1141654849052429e-02" nType="-99"/>
                  </Node>
                  <Node pos="r" depth="6" NCoef="0" IVar="-1" Cut="0.0000000000000000e+00" cType="1" res="2.4082295130938292e-03" rms="3.6993777751922607e-01" purity="1.7532406747341156e-01" nType="-99"/>
                </Node>
                <Node pos="r" depth="5" NCoef="0" IVar="2" Cut="2.5172358703613281e+02" cType="1" res="1.5168808400630951e-02" rms="4.5928406715393066e-01" purity="3.6617618799209595e-01" nType="0">
                  <Node pos="l" depth="6" NCoef="0" IVar="-1" Cut="0.0000000000000000e+00" cType="1" res="-8.5796622443012893e-05" rms="4.5957726240158081e-01" purity="3.6366155743598938e-01" nType="-99"/>
                  <Node pos="r" depth="6" NCoef="0" IVar="4" Cut="1.0224047303199768e-01" cType="1" res="2.0189642906188965e-02" rms="4.5907706022262573e-01" purity="3.6696752905845642e-01" nType="0">
                    <Node pos="l" depth="7" NCoef="0" IVar="-1" Cut="0.0000000000000000e+00" cType="1" res="1.0080242063850164e-03" rms="4.5233792066574097e-01" purity="3.6821243166923523e-01" nType="-99"/>
                    <Node pos="r" depth="7" NCoef="0" IVar="-1" Cut="0.0000000000000000e+00" cType="1" res="3.1353225931525230e-03" rms="4.6402913331985474e-01" purity="3.6600539088249207e-01" nType="-99"/>
                  </Node>
                </Node>
              </Node>
              <Node pos="r" depth="4" NCoef="0" IVar="3" Cut="1.6398462653160095e-01" cType="1" res="-7.3262099176645279e-03" rms="3.5594835877418518e-01" purity="1.7715001106262207e-01" nType="0">
                <Node pos="l" depth="5" NCoef="0" IVar="-1" Cut="0.0000000000000000e+00" cType="1" res="3.3588386140763760e-03" rms="3.3592265844345093e-01" purity="1.5127280354499817e-01" nType="-99"/>
                <Node pos="r" depth="5" NCoef="0" IVar="3" Cut="6.0046172142028809e-01" cType="1" res="-1.0153673589229584e-02" rms="3.5839018225669861e-01" purity="1.8053682148456573e-01" nType="0">
                  <Node pos="l" depth="6" NCoef="0" IVar="0" Cut="5.7087123394012451e-01" cType="1" res="-1.2536657042801380e-02" rms="3.3465561270713806e-01" purity="1.4064337313175201e-01" nType="0">
                    <Node pos="l" depth="7" NCoef="0" IVar="-1" Cut="0.0000000000000000e+00" cType="1" res="-3.2074502669274807e-03" rms="4.0632835030555725e-01" purity="2.1981666982173920e-01" nType="-99"/>
                    <Node pos="r" depth="7" NCoef="0" IVar="-1" Cut="0.0000000000000000e+00" cType="1" res="-1.8179146572947502e-03" rms="2.7491354942321777e-01" purity="8.6534373462200165e-02" nType="-99"/>
                  </Node>
                  <Node pos="r" depth="6" NCoef="0" IVar="-1" Cut="0.0000000000000000e+00" cType="1" res="5.4115697275847197e-04" rms="4.8639637231826782e-01" purity="4.4348853826522827e-01" nType="-99"/>
                </Node>
              </Node>
            </Node>
          </Node>
          <Node pos="r" depth="2" NCoef="0" IVar="-1" Cut="0.0000000000000000e+00" cType="1" res="-2.7859280817210674e-03" rms="4.7047305107116699e-01" purity="5.7933729887008667e-01" nType="-99"/>
        </Node>
      </Node>
    </BinaryTree>
    <BinaryTree type="DecisionTree" boostWeight="1.0000000000000000e+00" itree="92">
      <Node pos="s" depth="0" NCoef="0" IVar="1" Cut="3.5417124629020691e-02" cType="1" res="1.6987816197797656e-03" rms="4.0970546007156372e-01" purity="4.9848747253417969e-01" nType="0">
        <Node pos="l" depth="1" NCoef="0" IVar="0" Cut="1.6122294664382935e+00" cType="1" res="8.2446169108152390e-03" rms="4.2057755589485168e-01" purity="5.9416532516479492e-01" nType="0">
          <Node pos="l" depth="2" NCoef="0" IVar="2" Cut="3.8941824340820312e+02" cType="1" res="9.3478402122855186e-03" rms="4.2772871255874634e-01" purity="6.2044650316238403e-01" nType="0">
            <Node pos="l" depth="3" NCoef="0" IVar="4" Cut="1.4018747210502625e-01" cType="1" res="1.0525775142014027e-02" rms="4.2940950393676758e-01" purity="6.5213537216186523e-01" nType="0">
              <Node pos="l" depth="4" NCoef="0" IVar="0" Cut="3.1204169988632202e-01" cType="1" res="9.9451774731278419e-03" rms="4.2919656634330750e-01" purity="6.6541063785552979e-01" nType="0">
                <Node pos="l" depth="5" NCoef="0" IVar="3" Cut="7.9167836904525757e-01" cType="1" res="8.5942111909389496e-03" rms="4.2669337987899780e-01" purity="7.3834490776062012e-01" nType="0">
                  <Node pos="l" depth="6" NCoef="0" IVar="5" Cut="3.0000000000000000e+00" cType="1" res="2.4555955315008759e-04" rms="4.0673977136611938e-01" purity="5.6894654035568237e-01" nType="0">
                    <Node pos="l" depth="7" NCoef="0" IVar="-1" Cut="0.0000000000000000e+00" cType="1" res="-1.4590902719646692e-03" rms="4.8771223425865173e-01" purity="5.8142131567001343e-01" nType="-99"/>
                    <Node pos="r" depth="7" NCoef="0" IVar="-1" Cut="0.0000000000000000e+00" cType="1" res="7.8463228419423103e-04" rms="4.8316618800163269e-01" purity="5.6464260816574097e-01" nType="-99"/>
                  </Node>
                  <Node pos="r" depth="6" NCoef="0" IVar="4" Cut="4.4020999222993851e-02" cType="1" res="1.0232517495751381e-02" rms="4.1095945239067078e-01" purity="7.8071177005767822e-01" nType="0">
                    <Node pos="l" depth="7" NCoef="0" IVar="-1" Cut="0.0000000000000000e+00" cType="1" res="9.7452808404341340e-04" rms="4.0684390068054199e-01" purity="7.8700679540634155e-01" nType="-99"/>
                    <Node pos="r" depth="7" NCoef="0" IVar="-1" Cut="0.0000000000000000e+00" cType="1" res="2.2910987026989460e-03" rms="4.4218477606773376e-01" purity="7.3048275709152222e-01" nType="-99"/>
                  </Node>
                </Node>
                <Node pos="r" depth="5" NCoef="0" IVar="2" Cut="6.2796749114990234e+01" cType="1" res="1.5694806352257729e-02" rms="4.3964415788650513e-01" purity="3.5500693321228027e-01" nType="0">
                  <Node pos="l" depth="6" NCoef="0" IVar="-1" Cut="0.0000000000000000e+00" cType="1" res="3.0202877242118120e-03" rms="4.7249710559844971e-01" purity="5.0580060482025146e-01" nType="-99"/>
                  <Node pos="r" depth="6" NCoef="0" IVar="3" Cut="6.3625103235244751e-01" cType="1" res="9.1053117066621780e-03" rms="4.2649021744728088e-01" purity="2.9847750067710876e-01" nType="0">
                    <Node pos="l" depth="7" NCoef="0" IVar="-1" Cut="0.0000000000000000e+00" cType="1" res="4.5011445763520896e-04" rms="3.9431300759315491e-01" purity="2.1545062959194183e-01" nType="-99"/>
                    <Node pos="r" depth="7" NCoef="0" IVar="-1" Cut="0.0000000000000000e+00" cType="1" res="2.0952075719833374e-03" rms="4.9140435457229614e-01" purity="4.8670390248298645e-01" nType="-99"/>
                  </Node>
                </Node>
              </Node>
              <Node pos="r" depth="4" NCoef="0" IVar="-1" Cut="0.0000000000000000e+00" cType="1" res="3.2305426429957151e-03" rms="4.3469378352165222e-01" purity="3.0298128724098206e-01" nType="-99"/>
            </Node>
            <Node pos="r" depth="3" NCoef="0" IVar="5" Cut="4.0000000000000000e+00" cType="1" res="-4.4717234559357166e-03" rms="3.8645863533020020e-01" purity="2.4449193477630615e-01" nType="0">
              <Node pos="l" depth="4" NCoef="0" IVar="-1" Cut="0.0000000000000000e+00" cType="1" res="-2.0773925352841616e-03" rms="4.5225492119789124e-01" purity="3.3168771862983704e-01" nType="-99"/>
              <Node pos="r" depth="4" NCoef="0" IVar="0" Cut="4.6795263886451721e-01" cType="1" res="1.9310152856633067e-03" rms="3.8212177157402039e-01" purity="2.0076124370098114e-01" nType="0">
                <Node pos="l" depth="5" NCoef="0" IVar="-1" Cut="0.0000000000000000e+00" cType="1" res="-3.4910754766315222e-04" rms="4.2649433016777039e-01" purity="2.7276539802551270e-01" nType="-99"/>
                <Node pos="r" depth="5" NCoef="0" IVar="-1" Cut="0.0000000000000000e+00" cType="1" res="1.4803542289882898e-03" rms="3.3574396371841431e-01" purity="1.3402657210826874e-01" nType="-99"/>
              </Node>
            </Node>
          </Node>
          <Node pos="r" depth="2" NCoef="0" IVar="4" Cut="1.1444959789514542e-01" cType="1" res="-1.4343107119202614e-02" rms="2.2835442423820496e-01" purity="5.6076332926750183e-02" nType="0">
            <Node pos="l" depth="3" NCoef="0" IVar="-1" Cut="0.0000000000000000e+00" cType="1" res="-4.9417861737310886e-03" rms="2.2157448530197144e-01" purity="5.3352724760770798e-02" nType="-99"/>
            <Node pos="r" depth="3" NCoef="0" IVar="-1" Cut="0.0000000000000000e+00" cType="1" res="-8.2452278584241867e-03" rms="2.3451927304267883e-01" purity="5.8667246252298355e-02" nType="-99"/>
          </Node>
        </Node>
        <Node pos="r" depth="1" NCoef="0" IVar="1" Cut="3.5670659542083740e+00" cType="1" res="-3.5827977117151022e-03" rms="4.0064027905464172e-01" purity="4.2128875851631165e-01" nType="0">
          <Node pos="l" depth="2" NCoef="0" IVar="1" Cut="1.5161231756210327e+00" cType="1" res="-4.3205330148339272e-03" rms="4.0079534053802490e-01" purity="4.2307752370834351e-01" nType="0">
            <Node pos="l" depth="3" NCoef="0" IVar="3" Cut="7.7963805198669434e-01" cType="1" res="-2.6585548184812069e-03" rms="4.0355008840560913e-01" purity="4.3546268343925476e-01" nType="0">
              <Node pos="l" depth="4" NCoef="0" IVar="4" Cut="8.9785411953926086e-02" cType="1" res="-6.8514095619320869e-03" rms="3.7039896845817566e-01" purity="2.1640026569366455e-01" nType="0">
                <Node pos="l" depth="5" NCoef="0" IVar="5" Cut="3.0000000000000000e+00" cType="1" res="-1.0623543523252010e-02" rms="3.7861979007720947e-01" purity="2.4227482080459595e-01" nType="0">
                  <Node pos="l" depth="6" NCoef="0" IVar="0" Cut="4.9722969532012939e-01" cType="1" res="-2.1389145404100418e-02" rms="4.4543972611427307e-01" purity="3.4815517067909241e-01" nType="0">
                    <Node pos="l" depth="7" NCoef="0" IVar="-1" Cut="0.0000000000000000e+00" cType="1" res="-9.8787038587033749e-04" rms="4.8600092530250549e-01" purity="4.4993400573730469e-01" nType="-99"/>
                    <Node pos="r" depth="7" NCoef="0" IVar="-1" Cut="0.0000000000000000e+00" cType="1" res="-6.1802347190678120e-03" rms="3.6731851100921631e-01" purity="1.7839582264423370e-01" nType="-99"/>
                  </Node>
                  <Node pos="r" depth="6" NCoef="0" IVar="3" Cut="4.6111473441123962e-01" cType="1" res="-8.1051941961050034e-03" rms="3.6148279905319214e-01" purity="2.1754081547260284e-01" nType="0">
                    <Node pos="l" depth="7" NCoef="0" IVar="-1" Cut="0.0000000000000000e+00" cType="1" res="-8.1467265263199806e-03" rms="1.9327786564826965e-01" purity="4.0029481053352356e-02" nType="-99"/>
                    <Node pos="r" depth="7" NCoef="0" IVar="-1" Cut="0.0000000000000000e+00" cType="1" res="-3.5467112320475280e-04" rms="4.4696292281150818e-01" purity="3.4911280870437622e-01" nType="-99"/>
                  </Node>
                </Node>
                <Node pos="r" depth="5" NCoef="0" IVar="2" Cut="1.1612921142578125e+02" cType="1" res="-2.6332587003707886e-03" rms="3.6066246032714844e-01" purity="1.8744468688964844e-01" nType="0">
                  <Node pos="l" depth="6" NCoef="0" IVar="-1" Cut="0.0000000000000000e+00" cType="1" res="2.8802857268601656e-03" rms="4.0741166472434998e-01" purity="2.6916649937629700e-01" nType="-99"/>
                  <Node pos="r" depth="6" NCoef="0" IVar="2" Cut="2.4715187072753906e+02" cType="1" res="-4.5085744932293892e-03" rms="3.5656446218490601e-01" purity="1.8086268007755280e-01" nType="0">
                    <Node pos="l" depth="7" NCoef="0" IVar="-1" Cut="0.0000000000000000e+00" cType="1" res="-2.2261613048613071e-03" rms="3.6392992734909058e-01" purity="1.9603186845779419e-01" nType="-99"/>
                    <Node pos="r" depth="7" NCoef="0" IVar="-1" Cut="0.0000000000000000e+00" cType="1" res="-2.5580642977729440e-04" rms="3.5351106524467468e-01" purity="1.7476736009120941e-01" nType="-99"/>
                  </Node>
                </Node>
              </Node>
              <Node pos="r" depth="4" NCoef="0" IVar="0" Cut="2.6778465509414673e-01" cType="1" res="2.6185724418610334e-03" rms="4.4169557094573975e-01" purity="7.1117466688156128e-01" nType="0">
                <Node pos="l" depth="5" NCoef="0" IVar="1" Cut="8.9514285326004028e-01" cType="1" res="4.2308587580919266e-03" rms="4.3829351663589478e-01" purity="7.2788584232330322e-01" nType="0">
                  <Node pos="l" depth="6" NCoef="0" IVar="1" Cut="7.0100438594818115e-01" cType="1" res="3.4069635439664125e-03" rms="4.3532049655914307e-01" purity="7.3612880706787109e-01" nType="0">
                    <Node pos="l" depth="7" NCoef="0" IVar="-1" Cut="0.0000000000000000e+00" cType="1" res="4.3131408165208995e-04" rms="4.3286073207855225e-01" purity="7.4174875020980835e-01" nType="-99"/>
                    <Node pos="r" depth="7" NCoef="0" IVar="-1" Cut="0.0000000000000000e+00" cType="1" res="-8.1059784861281514e-04" rms="4.7508865594863892e-01" purity="6.4041090011596680e-01" nType="-99"/>
                  </Node>
                  <Node pos="r" depth="6" NCoef="0" IVar="-1" Cut="0.0000000000000000e+00" cType="1" res="1.3866291847079992e-03" rms="4.8145115375518799e-01" purity="6.0136753320693970e-01" nType="-99"/>
                </Node>
                <Node pos="r" depth="5" NCoef="0" IVar="-1" Cut="0.0000000000000000e+00" cType="1" res="-1.4973194338381290e-03" rms="4.8018559813499451e-01" purity="5.1084876060485840e-01" nType="-99"/>
              </Node>
            </Node>
            <Node pos="r" depth="3" NCoef="0" IVar="3" Cut="4.7968176007270813e-01" cType="1" res="-3.4679904580116272e-02" rms="3.4523779153823853e-01" purity="1.9683767855167389e-01" nType="0">
              <Node pos="l" depth="4" NCoef="0" IVar="-1" Cut="0.0000000000000000e+00" cType="1" res="-5.9701162390410900e-03" rms="2.1792075037956238e-01" purity="5.1803860813379288e-02" nType="-99"/>
              <Node pos="r" depth="4" NCoef="0" IVar="-1" Cut="0.0000000000000000e+00" cType="1" res="-6.3769398257136345e-03" rms="4.4028604030609131e-01" purity="3.5021272301673889e-01" nType="-99"/>
            </Node>
          </Node>
          <Node pos="r" depth="2" NCoef="0" IVar="-1" Cut="0.0000000000000000e+00" cType="1" res="4.7954167239367962e-03" rms="3.9100858569145203e-01" purity="3.3161133527755737e-01" nType="-99"/>
        </Node>
      </Node>
    </BinaryTree>
    <BinaryTree type="DecisionTree" boostWeight="1.0000000000000000e+00" itree="93">
      <Node pos="s" depth="0" NCoef="0" IVar="0" Cut="9.6759313344955444e-01" cType="1" res="2.4112279061228037e-03" rms="4.0944084525108337e-01" purity="4.9961787462234497e-01" nType="0">
        <Node pos="l" depth="1" NCoef="0" IVar="3" Cut="7.7941602468490601e-01" cType="1" res="4.5486413873732090e-03" rms="4.3620842695236206e-01" purity="5.9215462207794189e-01" nType="0">
          <Node pos="l" depth="2" NCoef="0" IVar="4" Cut="2.5639077648520470e-02" cType="1" res="-7.0919055724516511e-04" rms="4.4753229618072510e-01" purity="3.6059951782226562e-01" nType="0">
            <Node pos="l" depth="3" NCoef="0" IVar="2" Cut="3.7578941345214844e+01" cType="1" res="-2.5291088968515396e-02" rms="4.5356729626655579e-01" purity="3.8591217994689941e-01" nType="0">
              <Node pos="l" depth="4" NCoef="0" IVar="-1" Cut="0.0000000000000000e+00" cType="1" res="-3.7583368248306215e-04" rms="4.6601688861846924e-01" purity="4.3532559275627136e-01" nType="-99"/>
              <Node pos="r" depth="4" NCoef="0" IVar="-1" Cut="0.0000000000000000e+00" cType="1" res="-5.8395955711603165e-03" rms="4.3630331754684448e-01" purity="3.2507666945457458e-01" nType="-99"/>
            </Node>
            <Node pos="r" depth="3" NCoef="0" IVar="2" Cut="8.1317382812500000e+01" cType="1" res="1.1460011592134833e-03" rms="4.4701865315437317e-01" purity="3.5868918895721436e-01" nType="0">
              <Node pos="l" depth="4" NCoef="0" IVar="2" Cut="4.6228233337402344e+01" cType="1" res="1.2145723216235638e-02" rms="4.6921288967132568e-01" purity="4.6072018146514893e-01" nType="0">
                <Node pos="l" depth="5" NCoef="0" IVar="-1" Cut="0.0000000000000000e+00" cType="1" res="2.8973694425076246e-03" rms="4.7441250085830688e-01" purity="4.9392992258071899e-01" nType="-99"/>
                <Node pos="r" depth="5" NCoef="0" IVar="4" Cut="5.7716917246580124e-02" cType="1" res="2.5121895596385002e-03" rms="4.6643778681755066e-01" purity="4.4510981440544128e-01" nType="0">
                  <Node pos="l" depth="6" NCoef="0" IVar="-1" Cut="0.0000000000000000e+00" cType="1" res="-2.1143108606338501e-03" rms="4.6385315060615540e-01" purity="4.0777656435966492e-01" nType="-99"/>
                  <Node pos="r" depth="6" NCoef="0" IVar="-1" Cut="0.0000000000000000e+00" cType="1" res="2.3184902966022491e-03" rms="4.6789348125457764e-01" purity="4.8322516679763794e-01" nType="-99"/>
                </Node>
              </Node>
              <Node pos="r" depth="4" NCoef="0" IVar="4" Cut="7.3461212217807770e-02" cType="1" res="-1.0874982690438628e-03" rms="4.4234272837638855e-01" purity="3.3797174692153931e-01" nType="0">
                <Node pos="l" depth="5" NCoef="0" IVar="2" Cut="2.1699682617187500e+02" cType="1" res="-1.0836996138095856e-02" rms="4.5049956440925598e-01" purity="3.6744430661201477e-01" nType="0">
                  <Node pos="l" depth="6" NCoef="0" IVar="2" Cut="1.4259466552734375e+02" cType="1" res="-5.8383634313941002e-03" rms="4.5571732521057129e-01" purity="3.8085538148880005e-01" nType="0">
                    <Node pos="l" depth="7" NCoef="0" IVar="-1" Cut="0.0000000000000000e+00" cType="1" res="-1.4482969418168068e-03" rms="4.5603480935096741e-01" purity="3.8508129119873047e-01" nType="-99"/>
                    <Node pos="r" depth="7" NCoef="0" IVar="-1" Cut="0.0000000000000000e+00" cType="1" res="3.7467936635948718e-04" rms="4.5516112446784973e-01" purity="3.7571677565574646e-01" nType="-99"/>
                  </Node>
                  <Node pos="r" depth="6" NCoef="0" IVar="-1" Cut="0.0000000000000000e+00" cType="1" res="-3.0024249572306871e-03" rms="4.3464106321334839e-01" purity="3.2843720912933350e-01" nType="-99"/>
                </Node>
                <Node pos="r" depth="5" NCoef="0" IVar="3" Cut="6.0591435432434082e-01" cType="1" res="2.9662726446986198e-03" rms="4.3884280323982239e-01" purity="3.2571727037429810e-01" nType="0">
                  <Node pos="l" depth="6" NCoef="0" IVar="4" Cut="1.3593719899654388e-01" cType="1" res="-2.4275893811136484e-03" rms="4.1140785813331604e-01" purity="2.3623973131179810e-01" nType="0">
                    <Node pos="l" depth="7" NCoef="0" IVar="-1" Cut="0.0000000000000000e+00" cType="1" res="-1.7170922365039587e-03" rms="4.0671348571777344e-01" purity="2.3000055551528931e-01" nType="-99"/>
                    <Node pos="r" depth="7" NCoef="0" IVar="-1" Cut="0.0000000000000000e+00" cType="1" res="8.7022950174286962e-04" rms="4.1532105207443237e-01" purity="2.4174806475639343e-01" nType="-99"/>
                  </Node>
                  <Node pos="r" depth="6" NCoef="0" IVar="0" Cut="2.1843312680721283e-01" cType="1" res="1.3918844051659107e-02" rms="4.8966318368911743e-01" purity="5.0740694999694824e-01" nType="0">
                    <Node pos="l" depth="7" NCoef="0" IVar="-1" Cut="0.0000000000000000e+00" cType="1" res="6.4319197554141283e-04" rms="4.9191644787788391e-01" purity="5.4240328073501587e-01" nType="-99"/>
                    <Node pos="r" depth="7" NCoef="0" IVar="-1" Cut="0.0000000000000000e+00" cType="1" res="2.6574374642223120e-03" rms="4.8454758524894714e-01" purity="4.3299031257629395e-01" nType="-99"/>
                  </Node>
                </Node>
              </Node>
            </Node>
          </Node>
          <Node pos="r" depth="2" NCoef="0" IVar="2" Cut="2.2475506591796875e+02" cType="1" res="7.9579139128327370e-03" rms="4.2867156863212585e-01" purity="7.4229907989501953e-01" nType="0">
            <Node pos="l" depth="3" NCoef="0" IVar="0" Cut="2.8082254528999329e-01" cType="1" res="8.4740035235881805e-03" rms="4.2716145515441895e-01" purity="7.4629753828048706e-01" nType="0">
              <Node pos="l" depth="4" NCoef="0" IVar="3" Cut="9.9663859605789185e-01" cType="1" res="7.5536738149821758e-03" rms="4.2398810386657715e-01" purity="7.5390660762786865e-01" nType="0">
                <Node pos="l" depth="5" NCoef="0" IVar="1" Cut="6.2209284305572510e-01" cType="1" res="4.2045530863106251e-03" rms="4.3897986412048340e-01" purity="7.2531491518020630e-01" nType="0">
                  <Node pos="l" depth="6" NCoef="0" IVar="1" Cut="-2.4511128664016724e-01" cType="1" res="5.5409730412065983e-03" rms="4.3419030308723450e-01" purity="7.4029803276062012e-01" nType="0">
                    <Node pos="l" depth="7" NCoef="0" IVar="-1" Cut="0.0000000000000000e+00" cType="1" res="-1.1509711621329188e-03" rms="4.4382965564727783e-01" purity="7.2324860095977783e-01" nType="-99"/>
                    <Node pos="r" depth="7" NCoef="0" IVar="-1" Cut="0.0000000000000000e+00" cType="1" res="6.9276115391403437e-04" rms="4.3356189131736755e-01" purity="7.4135690927505493e-01" nType="-99"/>
                  </Node>
                  <Node pos="r" depth="6" NCoef="0" IVar="2" Cut="4.3451370239257812e+01" cType="1" res="-1.0885867290198803e-02" rms="4.8956939578056335e-01" purity="5.5613058805465698e-01" nType="0">
                    <Node pos="l" depth="7" NCoef="0" IVar="-1" Cut="0.0000000000000000e+00" cType="1" res="-3.0122119933366776e-03" rms="4.8780846595764160e-01" purity="5.5895316600799561e-01" nType="-99"/>
                    <Node pos="r" depth="7" NCoef="0" IVar="-1" Cut="0.0000000000000000e+00" cType="1" res="1.1585210449993610e-03" rms="4.9025034904479980e-01" purity="5.5313277244567871e-01" nType="-99"/>
                  </Node>
                </Node>
                <Node pos="r" depth="5" NCoef="0" IVar="1" Cut="-7.9362101852893829e-02" cType="1" res="1.2352045625448227e-02" rms="4.0148603916168213e-01" purity="7.9487067461013794e-01" nType="0">
                  <Node pos="l" depth="6" NCoef="0" IVar="1" Cut="-2.3376208543777466e-01" cType="1" res="1.4527897350490093e-02" rms="3.8738816976547241e-01" purity="8.1556278467178345e-01" nType="0">
                    <Node pos="l" depth="7" NCoef="0" IVar="-1" Cut="0.0000000000000000e+00" cType="1" res="1.8495447875466198e-04" rms="4.0660908818244934e-01" purity="7.9044437408447266e-01" nType="-99"/>
                    <Node pos="r" depth="7" NCoef="0" IVar="-1" Cut="0.0000000000000000e+00" cType="1" res="2.2436894942075014e-03" rms="3.8066554069519043e-01" purity="8.2394182682037354e-01" nType="-99"/>
                  </Node>
                  <Node pos="r" depth="6" NCoef="0" IVar="3" Cut="1.0258350372314453e+00" cType="1" res="1.1421423405408859e-02" rms="4.0736326575279236e-01" purity="7.8602069616317749e-01" nType="0">
                    <Node pos="l" depth="7" NCoef="0" IVar="-1" Cut="0.0000000000000000e+00" cType="1" res="1.1964244768023491e-03" rms="4.0698391199111938e-01" purity="7.8671765327453613e-01" nType="-99"/>
                    <Node pos="r" depth="7" NCoef="0" IVar="-1" Cut="0.0000000000000000e+00" cType="1" res="1.5847561880946159e-03" rms="4.0926644206047058e-01" purity="7.8248405456542969e-01" nType="-99"/>
                  </Node>
                </Node>
              </Node>
              <Node pos="r" depth="4" NCoef="0" IVar="3" Cut="9.7563308477401733e-01" cType="1" res="2.5361103937029839e-02" rms="4.8138043284416199e-01" purity="6.0667830705642700e-01" nType="0">
                <Node pos="l" depth="5" NCoef="0" IVar="-1" Cut="0.0000000000000000e+00" cType="1" res="3.3714678138494492e-03" rms="4.8404431343078613e-01" purity="5.9699779748916626e-01" nType="-99"/>
                <Node pos="r" depth="5" NCoef="0" IVar="-1" Cut="0.0000000000000000e+00" cType="1" res="9.9002092611044645e-04" rms="4.7842401266098022e-01" purity="6.1590224504470825e-01" nType="-99"/>
              </Node>
            </Node>
            <Node pos="r" depth="3" NCoef="0" IVar="-1" Cut="0.0000000000000000e+00" cType="1" res="-9.3708734493702650e-04" rms="4.7681653499603271e-01" purity="6.0644477605819702e-01" nType="-99"/>
          </Node>
        </Node>
        <Node pos="r" depth="1" NCoef="0" IVar="3" Cut="5.2121514081954956e-01" cType="1" res="-7.4580847285687923e-03" rms="2.5100526213645935e-01" purity="7.2337947785854340e-02" nType="0">
          <Node pos="l" depth="2" NCoef="0" IVar="5" Cut="5.0000000000000000e+00" cType="1" res="-4.0903729386627674e-03" rms="2.3354960978031158e-01" purity="6.0233283787965775e-02" nType="0">
            <Node pos="l" depth="3" NCoef="0" IVar="0" Cut="2.4237754344940186e+00" cType="1" res="1.4571256469935179e-03" rms="2.6990395784378052e-01" purity="8.1771731376647949e-02" nType="0">
              <Node pos="l" depth="4" NCoef="0" IVar="3" Cut="3.4421086311340332e-01" cType="1" res="-3.2616429962217808e-03" rms="2.6945349574089050e-01" purity="8.1537961959838867e-02" nType="0">
                <Node pos="l" depth="5" NCoef="0" IVar="-1" Cut="0.0000000000000000e+00" cType="1" res="-8.5516674444079399e-03" rms="2.0707230269908905e-01" purity="4.6009287238121033e-02" nType="-99"/>
                <Node pos="r" depth="5" NCoef="0" IVar="5" Cut="4.0000000000000000e+00" cType="1" res="-1.3913870789110661e-03" rms="1.7650310695171356e-01" purity="9.3356594443321228e-02" nType="0">
                  <Node pos="l" depth="6" NCoef="0" IVar="0" Cut="1.2963945865631104e+00" cType="1" res="-6.3582994043827057e-03" rms="2.8418862819671631e-01" purity="9.1356314718723297e-02" nType="0">
                    <Node pos="l" depth="7" NCoef="0" IVar="-1" Cut="0.0000000000000000e+00" cType="1" res="-3.1516160815954208e-03" rms="3.0186879634857178e-01" purity="1.0433716326951981e-01" nType="-99"/>
                    <Node pos="r" depth="7" NCoef="0" IVar="-1" Cut="0.0000000000000000e+00" cType="1" res="-2.3577746469527483e-04" rms="2.6361599564552307e-01" purity="7.7318020164966583e-02" nType="-99"/>
                  </Node>
                  <Node pos="r" depth="6" NCoef="0" IVar="-1" Cut="0.0000000000000000e+00" cType="1" res="3.6796396598219872e-03" rms="2.9044067859649658e-01" purity="9.5888920128345490e-02" nType="-99"/>
                </Node>
              </Node>
              <Node pos="r" depth="4" NCoef="0" IVar="-1" Cut="0.0000000000000000e+00" cType="1" res="1.1130053550004959e-02" rms="2.7089664340019226e-01" purity="8.2773648202419281e-02" nType="-99"/>
            </Node>
            <Node pos="r" depth="3" NCoef="0" IVar="0" Cut="1.8415917158126831e+00" cType="1" res="-7.4644787237048149e-03" rms="2.0892915129661560e-01" purity="4.7158934175968170e-02" nType="0">
              <Node pos="l" depth="4" NCoef="0" IVar="2" Cut="1.2994671630859375e+02" cType="1" res="-2.3787489626556635e-03" rms="2.4888464808464050e-01" purity="6.8206444382667542e-02" nType="0">
                <Node pos="l" depth="5" NCoef="0" IVar="-1" Cut="0.0000000000000000e+00" cType="1" res="2.7322308160364628e-03" rms="2.5908458232879639e-01" purity="7.5418889522552490e-02" nType="-99"/>
                <Node pos="r" depth="5" NCoef="0" IVar="0" Cut="1.1931699514389038e+00" cType="1" res="-5.2231340669095516e-03" rms="2.4540646374225616e-01" purity="6.5859079360961914e-02" nType="0">
                  <Node pos="l" depth="6" NCoef="0" IVar="-1" Cut="0.0000000000000000e+00" cType="1" res="-3.9216373115777969e-03" rms="2.6425492763519287e-01" purity="7.7106341719627380e-02" nType="-99"/>
                  <Node pos="r" depth="6" NCoef="0" IVar="0" Cut="1.4651453495025635e+00" cType="1" res="-2.3827271070331335e-03" rms="2.3645114898681641e-01" purity="6.0837391763925552e-02" nType="0">
                    <Node pos="l" depth="7" NCoef="0" IVar="-1" Cut="0.0000000000000000e+00" cType="1" res="9.6354662673547864e-04" rms="2.5811156630516052e-01" purity="7.3815822601318359e-02" nType="-99"/>
                    <Node pos="r" depth="7" NCoef="0" IVar="-1" Cut="0.0000000000000000e+00" cType="1" res="-3.4591718576848507e-03" rms="2.1617802977561951e-01" purity="4.9762755632400513e-02" nType="-99"/>
                  </Node>
                </Node>
              </Node>
              <Node pos="r" depth="4" NCoef="0" IVar="2" Cut="4.3369192504882812e+02" cType="1" res="-1.1582476086914539e-02" rms="1.6971157491207123e-01" purity="3.0116422101855278e-02" nType="0">
                <Node pos="l" depth="5" NCoef="0" IVar="2" Cut="2.6620260620117188e+02" cType="1" res="-9.5914611592888832e-03" rms="1.6313745081424713e-01" purity="2.7716146782040596e-02" nType="0">
                  <Node pos="l" depth="6" NCoef="0" IVar="5" Cut="7.0000000000000000e+00" cType="1" res="-1.1924410238862038e-02" rms="1.4758880436420441e-01" purity="2.3973152041435242e-02" nType="0">
                    <Node pos="l" depth="7" NCoef="0" IVar="-1" Cut="0.0000000000000000e+00" cType="1" res="-8.2920491695404053e-03" rms="1.6400103271007538e-01" purity="2.8124630451202393e-02" nType="-99"/>
                    <Node pos="r" depth="7" NCoef="0" IVar="-1" Cut="0.0000000000000000e+00" cType="1" res="-1.3903985731303692e-02" rms="1.3867573440074921e-01" purity="1.9619347527623177e-02" nType="-99"/>
                  </Node>
                  <Node pos="r" depth="6" NCoef="0" IVar="-1" Cut="0.0000000000000000e+00" cType="1" res="-1.5493505634367466e-03" rms="1.9015555083751678e-01" purity="3.8151219487190247e-02" nType="-99"/>
                </Node>
                <Node pos="r" depth="5" NCoef="0" IVar="-1" Cut="0.0000000000000000e+00" cType="1" res="-1.0008899495005608e-02" rms="1.9132293760776520e-01" purity="3.8746967911720276e-02" nType="-99"/>
              </Node>
            </Node>
          </Node>
          <Node pos="r" depth="2" NCoef="0" IVar="-1" Cut="0.0000000000000000e+00" cType="1" res="-6.6496082581579685e-03" rms="4.1737833619117737e-01" purity="2.3771843314170837e-01" nType="-99"/>
        </Node>
      </Node>
    </BinaryTree>
    <BinaryTree type="DecisionTree" boostWeight="1.0000000000000000e+00" itree="94">
      <Node pos="s" depth="0" NCoef="0" IVar="2" Cut="6.9694526672363281e+01" cType="1" res="3.4343812149018049e-03" rms="4.0964716672897339e-01" purity="5.0187999010086060e-01" nType="0">
        <Node pos="l" depth="1" NCoef="0" IVar="1" Cut="9.6058297157287598e-01" cType="1" res="8.5362158715724945e-03" rms="4.2010596394538879e-01" purity="6.9267141819000244e-01" nType="0">
          <Node pos="l" depth="2" NCoef="0" IVar="1" Cut="-2.5090682506561279e-01" cType="1" res="9.6676247194409370e-03" rms="4.1974332928657532e-01" purity="7.1201282739639282e-01" nType="0">
            <Node pos="l" depth="3" NCoef="0" IVar="-1" Cut="0.0000000000000000e+00" cType="1" res="-4.9757352098822594e-04" rms="4.3182089924812317e-01" purity="7.1752291917800903e-01" nType="-99"/>
            <Node pos="r" depth="3" NCoef="0" IVar="1" Cut="-1.6387097537517548e-02" cType="1" res="1.0508564300835133e-02" rms="4.1902491450309753e-01" purity="7.1169692277908325e-01" nType="0">
              <Node pos="l" depth="4" NCoef="0" IVar="3" Cut="7.3529636859893799e-01" cType="1" res="1.6941212117671967e-02" rms="4.0862900018692017e-01" purity="7.5933092832565308e-01" nType="0">
                <Node pos="l" depth="5" NCoef="0" IVar="-1" Cut="0.0000000000000000e+00" cType="1" res="2.3275626881513745e-04" rms="4.6301278471946716e-01" purity="4.3634447455406189e-01" nType="-99"/>
                <Node pos="r" depth="5" NCoef="0" IVar="0" Cut="1.7222762107849121e-01" cType="1" res="1.8331438302993774e-02" rms="4.0303191542625427e-01" purity="7.9013353586196899e-01" nType="0">
                  <Node pos="l" depth="6" NCoef="0" IVar="1" Cut="-1.2227719277143478e-01" cType="1" res="1.6459282487630844e-02" rms="3.9686167240142822e-01" purity="8.0119895935058594e-01" nType="0">
                    <Node pos="l" depth="7" NCoef="0" IVar="-1" Cut="0.0000000000000000e+00" cType="1" res="9.4274221919476986e-04" rms="4.0302124619483948e-01" purity="7.9336190223693848e-01" nType="-99"/>
                    <Node pos="r" depth="7" NCoef="0" IVar="-1" Cut="0.0000000000000000e+00" cType="1" res="2.4401030968874693e-03" rms="3.9316222071647644e-01" purity="8.0575227737426758e-01" nType="-99"/>
                  </Node>
                  <Node pos="r" depth="6" NCoef="0" IVar="-1" Cut="0.0000000000000000e+00" cType="1" res="3.4882214386016130e-03" rms="4.6416372060775757e-01" purity="6.7027091979980469e-01" nType="-99"/>
                </Node>
              </Node>
              <Node pos="r" depth="4" NCoef="0" IVar="3" Cut="5.6909394264221191e-01" cType="1" res="5.9321015141904354e-03" rms="4.2620757222175598e-01" purity="6.7780816555023193e-01" nType="0">
                <Node pos="l" depth="5" NCoef="0" IVar="-1" Cut="0.0000000000000000e+00" cType="1" res="-2.0332338754087687e-03" rms="3.1976154446601868e-01" purity="1.3030338287353516e-01" nType="-99"/>
                <Node pos="r" depth="5" NCoef="0" IVar="0" Cut="4.2969578504562378e-01" cType="1" res="7.0879468694329262e-03" rms="4.3349769711494446e-01" purity="7.2114759683609009e-01" nType="0">
                  <Node pos="l" depth="6" NCoef="0" IVar="3" Cut="7.5158846378326416e-01" cType="1" res="6.3936761580407619e-03" rms="4.3019139766693115e-01" purity="7.3785507678985596e-01" nType="0">
                    <Node pos="l" depth="7" NCoef="0" IVar="-1" Cut="0.0000000000000000e+00" cType="1" res="-3.8285049959085882e-04" rms="4.9231511354446411e-01" purity="4.9457579851150513e-01" nType="-99"/>
                    <Node pos="r" depth="7" NCoef="0" IVar="-1" Cut="0.0000000000000000e+00" cType="1" res="7.5278640724718571e-04" rms="4.2544311285018921e-01" purity="7.5506371259689331e-01" nType="-99"/>
                  </Node>
                  <Node pos="r" depth="6" NCoef="0" IVar="-1" Cut="0.0000000000000000e+00" cType="1" res="1.7166197067126632e-03" rms="4.8387107253074646e-01" purity="4.4999057054519653e-01" nType="-99"/>
                </Node>
              </Node>
            </Node>
          </Node>
          <Node pos="r" depth="2" NCoef="0" IVar="3" Cut="7.0130258798599243e-01" cType="1" res="-9.0240426361560822e-03" rms="4.2530903220176697e-01" purity="3.9247950911521912e-01" nType="0">
            <Node pos="l" depth="3" NCoef="0" IVar="-1" Cut="0.0000000000000000e+00" cType="1" res="1.3369891094043851e-03" rms="2.9374080896377563e-01" purity="1.0216086357831955e-01" nType="-99"/>
            <Node pos="r" depth="3" NCoef="0" IVar="-1" Cut="0.0000000000000000e+00" cType="1" res="-1.3827000511810184e-03" rms="4.8049604892730713e-01" purity="5.4631364345550537e-01" nType="-99"/>
          </Node>
        </Node>
        <Node pos="r" depth="1" NCoef="0" IVar="0" Cut="6.4430850744247437e-01" cType="1" res="-1.2716178316622972e-03" rms="3.9969953894615173e-01" purity="3.2589146494865417e-01" nType="0">
          <Node pos="l" depth="2" NCoef="0" IVar="4" Cut="3.7228386849164963e-02" cType="1" res="1.9270880147814751e-03" rms="4.6201977133750916e-01" purity="4.7843414545059204e-01" nType="0">
            <Node pos="l" depth="3" NCoef="0" IVar="4" Cut="3.3199556171894073e-02" cType="1" res="-8.0913687124848366e-03" rms="4.6220576763153076e-01" purity="5.9718865156173706e-01" nType="0">
              <Node pos="l" depth="4" NCoef="0" IVar="3" Cut="8.5862499475479126e-01" cType="1" res="-1.5612540766596794e-02" rms="4.6366971731185913e-01" purity="5.9096449613571167e-01" nType="0">
                <Node pos="l" depth="5" NCoef="0" IVar="-1" Cut="0.0000000000000000e+00" cType="1" res="-2.7184062637388706e-03" rms="4.7698149085044861e-01" purity="4.7354203462600708e-01" nType="-99"/>
                <Node pos="r" depth="5" NCoef="0" IVar="-1" Cut="0.0000000000000000e+00" cType="1" res="-4.2795835179276764e-04" rms="4.4934001564979553e-01" purity="7.1107715368270874e-01" nType="-99"/>
              </Node>
              <Node pos="r" depth="4" NCoef="0" IVar="-1" Cut="0.0000000000000000e+00" cType="1" res="1.1157921981066465e-03" rms="4.5792752504348755e-01" purity="6.1294317245483398e-01" nType="-99"/>
            </Node>
            <Node pos="r" depth="3" NCoef="0" IVar="2" Cut="2.0458866882324219e+02" cType="1" res="3.6435516085475683e-03" rms="4.6196609735488892e-01" purity="4.5808789134025574e-01" nType="0">
              <Node pos="l" depth="4" NCoef="0" IVar="0" Cut="4.7803047299385071e-01" cType="1" res="7.3768780566751957e-03" rms="4.6869507431983948e-01" purity="5.3540205955505371e-01" nType="0">
                <Node pos="l" depth="5" NCoef="0" IVar="2" Cut="8.7101280212402344e+01" cType="1" res="9.4404881820082664e-03" rms="4.7226566076278687e-01" purity="5.6444078683853149e-01" nType="0">
                  <Node pos="l" depth="6" NCoef="0" IVar="-1" Cut="0.0000000000000000e+00" cType="1" res="-2.5551108410581946e-04" rms="4.6887266635894775e-01" purity="5.8541327714920044e-01" nType="-99"/>
                  <Node pos="r" depth="6" NCoef="0" IVar="0" Cut="3.5465732216835022e-01" cType="1" res="1.1721995659172535e-02" rms="4.7286006808280945e-01" purity="5.6053340435028076e-01" nType="0">
                    <Node pos="l" depth="7" NCoef="0" IVar="-1" Cut="0.0000000000000000e+00" cType="1" res="7.9448835458606482e-04" rms="4.7231650352478027e-01" purity="5.8322542905807495e-01" nType="-99"/>
                    <Node pos="r" depth="7" NCoef="0" IVar="-1" Cut="0.0000000000000000e+00" cType="1" res="3.1920527108013630e-03" rms="4.7594100236892700e-01" purity="4.0974307060241699e-01" nType="-99"/>
                  </Node>
                </Node>
                <Node pos="r" depth="5" NCoef="0" IVar="-1" Cut="0.0000000000000000e+00" cType="1" res="-1.1676943395286798e-03" rms="4.3741935491561890e-01" purity="2.9332798719406128e-01" nType="-99"/>
              </Node>
              <Node pos="r" depth="4" NCoef="0" IVar="3" Cut="2.7192759513854980e-01" cType="1" res="-1.0701423889258876e-04" rms="4.5507505536079407e-01" purity="3.8041675090789795e-01" nType="0">
                <Node pos="l" depth="5" NCoef="0" IVar="-1" Cut="0.0000000000000000e+00" cType="1" res="2.5532285217195749e-03" rms="4.1398048400878906e-01" purity="2.3705345392227173e-01" nType="-99"/>
                <Node pos="r" depth="5" NCoef="0" IVar="5" Cut="4.0000000000000000e+00" cType="1" res="-2.2720424458384514e-03" rms="3.7368798255920410e-01" purity="3.9244240522384644e-01" nType="0">
                  <Node pos="l" depth="6" NCoef="0" IVar="4" Cut="1.4232335984706879e-01" cType="1" res="-6.6613266244530678e-03" rms="4.7348341345787048e-01" purity="4.6273240447044373e-01" nType="0">
                    <Node pos="l" depth="7" NCoef="0" IVar="-1" Cut="0.0000000000000000e+00" cType="1" res="-1.4689893578179181e-04" rms="4.7704488039016724e-01" purity="4.9215853214263916e-01" nType="-99"/>
                    <Node pos="r" depth="7" NCoef="0" IVar="-1" Cut="0.0000000000000000e+00" cType="1" res="-4.4498569332063198e-03" rms="4.4992938637733459e-01" purity="2.8364592790603638e-01" nType="-99"/>
                  </Node>
                  <Node pos="r" depth="6" NCoef="0" IVar="3" Cut="5.4207587242126465e-01" cType="1" res="6.3827782869338989e-03" rms="4.3382415175437927e-01" purity="2.8416511416435242e-01" nType="0">
                    <Node pos="l" depth="7" NCoef="0" IVar="-1" Cut="0.0000000000000000e+00" cType="1" res="1.1609098874032497e-04" rms="4.0600091218948364e-01" purity="2.1736650168895721e-01" nType="-99"/>
                    <Node pos="r" depth="7" NCoef="0" IVar="-1" Cut="0.0000000000000000e+00" cType="1" res="1.7167241312563419e-03" rms="4.8166686296463013e-01" purity="4.0986466407775879e-01" nType="-99"/>
                  </Node>
                </Node>
              </Node>
            </Node>
          </Node>
          <Node pos="r" depth="2" NCoef="0" IVar="3" Cut="5.8865076303482056e-01" cType="1" res="-6.1893784441053867e-03" rms="2.7777031064033508e-01" purity="9.1369070112705231e-02" nType="0">
            <Node pos="l" depth="3" NCoef="0" IVar="4" Cut="9.9811442196369171e-02" cType="1" res="-3.8044243119657040e-03" rms="2.6521426439285278e-01" purity="8.0810829997062683e-02" nType="0">
              <Node pos="l" depth="4" NCoef="0" IVar="0" Cut="9.4568341970443726e-01" cType="1" res="-9.2304730787873268e-03" rms="2.4041588604450226e-01" purity="6.5279811620712280e-02" nType="0">
                <Node pos="l" depth="5" NCoef="0" IVar="2" Cut="1.6968473815917969e+02" cType="1" res="-1.6145138069987297e-02" rms="3.3331367373466492e-01" purity="1.3241814076900482e-01" nType="0">
                  <Node pos="l" depth="6" NCoef="0" IVar="-1" Cut="0.0000000000000000e+00" cType="1" res="-2.1889861673116684e-03" rms="3.5021588206291199e-01" purity="1.5025028586387634e-01" nType="-99"/>
                  <Node pos="r" depth="6" NCoef="0" IVar="-1" Cut="0.0000000000000000e+00" cType="1" res="-4.7048274427652359e-03" rms="3.1586530804634094e-01" purity="1.1501006782054901e-01" nType="-99"/>
                </Node>
                <Node pos="r" depth="5" NCoef="0" IVar="4" Cut="6.3414245843887329e-02" cType="1" res="-7.1834428235888481e-03" rms="2.0494623482227325e-01" purity="4.5404057949781418e-02" nType="0">
                  <Node pos="l" depth="6" NCoef="0" IVar="1" Cut="6.7642945051193237e-01" cType="1" res="-1.1014889925718307e-02" rms="1.9088310003280640e-01" purity="3.8393676280975342e-02" nType="0">
                    <Node pos="l" depth="7" NCoef="0" IVar="-1" Cut="0.0000000000000000e+00" cType="1" res="-9.2928297817707062e-03" rms="1.8550969660282135e-01" purity="3.6227930337190628e-02" nType="-99"/>
                    <Node pos="r" depth="7" NCoef="0" IVar="-1" Cut="0.0000000000000000e+00" cType="1" res="-7.5894990004599094e-04" rms="1.9935072958469391e-01" purity="4.2097598314285278e-02" nType="-99"/>
                  </Node>
                  <Node pos="r" depth="6" NCoef="0" IVar="1" Cut="7.9953901469707489e-02" cType="1" res="-4.4325226917862892e-03" rms="2.1443316340446472e-01" purity="5.0437398254871368e-02" nType="0">
                    <Node pos="l" depth="7" NCoef="0" IVar="-1" Cut="0.0000000000000000e+00" cType="1" res="5.2868663333356380e-03" rms="2.6283216476440430e-01" purity="7.9687006771564484e-02" nType="-99"/>
                    <Node pos="r" depth="7" NCoef="0" IVar="-1" Cut="0.0000000000000000e+00" cType="1" res="-5.9978114441037178e-03" rms="1.9480293989181519e-01" purity="4.0421973913908005e-02" nType="-99"/>
                  </Node>
                </Node>
              </Node>
              <Node pos="r" depth="4" NCoef="0" IVar="3" Cut="3.4940308332443237e-01" cType="1" res="1.0172579204663634e-03" rms="2.8536188602447510e-01" purity="9.4611965119838715e-02" nType="0">
                <Node pos="l" depth="5" NCoef="0" IVar="3" Cut="2.3192171752452850e-01" cType="1" res="-4.9682664684951305e-03" rms="2.4486620724201202e-01" purity="6.5969392657279968e-02" nType="0">
                  <Node pos="l" depth="6" NCoef="0" IVar="0" Cut="3.3541324138641357e+00" cType="1" res="-1.1546039022505283e-02" rms="2.3535606265068054e-01" purity="6.1215564608573914e-02" nType="0">
                    <Node pos="l" depth="7" NCoef="0" IVar="-1" Cut="0.0000000000000000e+00" cType="1" res="-7.6985619962215424e-03" rms="2.3976524174213409e-01" purity="6.3495531678199768e-02" nType="-99"/>
                    <Node pos="r" depth="7" NCoef="0" IVar="-1" Cut="0.0000000000000000e+00" cType="1" res="1.1146175675094128e-03" rms="2.2703544795513153e-01" purity="5.7341936975717545e-02" nType="-99"/>
                  </Node>
                  <Node pos="r" depth="6" NCoef="0" IVar="3" Cut="3.1529951095581055e-01" cType="1" res="1.1985110177192837e-04" rms="2.5185871124267578e-01" purity="6.9646626710891724e-02" nType="0">
                    <Node pos="l" depth="7" NCoef="0" IVar="-1" Cut="0.0000000000000000e+00" cType="1" res="1.7868974246084690e-03" rms="2.5392720103263855e-01" purity="7.1310423314571381e-02" nType="-99"/>
                    <Node pos="r" depth="7" NCoef="0" IVar="-1" Cut="0.0000000000000000e+00" cType="1" res="-4.1740317828953266e-03" rms="2.4593986570835114e-01" purity="6.5181210637092590e-02" nType="-99"/>
                  </Node>
                </Node>
                <Node pos="r" depth="5" NCoef="0" IVar="4" Cut="1.4316274225711823e-01" cType="1" res="1.2245381250977516e-02" rms="3.4859278798103333e-01" purity="1.4834199845790863e-01" nType="0">
                  <Node pos="l" depth="6" NCoef="0" IVar="3" Cut="4.1883906722068787e-01" cType="1" res="2.4372197221964598e-03" rms="3.3401599526405334e-01" purity="1.3474585115909576e-01" nType="0">
                    <Node pos="l" depth="7" NCoef="0" IVar="-1" Cut="0.0000000000000000e+00" cType="1" res="-1.3138498179614544e-03" rms="2.7569860219955444e-01" purity="8.4603980183601379e-02" nType="-99"/>
                    <Node pos="r" depth="7" NCoef="0" IVar="-1" Cut="0.0000000000000000e+00" cType="1" res="1.3590515591204166e-03" rms="3.7109136581420898e-01" purity="1.7168197035789490e-01" nType="-99"/>
                  </Node>
                  <Node pos="r" depth="6" NCoef="0" IVar="-1" Cut="0.0000000000000000e+00" cType="1" res="7.4689071625471115e-03" rms="3.7938392162322998e-01" purity="1.7998856306076050e-01" nType="-99"/>
                </Node>
              </Node>
            </Node>
            <Node pos="r" depth="3" NCoef="0" IVar="-1" Cut="0.0000000000000000e+00" cType="1" res="-5.1528047770261765e-03" rms="4.2679151892662048e-01" purity="2.5625392794609070e-01" nType="-99"/>
          </Node>
        </Node>
      </Node>
    </BinaryTree>
    <BinaryTree type="DecisionTree" boostWeight="1.0000000000000000e+00" itree="95">
      <Node pos="s" depth="0" NCoef="0" IVar="3" Cut="7.1677774190902710e-01" cType="1" res="1.1942434357479215e-03" rms="4.0947070717811584e-01" purity="4.9882349371910095e-01" nType="0">
        <Node pos="l" depth="1" NCoef="0" IVar="3" Cut="1.4905276894569397e-01" cType="1" res="-4.0956996381282806e-03" rms="3.7074434757232666e-01" purity="2.1140819787979126e-01" nType="0">
          <Node pos="l" depth="2" NCoef="0" IVar="-1" Cut="0.0000000000000000e+00" cType="1" res="4.4222180731594563e-03" rms="3.0850699543952942e-01" purity="1.2538665533065796e-01" nType="-99"/>
          <Node pos="r" depth="2" NCoef="0" IVar="3" Cut="3.6881977319717407e-01" cType="1" res="-4.9245501868426800e-03" rms="3.7314125895500183e-01" purity="2.1507056057453156e-01" nType="0">
            <Node pos="l" depth="3" NCoef="0" IVar="0" Cut="6.1795097589492798e-01" cType="1" res="-9.6412105485796928e-03" rms="2.4078226089477539e-01" purity="6.5503425896167755e-02" nType="0">
              <Node pos="l" depth="4" NCoef="0" IVar="-1" Cut="0.0000000000000000e+00" cType="1" res="-5.3265630267560482e-03" rms="3.6305931210517883e-01" purity="1.6158881783485413e-01" nType="-99"/>
              <Node pos="r" depth="4" NCoef="0" IVar="4" Cut="2.0106042921543121e-01" cType="1" res="-6.3544563017785549e-03" rms="2.1467517316341400e-01" purity="5.0131607800722122e-02" nType="0">
                <Node pos="l" depth="5" NCoef="0" IVar="2" Cut="1.4829026794433594e+02" cType="1" res="-8.1536713987588882e-03" rms="1.9708800315856934e-01" purity="4.1529953479766846e-02" nType="0">
                  <Node pos="l" depth="6" NCoef="0" IVar="3" Cut="3.1210705637931824e-01" cType="1" res="-3.3396638464182615e-03" rms="2.0409892499446869e-01" purity="4.4831532984972000e-02" nType="0">
                    <Node pos="l" depth="7" NCoef="0" IVar="-1" Cut="0.0000000000000000e+00" cType="1" res="-5.1225489005446434e-03" rms="1.8425408005714417e-01" purity="3.5930868238210678e-02" nType="-99"/>
                    <Node pos="r" depth="7" NCoef="0" IVar="-1" Cut="0.0000000000000000e+00" cType="1" res="1.6516371397301555e-03" rms="2.3828808963298798e-01" purity="6.2373489141464233e-02" nType="-99"/>
                  </Node>
                  <Node pos="r" depth="6" NCoef="0" IVar="0" Cut="3.0293095111846924e+00" cType="1" res="-1.0723374783992767e-02" rms="1.9319239258766174e-01" purity="3.9767578244209290e-02" nType="0">
                    <Node pos="l" depth="7" NCoef="0" IVar="-1" Cut="0.0000000000000000e+00" cType="1" res="-5.0274557434022427e-03" rms="2.0353373885154724e-01" purity="4.4249337166547775e-02" nType="-99"/>
                    <Node pos="r" depth="7" NCoef="0" IVar="-1" Cut="0.0000000000000000e+00" cType="1" res="-1.6514036804437637e-02" rms="1.3532640039920807e-01" purity="1.9116343930363655e-02" nType="-99"/>
                  </Node>
                </Node>
                <Node pos="r" depth="5" NCoef="0" IVar="-1" Cut="0.0000000000000000e+00" cType="1" res="2.3079279344528913e-03" rms="3.2219374179840088e-01" purity="1.1897171288728714e-01" nType="-99"/>
              </Node>
            </Node>
            <Node pos="r" depth="3" NCoef="0" IVar="5" Cut="4.0000000000000000e+00" cType="1" res="-2.5060176849365234e-03" rms="4.2266467213630676e-01" purity="2.8776308894157410e-01" nType="0">
              <Node pos="l" depth="4" NCoef="0" IVar="4" Cut="3.8593791425228119e-02" cType="1" res="-9.2021599411964417e-03" rms="4.3775096535682678e-01" purity="3.2006466388702393e-01" nType="0">
                <Node pos="l" depth="5" NCoef="0" IVar="2" Cut="5.1351905822753906e+01" cType="1" res="-2.5446295738220215e-02" rms="4.2413032054901123e-01" purity="2.8114473819732666e-01" nType="0">
                  <Node pos="l" depth="6" NCoef="0" IVar="-1" Cut="0.0000000000000000e+00" cType="1" res="-1.9203193951398134e-03" rms="4.4504079222679138e-01" purity="3.2697734236717224e-01" nType="-99"/>
                  <Node pos="r" depth="6" NCoef="0" IVar="-1" Cut="0.0000000000000000e+00" cType="1" res="-4.6767070889472961e-03" rms="4.0045800805091858e-01" purity="2.3231714963912964e-01" nType="-99"/>
                </Node>
                <Node pos="r" depth="5" NCoef="0" IVar="3" Cut="5.8208918571472168e-01" cType="1" res="-6.3854525797069073e-03" rms="4.4000887870788574e-01" purity="3.2681334018707275e-01" nType="0">
                  <Node pos="l" depth="6" NCoef="0" IVar="0" Cut="6.0873347520828247e-01" cType="1" res="-1.6596447676420212e-02" rms="3.7656170129776001e-01" purity="1.8617998063564301e-01" nType="0">
                    <Node pos="l" depth="7" NCoef="0" IVar="-1" Cut="0.0000000000000000e+00" cType="1" res="-4.2414483614265919e-03" rms="4.3689060211181641e-01" purity="2.7133145928382874e-01" nType="-99"/>
                    <Node pos="r" depth="7" NCoef="0" IVar="-1" Cut="0.0000000000000000e+00" cType="1" res="-1.3177803484722972e-03" rms="3.3969217538833618e-01" purity="1.4091567695140839e-01" nType="-99"/>
                  </Node>
                  <Node pos="r" depth="6" NCoef="0" IVar="4" Cut="1.0816863179206848e-01" cType="1" res="7.3295837501063943e-04" rms="4.7916826605796814e-01" purity="4.2485329508781433e-01" nType="0">
                    <Node pos="l" depth="7" NCoef="0" IVar="-1" Cut="0.0000000000000000e+00" cType="1" res="-4.6944915084168315e-04" rms="4.7632023692131042e-01" purity="4.1310149431228638e-01" nType="-99"/>
                    <Node pos="r" depth="7" NCoef="0" IVar="-1" Cut="0.0000000000000000e+00" cType="1" res="1.7299253959208727e-03" rms="4.8802998661994934e-01" purity="4.6384674310684204e-01" nType="-99"/>
                  </Node>
                </Node>
              </Node>
              <Node pos="r" depth="4" NCoef="0" IVar="4" Cut="1.5331791341304779e-01" cType="1" res="4.3133674189448357e-03" rms="4.0615871548652649e-01" purity="2.5361523032188416e-01" nType="0">
                <Node pos="l" depth="5" NCoef="0" IVar="2" Cut="1.6983000183105469e+02" cType="1" res="1.4006047276780009e-03" rms="4.0208598971366882e-01" purity="2.5156983733177185e-01" nType="0">
                  <Node pos="l" depth="6" NCoef="0" IVar="4" Cut="8.4194101393222809e-02" cType="1" res="7.5363963842391968e-03" rms="4.1437608003616333e-01" purity="2.8276216983795166e-01" nType="0">
                    <Node pos="l" depth="7" NCoef="0" IVar="-1" Cut="0.0000000000000000e+00" cType="1" res="2.9692699899896979e-04" rms="4.0531554818153381e-01" purity="2.6901620626449585e-01" nType="-99"/>
                    <Node pos="r" depth="7" NCoef="0" IVar="-1" Cut="0.0000000000000000e+00" cType="1" res="2.8878140728920698e-03" rms="4.3952021002769470e-01" purity="3.2313823699951172e-01" nType="-99"/>
                  </Node>
                  <Node pos="r" depth="6" NCoef="0" IVar="2" Cut="2.1542811584472656e+02" cType="1" res="-4.6569001860916615e-03" rms="3.8947775959968567e-01" purity="2.2077544033527374e-01" nType="0">
                    <Node pos="l" depth="7" NCoef="0" IVar="-1" Cut="0.0000000000000000e+00" cType="1" res="-2.4601777549833059e-03" rms="3.8887754082679749e-01" purity="2.2528207302093506e-01" nType="-99"/>
                    <Node pos="r" depth="7" NCoef="0" IVar="-1" Cut="0.0000000000000000e+00" cType="1" res="-2.5013560662046075e-04" rms="3.8958063721656799e-01" purity="2.1957014501094818e-01" nType="-99"/>
                  </Node>
                </Node>
                <Node pos="r" depth="5" NCoef="0" IVar="-1" Cut="0.0000000000000000e+00" cType="1" res="3.2307901419699192e-03" rms="4.3200966715812683e-01" purity="2.6735189557075500e-01" nType="-99"/>
              </Node>
            </Node>
          </Node>
        </Node>
        <Node pos="r" depth="1" NCoef="0" IVar="3" Cut="1.0470911264419556e+00" cType="1" res="5.1973932422697544e-03" rms="4.3645629286766052e-01" purity="7.1632421016693115e-01" nType="0">
          <Node pos="l" depth="2" NCoef="0" IVar="5" Cut="3.0000000000000000e+00" cType="1" res="6.6600982099771500e-03" rms="4.3609926104545593e-01" purity="7.1720558404922485e-01" nType="0">
            <Node pos="l" depth="3" NCoef="0" IVar="3" Cut="8.0201745033264160e-01" cType="1" res="5.4319160990417004e-03" rms="4.3260213732719421e-01" purity="7.2663986682891846e-01" nType="0">
              <Node pos="l" depth="4" NCoef="0" IVar="4" Cut="3.8296103477478027e-02" cType="1" res="-6.7720836959779263e-03" rms="4.8743364214897156e-01" purity="5.4619914293289185e-01" nType="0">
                <Node pos="l" depth="5" NCoef="0" IVar="-1" Cut="0.0000000000000000e+00" cType="1" res="-2.4293253663927317e-03" rms="4.8620206117630005e-01" purity="5.0065034627914429e-01" nType="-99"/>
                <Node pos="r" depth="5" NCoef="0" IVar="0" Cut="2.8460499644279480e-01" cType="1" res="-1.9833122496493161e-04" rms="4.8763778805732727e-01" purity="5.6059533357620239e-01" nType="0">
                  <Node pos="l" depth="6" NCoef="0" IVar="4" Cut="7.2172842919826508e-02" cType="1" res="-9.6180839464068413e-03" rms="4.8787635564804077e-01" purity="5.9298247098922729e-01" nType="0">
                    <Node pos="l" depth="7" NCoef="0" IVar="-1" Cut="0.0000000000000000e+00" cType="1" res="-1.5986750368028879e-03" rms="4.8584166169166565e-01" purity="5.9620130062103271e-01" nType="-99"/>
                    <Node pos="r" depth="7" NCoef="0" IVar="-1" Cut="0.0000000000000000e+00" cType="1" res="-1.1389903374947608e-04" rms="4.8948091268539429e-01" purity="5.9019660949707031e-01" nType="-99"/>
                  </Node>
                  <Node pos="r" depth="6" NCoef="0" IVar="-1" Cut="0.0000000000000000e+00" cType="1" res="1.3738494599238038e-03" rms="4.8680865764617920e-01" purity="5.0527769327163696e-01" nType="-99"/>
                </Node>
              </Node>
              <Node pos="r" depth="4" NCoef="0" IVar="3" Cut="9.9964690208435059e-01" cType="1" res="6.7740669474005699e-03" rms="4.2612022161483765e-01" purity="7.4648410081863403e-01" nType="0">
                <Node pos="l" depth="5" NCoef="0" IVar="1" Cut="9.5894706249237061e-01" cType="1" res="4.5996485278010368e-03" rms="4.3541613221168518e-01" purity="7.2843509912490845e-01" nType="0">
                  <Node pos="l" depth="6" NCoef="0" IVar="2" Cut="1.8375228881835938e+02" cType="1" res="5.3531033918261528e-03" rms="4.3241748213768005e-01" purity="7.3872399330139160e-01" nType="0">
                    <Node pos="l" depth="7" NCoef="0" IVar="-1" Cut="0.0000000000000000e+00" cType="1" res="6.3756521558389068e-04" rms="4.3031394481658936e-01" purity="7.4354928731918335e-01" nType="-99"/>
                    <Node pos="r" depth="7" NCoef="0" IVar="-1" Cut="0.0000000000000000e+00" cType="1" res="-7.1653880877420306e-04" rms="4.6740838885307312e-01" purity="6.5457224845886230e-01" nType="-99"/>
                  </Node>
                  <Node pos="r" depth="6" NCoef="0" IVar="-1" Cut="0.0000000000000000e+00" cType="1" res="-8.9507666416466236e-04" rms="4.9083694815635681e-01" purity="5.2454984188079834e-01" nType="-99"/>
                </Node>
                <Node pos="r" depth="5" NCoef="0" IVar="1" Cut="3.3660605549812317e-01" cType="1" res="1.1918001808226109e-02" rms="4.0323045849800110e-01" purity="7.8918182849884033e-01" nType="0">
                  <Node pos="l" depth="6" NCoef="0" IVar="3" Cut="1.0011770725250244e+00" cType="1" res="1.0023208335042000e-02" rms="3.9426189661026001e-01" purity="8.0415099859237671e-01" nType="0">
                    <Node pos="l" depth="7" NCoef="0" IVar="-1" Cut="0.0000000000000000e+00" cType="1" res="3.2301113242283463e-04" rms="4.0295633673667908e-01" purity="7.9275256395339966e-01" nType="-99"/>
                    <Node pos="r" depth="7" NCoef="0" IVar="-1" Cut="0.0000000000000000e+00" cType="1" res="1.3829080853611231e-03" rms="3.9209088683128357e-01" purity="8.0693238973617554e-01" nType="-99"/>
                  </Node>
                  <Node pos="r" depth="6" NCoef="0" IVar="1" Cut="6.4794284105300903e-01" cType="1" res="1.9356166943907738e-02" rms="4.3658053874969482e-01" purity="7.3041898012161255e-01" nType="0">
                    <Node pos="l" depth="7" NCoef="0" IVar="-1" Cut="0.0000000000000000e+00" cType="1" res="1.2608615215867758e-03" rms="4.1854524612426758e-01" purity="7.6591664552688599e-01" nType="-99"/>
                    <Node pos="r" depth="7" NCoef="0" IVar="-1" Cut="0.0000000000000000e+00" cType="1" res="2.3380622733384371e-03" rms="4.5855867862701416e-01" purity="6.8482995033264160e-01" nType="-99"/>
                  </Node>
                </Node>
              </Node>
            </Node>
            <Node pos="r" depth="3" NCoef="0" IVar="3" Cut="7.3801326751708984e-01" cType="1" res="1.5158675611019135e-02" rms="4.7739967703819275e-01" purity="6.1772483587265015e-01" nType="0">
              <Node pos="l" depth="4" NCoef="0" IVar="-1" Cut="0.0000000000000000e+00" cType="1" res="4.5620599848916754e-05" rms="4.8958867788314819e-01" purity="5.6701982021331787e-01" nType="-99"/>
              <Node pos="r" depth="4" NCoef="0" IVar="2" Cut="1.0952549743652344e+02" cType="1" res="2.0479144528508186e-02" rms="4.7278195619583130e-01" purity="6.3614314794540405e-01" nType="0">
                <Node pos="l" depth="5" NCoef="0" IVar="-1" Cut="0.0000000000000000e+00" cType="1" res="2.7381596155464649e-03" rms="4.6773886680603027e-01" purity="6.5688276290893555e-01" nType="-99"/>
                <Node pos="r" depth="5" NCoef="0" IVar="-1" Cut="0.0000000000000000e+00" cType="1" res="1.1380714131519198e-03" rms="4.7799888253211975e-01" purity="6.1381387710571289e-01" nType="-99"/>
              </Node>
            </Node>
          </Node>
          <Node pos="r" depth="2" NCoef="0" IVar="-1" Cut="0.0000000000000000e+00" cType="1" res="-3.7479356396943331e-03" rms="4.2626675963401794e-01" purity="6.8319898843765259e-01" nType="-99"/>
        </Node>
      </Node>
    </BinaryTree>
    <BinaryTree type="DecisionTree" boostWeight="1.0000000000000000e+00" itree="96">
      <Node pos="s" depth="0" NCoef="0" IVar="2" Cut="2.0775650024414062e+02" cType="1" res="1.9914857111871243e-03" rms="4.0973162651062012e-01" purity="4.9884828925132751e-01" nType="0">
        <Node pos="l" depth="1" NCoef="0" IVar="3" Cut="5.8181804418563843e-01" cType="1" res="4.7785281203687191e-03" rms="4.2008620500564575e-01" purity="5.8692824840545654e-01" nType="0">
          <Node pos="l" depth="2" NCoef="0" IVar="4" Cut="1.4316493272781372e-01" cType="1" res="-1.3045069063082337e-03" rms="3.2404455542564392e-01" purity="1.3838212192058563e-01" nType="0">
            <Node pos="l" depth="3" NCoef="0" IVar="0" Cut="9.6567201614379883e-01" cType="1" res="-3.6462878342717886e-03" rms="3.1568622589111328e-01" purity="1.2924677133560181e-01" nType="0">
              <Node pos="l" depth="4" NCoef="0" IVar="5" Cut="5.0000000000000000e+00" cType="1" res="-3.2079089432954788e-03" rms="2.3702852427959442e-01" purity="2.2744558751583099e-01" nType="0">
                <Node pos="l" depth="5" NCoef="0" IVar="0" Cut="4.9839136004447937e-01" cType="1" res="-1.9958900287747383e-02" rms="4.0665802359580994e-01" purity="2.2682076692581177e-01" nType="0">
                  <Node pos="l" depth="6" NCoef="0" IVar="-1" Cut="0.0000000000000000e+00" cType="1" res="-3.7693551275879145e-03" rms="4.4394615292549133e-01" purity="2.9390397667884827e-01" nType="-99"/>
                  <Node pos="r" depth="6" NCoef="0" IVar="0" Cut="7.6976174116134644e-01" cType="1" res="-1.3093104586005211e-02" rms="3.8691779971122742e-01" purity="1.9399151206016541e-01" nType="0">
                    <Node pos="l" depth="7" NCoef="0" IVar="-1" Cut="0.0000000000000000e+00" cType="1" res="-6.0932576889172196e-04" rms="4.1288954019546509e-01" purity="2.2836044430732727e-01" nType="-99"/>
                    <Node pos="r" depth="7" NCoef="0" IVar="-1" Cut="0.0000000000000000e+00" cType="1" res="-4.3608848936855793e-03" rms="3.5382014513015747e-01" purity="1.5375293791294098e-01" nType="-99"/>
                  </Node>
                </Node>
                <Node pos="r" depth="5" NCoef="0" IVar="-1" Cut="0.0000000000000000e+00" cType="1" res="1.0156261269003153e-03" rms="3.9942565560340881e-01" purity="2.2851663827896118e-01" nType="-99"/>
              </Node>
              <Node pos="r" depth="4" NCoef="0" IVar="5" Cut="6.0000000000000000e+00" cType="1" res="4.9838999984785914e-04" rms="2.3574155569076538e-01" purity="6.3031286001205444e-02" nType="0">
                <Node pos="l" depth="5" NCoef="0" IVar="1" Cut="7.3223608732223511e-01" cType="1" res="5.8274706825613976e-03" rms="2.6717084646224976e-01" purity="8.0490462481975555e-02" nType="0">
                  <Node pos="l" depth="6" NCoef="0" IVar="4" Cut="5.1132149994373322e-02" cType="1" res="-8.8903261348605156e-04" rms="2.6756477355957031e-01" purity="8.1801325082778931e-02" nType="0">
                    <Node pos="l" depth="7" NCoef="0" IVar="-1" Cut="0.0000000000000000e+00" cType="1" res="-4.6156039461493492e-03" rms="2.4147205054759979e-01" purity="6.3961900770664215e-02" nType="-99"/>
                    <Node pos="r" depth="7" NCoef="0" IVar="-1" Cut="0.0000000000000000e+00" cType="1" res="2.0771350245922804e-03" rms="2.8295707702636719e-01" purity="9.3335472047328949e-02" nType="-99"/>
                  </Node>
                  <Node pos="r" depth="6" NCoef="0" IVar="-1" Cut="0.0000000000000000e+00" cType="1" res="8.9090419933199883e-03" rms="2.6608002185821533e-01" purity="7.8209348022937775e-02" nType="-99"/>
                </Node>
                <Node pos="r" depth="5" NCoef="0" IVar="3" Cut="2.3792181909084320e-01" cType="1" res="-8.1082936376333237e-03" rms="1.7626886069774628e-01" purity="3.2901961356401443e-02" nType="0">
                  <Node pos="l" depth="6" NCoef="0" IVar="-1" Cut="0.0000000000000000e+00" cType="1" res="-1.5899939462542534e-02" rms="1.2696936726570129e-01" purity="1.6452955082058907e-02" nType="-99"/>
                  <Node pos="r" depth="6" NCoef="0" IVar="-1" Cut="0.0000000000000000e+00" cType="1" res="-2.1891791839152575e-03" rms="2.0130337774753571e-01" purity="4.3362580239772797e-02" nType="-99"/>
                </Node>
              </Node>
            </Node>
            <Node pos="r" depth="3" NCoef="0" IVar="-1" Cut="0.0000000000000000e+00" cType="1" res="3.4674231428653002e-03" rms="3.9507603645324707e-01" purity="2.2661575675010681e-01" nType="-99"/>
          </Node>
          <Node pos="r" depth="2" NCoef="0" IVar="5" Cut="3.0000000000000000e+00" cType="1" res="6.4315167255699635e-03" rms="4.3900036811828613e-01" purity="6.9117152690887451e-01" nType="0">
            <Node pos="l" depth="3" NCoef="0" IVar="3" Cut="7.5899845361709595e-01" cType="1" res="4.8010265454649925e-03" rms="4.3126004934310913e-01" purity="7.2089296579360962e-01" nType="0">
              <Node pos="l" depth="4" NCoef="0" IVar="4" Cut="5.7723157107830048e-02" cType="1" res="-1.3019840233027935e-02" rms="4.7509789466857910e-01" purity="4.2369341850280762e-01" nType="0">
                <Node pos="l" depth="5" NCoef="0" IVar="-1" Cut="0.0000000000000000e+00" cType="1" res="-2.3859213106334209e-03" rms="4.6600463986396790e-01" purity="3.7184724211692810e-01" nType="-99"/>
                <Node pos="r" depth="5" NCoef="0" IVar="-1" Cut="0.0000000000000000e+00" cType="1" res="-1.9134001922793686e-04" rms="4.8352304100990295e-01" purity="4.7405660152435303e-01" nType="-99"/>
              </Node>
              <Node pos="r" depth="4" NCoef="0" IVar="2" Cut="1.6753308105468750e+02" cType="1" res="6.0175112448632717e-03" rms="4.2807692289352417e-01" purity="7.4118030071258545e-01" nType="0">
                <Node pos="l" depth="5" NCoef="0" IVar="3" Cut="8.3614110946655273e-01" cType="1" res="6.4893984235823154e-03" rms="4.2669728398323059e-01" purity="7.4427759647369385e-01" nType="0">
                  <Node pos="l" depth="6" NCoef="0" IVar="0" Cut="2.2998127341270447e-01" cType="1" res="1.2898426502943039e-03" rms="4.7787147760391235e-01" purity="6.1703443527221680e-01" nType="0">
                    <Node pos="l" depth="7" NCoef="0" IVar="-1" Cut="0.0000000000000000e+00" cType="1" res="-4.3657657806761563e-04" rms="4.7443124651908875e-01" purity="6.4175194501876831e-01" nType="-99"/>
                    <Node pos="r" depth="7" NCoef="0" IVar="-1" Cut="0.0000000000000000e+00" cType="1" res="1.4879010850563645e-03" rms="4.8547014594078064e-01" purity="5.5925613641738892e-01" nType="-99"/>
                  </Node>
                  <Node pos="r" depth="6" NCoef="0" IVar="4" Cut="3.1085312366485596e-02" cType="1" res="7.0965541526675224e-03" rms="4.2031139135360718e-01" purity="7.5913584232330322e-01" nType="0">
                    <Node pos="l" depth="7" NCoef="0" IVar="-1" Cut="0.0000000000000000e+00" cType="1" res="6.7295989720150828e-04" rms="4.1749131679534912e-01" purity="7.6361805200576782e-01" nType="-99"/>
                    <Node pos="r" depth="7" NCoef="0" IVar="-1" Cut="0.0000000000000000e+00" cType="1" res="1.4228265499696136e-03" rms="4.4143977761268616e-01" purity="7.2448271512985229e-01" nType="-99"/>
                  </Node>
                </Node>
                <Node pos="r" depth="5" NCoef="0" IVar="-1" Cut="0.0000000000000000e+00" cType="1" res="-8.3942507626488805e-04" rms="4.6881845593452454e-01" purity="6.4462101459503174e-01" nType="-99"/>
              </Node>
            </Node>
            <Node pos="r" depth="3" NCoef="0" IVar="4" Cut="4.0641576051712036e-02" cType="1" res="1.3791587203741074e-02" rms="4.8136088252067566e-01" purity="5.2882170677185059e-01" nType="0">
              <Node pos="l" depth="4" NCoef="0" IVar="2" Cut="5.4309432983398438e+01" cType="1" res="3.5603437572717667e-03" rms="4.7875005006790161e-01" purity="5.1082426309585571e-01" nType="0">
                <Node pos="l" depth="5" NCoef="0" IVar="-1" Cut="0.0000000000000000e+00" cType="1" res="1.5344504499807954e-03" rms="4.8137983679771423e-01" purity="5.4858398437500000e-01" nType="-99"/>
                <Node pos="r" depth="5" NCoef="0" IVar="-1" Cut="0.0000000000000000e+00" cType="1" res="-8.9451053645461798e-04" rms="4.7585669159889221e-01" purity="4.7425773739814758e-01" nType="-99"/>
              </Node>
              <Node pos="r" depth="4" NCoef="0" IVar="5" Cut="4.0000000000000000e+00" cType="1" res="2.0038634538650513e-02" rms="4.7990375757217407e-01" purity="5.4013085365295410e-01" nType="0">
                <Node pos="l" depth="5" NCoef="0" IVar="0" Cut="2.1553771197795868e-01" cType="1" res="1.6666436567902565e-02" rms="4.8115268349647522e-01" purity="5.4801309108734131e-01" nType="0">
                  <Node pos="l" depth="6" NCoef="0" IVar="2" Cut="1.1845381927490234e+02" cType="1" res="1.1821867898106575e-02" rms="4.7790959477424622e-01" purity="6.1763894557952881e-01" nType="0">
                    <Node pos="l" depth="7" NCoef="0" IVar="-1" Cut="0.0000000000000000e+00" cType="1" res="7.3393265483900905e-04" rms="4.7411188483238220e-01" purity="6.2946569919586182e-01" nType="-99"/>
                    <Node pos="r" depth="7" NCoef="0" IVar="-1" Cut="0.0000000000000000e+00" cType="1" res="1.3893608702346683e-03" rms="4.8239010572433472e-01" purity="6.0347056388854980e-01" nType="-99"/>
                  </Node>
                  <Node pos="r" depth="6" NCoef="0" IVar="-1" Cut="0.0000000000000000e+00" cType="1" res="2.1951766684651375e-03" rms="4.8539668321609497e-01" purity="4.5453581213951111e-01" nType="-99"/>
                </Node>
                <Node pos="r" depth="5" NCoef="0" IVar="-1" Cut="0.0000000000000000e+00" cType="1" res="2.8961787465959787e-03" rms="4.8805621266365051e-01" purity="5.1564103364944458e-01" nType="-99"/>
              </Node>
            </Node>
          </Node>
        </Node>
        <Node pos="r" depth="1" NCoef="0" IVar="2" Cut="3.9540835571289062e+02" cType="1" res="-6.2795500271022320e-03" rms="3.7721222639083862e-01" purity="2.3745577037334442e-01" nType="0">
          <Node pos="l" depth="2" NCoef="0" IVar="1" Cut="-1.8973983824253082e-01" cType="1" res="-1.8138237064704299e-03" rms="3.9139109849929810e-01" purity="2.8129565715789795e-01" nType="0">
            <Node pos="l" depth="3" NCoef="0" IVar="-1" Cut="0.0000000000000000e+00" cType="1" res="1.5430088387802243e-03" rms="4.2817106842994690e-01" purity="3.6665213108062744e-01" nType="-99"/>
            <Node pos="r" depth="3" NCoef="0" IVar="3" Cut="7.0970392227172852e-01" cType="1" res="-3.6181670147925615e-03" rms="3.8647261261940002e-01" purity="2.7054440975189209e-01" nType="0">
              <Node pos="l" depth="4" NCoef="0" IVar="4" Cut="1.8561273813247681e-01" cType="1" res="-6.1767413280904293e-03" rms="3.5384950041770935e-01" purity="1.8064586818218231e-01" nType="0">
                <Node pos="l" depth="5" NCoef="0" IVar="4" Cut="6.4297601580619812e-02" cType="1" res="-8.0598844215273857e-03" rms="3.5060486197471619e-01" purity="1.7968744039535522e-01" nType="0">
                  <Node pos="l" depth="6" NCoef="0" IVar="-1" Cut="0.0000000000000000e+00" cType="1" res="-3.8111894391477108e-03" rms="3.2383990287780762e-01" purity="1.5287600457668304e-01" nType="-99"/>
                  <Node pos="r" depth="6" NCoef="0" IVar="1" Cut="1.3863490521907806e-01" cType="1" res="-6.2160007655620575e-03" rms="3.5479658842086792e-01" purity="1.8411484360694885e-01" nType="0">
                    <Node pos="l" depth="7" NCoef="0" IVar="-1" Cut="0.0000000000000000e+00" cType="1" res="-1.9738900009542704e-03" rms="3.9122343063354492e-01" purity="2.3327080905437469e-01" nType="-99"/>
                    <Node pos="r" depth="7" NCoef="0" IVar="-1" Cut="0.0000000000000000e+00" cType="1" res="-4.2768617277033627e-04" rms="3.2912650704383850e-01" purity="1.5244324505329132e-01" nType="-99"/>
                  </Node>
                </Node>
                <Node pos="r" depth="5" NCoef="0" IVar="-1" Cut="0.0000000000000000e+00" cType="1" res="1.8108740914613008e-03" rms="3.7966844439506531e-01" purity="1.8870478868484497e-01" nType="-99"/>
              </Node>
              <Node pos="r" depth="4" NCoef="0" IVar="2" Cut="2.4407986450195312e+02" cType="1" res="5.1234266720712185e-03" rms="4.8143368959426880e-01" purity="5.7769066095352173e-01" nType="0">
                <Node pos="l" depth="5" NCoef="0" IVar="-1" Cut="0.0000000000000000e+00" cType="1" res="1.6043783398345113e-03" rms="4.7740653157234192e-01" purity="6.0893988609313965e-01" nType="-99"/>
                <Node pos="r" depth="5" NCoef="0" IVar="-1" Cut="0.0000000000000000e+00" cType="1" res="-2.0804219821002334e-04" rms="4.8374480009078979e-01" purity="5.5850410461425781e-01" nType="-99"/>
              </Node>
            </Node>
          </Node>
          <Node pos="r" depth="2" NCoef="0" IVar="3" Cut="5.8502650260925293e-01" cType="1" res="-1.2681916356086731e-02" rms="3.5580262541770935e-01" purity="1.7460390925407410e-01" nType="0">
            <Node pos="l" depth="3" NCoef="0" IVar="5" Cut="4.0000000000000000e+00" cType="1" res="-7.3631205596029758e-03" rms="3.3026254177093506e-01" purity="1.3715963065624237e-01" nType="0">
              <Node pos="l" depth="4" NCoef="0" IVar="-1" Cut="0.0000000000000000e+00" cType="1" res="8.8770961156114936e-04" rms="3.8653734326362610e-01" purity="2.0048779249191284e-01" nType="-99"/>
              <Node pos="r" depth="4" NCoef="0" IVar="5" Cut="5.0000000000000000e+00" cType="1" res="-1.0413799434900284e-02" rms="3.1457775831222534e-01" purity="1.2145013362169266e-01" nType="0">
                <Node pos="l" depth="5" NCoef="0" IVar="-1" Cut="0.0000000000000000e+00" cType="1" res="-4.1232625953853130e-03" rms="3.4487026929855347e-01" purity="1.5156805515289307e-01" nType="-99"/>
                <Node pos="r" depth="5" NCoef="0" IVar="3" Cut="2.3354370892047882e-01" cType="1" res="-6.7069153301417828e-03" rms="3.0419301986694336e-01" purity="1.1143834143877029e-01" nType="0">
                  <Node pos="l" depth="6" NCoef="0" IVar="-1" Cut="0.0000000000000000e+00" cType="1" res="-6.4248084090650082e-03" rms="2.6738113164901733e-01" purity="8.4163226187229156e-02" nType="-99"/>
                  <Node pos="r" depth="6" NCoef="0" IVar="3" Cut="3.8080459833145142e-01" cType="1" res="8.2101119915023446e-04" rms="3.2233643531799316e-01" purity="1.2638142704963684e-01" nType="0">
                    <Node pos="l" depth="7" NCoef="0" IVar="-1" Cut="0.0000000000000000e+00" cType="1" res="-1.4132587239146233e-03" rms="2.8296780586242676e-01" purity="9.1195583343505859e-02" nType="-99"/>
                    <Node pos="r" depth="7" NCoef="0" IVar="-1" Cut="0.0000000000000000e+00" cType="1" res="1.9256211817264557e-03" rms="3.8944795727729797e-01" purity="1.9716075062751770e-01" nType="-99"/>
                  </Node>
                </Node>
              </Node>
            </Node>
            <Node pos="r" depth="3" NCoef="0" IVar="-1" Cut="0.0000000000000000e+00" cType="1" res="-4.3571265414357185e-03" rms="4.7215119004249573e-01" purity="3.8412043452262878e-01" nType="-99"/>
          </Node>
        </Node>
      </Node>
    </BinaryTree>
    <BinaryTree type="DecisionTree" boostWeight="1.0000000000000000e+00" itree="97">
      <Node pos="s" depth="0" NCoef="0" IVar="1" Cut="3.4622831344604492e+00" cType="1" res="1.4361538924276829e-03" rms="4.0907084941864014e-01" purity="4.9894490838050842e-01" nType="0">
        <Node pos="l" depth="1" NCoef="0" IVar="1" Cut="1.4974218606948853e+00" cType="1" res="9.6616760129109025e-04" rms="4.0923702716827393e-01" purity="5.0078135728836060e-01" nType="0">
          <Node pos="l" depth="2" NCoef="0" IVar="3" Cut="7.1202093362808228e-01" cType="1" res="1.7707678489387035e-03" rms="4.1087552905082703e-01" purity="5.0957453250885010e-01" nType="0">
            <Node pos="l" depth="3" NCoef="0" IVar="4" Cut="1.2787631154060364e-01" cType="1" res="-3.2189688645303249e-03" rms="3.7436076998710632e-01" purity="2.1561656892299652e-01" nType="0">
              <Node pos="l" depth="4" NCoef="0" IVar="1" Cut="8.3223961293697357e-02" cType="1" res="-6.5383184701204300e-03" rms="3.7595111131668091e-01" purity="2.2591929137706757e-01" nType="0">
                <Node pos="l" depth="5" NCoef="0" IVar="2" Cut="3.8049868774414062e+02" cType="1" res="-1.3672494096681476e-03" rms="4.2020741105079651e-01" purity="3.0774760246276855e-01" nType="0">
                  <Node pos="l" depth="6" NCoef="0" IVar="2" Cut="6.2201507568359375e+01" cType="1" res="1.3328500790521502e-03" rms="4.2475533485412598e-01" purity="3.1835567951202393e-01" nType="0">
                    <Node pos="l" depth="7" NCoef="0" IVar="-1" Cut="0.0000000000000000e+00" cType="1" res="1.5474798856303096e-03" rms="4.5972689986228943e-01" purity="4.0244266390800476e-01" nType="-99"/>
                    <Node pos="r" depth="7" NCoef="0" IVar="-1" Cut="0.0000000000000000e+00" cType="1" res="-2.0487538131419569e-04" rms="4.1692507266998291e-01" purity="3.0057087540626526e-01" nType="-99"/>
                  </Node>
                  <Node pos="r" depth="6" NCoef="0" IVar="-1" Cut="0.0000000000000000e+00" cType="1" res="-3.6922139115631580e-03" rms="3.7975895404815674e-01" purity="2.1996979415416718e-01" nType="-99"/>
                </Node>
                <Node pos="r" depth="5" NCoef="0" IVar="4" Cut="7.0158816874027252e-02" cType="1" res="-1.0102775879204273e-02" rms="3.4208235144615173e-01" purity="1.6951440274715424e-01" nType="0">
                  <Node pos="l" depth="6" NCoef="0" IVar="0" Cut="6.4430999755859375e-01" cType="1" res="-1.4359071850776672e-02" rms="3.3660832047462463e-01" purity="1.6017231345176697e-01" nType="0">
                    <Node pos="l" depth="7" NCoef="0" IVar="-1" Cut="0.0000000000000000e+00" cType="1" res="-2.7102632448077202e-03" rms="4.4367536902427673e-01" purity="3.0724290013313293e-01" nType="-99"/>
                    <Node pos="r" depth="7" NCoef="0" IVar="-1" Cut="0.0000000000000000e+00" cType="1" res="-3.1940620392560959e-03" rms="2.5219881534576416e-01" purity="7.2840616106987000e-02" nType="-99"/>
                  </Node>
                  <Node pos="r" depth="6" NCoef="0" IVar="3" Cut="6.0055106878280640e-01" cType="1" res="-6.2260930426418781e-03" rms="3.4694758057594299e-01" purity="1.7802330851554871e-01" nType="0">
                    <Node pos="l" depth="7" NCoef="0" IVar="-1" Cut="0.0000000000000000e+00" cType="1" res="-2.6938810478895903e-03" rms="2.9617595672607422e-01" purity="1.0887080430984497e-01" nType="-99"/>
                    <Node pos="r" depth="7" NCoef="0" IVar="-1" Cut="0.0000000000000000e+00" cType="1" res="6.2409206293523312e-04" rms="4.8460769653320312e-01" purity="4.2090630531311035e-01" nType="-99"/>
                  </Node>
                </Node>
              </Node>
              <Node pos="r" depth="4" NCoef="0" IVar="3" Cut="3.7268251180648804e-01" cType="1" res="4.3700793758034706e-03" rms="3.7058743834495544e-01" purity="1.9206139445304871e-01" nType="0">
                <Node pos="l" depth="5" NCoef="0" IVar="4" Cut="2.7504846453666687e-01" cType="1" res="-2.3686648346483707e-03" rms="3.1093630194664001e-01" purity="1.1669319123029709e-01" nType="0">
                  <Node pos="l" depth="6" NCoef="0" IVar="5" Cut="5.0000000000000000e+00" cType="1" res="-6.9777867756783962e-03" rms="2.9136502742767334e-01" purity="9.9937245249748230e-02" nType="0">
                    <Node pos="l" depth="7" NCoef="0" IVar="-1" Cut="0.0000000000000000e+00" cType="1" res="9.8837469704449177e-04" rms="3.3681356906890869e-01" purity="1.4204052090644836e-01" nType="-99"/>
                    <Node pos="r" depth="7" NCoef="0" IVar="-1" Cut="0.0000000000000000e+00" cType="1" res="-3.4875865094363689e-03" rms="2.7519023418426514e-01" purity="8.5061132907867432e-02" nType="-99"/>
                  </Node>
                  <Node pos="r" depth="6" NCoef="0" IVar="-1" Cut="0.0000000000000000e+00" cType="1" res="3.8348233792930841e-03" rms="3.9972221851348877e-01" purity="2.1331258118152618e-01" nType="-99"/>
                </Node>
                <Node pos="r" depth="5" NCoef="0" IVar="4" Cut="1.7081496119499207e-01" cType="1" res="1.3286483474075794e-02" rms="4.3702009320259094e-01" purity="2.9178521037101746e-01" nType="0">
                  <Node pos="l" depth="6" NCoef="0" IVar="3" Cut="5.4762703180313110e-01" cType="1" res="7.8571224585175514e-03" rms="4.3534681200981140e-01" purity="2.9630273580551147e-01" nType="0">
                    <Node pos="l" depth="7" NCoef="0" IVar="-1" Cut="0.0000000000000000e+00" cType="1" res="-3.2180489506572485e-04" rms="4.0523368120193481e-01" purity="2.2213816642761230e-01" nType="-99"/>
                    <Node pos="r" depth="7" NCoef="0" IVar="-1" Cut="0.0000000000000000e+00" cType="1" res="2.6147053577005863e-03" rms="4.9028792977333069e-01" purity="4.4712081551551819e-01" nType="-99"/>
                  </Node>
                  <Node pos="r" depth="6" NCoef="0" IVar="-1" Cut="0.0000000000000000e+00" cType="1" res="3.5131566692143679e-03" rms="4.4093593955039978e-01" purity="2.8032720088958740e-01" nType="-99"/>
                </Node>
              </Node>
            </Node>
            <Node pos="r" depth="3" NCoef="0" IVar="4" Cut="9.0000621974468231e-02" cType="1" res="5.3497534245252609e-03" rms="4.3514835834503174e-01" purity="7.2042161226272583e-01" nType="0">
              <Node pos="l" depth="4" NCoef="0" IVar="2" Cut="1.6942204284667969e+02" cType="1" res="6.3359308987855911e-03" rms="4.3432202935218811e-01" purity="7.2503769397735596e-01" nType="0">
                <Node pos="l" depth="5" NCoef="0" IVar="4" Cut="4.3543785810470581e-02" cType="1" res="7.2161396965384483e-03" rms="4.2985111474990845e-01" purity="7.3651009798049927e-01" nType="0">
                  <Node pos="l" depth="6" NCoef="0" IVar="3" Cut="8.7168681621551514e-01" cType="1" res="6.1883572489023209e-03" rms="4.2499673366546631e-01" purity="7.4632179737091064e-01" nType="0">
                    <Node pos="l" depth="7" NCoef="0" IVar="-1" Cut="0.0000000000000000e+00" cType="1" res="-3.0082822195254266e-04" rms="4.7558787465095520e-01" purity="6.2097603082656860e-01" nType="-99"/>
                    <Node pos="r" depth="7" NCoef="0" IVar="-1" Cut="0.0000000000000000e+00" cType="1" res="9.1357354540377855e-04" rms="4.1322746872901917e-01" purity="7.7339738607406616e-01" nType="-99"/>
                  </Node>
                  <Node pos="r" depth="6" NCoef="0" IVar="4" Cut="5.7028975337743759e-02" cType="1" res="1.4629296958446503e-02" rms="4.6329334378242493e-01" purity="6.6574007272720337e-01" nType="0">
                    <Node pos="l" depth="7" NCoef="0" IVar="-1" Cut="0.0000000000000000e+00" cType="1" res="1.9559024367481470e-03" rms="4.5697447657585144e-01" purity="6.8194216489791870e-01" nType="-99"/>
                    <Node pos="r" depth="7" NCoef="0" IVar="-1" Cut="0.0000000000000000e+00" cType="1" res="4.7369819367304444e-04" rms="4.7086271643638611e-01" purity="6.4562374353408813e-01" nType="-99"/>
                  </Node>
                </Node>
                <Node pos="r" depth="5" NCoef="0" IVar="4" Cut="5.0238586962223053e-02" cType="1" res="-3.0023253057152033e-03" rms="4.7909280657768250e-01" purity="6.0332602262496948e-01" nType="0">
                  <Node pos="l" depth="6" NCoef="0" IVar="-1" Cut="0.0000000000000000e+00" cType="1" res="-2.2262744605541229e-03" rms="4.6981713175773621e-01" purity="6.1954295635223389e-01" nType="-99"/>
                  <Node pos="r" depth="6" NCoef="0" IVar="4" Cut="6.6915206611156464e-02" cType="1" res="4.7330386005342007e-03" rms="4.8276433348655701e-01" purity="5.9644913673400879e-01" nType="0">
                    <Node pos="l" depth="7" NCoef="0" IVar="-1" Cut="0.0000000000000000e+00" cType="1" res="1.1121614370495081e-03" rms="4.7547230124473572e-01" purity="6.1630564928054810e-01" nType="-99"/>
                    <Node pos="r" depth="7" NCoef="0" IVar="-1" Cut="0.0000000000000000e+00" cType="1" res="-2.6703180628828704e-04" rms="4.9050131440162659e-01" purity="5.7472974061965942e-01" nType="-99"/>
                  </Node>
                </Node>
              </Node>
              <Node pos="r" depth="4" NCoef="0" IVar="-1" Cut="0.0000000000000000e+00" cType="1" res="-3.9041922427713871e-03" rms="4.7140523791313171e-01" purity="4.9389064311981201e-01" nType="-99"/>
            </Node>
          </Node>
          <Node pos="r" depth="2" NCoef="0" IVar="3" Cut="4.9028202891349792e-01" cType="1" res="-2.6126611977815628e-02" rms="3.4852799773216248e-01" purity="2.0469507575035095e-01" nType="0">
            <Node pos="l" depth="3" NCoef="0" IVar="-1" Cut="0.0000000000000000e+00" cType="1" res="-2.3519706446677446e-03" rms="2.3141208291053772e-01" purity="5.8512263000011444e-02" nType="-99"/>
            <Node pos="r" depth="3" NCoef="0" IVar="-1" Cut="0.0000000000000000e+00" cType="1" res="-5.2208197303116322e-03" rms="4.4016781449317932e-01" purity="3.6248955130577087e-01" nType="-99"/>
          </Node>
        </Node>
        <Node pos="r" depth="1" NCoef="0" IVar="-1" Cut="0.0000000000000000e+00" cType="1" res="6.1781131662428379e-03" rms="3.9217928051948547e-01" purity="3.3904752135276794e-01" nType="-99"/>
      </Node>
    </BinaryTree>
    <BinaryTree type="DecisionTree" boostWeight="1.0000000000000000e+00" itree="98">
      <Node pos="s" depth="0" NCoef="0" IVar="3" Cut="7.1646219491958618e-01" cType="1" res="2.2780909202992916e-03" rms="4.0931862592697144e-01" purity="5.0012552738189697e-01" nType="0">
        <Node pos="l" depth="1" NCoef="0" IVar="4" Cut="2.6852679252624512e-01" cType="1" res="-3.2529367599636316e-03" rms="3.7180110812187195e-01" purity="2.1153417229652405e-01" nType="0">
          <Node pos="l" depth="2" NCoef="0" IVar="1" Cut="-1.8844728171825409e-01" cType="1" res="-4.0090335533022881e-03" rms="3.7091404199600220e-01" purity="2.1152736246585846e-01" nType="0">
            <Node pos="l" depth="3" NCoef="0" IVar="2" Cut="1.4753698730468750e+02" cType="1" res="1.1587702669203281e-02" rms="4.0829589962959290e-01" purity="2.8235176205635071e-01" nType="0">
              <Node pos="l" depth="4" NCoef="0" IVar="-1" Cut="0.0000000000000000e+00" cType="1" res="3.1088811811059713e-03" rms="4.4385710358619690e-01" purity="3.7354445457458496e-01" nType="-99"/>
              <Node pos="r" depth="4" NCoef="0" IVar="4" Cut="1.2141831219196320e-01" cType="1" res="5.1887617446482182e-03" rms="3.9334461092948914e-01" purity="2.4672211706638336e-01" nType="0">
                <Node pos="l" depth="5" NCoef="0" IVar="-1" Cut="0.0000000000000000e+00" cType="1" res="-6.2823900952935219e-04" rms="4.0314787626266479e-01" purity="2.7349391579627991e-01" nType="-99"/>
                <Node pos="r" depth="5" NCoef="0" IVar="-1" Cut="0.0000000000000000e+00" cType="1" res="2.7206193190068007e-03" rms="3.8199633359909058e-01" purity="2.1728985011577606e-01" nType="-99"/>
              </Node>
            </Node>
            <Node pos="r" depth="3" NCoef="0" IVar="0" Cut="3.2186046242713928e-01" cType="1" res="-5.5945874191820621e-03" rms="3.6686348915100098e-01" purity="2.0432738959789276e-01" nType="0">
              <Node pos="l" depth="4" NCoef="0" IVar="2" Cut="9.7577003479003906e+01" cType="1" res="-1.1957854032516479e-02" rms="4.6709942817687988e-01" purity="3.9004418253898621e-01" nType="0">
                <Node pos="l" depth="5" NCoef="0" IVar="-1" Cut="0.0000000000000000e+00" cType="1" res="4.1580211836844683e-04" rms="4.8323136568069458e-01" purity="4.9267572164535522e-01" nType="-99"/>
                <Node pos="r" depth="5" NCoef="0" IVar="0" Cut="2.4917741119861603e-01" cType="1" res="-1.6414357349276543e-02" rms="4.6259552240371704e-01" purity="3.6264351010322571e-01" nType="0">
                  <Node pos="l" depth="6" NCoef="0" IVar="3" Cut="5.8316379785537720e-01" cType="1" res="-1.9890682771801949e-02" rms="4.6408164501190186e-01" purity="3.6948844790458679e-01" nType="0">
                    <Node pos="l" depth="7" NCoef="0" IVar="-1" Cut="0.0000000000000000e+00" cType="1" res="-3.1968145631253719e-03" rms="4.3247759342193604e-01" purity="2.6428887248039246e-01" nType="-99"/>
                    <Node pos="r" depth="7" NCoef="0" IVar="-1" Cut="0.0000000000000000e+00" cType="1" res="-1.2460307916626334e-03" rms="4.9230957031250000e-01" purity="4.7000238299369812e-01" nType="-99"/>
                  </Node>
                  <Node pos="r" depth="6" NCoef="0" IVar="-1" Cut="0.0000000000000000e+00" cType="1" res="-1.3995625067764195e-06" rms="4.5516014099121094e-01" purity="3.3034715056419373e-01" nType="-99"/>
                </Node>
              </Node>
              <Node pos="r" depth="4" NCoef="0" IVar="4" Cut="1.2140279263257980e-01" cType="1" res="-3.4138984046876431e-03" rms="3.2545799016952515e-01" purity="1.4068232476711273e-01" nType="0">
                <Node pos="l" depth="5" NCoef="0" IVar="3" Cut="6.7106384038925171e-01" cType="1" res="-5.2869133651256561e-03" rms="3.2983544468879700e-01" purity="1.4890003204345703e-01" nType="0">
                  <Node pos="l" depth="6" NCoef="0" IVar="5" Cut="3.0000000000000000e+00" cType="1" res="-6.5498226322233677e-03" rms="3.1679672002792358e-01" purity="1.3288146257400513e-01" nType="0">
                    <Node pos="l" depth="7" NCoef="0" IVar="-1" Cut="0.0000000000000000e+00" cType="1" res="-2.7045693714171648e-03" rms="3.7268120050430298e-01" purity="1.8465477228164673e-01" nType="-99"/>
                    <Node pos="r" depth="7" NCoef="0" IVar="-1" Cut="0.0000000000000000e+00" cType="1" res="-1.2610870180651546e-03" rms="3.1003305315971375e-01" purity="1.2621253728866577e-01" nType="-99"/>
                  </Node>
                  <Node pos="r" depth="6" NCoef="0" IVar="-1" Cut="0.0000000000000000e+00" cType="1" res="9.6507254056632519e-04" rms="4.7719615697860718e-01" purity="3.9433842897415161e-01" nType="-99"/>
                </Node>
                <Node pos="r" depth="5" NCoef="0" IVar="3" Cut="3.3322829008102417e-01" cType="1" res="1.4431125018745661e-03" rms="3.1377014517784119e-01" purity="1.1937260627746582e-01" nType="0">
                  <Node pos="l" depth="6" NCoef="0" IVar="4" Cut="2.0206654071807861e-01" cType="1" res="-3.6689941771328449e-03" rms="2.5477874279022217e-01" purity="7.1395926177501678e-02" nType="0">
                    <Node pos="l" depth="7" NCoef="0" IVar="-1" Cut="0.0000000000000000e+00" cType="1" res="-4.0528974495828152e-03" rms="2.2470739483833313e-01" purity="5.4019011557102203e-02" nType="-99"/>
                    <Node pos="r" depth="7" NCoef="0" IVar="-1" Cut="0.0000000000000000e+00" cType="1" res="1.9773489329963923e-03" rms="3.1853964924812317e-01" purity="1.1563446372747421e-01" nType="-99"/>
                  </Node>
                  <Node pos="r" depth="6" NCoef="0" IVar="4" Cut="1.5461479127407074e-01" cType="1" res="7.6509318314492702e-03" rms="3.7297412753105164e-01" purity="1.7763245105743408e-01" nType="0">
                    <Node pos="l" depth="7" NCoef="0" IVar="-1" Cut="0.0000000000000000e+00" cType="1" res="3.1977207981981337e-04" rms="3.6644515395164490e-01" purity="1.7261531949043274e-01" nType="-99"/>
                    <Node pos="r" depth="7" NCoef="0" IVar="-1" Cut="0.0000000000000000e+00" cType="1" res="3.1273160129785538e-03" rms="3.8246917724609375e-01" purity="1.8522740900516510e-01" nType="-99"/>
                  </Node>
                </Node>
              </Node>
            </Node>
          </Node>
          <Node pos="r" depth="2" NCoef="0" IVar="-1" Cut="0.0000000000000000e+00" cType="1" res="3.7933955900371075e-03" rms="3.9929735660552979e-01" purity="2.1176087856292725e-01" nType="-99"/>
        </Node>
        <Node pos="r" depth="1" NCoef="0" IVar="4" Cut="9.0283580124378204e-02" cType="1" res="6.4581031911075115e-03" rms="4.3548661470413208e-01" purity="7.1822518110275269e-01" nType="0">
          <Node pos="l" depth="2" NCoef="0" IVar="4" Cut="6.9892324507236481e-02" cType="1" res="7.3391413316130638e-03" rms="4.3472859263420105e-01" purity="7.2252255678176880e-01" nType="0">
            <Node pos="l" depth="3" NCoef="0" IVar="3" Cut="8.4621107578277588e-01" cType="1" res="6.6796410828828812e-03" rms="4.3274232745170593e-01" purity="7.2708201408386230e-01" nType="0">
              <Node pos="l" depth="4" NCoef="0" IVar="0" Cut="2.8460499644279480e-01" cType="1" res="-2.2831677924841642e-03" rms="4.8045009374618530e-01" purity="5.9738576412200928e-01" nType="0">
                <Node pos="l" depth="5" NCoef="0" IVar="1" Cut="1.0773255676031113e-01" cType="1" res="-6.3250088132917881e-03" rms="4.7817212343215942e-01" purity="6.2172067165374756e-01" nType="0">
                  <Node pos="l" depth="6" NCoef="0" IVar="2" Cut="7.9680130004882812e+01" cType="1" res="1.4605591422878206e-04" rms="4.7099593281745911e-01" purity="6.5953296422958374e-01" nType="0">
                    <Node pos="l" depth="7" NCoef="0" IVar="-1" Cut="0.0000000000000000e+00" cType="1" res="7.3717412305995822e-04" rms="4.6500605344772339e-01" purity="6.7737972736358643e-01" nType="-99"/>
                    <Node pos="r" depth="7" NCoef="0" IVar="-1" Cut="0.0000000000000000e+00" cType="1" res="-8.6957757594063878e-04" rms="4.7762450575828552e-01" purity="6.3899320363998413e-01" nType="-99"/>
                  </Node>
                  <Node pos="r" depth="6" NCoef="0" IVar="2" Cut="6.7061149597167969e+01" cType="1" res="-1.6512870788574219e-02" rms="4.8908340930938721e-01" purity="5.6218999624252319e-01" nType="0">
                    <Node pos="l" depth="7" NCoef="0" IVar="-1" Cut="0.0000000000000000e+00" cType="1" res="-2.7316401246935129e-03" rms="4.8904556035995483e-01" purity="5.4645317792892456e-01" nType="-99"/>
                    <Node pos="r" depth="7" NCoef="0" IVar="-1" Cut="0.0000000000000000e+00" cType="1" res="-6.6828232957050204e-04" rms="4.8888161778450012e-01" purity="5.7152724266052246e-01" nType="-99"/>
                  </Node>
                </Node>
                <Node pos="r" depth="5" NCoef="0" IVar="4" Cut="4.5230560004711151e-02" cType="1" res="1.3780132867395878e-02" rms="4.8906847834587097e-01" purity="5.0067287683486938e-01" nType="0">
                  <Node pos="l" depth="6" NCoef="0" IVar="-1" Cut="0.0000000000000000e+00" cType="1" res="1.0457734606461599e-04" rms="4.8594817519187927e-01" purity="4.7768855094909668e-01" nType="-99"/>
                  <Node pos="r" depth="6" NCoef="0" IVar="-1" Cut="0.0000000000000000e+00" cType="1" res="2.2257706150412560e-03" rms="4.9177899956703186e-01" purity="5.2306419610977173e-01" nType="-99"/>
                </Node>
              </Node>
              <Node pos="r" depth="4" NCoef="0" IVar="2" Cut="1.1875492095947266e+02" cType="1" res="9.1228736564517021e-03" rms="4.1876244544982910e-01" purity="7.6243680715560913e-01" nType="0">
                <Node pos="l" depth="5" NCoef="0" IVar="3" Cut="9.0271466970443726e-01" cType="1" res="8.1690531224012375e-03" rms="4.1684910655021667e-01" purity="7.6552653312683105e-01" nType="0">
                  <Node pos="l" depth="6" NCoef="0" IVar="4" Cut="1.8244758248329163e-02" cType="1" res="3.4814050886780024e-03" rms="4.4870114326477051e-01" purity="7.0765149593353271e-01" nType="0">
                    <Node pos="l" depth="7" NCoef="0" IVar="-1" Cut="0.0000000000000000e+00" cType="1" res="-1.0944042587652802e-03" rms="4.5735284686088562e-01" purity="6.7638880014419556e-01" nType="-99"/>
                    <Node pos="r" depth="7" NCoef="0" IVar="-1" Cut="0.0000000000000000e+00" cType="1" res="8.6938927415758371e-04" rms="4.4545033574104309e-01" purity="7.1885001659393311e-01" nType="-99"/>
                  </Node>
                  <Node pos="r" depth="6" NCoef="0" IVar="1" Cut="9.6830618381500244e-01" cType="1" res="8.9699085801839828e-03" rms="4.1115531325340271e-01" purity="7.7541416883468628e-01" nType="0">
                    <Node pos="l" depth="7" NCoef="0" IVar="-1" Cut="0.0000000000000000e+00" cType="1" res="1.0587322758510709e-03" rms="4.0747720003128052e-01" purity="7.8373581171035767e-01" nType="-99"/>
                    <Node pos="r" depth="7" NCoef="0" IVar="-1" Cut="0.0000000000000000e+00" cType="1" res="-8.3349979831837118e-05" rms="4.8305022716522217e-01" purity="5.9744971990585327e-01" nType="-99"/>
                  </Node>
                </Node>
                <Node pos="r" depth="5" NCoef="0" IVar="4" Cut="3.9522040635347366e-02" cType="1" res="2.2208485752344131e-02" rms="4.4397366046905518e-01" purity="7.2004771232604980e-01" nType="0">
                  <Node pos="l" depth="6" NCoef="0" IVar="-1" Cut="0.0000000000000000e+00" cType="1" res="3.2359047327190638e-03" rms="4.3623599410057068e-01" purity="7.3338907957077026e-01" nType="-99"/>
                  <Node pos="r" depth="6" NCoef="0" IVar="-1" Cut="0.0000000000000000e+00" cType="1" res="1.7302129417657852e-03" rms="4.4937399029731750e-01" purity="7.1047812700271606e-01" nType="-99"/>
                </Node>
              </Node>
            </Node>
            <Node pos="r" depth="3" NCoef="0" IVar="2" Cut="2.0973190307617188e+02" cType="1" res="2.1892137825489044e-02" rms="4.7622376680374146e-01" purity="6.2191098928451538e-01" nType="0">
              <Node pos="l" depth="4" NCoef="0" IVar="-1" Cut="0.0000000000000000e+00" cType="1" res="2.3602768778800964e-03" rms="4.6637079119682312e-01" purity="6.5520167350769043e-01" nType="-99"/>
              <Node pos="r" depth="4" NCoef="0" IVar="-1" Cut="0.0000000000000000e+00" cType="1" res="1.1917216470465064e-03" rms="4.8832157254219055e-01" purity="5.7958757877349854e-01" nType="-99"/>
            </Node>
          </Node>
          <Node pos="r" depth="2" NCoef="0" IVar="-1" Cut="0.0000000000000000e+00" cType="1" res="-3.6526110488921404e-03" rms="4.7168928384780884e-01" purity="4.8970192670822144e-01" nType="-99"/>
        </Node>
      </Node>
    </BinaryTree>
    <BinaryTree type="DecisionTree" boostWeight="1.0000000000000000e+00" itree="99">
      <Node pos="s" depth="0" NCoef="0" IVar="0" Cut="1.2886204719543457e+00" cType="1" res="1.7263619229197502e-03" rms="4.0932819247245789e-01" purity="4.9981519579887390e-01" nType="0">
        <Node pos="l" depth="1" NCoef="0" IVar="2" Cut="6.9694526672363281e+01" cType="1" res="3.3554155379533768e-03" rms="4.3083301186561584e-01" purity="5.6847149133682251e-01" nType="0">
          <Node pos="l" depth="2" NCoef="0" IVar="1" Cut="9.7163480520248413e-01" cType="1" res="6.5932027064263821e-03" rms="4.2499810457229614e-01" purity="7.1420025825500488e-01" nType="0">
            <Node pos="l" depth="3" NCoef="0" IVar="3" Cut="6.3505256175994873e-01" cType="1" res="7.6349424198269844e-03" rms="4.2309120297431946e-01" purity="7.2604012489318848e-01" nType="0">
              <Node pos="l" depth="4" NCoef="0" IVar="2" Cut="4.3123069763183594e+01" cType="1" res="-4.0074987336993217e-03" rms="4.2667347192764282e-01" purity="2.7813354134559631e-01" nType="0">
                <Node pos="l" depth="5" NCoef="0" IVar="-1" Cut="0.0000000000000000e+00" cType="1" res="1.1007630964741111e-03" rms="4.3658354878425598e-01" purity="2.9173791408538818e-01" nType="-99"/>
                <Node pos="r" depth="5" NCoef="0" IVar="-1" Cut="0.0000000000000000e+00" cType="1" res="-1.7817873740568757e-03" rms="4.1849303245544434e-01" purity="2.6751649379730225e-01" nType="-99"/>
              </Node>
              <Node pos="r" depth="4" NCoef="0" IVar="0" Cut="2.9084017872810364e-01" cType="1" res="8.2876086235046387e-03" rms="4.2288002371788025e-01" purity="7.5114941596984863e-01" nType="0">
                <Node pos="l" depth="5" NCoef="0" IVar="1" Cut="1.5826185047626495e-01" cType="1" res="6.9699892774224281e-03" rms="4.1735950112342834e-01" purity="7.6651632785797119e-01" nType="0">
                  <Node pos="l" depth="6" NCoef="0" IVar="2" Cut="4.2715286254882812e+01" cType="1" res="1.0366832837462425e-02" rms="4.0840682387351990e-01" purity="7.8296136856079102e-01" nType="0">
                    <Node pos="l" depth="7" NCoef="0" IVar="-1" Cut="0.0000000000000000e+00" cType="1" res="1.0409032693132758e-03" rms="4.0376377105712891e-01" purity="7.9089784622192383e-01" nType="-99"/>
                    <Node pos="r" depth="7" NCoef="0" IVar="-1" Cut="0.0000000000000000e+00" cType="1" res="1.9425590289756656e-03" rms="4.4428062438964844e-01" purity="7.1835184097290039e-01" nType="-99"/>
                  </Node>
                  <Node pos="r" depth="6" NCoef="0" IVar="3" Cut="9.9371367692947388e-01" cType="1" res="-1.8682888476178050e-03" rms="4.3967741727828979e-01" purity="7.2372770309448242e-01" nType="0">
                    <Node pos="l" depth="7" NCoef="0" IVar="-1" Cut="0.0000000000000000e+00" cType="1" res="-8.3324138540774584e-04" rms="4.6498927474021912e-01" purity="6.6048359870910645e-01" nType="-99"/>
                    <Node pos="r" depth="7" NCoef="0" IVar="-1" Cut="0.0000000000000000e+00" cType="1" res="3.1638864311389625e-04" rms="4.2132359743118286e-01" purity="7.6721274852752686e-01" nType="-99"/>
                  </Node>
                </Node>
                <Node pos="r" depth="5" NCoef="0" IVar="3" Cut="9.8570525646209717e-01" cType="1" res="2.4142784997820854e-02" rms="4.8411962389945984e-01" purity="5.6623685359954834e-01" nType="0">
                  <Node pos="l" depth="6" NCoef="0" IVar="4" Cut="2.9093187302350998e-02" cType="1" res="2.9689077287912369e-02" rms="4.8602896928787231e-01" purity="5.4151999950408936e-01" nType="0">
                    <Node pos="l" depth="7" NCoef="0" IVar="-1" Cut="0.0000000000000000e+00" cType="1" res="2.7359367813915014e-03" rms="4.8329424858093262e-01" purity="5.4004639387130737e-01" nType="-99"/>
                    <Node pos="r" depth="7" NCoef="0" IVar="-1" Cut="0.0000000000000000e+00" cType="1" res="2.3316468577831984e-03" rms="4.8873925209045410e-01" purity="5.4299122095108032e-01" nType="-99"/>
                  </Node>
                  <Node pos="r" depth="6" NCoef="0" IVar="-1" Cut="0.0000000000000000e+00" cType="1" res="1.1381945805624127e-03" rms="4.8021724820137024e-01" purity="6.1411523818969727e-01" nType="-99"/>
                </Node>
              </Node>
            </Node>
            <Node pos="r" depth="3" NCoef="0" IVar="1" Cut="1.5533590316772461e+00" cType="1" res="-1.3808048330247402e-02" rms="4.6027919650077820e-01" purity="4.8233029246330261e-01" nType="0">
              <Node pos="l" depth="4" NCoef="0" IVar="-1" Cut="0.0000000000000000e+00" cType="1" res="-1.2771487236022949e-03" rms="4.6121108531951904e-01" purity="4.7439244389533997e-01" nType="-99"/>
              <Node pos="r" depth="4" NCoef="0" IVar="-1" Cut="0.0000000000000000e+00" cType="1" res="-1.3687444152310491e-03" rms="4.5934936404228210e-01" purity="4.9023067951202393e-01" nType="-99"/>
            </Node>
          </Node>
          <Node pos="r" depth="2" NCoef="0" IVar="3" Cut="2.0229105651378632e-01" cType="1" res="-3.3487754990346730e-04" rms="4.3735927343368530e-01" purity="4.0237602591514587e-01" nType="0">
            <Node pos="l" depth="3" NCoef="0" IVar="-1" Cut="0.0000000000000000e+00" cType="1" res="3.9932015351951122e-03" rms="3.9562848210334778e-01" purity="2.1799179911613464e-01" nType="-99"/>
            <Node pos="r" depth="3" NCoef="0" IVar="4" Cut="2.2469089925289154e-01" cType="1" res="-9.6005649538710713e-04" rms="4.3837520480155945e-01" purity="4.0717688202857971e-01" nType="0">
              <Node pos="l" depth="4" NCoef="0" IVar="3" Cut="3.1741854548454285e-01" cType="1" res="1.9135541515424848e-04" rms="4.3989416956901550e-01" purity="4.1511324048042297e-01" nType="0">
                <Node pos="l" depth="5" NCoef="0" IVar="-1" Cut="0.0000000000000000e+00" cType="1" res="-8.3310846239328384e-03" rms="2.7126201987266541e-01" purity="8.1455715000629425e-02" nType="-99"/>
                <Node pos="r" depth="5" NCoef="0" IVar="4" Cut="9.4338431954383850e-02" cType="1" res="9.5821009017527103e-04" rms="4.4356596469879150e-01" purity="4.2420026659965515e-01" nType="0">
                  <Node pos="l" depth="6" NCoef="0" IVar="3" Cut="7.3762947320938110e-01" cType="1" res="-1.9494146108627319e-03" rms="4.4853308796882629e-01" purity="4.8073431849479675e-01" nType="0">
                    <Node pos="l" depth="7" NCoef="0" IVar="-1" Cut="0.0000000000000000e+00" cType="1" res="-1.1903034755960107e-03" rms="4.2830079793930054e-01" purity="3.0383098125457764e-01" nType="-99"/>
                    <Node pos="r" depth="7" NCoef="0" IVar="-1" Cut="0.0000000000000000e+00" cType="1" res="5.0792004913091660e-04" rms="4.6695327758789062e-01" purity="6.4995932579040527e-01" nType="-99"/>
                  </Node>
                  <Node pos="r" depth="6" NCoef="0" IVar="2" Cut="6.5003332519531250e+02" cType="1" res="6.9176554679870605e-03" rms="4.3314650654792786e-01" purity="3.0832856893539429e-01" nType="0">
                    <Node pos="l" depth="7" NCoef="0" IVar="-1" Cut="0.0000000000000000e+00" cType="1" res="1.1956889647990465e-03" rms="4.3769139051437378e-01" purity="3.1985116004943848e-01" nType="-99"/>
                    <Node pos="r" depth="7" NCoef="0" IVar="-1" Cut="0.0000000000000000e+00" cType="1" res="-3.4090480767190456e-03" rms="3.8399085402488708e-01" purity="1.9414751231670380e-01" nType="-99"/>
                  </Node>
                </Node>
              </Node>
              <Node pos="r" depth="4" NCoef="0" IVar="-1" Cut="0.0000000000000000e+00" cType="1" res="-5.5503360927104950e-03" rms="3.9088180661201477e-01" purity="1.7958915233612061e-01" nType="-99"/>
            </Node>
          </Node>
        </Node>
        <Node pos="r" depth="1" NCoef="0" IVar="3" Cut="3.9466080069541931e-01" cType="1" res="-8.8399779051542282e-03" rms="2.2412379086017609e-01" purity="5.4498087614774704e-02" nType="0">
          <Node pos="l" depth="2" NCoef="0" IVar="5" Cut="4.0000000000000000e+00" cType="1" res="-3.8210770580917597e-03" rms="2.0586378872394562e-01" purity="4.5782122761011124e-02" nType="0">
            <Node pos="l" depth="3" NCoef="0" IVar="-1" Cut="0.0000000000000000e+00" cType="1" res="4.3000187724828720e-03" rms="2.6958894729614258e-01" purity="8.1298761069774628e-02" nType="-99"/>
            <Node pos="r" depth="3" NCoef="0" IVar="0" Cut="2.4109826087951660e+00" cType="1" res="-5.9173661284148693e-03" rms="1.9510906934738159e-01" purity="4.0415875613689423e-02" nType="0">
              <Node pos="l" depth="4" NCoef="0" IVar="4" Cut="8.9672751724720001e-02" cType="1" res="-2.0133617799729109e-03" rms="2.1434071660041809e-01" purity="4.9176234751939774e-02" nType="0">
                <Node pos="l" depth="5" NCoef="0" IVar="4" Cut="5.5177900940179825e-02" cType="1" res="-8.8762901723384857e-03" rms="1.6997246444225311e-01" purity="2.9859738424420357e-02" nType="0">
                  <Node pos="l" depth="6" NCoef="0" IVar="-1" Cut="0.0000000000000000e+00" cType="1" res="-9.8484102636575699e-03" rms="1.6051888465881348e-01" purity="2.6609824970364571e-02" nType="-99"/>
                  <Node pos="r" depth="6" NCoef="0" IVar="-1" Cut="0.0000000000000000e+00" cType="1" res="-4.0040998719632626e-03" rms="1.7765188217163086e-01" purity="3.2670024782419205e-02" nType="-99"/>
                </Node>
                <Node pos="r" depth="5" NCoef="0" IVar="2" Cut="3.8777532958984375e+02" cType="1" res="3.0643490608781576e-03" rms="2.4186183512210846e-01" purity="6.3468039035797119e-02" nType="0">
                  <Node pos="l" depth="6" NCoef="0" IVar="-1" Cut="0.0000000000000000e+00" cType="1" res="4.1521508246660233e-03" rms="2.4585559964179993e-01" purity="6.5726868808269501e-02" nType="-99"/>
                  <Node pos="r" depth="6" NCoef="0" IVar="-1" Cut="0.0000000000000000e+00" cType="1" res="-1.1039692908525467e-03" rms="2.3696263134479523e-01" purity="6.0809310525655746e-02" nType="-99"/>
                </Node>
              </Node>
              <Node pos="r" depth="4" NCoef="0" IVar="5" Cut="7.0000000000000000e+00" cType="1" res="-1.1295816861093044e-02" rms="1.6185849905014038e-01" purity="2.8541520237922668e-02" nType="0">
                <Node pos="l" depth="5" NCoef="0" IVar="3" Cut="2.2535625100135803e-01" cType="1" res="-6.2961014918982983e-04" rms="1.9338734447956085e-01" purity="3.9750311523675919e-02" nType="0">
                  <Node pos="l" depth="6" NCoef="0" IVar="-1" Cut="0.0000000000000000e+00" cType="1" res="4.1998988017439842e-03" rms="2.1302150189876556e-01" purity="4.8926819115877151e-02" nType="-99"/>
                  <Node pos="r" depth="6" NCoef="0" IVar="-1" Cut="0.0000000000000000e+00" cType="1" res="-5.4866210557520390e-03" rms="1.7286695539951324e-01" purity="3.1188312917947769e-02" nType="-99"/>
                </Node>
                <Node pos="r" depth="5" NCoef="0" IVar="2" Cut="2.5274407958984375e+02" cType="1" res="-2.1921142935752869e-02" rms="1.3014675676822662e-01" purity="1.7192292958498001e-02" nType="0">
                  <Node pos="l" depth="6" NCoef="0" IVar="-1" Cut="0.0000000000000000e+00" cType="1" res="-1.6728876158595085e-02" rms="1.2249454110860825e-01" purity="1.5274609439074993e-02" nType="-99"/>
                  <Node pos="r" depth="6" NCoef="0" IVar="-1" Cut="0.0000000000000000e+00" cType="1" res="-1.8926976248621941e-02" rms="1.3787125051021576e-01" purity="1.9321806728839874e-02" nType="-99"/>
                </Node>
              </Node>
            </Node>
          </Node>
          <Node pos="r" depth="2" NCoef="0" IVar="-1" Cut="0.0000000000000000e+00" cType="1" res="-9.5422100275754929e-03" rms="3.1511601805686951e-01" purity="1.1226122826337814e-01" nType="-99"/>
        </Node>
      </Node>
    </BinaryTree>
  </Weights>
</MethodSetup>
