<?xml version="1.0"?>
<MethodSetup Method="BDT::BDTG">
  <GeneralInfo>
    <Info name="TMVA Release" value="4.2.1 [262657]"/>
    <Info name="ROOT Release" value="6.14/04 [396804]"/>
    <Info name="Creator" value="unok"/>
    <Info name="Date" value="Mon Jan 14 15:45:44 2019"/>
    <Info name="Host" value="Linux lcgapp-slc6-x86-64-39.cern.ch 2.6.32-696.30.1.el6.x86_64 #1 SMP Tue May 22 06:09:36 CEST 2018 x86_64 x86_64 x86_64 GNU/Linux"/>
    <Info name="Dir" value="/gpfs/fs6001/unok/TMVA/2018/v142/V2/TMVA-0L"/>
    <Info name="Training events" value="579322"/>
    <Info name="TrainingTime" value="4.34014484e+02"/>
    <Info name="AnalysisType" value="Classification"/>
  </GeneralInfo>
  <Options>
    <Option name="V" modified="Yes">False</Option>
    <Option name="VerbosityLevel" modified="No">Default</Option>
    <Option name="VarTransform" modified="No">None</Option>
    <Option name="H" modified="Yes">False</Option>
    <Option name="CreateMVAPdfs" modified="No">False</Option>
    <Option name="IgnoreNegWeightsInTraining" modified="No">False</Option>
    <Option name="NTrees" modified="Yes">800</Option>
    <Option name="MaxDepth" modified="Yes">3</Option>
    <Option name="MinNodeSize" modified="Yes">2.500000%</Option>
    <Option name="nCuts" modified="Yes">20</Option>
    <Option name="BoostType" modified="Yes">Grad</Option>
    <Option name="AdaBoostR2Loss" modified="No">quadratic</Option>
    <Option name="UseBaggedBoost" modified="Yes">True</Option>
    <Option name="Shrinkage" modified="Yes">2.000000e-01</Option>
    <Option name="AdaBoostBeta" modified="No">5.000000e-01</Option>
    <Option name="UseRandomisedTrees" modified="No">False</Option>
    <Option name="UseNvars" modified="No">3</Option>
    <Option name="UsePoissonNvars" modified="No">True</Option>
    <Option name="BaggedSampleFraction" modified="Yes">5.000000e-01</Option>
    <Option name="UseYesNoLeaf" modified="No">True</Option>
    <Option name="NegWeightTreatment" modified="Yes">pray</Option>
    <Option name="Css" modified="No">1.000000e+00</Option>
    <Option name="Cts_sb" modified="No">1.000000e+00</Option>
    <Option name="Ctb_ss" modified="No">1.000000e+00</Option>
    <Option name="Cbb" modified="No">1.000000e+00</Option>
    <Option name="NodePurityLimit" modified="No">5.000000e-01</Option>
    <Option name="SeparationType" modified="No">giniindex</Option>
    <Option name="RegressionLossFunctionBDTG" modified="No">huber</Option>
    <Option name="HuberQuantile" modified="No">7.000000e-01</Option>
    <Option name="DoBoostMonitor" modified="No">False</Option>
    <Option name="UseFisherCuts" modified="No">False</Option>
    <Option name="MinLinCorrForFisher" modified="No">8.000000e-01</Option>
    <Option name="UseExclusiveVars" modified="No">False</Option>
    <Option name="DoPreselection" modified="No">False</Option>
    <Option name="SigToBkgFraction" modified="No">1.000000e+00</Option>
    <Option name="PruneMethod" modified="No">nopruning</Option>
    <Option name="PruneStrength" modified="No">0.000000e+00</Option>
    <Option name="PruningValFraction" modified="No">5.000000e-01</Option>
    <Option name="SkipNormalization" modified="No">False</Option>
    <Option name="nEventsMin" modified="No">0</Option>
    <Option name="UseBaggedGrad" modified="No">False</Option>
    <Option name="GradBaggingFraction" modified="No">5.000000e-01</Option>
    <Option name="UseNTrainEvents" modified="No">0</Option>
    <Option name="NNodesMax" modified="No">0</Option>
  </Options>
  <Variables NVar="11">
    <Variable VarIndex="0" Expression="met" Label="met" Title="E_{T}^{miss}" Unit="GeV" Internal="met" Type="F" Min="3.00000153e+02" Max="3.38961206e+03"/>
    <Variable VarIndex="1" Expression="meff" Label="meff" Title="m_{eff}(incl.)" Unit="GeV" Internal="meff" Type="F" Min="1.40000159e+03" Max="7.65699121e+03"/>
    <Variable VarIndex="2" Expression="Ap" Label="Ap" Title="Aplanarity" Unit="" Internal="Ap" Type="F" Min="1.19960191e-07" Max="4.48677927e-01"/>
    <Variable VarIndex="3" Expression="jetPt0" Label="jetPt0" Title="p_{T}(j_{1})" Unit="GeV" Internal="jetPt0" Type="F" Min="2.00231079e+02" Max="3.35724292e+03"/>
    <Variable VarIndex="4" Expression="jetPt1" Label="jetPt1" Title="p_{T}(j_{2})" Unit="GeV" Internal="jetPt1" Type="F" Min="5.24190292e+01" Max="2.04270520e+03"/>
    <Variable VarIndex="5" Expression="jetPt2" Label="jetPt2" Title="p_{T}(j_{3})" Unit="GeV" Internal="jetPt2" Type="F" Min="5.00359535e+01" Max="1.24157080e+03"/>
    <Variable VarIndex="6" Expression="jetPt3" Label="jetPt3" Title="p_{T}(j_{4})" Unit="GeV" Internal="jetPt3" Type="F" Min="5.00001678e+01" Max="9.92901489e+02"/>
    <Variable VarIndex="7" Expression="jetEta0" Label="jetEta0" Title="#eta(j_{1})" Unit="" Internal="jetEta0" Type="F" Min="-2.78269053e+00" Max="2.79919529e+00"/>
    <Variable VarIndex="8" Expression="jetEta1" Label="jetEta1" Title="#eta(j_{2})" Unit="" Internal="jetEta1" Type="F" Min="-2.79993296e+00" Max="2.79999733e+00"/>
    <Variable VarIndex="9" Expression="jetEta2" Label="jetEta2" Title="#eta(j_{3})" Unit="" Internal="jetEta2" Type="F" Min="-2.79990411e+00" Max="2.79983807e+00"/>
    <Variable VarIndex="10" Expression="jetEta3" Label="jetEta3" Title="#eta(j_{4})" Unit="" Internal="jetEta3" Type="F" Min="-2.79995584e+00" Max="2.79996443e+00"/>
  </Variables>
  <Spectators NSpec="0">
  </Spectators>
  <Classes NClass="2">
    <Class Name="Signal" Index="0"/>
    <Class Name="Background" Index="1"/>
  </Classes>
  <Transformations NTransformations="0"/>
  <MVAPdfs/>
  <Weights NTrees="800" AnalysisType="1">
    <BinaryTree type="DecisionTree" boostWeight="1.0000000000000000e+00" itree="0">
      <Node pos="s" depth="0" NCoef="0" IVar="1" Cut="2.2288681640625000e+03" cType="1" res="-1.4801030047237873e-03" rms="4.9999779462814331e-01" purity="4.9851989746093750e-01" nType="0">
        <Node pos="l" depth="1" NCoef="0" IVar="1" Cut="1.9920415039062500e+03" cType="1" res="-4.3818497657775879e-01" rms="2.4081929028034210e-01" purity="6.1815027147531509e-02" nType="0">
          <Node pos="l" depth="2" NCoef="0" IVar="1" Cut="1.7664906005859375e+03" cType="1" res="-4.6945458650588989e-01" rms="1.7208248376846313e-01" purity="3.0545402318239212e-02" nType="0">
            <Node pos="l" depth="3" NCoef="0" IVar="-1" Cut="0.0000000000000000e+00" cType="1" res="-1.9466379284858704e-01" rms="1.1472810059785843e-01" purity="1.3340506702661514e-02" nType="-99"/>
            <Node pos="r" depth="3" NCoef="0" IVar="-1" Cut="0.0000000000000000e+00" cType="1" res="-1.5652258694171906e-01" rms="3.1125432252883911e-01" purity="1.0869352519512177e-01" nType="-99"/>
          </Node>
          <Node pos="r" depth="2" NCoef="0" IVar="-1" Cut="0.0000000000000000e+00" cType="1" res="-5.8854732662439346e-02" rms="4.7786059975624084e-01" purity="3.5286316275596619e-01" nType="-99"/>
        </Node>
        <Node pos="r" depth="1" NCoef="0" IVar="1" Cut="2.4657075195312500e+03" cType="1" res="4.3829697370529175e-01" rms="2.4061538279056549e-01" purity="9.3829697370529175e-01" nType="0">
          <Node pos="l" depth="2" NCoef="0" IVar="-1" Cut="0.0000000000000000e+00" cType="1" res="5.9929940849542618e-02" rms="4.7702464461326599e-01" purity="6.4982485771179199e-01" nType="-99"/>
          <Node pos="r" depth="2" NCoef="0" IVar="5" Cut="2.2044764709472656e+02" cType="1" res="4.6584278345108032e-01" rms="1.8163289129734039e-01" purity="9.6584278345108032e-01" nType="0">
            <Node pos="l" depth="3" NCoef="0" IVar="-1" Cut="0.0000000000000000e+00" cType="1" res="1.3757210969924927e-01" rms="3.6292141675949097e-01" purity="8.4393030405044556e-01" nType="-99"/>
            <Node pos="r" depth="3" NCoef="0" IVar="-1" Cut="0.0000000000000000e+00" cType="1" res="1.9266524910926819e-01" rms="1.3416644930839539e-01" purity="9.8166310787200928e-01" nType="-99"/>
          </Node>
        </Node>
      </Node>
    </BinaryTree>
    <BinaryTree type="DecisionTree" boostWeight="1.0000000000000000e+00" itree="1">
      <Node pos="s" depth="0" NCoef="0" IVar="1" Cut="2.2267888183593750e+03" cType="1" res="-1.5815834049135447e-03" rms="4.2191740870475769e-01" purity="4.9821731448173523e-01" nType="0">
        <Node pos="l" depth="1" NCoef="0" IVar="1" Cut="1.9118208007812500e+03" cType="1" res="-3.5370656847953796e-01" rms="2.2949402034282684e-01" purity="5.9682007879018784e-02" nType="0">
          <Node pos="l" depth="2" NCoef="0" IVar="1" Cut="1.7655870361328125e+03" cType="1" res="-3.8281390070915222e-01" rms="1.5044189989566803e-01" purity="2.3496812209486961e-02" nType="0">
            <Node pos="l" depth="3" NCoef="0" IVar="-1" Cut="0.0000000000000000e+00" cType="1" res="-1.6253173351287842e-01" rms="1.1139391362667084e-01" purity="1.2566521763801575e-02" nType="-99"/>
            <Node pos="r" depth="3" NCoef="0" IVar="-1" Cut="0.0000000000000000e+00" cType="1" res="-1.3415589928627014e-01" rms="2.9308721423149109e-01" purity="9.4937071204185486e-02" nType="-99"/>
          </Node>
          <Node pos="r" depth="2" NCoef="0" IVar="2" Cut="3.7071336060762405e-02" cType="1" res="-1.8037670850753784e-01" rms="4.4320589303970337e-01" purity="2.7515944838523865e-01" nType="0">
            <Node pos="l" depth="3" NCoef="0" IVar="-1" Cut="0.0000000000000000e+00" cType="1" res="-1.2059967219829559e-01" rms="3.6084145307540894e-01" purity="1.5531089901924133e-01" nType="-99"/>
            <Node pos="r" depth="3" NCoef="0" IVar="-1" Cut="0.0000000000000000e+00" cType="1" res="7.3814555071294308e-03" rms="4.9512988328933716e-01" purity="4.7714832425117493e-01" nType="-99"/>
          </Node>
        </Node>
        <Node pos="r" depth="1" NCoef="0" IVar="1" Cut="2.6992492675781250e+03" cType="1" res="3.5157293081283569e-01" rms="2.3378399014472961e-01" purity="9.3803483247756958e-01" nType="0">
          <Node pos="l" depth="2" NCoef="0" IVar="5" Cut="2.1445269775390625e+02" cType="1" res="1.9554877281188965e-01" rms="4.2223286628723145e-01" purity="7.5596123933792114e-01" nType="0">
            <Node pos="l" depth="3" NCoef="0" IVar="-1" Cut="0.0000000000000000e+00" cType="1" res="-1.0748815722763538e-02" rms="4.9484297633171082e-01" purity="5.2016943693161011e-01" nType="-99"/>
            <Node pos="r" depth="3" NCoef="0" IVar="-1" Cut="0.0000000000000000e+00" cType="1" res="1.1594439297914505e-01" rms="3.5295626521110535e-01" purity="8.4941542148590088e-01" nType="-99"/>
          </Node>
          <Node pos="r" depth="2" NCoef="0" IVar="6" Cut="9.4902191162109375e+01" cType="1" res="3.8757637143135071e-01" rms="1.3861447572708130e-01" purity="9.8004937171936035e-01" nType="0">
            <Node pos="l" depth="3" NCoef="0" IVar="-1" Cut="0.0000000000000000e+00" cType="1" res="1.3460473716259003e-01" rms="2.7999299764633179e-01" purity="9.1231608390808105e-01" nType="-99"/>
            <Node pos="r" depth="3" NCoef="0" IVar="-1" Cut="0.0000000000000000e+00" cType="1" res="1.6332164406776428e-01" rms="1.1189272999763489e-01" purity="9.8720902204513550e-01" nType="-99"/>
          </Node>
        </Node>
      </Node>
    </BinaryTree>
    <BinaryTree type="DecisionTree" boostWeight="1.0000000000000000e+00" itree="2">
      <Node pos="s" depth="0" NCoef="0" IVar="1" Cut="2.2938605957031250e+03" cType="1" res="1.1894853087142110e-03" rms="3.6309871077537537e-01" purity="5.0046145915985107e-01" nType="0">
        <Node pos="l" depth="1" NCoef="0" IVar="1" Cut="2.0384683837890625e+03" cType="1" res="-2.7485129237174988e-01" rms="2.4344469606876373e-01" purity="7.5546510517597198e-02" nType="0">
          <Node pos="l" depth="2" NCoef="0" IVar="5" Cut="2.2535491943359375e+02" cType="1" res="-2.9887676239013672e-01" rms="1.8749570846557617e-01" purity="3.8710623979568481e-02" nType="0">
            <Node pos="l" depth="3" NCoef="0" IVar="-1" Cut="0.0000000000000000e+00" cType="1" res="-1.4088296890258789e-01" rms="1.4322121441364288e-01" purity="2.2111849859356880e-02" nType="-99"/>
            <Node pos="r" depth="3" NCoef="0" IVar="-1" Cut="0.0000000000000000e+00" cType="1" res="-9.8684027791023254e-02" rms="3.2213133573532104e-01" purity="1.2437457591295242e-01" nType="-99"/>
          </Node>
          <Node pos="r" depth="2" NCoef="0" IVar="1" Cut="2.1600827636718750e+03" cType="1" res="-5.5718112736940384e-02" rms="4.7528058290481567e-01" purity="4.1152203083038330e-01" nType="0">
            <Node pos="l" depth="3" NCoef="0" IVar="-1" Cut="0.0000000000000000e+00" cType="1" res="-5.0818365067243576e-02" rms="4.5375084877014160e-01" purity="3.1052884459495544e-01" nType="-99"/>
            <Node pos="r" depth="3" NCoef="0" IVar="-1" Cut="0.0000000000000000e+00" cType="1" res="6.1352932825684547e-03" rms="4.8644185066223145e-01" purity="5.1557117700576782e-01" nType="-99"/>
          </Node>
        </Node>
        <Node pos="r" depth="1" NCoef="0" IVar="5" Cut="2.1269895935058594e+02" cType="1" res="2.9294359683990479e-01" rms="2.0710103213787079e-01" purity="9.4956433773040771e-01" nType="0">
          <Node pos="l" depth="2" NCoef="0" IVar="5" Cut="1.6621699523925781e+02" cType="1" res="1.5520393848419189e-01" rms="4.0922081470489502e-01" purity="7.5914454460144043e-01" nType="0">
            <Node pos="l" depth="3" NCoef="0" IVar="-1" Cut="0.0000000000000000e+00" cType="1" res="1.9512895494699478e-02" rms="4.5964640378952026e-01" purity="6.4251720905303955e-01" nType="-99"/>
            <Node pos="r" depth="3" NCoef="0" IVar="-1" Cut="0.0000000000000000e+00" cType="1" res="1.0953919589519501e-01" rms="3.2307237386703491e-01" purity="8.6930847167968750e-01" nType="-99"/>
          </Node>
          <Node pos="r" depth="2" NCoef="0" IVar="1" Cut="2.8047370605468750e+03" cType="1" res="3.1021437048912048e-01" rms="1.5682505071163177e-01" purity="9.7344046831130981e-01" nType="0">
            <Node pos="l" depth="3" NCoef="0" IVar="-1" Cut="0.0000000000000000e+00" cType="1" res="1.1319952458143234e-01" rms="3.0080500245094299e-01" purity="8.9648240804672241e-01" nType="-99"/>
            <Node pos="r" depth="3" NCoef="0" IVar="-1" Cut="0.0000000000000000e+00" cType="1" res="1.4535000920295715e-01" rms="9.3577593564987183e-02" purity="9.9113667011260986e-01" nType="-99"/>
          </Node>
        </Node>
      </Node>
    </BinaryTree>
    <BinaryTree type="DecisionTree" boostWeight="1.0000000000000000e+00" itree="3">
      <Node pos="s" depth="0" NCoef="0" IVar="1" Cut="2.2938605957031250e+03" cType="1" res="8.5122528253123164e-04" rms="3.2047718763351440e-01" purity="4.9991658329963684e-01" nType="0">
        <Node pos="l" depth="1" NCoef="0" IVar="1" Cut="1.8682087402343750e+03" cType="1" res="-2.2135521471500397e-01" rms="2.4105110764503479e-01" purity="7.6028570532798767e-02" nType="0">
          <Node pos="l" depth="2" NCoef="0" IVar="1" Cut="1.6452523193359375e+03" cType="1" res="-2.5022235512733459e-01" rms="1.5361383557319641e-01" purity="2.4705771356821060e-02" nType="0">
            <Node pos="l" depth="3" NCoef="0" IVar="-1" Cut="0.0000000000000000e+00" cType="1" res="-1.3308019936084747e-01" rms="9.0764209628105164e-02" purity="8.3224335685372353e-03" nType="-99"/>
            <Node pos="r" depth="3" NCoef="0" IVar="-1" Cut="0.0000000000000000e+00" cType="1" res="-1.0749901086091995e-01" rms="2.4545291066169739e-01" purity="6.5347030758857727e-02" nType="-99"/>
          </Node>
          <Node pos="r" depth="2" NCoef="0" IVar="6" Cut="1.4624096679687500e+02" cType="1" res="-9.8574437201023102e-02" rms="4.3157985806465149e-01" purity="2.9432019591331482e-01" nType="0">
            <Node pos="l" depth="3" NCoef="0" IVar="-1" Cut="0.0000000000000000e+00" cType="1" res="-7.9742878675460815e-02" rms="3.7936887145042419e-01" purity="1.9621327519416809e-01" nType="-99"/>
            <Node pos="r" depth="3" NCoef="0" IVar="-1" Cut="0.0000000000000000e+00" cType="1" res="3.8567129522562027e-02" rms="4.7923734784126282e-01" purity="5.1563197374343872e-01" nType="-99"/>
          </Node>
        </Node>
        <Node pos="r" depth="1" NCoef="0" IVar="1" Cut="2.5492595214843750e+03" cType="1" res="2.3604349792003632e-01" rms="2.0575571060180664e-01" purity="9.4857662916183472e-01" nType="0">
          <Node pos="l" depth="2" NCoef="0" IVar="-1" Cut="0.0000000000000000e+00" cType="1" res="4.4998455792665482e-02" rms="4.2003533244132996e-01" purity="7.3852109909057617e-01" nType="-99"/>
          <Node pos="r" depth="2" NCoef="0" IVar="2" Cut="2.1366285160183907e-02" cType="1" res="2.5052168965339661e-01" rms="1.6001936793327332e-01" purity="9.7143703699111938e-01" nType="0">
            <Node pos="l" depth="3" NCoef="0" IVar="-1" Cut="0.0000000000000000e+00" cType="1" res="9.6069470047950745e-02" rms="2.7950862050056458e-01" purity="9.0498954057693481e-01" nType="-99"/>
            <Node pos="r" depth="3" NCoef="0" IVar="-1" Cut="0.0000000000000000e+00" cType="1" res="1.3154260814189911e-01" rms="1.1455035954713821e-01" purity="9.8625701665878296e-01" nType="-99"/>
          </Node>
        </Node>
      </Node>
    </BinaryTree>
    <BinaryTree type="DecisionTree" boostWeight="1.0000000000000000e+00" itree="4">
      <Node pos="s" depth="0" NCoef="0" IVar="1" Cut="2.2938591308593750e+03" cType="1" res="-2.8237188234925270e-04" rms="2.8989586234092712e-01" purity="4.9735718965530396e-01" nType="0">
        <Node pos="l" depth="1" NCoef="0" IVar="1" Cut="2.0810280761718750e+03" cType="1" res="-1.7683416604995728e-01" rms="2.3985379934310913e-01" purity="7.9502478241920471e-02" nType="0">
          <Node pos="l" depth="2" NCoef="0" IVar="5" Cut="2.4314523315429688e+02" cType="1" res="-1.9315172731876373e-01" rms="2.0015443861484528e-01" purity="4.6464331448078156e-02" nType="0">
            <Node pos="l" depth="3" NCoef="0" IVar="-1" Cut="0.0000000000000000e+00" cType="1" res="-1.1378472298383713e-01" rms="1.6907295584678650e-01" purity="3.1265106052160263e-02" nType="-99"/>
            <Node pos="r" depth="3" NCoef="0" IVar="-1" Cut="0.0000000000000000e+00" cType="1" res="-6.0005575418472290e-02" rms="3.4693139791488647e-01" purity="1.6113738715648651e-01" nType="-99"/>
          </Node>
          <Node pos="r" depth="2" NCoef="0" IVar="-1" Cut="0.0000000000000000e+00" cType="1" res="6.4219986088573933e-03" rms="4.7253307700157166e-01" purity="4.6890196204185486e-01" nType="-99"/>
        </Node>
        <Node pos="r" depth="1" NCoef="0" IVar="5" Cut="1.6356753540039062e+02" cType="1" res="1.8958285450935364e-01" rms="2.0731274783611298e-01" purity="9.4672149419784546e-01" nType="0">
          <Node pos="l" depth="2" NCoef="0" IVar="-1" Cut="0.0000000000000000e+00" cType="1" res="-3.3568902872502804e-03" rms="4.5295801758766174e-01" purity="6.4421498775482178e-01" nType="-99"/>
          <Node pos="r" depth="2" NCoef="0" IVar="1" Cut="2.8046335449218750e+03" cType="1" res="2.0105735957622528e-01" rms="1.7647317051887512e-01" purity="9.6433299779891968e-01" nType="0">
            <Node pos="l" depth="3" NCoef="0" IVar="-1" Cut="0.0000000000000000e+00" cType="1" res="7.5104087591171265e-02" rms="3.2998257875442505e-01" purity="8.6636966466903687e-01" nType="-99"/>
            <Node pos="r" depth="3" NCoef="0" IVar="-1" Cut="0.0000000000000000e+00" cType="1" res="1.2249066680669785e-01" rms="1.0585216432809830e-01" purity="9.8848885297775269e-01" nType="-99"/>
          </Node>
        </Node>
      </Node>
    </BinaryTree>
    <BinaryTree type="DecisionTree" boostWeight="1.0000000000000000e+00" itree="5">
      <Node pos="s" depth="0" NCoef="0" IVar="1" Cut="2.2938671875000000e+03" cType="1" res="-1.0135208722203970e-03" rms="2.6713946461677551e-01" purity="5.0020068883895874e-01" nType="0">
        <Node pos="l" depth="1" NCoef="0" IVar="5" Cut="2.3697785949707031e+02" cType="1" res="-1.4955310523509979e-01" rms="2.3126135766506195e-01" purity="7.2531320154666901e-02" nType="0">
          <Node pos="l" depth="2" NCoef="0" IVar="6" Cut="1.1207694244384766e+02" cType="1" res="-1.6622677445411682e-01" rms="1.8542957305908203e-01" purity="4.1139457374811172e-02" nType="0">
            <Node pos="l" depth="3" NCoef="0" IVar="-1" Cut="0.0000000000000000e+00" cType="1" res="-1.1219602078199387e-01" rms="1.4668376743793488e-01" purity="2.4700384587049484e-02" nType="-99"/>
            <Node pos="r" depth="3" NCoef="0" IVar="-1" Cut="0.0000000000000000e+00" cType="1" res="-8.2278639078140259e-02" rms="2.5334411859512329e-01" purity="8.0919437110424042e-02" nType="-99"/>
          </Node>
          <Node pos="r" depth="2" NCoef="0" IVar="1" Cut="1.9107698974609375e+03" cType="1" res="-5.6895200163125992e-02" rms="3.8662630319595337e-01" purity="2.4698023498058319e-01" nType="0">
            <Node pos="l" depth="3" NCoef="0" IVar="-1" Cut="0.0000000000000000e+00" cType="1" res="-7.6853811740875244e-02" rms="2.8514587879180908e-01" purity="9.2253148555755615e-02" nType="-99"/>
            <Node pos="r" depth="3" NCoef="0" IVar="-1" Cut="0.0000000000000000e+00" cType="1" res="2.5305226445198059e-02" rms="4.7869116067886353e-01" purity="4.7862556576728821e-01" nType="-99"/>
          </Node>
        </Node>
        <Node pos="r" depth="1" NCoef="0" IVar="5" Cut="1.6351545715332031e+02" cType="1" res="1.5354624390602112e-01" rms="2.0766063034534454e-01" purity="9.4520324468612671e-01" nType="0">
          <Node pos="l" depth="2" NCoef="0" IVar="-1" Cut="0.0000000000000000e+00" cType="1" res="-4.5140623115003109e-03" rms="4.5734935998916626e-01" purity="6.3463443517684937e-01" nType="-99"/>
          <Node pos="r" depth="2" NCoef="0" IVar="1" Cut="2.8046413574218750e+03" cType="1" res="1.6346743702888489e-01" rms="1.7702716588973999e-01" purity="9.6402198076248169e-01" nType="0">
            <Node pos="l" depth="3" NCoef="0" IVar="-1" Cut="0.0000000000000000e+00" cType="1" res="6.4449496567249298e-02" rms="3.3351612091064453e-01" purity="8.6452925205230713e-01" nType="-99"/>
            <Node pos="r" depth="3" NCoef="0" IVar="-1" Cut="0.0000000000000000e+00" cType="1" res="1.1546036601066589e-01" rms="1.0359322279691696e-01" purity="9.8900222778320312e-01" nType="-99"/>
          </Node>
        </Node>
      </Node>
    </BinaryTree>
    <BinaryTree type="DecisionTree" boostWeight="1.0000000000000000e+00" itree="6">
      <Node pos="s" depth="0" NCoef="0" IVar="1" Cut="2.1988242187500000e+03" cType="1" res="-1.8562677723821253e-04" rms="2.4966701865196228e-01" purity="4.9806147813796997e-01" nType="0">
        <Node pos="l" depth="1" NCoef="0" IVar="6" Cut="1.6228146362304688e+02" cType="1" res="-1.2402621656656265e-01" rms="2.1688731014728546e-01" purity="6.0428462922573090e-02" nType="0">
          <Node pos="l" depth="2" NCoef="0" IVar="2" Cut="5.6437220424413681e-02" cType="1" res="-1.3509930670261383e-01" rms="1.8821412324905396e-01" purity="4.1331306099891663e-02" nType="0">
            <Node pos="l" depth="3" NCoef="0" IVar="-1" Cut="0.0000000000000000e+00" cType="1" res="-1.0045894235372543e-01" rms="1.6680876910686493e-01" purity="3.1378410756587982e-02" nType="-99"/>
            <Node pos="r" depth="3" NCoef="0" IVar="-1" Cut="0.0000000000000000e+00" cType="1" res="-6.6483393311500549e-02" rms="2.6724672317504883e-01" purity="9.0518027544021606e-02" nType="-99"/>
          </Node>
          <Node pos="r" depth="2" NCoef="0" IVar="1" Cut="1.7423731689453125e+03" cType="1" res="-2.9893442988395691e-02" rms="3.6862036585807800e-01" purity="2.2277416288852692e-01" nType="0">
            <Node pos="l" depth="3" NCoef="0" IVar="-1" Cut="0.0000000000000000e+00" cType="1" res="-8.4285400807857513e-02" rms="2.1918253600597382e-01" purity="5.1462415605783463e-02" nType="-99"/>
            <Node pos="r" depth="3" NCoef="0" IVar="-1" Cut="0.0000000000000000e+00" cType="1" res="2.5935912504792213e-02" rms="4.5168754458427429e-01" purity="3.8401621580123901e-01" nType="-99"/>
          </Node>
        </Node>
        <Node pos="r" depth="1" NCoef="0" IVar="5" Cut="1.5555715942382812e+02" cType="1" res="1.2310164421796799e-01" rms="2.1700479090213776e-01" purity="9.3373918533325195e-01" nType="0">
          <Node pos="l" depth="2" NCoef="0" IVar="-1" Cut="0.0000000000000000e+00" cType="1" res="-3.0251691117882729e-02" rms="4.5950996875762939e-01" purity="5.3356736898422241e-01" nType="-99"/>
          <Node pos="r" depth="2" NCoef="0" IVar="6" Cut="1.3980035400390625e+02" cType="1" res="1.3317012786865234e-01" rms="1.9095373153686523e-01" purity="9.5469284057617188e-01" nType="0">
            <Node pos="l" depth="3" NCoef="0" IVar="-1" Cut="0.0000000000000000e+00" cType="1" res="5.9929307550191879e-02" rms="2.8648898005485535e-01" purity="8.8801926374435425e-01" nType="-99"/>
            <Node pos="r" depth="3" NCoef="0" IVar="-1" Cut="0.0000000000000000e+00" cType="1" res="1.0391663014888763e-01" rms="1.5222907066345215e-01" purity="9.7325581312179565e-01" nType="-99"/>
          </Node>
        </Node>
      </Node>
    </BinaryTree>
    <BinaryTree type="DecisionTree" boostWeight="1.0000000000000000e+00" itree="7">
      <Node pos="s" depth="0" NCoef="0" IVar="1" Cut="2.5918149414062500e+03" cType="1" res="-1.1514899088069797e-03" rms="2.3710845410823822e-01" purity="4.9738645553588867e-01" nType="0">
        <Node pos="l" depth="1" NCoef="0" IVar="5" Cut="2.5850048828125000e+02" cType="1" res="-8.8184483349323273e-02" rms="2.5118234753608704e-01" purity="1.4257949590682983e-01" nType="0">
          <Node pos="l" depth="2" NCoef="0" IVar="3" Cut="8.3241912841796875e+02" cType="1" res="-1.1146985739469528e-01" rms="2.1220578253269196e-01" purity="7.3055438697338104e-02" nType="0">
            <Node pos="l" depth="3" NCoef="0" IVar="-1" Cut="0.0000000000000000e+00" cType="1" res="-8.1182323396205902e-02" rms="2.0052303373813629e-01" purity="6.7887470126152039e-02" nType="-99"/>
            <Node pos="r" depth="3" NCoef="0" IVar="-1" Cut="0.0000000000000000e+00" cType="1" res="-1.2193495035171509e-01" rms="3.3589380979537964e-01" purity="1.6351506114006042e-01" nType="-99"/>
          </Node>
          <Node pos="r" depth="2" NCoef="0" IVar="6" Cut="1.4576702880859375e+02" cType="1" res="3.9475131779909134e-02" rms="3.7794440984725952e-01" purity="5.2373784780502319e-01" nType="0">
            <Node pos="l" depth="3" NCoef="0" IVar="-1" Cut="0.0000000000000000e+00" cType="1" res="-3.0855489894747734e-02" rms="3.6560451984405518e-01" purity="3.0902081727981567e-01" nType="-99"/>
            <Node pos="r" depth="3" NCoef="0" IVar="-1" Cut="0.0000000000000000e+00" cType="1" res="6.2050022184848785e-02" rms="3.7077206373214722e-01" purity="7.0273786783218384e-01" nType="-99"/>
          </Node>
        </Node>
        <Node pos="r" depth="1" NCoef="0" IVar="1" Cut="3.0742233886718750e+03" cType="1" res="1.1563672870397568e-01" rms="1.5229864418506622e-01" purity="9.7349637746810913e-01" nType="0">
          <Node pos="l" depth="2" NCoef="0" IVar="3" Cut="8.9035131835937500e+02" cType="1" res="8.7986551225185394e-02" rms="2.4579070508480072e-01" purity="9.2649424076080322e-01" nType="0">
            <Node pos="l" depth="3" NCoef="0" IVar="-1" Cut="0.0000000000000000e+00" cType="1" res="9.1577544808387756e-02" rms="1.8616192042827606e-01" purity="9.6351265907287598e-01" nType="-99"/>
            <Node pos="r" depth="3" NCoef="0" IVar="-1" Cut="0.0000000000000000e+00" cType="1" res="5.6631927145645022e-04" rms="3.5616108775138855e-01" purity="8.1641501188278198e-01" nType="-99"/>
          </Node>
          <Node pos="r" depth="2" NCoef="0" IVar="5" Cut="2.6126010131835938e+02" cType="1" res="1.2560595571994781e-01" rms="9.6958145499229431e-02" purity="9.9044287204742432e-01" nType="0">
            <Node pos="l" depth="3" NCoef="0" IVar="-1" Cut="0.0000000000000000e+00" cType="1" res="9.9701873958110809e-02" rms="1.9507431983947754e-01" purity="9.6069103479385376e-01" nType="-99"/>
            <Node pos="r" depth="3" NCoef="0" IVar="-1" Cut="0.0000000000000000e+00" cType="1" res="1.1026713252067566e-01" rms="6.9856211543083191e-02" purity="9.9507844448089600e-01" nType="-99"/>
          </Node>
        </Node>
      </Node>
    </BinaryTree>
    <BinaryTree type="DecisionTree" boostWeight="1.0000000000000000e+00" itree="8">
      <Node pos="s" depth="0" NCoef="0" IVar="1" Cut="1.9608648681640625e+03" cType="1" res="5.0885480595752597e-04" rms="2.3105868697166443e-01" purity="4.9846050143241882e-01" nType="0">
        <Node pos="l" depth="1" NCoef="0" IVar="1" Cut="1.6937863769531250e+03" cType="1" res="-9.5350369811058044e-02" rms="1.6947978734970093e-01" purity="3.1401604413986206e-02" nType="0">
          <Node pos="l" depth="2" NCoef="0" IVar="1" Cut="1.5818674316406250e+03" cType="1" res="-1.0654434561729431e-01" rms="1.0772689431905746e-01" purity="1.1881024576723576e-02" nType="0">
            <Node pos="l" depth="3" NCoef="0" IVar="-1" Cut="0.0000000000000000e+00" cType="1" res="-1.0765055567026138e-01" rms="7.7011220157146454e-02" purity="5.9157074429094791e-03" nType="-99"/>
            <Node pos="r" depth="3" NCoef="0" IVar="-1" Cut="0.0000000000000000e+00" cType="1" res="-8.8301047682762146e-02" rms="1.6270440816879272e-01" purity="2.7720371261239052e-02" nType="-99"/>
          </Node>
          <Node pos="r" depth="2" NCoef="0" IVar="3" Cut="5.4343322753906250e+02" cType="1" res="-6.2938354909420013e-02" rms="2.7726501226425171e-01" purity="8.7923176586627960e-02" nType="0">
            <Node pos="l" depth="3" NCoef="0" IVar="-1" Cut="0.0000000000000000e+00" cType="1" res="-1.2876762077212334e-02" rms="3.5151779651641846e-01" purity="1.4917096495628357e-01" nType="-99"/>
            <Node pos="r" depth="3" NCoef="0" IVar="-1" Cut="0.0000000000000000e+00" cType="1" res="-7.8440979123115540e-02" rms="2.0712089538574219e-01" purity="4.6432632952928543e-02" nType="-99"/>
          </Node>
        </Node>
        <Node pos="r" depth="1" NCoef="0" IVar="2" Cut="2.0896555855870247e-02" cType="1" res="7.6476134359836578e-02" rms="2.4470679461956024e-01" purity="8.6859899759292603e-01" nType="0">
          <Node pos="l" depth="2" NCoef="0" IVar="1" Cut="2.9564123535156250e+03" cType="1" res="1.3249320909380913e-03" rms="3.3598217368125916e-01" purity="6.7372334003448486e-01" nType="0">
            <Node pos="l" depth="3" NCoef="0" IVar="-1" Cut="0.0000000000000000e+00" cType="1" res="-4.4806506484746933e-02" rms="4.0404856204986572e-01" purity="4.2869374155998230e-01" nType="-99"/>
            <Node pos="r" depth="3" NCoef="0" IVar="-1" Cut="0.0000000000000000e+00" cType="1" res="8.3048351109027863e-02" rms="1.9397842884063721e-01" purity="9.5786345005035400e-01" nType="-99"/>
          </Node>
          <Node pos="r" depth="2" NCoef="0" IVar="6" Cut="9.4901565551757812e+01" cType="1" res="9.8640128970146179e-02" rms="2.0516507327556610e-01" purity="9.2607277631759644e-01" nType="0">
            <Node pos="l" depth="3" NCoef="0" IVar="-1" Cut="0.0000000000000000e+00" cType="1" res="3.1806915998458862e-02" rms="3.2025462388992310e-01" purity="7.4309140443801880e-01" nType="-99"/>
            <Node pos="r" depth="3" NCoef="0" IVar="-1" Cut="0.0000000000000000e+00" cType="1" res="8.9588463306427002e-02" rms="1.9007606804370880e-01" purity="9.4334524869918823e-01" nType="-99"/>
          </Node>
        </Node>
      </Node>
    </BinaryTree>
    <BinaryTree type="DecisionTree" boostWeight="1.0000000000000000e+00" itree="9">
      <Node pos="s" depth="0" NCoef="0" IVar="1" Cut="2.5051569824218750e+03" cType="1" res="1.0691848583519459e-03" rms="2.2222016751766205e-01" purity="4.9938598275184631e-01" nType="0">
        <Node pos="l" depth="1" NCoef="0" IVar="1" Cut="1.8210102539062500e+03" cType="1" res="-6.1861030757427216e-02" rms="2.4482221901416779e-01" purity="1.1904312670230865e-01" nType="0">
          <Node pos="l" depth="2" NCoef="0" IVar="1" Cut="1.5804309082031250e+03" cType="1" res="-8.0508179962635040e-02" rms="1.4566583931446075e-01" purity="2.2398391738533974e-02" nType="0">
            <Node pos="l" depth="3" NCoef="0" IVar="-1" Cut="0.0000000000000000e+00" cType="1" res="-1.0382419079542160e-01" rms="7.7741660177707672e-02" purity="6.0411938466131687e-03" nType="-99"/>
            <Node pos="r" depth="3" NCoef="0" IVar="-1" Cut="0.0000000000000000e+00" cType="1" res="-6.5479449927806854e-02" rms="2.1068692207336426e-01" purity="4.7781821340322495e-02" nType="-99"/>
          </Node>
          <Node pos="r" depth="2" NCoef="0" IVar="3" Cut="6.9095819091796875e+02" cType="1" res="-1.3455628417432308e-02" rms="3.9648750424385071e-01" purity="3.6991938948631287e-01" nType="0">
            <Node pos="l" depth="3" NCoef="0" IVar="-1" Cut="0.0000000000000000e+00" cType="1" res="2.7314202859997749e-02" rms="4.0948575735092163e-01" purity="4.5198896527290344e-01" nType="-99"/>
            <Node pos="r" depth="3" NCoef="0" IVar="-1" Cut="0.0000000000000000e+00" cType="1" res="-6.0302495956420898e-02" rms="3.5796016454696655e-01" purity="2.5064021348953247e-01" nType="-99"/>
          </Node>
        </Node>
        <Node pos="r" depth="1" NCoef="0" IVar="6" Cut="9.4900291442871094e+01" cType="1" res="7.8719958662986755e-02" rms="1.5949982404708862e-01" purity="9.6869808435440063e-01" nType="0">
          <Node pos="l" depth="2" NCoef="0" IVar="-1" Cut="0.0000000000000000e+00" cType="1" res="2.2330403327941895e-02" rms="3.1529057025909424e-01" purity="8.5409086942672729e-01" nType="-99"/>
          <Node pos="r" depth="2" NCoef="0" IVar="0" Cut="1.0093806152343750e+03" cType="1" res="8.3916418254375458e-02" rms="1.3112287223339081e-01" purity="9.8104602098464966e-01" nType="0">
            <Node pos="l" depth="3" NCoef="0" IVar="-1" Cut="0.0000000000000000e+00" cType="1" res="8.2135282456874847e-02" rms="1.6631110012531281e-01" purity="9.6911966800689697e-01" nType="-99"/>
            <Node pos="r" depth="3" NCoef="0" IVar="-1" Cut="0.0000000000000000e+00" cType="1" res="1.0107571631669998e-01" rms="9.4499275088310242e-02" purity="9.9041128158569336e-01" nType="-99"/>
          </Node>
        </Node>
      </Node>
    </BinaryTree>
    <BinaryTree type="DecisionTree" boostWeight="1.0000000000000000e+00" itree="10">
      <Node pos="s" depth="0" NCoef="0" IVar="1" Cut="1.9959090576171875e+03" cType="1" res="-2.5325358728878200e-04" rms="2.1725136041641235e-01" purity="4.9757486581802368e-01" nType="0">
        <Node pos="l" depth="1" NCoef="0" IVar="6" Cut="1.7717910766601562e+02" cType="1" res="-6.3081853091716766e-02" rms="1.7381720244884491e-01" purity="3.6059260368347168e-02" nType="0">
          <Node pos="l" depth="2" NCoef="0" IVar="1" Cut="1.7405080566406250e+03" cType="1" res="-6.7353077232837677e-02" rms="1.5640187263488770e-01" purity="2.7255563065409660e-02" nType="0">
            <Node pos="l" depth="3" NCoef="0" IVar="-1" Cut="0.0000000000000000e+00" cType="1" res="-9.5306545495986938e-02" rms="1.0289203375577927e-01" purity="1.0811305604875088e-02" nType="-99"/>
            <Node pos="r" depth="3" NCoef="0" IVar="-1" Cut="0.0000000000000000e+00" cType="1" res="-3.7991065531969070e-02" rms="2.8116327524185181e-01" purity="9.2779725790023804e-02" nType="-99"/>
          </Node>
          <Node pos="r" depth="2" NCoef="0" IVar="-1" Cut="0.0000000000000000e+00" cType="1" res="6.9709252566099167e-03" rms="3.4946206212043762e-01" purity="1.8525533378124237e-01" nType="-99"/>
        </Node>
        <Node pos="r" depth="1" NCoef="0" IVar="0" Cut="6.0140301513671875e+02" cType="1" res="5.2069097757339478e-02" rms="2.3519895970821381e-01" purity="8.8191545009613037e-01" nType="0">
          <Node pos="l" depth="2" NCoef="0" IVar="-1" Cut="0.0000000000000000e+00" cType="1" res="-2.2100860252976418e-02" rms="4.0101292729377747e-01" purity="5.5919069051742554e-01" nType="-99"/>
          <Node pos="r" depth="2" NCoef="0" IVar="5" Cut="1.6356753540039062e+02" cType="1" res="6.2033820897340775e-02" rms="2.0672921836376190e-01" purity="9.1733354330062866e-01" nType="0">
            <Node pos="l" depth="3" NCoef="0" IVar="-1" Cut="0.0000000000000000e+00" cType="1" res="-1.5285483561456203e-02" rms="4.0239104628562927e-01" purity="4.7587686777114868e-01" nType="-99"/>
            <Node pos="r" depth="3" NCoef="0" IVar="-1" Cut="0.0000000000000000e+00" cType="1" res="7.7839225530624390e-02" rms="1.7906619608402252e-01" purity="9.5403993129730225e-01" nType="-99"/>
          </Node>
        </Node>
      </Node>
    </BinaryTree>
    <BinaryTree type="DecisionTree" boostWeight="1.0000000000000000e+00" itree="11">
      <Node pos="s" depth="0" NCoef="0" IVar="1" Cut="2.5217268066406250e+03" cType="1" res="-9.4873801572248340e-04" rms="2.1168915927410126e-01" purity="5.0273656845092773e-01" nType="0">
        <Node pos="l" depth="1" NCoef="0" IVar="5" Cut="1.7733003234863281e+02" cType="1" res="-4.5439422130584717e-02" rms="2.3775173723697662e-01" purity="1.2483423203229904e-01" nType="0">
          <Node pos="l" depth="2" NCoef="0" IVar="3" Cut="7.9508148193359375e+02" cType="1" res="-6.6424869000911713e-02" rms="1.5051630139350891e-01" purity="3.0019586905837059e-02" nType="0">
            <Node pos="l" depth="3" NCoef="0" IVar="-1" Cut="0.0000000000000000e+00" cType="1" res="-8.3192914724349976e-02" rms="1.3009333610534668e-01" purity="2.3826695978641510e-02" nType="-99"/>
            <Node pos="r" depth="3" NCoef="0" IVar="-1" Cut="0.0000000000000000e+00" cType="1" res="-8.0887332558631897e-02" rms="2.8978946805000305e-01" purity="9.9850133061408997e-02" nType="-99"/>
          </Node>
          <Node pos="r" depth="2" NCoef="0" IVar="0" Cut="5.3456237792968750e+02" cType="1" res="-1.6628097742795944e-02" rms="3.1873649358749390e-01" purity="2.5500708818435669e-01" nType="0">
            <Node pos="l" depth="3" NCoef="0" IVar="-1" Cut="0.0000000000000000e+00" cType="1" res="-4.8825159668922424e-02" rms="2.6092997193336487e-01" purity="1.1776726692914963e-01" nType="-99"/>
            <Node pos="r" depth="3" NCoef="0" IVar="-1" Cut="0.0000000000000000e+00" cType="1" res="2.9607636854052544e-02" rms="3.9375653862953186e-01" purity="5.0042188167572021e-01" nType="-99"/>
          </Node>
        </Node>
        <Node pos="r" depth="1" NCoef="0" IVar="1" Cut="2.9757766113281250e+03" cType="1" res="5.4002776741981506e-02" rms="1.5773415565490723e-01" purity="9.6949279308319092e-01" nType="0">
          <Node pos="l" depth="2" NCoef="0" IVar="3" Cut="8.3070660400390625e+02" cType="1" res="2.6831308379769325e-02" rms="2.6835927367210388e-01" purity="9.0517193078994751e-01" nType="0">
            <Node pos="l" depth="3" NCoef="0" IVar="-1" Cut="0.0000000000000000e+00" cType="1" res="6.2201686203479767e-02" rms="2.0834517478942871e-01" purity="9.5304888486862183e-01" nType="-99"/>
            <Node pos="r" depth="3" NCoef="0" IVar="-1" Cut="0.0000000000000000e+00" cType="1" res="-2.8113260865211487e-02" rms="3.5717123746871948e-01" purity="8.0285340547561646e-01" nType="-99"/>
          </Node>
          <Node pos="r" depth="2" NCoef="0" IVar="5" Cut="2.2030455017089844e+02" cType="1" res="6.2407512217760086e-02" rms="1.0000325739383698e-01" purity="9.8938870429992676e-01" nType="0">
            <Node pos="l" depth="3" NCoef="0" IVar="-1" Cut="0.0000000000000000e+00" cType="1" res="6.8136766552925110e-02" rms="2.3204948008060455e-01" purity="9.3931835889816284e-01" nType="-99"/>
            <Node pos="r" depth="3" NCoef="0" IVar="-1" Cut="0.0000000000000000e+00" cType="1" res="9.7575418651103973e-02" rms="7.7552936971187592e-02" purity="9.9391502141952515e-01" nType="-99"/>
          </Node>
        </Node>
      </Node>
    </BinaryTree>
    <BinaryTree type="DecisionTree" boostWeight="1.0000000000000000e+00" itree="12">
      <Node pos="s" depth="0" NCoef="0" IVar="1" Cut="2.5918125000000000e+03" cType="1" res="6.3262059120461345e-04" rms="2.0665298402309418e-01" purity="5.0285518169403076e-01" nType="0">
        <Node pos="l" depth="1" NCoef="0" IVar="5" Cut="2.1605795288085938e+02" cType="1" res="-3.5062901675701141e-02" rms="2.3845040798187256e-01" purity="1.3969358801841736e-01" nType="0">
          <Node pos="l" depth="2" NCoef="0" IVar="3" Cut="7.7149450683593750e+02" cType="1" res="-4.9416799098253250e-02" rms="1.8178233504295349e-01" purity="5.1739253103733063e-02" nType="0">
            <Node pos="l" depth="3" NCoef="0" IVar="-1" Cut="0.0000000000000000e+00" cType="1" res="-6.1133254319429398e-02" rms="1.6659432649612427e-01" purity="4.3655514717102051e-02" nType="-99"/>
            <Node pos="r" depth="3" NCoef="0" IVar="-1" Cut="0.0000000000000000e+00" cType="1" res="-7.9564556479454041e-02" rms="2.7825063467025757e-01" purity="1.2623381614685059e-01" nType="-99"/>
          </Node>
          <Node pos="r" depth="2" NCoef="0" IVar="0" Cut="4.9353176879882812e+02" cType="1" res="4.1526323184370995e-03" rms="3.4614768624305725e-01" purity="3.7998899817466736e-01" nType="0">
            <Node pos="l" depth="3" NCoef="0" IVar="-1" Cut="0.0000000000000000e+00" cType="1" res="-4.6725481748580933e-02" rms="2.7676200866699219e-01" purity="1.1913105845451355e-01" nType="-99"/>
            <Node pos="r" depth="3" NCoef="0" IVar="-1" Cut="0.0000000000000000e+00" cType="1" res="3.6408964544534683e-02" rms="3.9272904396057129e-01" purity="6.2372291088104248e-01" nType="-99"/>
          </Node>
        </Node>
        <Node pos="r" depth="1" NCoef="0" IVar="1" Cut="3.0742106933593750e+03" cType="1" res="4.7120526432991028e-02" rms="1.4301273226737976e-01" purity="9.7581696510314941e-01" nType="0">
          <Node pos="l" depth="2" NCoef="0" IVar="3" Cut="8.8461297607421875e+02" cType="1" res="3.1644642353057861e-02" rms="2.2822380065917969e-01" purity="9.3374615907669067e-01" nType="0">
            <Node pos="l" depth="3" NCoef="0" IVar="-1" Cut="0.0000000000000000e+00" cType="1" res="6.6698700189590454e-02" rms="1.7428267002105713e-01" purity="9.6742331981658936e-01" nType="-99"/>
            <Node pos="r" depth="3" NCoef="0" IVar="-1" Cut="0.0000000000000000e+00" cType="1" res="-1.7362643033266068e-02" rms="3.3603236079216003e-01" purity="8.3382892608642578e-01" nType="-99"/>
          </Node>
          <Node pos="r" depth="2" NCoef="0" IVar="6" Cut="9.4902191162109375e+01" cType="1" res="5.2758179605007172e-02" rms="9.3861415982246399e-02" purity="9.9114274978637695e-01" nType="0">
            <Node pos="l" depth="3" NCoef="0" IVar="-1" Cut="0.0000000000000000e+00" cType="1" res="7.7832907438278198e-02" rms="1.8875320255756378e-01" purity="9.6280580759048462e-01" nType="-99"/>
            <Node pos="r" depth="3" NCoef="0" IVar="-1" Cut="0.0000000000000000e+00" cType="1" res="9.5239661633968353e-02" rms="7.8160718083381653e-02" purity="9.9394512176513672e-01" nType="-99"/>
          </Node>
        </Node>
      </Node>
    </BinaryTree>
    <BinaryTree type="DecisionTree" boostWeight="1.0000000000000000e+00" itree="13">
      <Node pos="s" depth="0" NCoef="0" IVar="1" Cut="2.5022265625000000e+03" cType="1" res="2.5192933389917016e-04" rms="2.0690158009529114e-01" purity="5.0015622377395630e-01" nType="0">
        <Node pos="l" depth="1" NCoef="0" IVar="2" Cut="3.8918633013963699e-02" cType="1" res="-2.9650263488292694e-02" rms="2.3542414605617523e-01" purity="1.1754437536001205e-01" nType="0">
          <Node pos="l" depth="2" NCoef="0" IVar="3" Cut="7.9519604492187500e+02" cType="1" res="-4.5960117131471634e-02" rms="2.0309829711914062e-01" purity="6.6705606877803802e-02" nType="0">
            <Node pos="l" depth="3" NCoef="0" IVar="-1" Cut="0.0000000000000000e+00" cType="1" res="-5.5509142577648163e-02" rms="1.9254601001739502e-01" purity="6.2251325696706772e-02" nType="-99"/>
            <Node pos="r" depth="3" NCoef="0" IVar="-1" Cut="0.0000000000000000e+00" cType="1" res="-8.1242926418781281e-02" rms="2.9017889499664307e-01" purity="1.1755573004484177e-01" nType="-99"/>
          </Node>
          <Node pos="r" depth="2" NCoef="0" IVar="1" Cut="1.6099685058593750e+03" cType="1" res="5.3330096416175365e-03" rms="2.8988900780677795e-01" purity="2.2658923268318176e-01" nType="0">
            <Node pos="l" depth="3" NCoef="0" IVar="-1" Cut="0.0000000000000000e+00" cType="1" res="-8.4464348852634430e-02" rms="1.0815618932247162e-01" purity="1.1813693679869175e-02" nType="-99"/>
            <Node pos="r" depth="3" NCoef="0" IVar="-1" Cut="0.0000000000000000e+00" cType="1" res="3.0423212796449661e-02" rms="3.6517259478569031e-01" purity="3.8269120454788208e-01" nType="-99"/>
          </Node>
        </Node>
        <Node pos="r" depth="1" NCoef="0" IVar="2" Cut="2.0897271111607552e-02" cType="1" res="3.6881577223539352e-02" rms="1.5784968435764313e-01" purity="9.6884876489639282e-01" nType="0">
          <Node pos="l" depth="2" NCoef="0" IVar="1" Cut="3.1253710937500000e+03" cType="1" res="1.0665646754205227e-02" rms="2.5951364636421204e-01" purity="9.0429133176803589e-01" nType="0">
            <Node pos="l" depth="3" NCoef="0" IVar="-1" Cut="0.0000000000000000e+00" cType="1" res="-2.8571197763085365e-02" rms="3.6198967695236206e-01" purity="7.9256016016006470e-01" nType="-99"/>
            <Node pos="r" depth="3" NCoef="0" IVar="-1" Cut="0.0000000000000000e+00" cType="1" res="6.3014969229698181e-02" rms="1.6509696841239929e-01" purity="9.7099143266677856e-01" nType="-99"/>
          </Node>
          <Node pos="r" depth="2" NCoef="0" IVar="5" Cut="2.2247195434570312e+02" cType="1" res="4.2915273457765579e-02" rms="1.2229604274034500e-01" purity="9.8370695114135742e-01" nType="0">
            <Node pos="l" depth="3" NCoef="0" IVar="-1" Cut="0.0000000000000000e+00" cType="1" res="5.8740060776472092e-02" rms="2.4219216406345367e-01" purity="9.3072956800460815e-01" nType="-99"/>
            <Node pos="r" depth="3" NCoef="0" IVar="-1" Cut="0.0000000000000000e+00" cType="1" res="8.2583822309970856e-02" rms="1.0621912032365799e-01" purity="9.8811841011047363e-01" nType="-99"/>
          </Node>
        </Node>
      </Node>
    </BinaryTree>
    <BinaryTree type="DecisionTree" boostWeight="1.0000000000000000e+00" itree="14">
      <Node pos="s" depth="0" NCoef="0" IVar="1" Cut="1.9959088134765625e+03" cType="1" res="1.3599849771708250e-03" rms="2.0761361718177795e-01" purity="5.0456863641738892e-01" nType="0">
        <Node pos="l" depth="1" NCoef="0" IVar="1" Cut="1.7405203857421875e+03" cType="1" res="-2.8943985700607300e-02" rms="1.7746987938880920e-01" purity="3.6845821887254715e-02" nType="0">
          <Node pos="l" depth="2" NCoef="0" IVar="10" Cut="1.2000038623809814e+00" cType="1" res="-3.7078961730003357e-02" rms="1.1825711280107498e-01" purity="1.4523691497743130e-02" nType="0">
            <Node pos="l" depth="3" NCoef="0" IVar="-1" Cut="0.0000000000000000e+00" cType="1" res="-8.0938920378684998e-02" rms="1.0812415927648544e-01" purity="1.2142146006226540e-02" nType="-99"/>
            <Node pos="r" depth="3" NCoef="0" IVar="-1" Cut="0.0000000000000000e+00" cType="1" res="-5.4672323167324066e-02" rms="1.5459959208965302e-01" purity="2.4957133457064629e-02" nType="-99"/>
          </Node>
          <Node pos="r" depth="2" NCoef="0" IVar="3" Cut="5.6700958251953125e+02" cType="1" res="2.4566459469497204e-03" rms="3.1280192732810974e-01" purity="1.2300820648670197e-01" nType="0">
            <Node pos="l" depth="3" NCoef="0" IVar="-1" Cut="0.0000000000000000e+00" cType="1" res="3.8241758942604065e-02" rms="3.9135751128196716e-01" purity="2.0646795630455017e-01" nType="-99"/>
            <Node pos="r" depth="3" NCoef="0" IVar="-1" Cut="0.0000000000000000e+00" cType="1" res="-3.9553616195917130e-02" rms="2.3055690526962280e-01" purity="5.9766005724668503e-02" nType="-99"/>
          </Node>
        </Node>
        <Node pos="r" depth="1" NCoef="0" IVar="6" Cut="9.4901046752929688e+01" cType="1" res="2.6025759056210518e-02" rms="2.2626467049121857e-01" purity="8.8526934385299683e-01" nType="0">
          <Node pos="l" depth="2" NCoef="0" IVar="1" Cut="2.7375749511718750e+03" cType="1" res="-2.6280080899596214e-02" rms="3.3437189459800720e-01" purity="6.1443859338760376e-01" nType="0">
            <Node pos="l" depth="3" NCoef="0" IVar="-1" Cut="0.0000000000000000e+00" cType="1" res="-4.8175480216741562e-02" rms="3.9136856794357300e-01" purity="3.1349289417266846e-01" nType="-99"/>
            <Node pos="r" depth="3" NCoef="0" IVar="-1" Cut="0.0000000000000000e+00" cType="1" res="3.3816877752542496e-02" rms="2.5140035152435303e-01" purity="9.2123210430145264e-01" nType="-99"/>
          </Node>
          <Node pos="r" depth="2" NCoef="0" IVar="1" Cut="2.2655187988281250e+03" cType="1" res="3.4674227237701416e-02" rms="2.0161154866218567e-01" purity="9.3004971742630005e-01" nType="0">
            <Node pos="l" depth="3" NCoef="0" IVar="-1" Cut="0.0000000000000000e+00" cType="1" res="3.5137966275215149e-02" rms="4.5880520343780518e-01" purity="4.7981017827987671e-01" nType="-99"/>
            <Node pos="r" depth="3" NCoef="0" IVar="-1" Cut="0.0000000000000000e+00" cType="1" res="5.5846374481916428e-02" rms="1.6510851681232452e-01" purity="9.6520048379898071e-01" nType="-99"/>
          </Node>
        </Node>
      </Node>
    </BinaryTree>
    <BinaryTree type="DecisionTree" boostWeight="1.0000000000000000e+00" itree="15">
      <Node pos="s" depth="0" NCoef="0" IVar="1" Cut="1.9511907958984375e+03" cType="1" res="2.5248649762943387e-04" rms="2.0315264165401459e-01" purity="5.0164729356765747e-01" nType="0">
        <Node pos="l" depth="1" NCoef="0" IVar="1" Cut="1.8199490966796875e+03" cType="1" res="-2.8968688100576401e-02" rms="1.5856836736202240e-01" purity="2.8295656666159630e-02" nType="0">
          <Node pos="l" depth="2" NCoef="0" IVar="9" Cut="1.1998306512832642e+00" cType="1" res="-3.2103464007377625e-02" rms="1.2675946950912476e-01" purity="1.6834057867527008e-02" nType="0">
            <Node pos="l" depth="3" NCoef="0" IVar="-1" Cut="0.0000000000000000e+00" cType="1" res="-7.5605578720569611e-02" rms="1.1580741405487061e-01" purity="1.4092045836150646e-02" nType="-99"/>
            <Node pos="r" depth="3" NCoef="0" IVar="-1" Cut="0.0000000000000000e+00" cType="1" res="-4.1958317160606384e-02" rms="1.6767211258411407e-01" purity="2.9473191127181053e-02" nType="-99"/>
          </Node>
          <Node pos="r" depth="2" NCoef="0" IVar="-1" Cut="0.0000000000000000e+00" cType="1" res="-9.2803587904199958e-04" rms="3.2442459464073181e-01" purity="1.3055804371833801e-01" nType="-99"/>
        </Node>
        <Node pos="r" depth="1" NCoef="0" IVar="2" Cut="2.0630450919270515e-02" cType="1" res="2.2964278236031532e-02" rms="2.2940373420715332e-01" purity="8.6955392360687256e-01" nType="0">
          <Node pos="l" depth="2" NCoef="0" IVar="1" Cut="2.9485869140625000e+03" cType="1" res="-1.7643701285123825e-02" rms="3.0655258893966675e-01" purity="6.7358428239822388e-01" nType="0">
            <Node pos="l" depth="3" NCoef="0" IVar="-1" Cut="0.0000000000000000e+00" cType="1" res="-3.8915190845727921e-02" rms="3.8431769609451294e-01" purity="4.0335130691528320e-01" nType="-99"/>
            <Node pos="r" depth="3" NCoef="0" IVar="-1" Cut="0.0000000000000000e+00" cType="1" res="4.6623162925243378e-02" rms="1.8035696446895599e-01" purity="9.6377032995223999e-01" nType="-99"/>
          </Node>
          <Node pos="r" depth="2" NCoef="0" IVar="9" Cut="1.1999602317810059e+00" cType="1" res="3.4461494535207748e-02" rms="2.0079879462718964e-01" purity="9.2503821849822998e-01" nType="0">
            <Node pos="l" depth="3" NCoef="0" IVar="-1" Cut="0.0000000000000000e+00" cType="1" res="4.7882154583930969e-02" rms="1.8991534411907196e-01" purity="9.2829525470733643e-01" nType="-99"/>
            <Node pos="r" depth="3" NCoef="0" IVar="-1" Cut="0.0000000000000000e+00" cType="1" res="8.0234840512275696e-02" rms="2.6994812488555908e-01" purity="8.9900952577590942e-01" nType="-99"/>
          </Node>
        </Node>
      </Node>
    </BinaryTree>
    <BinaryTree type="DecisionTree" boostWeight="1.0000000000000000e+00" itree="16">
      <Node pos="s" depth="0" NCoef="0" IVar="0" Cut="7.4111877441406250e+02" cType="1" res="1.8617645837366581e-03" rms="2.0371429622173309e-01" purity="5.0327956676483154e-01" nType="0">
        <Node pos="l" depth="1" NCoef="0" IVar="2" Cut="5.8024272322654724e-02" cType="1" res="-1.6499029472470284e-02" rms="2.1836525201797485e-01" purity="1.8517303466796875e-01" nType="0">
          <Node pos="l" depth="2" NCoef="0" IVar="3" Cut="8.1571820068359375e+02" cType="1" res="-2.4543154984712601e-02" rms="2.0269303023815155e-01" purity="1.2242734432220459e-01" nType="0">
            <Node pos="l" depth="3" NCoef="0" IVar="-1" Cut="0.0000000000000000e+00" cType="1" res="-3.5676565021276474e-02" rms="1.8958072364330292e-01" purity="9.0188682079315186e-02" nType="-99"/>
            <Node pos="r" depth="3" NCoef="0" IVar="-1" Cut="0.0000000000000000e+00" cType="1" res="-7.0885770022869110e-02" rms="3.0458110570907593e-01" purity="4.6392887830734253e-01" nType="-99"/>
          </Node>
          <Node pos="r" depth="2" NCoef="0" IVar="0" Cut="4.6803979492187500e+02" cType="1" res="9.3643004074692726e-03" rms="2.6081249117851257e-01" purity="3.8691186904907227e-01" nType="0">
            <Node pos="l" depth="3" NCoef="0" IVar="-1" Cut="0.0000000000000000e+00" cType="1" res="-5.6404635310173035e-02" rms="2.1681208908557892e-01" purity="6.5026484429836273e-02" nType="-99"/>
            <Node pos="r" depth="3" NCoef="0" IVar="-1" Cut="0.0000000000000000e+00" cType="1" res="4.3162483721971512e-02" rms="2.7800309658050537e-01" purity="5.5767345428466797e-01" nType="-99"/>
          </Node>
        </Node>
        <Node pos="r" depth="1" NCoef="0" IVar="4" Cut="2.4199395751953125e+02" cType="1" res="2.3998612537980080e-02" rms="1.8206425011157990e-01" purity="8.8680744171142578e-01" nType="0">
          <Node pos="l" depth="2" NCoef="0" IVar="-1" Cut="0.0000000000000000e+00" cType="1" res="-7.3463566601276398e-02" rms="2.5867605209350586e-01" purity="1.7376884818077087e-01" nType="-99"/>
          <Node pos="r" depth="2" NCoef="0" IVar="5" Cut="1.6377416992187500e+02" cType="1" res="3.0435198917984962e-02" rms="1.7380180954933167e-01" purity="9.3510836362838745e-01" nType="0">
            <Node pos="l" depth="3" NCoef="0" IVar="-1" Cut="0.0000000000000000e+00" cType="1" res="4.3445177376270294e-02" rms="3.6222600936889648e-01" purity="5.5013996362686157e-01" nType="-99"/>
            <Node pos="r" depth="3" NCoef="0" IVar="-1" Cut="0.0000000000000000e+00" cType="1" res="6.0525748878717422e-02" rms="1.4898565411567688e-01" purity="9.6531951427459717e-01" nType="-99"/>
          </Node>
        </Node>
      </Node>
    </BinaryTree>
    <BinaryTree type="DecisionTree" boostWeight="1.0000000000000000e+00" itree="17">
      <Node pos="s" depth="0" NCoef="0" IVar="4" Cut="3.3710794067382812e+02" cType="1" res="-2.1086784545332193e-03" rms="1.9710028171539307e-01" purity="4.9451434612274170e-01" nType="0">
        <Node pos="l" depth="1" NCoef="0" IVar="8" Cut="-1.4665566682815552e+00" cType="1" res="-2.8351979330182076e-02" rms="1.8725062906742096e-01" purity="8.6175411939620972e-02" nType="0">
          <Node pos="l" depth="2" NCoef="0" IVar="-1" Cut="0.0000000000000000e+00" cType="1" res="-3.0251010321080685e-03" rms="2.1859508752822876e-01" purity="1.0362493246793747e-01" nType="-99"/>
          <Node pos="r" depth="2" NCoef="0" IVar="3" Cut="7.5937664794921875e+02" cType="1" res="-3.1838081777095795e-02" rms="1.8247908353805542e-01" purity="8.3899974822998047e-02" nType="0">
            <Node pos="l" depth="3" NCoef="0" IVar="-1" Cut="0.0000000000000000e+00" cType="1" res="-5.7288508862257004e-02" rms="1.6095928847789764e-01" purity="4.6615790575742722e-02" nType="-99"/>
            <Node pos="r" depth="3" NCoef="0" IVar="-1" Cut="0.0000000000000000e+00" cType="1" res="-5.6038323789834976e-02" rms="2.9425865411758423e-01" purity="3.5606673359870911e-01" nType="-99"/>
          </Node>
        </Node>
        <Node pos="r" depth="1" NCoef="0" IVar="6" Cut="9.4902816772460938e+01" cType="1" res="1.4270609244704247e-02" rms="2.0127888023853302e-01" purity="7.4937182664871216e-01" nType="0">
          <Node pos="l" depth="2" NCoef="0" IVar="0" Cut="9.8246960449218750e+02" cType="1" res="-1.9403500482439995e-02" rms="2.2800415754318237e-01" purity="3.4270390868186951e-01" nType="0">
            <Node pos="l" depth="3" NCoef="0" IVar="-1" Cut="0.0000000000000000e+00" cType="1" res="-5.0427168607711792e-02" rms="2.2649684548377991e-01" purity="1.5744641423225403e-01" nType="-99"/>
            <Node pos="r" depth="3" NCoef="0" IVar="-1" Cut="0.0000000000000000e+00" cType="1" res="4.6600241214036942e-02" rms="2.2360633313655853e-01" purity="9.3023937940597534e-01" nType="-99"/>
          </Node>
          <Node pos="r" depth="2" NCoef="0" IVar="0" Cut="4.3447296142578125e+02" cType="1" res="2.4065813049674034e-02" rms="1.9170337915420532e-01" purity="8.6766433715820312e-01" nType="0">
            <Node pos="l" depth="3" NCoef="0" IVar="-1" Cut="0.0000000000000000e+00" cType="1" res="-8.6742127314209938e-03" rms="2.6008272171020508e-01" purity="1.0245154052972794e-01" nType="-99"/>
            <Node pos="r" depth="3" NCoef="0" IVar="-1" Cut="0.0000000000000000e+00" cType="1" res="5.0307940691709518e-02" rms="1.8510384857654572e-01" purity="9.2729181051254272e-01" nType="-99"/>
          </Node>
        </Node>
      </Node>
    </BinaryTree>
    <BinaryTree type="DecisionTree" boostWeight="1.0000000000000000e+00" itree="18">
      <Node pos="s" depth="0" NCoef="0" IVar="5" Cut="2.6691995239257812e+02" cType="1" res="-2.3343542125076056e-04" rms="1.9982127845287323e-01" purity="4.9662524461746216e-01" nType="0">
        <Node pos="l" depth="1" NCoef="0" IVar="0" Cut="8.3071936035156250e+02" cType="1" res="-1.5479910187423229e-02" rms="2.1223297715187073e-01" purity="1.8785104155540466e-01" nType="0">
          <Node pos="l" depth="2" NCoef="0" IVar="3" Cut="8.0042864990234375e+02" cType="1" res="-2.1513218060135841e-02" rms="1.8894036114215851e-01" purity="6.9938309490680695e-02" nType="0">
            <Node pos="l" depth="3" NCoef="0" IVar="-1" Cut="0.0000000000000000e+00" cType="1" res="-3.4353855997323990e-02" rms="1.7509263753890991e-01" purity="5.3328547626733780e-02" nType="-99"/>
            <Node pos="r" depth="3" NCoef="0" IVar="-1" Cut="0.0000000000000000e+00" cType="1" res="-7.8538276255130768e-02" rms="3.0705067515373230e-01" purity="2.7802029252052307e-01" nType="-99"/>
          </Node>
          <Node pos="r" depth="2" NCoef="0" IVar="2" Cut="1.9323084503412247e-02" cType="1" res="1.3276845216751099e-02" rms="2.9762530326843262e-01" purity="7.4986243247985840e-01" nType="0">
            <Node pos="l" depth="3" NCoef="0" IVar="-1" Cut="0.0000000000000000e+00" cType="1" res="-1.4090236276388168e-02" rms="3.3677992224693298e-01" purity="5.8715474605560303e-01" nType="-99"/>
            <Node pos="r" depth="3" NCoef="0" IVar="-1" Cut="0.0000000000000000e+00" cType="1" res="4.1001807898283005e-02" rms="2.6724851131439209e-01" purity="8.5618257522583008e-01" nType="-99"/>
          </Node>
        </Node>
        <Node pos="r" depth="1" NCoef="0" IVar="0" Cut="5.6892883300781250e+02" cType="1" res="1.9982814788818359e-02" rms="1.8008403480052948e-01" purity="9.0604811906814575e-01" nType="0">
          <Node pos="l" depth="2" NCoef="0" IVar="-1" Cut="0.0000000000000000e+00" cType="1" res="-4.3085934594273567e-03" rms="3.5787370800971985e-01" purity="3.8859453797340393e-01" nType="-99"/>
          <Node pos="r" depth="2" NCoef="0" IVar="10" Cut="-6.6595911979675293e-01" cType="1" res="2.3249318823218346e-02" rms="1.4120718836784363e-01" purity="9.7312319278717041e-01" nType="0">
            <Node pos="l" depth="3" NCoef="0" IVar="-1" Cut="0.0000000000000000e+00" cType="1" res="6.6547229886054993e-02" rms="1.4834930002689362e-01" purity="9.7217077016830444e-01" nType="-99"/>
            <Node pos="r" depth="3" NCoef="0" IVar="-1" Cut="0.0000000000000000e+00" cType="1" res="5.5361703038215637e-02" rms="1.3829229772090912e-01" purity="9.7349286079406738e-01" nType="-99"/>
          </Node>
        </Node>
      </Node>
    </BinaryTree>
    <BinaryTree type="DecisionTree" boostWeight="1.0000000000000000e+00" itree="19">
      <Node pos="s" depth="0" NCoef="0" IVar="2" Cut="2.0630314946174622e-02" cType="1" res="-2.5353301316499710e-04" rms="2.0039613544940948e-01" purity="4.9385267496109009e-01" nType="0">
        <Node pos="l" depth="1" NCoef="0" IVar="1" Cut="3.1877128906250000e+03" cType="1" res="-1.8844392150640488e-02" rms="1.9893270730972290e-01" purity="2.4301102757453918e-01" nType="0">
          <Node pos="l" depth="2" NCoef="0" IVar="3" Cut="8.4473608398437500e+02" cType="1" res="-2.4990404024720192e-02" rms="2.0495077967643738e-01" purity="1.2173616141080856e-01" nType="0">
            <Node pos="l" depth="3" NCoef="0" IVar="-1" Cut="0.0000000000000000e+00" cType="1" res="-3.6027070134878159e-02" rms="1.7928399145603180e-01" purity="9.0314298868179321e-02" nType="-99"/>
            <Node pos="r" depth="3" NCoef="0" IVar="-1" Cut="0.0000000000000000e+00" cType="1" res="-6.8365000188350677e-02" rms="3.4571260213851929e-01" purity="3.8235887885093689e-01" nType="-99"/>
          </Node>
          <Node pos="r" depth="2" NCoef="0" IVar="-1" Cut="0.0000000000000000e+00" cType="1" res="4.6572241932153702e-02" rms="1.5257932245731354e-01" purity="9.7579222917556763e-01" nType="-99"/>
        </Node>
        <Node pos="r" depth="1" NCoef="0" IVar="1" Cut="1.6804432373046875e+03" cType="1" res="1.0336800478398800e-02" rms="2.0045565068721771e-01" purity="6.3674527406692505e-01" nType="0">
          <Node pos="l" depth="2" NCoef="0" IVar="10" Cut="9.3351417779922485e-01" cType="1" res="-1.3623187318444252e-02" rms="1.3366881012916565e-01" purity="1.8510676920413971e-02" nType="0">
            <Node pos="l" depth="3" NCoef="0" IVar="-1" Cut="0.0000000000000000e+00" cType="1" res="-6.1173561960458755e-02" rms="1.1287993937730789e-01" purity="1.3024390675127506e-02" nType="-99"/>
            <Node pos="r" depth="3" NCoef="0" IVar="-1" Cut="0.0000000000000000e+00" cType="1" res="3.9815362542867661e-03" rms="1.7973557114601135e-01" purity="3.4284431487321854e-02" nType="-99"/>
          </Node>
          <Node pos="r" depth="2" NCoef="0" IVar="10" Cut="1.7331184148788452e+00" cType="1" res="1.7690801993012428e-02" rms="2.1633614599704742e-01" purity="8.2649904489517212e-01" nType="0">
            <Node pos="l" depth="3" NCoef="0" IVar="-1" Cut="0.0000000000000000e+00" cType="1" res="2.6107363402843475e-02" rms="2.0960132777690887e-01" purity="8.3176338672637939e-01" nType="-99"/>
            <Node pos="r" depth="3" NCoef="0" IVar="-1" Cut="0.0000000000000000e+00" cType="1" res="7.2345420718193054e-02" rms="2.8640022873878479e-01" purity="7.5873190164566040e-01" nType="-99"/>
          </Node>
        </Node>
      </Node>
    </BinaryTree>
    <BinaryTree type="DecisionTree" boostWeight="1.0000000000000000e+00" itree="20">
      <Node pos="s" depth="0" NCoef="0" IVar="6" Cut="9.4900764465332031e+01" cType="1" res="-2.1875643869861960e-04" rms="2.0254528522491455e-01" purity="4.9864587187767029e-01" nType="0">
        <Node pos="l" depth="1" NCoef="0" IVar="3" Cut="8.0315368652343750e+02" cType="1" res="-2.0115954801440239e-02" rms="1.8691478669643402e-01" purity="1.5693172812461853e-01" nType="0">
          <Node pos="l" depth="2" NCoef="0" IVar="1" Cut="1.8764090576171875e+03" cType="1" res="-1.4266401529312134e-02" rms="1.6456449031829834e-01" purity="6.8398796021938324e-02" nType="0">
            <Node pos="l" depth="3" NCoef="0" IVar="-1" Cut="0.0000000000000000e+00" cType="1" res="-6.4889118075370789e-02" rms="1.0638197511434555e-01" purity="1.1764477007091045e-02" nType="-99"/>
            <Node pos="r" depth="3" NCoef="0" IVar="-1" Cut="0.0000000000000000e+00" cType="1" res="1.5189001336693764e-02" rms="3.5297048091888428e-01" purity="4.2306375503540039e-01" nType="-99"/>
          </Node>
          <Node pos="r" depth="2" NCoef="0" IVar="1" Cut="2.7982236328125000e+03" cType="1" res="-4.7604743391275406e-02" rms="2.6633965969085693e-01" purity="5.7297426462173462e-01" nType="0">
            <Node pos="l" depth="3" NCoef="0" IVar="-1" Cut="0.0000000000000000e+00" cType="1" res="-9.5255434513092041e-02" rms="2.7251479029655457e-01" purity="1.3686956465244293e-01" nType="-99"/>
            <Node pos="r" depth="3" NCoef="0" IVar="-1" Cut="0.0000000000000000e+00" cType="1" res="3.9311153814196587e-03" rms="2.5018328428268433e-01" purity="9.2133295536041260e-01" nType="-99"/>
          </Node>
        </Node>
        <Node pos="r" depth="1" NCoef="0" IVar="0" Cut="4.2176187133789062e+02" cType="1" res="9.3760602176189423e-03" rms="2.0899069309234619e-01" purity="6.6342705488204956e-01" nType="0">
          <Node pos="l" depth="2" NCoef="0" IVar="1" Cut="1.6937373046875000e+03" cType="1" res="-1.9135026261210442e-02" rms="1.9557212293148041e-01" purity="3.9746217429637909e-02" nType="0">
            <Node pos="l" depth="3" NCoef="0" IVar="-1" Cut="0.0000000000000000e+00" cType="1" res="-2.7501422911882401e-02" rms="1.4899586141109467e-01" purity="2.2936467081308365e-02" nType="-99"/>
            <Node pos="r" depth="3" NCoef="0" IVar="-1" Cut="0.0000000000000000e+00" cType="1" res="-5.1780369132757187e-02" rms="2.9612419009208679e-01" purity="9.3164354562759399e-02" nType="-99"/>
          </Node>
          <Node pos="r" depth="2" NCoef="0" IVar="9" Cut="1.4664162397384644e+00" cType="1" res="1.4657162129878998e-02" rms="2.1096017956733704e-01" purity="7.7895134687423706e-01" nType="0">
            <Node pos="l" depth="3" NCoef="0" IVar="-1" Cut="0.0000000000000000e+00" cType="1" res="2.3443838581442833e-02" rms="2.0252159237861633e-01" purity="7.8846800327301025e-01" nType="-99"/>
            <Node pos="r" depth="3" NCoef="0" IVar="-1" Cut="0.0000000000000000e+00" cType="1" res="7.2435781359672546e-02" rms="2.9592451453208923e-01" purity="6.5723752975463867e-01" nType="-99"/>
          </Node>
        </Node>
      </Node>
    </BinaryTree>
    <BinaryTree type="DecisionTree" boostWeight="1.0000000000000000e+00" itree="21">
      <Node pos="s" depth="0" NCoef="0" IVar="4" Cut="4.3154251098632812e+02" cType="1" res="8.1817095633596182e-04" rms="1.9687815010547638e-01" purity="5.0378531217575073e-01" nType="0">
        <Node pos="l" depth="1" NCoef="0" IVar="10" Cut="1.1999871730804443e+00" cType="1" res="-1.1609042994678020e-02" rms="2.1098721027374268e-01" purity="1.8929177522659302e-01" nType="0">
          <Node pos="l" depth="2" NCoef="0" IVar="6" Cut="1.8760617065429688e+02" cType="1" res="-1.5918400138616562e-02" rms="2.0500363409519196e-01" purity="1.8464866280555725e-01" nType="0">
            <Node pos="l" depth="3" NCoef="0" IVar="-1" Cut="0.0000000000000000e+00" cType="1" res="-4.0300760418176651e-02" rms="1.8982267379760742e-01" purity="1.0220678150653839e-01" nType="-99"/>
            <Node pos="r" depth="3" NCoef="0" IVar="-1" Cut="0.0000000000000000e+00" cType="1" res="8.6714597418904305e-03" rms="2.8339028358459473e-01" purity="7.1951353549957275e-01" nType="-99"/>
          </Node>
          <Node pos="r" depth="2" NCoef="0" IVar="1" Cut="1.6756031494140625e+03" cType="1" res="6.6163334995508194e-03" rms="2.3373492062091827e-01" purity="2.0892862975597382e-01" nType="0">
            <Node pos="l" depth="3" NCoef="0" IVar="-1" Cut="0.0000000000000000e+00" cType="1" res="-6.3618026673793793e-02" rms="1.0286220163106918e-01" purity="1.1108570732176304e-02" nType="-99"/>
            <Node pos="r" depth="3" NCoef="0" IVar="-1" Cut="0.0000000000000000e+00" cType="1" res="4.0136713534593582e-02" rms="3.2829469442367554e-01" purity="4.5507434010505676e-01" nType="-99"/>
          </Node>
        </Node>
        <Node pos="r" depth="1" NCoef="0" IVar="0" Cut="4.4719107055664062e+02" cType="1" res="1.5753787010908127e-02" rms="1.7730250954627991e-01" purity="8.8175863027572632e-01" nType="0">
          <Node pos="l" depth="2" NCoef="0" IVar="-1" Cut="0.0000000000000000e+00" cType="1" res="-2.2381640970706940e-02" rms="2.1620823442935944e-01" purity="7.6524175703525543e-02" nType="-99"/>
          <Node pos="r" depth="2" NCoef="0" IVar="1" Cut="2.3349094238281250e+03" cType="1" res="1.7530156299471855e-02" rms="1.7448098957538605e-01" purity="9.3108832836151123e-01" nType="0">
            <Node pos="l" depth="3" NCoef="0" IVar="-1" Cut="0.0000000000000000e+00" cType="1" res="3.7604734301567078e-02" rms="3.8900786638259888e-01" purity="3.7559053301811218e-01" nType="-99"/>
            <Node pos="r" depth="3" NCoef="0" IVar="-1" Cut="0.0000000000000000e+00" cType="1" res="4.1459497064352036e-02" rms="1.4739662408828735e-01" purity="9.7071880102157593e-01" nType="-99"/>
          </Node>
        </Node>
      </Node>
    </BinaryTree>
    <BinaryTree type="DecisionTree" boostWeight="1.0000000000000000e+00" itree="22">
      <Node pos="s" depth="0" NCoef="0" IVar="5" Cut="1.5328219604492188e+02" cType="1" res="2.1631056442856789e-03" rms="2.0260927081108093e-01" purity="5.0205814838409424e-01" nType="0">
        <Node pos="l" depth="1" NCoef="0" IVar="9" Cut="1.7332123517990112e+00" cType="1" res="-1.5106865204870701e-02" rms="1.6398182511329651e-01" purity="6.8037398159503937e-02" nType="0">
          <Node pos="l" depth="2" NCoef="0" IVar="6" Cut="7.9409881591796875e+01" cType="1" res="-1.8689084798097610e-02" rms="1.5404777228832245e-01" purity="6.3055925071239471e-02" nType="0">
            <Node pos="l" depth="3" NCoef="0" IVar="-1" Cut="0.0000000000000000e+00" cType="1" res="-7.3081701993942261e-02" rms="1.3306330144405365e-01" purity="3.5293422639369965e-02" nType="-99"/>
            <Node pos="r" depth="3" NCoef="0" IVar="-1" Cut="0.0000000000000000e+00" cType="1" res="-1.8213558942079544e-02" rms="1.7643035948276520e-01" purity="9.7982786595821381e-02" nType="-99"/>
          </Node>
          <Node pos="r" depth="2" NCoef="0" IVar="-1" Cut="0.0000000000000000e+00" cType="1" res="3.9257578551769257e-02" rms="2.3679098486900330e-01" purity="1.1612804979085922e-01" nType="-99"/>
        </Node>
        <Node pos="r" depth="1" NCoef="0" IVar="0" Cut="4.3444857788085938e+02" cType="1" res="8.5776159539818764e-03" rms="2.1484449505805969e-01" purity="6.6326451301574707e-01" nType="0">
          <Node pos="l" depth="2" NCoef="0" IVar="0" Cut="3.5762069702148438e+02" cType="1" res="-1.5020539052784443e-02" rms="1.7521448433399200e-01" purity="3.8950145244598389e-02" nType="0">
            <Node pos="l" depth="3" NCoef="0" IVar="-1" Cut="0.0000000000000000e+00" cType="1" res="-8.0972842872142792e-02" rms="1.0415941476821899e-01" purity="9.6387406811118126e-03" nType="-99"/>
            <Node pos="r" depth="3" NCoef="0" IVar="-1" Cut="0.0000000000000000e+00" cType="1" res="-1.1518064886331558e-02" rms="2.1339052915573120e-01" purity="6.1150372028350830e-02" nType="-99"/>
          </Node>
          <Node pos="r" depth="2" NCoef="0" IVar="1" Cut="2.2244416503906250e+03" cType="1" res="1.3287326321005821e-02" rms="2.2160764038562775e-01" purity="7.8786492347717285e-01" nType="0">
            <Node pos="l" depth="3" NCoef="0" IVar="-1" Cut="0.0000000000000000e+00" cType="1" res="3.5688225179910660e-02" rms="3.3585283160209656e-01" purity="1.8025411665439606e-01" nType="-99"/>
            <Node pos="r" depth="3" NCoef="0" IVar="-1" Cut="0.0000000000000000e+00" cType="1" res="1.9372388720512390e-02" rms="1.7654325067996979e-01" purity="9.5772618055343628e-01" nType="-99"/>
          </Node>
        </Node>
      </Node>
    </BinaryTree>
    <BinaryTree type="DecisionTree" boostWeight="1.0000000000000000e+00" itree="23">
      <Node pos="s" depth="0" NCoef="0" IVar="0" Cut="8.4596795654296875e+02" cType="1" res="-1.6314632957801223e-03" rms="1.9659732282161713e-01" purity="4.9732267856597900e-01" nType="0">
        <Node pos="l" depth="1" NCoef="0" IVar="10" Cut="-1.4666603803634644e+00" cType="1" res="-9.3941912055015564e-03" rms="2.1326063573360443e-01" purity="2.4252378940582275e-01" nType="0">
          <Node pos="l" depth="2" NCoef="0" IVar="1" Cut="1.6743023681640625e+03" cType="1" res="1.7683066427707672e-02" rms="2.4921737611293793e-01" purity="2.2158394753932953e-01" nType="0">
            <Node pos="l" depth="3" NCoef="0" IVar="-1" Cut="0.0000000000000000e+00" cType="1" res="-2.0381586626172066e-02" rms="1.3189859688282013e-01" purity="1.8026661127805710e-02" nType="-99"/>
            <Node pos="r" depth="3" NCoef="0" IVar="-1" Cut="0.0000000000000000e+00" cType="1" res="4.6097759157419205e-02" rms="3.3232834935188293e-01" purity="4.4683411717414856e-01" nType="-99"/>
          </Node>
          <Node pos="r" depth="2" NCoef="0" IVar="6" Cut="2.0185418701171875e+02" cType="1" res="-1.3479318469762802e-02" rms="2.0698782801628113e-01" purity="2.4568296968936920e-01" nType="0">
            <Node pos="l" depth="3" NCoef="0" IVar="-1" Cut="0.0000000000000000e+00" cType="1" res="-3.5002987831830978e-02" rms="2.0374666154384613e-01" purity="1.2923352420330048e-01" nType="-99"/>
            <Node pos="r" depth="3" NCoef="0" IVar="-1" Cut="0.0000000000000000e+00" cType="1" res="1.2955544516444206e-02" rms="2.2226467728614807e-01" purity="8.6518490314483643e-01" nType="-99"/>
          </Node>
        </Node>
        <Node pos="r" depth="1" NCoef="0" IVar="4" Cut="3.2550106811523438e+02" cType="1" res="1.1635391972959042e-02" rms="1.6339962184429169e-01" purity="9.3278580904006958e-01" nType="0">
          <Node pos="l" depth="2" NCoef="0" IVar="-1" Cut="0.0000000000000000e+00" cType="1" res="-1.1420441791415215e-02" rms="3.4367111325263977e-01" purity="5.1787143945693970e-01" nType="-99"/>
          <Node pos="r" depth="2" NCoef="0" IVar="9" Cut="-9.3293923139572144e-01" cType="1" res="1.4066439121961594e-02" rms="1.3317587971687317e-01" purity="9.7316944599151611e-01" nType="0">
            <Node pos="l" depth="3" NCoef="0" IVar="-1" Cut="0.0000000000000000e+00" cType="1" res="6.3948281109333038e-02" rms="1.5513694286346436e-01" purity="9.6827512979507446e-01" nType="-99"/>
            <Node pos="r" depth="3" NCoef="0" IVar="-1" Cut="0.0000000000000000e+00" cType="1" res="4.0905948728322983e-02" rms="1.2828697264194489e-01" purity="9.7413140535354614e-01" nType="-99"/>
          </Node>
        </Node>
      </Node>
    </BinaryTree>
    <BinaryTree type="DecisionTree" boostWeight="1.0000000000000000e+00" itree="24">
      <Node pos="s" depth="0" NCoef="0" IVar="0" Cut="7.3323767089843750e+02" cType="1" res="-7.0829322794452310e-05" rms="1.9721549749374390e-01" purity="4.9278247356414795e-01" nType="0">
        <Node pos="l" depth="1" NCoef="0" IVar="10" Cut="1.7333654165267944e+00" cType="1" res="-9.5293521881103516e-03" rms="2.0762997865676880e-01" purity="1.7089870572090149e-01" nType="0">
          <Node pos="l" depth="2" NCoef="0" IVar="10" Cut="-1.7201944589614868e+00" cType="1" res="-1.3004475273191929e-02" rms="2.0076590776443481e-01" purity="1.7089763283729553e-01" nType="0">
            <Node pos="l" depth="3" NCoef="0" IVar="-1" Cut="0.0000000000000000e+00" cType="1" res="2.9389040544629097e-02" rms="2.3848307132720947e-01" purity="1.7397990822792053e-01" nType="-99"/>
            <Node pos="r" depth="3" NCoef="0" IVar="-1" Cut="0.0000000000000000e+00" cType="1" res="-3.4379832446575165e-02" rms="1.9548152387142181e-01" purity="1.7052796483039856e-01" nType="-99"/>
          </Node>
          <Node pos="r" depth="2" NCoef="0" IVar="8" Cut="1.3375346362590790e-01" cType="1" res="2.4292282760143280e-02" rms="2.6292863488197327e-01" purity="1.7090927064418793e-01" nType="0">
            <Node pos="l" depth="3" NCoef="0" IVar="-1" Cut="0.0000000000000000e+00" cType="1" res="4.8098862171173096e-02" rms="2.5993001461029053e-01" purity="2.1346174180507660e-01" nType="-99"/>
            <Node pos="r" depth="3" NCoef="0" IVar="-1" Cut="0.0000000000000000e+00" cType="1" res="4.2509712278842926e-02" rms="2.6590320467948914e-01" purity="1.2715531885623932e-01" nType="-99"/>
          </Node>
        </Node>
        <Node pos="r" depth="1" NCoef="0" IVar="4" Cut="2.4197009277343750e+02" cType="1" res="1.1272815056145191e-02" rms="1.8330684304237366e-01" purity="8.7881892919540405e-01" nType="0">
          <Node pos="l" depth="2" NCoef="0" IVar="-1" Cut="0.0000000000000000e+00" cType="1" res="-2.2500155493617058e-02" rms="2.6626968383789062e-01" purity="1.6922639310359955e-01" nType="-99"/>
          <Node pos="r" depth="2" NCoef="0" IVar="5" Cut="1.5868750000000000e+02" cType="1" res="1.3437879271805286e-02" rms="1.7517788708209991e-01" purity="9.3300247192382812e-01" nType="0">
            <Node pos="l" depth="3" NCoef="0" IVar="-1" Cut="0.0000000000000000e+00" cType="1" res="4.2475927621126175e-02" rms="3.7005561590194702e-01" purity="5.2027809619903564e-01" nType="-99"/>
            <Node pos="r" depth="3" NCoef="0" IVar="-1" Cut="0.0000000000000000e+00" cType="1" res="3.3388912677764893e-02" rms="1.5069435536861420e-01" purity="9.6352255344390869e-01" nType="-99"/>
          </Node>
        </Node>
      </Node>
    </BinaryTree>
    <BinaryTree type="DecisionTree" boostWeight="1.0000000000000000e+00" itree="25">
      <Node pos="s" depth="0" NCoef="0" IVar="2" Cut="5.8377888053655624e-02" cType="1" res="1.2595212319865823e-03" rms="2.0064327120780945e-01" purity="4.9906420707702637e-01" nType="0">
        <Node pos="l" depth="1" NCoef="0" IVar="6" Cut="1.2130654907226562e+02" cType="1" res="-6.2004853971302509e-03" rms="2.0576387643814087e-01" purity="3.6445122957229614e-01" nType="0">
          <Node pos="l" depth="2" NCoef="0" IVar="9" Cut="-6.6672211885452271e-01" cType="1" res="-1.3976440764963627e-02" rms="1.9223713874816895e-01" purity="1.5847475826740265e-01" nType="0">
            <Node pos="l" depth="3" NCoef="0" IVar="-1" Cut="0.0000000000000000e+00" cType="1" res="-9.0020819334313273e-04" rms="2.0983526110649109e-01" purity="1.4292141795158386e-01" nType="-99"/>
            <Node pos="r" depth="3" NCoef="0" IVar="-1" Cut="0.0000000000000000e+00" cType="1" res="-4.5306846499443054e-02" rms="1.8376898765563965e-01" purity="1.6522134840488434e-01" nType="-99"/>
          </Node>
          <Node pos="r" depth="2" NCoef="0" IVar="2" Cut="8.3412891253829002e-03" cType="1" res="4.9309944733977318e-03" rms="2.2323787212371826e-01" purity="6.5931183099746704e-01" nType="0">
            <Node pos="l" depth="3" NCoef="0" IVar="-1" Cut="0.0000000000000000e+00" cType="1" res="-3.3656913787126541e-02" rms="2.2947296500205994e-01" purity="4.7524312138557434e-01" nType="-99"/>
            <Node pos="r" depth="3" NCoef="0" IVar="-1" Cut="0.0000000000000000e+00" cType="1" res="1.6902564093470573e-02" rms="2.2209337353706360e-01" purity="6.8621242046356201e-01" nType="-99"/>
          </Node>
        </Node>
        <Node pos="r" depth="1" NCoef="0" IVar="4" Cut="2.4461968994140625e+02" cType="1" res="1.5261910855770111e-02" rms="1.8987119197845459e-01" purity="7.5173211097717285e-01" nType="0">
          <Node pos="l" depth="2" NCoef="0" IVar="-1" Cut="0.0000000000000000e+00" cType="1" res="-3.4412860870361328e-02" rms="1.6446505486965179e-01" purity="3.9424579590559006e-02" nType="-99"/>
          <Node pos="r" depth="2" NCoef="0" IVar="5" Cut="2.0879847717285156e+02" cType="1" res="1.7662400379776955e-02" rms="1.9173927605152130e-01" purity="8.1382513046264648e-01" nType="0">
            <Node pos="l" depth="3" NCoef="0" IVar="-1" Cut="0.0000000000000000e+00" cType="1" res="7.3689296841621399e-02" rms="2.8938877582550049e-01" purity="3.2707098126411438e-01" nType="-99"/>
            <Node pos="r" depth="3" NCoef="0" IVar="-1" Cut="0.0000000000000000e+00" cType="1" res="3.3826518803834915e-02" rms="1.6840960085391998e-01" purity="8.9891892671585083e-01" nType="-99"/>
          </Node>
        </Node>
      </Node>
    </BinaryTree>
    <BinaryTree type="DecisionTree" boostWeight="1.0000000000000000e+00" itree="26">
      <Node pos="s" depth="0" NCoef="0" IVar="0" Cut="5.8411047363281250e+02" cType="1" res="-5.8887788327410817e-04" rms="1.9840244948863983e-01" purity="5.0477737188339233e-01" nType="0">
        <Node pos="l" depth="1" NCoef="0" IVar="1" Cut="1.9571522216796875e+03" cType="1" res="-1.1629508808255196e-02" rms="2.0183929800987244e-01" purity="9.1662511229515076e-02" nType="0">
          <Node pos="l" depth="2" NCoef="0" IVar="2" Cut="5.6093778461217880e-02" cType="1" res="-6.9015743210911751e-03" rms="1.5081843733787537e-01" purity="2.5563139468431473e-02" nType="0">
            <Node pos="l" depth="3" NCoef="0" IVar="-1" Cut="0.0000000000000000e+00" cType="1" res="-4.3463721871376038e-02" rms="1.2257167696952820e-01" purity="1.6723075881600380e-02" nType="-99"/>
            <Node pos="r" depth="3" NCoef="0" IVar="-1" Cut="0.0000000000000000e+00" cType="1" res="2.7092697098851204e-02" rms="2.3183842003345490e-01" purity="6.1549868434667587e-02" nType="-99"/>
          </Node>
          <Node pos="r" depth="2" NCoef="0" IVar="-1" Cut="0.0000000000000000e+00" cType="1" res="-2.9136039316654205e-02" rms="3.8505014777183533e-01" purity="4.9014806747436523e-01" nType="-99"/>
        </Node>
        <Node pos="r" depth="1" NCoef="0" IVar="5" Cut="1.0165907287597656e+02" cType="1" res="6.2189996242523193e-03" rms="1.9594341516494751e-01" purity="7.5951236486434937e-01" nType="0">
          <Node pos="l" depth="2" NCoef="0" IVar="7" Cut="-1.2244792655110359e-02" cType="1" res="-1.8061220645904541e-02" rms="1.9676175713539124e-01" purity="7.2218023240566254e-02" nType="0">
            <Node pos="l" depth="3" NCoef="0" IVar="-1" Cut="0.0000000000000000e+00" cType="1" res="-8.1014014780521393e-02" rms="1.6455116868019104e-01" purity="5.2660685032606125e-02" nType="-99"/>
            <Node pos="r" depth="3" NCoef="0" IVar="-1" Cut="0.0000000000000000e+00" cType="1" res="-1.0689300252124667e-03" rms="2.2175414860248566e-01" purity="9.0857908129692078e-02" nType="-99"/>
          </Node>
          <Node pos="r" depth="2" NCoef="0" IVar="10" Cut="1.7330861091613770e+00" cType="1" res="8.4921931847929955e-03" rms="1.9571247696876526e-01" purity="8.2385909557342529e-01" nType="0">
            <Node pos="l" depth="3" NCoef="0" IVar="-1" Cut="0.0000000000000000e+00" cType="1" res="1.5519752167165279e-02" rms="1.9022814929485321e-01" purity="8.2802510261535645e-01" nType="-99"/>
            <Node pos="r" depth="3" NCoef="0" IVar="-1" Cut="0.0000000000000000e+00" cType="1" res="5.7524539530277252e-02" rms="2.5791805982589722e-01" purity="7.6687330007553101e-01" nType="-99"/>
          </Node>
        </Node>
      </Node>
    </BinaryTree>
    <BinaryTree type="DecisionTree" boostWeight="1.0000000000000000e+00" itree="27">
      <Node pos="s" depth="0" NCoef="0" IVar="5" Cut="1.0425695800781250e+02" cType="1" res="-9.8065263591706753e-04" rms="1.9679640233516693e-01" purity="4.9873289465904236e-01" nType="0">
        <Node pos="l" depth="1" NCoef="0" IVar="1" Cut="1.6503544921875000e+03" cType="1" res="-2.2850487381219864e-02" rms="1.1162124574184418e-01" purity="2.9059655964374542e-02" nType="0">
          <Node pos="l" depth="2" NCoef="0" IVar="10" Cut="3.9994621276855469e-01" cType="1" res="-1.4204372651875019e-02" rms="2.3092405870556831e-02" purity="5.2499270532280207e-04" nType="0">
            <Node pos="l" depth="3" NCoef="0" IVar="-1" Cut="0.0000000000000000e+00" cType="1" res="-9.6608214080333710e-02" rms="2.6352589949965477e-02" purity="6.8966654362156987e-04" nType="-99"/>
            <Node pos="r" depth="3" NCoef="0" IVar="-1" Cut="0.0000000000000000e+00" cType="1" res="-9.9872760474681854e-02" rms="1.6770673915743828e-02" purity="2.6898080250248313e-04" nType="-99"/>
          </Node>
          <Node pos="r" depth="2" NCoef="0" IVar="-1" Cut="0.0000000000000000e+00" cType="1" res="-6.5537042915821075e-02" rms="1.8141549825668335e-01" purity="7.8851193189620972e-02" nType="-99"/>
        </Node>
        <Node pos="r" depth="1" NCoef="0" IVar="4" Cut="4.5430249023437500e+02" cType="1" res="1.9072442082688212e-03" rms="2.0524668693542480e-01" purity="5.6075292825698853e-01" nType="0">
          <Node pos="l" depth="2" NCoef="0" IVar="8" Cut="1.2002331018447876e+00" cType="1" res="-5.1648835651576519e-03" rms="2.3179624974727631e-01" purity="2.5182336568832397e-01" nType="0">
            <Node pos="l" depth="3" NCoef="0" IVar="-1" Cut="0.0000000000000000e+00" cType="1" res="-1.7886275425553322e-02" rms="2.2782829403877258e-01" purity="2.5736540555953979e-01" nType="-99"/>
            <Node pos="r" depth="3" NCoef="0" IVar="-1" Cut="0.0000000000000000e+00" cType="1" res="3.6098130047321320e-02" rms="2.5077474117279053e-01" purity="2.2204023599624634e-01" nType="-99"/>
          </Node>
          <Node pos="r" depth="2" NCoef="0" IVar="1" Cut="2.5153010253906250e+03" cType="1" res="1.0214382782578468e-02" rms="1.6843055188655853e-01" purity="9.2363107204437256e-01" nType="0">
            <Node pos="l" depth="3" NCoef="0" IVar="-1" Cut="0.0000000000000000e+00" cType="1" res="2.3000674322247505e-02" rms="3.5641008615493774e-01" purity="4.6334311366081238e-01" nType="-99"/>
            <Node pos="r" depth="3" NCoef="0" IVar="-1" Cut="0.0000000000000000e+00" cType="1" res="3.2876774668693542e-02" rms="1.2668976187705994e-01" purity="9.8089599609375000e-01" nType="-99"/>
          </Node>
        </Node>
      </Node>
    </BinaryTree>
    <BinaryTree type="DecisionTree" boostWeight="1.0000000000000000e+00" itree="28">
      <Node pos="s" depth="0" NCoef="0" IVar="1" Cut="3.0535717773437500e+03" cType="1" res="-8.0203689867630601e-04" rms="1.9664385914802551e-01" purity="4.9603271484375000e-01" nType="0">
        <Node pos="l" depth="1" NCoef="0" IVar="3" Cut="9.4326159667968750e+02" cType="1" res="-6.0201897285878658e-03" rms="2.2963696718215942e-01" purity="2.6460975408554077e-01" nType="0">
          <Node pos="l" depth="2" NCoef="0" IVar="0" Cut="5.3912792968750000e+02" cType="1" res="-3.6753730382770300e-03" rms="2.2229261696338654e-01" purity="2.4989418685436249e-01" nType="0">
            <Node pos="l" depth="3" NCoef="0" IVar="-1" Cut="0.0000000000000000e+00" cType="1" res="-2.5226820260286331e-02" rms="1.8458822369575500e-01" purity="6.2380935996770859e-02" nType="-99"/>
            <Node pos="r" depth="3" NCoef="0" IVar="-1" Cut="0.0000000000000000e+00" cType="1" res="5.0655910745263100e-03" rms="2.5582382082939148e-01" purity="4.4694796204566956e-01" nType="-99"/>
          </Node>
          <Node pos="r" depth="2" NCoef="0" IVar="-1" Cut="0.0000000000000000e+00" cType="1" res="-4.9419701099395752e-02" rms="3.5066065192222595e-01" purity="5.8830964565277100e-01" nType="-99"/>
        </Node>
        <Node pos="r" depth="1" NCoef="0" IVar="1" Cut="3.4472929687500000e+03" cType="1" res="1.0359402745962143e-02" rms="9.1667301952838898e-02" purity="9.9103808403015137e-01" nType="0">
          <Node pos="l" depth="2" NCoef="0" IVar="-1" Cut="0.0000000000000000e+00" cType="1" res="1.9852215424180031e-02" rms="1.2647049129009247e-01" purity="9.8223650455474854e-01" nType="-99"/>
          <Node pos="r" depth="2" NCoef="0" IVar="6" Cut="1.7663366699218750e+02" cType="1" res="1.3577303849160671e-02" rms="6.6809281706809998e-02" purity="9.9556982517242432e-01" nType="0">
            <Node pos="l" depth="3" NCoef="0" IVar="-1" Cut="0.0000000000000000e+00" cType="1" res="6.6806457936763763e-02" rms="1.0640950500965118e-01" purity="9.8877888917922974e-01" nType="-99"/>
            <Node pos="r" depth="3" NCoef="0" IVar="-1" Cut="0.0000000000000000e+00" cType="1" res="8.7929643690586090e-02" rms="4.2556557804346085e-02" purity="9.9818497896194458e-01" nType="-99"/>
          </Node>
        </Node>
      </Node>
    </BinaryTree>
    <BinaryTree type="DecisionTree" boostWeight="1.0000000000000000e+00" itree="29">
      <Node pos="s" depth="0" NCoef="0" IVar="0" Cut="4.4703970336914062e+02" cType="1" res="-2.6429619174450636e-04" rms="1.9664464890956879e-01" purity="4.9841421842575073e-01" nType="0">
        <Node pos="l" depth="1" NCoef="0" IVar="1" Cut="1.7408377685546875e+03" cType="1" res="-1.2322232127189636e-02" rms="1.4540256559848785e-01" purity="2.6601085439324379e-02" nType="0">
          <Node pos="l" depth="2" NCoef="0" IVar="1" Cut="1.6109879150390625e+03" cType="1" res="-7.6602590270340443e-03" rms="1.0358653217554092e-01" purity="1.1049633845686913e-02" nType="0">
            <Node pos="l" depth="3" NCoef="0" IVar="-1" Cut="0.0000000000000000e+00" cType="1" res="-7.0865534245967865e-02" rms="7.0965565741062164e-02" purity="5.0662974826991558e-03" nType="-99"/>
            <Node pos="r" depth="3" NCoef="0" IVar="-1" Cut="0.0000000000000000e+00" cType="1" res="2.6247119531035423e-02" rms="1.7693680524826050e-01" purity="3.2946083694696426e-02" nType="-99"/>
          </Node>
          <Node pos="r" depth="2" NCoef="0" IVar="-1" Cut="0.0000000000000000e+00" cType="1" res="-3.7898175418376923e-02" rms="2.6789811253547668e-01" purity="1.0316737741231918e-01" nType="-99"/>
        </Node>
        <Node pos="r" depth="1" NCoef="0" IVar="8" Cut="-6.6673070192337036e-01" cType="1" res="3.1257385853677988e-03" rms="2.0867305994033813e-01" purity="6.3106232881546021e-01" nType="0">
          <Node pos="l" depth="2" NCoef="0" IVar="1" Cut="2.2288813476562500e+03" cType="1" res="1.4123255386948586e-02" rms="2.3449574410915375e-01" purity="5.5105274915695190e-01" nType="0">
            <Node pos="l" depth="3" NCoef="0" IVar="-1" Cut="0.0000000000000000e+00" cType="1" res="6.0368370264768600e-02" rms="2.5907406210899353e-01" purity="1.1025237292051315e-01" nType="-99"/>
            <Node pos="r" depth="3" NCoef="0" IVar="-1" Cut="0.0000000000000000e+00" cType="1" res="-2.9750805697403848e-04" rms="2.1049939095973969e-01" purity="9.2290508747100830e-01" nType="-99"/>
          </Node>
          <Node pos="r" depth="2" NCoef="0" IVar="1" Cut="3.3291662597656250e+03" cType="1" res="-3.9104593452066183e-04" rms="1.9958433508872986e-01" purity="6.5664774179458618e-01" nType="0">
            <Node pos="l" depth="3" NCoef="0" IVar="-1" Cut="0.0000000000000000e+00" cType="1" res="-1.0029614903032780e-02" rms="2.4064858257770538e-01" purity="4.7968053817749023e-01" nType="-99"/>
            <Node pos="r" depth="3" NCoef="0" IVar="-1" Cut="0.0000000000000000e+00" cType="1" res="6.5802440047264099e-02" rms="7.1876063942909241e-02" purity="9.9450212717056274e-01" nType="-99"/>
          </Node>
        </Node>
      </Node>
    </BinaryTree>
    <BinaryTree type="DecisionTree" boostWeight="1.0000000000000000e+00" itree="30">
      <Node pos="s" depth="0" NCoef="0" IVar="6" Cut="8.7462181091308594e+01" cType="1" res="8.4941514069214463e-04" rms="1.9778995215892792e-01" purity="4.9807351827621460e-01" nType="0">
        <Node pos="l" depth="1" NCoef="0" IVar="6" Cut="8.2110336303710938e+01" cType="1" res="-1.0270566679537296e-02" rms="1.8428742885589600e-01" purity="1.4722226560115814e-01" nType="0">
          <Node pos="l" depth="2" NCoef="0" IVar="3" Cut="8.0452630615234375e+02" cType="1" res="-1.3836714439094067e-02" rms="1.7585168778896332e-01" purity="1.3923919200897217e-01" nType="0">
            <Node pos="l" depth="3" NCoef="0" IVar="-1" Cut="0.0000000000000000e+00" cType="1" res="-3.2294016331434250e-02" rms="1.4615114033222198e-01" purity="5.8801587671041489e-02" nType="-99"/>
            <Node pos="r" depth="3" NCoef="0" IVar="-1" Cut="0.0000000000000000e+00" cType="1" res="-4.3219845741987228e-02" rms="2.7906391024589539e-01" purity="5.3780281543731689e-01" nType="-99"/>
          </Node>
          <Node pos="r" depth="2" NCoef="0" IVar="-1" Cut="0.0000000000000000e+00" cType="1" res="3.5709802061319351e-02" rms="2.3557555675506592e-01" purity="2.0585545897483826e-01" nType="-99"/>
        </Node>
        <Node pos="r" depth="1" NCoef="0" IVar="9" Cut="-1.4663760662078857e+00" cType="1" res="5.2477954886853695e-03" rms="2.0271456241607666e-01" purity="6.3684862852096558e-01" nType="0">
          <Node pos="l" depth="2" NCoef="0" IVar="8" Cut="-1.3323175907135010e-01" cType="1" res="2.9700180515646935e-02" rms="2.4140001833438873e-01" purity="4.8953849077224731e-01" nType="0">
            <Node pos="l" depth="3" NCoef="0" IVar="-1" Cut="0.0000000000000000e+00" cType="1" res="3.5647712647914886e-02" rms="2.3050124943256378e-01" purity="4.4293782114982605e-01" nType="-99"/>
            <Node pos="r" depth="3" NCoef="0" IVar="-1" Cut="0.0000000000000000e+00" cType="1" res="6.6773347556591034e-02" rms="2.5038069486618042e-01" purity="5.3153097629547119e-01" nType="-99"/>
          </Node>
          <Node pos="r" depth="2" NCoef="0" IVar="9" Cut="1.3773556947708130e+00" cType="1" res="2.9587212484329939e-03" rms="1.9855384528636932e-01" purity="6.5063887834548950e-01" nType="0">
            <Node pos="l" depth="3" NCoef="0" IVar="-1" Cut="0.0000000000000000e+00" cType="1" res="1.4880220405757427e-03" rms="1.9154006242752075e-01" purity="6.6873878240585327e-01" nType="-99"/>
            <Node pos="r" depth="3" NCoef="0" IVar="-1" Cut="0.0000000000000000e+00" cType="1" res="4.5155759900808334e-02" rms="2.4926950037479401e-01" purity="4.9738749861717224e-01" nType="-99"/>
          </Node>
        </Node>
      </Node>
    </BinaryTree>
    <BinaryTree type="DecisionTree" boostWeight="1.0000000000000000e+00" itree="31">
      <Node pos="s" depth="0" NCoef="0" IVar="6" Cut="1.2130654907226562e+02" cType="1" res="8.6296477820724249e-04" rms="1.9786056876182556e-01" purity="4.9809050559997559e-01" nType="0">
        <Node pos="l" depth="1" NCoef="0" IVar="2" Cut="8.5463039577007294e-02" cType="1" res="-6.0726404190063477e-03" rms="1.9430062174797058e-01" purity="1.9386759400367737e-01" nType="0">
          <Node pos="l" depth="2" NCoef="0" IVar="2" Cut="4.0702209807932377e-03" cType="1" res="-8.0417655408382416e-03" rms="1.8771064281463623e-01" purity="1.7220498621463776e-01" nType="0">
            <Node pos="l" depth="3" NCoef="0" IVar="-1" Cut="0.0000000000000000e+00" cType="1" res="-6.2789164483547211e-02" rms="1.5027813613414764e-01" purity="8.5666202008724213e-02" nType="-99"/>
            <Node pos="r" depth="3" NCoef="0" IVar="-1" Cut="0.0000000000000000e+00" cType="1" res="-1.1308846995234489e-02" rms="1.9582751393318176e-01" purity="1.9390378892421722e-01" nType="-99"/>
          </Node>
          <Node pos="r" depth="2" NCoef="0" IVar="-1" Cut="0.0000000000000000e+00" cType="1" res="2.2702958434820175e-02" rms="2.4714432656764984e-01" purity="3.9787459373474121e-01" nType="-99"/>
        </Node>
        <Node pos="r" depth="1" NCoef="0" IVar="1" Cut="2.2413068847656250e+03" cType="1" res="6.8026892840862274e-03" rms="2.0066873729228973e-01" purity="7.5863021612167358e-01" nType="0">
          <Node pos="l" depth="2" NCoef="0" IVar="1" Cut="1.5602442626953125e+03" cType="1" res="2.0821355283260345e-02" rms="2.9787841439247131e-01" purity="1.5062527358531952e-01" nType="0">
            <Node pos="l" depth="3" NCoef="0" IVar="-1" Cut="0.0000000000000000e+00" cType="1" res="-4.0551919490098953e-02" rms="1.0847566276788712e-01" purity="1.2054353952407837e-02" nType="-99"/>
            <Node pos="r" depth="3" NCoef="0" IVar="-1" Cut="0.0000000000000000e+00" cType="1" res="3.4179370850324631e-02" rms="3.5658556222915649e-01" purity="2.2093889117240906e-01" nType="-99"/>
          </Node>
          <Node pos="r" depth="2" NCoef="0" IVar="1" Cut="2.7221323242187500e+03" cType="1" res="1.9175871275365353e-03" rms="1.5260216593742371e-01" purity="9.7050243616104126e-01" nType="0">
            <Node pos="l" depth="3" NCoef="0" IVar="-1" Cut="0.0000000000000000e+00" cType="1" res="-2.3304488509893417e-02" rms="3.0899125337600708e-01" purity="8.6666113138198853e-01" nType="-99"/>
            <Node pos="r" depth="3" NCoef="0" IVar="-1" Cut="0.0000000000000000e+00" cType="1" res="3.8092918694019318e-02" rms="9.9119722843170166e-02" purity="9.8971742391586304e-01" nType="-99"/>
          </Node>
        </Node>
      </Node>
    </BinaryTree>
    <BinaryTree type="DecisionTree" boostWeight="1.0000000000000000e+00" itree="32">
      <Node pos="s" depth="0" NCoef="0" IVar="10" Cut="1.1999524831771851e+00" cType="1" res="1.1689044767990708e-03" rms="1.9677495956420898e-01" purity="5.0573855638504028e-01" nType="0">
        <Node pos="l" depth="1" NCoef="0" IVar="5" Cut="3.2125604248046875e+02" cType="1" res="-1.5843649161979556e-03" rms="1.9005163013935089e-01" purity="5.1363778114318848e-01" nType="0">
          <Node pos="l" depth="2" NCoef="0" IVar="10" Cut="-1.6570578813552856e+00" cType="1" res="-6.5187215805053711e-03" rms="2.1195365488529205e-01" purity="2.6642572879791260e-01" nType="0">
            <Node pos="l" depth="3" NCoef="0" IVar="-1" Cut="0.0000000000000000e+00" cType="1" res="2.0426373928785324e-02" rms="2.4422430992126465e-01" purity="2.8974658250808716e-01" nType="-99"/>
            <Node pos="r" depth="3" NCoef="0" IVar="-1" Cut="0.0000000000000000e+00" cType="1" res="-2.0179964601993561e-02" rms="2.0645260810852051e-01" purity="2.6286628842353821e-01" nType="-99"/>
          </Node>
          <Node pos="r" depth="2" NCoef="0" IVar="2" Cut="8.3591513335704803e-02" cType="1" res="7.3732603341341019e-03" rms="1.4146181941032410e-01" purity="9.6241629123687744e-01" nType="0">
            <Node pos="l" depth="3" NCoef="0" IVar="-1" Cut="0.0000000000000000e+00" cType="1" res="1.4601700007915497e-02" rms="1.6230346262454987e-01" purity="9.4658172130584717e-01" nType="-99"/>
            <Node pos="r" depth="3" NCoef="0" IVar="-1" Cut="0.0000000000000000e+00" cType="1" res="6.1271339654922485e-02" rms="1.0621498525142670e-01" purity="9.8417413234710693e-01" nType="-99"/>
          </Node>
        </Node>
        <Node pos="r" depth="1" NCoef="0" IVar="9" Cut="-6.6667282581329346e-01" cType="1" res="1.4308897778391838e-02" rms="2.2566278278827667e-01" purity="4.6803924441337585e-01" nType="0">
          <Node pos="l" depth="2" NCoef="0" IVar="-1" Cut="0.0000000000000000e+00" cType="1" res="8.6824119091033936e-02" rms="2.5896424055099487e-01" purity="4.8328769207000732e-01" nType="-99"/>
          <Node pos="r" depth="2" NCoef="0" IVar="8" Cut="-6.6504842042922974e-01" cType="1" res="4.4435458257794380e-03" rms="2.1194662153720856e-01" purity="4.6272376179695129e-01" nType="0">
            <Node pos="l" depth="3" NCoef="0" IVar="-1" Cut="0.0000000000000000e+00" cType="1" res="5.1164042204618454e-02" rms="2.4233211576938629e-01" purity="4.5984441041946411e-01" nType="-99"/>
            <Node pos="r" depth="3" NCoef="0" IVar="-1" Cut="0.0000000000000000e+00" cType="1" res="-5.8059822767972946e-03" rms="2.0156040787696838e-01" purity="4.6357622742652893e-01" nType="-99"/>
          </Node>
        </Node>
      </Node>
    </BinaryTree>
    <BinaryTree type="DecisionTree" boostWeight="1.0000000000000000e+00" itree="33">
      <Node pos="s" depth="0" NCoef="0" IVar="5" Cut="3.9047448730468750e+02" cType="1" res="-2.7414446230977774e-03" rms="1.9246120750904083e-01" purity="4.9586582183837891e-01" nType="0">
        <Node pos="l" depth="1" NCoef="0" IVar="9" Cut="1.4665778875350952e+00" cType="1" res="-6.0562216676771641e-03" rms="2.1230365335941315e-01" purity="3.4665152430534363e-01" nType="0">
          <Node pos="l" depth="2" NCoef="0" IVar="1" Cut="3.3340283203125000e+03" cType="1" res="-8.5195982828736305e-03" rms="2.0960366725921631e-01" purity="3.5358253121376038e-01" nType="0">
            <Node pos="l" depth="3" NCoef="0" IVar="-1" Cut="0.0000000000000000e+00" cType="1" res="-2.2532748058438301e-02" rms="2.2109845280647278e-01" purity="2.5869044661521912e-01" nType="-99"/>
            <Node pos="r" depth="3" NCoef="0" IVar="-1" Cut="0.0000000000000000e+00" cType="1" res="4.8156358301639557e-02" rms="1.0210019350051880e-01" purity="9.8926723003387451e-01" nType="-99"/>
          </Node>
          <Node pos="r" depth="2" NCoef="0" IVar="10" Cut="-4.0002074837684631e-01" cType="1" res="1.2557471171021461e-02" rms="2.3084208369255066e-01" purity="2.9427960515022278e-01" nType="0">
            <Node pos="l" depth="3" NCoef="0" IVar="-1" Cut="0.0000000000000000e+00" cType="1" res="6.4334712922573090e-02" rms="2.5055748224258423e-01" purity="3.0885726213455200e-01" nType="-99"/>
            <Node pos="r" depth="3" NCoef="0" IVar="-1" Cut="0.0000000000000000e+00" cType="1" res="3.0222844798117876e-03" rms="2.1878802776336670e-01" purity="2.8649151325225830e-01" nType="-99"/>
          </Node>
        </Node>
        <Node pos="r" depth="1" NCoef="0" IVar="-1" Cut="0.0000000000000000e+00" cType="1" res="4.4959101825952530e-02" rms="1.0258479416370392e-01" purity="9.8565715551376343e-01" nType="-99"/>
      </Node>
    </BinaryTree>
    <BinaryTree type="DecisionTree" boostWeight="1.0000000000000000e+00" itree="34">
      <Node pos="s" depth="0" NCoef="0" IVar="5" Cut="1.6354612731933594e+02" cType="1" res="1.0408492526039481e-03" rms="1.9696719944477081e-01" purity="4.9469846487045288e-01" nType="0">
        <Node pos="l" depth="1" NCoef="0" IVar="4" Cut="2.1853706359863281e+02" cType="1" res="-7.5988438911736012e-03" rms="1.5545457601547241e-01" purity="6.7244552075862885e-02" nType="0">
          <Node pos="l" depth="2" NCoef="0" IVar="1" Cut="1.6503686523437500e+03" cType="1" res="-1.7601355910301208e-02" rms="8.5662834346294403e-02" purity="1.0941527783870697e-02" nType="0">
            <Node pos="l" depth="3" NCoef="0" IVar="-1" Cut="0.0000000000000000e+00" cType="1" res="-8.3064667880535126e-02" rms="4.9893546849489212e-02" purity="2.4588655214756727e-03" nType="-99"/>
            <Node pos="r" depth="3" NCoef="0" IVar="-1" Cut="0.0000000000000000e+00" cType="1" res="-7.9655334353446960e-02" rms="1.4224235713481903e-01" purity="3.4279812127351761e-02" nType="-99"/>
          </Node>
          <Node pos="r" depth="2" NCoef="0" IVar="1" Cut="1.8583492431640625e+03" cType="1" res="-1.5046058688312769e-03" rms="1.8525885045528412e-01" purity="1.0154835134744644e-01" nType="0">
            <Node pos="l" depth="3" NCoef="0" IVar="-1" Cut="0.0000000000000000e+00" cType="1" res="-4.6192131936550140e-02" rms="9.4088256359100342e-02" purity="9.3622459098696709e-03" nType="-99"/>
            <Node pos="r" depth="3" NCoef="0" IVar="-1" Cut="0.0000000000000000e+00" cType="1" res="1.6336983069777489e-02" rms="3.3290731906890869e-01" purity="3.8011878728866577e-01" nType="-99"/>
          </Node>
        </Node>
        <Node pos="r" depth="1" NCoef="0" IVar="1" Cut="2.2266801757812500e+03" cType="1" res="4.8302519135177135e-03" rms="2.1252231299877167e-01" purity="6.8218135833740234e-01" nType="0">
          <Node pos="l" depth="2" NCoef="0" IVar="10" Cut="1.4666703939437866e+00" cType="1" res="1.6547333449125290e-02" rms="2.7761736512184143e-01" purity="1.1888326704502106e-01" nType="0">
            <Node pos="l" depth="3" NCoef="0" IVar="-1" Cut="0.0000000000000000e+00" cType="1" res="1.3512109406292439e-02" rms="2.6549842953681946e-01" purity="1.0593136399984360e-01" nType="-99"/>
            <Node pos="r" depth="3" NCoef="0" IVar="-1" Cut="0.0000000000000000e+00" cType="1" res="8.9022159576416016e-02" rms="3.4194219112396240e-01" purity="2.0386743545532227e-01" nType="-99"/>
          </Node>
          <Node pos="r" depth="2" NCoef="0" IVar="1" Cut="2.6991027832031250e+03" cType="1" res="-9.4942655414342880e-04" rms="1.7124986648559570e-01" purity="9.6003901958465576e-01" nType="0">
            <Node pos="l" depth="3" NCoef="0" IVar="-1" Cut="0.0000000000000000e+00" cType="1" res="-2.2086607292294502e-02" rms="3.3563598990440369e-01" purity="8.2768881320953369e-01" nType="-99"/>
            <Node pos="r" depth="3" NCoef="0" IVar="-1" Cut="0.0000000000000000e+00" cType="1" res="2.1755633875727654e-02" rms="1.1156006902456284e-01" purity="9.8666763305664062e-01" nType="-99"/>
          </Node>
        </Node>
      </Node>
    </BinaryTree>
    <BinaryTree type="DecisionTree" boostWeight="1.0000000000000000e+00" itree="35">
      <Node pos="s" depth="0" NCoef="0" IVar="10" Cut="6.6671806573867798e-01" cType="1" res="1.6863067867234349e-03" rms="1.9836457073688507e-01" purity="4.9880710244178772e-01" nType="0">
        <Node pos="l" depth="1" NCoef="0" IVar="9" Cut="6.6702991724014282e-01" cType="1" res="-1.2472030939534307e-03" rms="1.9242151081562042e-01" purity="5.0322997570037842e-01" nType="0">
          <Node pos="l" depth="2" NCoef="0" IVar="8" Cut="9.3288666009902954e-01" cType="1" res="-4.7189090400934219e-03" rms="1.8761296570301056e-01" purity="5.1231122016906738e-01" nType="0">
            <Node pos="l" depth="3" NCoef="0" IVar="-1" Cut="0.0000000000000000e+00" cType="1" res="-2.3732794448733330e-02" rms="1.8065121769905090e-01" purity="5.3154271841049194e-01" nType="-99"/>
            <Node pos="r" depth="3" NCoef="0" IVar="-1" Cut="0.0000000000000000e+00" cType="1" res="3.1903602182865143e-02" rms="2.2056770324707031e-01" purity="4.0837019681930542e-01" nType="-99"/>
          </Node>
          <Node pos="r" depth="2" NCoef="0" IVar="10" Cut="-1.3141434192657471e+00" cType="1" res="8.4131555631756783e-03" rms="2.0490029454231262e-01" purity="4.7796040773391724e-01" nType="0">
            <Node pos="l" depth="3" NCoef="0" IVar="-1" Cut="0.0000000000000000e+00" cType="1" res="6.8520106375217438e-02" rms="2.3956741392612457e-01" purity="5.0977700948715210e-01" nType="-99"/>
            <Node pos="r" depth="3" NCoef="0" IVar="-1" Cut="0.0000000000000000e+00" cType="1" res="-6.8756774999201298e-04" rms="1.9310115277767181e-01" purity="4.6897017955780029e-01" nType="-99"/>
          </Node>
        </Node>
        <Node pos="r" depth="1" NCoef="0" IVar="8" Cut="-6.6691744327545166e-01" cType="1" res="8.3886934444308281e-03" rms="2.1116395294666290e-01" purity="4.8870187997817993e-01" nType="0">
          <Node pos="l" depth="2" NCoef="0" IVar="2" Cut="1.7733970656991005e-02" cType="1" res="2.5220880284905434e-02" rms="2.3607078194618225e-01" purity="4.6196904778480530e-01" nType="0">
            <Node pos="l" depth="3" NCoef="0" IVar="-1" Cut="0.0000000000000000e+00" cType="1" res="1.4821007847785950e-02" rms="2.0751266181468964e-01" purity="2.4002327024936676e-01" nType="-99"/>
            <Node pos="r" depth="3" NCoef="0" IVar="-1" Cut="0.0000000000000000e+00" cType="1" res="6.9594070315361023e-02" rms="2.5174474716186523e-01" purity="6.0202527046203613e-01" nType="-99"/>
          </Node>
          <Node pos="r" depth="2" NCoef="0" IVar="4" Cut="3.2366864013671875e+02" cType="1" res="3.0164634808897972e-03" rms="2.0227628946304321e-01" purity="4.9723398685455322e-01" nType="0">
            <Node pos="l" depth="3" NCoef="0" IVar="-1" Cut="0.0000000000000000e+00" cType="1" res="-1.6076363623142242e-02" rms="1.8530222773551941e-01" purity="8.2679212093353271e-02" nType="-99"/>
            <Node pos="r" depth="3" NCoef="0" IVar="-1" Cut="0.0000000000000000e+00" cType="1" res="1.9920349121093750e-02" rms="2.1127143502235413e-01" purity="7.3642957210540771e-01" nType="-99"/>
          </Node>
        </Node>
      </Node>
    </BinaryTree>
    <BinaryTree type="DecisionTree" boostWeight="1.0000000000000000e+00" itree="36">
      <Node pos="s" depth="0" NCoef="0" IVar="10" Cut="-1.4666184186935425e+00" cType="1" res="-1.7295326688326895e-04" rms="1.9785408675670624e-01" purity="4.9847981333732605e-01" nType="0">
        <Node pos="l" depth="1" NCoef="0" IVar="9" Cut="6.6679847240447998e-01" cType="1" res="1.7176097258925438e-02" rms="2.4531048536300659e-01" purity="4.3351998925209045e-01" nType="0">
          <Node pos="l" depth="2" NCoef="0" IVar="8" Cut="-6.6645920276641846e-01" cType="1" res="3.0658983159810305e-03" rms="2.1677090227603912e-01" purity="4.1506811976432800e-01" nType="0">
            <Node pos="l" depth="3" NCoef="0" IVar="-1" Cut="0.0000000000000000e+00" cType="1" res="-5.6272808462381363e-02" rms="1.9006003439426422e-01" purity="2.7362981438636780e-01" nType="-99"/>
            <Node pos="r" depth="3" NCoef="0" IVar="-1" Cut="0.0000000000000000e+00" cType="1" res="3.6734059453010559e-02" rms="2.2659054398536682e-01" purity="4.7862082719802856e-01" nType="-99"/>
          </Node>
          <Node pos="r" depth="2" NCoef="0" IVar="-1" Cut="0.0000000000000000e+00" cType="1" res="8.1155002117156982e-02" rms="3.0146750807762146e-01" purity="4.7884801030158997e-01" nType="-99"/>
        </Node>
        <Node pos="r" depth="1" NCoef="0" IVar="7" Cut="-1.1203227043151855e+00" cType="1" res="-2.4799280799925327e-03" rms="1.9053691625595093e-01" purity="5.0711774826049805e-01" nType="0">
          <Node pos="l" depth="2" NCoef="0" IVar="8" Cut="-3.9140468835830688e-01" cType="1" res="-1.9273249432444572e-02" rms="1.8872360885143280e-01" purity="1.9782431423664093e-01" nType="0">
            <Node pos="l" depth="3" NCoef="0" IVar="-1" Cut="0.0000000000000000e+00" cType="1" res="6.0808383859694004e-03" rms="2.1848087012767792e-01" purity="2.1225796639919281e-01" nType="-99"/>
            <Node pos="r" depth="3" NCoef="0" IVar="-1" Cut="0.0000000000000000e+00" cType="1" res="-8.7356671690940857e-02" rms="1.6947245597839355e-01" purity="1.9008401036262512e-01" nType="-99"/>
          </Node>
          <Node pos="r" depth="2" NCoef="0" IVar="6" Cut="1.3441891479492188e+02" cType="1" res="-8.4256706759333611e-04" rms="1.9063365459442139e-01" purity="5.3727406263351440e-01" nType="0">
            <Node pos="l" depth="3" NCoef="0" IVar="-1" Cut="0.0000000000000000e+00" cType="1" res="-1.5444151125848293e-02" rms="1.9817039370536804e-01" purity="2.3255807161331177e-01" nType="-99"/>
            <Node pos="r" depth="3" NCoef="0" IVar="-1" Cut="0.0000000000000000e+00" cType="1" res="1.2459085322916508e-02" rms="1.8299414217472076e-01" purity="8.2824498414993286e-01" nType="-99"/>
          </Node>
        </Node>
      </Node>
    </BinaryTree>
    <BinaryTree type="DecisionTree" boostWeight="1.0000000000000000e+00" itree="37">
      <Node pos="s" depth="0" NCoef="0" IVar="9" Cut="-1.9998853206634521e+00" cType="1" res="7.5580336851999164e-04" rms="1.9583716988563538e-01" purity="5.0198167562484741e-01" nType="0">
        <Node pos="l" depth="1" NCoef="0" IVar="-1" Cut="0.0000000000000000e+00" cType="1" res="5.8632940053939819e-02" rms="2.6444247364997864e-01" purity="2.1515738964080811e-01" nType="-99"/>
        <Node pos="r" depth="1" NCoef="0" IVar="10" Cut="-1.1998444795608521e+00" cType="1" res="-1.0943952656816691e-04" rms="1.9309574365615845e-01" purity="5.1145362854003906e-01" nType="0">
          <Node pos="l" depth="2" NCoef="0" IVar="3" Cut="4.9924676513671875e+02" cType="1" res="1.0978176258504391e-02" rms="2.2278247773647308e-01" purity="4.7023969888687134e-01" nType="0">
            <Node pos="l" depth="3" NCoef="0" IVar="-1" Cut="0.0000000000000000e+00" cType="1" res="7.7619351446628571e-02" rms="2.6124158501625061e-01" purity="1.5265841782093048e-01" nType="-99"/>
            <Node pos="r" depth="3" NCoef="0" IVar="-1" Cut="0.0000000000000000e+00" cType="1" res="5.6947986595332623e-03" rms="2.0689488947391510e-01" purity="5.8196198940277100e-01" nType="-99"/>
          </Node>
          <Node pos="r" depth="2" NCoef="0" IVar="4" Cut="4.3152114868164062e+02" cType="1" res="-2.3613453377038240e-03" rms="1.8640930950641632e-01" purity="5.1982420682907104e-01" nType="0">
            <Node pos="l" depth="3" NCoef="0" IVar="-1" Cut="0.0000000000000000e+00" cType="1" res="-2.0034318789839745e-02" rms="2.0137421786785126e-01" purity="1.8069241940975189e-01" nType="-99"/>
            <Node pos="r" depth="3" NCoef="0" IVar="-1" Cut="0.0000000000000000e+00" cType="1" res="1.3914559036493301e-02" rms="1.6840788722038269e-01" purity="8.8808912038803101e-01" nType="-99"/>
          </Node>
        </Node>
      </Node>
    </BinaryTree>
    <BinaryTree type="DecisionTree" boostWeight="1.0000000000000000e+00" itree="38">
      <Node pos="s" depth="0" NCoef="0" IVar="10" Cut="2.2666387557983398e+00" cType="1" res="1.1212196113774553e-04" rms="1.9755814969539642e-01" purity="5.0102996826171875e-01" nType="0">
        <Node pos="l" depth="1" NCoef="0" IVar="8" Cut="1.2000172138214111e+00" cType="1" res="-9.6142658730968833e-04" rms="1.9439798593521118e-01" purity="5.0413608551025391e-01" nType="0">
          <Node pos="l" depth="2" NCoef="0" IVar="2" Cut="1.0448154062032700e-01" cType="1" res="-2.6474324986338615e-03" rms="1.9002515077590942e-01" purity="5.2897143363952637e-01" nType="0">
            <Node pos="l" depth="3" NCoef="0" IVar="-1" Cut="0.0000000000000000e+00" cType="1" res="-1.3974958099424839e-02" rms="1.9430527091026306e-01" purity="4.5832672715187073e-01" nType="-99"/>
            <Node pos="r" depth="3" NCoef="0" IVar="-1" Cut="0.0000000000000000e+00" cType="1" res="3.2385528087615967e-02" rms="1.7049826681613922e-01" purity="8.2347106933593750e-01" nType="-99"/>
          </Node>
          <Node pos="r" depth="2" NCoef="0" IVar="1" Cut="1.6202036132812500e+03" cType="1" res="1.1976211331784725e-02" rms="2.2472377121448517e-01" purity="3.1356078386306763e-01" nType="0">
            <Node pos="l" depth="3" NCoef="0" IVar="-1" Cut="0.0000000000000000e+00" cType="1" res="-8.1667013466358185e-02" rms="5.4140508174896240e-02" purity="2.8620809316635132e-03" nType="-99"/>
            <Node pos="r" depth="3" NCoef="0" IVar="-1" Cut="0.0000000000000000e+00" cType="1" res="4.5982658863067627e-02" rms="2.8690880537033081e-01" purity="5.2550309896469116e-01" nType="-99"/>
          </Node>
        </Node>
        <Node pos="r" depth="1" NCoef="0" IVar="-1" Cut="0.0000000000000000e+00" cType="1" res="6.9262839853763580e-02" rms="2.8507831692695618e-01" purity="3.9140158891677856e-01" nType="-99"/>
      </Node>
    </BinaryTree>
    <BinaryTree type="DecisionTree" boostWeight="1.0000000000000000e+00" itree="39">
      <Node pos="s" depth="0" NCoef="0" IVar="9" Cut="-1.7328989505767822e+00" cType="1" res="5.6520709767937660e-04" rms="1.9472028315067291e-01" purity="5.0124514102935791e-01" nType="0">
        <Node pos="l" depth="1" NCoef="0" IVar="4" Cut="3.1497720336914062e+02" cType="1" res="2.0804755389690399e-02" rms="2.4175119400024414e-01" purity="2.9954171180725098e-01" nType="0">
          <Node pos="l" depth="2" NCoef="0" IVar="-1" Cut="0.0000000000000000e+00" cType="1" res="2.8758840635418892e-02" rms="1.8366849422454834e-01" purity="9.4782948493957520e-02" nType="-99"/>
          <Node pos="r" depth="2" NCoef="0" IVar="-1" Cut="0.0000000000000000e+00" cType="1" res="5.5222962051630020e-02" rms="2.9094910621643066e-01" purity="5.1883709430694580e-01" nType="-99"/>
        </Node>
        <Node pos="r" depth="1" NCoef="0" IVar="10" Cut="-9.3308275938034058e-01" cType="1" res="-6.3023017719388008e-04" rms="1.9151477515697479e-01" purity="5.1315867900848389e-01" nType="0">
          <Node pos="l" depth="2" NCoef="0" IVar="9" Cut="1.2887636423110962e+00" cType="1" res="7.9194335266947746e-03" rms="2.1402359008789062e-01" purity="4.9682414531707764e-01" nType="0">
            <Node pos="l" depth="3" NCoef="0" IVar="-1" Cut="0.0000000000000000e+00" cType="1" res="1.1356885544955730e-02" rms="2.0467799901962280e-01" purity="5.0560235977172852e-01" nType="-99"/>
            <Node pos="r" depth="3" NCoef="0" IVar="-1" Cut="0.0000000000000000e+00" cType="1" res="4.8138257116079330e-02" rms="2.6481008529663086e-01" purity="4.4108065962791443e-01" nType="-99"/>
          </Node>
          <Node pos="r" depth="2" NCoef="0" IVar="1" Cut="2.8897626953125000e+03" cType="1" res="-3.1485073268413544e-03" rms="1.8428607285022736e-01" purity="5.1796996593475342e-01" nType="0">
            <Node pos="l" depth="3" NCoef="0" IVar="-1" Cut="0.0000000000000000e+00" cType="1" res="-1.5109009109437466e-02" rms="2.2014644742012024e-01" purity="2.1918024122714996e-01" nType="-99"/>
            <Node pos="r" depth="3" NCoef="0" IVar="-1" Cut="0.0000000000000000e+00" cType="1" res="2.5343243032693863e-02" rms="1.0532560944557190e-01" purity="9.8749154806137085e-01" nType="-99"/>
          </Node>
        </Node>
      </Node>
    </BinaryTree>
    <BinaryTree type="DecisionTree" boostWeight="1.0000000000000000e+00" itree="40">
      <Node pos="s" depth="0" NCoef="0" IVar="9" Cut="9.3325066566467285e-01" cType="1" res="8.2452548667788506e-04" rms="1.9361943006515503e-01" purity="5.0245112180709839e-01" nType="0">
        <Node pos="l" depth="1" NCoef="0" IVar="6" Cut="2.2960047912597656e+02" cType="1" res="-1.2400388950482011e-03" rms="1.8625454604625702e-01" purity="5.2158868312835693e-01" nType="0">
          <Node pos="l" depth="2" NCoef="0" IVar="8" Cut="6.6669827699661255e-01" cType="1" res="-4.0159896016120911e-03" rms="2.0412716269493103e-01" purity="3.7231743335723877e-01" nType="0">
            <Node pos="l" depth="3" NCoef="0" IVar="-1" Cut="0.0000000000000000e+00" cType="1" res="-1.8808741122484207e-02" rms="1.9664980471134186e-01" purity="3.9251527190208435e-01" nType="-99"/>
            <Node pos="r" depth="3" NCoef="0" IVar="-1" Cut="0.0000000000000000e+00" cType="1" res="1.5414210036396980e-02" rms="2.2337880730628967e-01" purity="3.1581389904022217e-01" nType="-99"/>
          </Node>
          <Node pos="r" depth="2" NCoef="0" IVar="-1" Cut="0.0000000000000000e+00" cType="1" res="3.5600092262029648e-02" rms="1.1595874279737473e-01" purity="9.7408187389373779e-01" nType="-99"/>
        </Node>
        <Node pos="r" depth="1" NCoef="0" IVar="4" Cut="2.2001284790039062e+02" cType="1" res="8.9073618873953819e-03" rms="2.1990831196308136e-01" purity="4.2752668261528015e-01" nType="0">
          <Node pos="l" depth="2" NCoef="0" IVar="-1" Cut="0.0000000000000000e+00" cType="1" res="-6.1125431209802628e-02" rms="1.0623712092638016e-01" purity="2.4500302970409393e-02" nType="-99"/>
          <Node pos="r" depth="2" NCoef="0" IVar="1" Cut="2.3167006835937500e+03" cType="1" res="1.3603610917925835e-02" rms="2.3587529361248016e-01" purity="5.0808000564575195e-01" nType="0">
            <Node pos="l" depth="3" NCoef="0" IVar="-1" Cut="0.0000000000000000e+00" cType="1" res="4.6478953212499619e-02" rms="2.6440668106079102e-01" purity="1.4094622433185577e-01" nType="-99"/>
            <Node pos="r" depth="3" NCoef="0" IVar="-1" Cut="0.0000000000000000e+00" cType="1" res="-9.0216808021068573e-03" rms="1.9538402557373047e-01" purity="9.4373488426208496e-01" nType="-99"/>
          </Node>
        </Node>
      </Node>
    </BinaryTree>
    <BinaryTree type="DecisionTree" boostWeight="1.0000000000000000e+00" itree="41">
      <Node pos="s" depth="0" NCoef="0" IVar="10" Cut="6.6663634777069092e-01" cType="1" res="-4.4388533569872379e-04" rms="1.9630444049835205e-01" purity="4.9842044711112976e-01" nType="0">
        <Node pos="l" depth="1" NCoef="0" IVar="0" Cut="7.2616369628906250e+02" cType="1" res="-3.2955498900264502e-03" rms="1.9012102484703064e-01" purity="5.0426685810089111e-01" nType="0">
          <Node pos="l" depth="2" NCoef="0" IVar="1" Cut="1.9116855468750000e+03" cType="1" res="-8.5371630266308784e-03" rms="2.0096179842948914e-01" purity="1.6834802925586700e-01" nType="0">
            <Node pos="l" depth="3" NCoef="0" IVar="-1" Cut="0.0000000000000000e+00" cType="1" res="-1.6165135428309441e-02" rms="1.3520158827304840e-01" purity="2.0588407292962074e-02" nType="-99"/>
            <Node pos="r" depth="3" NCoef="0" IVar="-1" Cut="0.0000000000000000e+00" cType="1" res="-2.2840790450572968e-02" rms="3.2663685083389282e-01" purity="6.1350768804550171e-01" nType="-99"/>
          </Node>
          <Node pos="r" depth="2" NCoef="0" IVar="8" Cut="-9.3156045675277710e-01" cType="1" res="2.5303985457867384e-03" rms="1.7711365222930908e-01" purity="8.7763392925262451e-01" nType="0">
            <Node pos="l" depth="3" NCoef="0" IVar="-1" Cut="0.0000000000000000e+00" cType="1" res="3.9142142981290817e-02" rms="2.3869177699089050e-01" purity="7.9070639610290527e-01" nType="-99"/>
            <Node pos="r" depth="3" NCoef="0" IVar="-1" Cut="0.0000000000000000e+00" cType="1" res="1.4888958048686618e-06" rms="1.6547891497612000e-01" purity="8.9100331068038940e-01" nType="-99"/>
          </Node>
        </Node>
        <Node pos="r" depth="1" NCoef="0" IVar="1" Cut="1.6472941894531250e+03" cType="1" res="6.0361414216458797e-03" rms="2.0953428745269775e-01" purity="4.8513525724411011e-01" nType="0">
          <Node pos="l" depth="2" NCoef="0" IVar="7" Cut="1.9934408366680145e-01" cType="1" res="-4.8297471366822720e-03" rms="1.0251310467720032e-01" purity="1.0850790888071060e-02" nType="0">
            <Node pos="l" depth="3" NCoef="0" IVar="-1" Cut="0.0000000000000000e+00" cType="1" res="-7.3259241878986359e-02" rms="6.5990276634693146e-02" purity="4.5307353138923645e-03" nType="-99"/>
            <Node pos="r" depth="3" NCoef="0" IVar="-1" Cut="0.0000000000000000e+00" cType="1" res="1.1398321948945522e-02" rms="1.2867005169391632e-01" purity="1.7149062827229500e-02" nType="-99"/>
          </Node>
          <Node pos="r" depth="2" NCoef="0" IVar="1" Cut="2.5893420410156250e+03" cType="1" res="1.0947372764348984e-02" rms="2.4273756146430969e-01" purity="6.9950532913208008e-01" nType="0">
            <Node pos="l" depth="3" NCoef="0" IVar="-1" Cut="0.0000000000000000e+00" cType="1" res="2.7035269886255264e-02" rms="3.3052214980125427e-01" purity="3.3122792840003967e-01" nType="-99"/>
            <Node pos="r" depth="3" NCoef="0" IVar="-1" Cut="0.0000000000000000e+00" cType="1" res="-1.0306795593351126e-03" rms="1.4574432373046875e-01" purity="9.7311609983444214e-01" nType="-99"/>
          </Node>
        </Node>
      </Node>
    </BinaryTree>
    <BinaryTree type="DecisionTree" boostWeight="1.0000000000000000e+00" itree="42">
      <Node pos="s" depth="0" NCoef="0" IVar="10" Cut="1.7332067489624023e+00" cType="1" res="4.0982766076922417e-03" rms="2.0134104788303375e-01" purity="5.0201261043548584e-01" nType="0">
        <Node pos="l" depth="1" NCoef="0" IVar="10" Cut="-1.2888406515121460e+00" cType="1" res="2.5269684847444296e-03" rms="1.9626833498477936e-01" purity="5.1071351766586304e-01" nType="0">
          <Node pos="l" depth="2" NCoef="0" IVar="3" Cut="7.0945104980468750e+02" cType="1" res="1.3595098629593849e-02" rms="2.3161382973194122e-01" purity="4.5526495575904846e-01" nType="0">
            <Node pos="l" depth="3" NCoef="0" IVar="-1" Cut="0.0000000000000000e+00" cType="1" res="5.2229300141334534e-02" rms="2.5209680199623108e-01" purity="2.5327876210212708e-01" nType="-99"/>
            <Node pos="r" depth="3" NCoef="0" IVar="-1" Cut="0.0000000000000000e+00" cType="1" res="-1.7555985599756241e-02" rms="1.9175288081169128e-01" purity="7.8555452823638916e-01" nType="-99"/>
          </Node>
          <Node pos="r" depth="2" NCoef="0" IVar="10" Cut="1.5022881329059601e-01" cType="1" res="3.5471568116918206e-04" rms="1.8847888708114624e-01" purity="5.2159595489501953e-01" nType="0">
            <Node pos="l" depth="3" NCoef="0" IVar="-1" Cut="0.0000000000000000e+00" cType="1" res="-1.0694762691855431e-02" rms="1.8323534727096558e-01" purity="5.1860344409942627e-01" nType="-99"/>
            <Node pos="r" depth="3" NCoef="0" IVar="-1" Cut="0.0000000000000000e+00" cType="1" res="1.2524804100394249e-02" rms="1.9365260004997253e-01" purity="5.2468580007553101e-01" nType="-99"/>
          </Node>
        </Node>
        <Node pos="r" depth="1" NCoef="0" IVar="1" Cut="1.6403837890625000e+03" cType="1" res="2.1551530808210373e-02" rms="2.5021889805793762e-01" purity="4.0536770224571228e-01" nType="0">
          <Node pos="l" depth="2" NCoef="0" IVar="-1" Cut="0.0000000000000000e+00" cType="1" res="1.6892092302441597e-02" rms="1.4091953635215759e-01" purity="2.1004663780331612e-02" nType="-99"/>
          <Node pos="r" depth="2" NCoef="0" IVar="1" Cut="2.3270415039062500e+03" cType="1" res="3.2199956476688385e-02" rms="2.9460248351097107e-01" purity="6.2557184696197510e-01" nType="0">
            <Node pos="l" depth="3" NCoef="0" IVar="-1" Cut="0.0000000000000000e+00" cType="1" res="6.4197286963462830e-02" rms="3.5550427436828613e-01" purity="3.0734255909919739e-01" nType="-99"/>
            <Node pos="r" depth="3" NCoef="0" IVar="-1" Cut="0.0000000000000000e+00" cType="1" res="1.1985285673290491e-03" rms="2.1644933521747589e-01" purity="9.3008351325988770e-01" nType="-99"/>
          </Node>
        </Node>
      </Node>
    </BinaryTree>
    <BinaryTree type="DecisionTree" boostWeight="1.0000000000000000e+00" itree="43">
      <Node pos="s" depth="0" NCoef="0" IVar="10" Cut="1.7330577373504639e+00" cType="1" res="-3.7237469223327935e-04" rms="1.9540505111217499e-01" purity="4.9828705191612244e-01" nType="0">
        <Node pos="l" depth="1" NCoef="0" IVar="1" Cut="3.0488752441406250e+03" cType="1" res="-2.4895009119063616e-03" rms="1.8751585483551025e-01" purity="5.0445067882537842e-01" nType="0">
          <Node pos="l" depth="2" NCoef="0" IVar="1" Cut="1.9496086425781250e+03" cType="1" res="-6.1750030145049095e-03" rms="2.1880768239498138e-01" purity="2.6618894934654236e-01" nType="0">
            <Node pos="l" depth="3" NCoef="0" IVar="-1" Cut="0.0000000000000000e+00" cType="1" res="-7.0250751450657845e-03" rms="1.5009494125843048e-01" purity="2.5907902047038078e-02" nType="-99"/>
            <Node pos="r" depth="3" NCoef="0" IVar="-1" Cut="0.0000000000000000e+00" cType="1" res="-1.5498315915465355e-02" rms="3.0627325177192688e-01" purity="7.0248556137084961e-01" nType="-99"/>
          </Node>
          <Node pos="r" depth="2" NCoef="0" IVar="0" Cut="1.3918897705078125e+03" cType="1" res="5.0321617163717747e-03" rms="9.5545455813407898e-02" purity="9.9071395397186279e-01" nType="0">
            <Node pos="l" depth="3" NCoef="0" IVar="-1" Cut="0.0000000000000000e+00" cType="1" res="2.0387081429362297e-02" rms="9.5044158399105072e-02" purity="9.9026077985763550e-01" nType="-99"/>
            <Node pos="r" depth="3" NCoef="0" IVar="-1" Cut="0.0000000000000000e+00" cType="1" res="7.0040896534919739e-02" rms="9.6441224217414856e-02" purity="9.9180489778518677e-01" nType="-99"/>
          </Node>
        </Node>
        <Node pos="r" depth="1" NCoef="0" IVar="3" Cut="5.7866845703125000e+02" cType="1" res="2.3538554087281227e-02" rms="2.6773005723953247e-01" purity="4.2867445945739746e-01" nType="0">
          <Node pos="l" depth="2" NCoef="0" IVar="-1" Cut="0.0000000000000000e+00" cType="1" res="8.1139840185642242e-02" rms="2.9774111509323120e-01" purity="2.1277660131454468e-01" nType="-99"/>
          <Node pos="r" depth="2" NCoef="0" IVar="-1" Cut="0.0000000000000000e+00" cType="1" res="1.6609737649559975e-02" rms="2.4312376976013184e-01" purity="5.8146214485168457e-01" nType="-99"/>
        </Node>
      </Node>
    </BinaryTree>
    <BinaryTree type="DecisionTree" boostWeight="1.0000000000000000e+00" itree="44">
      <Node pos="s" depth="0" NCoef="0" IVar="6" Cut="1.3980029296875000e+02" cType="1" res="-7.2507461300119758e-04" rms="1.9495607912540436e-01" purity="4.9293091893196106e-01" nType="0">
        <Node pos="l" depth="1" NCoef="0" IVar="0" Cut="7.2617761230468750e+02" cType="1" res="-4.9333013594150543e-03" rms="1.9892251491546631e-01" purity="2.1394272148609161e-01" nType="0">
          <Node pos="l" depth="2" NCoef="0" IVar="1" Cut="2.0239926757812500e+03" cType="1" res="-8.1060435622930527e-03" rms="1.6072985529899597e-01" purity="5.2491553127765656e-02" nType="0">
            <Node pos="l" depth="3" NCoef="0" IVar="-1" Cut="0.0000000000000000e+00" cType="1" res="-2.9222305864095688e-02" rms="1.2474712729454041e-01" purity="1.7623987048864365e-02" nType="-99"/>
            <Node pos="r" depth="3" NCoef="0" IVar="-1" Cut="0.0000000000000000e+00" cType="1" res="-1.9992113113403320e-02" rms="3.6950060725212097e-01" purity="4.2958259582519531e-01" nType="-99"/>
          </Node>
          <Node pos="r" depth="2" NCoef="0" IVar="8" Cut="-6.6634482145309448e-01" cType="1" res="3.5323114134371281e-03" rms="2.7590337395668030e-01" purity="6.4473187923431396e-01" nType="0">
            <Node pos="l" depth="3" NCoef="0" IVar="-1" Cut="0.0000000000000000e+00" cType="1" res="4.7096140682697296e-02" rms="3.0985221266746521e-01" purity="6.0782265663146973e-01" nType="-99"/>
            <Node pos="r" depth="3" NCoef="0" IVar="-1" Cut="0.0000000000000000e+00" cType="1" res="-1.2704893015325069e-02" rms="2.6215150952339172e-01" purity="6.5754973888397217e-01" nType="-99"/>
          </Node>
        </Node>
        <Node pos="r" depth="1" NCoef="0" IVar="7" Cut="9.5925283432006836e-01" cType="1" res="4.1568633168935776e-03" rms="1.9013440608978271e-01" purity="8.1658339500427246e-01" nType="0">
          <Node pos="l" depth="2" NCoef="0" IVar="5" Cut="2.3999693298339844e+02" cType="1" res="6.3043269328773022e-03" rms="1.8472683429718018e-01" purity="8.4027487039566040e-01" nType="0">
            <Node pos="l" depth="3" NCoef="0" IVar="-1" Cut="0.0000000000000000e+00" cType="1" res="2.9936945065855980e-02" rms="2.6249158382415771e-01" purity="4.4474831223487854e-01" nType="-99"/>
            <Node pos="r" depth="3" NCoef="0" IVar="-1" Cut="0.0000000000000000e+00" cType="1" res="1.1756626889109612e-02" rms="1.6123448312282562e-01" purity="9.3214988708496094e-01" nType="-99"/>
          </Node>
          <Node pos="r" depth="2" NCoef="0" IVar="-1" Cut="0.0000000000000000e+00" cType="1" res="-3.6207657307386398e-02" rms="2.4029222130775452e-01" purity="5.5720973014831543e-01" nType="-99"/>
        </Node>
      </Node>
    </BinaryTree>
    <BinaryTree type="DecisionTree" boostWeight="1.0000000000000000e+00" itree="45">
      <Node pos="s" depth="0" NCoef="0" IVar="9" Cut="1.1999119520187378e+00" cType="1" res="1.3218724634498358e-03" rms="1.9738420844078064e-01" purity="4.9990877509117126e-01" nType="0">
        <Node pos="l" depth="1" NCoef="0" IVar="9" Cut="-5.1411819458007812e-01" cType="1" res="-7.2885857662186027e-04" rms="1.9080325961112976e-01" purity="5.1714056730270386e-01" nType="0">
          <Node pos="l" depth="2" NCoef="0" IVar="8" Cut="9.3425464630126953e-01" cType="1" res="6.2820832245051861e-03" rms="2.0557378232479095e-01" purity="4.6789342164993286e-01" nType="0">
            <Node pos="l" depth="3" NCoef="0" IVar="-1" Cut="0.0000000000000000e+00" cType="1" res="8.4562897682189941e-03" rms="1.9982320070266724e-01" purity="4.8998820781707764e-01" nType="-99"/>
            <Node pos="r" depth="3" NCoef="0" IVar="-1" Cut="0.0000000000000000e+00" cType="1" res="4.5770555734634399e-02" rms="2.3013889789581299e-01" purity="3.6413949728012085e-01" nType="-99"/>
          </Node>
          <Node pos="r" depth="2" NCoef="0" IVar="0" Cut="4.4441247558593750e+02" cType="1" res="-5.0498396158218384e-03" rms="1.8096561729907990e-01" purity="5.4749250411987305e-01" nType="0">
            <Node pos="l" depth="3" NCoef="0" IVar="-1" Cut="0.0000000000000000e+00" cType="1" res="-7.6943479478359222e-02" rms="1.2044305354356766e-01" purity="1.6596669331192970e-02" nType="-99"/>
            <Node pos="r" depth="3" NCoef="0" IVar="-1" Cut="0.0000000000000000e+00" cType="1" res="-3.8570105098187923e-03" rms="1.9233186542987823e-01" purity="6.7301476001739502e-01" nType="-99"/>
          </Node>
        </Node>
        <Node pos="r" depth="1" NCoef="0" IVar="10" Cut="-6.6583716869354248e-01" cType="1" res="1.3483457267284393e-02" rms="2.3224480450153351e-01" purity="3.9771810173988342e-01" nType="0">
          <Node pos="l" depth="2" NCoef="0" IVar="-1" Cut="0.0000000000000000e+00" cType="1" res="6.3048362731933594e-02" rms="2.6726445555686951e-01" purity="4.3765500187873840e-01" nType="-99"/>
          <Node pos="r" depth="2" NCoef="0" IVar="1" Cut="1.8198171386718750e+03" cType="1" res="5.8782892301678658e-03" rms="2.1698983013629913e-01" purity="3.8255190849304199e-01" nType="0">
            <Node pos="l" depth="3" NCoef="0" IVar="-1" Cut="0.0000000000000000e+00" cType="1" res="-1.5708608552813530e-02" rms="1.3091614842414856e-01" purity="1.8096534535288811e-02" nType="-99"/>
            <Node pos="r" depth="3" NCoef="0" IVar="-1" Cut="0.0000000000000000e+00" cType="1" res="2.1384581923484802e-02" rms="2.7661901712417603e-01" purity="7.4272727966308594e-01" nType="-99"/>
          </Node>
        </Node>
      </Node>
    </BinaryTree>
    <BinaryTree type="DecisionTree" boostWeight="1.0000000000000000e+00" itree="46">
      <Node pos="s" depth="0" NCoef="0" IVar="7" Cut="-1.4045932292938232e+00" cType="1" res="4.3982558418065310e-04" rms="1.9591605663299561e-01" purity="5.0486099720001221e-01" nType="0">
        <Node pos="l" depth="1" NCoef="0" IVar="9" Cut="-1.3078196346759796e-01" cType="1" res="-2.1924562752246857e-02" rms="1.8412098288536072e-01" purity="9.8975799977779388e-02" nType="0">
          <Node pos="l" depth="2" NCoef="0" IVar="-1" Cut="0.0000000000000000e+00" cType="1" res="-4.0809895843267441e-02" rms="1.8900594115257263e-01" purity="9.6589200198650360e-02" nType="-99"/>
          <Node pos="r" depth="2" NCoef="0" IVar="-1" Cut="0.0000000000000000e+00" cType="1" res="-8.3517089486122131e-02" rms="1.7874011397361755e-01" purity="1.0140322893857956e-01" nType="-99"/>
        </Node>
        <Node pos="r" depth="1" NCoef="0" IVar="10" Cut="2.2665641307830811e+00" cType="1" res="1.6639622626826167e-03" rms="1.9646777212619781e-01" purity="5.2707749605178833e-01" nType="0">
          <Node pos="l" depth="2" NCoef="0" IVar="8" Cut="-1.2000001668930054e+00" cType="1" res="6.9595302920788527e-04" rms="1.9295963644981384e-01" purity="5.2987015247344971e-01" nType="0">
            <Node pos="l" depth="3" NCoef="0" IVar="-1" Cut="0.0000000000000000e+00" cType="1" res="3.0766941606998444e-02" rms="2.2962750494480133e-01" purity="3.2337167859077454e-01" nType="-99"/>
            <Node pos="r" depth="3" NCoef="0" IVar="-1" Cut="0.0000000000000000e+00" cType="1" res="-2.7522174641489983e-03" rms="1.8776775896549225e-01" purity="5.5586898326873779e-01" nType="-99"/>
          </Node>
          <Node pos="r" depth="2" NCoef="0" IVar="-1" Cut="0.0000000000000000e+00" cType="1" res="6.3319757580757141e-02" rms="2.9595887660980225e-01" purity="4.2426383495330811e-01" nType="-99"/>
        </Node>
      </Node>
    </BinaryTree>
    <BinaryTree type="DecisionTree" boostWeight="1.0000000000000000e+00" itree="47">
      <Node pos="s" depth="0" NCoef="0" IVar="4" Cut="5.0404653930664062e+02" cType="1" res="2.3577264801133424e-04" rms="1.9442181289196014e-01" purity="5.0439375638961792e-01" nType="0">
        <Node pos="l" depth="1" NCoef="0" IVar="1" Cut="1.9525826416015625e+03" cType="1" res="-2.5519554037600756e-03" rms="2.1336060762405396e-01" purity="2.6647615432739258e-01" nType="0">
          <Node pos="l" depth="2" NCoef="0" IVar="1" Cut="1.7946967773437500e+03" cType="1" res="1.2909645447507501e-03" rms="1.6126877069473267e-01" purity="3.1549762934446335e-02" nType="0">
            <Node pos="l" depth="3" NCoef="0" IVar="-1" Cut="0.0000000000000000e+00" cType="1" res="-1.5577929094433784e-02" rms="1.2393642961978912e-01" purity="1.6786582767963409e-02" nType="-99"/>
            <Node pos="r" depth="3" NCoef="0" IVar="-1" Cut="0.0000000000000000e+00" cType="1" res="3.8899157196283340e-02" rms="3.2136985659599304e-01" purity="1.4018516242504120e-01" nType="-99"/>
          </Node>
          <Node pos="r" depth="2" NCoef="0" IVar="3" Cut="5.1384973144531250e+02" cType="1" res="-1.0390402749180794e-02" rms="2.9195275902748108e-01" purity="7.4565815925598145e-01" nType="0">
            <Node pos="l" depth="3" NCoef="0" IVar="-1" Cut="0.0000000000000000e+00" cType="1" res="-4.2075082659721375e-02" rms="3.5305729508399963e-01" purity="7.1824502944946289e-01" nType="-99"/>
            <Node pos="r" depth="3" NCoef="0" IVar="-1" Cut="0.0000000000000000e+00" cType="1" res="-6.5048215910792351e-03" rms="2.8123202919960022e-01" purity="7.4976676702499390e-01" nType="-99"/>
          </Node>
        </Node>
        <Node pos="r" depth="1" NCoef="0" IVar="1" Cut="2.6425317382812500e+03" cType="1" res="5.2976957522332668e-03" rms="1.5406797826290131e-01" purity="9.3640160560607910e-01" nType="0">
          <Node pos="l" depth="2" NCoef="0" IVar="-1" Cut="0.0000000000000000e+00" cType="1" res="2.6560323312878609e-02" rms="3.3533248305320740e-01" purity="5.3392696380615234e-01" nType="-99"/>
          <Node pos="r" depth="2" NCoef="0" IVar="0" Cut="1.1389384765625000e+03" cType="1" res="2.6038726791739464e-03" rms="1.1388222873210907e-01" purity="9.8494833707809448e-01" nType="0">
            <Node pos="l" depth="3" NCoef="0" IVar="-1" Cut="0.0000000000000000e+00" cType="1" res="-4.1689244098961353e-03" rms="1.3854178786277771e-01" purity="9.7721862792968750e-01" nType="-99"/>
            <Node pos="r" depth="3" NCoef="0" IVar="-1" Cut="0.0000000000000000e+00" cType="1" res="6.1148859560489655e-02" rms="6.9993324577808380e-02" purity="9.9492794275283813e-01" nType="-99"/>
          </Node>
        </Node>
      </Node>
    </BinaryTree>
    <BinaryTree type="DecisionTree" boostWeight="1.0000000000000000e+00" itree="48">
      <Node pos="s" depth="0" NCoef="0" IVar="10" Cut="-1.4666773080825806e+00" cType="1" res="-8.5416308138519526e-04" rms="1.9436515867710114e-01" purity="5.0495702028274536e-01" nType="0">
        <Node pos="l" depth="1" NCoef="0" IVar="9" Cut="-9.3362814188003540e-01" cType="1" res="1.0555459186434746e-02" rms="2.3787139356136322e-01" purity="4.5903134346008301e-01" nType="0">
          <Node pos="l" depth="2" NCoef="0" IVar="-1" Cut="0.0000000000000000e+00" cType="1" res="6.7976415157318115e-02" rms="2.7046379446983337e-01" purity="3.3207085728645325e-01" nType="-99"/>
          <Node pos="r" depth="2" NCoef="0" IVar="10" Cut="-1.7841454744338989e+00" cType="1" res="3.0116105917841196e-03" rms="2.2542025148868561e-01" purity="5.0149577856063843e-01" nType="0">
            <Node pos="l" depth="3" NCoef="0" IVar="-1" Cut="0.0000000000000000e+00" cType="1" res="-8.1913080066442490e-03" rms="2.3469938337802887e-01" purity="4.5386129617691040e-01" nType="-99"/>
            <Node pos="r" depth="3" NCoef="0" IVar="-1" Cut="0.0000000000000000e+00" cType="1" res="3.1149813905358315e-02" rms="2.1068592369556427e-01" purity="5.7101827859878540e-01" nType="-99"/>
          </Node>
        </Node>
        <Node pos="r" depth="1" NCoef="0" IVar="4" Cut="3.2338348388671875e+02" cType="1" res="-2.4483762681484222e-03" rms="1.8742878735065460e-01" purity="5.1137405633926392e-01" nType="0">
          <Node pos="l" depth="2" NCoef="0" IVar="0" Cut="7.3323767089843750e+02" cType="1" res="-8.3050029352307320e-03" rms="1.7094627022743225e-01" purity="7.3147483170032501e-02" nType="0">
            <Node pos="l" depth="3" NCoef="0" IVar="-1" Cut="0.0000000000000000e+00" cType="1" res="-1.9525349140167236e-02" rms="1.4275494217872620e-01" purity="2.8244871646165848e-02" nType="-99"/>
            <Node pos="r" depth="3" NCoef="0" IVar="-1" Cut="0.0000000000000000e+00" cType="1" res="-3.4636702388525009e-02" rms="2.7619129419326782e-01" purity="3.1425374746322632e-01" nType="-99"/>
          </Node>
          <Node pos="r" depth="2" NCoef="0" IVar="5" Cut="1.0704803466796875e+02" cType="1" res="6.3829688588157296e-04" rms="1.9548688828945160e-01" purity="7.4233669042587280e-01" nType="0">
            <Node pos="l" depth="3" NCoef="0" IVar="-1" Cut="0.0000000000000000e+00" cType="1" res="-4.6021085232496262e-02" rms="1.5265145897865295e-01" purity="6.8819969892501831e-02" nType="-99"/>
            <Node pos="r" depth="3" NCoef="0" IVar="-1" Cut="0.0000000000000000e+00" cType="1" res="4.3570632115006447e-03" rms="1.9787913560867310e-01" purity="7.8558170795440674e-01" nType="-99"/>
          </Node>
        </Node>
      </Node>
    </BinaryTree>
    <BinaryTree type="DecisionTree" boostWeight="1.0000000000000000e+00" itree="49">
      <Node pos="s" depth="0" NCoef="0" IVar="3" Cut="1.0959818115234375e+03" cType="1" res="-1.0669190669432282e-03" rms="1.9776408374309540e-01" purity="4.8999264836311340e-01" nType="0">
        <Node pos="l" depth="1" NCoef="0" IVar="4" Cut="3.4809085083007812e+02" cType="1" res="3.1485129147768021e-04" rms="2.0121265947818756e-01" purity="4.3383815884590149e-01" nType="0">
          <Node pos="l" depth="2" NCoef="0" IVar="2" Cut="7.7837213873863220e-02" cType="1" res="-3.9272671565413475e-03" rms="1.8706977367401123e-01" purity="8.3133623003959656e-02" nType="0">
            <Node pos="l" depth="3" NCoef="0" IVar="-1" Cut="0.0000000000000000e+00" cType="1" res="-3.8166230078786612e-03" rms="1.8228195607662201e-01" purity="7.3429942131042480e-02" nType="-99"/>
            <Node pos="r" depth="3" NCoef="0" IVar="-1" Cut="0.0000000000000000e+00" cType="1" res="-4.0610451251268387e-02" rms="2.1623079478740692e-01" purity="1.4974492788314819e-01" nType="-99"/>
          </Node>
          <Node pos="r" depth="2" NCoef="0" IVar="1" Cut="2.1538044433593750e+03" cType="1" res="3.8451703730970621e-03" rms="2.1220061182975769e-01" purity="7.2569674253463745e-01" nType="0">
            <Node pos="l" depth="3" NCoef="0" IVar="-1" Cut="0.0000000000000000e+00" cType="1" res="2.3292390629649162e-02" rms="2.6409646868705750e-01" purity="1.1307609081268311e-01" nType="-99"/>
            <Node pos="r" depth="3" NCoef="0" IVar="-1" Cut="0.0000000000000000e+00" cType="1" res="7.9254456795752048e-04" rms="1.9078771770000458e-01" purity="9.3834537267684937e-01" nType="-99"/>
          </Node>
        </Node>
        <Node pos="r" depth="1" NCoef="0" IVar="2" Cut="1.9399572163820267e-02" cType="1" res="-1.2306705117225647e-02" rms="1.6666348278522491e-01" purity="9.4677251577377319e-01" nType="0">
          <Node pos="l" depth="2" NCoef="0" IVar="-1" Cut="0.0000000000000000e+00" cType="1" res="-6.4026124775409698e-02" rms="2.4089072644710541e-01" purity="8.6620950698852539e-01" nType="-99"/>
          <Node pos="r" depth="2" NCoef="0" IVar="-1" Cut="0.0000000000000000e+00" cType="1" res="-2.9732421040534973e-02" rms="1.2149212509393692e-01" purity="9.8080521821975708e-01" nType="-99"/>
        </Node>
      </Node>
    </BinaryTree>
    <BinaryTree type="DecisionTree" boostWeight="1.0000000000000000e+00" itree="50">
      <Node pos="s" depth="0" NCoef="0" IVar="4" Cut="2.3649501037597656e+02" cType="1" res="1.3755472609773278e-03" rms="1.9634146988391876e-01" purity="5.0134831666946411e-01" nType="0">
        <Node pos="l" depth="1" NCoef="0" IVar="4" Cut="1.8402258300781250e+02" cType="1" res="-7.4968319386243820e-03" rms="1.2618795037269592e-01" purity="2.7065766975283623e-02" nType="0">
          <Node pos="l" depth="2" NCoef="0" IVar="1" Cut="1.6082424316406250e+03" cType="1" res="-1.2885189615190029e-02" rms="7.5370274484157562e-02" purity="1.0089586488902569e-02" nType="0">
            <Node pos="l" depth="3" NCoef="0" IVar="-1" Cut="0.0000000000000000e+00" cType="1" res="-9.9057294428348541e-02" rms="1.4766624197363853e-02" purity="1.9272934878244996e-04" nType="-99"/>
            <Node pos="r" depth="3" NCoef="0" IVar="-1" Cut="0.0000000000000000e+00" cType="1" res="-6.3122041523456573e-02" rms="1.2663216888904572e-01" purity="2.9014632105827332e-02" nType="-99"/>
          </Node>
          <Node pos="r" depth="2" NCoef="0" IVar="8" Cut="-3.9901900291442871e-01" cType="1" res="-2.5087706744670868e-03" rms="1.5922762453556061e-01" purity="4.2780805379152298e-02" nType="0">
            <Node pos="l" depth="3" NCoef="0" IVar="-1" Cut="0.0000000000000000e+00" cType="1" res="2.1689845249056816e-02" rms="1.8718259036540985e-01" purity="5.2298322319984436e-02" nType="-99"/>
            <Node pos="r" depth="3" NCoef="0" IVar="-1" Cut="0.0000000000000000e+00" cType="1" res="-2.9992112889885902e-02" rms="1.3967995345592499e-01" purity="3.7111569195985794e-02" nType="-99"/>
          </Node>
        </Node>
        <Node pos="r" depth="1" NCoef="0" IVar="7" Cut="-9.2206192016601562e-01" cType="1" res="3.2288942020386457e-03" rms="2.0798207819461823e-01" purity="6.0042101144790649e-01" nType="0">
          <Node pos="l" depth="2" NCoef="0" IVar="1" Cut="2.1529316406250000e+03" cType="1" res="-7.3151164688169956e-03" rms="2.2070649266242981e-01" purity="3.4350603818893433e-01" nType="0">
            <Node pos="l" depth="3" NCoef="0" IVar="-1" Cut="0.0000000000000000e+00" cType="1" res="1.1297093704342842e-02" rms="2.0226261019706726e-01" purity="6.8234845995903015e-02" nType="-99"/>
            <Node pos="r" depth="3" NCoef="0" IVar="-1" Cut="0.0000000000000000e+00" cType="1" res="-5.7645931839942932e-02" rms="2.5029033422470093e-01" purity="8.6238992214202881e-01" nType="-99"/>
          </Node>
          <Node pos="r" depth="2" NCoef="0" IVar="5" Cut="2.2045373535156250e+02" cType="1" res="4.6776458621025085e-03" rms="2.0613025128841400e-01" purity="6.3572126626968384e-01" nType="0">
            <Node pos="l" depth="3" NCoef="0" IVar="-1" Cut="0.0000000000000000e+00" cType="1" res="2.4445109069347382e-02" rms="2.3768368363380432e-01" purity="2.3051933944225311e-01" nType="-99"/>
            <Node pos="r" depth="3" NCoef="0" IVar="-1" Cut="0.0000000000000000e+00" cType="1" res="2.0422055386006832e-03" rms="1.8769100308418274e-01" purity="8.4451287984848022e-01" nType="-99"/>
          </Node>
        </Node>
      </Node>
    </BinaryTree>
    <BinaryTree type="DecisionTree" boostWeight="1.0000000000000000e+00" itree="51">
      <Node pos="s" depth="0" NCoef="0" IVar="8" Cut="-1.4665447473526001e+00" cType="1" res="6.8556511541828513e-04" rms="1.9570362567901611e-01" purity="5.0167053937911987e-01" nType="0">
        <Node pos="l" depth="1" NCoef="0" IVar="8" Cut="-1.9109756946563721e+00" cType="1" res="1.8402008339762688e-02" rms="2.4799381196498871e-01" purity="2.3954126238822937e-01" nType="0">
          <Node pos="l" depth="2" NCoef="0" IVar="-1" Cut="0.0000000000000000e+00" cType="1" res="-1.6766354441642761e-02" rms="2.0035646855831146e-01" purity="1.3590298593044281e-01" nType="-99"/>
          <Node pos="r" depth="2" NCoef="0" IVar="-1" Cut="0.0000000000000000e+00" cType="1" res="7.0057824254035950e-02" rms="2.7299097180366516e-01" purity="3.0611902475357056e-01" nType="-99"/>
        </Node>
        <Node pos="r" depth="1" NCoef="0" IVar="9" Cut="-1.7332340478897095e+00" cType="1" res="-6.8908563116565347e-04" rms="1.9098025560379028e-01" purity="5.2200967073440552e-01" nType="0">
          <Node pos="l" depth="2" NCoef="0" IVar="9" Cut="-2.0379850864410400e+00" cType="1" res="1.7690021544694901e-02" rms="2.4049134552478790e-01" purity="3.1415578722953796e-01" nType="0">
            <Node pos="l" depth="3" NCoef="0" IVar="-1" Cut="0.0000000000000000e+00" cType="1" res="6.9421427324414253e-03" rms="2.3875750601291656e-01" purity="2.0188806951045990e-01" nType="-99"/>
            <Node pos="r" depth="3" NCoef="0" IVar="-1" Cut="0.0000000000000000e+00" cType="1" res="6.0613833367824554e-02" rms="2.4131561815738678e-01" purity="4.1699397563934326e-01" nType="-99"/>
          </Node>
          <Node pos="r" depth="2" NCoef="0" IVar="4" Cut="6.2109106445312500e+02" cType="1" res="-1.7777638277038932e-03" rms="1.8758159875869751e-01" purity="5.3432178497314453e-01" nType="0">
            <Node pos="l" depth="3" NCoef="0" IVar="-1" Cut="0.0000000000000000e+00" cType="1" res="-9.8963407799601555e-03" rms="2.0164979994297028e-01" purity="4.0095111727714539e-01" nType="-99"/>
            <Node pos="r" depth="3" NCoef="0" IVar="-1" Cut="0.0000000000000000e+00" cType="1" res="3.2173484563827515e-02" rms="1.3079027831554413e-01" purity="9.7273105382919312e-01" nType="-99"/>
          </Node>
        </Node>
      </Node>
    </BinaryTree>
    <BinaryTree type="DecisionTree" boostWeight="1.0000000000000000e+00" itree="52">
      <Node pos="s" depth="0" NCoef="0" IVar="9" Cut="1.4665815830230713e+00" cType="1" res="-4.4715017429552972e-04" rms="1.9598081707954407e-01" purity="4.9982011318206787e-01" nType="0">
        <Node pos="l" depth="1" NCoef="0" IVar="9" Cut="-5.6505781412124634e-01" cType="1" res="-1.8525716150179505e-03" rms="1.9011695683002472e-01" purity="5.1693880558013916e-01" nType="0">
          <Node pos="l" depth="2" NCoef="0" IVar="10" Cut="-1.7333960533142090e+00" cType="1" res="3.6512163933366537e-03" rms="2.0565849542617798e-01" purity="4.7058328986167908e-01" nType="0">
            <Node pos="l" depth="3" NCoef="0" IVar="-1" Cut="0.0000000000000000e+00" cType="1" res="-3.3736370503902435e-02" rms="2.0923832058906555e-01" purity="3.3706349134445190e-01" nType="-99"/>
            <Node pos="r" depth="3" NCoef="0" IVar="-1" Cut="0.0000000000000000e+00" cType="1" res="1.3883001171052456e-02" rms="2.0520158112049103e-01" purity="4.8403921723365784e-01" nType="-99"/>
          </Node>
          <Node pos="r" depth="2" NCoef="0" IVar="5" Cut="3.3381088256835938e+02" cType="1" res="-4.7702835872769356e-03" rms="1.8127076327800751e-01" purity="5.4151320457458496e-01" nType="0">
            <Node pos="l" depth="3" NCoef="0" IVar="-1" Cut="0.0000000000000000e+00" cType="1" res="-2.2063031792640686e-02" rms="2.0688943564891815e-01" purity="2.8336837887763977e-01" nType="-99"/>
            <Node pos="r" depth="3" NCoef="0" IVar="-1" Cut="0.0000000000000000e+00" cType="1" res="1.7048656940460205e-02" rms="1.2753817439079285e-01" purity="9.6959060430526733e-01" nType="-99"/>
          </Node>
        </Node>
        <Node pos="r" depth="1" NCoef="0" IVar="3" Cut="4.8014572143554688e+02" cType="1" res="1.2353712692856789e-02" rms="2.4258559942245483e-01" purity="3.4389933943748474e-01" nType="0">
          <Node pos="l" depth="2" NCoef="0" IVar="-1" Cut="0.0000000000000000e+00" cType="1" res="9.6591375768184662e-02" rms="2.7807158231735229e-01" purity="1.3112165033817291e-01" nType="-99"/>
          <Node pos="r" depth="2" NCoef="0" IVar="10" Cut="1.3393428921699524e-01" cType="1" res="2.7848777244798839e-04" rms="2.2670266032218933e-01" purity="4.2357540130615234e-01" nType="0">
            <Node pos="l" depth="3" NCoef="0" IVar="-1" Cut="0.0000000000000000e+00" cType="1" res="2.9467314481735229e-02" rms="2.4118480086326599e-01" purity="4.4614112377166748e-01" nType="-99"/>
            <Node pos="r" depth="3" NCoef="0" IVar="-1" Cut="0.0000000000000000e+00" cType="1" res="-3.2996688038110733e-02" rms="2.0973868668079376e-01" purity="4.0046548843383789e-01" nType="-99"/>
          </Node>
        </Node>
      </Node>
    </BinaryTree>
    <BinaryTree type="DecisionTree" boostWeight="1.0000000000000000e+00" itree="53">
      <Node pos="s" depth="0" NCoef="0" IVar="8" Cut="1.4664571285247803e+00" cType="1" res="4.4856927706860006e-04" rms="1.9438582658767700e-01" purity="4.9922958016395569e-01" nType="0">
        <Node pos="l" depth="1" NCoef="0" IVar="2" Cut="8.1911779940128326e-02" cType="1" res="-6.2619615346193314e-04" rms="1.9092480838298798e-01" purity="5.1862347126007080e-01" nType="0">
          <Node pos="l" depth="2" NCoef="0" IVar="6" Cut="2.2932180786132812e+02" cType="1" res="-3.1400127336382866e-03" rms="1.9653472304344177e-01" purity="4.2310786247253418e-01" nType="0">
            <Node pos="l" depth="3" NCoef="0" IVar="-1" Cut="0.0000000000000000e+00" cType="1" res="-1.1630445718765259e-02" rms="2.0540416240692139e-01" purity="3.1497010588645935e-01" nType="-99"/>
            <Node pos="r" depth="3" NCoef="0" IVar="-1" Cut="0.0000000000000000e+00" cType="1" res="2.3414881899952888e-02" rms="1.4422889053821564e-01" purity="9.6091455221176147e-01" nType="-99"/>
          </Node>
          <Node pos="r" depth="2" NCoef="0" IVar="7" Cut="-4.4528457522392273e-01" cType="1" res="6.5120528452098370e-03" rms="1.7381361126899719e-01" purity="7.8985017538070679e-01" nType="0">
            <Node pos="l" depth="3" NCoef="0" IVar="-1" Cut="0.0000000000000000e+00" cType="1" res="5.1286317408084869e-02" rms="1.8847732245922089e-01" purity="7.6750385761260986e-01" nType="-99"/>
            <Node pos="r" depth="3" NCoef="0" IVar="-1" Cut="0.0000000000000000e+00" cType="1" res="9.9136326462030411e-03" rms="1.6913403570652008e-01" purity="7.9636842012405396e-01" nType="-99"/>
          </Node>
        </Node>
        <Node pos="r" depth="1" NCoef="0" IVar="4" Cut="3.0731286621093750e+02" cType="1" res="1.4585107564926147e-02" rms="2.3475819826126099e-01" purity="2.4413943290710449e-01" nType="0">
          <Node pos="l" depth="2" NCoef="0" IVar="-1" Cut="0.0000000000000000e+00" cType="1" res="9.2791624367237091e-02" rms="2.3075887560844421e-01" purity="9.9577993154525757e-02" nType="-99"/>
          <Node pos="r" depth="2" NCoef="0" IVar="-1" Cut="0.0000000000000000e+00" cType="1" res="-1.2534767389297485e-02" rms="2.3817859590053558e-01" purity="4.3292918801307678e-01" nType="-99"/>
        </Node>
      </Node>
    </BinaryTree>
    <BinaryTree type="DecisionTree" boostWeight="1.0000000000000000e+00" itree="54">
      <Node pos="s" depth="0" NCoef="0" IVar="10" Cut="-1.4666415452957153e+00" cType="1" res="-1.4020212984178215e-04" rms="1.9448333978652954e-01" purity="5.0298911333084106e-01" nType="0">
        <Node pos="l" depth="1" NCoef="0" IVar="5" Cut="1.8903013610839844e+02" cType="1" res="-9.2294104397296906e-03" rms="2.0661275088787079e-01" purity="4.3018129467964172e-01" nType="0">
          <Node pos="l" depth="2" NCoef="0" IVar="8" Cut="-1.3514238595962524e-01" cType="1" res="-2.1651813760399818e-02" rms="1.6894212365150452e-01" purity="7.1421183645725250e-02" nType="0">
            <Node pos="l" depth="3" NCoef="0" IVar="-1" Cut="0.0000000000000000e+00" cType="1" res="-5.9271421283483505e-02" rms="1.5417456626892090e-01" purity="6.7550584673881531e-02" nType="-99"/>
            <Node pos="r" depth="3" NCoef="0" IVar="-1" Cut="0.0000000000000000e+00" cType="1" res="-5.2313379943370819e-02" rms="1.8249921500682831e-01" purity="7.5287781655788422e-02" nType="-99"/>
          </Node>
          <Node pos="r" depth="2" NCoef="0" IVar="-1" Cut="0.0000000000000000e+00" cType="1" res="7.4012245750054717e-04" rms="2.3111942410469055e-01" purity="7.0757913589477539e-01" nType="-99"/>
        </Node>
        <Node pos="r" depth="1" NCoef="0" IVar="8" Cut="-4.0028724074363708e-01" cType="1" res="1.0500801727175713e-03" rms="1.9280672073364258e-01" purity="5.1252377033233643e-01" nType="0">
          <Node pos="l" depth="2" NCoef="0" IVar="9" Cut="-1.4664065837860107e+00" cType="1" res="5.6884665973484516e-03" rms="2.0018079876899719e-01" purity="4.8555937409400940e-01" nType="0">
            <Node pos="l" depth="3" NCoef="0" IVar="-1" Cut="0.0000000000000000e+00" cType="1" res="5.5221691727638245e-02" rms="2.4324576556682587e-01" purity="3.1720983982086182e-01" nType="-99"/>
            <Node pos="r" depth="3" NCoef="0" IVar="-1" Cut="0.0000000000000000e+00" cType="1" res="8.5824793204665184e-03" rms="1.9445553421974182e-01" purity="5.0499802827835083e-01" nType="-99"/>
          </Node>
          <Node pos="r" depth="2" NCoef="0" IVar="7" Cut="1.2298812866210938e+00" cType="1" res="-1.3436261797323823e-03" rms="1.8884406983852386e-01" purity="5.2643913030624390e-01" nType="0">
            <Node pos="l" depth="3" NCoef="0" IVar="-1" Cut="0.0000000000000000e+00" cType="1" res="-7.4799945577979088e-03" rms="1.8518251180648804e-01" purity="5.5084168910980225e-01" nType="-99"/>
            <Node pos="r" depth="3" NCoef="0" IVar="-1" Cut="0.0000000000000000e+00" cType="1" res="3.5681486129760742e-02" rms="2.3059689998626709e-01" purity="2.0963799953460693e-01" nType="-99"/>
          </Node>
        </Node>
      </Node>
    </BinaryTree>
    <BinaryTree type="DecisionTree" boostWeight="1.0000000000000000e+00" itree="55">
      <Node pos="s" depth="0" NCoef="0" IVar="9" Cut="-6.6666901111602783e-01" cType="1" res="1.6673282952979207e-03" rms="1.9675536453723907e-01" purity="5.0342381000518799e-01" nType="0">
        <Node pos="l" depth="1" NCoef="0" IVar="4" Cut="2.2338256835937500e+02" cType="1" res="9.1063538566231728e-03" rms="2.1700429916381836e-01" purity="4.6467390656471252e-01" nType="0">
          <Node pos="l" depth="2" NCoef="0" IVar="-1" Cut="0.0000000000000000e+00" cType="1" res="-3.6759316921234131e-02" rms="1.1396663635969162e-01" purity="2.3467130959033966e-02" nType="-99"/>
          <Node pos="r" depth="2" NCoef="0" IVar="1" Cut="2.8021542968750000e+03" cType="1" res="1.2288203462958336e-02" rms="2.3118993639945984e-01" purity="5.4775720834732056e-01" nType="0">
            <Node pos="l" depth="3" NCoef="0" IVar="-1" Cut="0.0000000000000000e+00" cType="1" res="2.9145229607820511e-02" rms="2.7801588177680969e-01" purity="2.7534946799278259e-01" nType="-99"/>
            <Node pos="r" depth="3" NCoef="0" IVar="-1" Cut="0.0000000000000000e+00" cType="1" res="1.1308671906590462e-02" rms="1.2268278002738953e-01" purity="9.8433607816696167e-01" nType="-99"/>
          </Node>
        </Node>
        <Node pos="r" depth="1" NCoef="0" IVar="6" Cut="8.9509536743164062e+01" cType="1" res="-1.2392167700454593e-03" rms="1.8817308545112610e-01" purity="5.1856404542922974e-01" nType="0">
          <Node pos="l" depth="2" NCoef="0" IVar="6" Cut="6.5051361083984375e+01" cType="1" res="-7.3131518438458443e-03" rms="1.6683962941169739e-01" purity="1.5566574037075043e-01" nType="0">
            <Node pos="l" depth="3" NCoef="0" IVar="-1" Cut="0.0000000000000000e+00" cType="1" res="-5.8485556393861771e-02" rms="1.4513196051120758e-01" purity="1.1265251040458679e-01" nType="-99"/>
            <Node pos="r" depth="3" NCoef="0" IVar="-1" Cut="0.0000000000000000e+00" cType="1" res="3.3402358531020582e-04" rms="1.8101771175861359e-01" purity="1.8781052529811859e-01" nType="-99"/>
          </Node>
          <Node pos="r" depth="2" NCoef="0" IVar="4" Cut="3.3208477783203125e+02" cType="1" res="1.2511606328189373e-03" rms="1.9619648158550262e-01" purity="6.6735619306564331e-01" nType="0">
            <Node pos="l" depth="3" NCoef="0" IVar="-1" Cut="0.0000000000000000e+00" cType="1" res="-1.1473939754068851e-02" rms="2.1743091940879822e-01" purity="1.2890081107616425e-01" nType="-99"/>
            <Node pos="r" depth="3" NCoef="0" IVar="-1" Cut="0.0000000000000000e+00" cType="1" res="1.0913467966020107e-02" rms="1.8777853250503540e-01" purity="8.6414772272109985e-01" nType="-99"/>
          </Node>
        </Node>
      </Node>
    </BinaryTree>
    <BinaryTree type="DecisionTree" boostWeight="1.0000000000000000e+00" itree="56">
      <Node pos="s" depth="0" NCoef="0" IVar="9" Cut="6.6642791032791138e-01" cType="1" res="-7.2262156754732132e-04" rms="1.9549652934074402e-01" purity="4.9564647674560547e-01" nType="0">
        <Node pos="l" depth="1" NCoef="0" IVar="0" Cut="8.8815887451171875e+02" cType="1" res="-3.0946559272706509e-03" rms="1.8969839811325073e-01" purity="5.1415967941284180e-01" nType="0">
          <Node pos="l" depth="2" NCoef="0" IVar="6" Cut="1.4925854492187500e+02" cType="1" res="-6.5190545283257961e-03" rms="2.1128083765506744e-01" purity="2.7443367242813110e-01" nType="0">
            <Node pos="l" depth="3" NCoef="0" IVar="-1" Cut="0.0000000000000000e+00" cType="1" res="-5.9414906427264214e-03" rms="1.9410063326358795e-01" purity="9.8073333501815796e-02" nType="-99"/>
            <Node pos="r" depth="3" NCoef="0" IVar="-1" Cut="0.0000000000000000e+00" cType="1" res="-2.9181981459259987e-02" rms="2.4589717388153076e-01" purity="6.7890799045562744e-01" nType="-99"/>
          </Node>
          <Node pos="r" depth="2" NCoef="0" IVar="3" Cut="6.5763562011718750e+02" cType="1" res="3.0985097400844097e-03" rms="1.4238893985748291e-01" purity="9.4771409034729004e-01" nType="0">
            <Node pos="l" depth="3" NCoef="0" IVar="-1" Cut="0.0000000000000000e+00" cType="1" res="-2.6051929220557213e-02" rms="2.1995833516120911e-01" purity="8.6489820480346680e-01" nType="-99"/>
            <Node pos="r" depth="3" NCoef="0" IVar="-1" Cut="0.0000000000000000e+00" cType="1" res="2.6071989908814430e-02" rms="1.2637080252170563e-01" purity="9.6028810739517212e-01" nType="-99"/>
          </Node>
        </Node>
        <Node pos="r" depth="1" NCoef="0" IVar="1" Cut="1.6762940673828125e+03" cType="1" res="5.5589256808161736e-03" rms="2.0994994044303894e-01" purity="4.4662034511566162e-01" nType="0">
          <Node pos="l" depth="2" NCoef="0" IVar="1" Cut="1.5578831787109375e+03" cType="1" res="-6.2358048744499683e-03" rms="9.2925563454627991e-02" purity="9.3346936628222466e-03" nType="0">
            <Node pos="l" depth="3" NCoef="0" IVar="-1" Cut="0.0000000000000000e+00" cType="1" res="-8.4050767123699188e-02" rms="4.8415683209896088e-02" purity="2.3130483459681273e-03" nType="-99"/>
            <Node pos="r" depth="3" NCoef="0" IVar="-1" Cut="0.0000000000000000e+00" cType="1" res="1.7908198758959770e-02" rms="1.5045361220836639e-01" purity="2.5119828060269356e-02" nType="-99"/>
          </Node>
          <Node pos="r" depth="2" NCoef="0" IVar="1" Cut="2.2025842285156250e+03" cType="1" res="1.2206897139549255e-02" rms="2.5285154581069946e-01" purity="6.9309169054031372e-01" nType="0">
            <Node pos="l" depth="3" NCoef="0" IVar="-1" Cut="0.0000000000000000e+00" cType="1" res="4.3071739375591278e-02" rms="3.3368882536888123e-01" purity="1.9010807573795319e-01" nType="-99"/>
            <Node pos="r" depth="3" NCoef="0" IVar="-1" Cut="0.0000000000000000e+00" cType="1" res="3.4508536919020116e-04" rms="2.0401367545127869e-01" purity="9.2489045858383179e-01" nType="-99"/>
          </Node>
        </Node>
      </Node>
    </BinaryTree>
    <BinaryTree type="DecisionTree" boostWeight="1.0000000000000000e+00" itree="57">
      <Node pos="s" depth="0" NCoef="0" IVar="9" Cut="-1.4662661552429199e+00" cType="1" res="-3.1068071257323027e-04" rms="1.9396640360355377e-01" purity="4.9741086363792419e-01" nType="0">
        <Node pos="l" depth="1" NCoef="0" IVar="1" Cut="2.0723369140625000e+03" cType="1" res="1.0413818992674351e-02" rms="2.3199211061000824e-01" purity="3.5486039519309998e-01" nType="0">
          <Node pos="l" depth="2" NCoef="0" IVar="5" Cut="1.4714518737792969e+02" cType="1" res="-1.6711303032934666e-03" rms="1.9306065142154694e-01" purity="4.5667976140975952e-02" nType="0">
            <Node pos="l" depth="3" NCoef="0" IVar="-1" Cut="0.0000000000000000e+00" cType="1" res="-6.1405166983604431e-02" rms="9.2746444046497345e-02" purity="9.4332806766033173e-03" nType="-99"/>
            <Node pos="r" depth="3" NCoef="0" IVar="-1" Cut="0.0000000000000000e+00" cType="1" res="1.6713539138436317e-02" rms="2.5697693228721619e-01" purity="8.2311704754829407e-02" nType="-99"/>
          </Node>
          <Node pos="r" depth="2" NCoef="0" IVar="-1" Cut="0.0000000000000000e+00" cType="1" res="4.3894156813621521e-02" rms="2.8387725353240967e-01" purity="8.6697894334793091e-01" nType="-99"/>
        </Node>
        <Node pos="r" depth="1" NCoef="0" IVar="0" Cut="7.4111999511718750e+02" cType="1" res="-1.4443021500483155e-03" rms="1.8946608901023865e-01" purity="5.1247900724411011e-01" nType="0">
          <Node pos="l" depth="2" NCoef="0" IVar="1" Cut="2.2322814941406250e+03" cType="1" res="-5.2637266926467419e-03" rms="2.0553572475910187e-01" purity="1.8164730072021484e-01" nType="0">
            <Node pos="l" depth="3" NCoef="0" IVar="-1" Cut="0.0000000000000000e+00" cType="1" res="-6.5527218393981457e-03" rms="1.8459251523017883e-01" purity="5.3677860647439957e-02" nType="-99"/>
            <Node pos="r" depth="3" NCoef="0" IVar="-1" Cut="0.0000000000000000e+00" cType="1" res="-2.6992239058017731e-02" rms="2.9013675451278687e-01" purity="8.4272694587707520e-01" nType="-99"/>
          </Node>
          <Node pos="r" depth="2" NCoef="0" IVar="8" Cut="9.3354564905166626e-01" cType="1" res="2.9077238868921995e-03" rms="1.6920153796672821e-01" purity="8.8944369554519653e-01" nType="0">
            <Node pos="l" depth="3" NCoef="0" IVar="-1" Cut="0.0000000000000000e+00" cType="1" res="-3.7900009192526340e-03" rms="1.5784868597984314e-01" purity="8.9987450838088989e-01" nType="-99"/>
            <Node pos="r" depth="3" NCoef="0" IVar="-1" Cut="0.0000000000000000e+00" cType="1" res="5.7794731110334396e-02" rms="2.2563849389553070e-01" purity="8.2494813203811646e-01" nType="-99"/>
          </Node>
        </Node>
      </Node>
    </BinaryTree>
    <BinaryTree type="DecisionTree" boostWeight="1.0000000000000000e+00" itree="58">
      <Node pos="s" depth="0" NCoef="0" IVar="9" Cut="6.6662472486495972e-01" cType="1" res="1.2393369106575847e-03" rms="1.9828198850154877e-01" purity="4.9811872839927673e-01" nType="0">
        <Node pos="l" depth="1" NCoef="0" IVar="0" Cut="7.2616430664062500e+02" cType="1" res="-1.0085389949381351e-03" rms="1.8975947797298431e-01" purity="5.1460546255111694e-01" nType="0">
          <Node pos="l" depth="2" NCoef="0" IVar="1" Cut="1.9218504638671875e+03" cType="1" res="-4.3428270146250725e-03" rms="2.0405952632427216e-01" purity="1.7058464884757996e-01" nType="0">
            <Node pos="l" depth="3" NCoef="0" IVar="-1" Cut="0.0000000000000000e+00" cType="1" res="1.6557901399210095e-03" rms="1.4598375558853149e-01" purity="2.4246199056506157e-02" nType="-99"/>
            <Node pos="r" depth="3" NCoef="0" IVar="-1" Cut="0.0000000000000000e+00" cType="1" res="-1.9187889993190765e-02" rms="3.2366111874580383e-01" purity="6.2696766853332520e-01" nType="-99"/>
          </Node>
          <Node pos="r" depth="2" NCoef="0" IVar="5" Cut="1.5847795104980469e+02" cType="1" res="2.5702917482703924e-03" rms="1.7302966117858887e-01" purity="8.8385736942291260e-01" nType="0">
            <Node pos="l" depth="3" NCoef="0" IVar="-1" Cut="0.0000000000000000e+00" cType="1" res="2.2702941671013832e-02" rms="2.9527935385704041e-01" purity="2.8640291094779968e-01" nType="-99"/>
            <Node pos="r" depth="3" NCoef="0" IVar="-1" Cut="0.0000000000000000e+00" cType="1" res="3.0674026347696781e-03" rms="1.5158529579639435e-01" purity="9.5616006851196289e-01" nType="-99"/>
          </Node>
        </Node>
        <Node pos="r" depth="1" NCoef="0" IVar="1" Cut="2.5051657714843750e+03" cType="1" res="7.0628440007567406e-03" rms="2.1871516108512878e-01" purity="4.5540693402290344e-01" nType="0">
          <Node pos="l" depth="2" NCoef="0" IVar="1" Cut="1.7683854980468750e+03" cType="1" res="1.3118965551257133e-02" rms="2.4773482978343964e-01" purity="1.4748130738735199e-01" nType="0">
            <Node pos="l" depth="3" NCoef="0" IVar="-1" Cut="0.0000000000000000e+00" cType="1" res="-1.2704592198133469e-02" rms="1.2066051363945007e-01" purity="1.5912517905235291e-02" nType="-99"/>
            <Node pos="r" depth="3" NCoef="0" IVar="-1" Cut="0.0000000000000000e+00" cType="1" res="3.4315753728151321e-02" rms="3.8879185914993286e-01" purity="4.0359610319137573e-01" nType="-99"/>
          </Node>
          <Node pos="r" depth="2" NCoef="0" IVar="3" Cut="1.0232705078125000e+03" cType="1" res="-2.9279568698257208e-03" rms="1.5920192003250122e-01" purity="9.6339267492294312e-01" nType="0">
            <Node pos="l" depth="3" NCoef="0" IVar="-1" Cut="0.0000000000000000e+00" cType="1" res="1.0990997776389122e-02" rms="1.4901106059551239e-01" purity="9.7370821237564087e-01" nType="-99"/>
            <Node pos="r" depth="3" NCoef="0" IVar="-1" Cut="0.0000000000000000e+00" cType="1" res="-5.4132990539073944e-02" rms="1.7892584204673767e-01" purity="9.4079500436782837e-01" nType="-99"/>
          </Node>
        </Node>
      </Node>
    </BinaryTree>
    <BinaryTree type="DecisionTree" boostWeight="1.0000000000000000e+00" itree="59">
      <Node pos="s" depth="0" NCoef="0" IVar="10" Cut="-1.9999756813049316e+00" cType="1" res="1.0338318534195423e-03" rms="1.9552148878574371e-01" purity="4.9656260013580322e-01" nType="0">
        <Node pos="l" depth="1" NCoef="0" IVar="-1" Cut="0.0000000000000000e+00" cType="1" res="4.7296892851591110e-02" rms="2.7203741669654846e-01" purity="3.6890190839767456e-01" nType="-99"/>
        <Node pos="r" depth="1" NCoef="0" IVar="6" Cut="2.3731034851074219e+02" cType="1" res="-2.5570264551788568e-04" rms="1.9059617817401886e-01" purity="5.0322920083999634e-01" nType="0">
          <Node pos="l" depth="2" NCoef="0" IVar="3" Cut="1.1792830810546875e+03" cType="1" res="-1.8627310637384653e-03" rms="2.0733244717121124e-01" purity="3.6627918481826782e-01" nType="0">
            <Node pos="l" depth="3" NCoef="0" IVar="-1" Cut="0.0000000000000000e+00" cType="1" res="-1.7571115167811513e-03" rms="2.0831780135631561e-01" purity="3.2388627529144287e-01" nType="-99"/>
            <Node pos="r" depth="3" NCoef="0" IVar="-1" Cut="0.0000000000000000e+00" cType="1" res="-5.6343693286180496e-02" rms="1.9298072159290314e-01" purity="9.3595707416534424e-01" nType="-99"/>
          </Node>
          <Node pos="r" depth="2" NCoef="0" IVar="-1" Cut="0.0000000000000000e+00" cType="1" res="2.9519271105527878e-02" rms="1.1521736532449722e-01" purity="9.7643947601318359e-01" nType="-99"/>
        </Node>
      </Node>
    </BinaryTree>
    <BinaryTree type="DecisionTree" boostWeight="1.0000000000000000e+00" itree="60">
      <Node pos="s" depth="0" NCoef="0" IVar="7" Cut="1.2218483686447144e+00" cType="1" res="9.3945523258298635e-04" rms="1.9774852693080902e-01" purity="5.0704413652420044e-01" nType="0">
        <Node pos="l" depth="1" NCoef="0" IVar="7" Cut="-1.4041105508804321e+00" cType="1" res="1.9965812098234892e-03" rms="1.9713126122951508e-01" purity="5.3430598974227905e-01" nType="0">
          <Node pos="l" depth="2" NCoef="0" IVar="-1" Cut="0.0000000000000000e+00" cType="1" res="-3.9597373455762863e-02" rms="1.8974782526493073e-01" purity="1.0807307064533234e-01" nType="-99"/>
          <Node pos="r" depth="2" NCoef="0" IVar="5" Cut="1.5328219604492188e+02" cType="1" res="2.8587840497493744e-03" rms="1.9750188291072845e-01" purity="5.5821835994720459e-01" nType="0">
            <Node pos="l" depth="3" NCoef="0" IVar="-1" Cut="0.0000000000000000e+00" cType="1" res="-1.2870449572801590e-02" rms="1.6067287325859070e-01" purity="7.5213789939880371e-02" nType="-99"/>
            <Node pos="r" depth="3" NCoef="0" IVar="-1" Cut="0.0000000000000000e+00" cType="1" res="1.2881928123533726e-02" rms="2.0817957818508148e-01" purity="7.1758127212524414e-01" nType="-99"/>
          </Node>
        </Node>
        <Node pos="r" depth="1" NCoef="0" IVar="7" Cut="1.6720200777053833e+00" cType="1" res="-1.2003936804831028e-02" rms="2.0471368730068207e-01" purity="1.7325083911418915e-01" nType="0">
          <Node pos="l" depth="2" NCoef="0" IVar="-1" Cut="0.0000000000000000e+00" cType="1" res="-4.7159763053059578e-03" rms="2.2749921679496765e-01" purity="2.3759801685810089e-01" nType="-99"/>
          <Node pos="r" depth="2" NCoef="0" IVar="-1" Cut="0.0000000000000000e+00" cType="1" res="-9.4168253242969513e-02" rms="1.5277536213397980e-01" purity="5.5389881134033203e-02" nType="-99"/>
        </Node>
      </Node>
    </BinaryTree>
    <BinaryTree type="DecisionTree" boostWeight="1.0000000000000000e+00" itree="61">
      <Node pos="s" depth="0" NCoef="0" IVar="7" Cut="9.3790894746780396e-01" cType="1" res="5.9459079056978226e-04" rms="1.9625884294509888e-01" purity="4.9866208434104919e-01" nType="0">
        <Node pos="l" depth="1" NCoef="0" IVar="4" Cut="4.1258599853515625e+02" cType="1" res="-1.1655226116999984e-03" rms="1.8997907638549805e-01" purity="5.3206270933151245e-01" nType="0">
          <Node pos="l" depth="2" NCoef="0" IVar="7" Cut="-1.0109850168228149e+00" cType="1" res="-5.4543009027838707e-03" rms="2.0441445708274841e-01" purity="1.7489235103130341e-01" nType="0">
            <Node pos="l" depth="3" NCoef="0" IVar="-1" Cut="0.0000000000000000e+00" cType="1" res="2.2433035075664520e-02" rms="1.9454079866409302e-01" purity="9.4494953751564026e-02" nType="-99"/>
            <Node pos="r" depth="3" NCoef="0" IVar="-1" Cut="0.0000000000000000e+00" cType="1" res="-2.0143836736679077e-02" rms="2.0683087408542633e-01" purity="1.9637914001941681e-01" nType="-99"/>
          </Node>
          <Node pos="r" depth="2" NCoef="0" IVar="5" Cut="1.5895083618164062e+02" cType="1" res="2.9759989120066166e-03" rms="1.7481245100498199e-01" purity="8.7696951627731323e-01" nType="0">
            <Node pos="l" depth="3" NCoef="0" IVar="-1" Cut="0.0000000000000000e+00" cType="1" res="3.9109576493501663e-02" rms="2.8630387783050537e-01" purity="3.1061461567878723e-01" nType="-99"/>
            <Node pos="r" depth="3" NCoef="0" IVar="-1" Cut="0.0000000000000000e+00" cType="1" res="2.2788788191974163e-03" rms="1.6023647785186768e-01" purity="9.3005496263504028e-01" nType="-99"/>
          </Node>
        </Node>
        <Node pos="r" depth="1" NCoef="0" IVar="1" Cut="2.2329650878906250e+03" cType="1" res="1.2289189733564854e-02" rms="2.3340021073818207e-01" purity="2.7674049139022827e-01" nType="0">
          <Node pos="l" depth="2" NCoef="0" IVar="1" Cut="1.7569548339843750e+03" cType="1" res="2.0518912002444267e-02" rms="2.2649021446704865e-01" purity="7.2345167398452759e-02" nType="0">
            <Node pos="l" depth="3" NCoef="0" IVar="-1" Cut="0.0000000000000000e+00" cType="1" res="1.4786297455430031e-02" rms="1.2612210214138031e-01" purity="1.6843758523464203e-02" nType="-99"/>
            <Node pos="r" depth="3" NCoef="0" IVar="-1" Cut="0.0000000000000000e+00" cType="1" res="7.3465563356876373e-02" rms="3.8711380958557129e-01" purity="2.3289811611175537e-01" nType="-99"/>
          </Node>
          <Node pos="r" depth="2" NCoef="0" IVar="-1" Cut="0.0000000000000000e+00" cType="1" res="-2.2709440439939499e-02" rms="2.5128057599067688e-01" purity="8.8580697774887085e-01" nType="-99"/>
        </Node>
      </Node>
    </BinaryTree>
    <BinaryTree type="DecisionTree" boostWeight="1.0000000000000000e+00" itree="62">
      <Node pos="s" depth="0" NCoef="0" IVar="7" Cut="-1.1410051584243774e+00" cType="1" res="6.3033442711457610e-04" rms="1.9339093565940857e-01" purity="5.0629740953445435e-01" nType="0">
        <Node pos="l" depth="1" NCoef="0" IVar="3" Cut="4.7555181884765625e+02" cType="1" res="-1.1821661144495010e-02" rms="1.8773968517780304e-01" purity="1.8683269619941711e-01" nType="0">
          <Node pos="l" depth="2" NCoef="0" IVar="-1" Cut="0.0000000000000000e+00" cType="1" res="1.6138162463903427e-02" rms="1.8132849037647247e-01" purity="9.3188874423503876e-02" nType="-99"/>
          <Node pos="r" depth="2" NCoef="0" IVar="1" Cut="1.7893554687500000e+03" cType="1" res="-2.1909523755311966e-02" rms="1.9059796631336212e-01" purity="2.4066375195980072e-01" nType="0">
            <Node pos="l" depth="3" NCoef="0" IVar="-1" Cut="0.0000000000000000e+00" cType="1" res="-5.9582352638244629e-02" rms="6.2663286924362183e-02" purity="4.3058772571384907e-03" nType="-99"/>
            <Node pos="r" depth="3" NCoef="0" IVar="-1" Cut="0.0000000000000000e+00" cType="1" res="-5.6780837476253510e-02" rms="2.7215662598609924e-01" purity="5.2077406644821167e-01" nType="-99"/>
          </Node>
        </Node>
        <Node pos="r" depth="1" NCoef="0" IVar="8" Cut="4.0004155039787292e-01" cType="1" res="1.8048944184556603e-03" rms="1.9387423992156982e-01" purity="5.3643155097961426e-01" nType="0">
          <Node pos="l" depth="2" NCoef="0" IVar="9" Cut="9.3343120813369751e-01" cType="1" res="-2.6833932497538626e-04" rms="1.8765412271022797e-01" purity="5.5627715587615967e-01" nType="0">
            <Node pos="l" depth="3" NCoef="0" IVar="-1" Cut="0.0000000000000000e+00" cType="1" res="-7.6498268172144890e-03" rms="1.7969128489494324e-01" purity="5.6712895631790161e-01" nType="-99"/>
            <Node pos="r" depth="3" NCoef="0" IVar="-1" Cut="0.0000000000000000e+00" cType="1" res="1.9053606316447258e-02" rms="2.1719886362552643e-01" purity="5.1148033142089844e-01" nType="-99"/>
          </Node>
          <Node pos="r" depth="2" NCoef="0" IVar="5" Cut="2.4600700378417969e+02" cType="1" res="5.8383359573781490e-03" rms="2.0537652075290680e-01" purity="4.9782237410545349e-01" nType="0">
            <Node pos="l" depth="3" NCoef="0" IVar="-1" Cut="0.0000000000000000e+00" cType="1" res="2.9619596898555756e-02" rms="2.2093029320240021e-01" purity="1.9474604725837708e-01" nType="-99"/>
            <Node pos="r" depth="3" NCoef="0" IVar="-1" Cut="0.0000000000000000e+00" cType="1" res="-6.5378006547689438e-03" rms="1.8418674170970917e-01" purity="8.6975783109664917e-01" nType="-99"/>
          </Node>
        </Node>
      </Node>
    </BinaryTree>
    <BinaryTree type="DecisionTree" boostWeight="1.0000000000000000e+00" itree="63">
      <Node pos="s" depth="0" NCoef="0" IVar="0" Cut="4.4205529785156250e+02" cType="1" res="-6.1568908859044313e-04" rms="1.9243809580802917e-01" purity="4.9942961335182190e-01" nType="0">
        <Node pos="l" depth="1" NCoef="0" IVar="1" Cut="1.7436173095703125e+03" cType="1" res="-7.6950690709054470e-03" rms="1.4085254073143005e-01" purity="2.5559436529874802e-02" nType="0">
          <Node pos="l" depth="2" NCoef="0" IVar="5" Cut="2.3763351440429688e+02" cType="1" res="-4.4325194321572781e-03" rms="9.6680626273155212e-02" purity="9.7764218226075172e-03" nType="0">
            <Node pos="l" depth="3" NCoef="0" IVar="-1" Cut="0.0000000000000000e+00" cType="1" res="-6.3238985836505890e-02" rms="6.7087113857269287e-02" purity="4.5591541565954685e-03" nType="-99"/>
            <Node pos="r" depth="3" NCoef="0" IVar="-1" Cut="0.0000000000000000e+00" cType="1" res="4.6857424080371857e-02" rms="1.9069994986057281e-01" purity="3.9208684116601944e-02" nType="-99"/>
          </Node>
          <Node pos="r" depth="2" NCoef="0" IVar="-1" Cut="0.0000000000000000e+00" cType="1" res="-2.8600584715604782e-02" rms="2.7652192115783691e-01" purity="1.1129686981439590e-01" nType="-99"/>
        </Node>
        <Node pos="r" depth="1" NCoef="0" IVar="8" Cut="1.7333536148071289e+00" cType="1" res="1.3365566264837980e-03" rms="2.0434288680553436e-01" purity="6.3010650873184204e-01" nType="0">
          <Node pos="l" depth="2" NCoef="0" IVar="9" Cut="-1.4666333198547363e+00" cType="1" res="1.2238149065524340e-04" rms="2.0027498900890350e-01" purity="6.4367598295211792e-01" nType="0">
            <Node pos="l" depth="3" NCoef="0" IVar="-1" Cut="0.0000000000000000e+00" cType="1" res="2.5648046284914017e-02" rms="2.5819453597068787e-01" purity="4.8622876405715942e-01" nType="-99"/>
            <Node pos="r" depth="3" NCoef="0" IVar="-1" Cut="0.0000000000000000e+00" cType="1" res="-2.8549223206937313e-03" rms="1.9414347410202026e-01" purity="6.5790450572967529e-01" nType="-99"/>
          </Node>
          <Node pos="r" depth="2" NCoef="0" IVar="-1" Cut="0.0000000000000000e+00" cType="1" res="6.1036672443151474e-02" rms="2.8928497433662415e-01" purity="2.7582705020904541e-01" nType="-99"/>
        </Node>
      </Node>
    </BinaryTree>
    <BinaryTree type="DecisionTree" boostWeight="1.0000000000000000e+00" itree="64">
      <Node pos="s" depth="0" NCoef="0" IVar="7" Cut="-1.4544999599456787e+00" cType="1" res="-1.4885165728628635e-03" rms="1.8907207250595093e-01" purity="4.9650353193283081e-01" nType="0">
        <Node pos="l" depth="1" NCoef="0" IVar="-1" Cut="0.0000000000000000e+00" cType="1" res="-5.9799388051033020e-02" rms="1.5630541741847992e-01" purity="8.3730109035968781e-02" nType="-99"/>
        <Node pos="r" depth="1" NCoef="0" IVar="7" Cut="9.7419762611389160e-01" cType="1" res="-7.8787846723571420e-04" rms="1.9033932685852051e-01" purity="5.1446998119354248e-01" nType="0">
          <Node pos="l" depth="2" NCoef="0" IVar="7" Cut="8.5854208469390869e-01" cType="1" res="6.9174374220892787e-04" rms="1.8806046247482300e-01" purity="5.5514436960220337e-01" nType="0">
            <Node pos="l" depth="3" NCoef="0" IVar="-1" Cut="0.0000000000000000e+00" cType="1" res="-8.4803171921521425e-04" rms="1.8522261083126068e-01" purity="5.5675178766250610e-01" nType="-99"/>
            <Node pos="r" depth="3" NCoef="0" IVar="-1" Cut="0.0000000000000000e+00" cType="1" res="5.6880697607994080e-02" rms="2.4900074303150177e-01" purity="5.1368117332458496e-01" nType="-99"/>
          </Node>
          <Node pos="r" depth="2" NCoef="0" IVar="9" Cut="6.6720926761627197e-01" cType="1" res="-1.0886781848967075e-02" rms="2.0493361353874207e-01" purity="2.3685413599014282e-01" nType="0">
            <Node pos="l" depth="3" NCoef="0" IVar="-1" Cut="0.0000000000000000e+00" cType="1" res="-3.9123119786381721e-03" rms="2.1774540841579437e-01" purity="2.7001807093620300e-01" nType="-99"/>
            <Node pos="r" depth="3" NCoef="0" IVar="-1" Cut="0.0000000000000000e+00" cType="1" res="-7.4222907423973083e-02" rms="1.7272028326988220e-01" purity="1.6589944064617157e-01" nType="-99"/>
          </Node>
        </Node>
      </Node>
    </BinaryTree>
    <BinaryTree type="DecisionTree" boostWeight="1.0000000000000000e+00" itree="65">
      <Node pos="s" depth="0" NCoef="0" IVar="9" Cut="1.7332204580307007e+00" cType="1" res="2.6267045177519321e-03" rms="1.9755160808563232e-01" purity="5.0497800111770630e-01" nType="0">
        <Node pos="l" depth="1" NCoef="0" IVar="7" Cut="9.6043509244918823e-01" cType="1" res="1.7218105494976044e-03" rms="1.9391700625419617e-01" purity="5.1588213443756104e-01" nType="0">
          <Node pos="l" depth="2" NCoef="0" IVar="2" Cut="2.0896555855870247e-02" cType="1" res="3.1919549219310284e-03" rms="1.9197435677051544e-01" purity="5.5408668518066406e-01" nType="0">
            <Node pos="l" depth="3" NCoef="0" IVar="-1" Cut="0.0000000000000000e+00" cType="1" res="2.6809247210621834e-02" rms="2.1185503900051117e-01" purity="3.0329480767250061e-01" nType="-99"/>
            <Node pos="r" depth="3" NCoef="0" IVar="-1" Cut="0.0000000000000000e+00" cType="1" res="-4.2203464545309544e-04" rms="1.8179470300674438e-01" purity="6.7185252904891968e-01" nType="-99"/>
          </Node>
          <Node pos="r" depth="2" NCoef="0" IVar="1" Cut="1.8164893798828125e+03" cType="1" res="-8.9260982349514961e-03" rms="2.0713360607624054e-01" purity="2.3917552828788757e-01" nType="0">
            <Node pos="l" depth="3" NCoef="0" IVar="-1" Cut="0.0000000000000000e+00" cType="1" res="1.5280643478035927e-02" rms="1.3289779424667358e-01" purity="2.0978301763534546e-02" nType="-99"/>
            <Node pos="r" depth="3" NCoef="0" IVar="-1" Cut="0.0000000000000000e+00" cType="1" res="-3.4936044365167618e-02" rms="2.8897672891616821e-01" purity="5.9509760141372681e-01" nType="-99"/>
          </Node>
        </Node>
        <Node pos="r" depth="1" NCoef="0" IVar="4" Cut="2.9793905639648438e+02" cType="1" res="1.7174419015645981e-02" rms="2.4834704399108887e-01" purity="3.2967555522918701e-01" nType="0">
          <Node pos="l" depth="2" NCoef="0" IVar="-1" Cut="0.0000000000000000e+00" cType="1" res="-9.6183856949210167e-03" rms="1.7474673688411713e-01" purity="7.6238945126533508e-02" nType="-99"/>
          <Node pos="r" depth="2" NCoef="0" IVar="-1" Cut="0.0000000000000000e+00" cType="1" res="5.1326755434274673e-02" rms="2.9143959283828735e-01" purity="5.2373403310775757e-01" nType="-99"/>
        </Node>
      </Node>
    </BinaryTree>
    <BinaryTree type="DecisionTree" boostWeight="1.0000000000000000e+00" itree="66">
      <Node pos="s" depth="0" NCoef="0" IVar="9" Cut="1.9999434947967529e+00" cType="1" res="-3.8633141666650772e-03" rms="1.9403041899204254e-01" purity="4.9690222740173340e-01" nType="0">
        <Node pos="l" depth="1" NCoef="0" IVar="1" Cut="3.1877128906250000e+03" cType="1" res="-3.0215461738407612e-03" rms="1.9231732189655304e-01" purity="5.0635272264480591e-01" nType="0">
          <Node pos="l" depth="2" NCoef="0" IVar="1" Cut="1.8256202392578125e+03" cType="1" res="-5.2461130544543266e-03" rms="2.2187675535678864e-01" purity="3.0889225006103516e-01" nType="0">
            <Node pos="l" depth="3" NCoef="0" IVar="-1" Cut="0.0000000000000000e+00" cType="1" res="-6.5180114470422268e-03" rms="1.2715978920459747e-01" purity="1.7972707748413086e-02" nType="-99"/>
            <Node pos="r" depth="3" NCoef="0" IVar="-1" Cut="0.0000000000000000e+00" cType="1" res="-1.2023006565868855e-02" rms="2.9816785454750061e-01" purity="6.5841186046600342e-01" nType="-99"/>
          </Node>
          <Node pos="r" depth="2" NCoef="0" IVar="3" Cut="1.2342067871093750e+03" cType="1" res="2.4559432640671730e-03" rms="8.2445874810218811e-02" purity="9.9255388975143433e-01" nType="0">
            <Node pos="l" depth="3" NCoef="0" IVar="-1" Cut="0.0000000000000000e+00" cType="1" res="5.1869984716176987e-02" rms="6.0209780931472778e-02" purity="9.9629336595535278e-01" nType="-99"/>
            <Node pos="r" depth="3" NCoef="0" IVar="-1" Cut="0.0000000000000000e+00" cType="1" res="-1.6879005357623100e-02" rms="1.3681004941463470e-01" purity="9.7846060991287231e-01" nType="-99"/>
          </Node>
        </Node>
        <Node pos="r" depth="1" NCoef="0" IVar="-1" Cut="0.0000000000000000e+00" cType="1" res="-5.0203107297420502e-02" rms="2.3691998422145844e-01" purity="2.2427041828632355e-01" nType="-99"/>
      </Node>
    </BinaryTree>
    <BinaryTree type="DecisionTree" boostWeight="1.0000000000000000e+00" itree="67">
      <Node pos="s" depth="0" NCoef="0" IVar="10" Cut="-6.6666829586029053e-01" cType="1" res="8.4248842904344201e-04" rms="1.9337171316146851e-01" purity="5.0008547306060791e-01" nType="0">
        <Node pos="l" depth="1" NCoef="0" IVar="4" Cut="4.1232257080078125e+02" cType="1" res="6.0340287163853645e-03" rms="2.0459865033626556e-01" purity="4.7676983475685120e-01" nType="0">
          <Node pos="l" depth="2" NCoef="0" IVar="1" Cut="1.8509410400390625e+03" cType="1" res="1.1579464189708233e-02" rms="2.2338962554931641e-01" purity="1.7936290800571442e-01" nType="0">
            <Node pos="l" depth="3" NCoef="0" IVar="-1" Cut="0.0000000000000000e+00" cType="1" res="1.8746482208371162e-02" rms="1.5509080886840820e-01" purity="2.7055501937866211e-02" nType="-99"/>
            <Node pos="r" depth="3" NCoef="0" IVar="-1" Cut="0.0000000000000000e+00" cType="1" res="3.0203279107809067e-02" rms="3.4534561634063721e-01" purity="5.9149289131164551e-01" nType="-99"/>
          </Node>
          <Node pos="r" depth="2" NCoef="0" IVar="2" Cut="4.1260771453380585e-02" cType="1" res="-8.4780546603724360e-04" rms="1.7831054329872131e-01" purity="8.4584897756576538e-01" nType="0">
            <Node pos="l" depth="3" NCoef="0" IVar="-1" Cut="0.0000000000000000e+00" cType="1" res="-2.2107955068349838e-02" rms="2.1657946705818176e-01" purity="6.8633168935775757e-01" nType="-99"/>
            <Node pos="r" depth="3" NCoef="0" IVar="-1" Cut="0.0000000000000000e+00" cType="1" res="2.0778002217411995e-02" rms="1.4992754161357880e-01" purity="9.4310724735260010e-01" nType="-99"/>
          </Node>
        </Node>
        <Node pos="r" depth="1" NCoef="0" IVar="2" Cut="2.0896391943097115e-02" cType="1" res="-1.3800286687910557e-03" rms="1.8831722438335419e-01" purity="5.1006704568862915e-01" nType="0">
          <Node pos="l" depth="2" NCoef="0" IVar="2" Cut="1.0945322923362255e-02" cType="1" res="3.9175930432975292e-03" rms="2.0289182662963867e-01" purity="2.5591459870338440e-01" nType="0">
            <Node pos="l" depth="3" NCoef="0" IVar="-1" Cut="0.0000000000000000e+00" cType="1" res="-1.3165906071662903e-02" rms="1.8098075687885284e-01" purity="1.8370938301086426e-01" nType="-99"/>
            <Node pos="r" depth="3" NCoef="0" IVar="-1" Cut="0.0000000000000000e+00" cType="1" res="4.1998859494924545e-02" rms="2.3413351178169250e-01" purity="3.7585341930389404e-01" nType="-99"/>
          </Node>
          <Node pos="r" depth="2" NCoef="0" IVar="8" Cut="-1.1813409328460693e+00" cType="1" res="-4.3500112369656563e-03" rms="1.7956139147281647e-01" purity="6.5255141258239746e-01" nType="0">
            <Node pos="l" depth="3" NCoef="0" IVar="-1" Cut="0.0000000000000000e+00" cType="1" res="3.2309047877788544e-02" rms="2.3322477936744690e-01" purity="5.3766882419586182e-01" nType="-99"/>
            <Node pos="r" depth="3" NCoef="0" IVar="-1" Cut="0.0000000000000000e+00" cType="1" res="-1.9056046381592751e-02" rms="1.7386452853679657e-01" purity="6.6277188062667847e-01" nType="-99"/>
          </Node>
        </Node>
      </Node>
    </BinaryTree>
    <BinaryTree type="DecisionTree" boostWeight="1.0000000000000000e+00" itree="68">
      <Node pos="s" depth="0" NCoef="0" IVar="5" Cut="3.2118481445312500e+02" cType="1" res="-1.8611382693052292e-03" rms="1.9026437401771545e-01" purity="4.9726894497871399e-01" nType="0">
        <Node pos="l" depth="1" NCoef="0" IVar="5" Cut="2.9536053466796875e+02" cType="1" res="-3.8894931785762310e-03" rms="2.1055118739604950e-01" purity="2.6759982109069824e-01" nType="0">
          <Node pos="l" depth="2" NCoef="0" IVar="8" Cut="-3.9998683333396912e-01" cType="1" res="-2.5966190733015537e-03" rms="2.0804977416992188e-01" purity="2.3394864797592163e-01" nType="0">
            <Node pos="l" depth="3" NCoef="0" IVar="-1" Cut="0.0000000000000000e+00" cType="1" res="7.2917616926133633e-03" rms="2.1253183484077454e-01" purity="2.3154979944229126e-01" nType="-99"/>
            <Node pos="r" depth="3" NCoef="0" IVar="-1" Cut="0.0000000000000000e+00" cType="1" res="-1.4403894543647766e-02" rms="2.0521026849746704e-01" purity="2.3539851605892181e-01" nType="-99"/>
          </Node>
          <Node pos="r" depth="2" NCoef="0" IVar="-1" Cut="0.0000000000000000e+00" cType="1" res="-3.9780240505933762e-02" rms="2.4355347454547882e-01" purity="7.6159584522247314e-01" nType="-99"/>
        </Node>
        <Node pos="r" depth="1" NCoef="0" IVar="6" Cut="2.7477673339843750e+02" cType="1" res="2.2358603309839964e-03" rms="1.4053963124752045e-01" purity="9.6116888523101807e-01" nType="0">
          <Node pos="l" depth="2" NCoef="0" IVar="10" Cut="-1.3356886804103851e-01" cType="1" res="1.7538950487505645e-04" rms="1.7616774141788483e-01" purity="9.3460404872894287e-01" nType="0">
            <Node pos="l" depth="3" NCoef="0" IVar="-1" Cut="0.0000000000000000e+00" cType="1" res="1.3575444929301739e-02" rms="1.7913165688514709e-01" purity="9.3703430891036987e-01" nType="-99"/>
            <Node pos="r" depth="3" NCoef="0" IVar="-1" Cut="0.0000000000000000e+00" cType="1" res="-1.1763961985707283e-02" rms="1.7341311275959015e-01" purity="9.3244135379791260e-01" nType="-99"/>
          </Node>
          <Node pos="r" depth="2" NCoef="0" IVar="-1" Cut="0.0000000000000000e+00" cType="1" res="4.4882372021675110e-02" rms="7.9780615866184235e-02" purity="9.9265819787979126e-01" nType="-99"/>
        </Node>
      </Node>
    </BinaryTree>
    <BinaryTree type="DecisionTree" boostWeight="1.0000000000000000e+00" itree="69">
      <Node pos="s" depth="0" NCoef="0" IVar="5" Cut="1.5151918029785156e+02" cType="1" res="-1.0250156046822667e-03" rms="1.9019728899002075e-01" purity="5.0159323215484619e-01" nType="0">
        <Node pos="l" depth="1" NCoef="0" IVar="8" Cut="-3.9990821480751038e-01" cType="1" res="-6.4601874910295010e-03" rms="1.4371515810489655e-01" purity="5.8467142283916473e-02" nType="0">
          <Node pos="l" depth="2" NCoef="0" IVar="1" Cut="1.6309409179687500e+03" cType="1" res="-1.1913302354514599e-02" rms="1.3020248711109161e-01" purity="4.7109548002481461e-02" nType="0">
            <Node pos="l" depth="3" NCoef="0" IVar="-1" Cut="0.0000000000000000e+00" cType="1" res="-7.9099819064140320e-02" rms="4.2824734002351761e-02" purity="1.8082355381920934e-03" nType="-99"/>
            <Node pos="r" depth="3" NCoef="0" IVar="-1" Cut="0.0000000000000000e+00" cType="1" res="-3.8659363985061646e-02" rms="2.0166535675525665e-01" purity="1.1853711307048798e-01" nType="-99"/>
          </Node>
          <Node pos="r" depth="2" NCoef="0" IVar="5" Cut="1.3702168273925781e+02" cType="1" res="-3.2203127630054951e-03" rms="1.5107938647270203e-01" purity="6.5215066075325012e-02" nType="0">
            <Node pos="l" depth="3" NCoef="0" IVar="-1" Cut="0.0000000000000000e+00" cType="1" res="-2.4336947128176689e-02" rms="1.3901941478252411e-01" purity="4.9508605152368546e-02" nType="-99"/>
            <Node pos="r" depth="3" NCoef="0" IVar="-1" Cut="0.0000000000000000e+00" cType="1" res="2.5389937683939934e-02" rms="1.9786304235458374e-01" purity="1.3939931988716125e-01" nType="-99"/>
          </Node>
        </Node>
        <Node pos="r" depth="1" NCoef="0" IVar="10" Cut="1.4666309356689453e+00" cType="1" res="9.2045363271608949e-04" rms="2.0424553751945496e-01" purity="6.6020601987838745e-01" nType="0">
          <Node pos="l" depth="2" NCoef="0" IVar="8" Cut="9.3323105573654175e-01" cType="1" res="-5.3075025789439678e-04" rms="1.9754232466220856e-01" purity="6.6542595624923706e-01" nType="0">
            <Node pos="l" depth="3" NCoef="0" IVar="-1" Cut="0.0000000000000000e+00" cType="1" res="-6.2201065011322498e-03" rms="1.8795013427734375e-01" purity="6.8898516893386841e-01" nType="-99"/>
            <Node pos="r" depth="3" NCoef="0" IVar="-1" Cut="0.0000000000000000e+00" cType="1" res="1.9159166142344475e-02" rms="2.4534048140048981e-01" purity="5.2978986501693726e-01" nType="-99"/>
          </Node>
          <Node pos="r" depth="2" NCoef="0" IVar="6" Cut="1.2421371459960938e+02" cType="1" res="1.2335838750004768e-02" rms="2.5050953030586243e-01" purity="6.1914551258087158e-01" nType="0">
            <Node pos="l" depth="3" NCoef="0" IVar="-1" Cut="0.0000000000000000e+00" cType="1" res="4.3421648442745209e-02" rms="2.8990265727043152e-01" purity="4.3641042709350586e-01" nType="-99"/>
            <Node pos="r" depth="3" NCoef="0" IVar="-1" Cut="0.0000000000000000e+00" cType="1" res="2.5741462595760822e-03" rms="2.1958164870738983e-01" purity="7.4130773544311523e-01" nType="-99"/>
          </Node>
        </Node>
      </Node>
    </BinaryTree>
    <BinaryTree type="DecisionTree" boostWeight="1.0000000000000000e+00" itree="70">
      <Node pos="s" depth="0" NCoef="0" IVar="8" Cut="4.0006819367408752e-01" cType="1" res="1.7146678874269128e-03" rms="1.9592149555683136e-01" purity="4.9389258027076721e-01" nType="0">
        <Node pos="l" depth="1" NCoef="0" IVar="8" Cut="-8.1894487142562866e-01" cType="1" res="-1.0537836933508515e-03" rms="1.8744108080863953e-01" purity="5.1612693071365356e-01" nType="0">
          <Node pos="l" depth="2" NCoef="0" IVar="10" Cut="9.3280440568923950e-01" cType="1" res="5.7756532914936543e-03" rms="2.1305066347122192e-01" purity="3.8785949349403381e-01" nType="0">
            <Node pos="l" depth="3" NCoef="0" IVar="-1" Cut="0.0000000000000000e+00" cType="1" res="3.2355126459151506e-03" rms="2.0008730888366699e-01" purity="3.7425956130027771e-01" nType="-99"/>
            <Node pos="r" depth="3" NCoef="0" IVar="-1" Cut="0.0000000000000000e+00" cType="1" res="4.0360424667596817e-02" rms="2.5447753071784973e-01" purity="4.3793210387229919e-01" nType="-99"/>
          </Node>
          <Node pos="r" depth="2" NCoef="0" IVar="5" Cut="3.3384979248046875e+02" cType="1" res="-4.3132519349455833e-03" rms="1.7379935085773468e-01" purity="5.7734483480453491e-01" nType="0">
            <Node pos="l" depth="3" NCoef="0" IVar="-1" Cut="0.0000000000000000e+00" cType="1" res="-2.6241621002554893e-02" rms="2.0151595771312714e-01" purity="3.1571424007415771e-01" nType="-99"/>
            <Node pos="r" depth="3" NCoef="0" IVar="-1" Cut="0.0000000000000000e+00" cType="1" res="3.4208402037620544e-02" rms="1.1903841793537140e-01" purity="9.7633856534957886e-01" nType="-99"/>
          </Node>
        </Node>
        <Node pos="r" depth="1" NCoef="0" IVar="9" Cut="-6.6668200492858887e-01" cType="1" res="6.8664546124637127e-03" rms="2.1069958806037903e-01" purity="4.5251691341400146e-01" nType="0">
          <Node pos="l" depth="2" NCoef="0" IVar="0" Cut="5.9408715820312500e+02" cType="1" res="2.0966149866580963e-02" rms="2.3595072329044342e-01" purity="4.5029416680335999e-01" nType="0">
            <Node pos="l" depth="3" NCoef="0" IVar="-1" Cut="0.0000000000000000e+00" cType="1" res="8.8542401790618896e-02" rms="2.6256471872329712e-01" purity="1.2621790170669556e-01" nType="-99"/>
            <Node pos="r" depth="3" NCoef="0" IVar="-1" Cut="0.0000000000000000e+00" cType="1" res="1.6016120091080666e-02" rms="2.1019209921360016e-01" purity="7.2033905982971191e-01" nType="-99"/>
          </Node>
          <Node pos="r" depth="2" NCoef="0" IVar="1" Cut="1.9487622070312500e+03" cType="1" res="1.6947640106081963e-03" rms="2.0039407908916473e-01" purity="4.5333218574523926e-01" nType="0">
            <Node pos="l" depth="3" NCoef="0" IVar="-1" Cut="0.0000000000000000e+00" cType="1" res="3.7387508898973465e-02" rms="1.7287942767143250e-01" purity="3.3733710646629333e-02" nType="-99"/>
            <Node pos="r" depth="3" NCoef="0" IVar="-1" Cut="0.0000000000000000e+00" cType="1" res="-9.9290367215871811e-03" rms="2.2335153818130493e-01" purity="8.5409694910049438e-01" nType="-99"/>
          </Node>
        </Node>
      </Node>
    </BinaryTree>
    <BinaryTree type="DecisionTree" boostWeight="1.0000000000000000e+00" itree="71">
      <Node pos="s" depth="0" NCoef="0" IVar="0" Cut="8.6821820068359375e+02" cType="1" res="-1.5424943994730711e-03" rms="1.9405503571033478e-01" purity="4.9756264686584473e-01" nType="0">
        <Node pos="l" depth="1" NCoef="0" IVar="1" Cut="2.1946630859375000e+03" cType="1" res="-3.6128435749560595e-03" rms="2.1301582455635071e-01" purity="2.5491297245025635e-01" nType="0">
          <Node pos="l" depth="2" NCoef="0" IVar="9" Cut="9.3300151824951172e-01" cType="1" res="5.6747248163446784e-04" rms="1.9196677207946777e-01" purity="5.7107742875814438e-02" nType="0">
            <Node pos="l" depth="3" NCoef="0" IVar="-1" Cut="0.0000000000000000e+00" cType="1" res="-7.0052891969680786e-03" rms="1.8339672684669495e-01" purity="4.8844650387763977e-02" nType="-99"/>
            <Node pos="r" depth="3" NCoef="0" IVar="-1" Cut="0.0000000000000000e+00" cType="1" res="2.2438487038016319e-02" rms="2.1625366806983948e-01" purity="8.2868039608001709e-02" nType="-99"/>
          </Node>
          <Node pos="r" depth="2" NCoef="0" IVar="1" Cut="2.4368754882812500e+03" cType="1" res="-1.6497049480676651e-02" rms="2.6726269721984863e-01" purity="8.6457097530364990e-01" nType="0">
            <Node pos="l" depth="3" NCoef="0" IVar="-1" Cut="0.0000000000000000e+00" cType="1" res="-2.3017916828393936e-02" rms="4.1272869706153870e-01" purity="6.0484135150909424e-01" nType="-99"/>
            <Node pos="r" depth="3" NCoef="0" IVar="-1" Cut="0.0000000000000000e+00" cType="1" res="-3.1281802803277969e-02" rms="2.1468007564544678e-01" purity="9.3084895610809326e-01" nType="-99"/>
          </Node>
        </Node>
        <Node pos="r" depth="1" NCoef="0" IVar="8" Cut="-9.3399161100387573e-01" cType="1" res="2.2272861097007990e-03" rms="1.5356229245662689e-01" purity="9.3938958644866943e-01" nType="0">
          <Node pos="l" depth="2" NCoef="0" IVar="-1" Cut="0.0000000000000000e+00" cType="1" res="4.3951790779829025e-02" rms="2.2517454624176025e-01" purity="8.9605426788330078e-01" nType="-99"/>
          <Node pos="r" depth="2" NCoef="0" IVar="1" Cut="2.6742951660156250e+03" cType="1" res="-9.4509974587708712e-05" rms="1.4135333895683289e-01" purity="9.4506829977035522e-01" nType="0">
            <Node pos="l" depth="3" NCoef="0" IVar="-1" Cut="0.0000000000000000e+00" cType="1" res="-2.0417269319295883e-02" rms="3.2750317454338074e-01" purity="5.4449033737182617e-01" nType="-99"/>
            <Node pos="r" depth="3" NCoef="0" IVar="-1" Cut="0.0000000000000000e+00" cType="1" res="1.5606394968926907e-02" rms="1.0526815801858902e-01" purity="9.8567104339599609e-01" nType="-99"/>
          </Node>
        </Node>
      </Node>
    </BinaryTree>
    <BinaryTree type="DecisionTree" boostWeight="1.0000000000000000e+00" itree="72">
      <Node pos="s" depth="0" NCoef="0" IVar="9" Cut="-6.6676992177963257e-01" cType="1" res="1.2723890831694007e-03" rms="1.9477242231369019e-01" purity="5.0192695856094360e-01" nType="0">
        <Node pos="l" depth="1" NCoef="0" IVar="8" Cut="-1.3323175907135010e-01" cType="1" res="6.3377725891768932e-03" rms="2.1095013618469238e-01" purity="4.5594766736030579e-01" nType="0">
          <Node pos="l" depth="2" NCoef="0" IVar="9" Cut="-1.2762516736984253e+00" cType="1" res="-3.5727699287235737e-03" rms="2.0003284513950348e-01" purity="4.1485080122947693e-01" nType="0">
            <Node pos="l" depth="3" NCoef="0" IVar="-1" Cut="0.0000000000000000e+00" cType="1" res="9.0744104236364365e-03" rms="2.2097185254096985e-01" purity="3.5585919022560120e-01" nType="-99"/>
            <Node pos="r" depth="3" NCoef="0" IVar="-1" Cut="0.0000000000000000e+00" cType="1" res="-3.0080297961831093e-02" rms="1.7958511412143707e-01" purity="4.6615579724311829e-01" nType="-99"/>
          </Node>
          <Node pos="r" depth="2" NCoef="0" IVar="0" Cut="5.6889764404296875e+02" cType="1" res="1.4922070316970348e-02" rms="2.1960780024528503e-01" purity="4.9154493212699890e-01" nType="0">
            <Node pos="l" depth="3" NCoef="0" IVar="-1" Cut="0.0000000000000000e+00" cType="1" res="6.1943054199218750e-02" rms="2.4745967984199524e-01" purity="1.2961272895336151e-01" nType="-99"/>
            <Node pos="r" depth="3" NCoef="0" IVar="-1" Cut="0.0000000000000000e+00" cType="1" res="1.4499430544674397e-02" rms="1.9848576188087463e-01" purity="7.3150199651718140e-01" nType="-99"/>
          </Node>
        </Node>
        <Node pos="r" depth="1" NCoef="0" IVar="7" Cut="1.4063765108585358e-01" cType="1" res="-6.8014697171747684e-04" rms="1.8812899291515350e-01" purity="5.1965039968490601e-01" nType="0">
          <Node pos="l" depth="2" NCoef="0" IVar="4" Cut="4.2007540893554688e+02" cType="1" res="-3.1682432163506746e-03" rms="1.8072319030761719e-01" purity="5.3524172306060791e-01" nType="0">
            <Node pos="l" depth="3" NCoef="0" IVar="-1" Cut="0.0000000000000000e+00" cType="1" res="-2.0973425358533859e-02" rms="1.9392833113670349e-01" purity="1.7207044363021851e-01" nType="-99"/>
            <Node pos="r" depth="3" NCoef="0" IVar="-1" Cut="0.0000000000000000e+00" cType="1" res="5.5775847285985947e-03" rms="1.6709056496620178e-01" purity="8.7990629673004150e-01" nType="-99"/>
          </Node>
          <Node pos="r" depth="2" NCoef="0" IVar="10" Cut="1.7332859039306641e+00" cType="1" res="2.4620937183499336e-03" rms="1.9703972339630127e-01" purity="4.9995988607406616e-01" nType="0">
            <Node pos="l" depth="3" NCoef="0" IVar="-1" Cut="0.0000000000000000e+00" cType="1" res="1.5514887636527419e-03" rms="1.8964184820652008e-01" purity="5.0588262081146240e-01" nType="-99"/>
            <Node pos="r" depth="3" NCoef="0" IVar="-1" Cut="0.0000000000000000e+00" cType="1" res="4.0023457258939743e-02" rms="2.6074969768524170e-01" purity="4.3867793679237366e-01" nType="-99"/>
          </Node>
        </Node>
      </Node>
    </BinaryTree>
    <BinaryTree type="DecisionTree" boostWeight="1.0000000000000000e+00" itree="73">
      <Node pos="s" depth="0" NCoef="0" IVar="10" Cut="-1.7333043813705444e+00" cType="1" res="2.0340890841907822e-05" rms="1.9319254159927368e-01" purity="5.0018525123596191e-01" nType="0">
        <Node pos="l" depth="1" NCoef="0" IVar="10" Cut="-2.1396517753601074e+00" cType="1" res="-1.2502374127507210e-02" rms="2.2143118083477020e-01" purity="3.9417922496795654e-01" nType="0">
          <Node pos="l" depth="2" NCoef="0" IVar="-1" Cut="0.0000000000000000e+00" cType="1" res="-4.9584861844778061e-02" rms="2.2749137878417969e-01" purity="3.1530582904815674e-01" nType="-99"/>
          <Node pos="r" depth="2" NCoef="0" IVar="-1" Cut="0.0000000000000000e+00" cType="1" res="-5.1792897284030914e-03" rms="2.1604390442371368e-01" purity="4.5587542653083801e-01" nType="-99"/>
        </Node>
        <Node pos="r" depth="1" NCoef="0" IVar="10" Cut="1.5047475099563599e+00" cType="1" res="1.0902618523687124e-03" rms="1.9054780900478363e-01" purity="5.0924223661422729e-01" nType="0">
          <Node pos="l" depth="2" NCoef="0" IVar="9" Cut="1.4664452075958252e+00" cType="1" res="2.3101761471480131e-03" rms="1.8644373118877411e-01" purity="5.2060651779174805e-01" nType="0">
            <Node pos="l" depth="3" NCoef="0" IVar="-1" Cut="0.0000000000000000e+00" cType="1" res="3.7900917232036591e-03" rms="1.8086780607700348e-01" purity="5.3501009941101074e-01" nType="-99"/>
            <Node pos="r" depth="3" NCoef="0" IVar="-1" Cut="0.0000000000000000e+00" cType="1" res="3.0698327347636223e-02" rms="2.3583520948886871e-01" purity="3.7304297089576721e-01" nType="-99"/>
          </Node>
          <Node pos="r" depth="2" NCoef="0" IVar="7" Cut="1.8648096919059753e-01" cType="1" res="-7.7177477069199085e-03" rms="2.1769526600837708e-01" purity="4.2718976736068726e-01" nType="0">
            <Node pos="l" depth="3" NCoef="0" IVar="-1" Cut="0.0000000000000000e+00" cType="1" res="3.0947688501328230e-03" rms="2.2261947393417358e-01" purity="4.6308848261833191e-01" nType="-99"/>
            <Node pos="r" depth="3" NCoef="0" IVar="-1" Cut="0.0000000000000000e+00" cType="1" res="-4.3041244149208069e-02" rms="2.1037882566452026e-01" purity="3.7961715459823608e-01" nType="-99"/>
          </Node>
        </Node>
      </Node>
    </BinaryTree>
    <BinaryTree type="DecisionTree" boostWeight="1.0000000000000000e+00" itree="74">
      <Node pos="s" depth="0" NCoef="0" IVar="8" Cut="-3.9993324875831604e-01" cType="1" res="1.1809506686404347e-03" rms="1.9595593214035034e-01" purity="4.9877271056175232e-01" nType="0">
        <Node pos="l" depth="1" NCoef="0" IVar="10" Cut="-1.3347409665584564e-01" cType="1" res="6.0894065536558628e-03" rms="2.0455938577651978e-01" purity="4.6071520447731018e-01" nType="0">
          <Node pos="l" depth="2" NCoef="0" IVar="9" Cut="6.6655308008193970e-01" cType="1" res="-1.6008700185921043e-05" rms="1.9436009228229523e-01" purity="4.1782221198081970e-01" nType="0">
            <Node pos="l" depth="3" NCoef="0" IVar="-1" Cut="0.0000000000000000e+00" cType="1" res="-1.1391391046345234e-02" rms="1.8089309334754944e-01" purity="4.1475498676300049e-01" nType="-99"/>
            <Node pos="r" depth="3" NCoef="0" IVar="-1" Cut="0.0000000000000000e+00" cType="1" res="2.8151817619800568e-02" rms="2.3130130767822266e-01" purity="4.2749020457267761e-01" nType="-99"/>
          </Node>
          <Node pos="r" depth="2" NCoef="0" IVar="0" Cut="4.2147317504882812e+02" cType="1" res="1.2043898925185204e-02" rms="2.1387110650539398e-01" purity="5.0254791975021362e-01" nType="0">
            <Node pos="l" depth="3" NCoef="0" IVar="-1" Cut="0.0000000000000000e+00" cType="1" res="-4.2260516434907913e-02" rms="1.2489233911037445e-01" purity="1.5345442108809948e-02" nType="-99"/>
            <Node pos="r" depth="3" NCoef="0" IVar="-1" Cut="0.0000000000000000e+00" cType="1" res="3.7346590310335159e-02" rms="2.2911120951175690e-01" purity="6.1360007524490356e-01" nType="-99"/>
          </Node>
        </Node>
        <Node pos="r" depth="1" NCoef="0" IVar="9" Cut="-1.4662665128707886e+00" cType="1" res="-1.4262318145483732e-03" rms="1.9117753207683563e-01" purity="5.1898735761642456e-01" nType="0">
          <Node pos="l" depth="2" NCoef="0" IVar="3" Cut="6.3266510009765625e+02" cType="1" res="-1.5201994217932224e-02" rms="2.1186345815658569e-01" purity="3.4689071774482727e-01" nType="0">
            <Node pos="l" depth="3" NCoef="0" IVar="-1" Cut="0.0000000000000000e+00" cType="1" res="-5.3873397409915924e-02" rms="1.7925487458705902e-01" purity="1.1209109425544739e-01" nType="-99"/>
            <Node pos="r" depth="3" NCoef="0" IVar="-1" Cut="0.0000000000000000e+00" cType="1" res="-8.4563279524445534e-03" rms="2.4338565766811371e-01" purity="6.1503440141677856e-01" nType="-99"/>
          </Node>
          <Node pos="r" depth="2" NCoef="0" IVar="10" Cut="1.9999800920486450e+00" cType="1" res="-1.6533819143660367e-04" rms="1.8912106752395630e-01" purity="5.3473937511444092e-01" nType="0">
            <Node pos="l" depth="3" NCoef="0" IVar="-1" Cut="0.0000000000000000e+00" cType="1" res="2.1207926329225302e-03" rms="1.8741521239280701e-01" purity="5.4227542877197266e-01" nType="-99"/>
            <Node pos="r" depth="3" NCoef="0" IVar="-1" Cut="0.0000000000000000e+00" cType="1" res="-4.1404832154512405e-02" rms="2.2001388669013977e-01" purity="3.8251048326492310e-01" nType="-99"/>
          </Node>
        </Node>
      </Node>
    </BinaryTree>
    <BinaryTree type="DecisionTree" boostWeight="1.0000000000000000e+00" itree="75">
      <Node pos="s" depth="0" NCoef="0" IVar="10" Cut="2.2664968967437744e+00" cType="1" res="1.3282644795253873e-04" rms="1.9441531598567963e-01" purity="5.0459855794906616e-01" nType="0">
        <Node pos="l" depth="1" NCoef="0" IVar="9" Cut="1.1999231576919556e+00" cType="1" res="6.5327150514349341e-04" rms="1.9291573762893677e-01" purity="5.0967979431152344e-01" nType="0">
          <Node pos="l" depth="2" NCoef="0" IVar="1" Cut="1.6979604492187500e+03" cType="1" res="1.7909209709614515e-03" rms="1.8881231546401978e-01" purity="5.3017210960388184e-01" nType="0">
            <Node pos="l" depth="3" NCoef="0" IVar="-1" Cut="0.0000000000000000e+00" cType="1" res="-2.8621718287467957e-02" rms="9.1102913022041321e-02" purity="8.6890514940023422e-03" nType="-99"/>
            <Node pos="r" depth="3" NCoef="0" IVar="-1" Cut="0.0000000000000000e+00" cType="1" res="9.2932330444455147e-03" rms="2.1907682716846466e-01" purity="7.6587450504302979e-01" nType="-99"/>
          </Node>
          <Node pos="r" depth="2" NCoef="0" IVar="5" Cut="1.8096925354003906e+02" cType="1" res="-6.3726874068379402e-03" rms="2.1640916168689728e-01" purity="3.8312217593193054e-01" nType="0">
            <Node pos="l" depth="3" NCoef="0" IVar="-1" Cut="0.0000000000000000e+00" cType="1" res="1.7393507063388824e-02" rms="2.0091526210308075e-01" purity="1.1328046023845673e-01" nType="-99"/>
            <Node pos="r" depth="3" NCoef="0" IVar="-1" Cut="0.0000000000000000e+00" cType="1" res="-3.5058710724115372e-02" rms="2.2934864461421967e-01" purity="6.3614529371261597e-01" nType="-99"/>
          </Node>
        </Node>
        <Node pos="r" depth="1" NCoef="0" IVar="-1" Cut="0.0000000000000000e+00" cType="1" res="-3.5747583955526352e-02" rms="2.4130336940288544e-01" purity="3.2275420427322388e-01" nType="-99"/>
      </Node>
    </BinaryTree>
    <BinaryTree type="DecisionTree" boostWeight="1.0000000000000000e+00" itree="76">
      <Node pos="s" depth="0" NCoef="0" IVar="10" Cut="-2.2665588855743408e+00" cType="1" res="2.2339171264320612e-03" rms="1.9663406908512115e-01" purity="5.0318944454193115e-01" nType="0">
        <Node pos="l" depth="1" NCoef="0" IVar="-1" Cut="0.0000000000000000e+00" cType="1" res="5.1919169723987579e-02" rms="2.6971918344497681e-01" purity="3.6808499693870544e-01" nType="-99"/>
        <Node pos="r" depth="1" NCoef="0" IVar="8" Cut="1.7333599328994751e+00" cType="1" res="1.5152666019275784e-03" rms="1.9421225786209106e-01" purity="5.0686419010162354e-01" nType="0">
          <Node pos="l" depth="2" NCoef="0" IVar="7" Cut="-1.6124777793884277e+00" cType="1" res="2.1693643648177385e-03" rms="1.9315332174301147e-01" purity="5.2242684364318848e-01" nType="0">
            <Node pos="l" depth="3" NCoef="0" IVar="-1" Cut="0.0000000000000000e+00" cType="1" res="-5.4882057011127472e-02" rms="1.4595979452133179e-01" purity="7.4489071965217590e-02" nType="-99"/>
            <Node pos="r" depth="3" NCoef="0" IVar="-1" Cut="0.0000000000000000e+00" cType="1" res="7.2080935351550579e-03" rms="1.9437751173973083e-01" purity="5.3596711158752441e-01" nType="-99"/>
          </Node>
          <Node pos="r" depth="2" NCoef="0" IVar="-1" Cut="0.0000000000000000e+00" cType="1" res="-3.1731534749269485e-02" rms="2.1660929918289185e-01" purity="1.4881056547164917e-01" nType="-99"/>
        </Node>
      </Node>
    </BinaryTree>
    <BinaryTree type="DecisionTree" boostWeight="1.0000000000000000e+00" itree="77">
      <Node pos="s" depth="0" NCoef="0" IVar="5" Cut="1.0280113983154297e+02" cType="1" res="6.5210327738896012e-04" rms="1.9412089884281158e-01" purity="5.0118112564086914e-01" nType="0">
        <Node pos="l" depth="1" NCoef="0" IVar="1" Cut="1.5988992919921875e+03" cType="1" res="-1.0326369665563107e-02" rms="1.0708133876323700e-01" purity="2.5519391521811485e-02" nType="0">
          <Node pos="l" depth="2" NCoef="0" IVar="0" Cut="5.3070898437500000e+02" cType="1" res="-3.8392920978367329e-03" rms="3.7362080067396164e-02" purity="1.3875960139557719e-03" nType="0">
            <Node pos="l" depth="3" NCoef="0" IVar="-1" Cut="0.0000000000000000e+00" cType="1" res="-4.8819735646247864e-02" rms="5.1640868186950684e-02" purity="2.6671455707401037e-03" nType="-99"/>
            <Node pos="r" depth="3" NCoef="0" IVar="-1" Cut="0.0000000000000000e+00" cType="1" res="-1.0079465806484222e-01" rms="3.7053702399134636e-03" purity="0.0000000000000000e+00" nType="-99"/>
          </Node>
          <Node pos="r" depth="2" NCoef="0" IVar="-1" Cut="0.0000000000000000e+00" cType="1" res="-5.1239792257547379e-02" rms="1.5831188857555389e-01" purity="5.8424912393093109e-02" nType="-99"/>
        </Node>
        <Node pos="r" depth="1" NCoef="0" IVar="10" Cut="1.1999891996383667e+00" cType="1" res="2.0474144257605076e-03" rms="2.0247876644134521e-01" purity="5.6163549423217773e-01" nType="0">
          <Node pos="l" depth="2" NCoef="0" IVar="2" Cut="4.2731754481792450e-02" cType="1" res="4.2292277794331312e-04" rms="1.9459970295429230e-01" purity="5.6797325611114502e-01" nType="0">
            <Node pos="l" depth="3" NCoef="0" IVar="-1" Cut="0.0000000000000000e+00" cType="1" res="-7.8353304415941238e-03" rms="2.0530821382999420e-01" purity="3.9849483966827393e-01" nType="-99"/>
            <Node pos="r" depth="3" NCoef="0" IVar="-1" Cut="0.0000000000000000e+00" cType="1" res="1.2790150940418243e-02" rms="1.8300820887088776e-01" purity="7.4008423089981079e-01" nType="-99"/>
          </Node>
          <Node pos="r" depth="2" NCoef="0" IVar="2" Cut="3.7731271237134933e-02" cType="1" res="1.0182291269302368e-02" rms="2.3787650465965271e-01" purity="5.2989810705184937e-01" nType="0">
            <Node pos="l" depth="3" NCoef="0" IVar="-1" Cut="0.0000000000000000e+00" cType="1" res="4.0061801671981812e-02" rms="2.7145960927009583e-01" purity="3.3640179038047791e-01" nType="-99"/>
            <Node pos="r" depth="3" NCoef="0" IVar="-1" Cut="0.0000000000000000e+00" cType="1" res="-3.1506896484643221e-03" rms="2.0258012413978577e-01" purity="7.0257365703582764e-01" nType="-99"/>
          </Node>
        </Node>
      </Node>
    </BinaryTree>
    <BinaryTree type="DecisionTree" boostWeight="1.0000000000000000e+00" itree="78">
      <Node pos="s" depth="0" NCoef="0" IVar="1" Cut="1.9525812988281250e+03" cType="1" res="8.2014943473041058e-04" rms="1.9711022078990936e-01" purity="5.0378477573394775e-01" nType="0">
        <Node pos="l" depth="1" NCoef="0" IVar="4" Cut="2.6493258666992188e+02" cType="1" res="4.4680847786366940e-03" rms="1.6732123494148254e-01" purity="3.3708162605762482e-02" nType="0">
          <Node pos="l" depth="2" NCoef="0" IVar="3" Cut="4.0249496459960938e+02" cType="1" res="-2.4194435682147741e-03" rms="1.1487256735563278e-01" purity="1.4165240339934826e-02" nType="0">
            <Node pos="l" depth="3" NCoef="0" IVar="-1" Cut="0.0000000000000000e+00" cType="1" res="5.1411118358373642e-02" rms="1.7655321955680847e-01" purity="3.4464072436094284e-02" nType="-99"/>
            <Node pos="r" depth="3" NCoef="0" IVar="-1" Cut="0.0000000000000000e+00" cType="1" res="-4.7713804990053177e-02" rms="8.7824523448944092e-02" purity="8.0536883324384689e-03" nType="-99"/>
          </Node>
          <Node pos="r" depth="2" NCoef="0" IVar="1" Cut="1.6894493408203125e+03" cType="1" res="1.0768855921924114e-02" rms="2.0360033214092255e-01" purity="5.1586192101240158e-02" nType="0">
            <Node pos="l" depth="3" NCoef="0" IVar="-1" Cut="0.0000000000000000e+00" cType="1" res="1.8056392669677734e-02" rms="1.2796817719936371e-01" purity="1.7044954001903534e-02" nType="-99"/>
            <Node pos="r" depth="3" NCoef="0" IVar="-1" Cut="0.0000000000000000e+00" cType="1" res="3.8128964602947235e-02" rms="3.0108478665351868e-01" purity="1.1990288645029068e-01" nType="-99"/>
          </Node>
        </Node>
        <Node pos="r" depth="1" NCoef="0" IVar="3" Cut="5.0863973999023438e+02" cType="1" res="-2.0199827849864960e-03" rms="2.1745364367961884e-01" purity="8.6976701021194458e-01" nType="0">
          <Node pos="l" depth="2" NCoef="0" IVar="-1" Cut="0.0000000000000000e+00" cType="1" res="-3.3015213906764984e-02" rms="3.6469563841819763e-01" purity="6.9240522384643555e-01" nType="-99"/>
          <Node pos="r" depth="2" NCoef="0" IVar="1" Cut="2.2025588378906250e+03" cType="1" res="-1.2191092537250370e-04" rms="2.0772141218185425e-01" purity="8.7816405296325684e-01" nType="0">
            <Node pos="l" depth="3" NCoef="0" IVar="-1" Cut="0.0000000000000000e+00" cType="1" res="1.4572679065167904e-02" rms="3.6793771386146545e-01" purity="2.4789664149284363e-01" nType="-99"/>
            <Node pos="r" depth="3" NCoef="0" IVar="-1" Cut="0.0000000000000000e+00" cType="1" res="-5.2741263061761856e-03" rms="1.8655253946781158e-01" purity="9.3497556447982788e-01" nType="-99"/>
          </Node>
        </Node>
      </Node>
    </BinaryTree>
    <BinaryTree type="DecisionTree" boostWeight="1.0000000000000000e+00" itree="79">
      <Node pos="s" depth="0" NCoef="0" IVar="9" Cut="1.4665660858154297e+00" cType="1" res="-1.9718876574188471e-03" rms="1.8742498755455017e-01" purity="5.0002390146255493e-01" nType="0">
        <Node pos="l" depth="1" NCoef="0" IVar="7" Cut="1.4857951402664185e+00" cType="1" res="-9.3328976072371006e-04" rms="1.8380460143089294e-01" purity="5.1683962345123291e-01" nType="0">
          <Node pos="l" depth="2" NCoef="0" IVar="6" Cut="1.3980029296875000e+02" cType="1" res="-3.4373137168586254e-04" rms="1.8411336839199066e-01" purity="5.3293126821517944e-01" nType="0">
            <Node pos="l" depth="3" NCoef="0" IVar="-1" Cut="0.0000000000000000e+00" cType="1" res="-8.4572704508900642e-03" rms="1.9398128986358643e-01" purity="2.3934951424598694e-01" nType="-99"/>
            <Node pos="r" depth="3" NCoef="0" IVar="-1" Cut="0.0000000000000000e+00" cType="1" res="8.4356041625142097e-03" rms="1.7308583855628967e-01" purity="8.4143137931823730e-01" nType="-99"/>
          </Node>
          <Node pos="r" depth="2" NCoef="0" IVar="-1" Cut="0.0000000000000000e+00" cType="1" res="-4.3543227016925812e-02" rms="1.7554509639739990e-01" purity="1.2657752633094788e-01" nType="-99"/>
        </Node>
        <Node pos="r" depth="1" NCoef="0" IVar="1" Cut="1.6393127441406250e+03" cType="1" res="-1.2071453034877777e-02" rms="2.1928286552429199e-01" purity="3.3650487661361694e-01" nType="0">
          <Node pos="l" depth="2" NCoef="0" IVar="-1" Cut="0.0000000000000000e+00" cType="1" res="1.4347180724143982e-02" rms="1.3600799441337585e-01" purity="1.9705930724740028e-02" nType="-99"/>
          <Node pos="r" depth="2" NCoef="0" IVar="0" Cut="7.7641247558593750e+02" cType="1" res="-2.2262865677475929e-02" rms="2.6207771897315979e-01" purity="5.5976575613021851e-01" nType="0">
            <Node pos="l" depth="3" NCoef="0" IVar="-1" Cut="0.0000000000000000e+00" cType="1" res="-3.0381416901946068e-02" rms="3.0386137962341309e-01" purity="3.0220961570739746e-01" nType="-99"/>
            <Node pos="r" depth="3" NCoef="0" IVar="-1" Cut="0.0000000000000000e+00" cType="1" res="-3.1254414469003677e-02" rms="2.1123531460762024e-01" purity="8.2021486759185791e-01" nType="-99"/>
          </Node>
        </Node>
      </Node>
    </BinaryTree>
    <BinaryTree type="DecisionTree" boostWeight="1.0000000000000000e+00" itree="80">
      <Node pos="s" depth="0" NCoef="0" IVar="6" Cut="8.9509475708007812e+01" cType="1" res="-2.6218662969768047e-04" rms="1.9186836481094360e-01" purity="4.9952647089958191e-01" nType="0">
        <Node pos="l" depth="1" NCoef="0" IVar="1" Cut="2.2288715820312500e+03" cType="1" res="5.0055021420121193e-03" rms="1.8769107758998871e-01" purity="1.6410900652408600e-01" nType="0">
          <Node pos="l" depth="2" NCoef="0" IVar="10" Cut="-1.1999173164367676e+00" cType="1" res="3.0172121478244662e-04" rms="1.4484357833862305e-01" purity="2.7975384145975113e-02" nType="0">
            <Node pos="l" depth="3" NCoef="0" IVar="-1" Cut="0.0000000000000000e+00" cType="1" res="5.5354788899421692e-02" rms="2.0324929058551788e-01" purity="5.9992928057909012e-02" nType="-99"/>
            <Node pos="r" depth="3" NCoef="0" IVar="-1" Cut="0.0000000000000000e+00" cType="1" res="-1.9887086004018784e-02" rms="1.2695917487144470e-01" purity="2.0459482446312904e-02" nType="-99"/>
          </Node>
          <Node pos="r" depth="2" NCoef="0" IVar="2" Cut="2.1365730091929436e-02" cType="1" res="2.6008648797869682e-02" rms="3.1354248523712158e-01" purity="7.7196776866912842e-01" nType="0">
            <Node pos="l" depth="3" NCoef="0" IVar="-1" Cut="0.0000000000000000e+00" cType="1" res="4.0803331881761551e-02" rms="3.5483518242835999e-01" purity="6.6252613067626953e-01" nType="-99"/>
            <Node pos="r" depth="3" NCoef="0" IVar="-1" Cut="0.0000000000000000e+00" cType="1" res="7.1914456784725189e-03" rms="2.6396706700325012e-01" purity="8.8196527957916260e-01" nType="-99"/>
          </Node>
        </Node>
        <Node pos="r" depth="1" NCoef="0" IVar="3" Cut="7.4138977050781250e+02" cType="1" res="-2.5001377798616886e-03" rms="1.9357241690158844e-01" purity="6.4202690124511719e-01" nType="0">
          <Node pos="l" depth="2" NCoef="0" IVar="5" Cut="2.0674201965332031e+02" cType="1" res="-6.4385333098471165e-03" rms="2.1975161135196686e-01" purity="3.8760161399841309e-01" nType="0">
            <Node pos="l" depth="3" NCoef="0" IVar="-1" Cut="0.0000000000000000e+00" cType="1" res="3.4119931515306234e-03" rms="1.9133077561855316e-01" purity="7.7720277011394501e-02" nType="-99"/>
            <Node pos="r" depth="3" NCoef="0" IVar="-1" Cut="0.0000000000000000e+00" cType="1" res="-2.1262442693114281e-02" rms="2.3962692916393280e-01" purity="6.3196605443954468e-01" nType="-99"/>
          </Node>
          <Node pos="r" depth="2" NCoef="0" IVar="1" Cut="2.5547814941406250e+03" cType="1" res="2.0391577854752541e-03" rms="1.5798850357532501e-01" purity="9.3527120351791382e-01" nType="0">
            <Node pos="l" depth="3" NCoef="0" IVar="-1" Cut="0.0000000000000000e+00" cType="1" res="1.1378088966012001e-02" rms="3.7180885672569275e-01" purity="3.9528650045394897e-01" nType="-99"/>
            <Node pos="r" depth="3" NCoef="0" IVar="-1" Cut="0.0000000000000000e+00" cType="1" res="6.0743694193661213e-03" rms="1.2286215275526047e-01" purity="9.8222815990447998e-01" nType="-99"/>
          </Node>
        </Node>
      </Node>
    </BinaryTree>
    <BinaryTree type="DecisionTree" boostWeight="1.0000000000000000e+00" itree="81">
      <Node pos="s" depth="0" NCoef="0" IVar="1" Cut="1.9608695068359375e+03" cType="1" res="1.8168220994994044e-03" rms="1.9594280421733856e-01" purity="4.9846774339675903e-01" nType="0">
        <Node pos="l" depth="1" NCoef="0" IVar="5" Cut="1.7034104919433594e+02" cType="1" res="5.6214840151369572e-03" rms="1.7206881940364838e-01" purity="3.6995775997638702e-02" nType="0">
          <Node pos="l" depth="2" NCoef="0" IVar="4" Cut="3.3235632324218750e+02" cType="1" res="-1.3220689725130796e-03" rms="1.1139240115880966e-01" purity="1.3140331022441387e-02" nType="0">
            <Node pos="l" depth="3" NCoef="0" IVar="-1" Cut="0.0000000000000000e+00" cType="1" res="-3.8262784481048584e-02" rms="8.5945643484592438e-02" purity="7.6953680254518986e-03" nType="-99"/>
            <Node pos="r" depth="3" NCoef="0" IVar="-1" Cut="0.0000000000000000e+00" cType="1" res="4.0284287184476852e-02" rms="1.6489948332309723e-01" purity="2.9293052852153778e-02" nType="-99"/>
          </Node>
          <Node pos="r" depth="2" NCoef="0" IVar="1" Cut="1.8273271484375000e+03" cType="1" res="1.6636306419968605e-02" rms="2.3810490965843201e-01" purity="7.4838571250438690e-02" nType="0">
            <Node pos="l" depth="3" NCoef="0" IVar="-1" Cut="0.0000000000000000e+00" cType="1" res="3.1521230936050415e-02" rms="1.9429118931293488e-01" purity="4.3834555894136429e-02" nType="-99"/>
            <Node pos="r" depth="3" NCoef="0" IVar="-1" Cut="0.0000000000000000e+00" cType="1" res="4.2689867317676544e-02" rms="4.0622764825820923e-01" purity="2.5531721115112305e-01" nType="-99"/>
          </Node>
        </Node>
        <Node pos="r" depth="1" NCoef="0" IVar="0" Cut="6.0069439697265625e+02" cType="1" res="-1.2655409518629313e-03" rms="2.1328453719615936e-01" purity="8.7233126163482666e-01" nType="0">
          <Node pos="l" depth="2" NCoef="0" IVar="-1" Cut="0.0000000000000000e+00" cType="1" res="-1.6235381364822388e-02" rms="3.5448199510574341e-01" purity="5.3031325340270996e-01" nType="-99"/>
          <Node pos="r" depth="2" NCoef="0" IVar="5" Cut="1.5556632995605469e+02" cType="1" res="1.1042279656976461e-03" rms="1.8937426805496216e-01" purity="9.1318136453628540e-01" nType="0">
            <Node pos="l" depth="3" NCoef="0" IVar="-1" Cut="0.0000000000000000e+00" cType="1" res="2.2721163928508759e-02" rms="3.2669326663017273e-01" purity="4.6127077937126160e-01" nType="-99"/>
            <Node pos="r" depth="3" NCoef="0" IVar="-1" Cut="0.0000000000000000e+00" cType="1" res="-3.1764318700879812e-03" rms="1.7350114881992340e-01" purity="9.4956105947494507e-01" nType="-99"/>
          </Node>
        </Node>
      </Node>
    </BinaryTree>
    <BinaryTree type="DecisionTree" boostWeight="1.0000000000000000e+00" itree="82">
      <Node pos="s" depth="0" NCoef="0" IVar="10" Cut="2.2666480541229248e+00" cType="1" res="1.1257197475060821e-03" rms="1.9581592082977295e-01" purity="5.0244212150573730e-01" nType="0">
        <Node pos="l" depth="1" NCoef="0" IVar="6" Cut="1.3441853332519531e+02" cType="1" res="6.6820747451856732e-04" rms="1.9331374764442444e-01" purity="5.0691753625869751e-01" nType="0">
          <Node pos="l" depth="2" NCoef="0" IVar="3" Cut="1.1794804687500000e+03" cType="1" res="-2.3741135373711586e-03" rms="1.9722536206245422e-01" purity="2.1747660636901855e-01" nType="0">
            <Node pos="l" depth="3" NCoef="0" IVar="-1" Cut="0.0000000000000000e+00" cType="1" res="-3.3394955098628998e-03" rms="1.9474665820598602e-01" purity="1.8124304711818695e-01" nType="-99"/>
            <Node pos="r" depth="3" NCoef="0" IVar="-1" Cut="0.0000000000000000e+00" cType="1" res="-4.6817444264888763e-02" rms="2.3764596879482269e-01" purity="8.9011412858963013e-01" nType="-99"/>
          </Node>
          <Node pos="r" depth="2" NCoef="0" IVar="5" Cut="1.8147944641113281e+02" cType="1" res="3.8197049871087074e-03" rms="1.8912488222122192e-01" purity="8.0674529075622559e-01" nType="0">
            <Node pos="l" depth="3" NCoef="0" IVar="-1" Cut="0.0000000000000000e+00" cType="1" res="5.5722232908010483e-02" rms="2.5963127613067627e-01" purity="2.6304808259010315e-01" nType="-99"/>
            <Node pos="r" depth="3" NCoef="0" IVar="-1" Cut="0.0000000000000000e+00" cType="1" res="5.4766628891229630e-03" rms="1.8308088183403015e-01" purity="8.4437340497970581e-01" nType="-99"/>
          </Node>
        </Node>
        <Node pos="r" depth="1" NCoef="0" IVar="-1" Cut="0.0000000000000000e+00" cType="1" res="3.5303235054016113e-02" rms="2.7177834510803223e-01" purity="3.3784177899360657e-01" nType="-99"/>
      </Node>
    </BinaryTree>
    <BinaryTree type="DecisionTree" boostWeight="1.0000000000000000e+00" itree="83">
      <Node pos="s" depth="0" NCoef="0" IVar="10" Cut="1.9999758005142212e+00" cType="1" res="-1.8288964638486505e-03" rms="1.9312591850757599e-01" purity="4.9972799420356750e-01" nType="0">
        <Node pos="l" depth="1" NCoef="0" IVar="10" Cut="1.7713330984115601e+00" cType="1" res="-9.2292635235935450e-04" rms="1.9174776971340179e-01" purity="5.0697737932205200e-01" nType="0">
          <Node pos="l" depth="2" NCoef="0" IVar="10" Cut="-2.1469156742095947e+00" cType="1" res="-1.5049517387524247e-03" rms="1.9042709469795227e-01" purity="5.0828254222869873e-01" nType="0">
            <Node pos="l" depth="3" NCoef="0" IVar="-1" Cut="0.0000000000000000e+00" cType="1" res="-3.5004477947950363e-02" rms="2.5119850039482117e-01" purity="3.5805499553680420e-01" nType="-99"/>
            <Node pos="r" depth="3" NCoef="0" IVar="-1" Cut="0.0000000000000000e+00" cType="1" res="-2.0128341857343912e-03" rms="1.8743927776813507e-01" purity="5.1451110839843750e-01" nType="-99"/>
          </Node>
          <Node pos="r" depth="2" NCoef="0" IVar="-1" Cut="0.0000000000000000e+00" cType="1" res="3.7819147109985352e-02" rms="2.3310996592044830e-01" purity="4.6038725972175598e-01" nType="-99"/>
        </Node>
        <Node pos="r" depth="1" NCoef="0" IVar="-1" Cut="0.0000000000000000e+00" cType="1" res="-3.8215655833482742e-02" rms="2.1835213899612427e-01" purity="3.5304033756256104e-01" nType="-99"/>
      </Node>
    </BinaryTree>
    <BinaryTree type="DecisionTree" boostWeight="1.0000000000000000e+00" itree="84">
      <Node pos="s" depth="0" NCoef="0" IVar="9" Cut="1.7331075668334961e+00" cType="1" res="-7.4785074684768915e-04" rms="1.9353048503398895e-01" purity="4.9606966972351074e-01" nType="0">
        <Node pos="l" depth="1" NCoef="0" IVar="0" Cut="5.8882537841796875e+02" cType="1" res="-2.1011787466704845e-03" rms="1.8913058936595917e-01" purity="5.0786864757537842e-01" nType="0">
          <Node pos="l" depth="2" NCoef="0" IVar="1" Cut="1.8457196044921875e+03" cType="1" res="-6.1118979938328266e-03" rms="1.9334298372268677e-01" purity="9.3170911073684692e-02" nType="0">
            <Node pos="l" depth="3" NCoef="0" IVar="-1" Cut="0.0000000000000000e+00" cType="1" res="-7.5124152936041355e-03" rms="1.2939333915710449e-01" purity="1.8106438219547272e-02" nType="-99"/>
            <Node pos="r" depth="3" NCoef="0" IVar="-1" Cut="0.0000000000000000e+00" cType="1" res="-2.0188577473163605e-02" rms="3.4760317206382751e-01" purity="3.9837476611137390e-01" nType="-99"/>
          </Node>
          <Node pos="r" depth="2" NCoef="0" IVar="8" Cut="1.1998146772384644e+00" cType="1" res="4.3486221693456173e-04" rms="1.8637336790561676e-01" purity="7.7008855342864990e-01" nType="0">
            <Node pos="l" depth="3" NCoef="0" IVar="-1" Cut="0.0000000000000000e+00" cType="1" res="-2.2198180668056011e-03" rms="1.7806036770343781e-01" purity="7.8759604692459106e-01" nType="-99"/>
            <Node pos="r" depth="3" NCoef="0" IVar="-1" Cut="0.0000000000000000e+00" cType="1" res="2.3856200277805328e-02" rms="2.6045972108840942e-01" purity="5.7778608798980713e-01" nType="-99"/>
          </Node>
        </Node>
        <Node pos="r" depth="1" NCoef="0" IVar="7" Cut="1.9802416861057281e-01" cType="1" res="2.0037988200783730e-02" rms="2.5070586800575256e-01" purity="3.1484857201576233e-01" nType="0">
          <Node pos="l" depth="2" NCoef="0" IVar="-1" Cut="0.0000000000000000e+00" cType="1" res="5.9382622130215168e-03" rms="2.3416222631931305e-01" purity="2.9257977008819580e-01" nType="-99"/>
          <Node pos="r" depth="2" NCoef="0" IVar="-1" Cut="0.0000000000000000e+00" cType="1" res="7.1764856576919556e-02" rms="2.7083295583724976e-01" purity="3.4678000211715698e-01" nType="-99"/>
        </Node>
      </Node>
    </BinaryTree>
    <BinaryTree type="DecisionTree" boostWeight="1.0000000000000000e+00" itree="85">
      <Node pos="s" depth="0" NCoef="0" IVar="2" Cut="1.4955943822860718e-01" cType="1" res="-2.1066493354737759e-03" rms="1.9201633334159851e-01" purity="4.9939128756523132e-01" nType="0">
        <Node pos="l" depth="1" NCoef="0" IVar="4" Cut="3.2219796752929688e+02" cType="1" res="-3.0134147964417934e-03" rms="1.9542680680751801e-01" purity="4.6681416034698486e-01" nType="0">
          <Node pos="l" depth="2" NCoef="0" IVar="10" Cut="-1.7333476543426514e+00" cType="1" res="1.1731863487511873e-03" rms="1.8378452956676483e-01" purity="8.3114407956600189e-02" nType="0">
            <Node pos="l" depth="3" NCoef="0" IVar="-1" Cut="0.0000000000000000e+00" cType="1" res="4.2616125196218491e-02" rms="2.2452649474143982e-01" purity="1.2558355927467346e-01" nType="-99"/>
            <Node pos="r" depth="3" NCoef="0" IVar="-1" Cut="0.0000000000000000e+00" cType="1" res="-2.5189511943608522e-03" rms="1.7855511605739594e-01" purity="7.8377574682235718e-02" nType="-99"/>
          </Node>
          <Node pos="r" depth="2" NCoef="0" IVar="3" Cut="5.9173596191406250e+02" cType="1" res="-5.5275955237448215e-03" rms="2.0205460488796234e-01" purity="6.9723749160766602e-01" nType="0">
            <Node pos="l" depth="3" NCoef="0" IVar="-1" Cut="0.0000000000000000e+00" cType="1" res="-3.2399475574493408e-02" rms="2.4374443292617798e-01" purity="2.6347899436950684e-01" nType="-99"/>
            <Node pos="r" depth="3" NCoef="0" IVar="-1" Cut="0.0000000000000000e+00" cType="1" res="-2.8865542262792587e-03" rms="1.8674734234809875e-01" purity="8.3414083719253540e-01" nType="-99"/>
          </Node>
        </Node>
        <Node pos="r" depth="1" NCoef="0" IVar="-1" Cut="0.0000000000000000e+00" cType="1" res="3.0722020193934441e-02" rms="1.5001158416271210e-01" purity="8.5101217031478882e-01" nType="-99"/>
      </Node>
    </BinaryTree>
    <BinaryTree type="DecisionTree" boostWeight="1.0000000000000000e+00" itree="86">
      <Node pos="s" depth="0" NCoef="0" IVar="7" Cut="1.4916772842407227e+00" cType="1" res="6.7916052648797631e-04" rms="1.9213743507862091e-01" purity="5.0351744890213013e-01" nType="0">
        <Node pos="l" depth="1" NCoef="0" IVar="3" Cut="4.7989715576171875e+02" cType="1" res="1.3467308599501848e-03" rms="1.9282315671443939e-01" purity="5.2123922109603882e-01" nType="0">
          <Node pos="l" depth="2" NCoef="0" IVar="1" Cut="1.7862905273437500e+03" cType="1" res="-4.3388386256992817e-03" rms="1.9886101782321930e-01" purity="9.4995453953742981e-02" nType="0">
            <Node pos="l" depth="3" NCoef="0" IVar="-1" Cut="0.0000000000000000e+00" cType="1" res="6.4062299206852913e-03" rms="1.5009598433971405e-01" purity="2.6248333975672722e-02" nType="-99"/>
            <Node pos="r" depth="3" NCoef="0" IVar="-1" Cut="0.0000000000000000e+00" cType="1" res="-2.6603851467370987e-02" rms="3.6703032255172729e-01" purity="4.8457023501396179e-01" nType="-99"/>
          </Node>
          <Node pos="r" depth="2" NCoef="0" IVar="1" Cut="2.2938591308593750e+03" cType="1" res="2.6882714591920376e-03" rms="1.9134607911109924e-01" purity="6.2181377410888672e-01" nType="0">
            <Node pos="l" depth="3" NCoef="0" IVar="-1" Cut="0.0000000000000000e+00" cType="1" res="1.6203630715608597e-02" rms="2.1697114408016205e-01" purity="9.0537920594215393e-02" nType="-99"/>
            <Node pos="r" depth="3" NCoef="0" IVar="-1" Cut="0.0000000000000000e+00" cType="1" res="-8.3290104521438479e-04" rms="1.7361949384212494e-01" purity="9.4915813207626343e-01" nType="-99"/>
          </Node>
        </Node>
        <Node pos="r" depth="1" NCoef="0" IVar="-1" Cut="0.0000000000000000e+00" cType="1" res="-4.3616805225610733e-02" rms="1.7494872212409973e-01" purity="9.6392326056957245e-02" nType="-99"/>
      </Node>
    </BinaryTree>
    <BinaryTree type="DecisionTree" boostWeight="1.0000000000000000e+00" itree="87">
      <Node pos="s" depth="0" NCoef="0" IVar="2" Cut="1.2819378077983856e-01" cType="1" res="5.0207000458613038e-04" rms="1.9336880743503571e-01" purity="4.9786883592605591e-01" nType="0">
        <Node pos="l" depth="1" NCoef="0" IVar="9" Cut="1.7330853939056396e+00" cType="1" res="-7.3999020969495177e-04" rms="1.9642221927642822e-01" purity="4.5117601752281189e-01" nType="0">
          <Node pos="l" depth="2" NCoef="0" IVar="2" Cut="6.1045596376061440e-03" cType="1" res="6.4600164478179067e-05" rms="1.9458539783954620e-01" purity="4.6337044239044189e-01" nType="0">
            <Node pos="l" depth="3" NCoef="0" IVar="-1" Cut="0.0000000000000000e+00" cType="1" res="-2.7670349925756454e-02" rms="1.7162995040416718e-01" purity="1.6350173950195312e-01" nType="-99"/>
            <Node pos="r" depth="3" NCoef="0" IVar="-1" Cut="0.0000000000000000e+00" cType="1" res="4.1022361256182194e-03" rms="1.9845047593116760e-01" purity="5.1810610294342041e-01" nType="-99"/>
          </Node>
          <Node pos="r" depth="2" NCoef="0" IVar="0" Cut="5.2832086181640625e+02" cType="1" res="-1.2708133086562157e-02" rms="2.2161242365837097e-01" purity="2.6978570222854614e-01" nType="0">
            <Node pos="l" depth="3" NCoef="0" IVar="-1" Cut="0.0000000000000000e+00" cType="1" res="-5.2756134420633316e-02" rms="1.8848153948783875e-01" purity="4.4575687497854233e-02" nType="-99"/>
            <Node pos="r" depth="3" NCoef="0" IVar="-1" Cut="0.0000000000000000e+00" cType="1" res="-6.5309172496199608e-03" rms="2.4566906690597534e-01" purity="4.5883071422576904e-01" nType="-99"/>
          </Node>
        </Node>
        <Node pos="r" depth="1" NCoef="0" IVar="-1" Cut="0.0000000000000000e+00" cType="1" res="3.7006892263889313e-02" rms="1.6912046074867249e-01" purity="8.3903020620346069e-01" nType="-99"/>
      </Node>
    </BinaryTree>
    <BinaryTree type="DecisionTree" boostWeight="1.0000000000000000e+00" itree="88">
      <Node pos="s" depth="0" NCoef="0" IVar="10" Cut="-1.7332684993743896e+00" cType="1" res="-2.2077851463109255e-04" rms="1.9214536249637604e-01" purity="4.9959680438041687e-01" nType="0">
        <Node pos="l" depth="1" NCoef="0" IVar="2" Cut="4.0960837155580521e-02" cType="1" res="-1.5095727518200874e-02" rms="2.1667037904262543e-01" purity="3.9090654253959656e-01" nType="0">
          <Node pos="l" depth="2" NCoef="0" IVar="-1" Cut="0.0000000000000000e+00" cType="1" res="-4.9772638827562332e-02" rms="2.0704632997512817e-01" purity="2.0817404985427856e-01" nType="-99"/>
          <Node pos="r" depth="2" NCoef="0" IVar="-1" Cut="0.0000000000000000e+00" cType="1" res="-6.8429522216320038e-03" rms="2.2716096043586731e-01" purity="6.1078774929046631e-01" nType="-99"/>
        </Node>
        <Node pos="r" depth="1" NCoef="0" IVar="8" Cut="-9.3322581052780151e-01" cType="1" res="1.0193680645897985e-03" rms="1.8990512192249298e-01" purity="5.0865852832794189e-01" nType="0">
          <Node pos="l" depth="2" NCoef="0" IVar="10" Cut="-6.3904067501425743e-03" cType="1" res="7.8038964420557022e-03" rms="2.2342114150524139e-01" purity="3.7941193580627441e-01" nType="0">
            <Node pos="l" depth="3" NCoef="0" IVar="-1" Cut="0.0000000000000000e+00" cType="1" res="-1.1831662617623806e-02" rms="1.9537816941738129e-01" purity="3.3917462825775146e-01" nType="-99"/>
            <Node pos="r" depth="3" NCoef="0" IVar="-1" Cut="0.0000000000000000e+00" cType="1" res="4.0617369115352631e-02" rms="2.4452583491802216e-01" purity="4.1408434510231018e-01" nType="-99"/>
          </Node>
          <Node pos="r" depth="2" NCoef="0" IVar="9" Cut="1.7333080768585205e+00" cType="1" res="-4.1349654202349484e-04" rms="1.8200680613517761e-01" purity="5.3595489263534546e-01" nType="0">
            <Node pos="l" depth="3" NCoef="0" IVar="-1" Cut="0.0000000000000000e+00" cType="1" res="-4.4278465211391449e-03" rms="1.7742331326007843e-01" purity="5.4896616935729980e-01" nType="-99"/>
            <Node pos="r" depth="3" NCoef="0" IVar="-1" Cut="0.0000000000000000e+00" cType="1" res="3.4249749034643173e-02" rms="2.4482554197311401e-01" purity="3.2167351245880127e-01" nType="-99"/>
          </Node>
        </Node>
      </Node>
    </BinaryTree>
    <BinaryTree type="DecisionTree" boostWeight="1.0000000000000000e+00" itree="89">
      <Node pos="s" depth="0" NCoef="0" IVar="0" Cut="4.4704034423828125e+02" cType="1" res="-3.8116362702567130e-05" rms="1.9023133814334869e-01" purity="4.9958431720733643e-01" nType="0">
        <Node pos="l" depth="1" NCoef="0" IVar="6" Cut="1.6244789123535156e+02" cType="1" res="-8.4403380751609802e-03" rms="1.3917995989322662e-01" purity="2.3470347747206688e-02" nType="0">
          <Node pos="l" depth="2" NCoef="0" IVar="7" Cut="1.2169301509857178e+00" cType="1" res="-4.4955979101359844e-03" rms="1.1437376588582993e-01" purity="1.4548420906066895e-02" nType="0">
            <Node pos="l" depth="3" NCoef="0" IVar="-1" Cut="0.0000000000000000e+00" cType="1" res="-3.5436775535345078e-02" rms="1.0945155471563339e-01" purity="1.3458795845508575e-02" nType="-99"/>
            <Node pos="r" depth="3" NCoef="0" IVar="-1" Cut="0.0000000000000000e+00" cType="1" res="4.3415930122137070e-02" rms="1.4057449996471405e-01" purity="2.1283693611621857e-02" nType="-99"/>
          </Node>
          <Node pos="r" depth="2" NCoef="0" IVar="-1" Cut="0.0000000000000000e+00" cType="1" res="-4.4377852231264114e-02" rms="2.3599970340728760e-01" purity="7.5888596475124359e-02" nType="-99"/>
        </Node>
        <Node pos="r" depth="1" NCoef="0" IVar="10" Cut="1.7332413196563721e+00" cType="1" res="2.2986363619565964e-03" rms="2.0208868384361267e-01" purity="6.3199698925018311e-01" nType="0">
          <Node pos="l" depth="2" NCoef="0" IVar="0" Cut="5.7888134765625000e+02" cType="1" res="3.4485906362533569e-03" rms="1.9795489311218262e-01" purity="6.4174056053161621e-01" nType="0">
            <Node pos="l" depth="3" NCoef="0" IVar="-1" Cut="0.0000000000000000e+00" cType="1" res="1.8940620124340057e-02" rms="2.4712499976158142e-01" purity="1.8235480785369873e-01" nType="-99"/>
            <Node pos="r" depth="3" NCoef="0" IVar="-1" Cut="0.0000000000000000e+00" cType="1" res="4.7593461349606514e-03" rms="1.8320022523403168e-01" purity="7.5945109128952026e-01" nType="-99"/>
          </Node>
          <Node pos="r" depth="2" NCoef="0" IVar="7" Cut="-2.4247577413916588e-02" cType="1" res="-1.1716363951563835e-02" rms="2.4653920531272888e-01" purity="5.1324814558029175e-01" nType="0">
            <Node pos="l" depth="3" NCoef="0" IVar="-1" Cut="0.0000000000000000e+00" cType="1" res="6.0562654398381710e-03" rms="2.6417410373687744e-01" purity="5.4442930221557617e-01" nType="-99"/>
            <Node pos="r" depth="3" NCoef="0" IVar="-1" Cut="0.0000000000000000e+00" cType="1" res="-4.9264822155237198e-02" rms="2.2902040183544159e-01" purity="4.8577091097831726e-01" nType="-99"/>
          </Node>
        </Node>
      </Node>
    </BinaryTree>
    <BinaryTree type="DecisionTree" boostWeight="1.0000000000000000e+00" itree="90">
      <Node pos="s" depth="0" NCoef="0" IVar="0" Cut="4.4703970336914062e+02" cType="1" res="5.8251334121450782e-04" rms="1.9395124912261963e-01" purity="5.0411021709442139e-01" nType="0">
        <Node pos="l" depth="1" NCoef="0" IVar="1" Cut="1.7408385009765625e+03" cType="1" res="-4.6123214997351170e-03" rms="1.4732199907302856e-01" purity="2.7825549244880676e-02" nType="0">
          <Node pos="l" depth="2" NCoef="0" IVar="1" Cut="1.5785313720703125e+03" cType="1" res="8.0255900684278458e-05" rms="1.1073985695838928e-01" purity="1.2954254634678364e-02" nType="0">
            <Node pos="l" depth="3" NCoef="0" IVar="-1" Cut="0.0000000000000000e+00" cType="1" res="-4.8386335372924805e-02" rms="6.7381553351879120e-02" purity="4.6300515532493591e-03" nType="-99"/>
            <Node pos="r" depth="3" NCoef="0" IVar="-1" Cut="0.0000000000000000e+00" cType="1" res="4.9389328807592392e-02" rms="1.7696233093738556e-01" purity="3.3660333603620529e-02" nType="-99"/>
          </Node>
          <Node pos="r" depth="2" NCoef="0" IVar="-1" Cut="0.0000000000000000e+00" cType="1" res="-3.3352822065353394e-02" rms="2.6656123995780945e-01" purity="1.0672754049301147e-01" nType="-99"/>
        </Node>
        <Node pos="r" depth="1" NCoef="0" IVar="1" Cut="2.5051586914062500e+03" cType="1" res="2.0149976480752230e-03" rms="2.0492857694625854e-01" purity="6.3544648885726929e-01" nType="0">
          <Node pos="l" depth="2" NCoef="0" IVar="4" Cut="2.4874935913085938e+02" cType="1" res="5.6107952259480953e-03" rms="2.6157784461975098e-01" purity="1.8484550714492798e-01" nType="0">
            <Node pos="l" depth="3" NCoef="0" IVar="-1" Cut="0.0000000000000000e+00" cType="1" res="-1.4558462426066399e-02" rms="1.3739146292209625e-01" purity="2.5106683373451233e-02" nType="-99"/>
            <Node pos="r" depth="3" NCoef="0" IVar="-1" Cut="0.0000000000000000e+00" cType="1" res="1.2333618476986885e-02" rms="3.2517662644386292e-01" purity="3.0548682808876038e-01" nType="-99"/>
          </Node>
          <Node pos="r" depth="2" NCoef="0" IVar="7" Cut="-7.8301262855529785e-01" cType="1" res="-6.4876349642872810e-04" rms="1.4967224001884460e-01" purity="9.6925097703933716e-01" nType="0">
            <Node pos="l" depth="3" NCoef="0" IVar="-1" Cut="0.0000000000000000e+00" cType="1" res="-4.5581024140119553e-02" rms="1.9269967079162598e-01" purity="9.4493156671524048e-01" nType="-99"/>
            <Node pos="r" depth="3" NCoef="0" IVar="-1" Cut="0.0000000000000000e+00" cType="1" res="3.2275719568133354e-03" rms="1.4438863098621368e-01" purity="9.7178536653518677e-01" nType="-99"/>
          </Node>
        </Node>
      </Node>
    </BinaryTree>
    <BinaryTree type="DecisionTree" boostWeight="1.0000000000000000e+00" itree="91">
      <Node pos="s" depth="0" NCoef="0" IVar="8" Cut="1.7332966327667236e+00" cType="1" res="3.0885549494996667e-04" rms="1.9332565367221832e-01" purity="4.9669086933135986e-01" nType="0">
        <Node pos="l" depth="1" NCoef="0" IVar="8" Cut="8.6977744102478027e-01" cType="1" res="9.8048453219234943e-04" rms="1.9177573919296265e-01" purity="5.1147252321243286e-01" nType="0">
          <Node pos="l" depth="2" NCoef="0" IVar="8" Cut="-1.9261925220489502e+00" cType="1" res="-9.4730354612693191e-04" rms="1.8522880971431732e-01" purity="5.2880513668060303e-01" nType="0">
            <Node pos="l" depth="3" NCoef="0" IVar="-1" Cut="0.0000000000000000e+00" cType="1" res="-5.6807920336723328e-02" rms="1.7167536914348602e-01" purity="1.0163573920726776e-01" nType="-99"/>
            <Node pos="r" depth="3" NCoef="0" IVar="-1" Cut="0.0000000000000000e+00" cType="1" res="-6.5457908203825355e-04" rms="1.8564610183238983e-01" purity="5.4381096363067627e-01" nType="-99"/>
          </Node>
          <Node pos="r" depth="2" NCoef="0" IVar="10" Cut="-6.6668659448623657e-01" cType="1" res="1.1265925131738186e-02" rms="2.2320654988288879e-01" purity="4.1899654269218445e-01" nType="0">
            <Node pos="l" depth="3" NCoef="0" IVar="-1" Cut="0.0000000000000000e+00" cType="1" res="4.7355674207210541e-02" rms="2.4534256756305695e-01" purity="4.7258359193801880e-01" nType="-99"/>
            <Node pos="r" depth="3" NCoef="0" IVar="-1" Cut="0.0000000000000000e+00" cType="1" res="1.7370717599987984e-02" rms="2.1456992626190186e-01" purity="3.9979928731918335e-01" nType="-99"/>
          </Node>
        </Node>
        <Node pos="r" depth="1" NCoef="0" IVar="-1" Cut="0.0000000000000000e+00" cType="1" res="-3.7809301167726517e-02" rms="2.2631409764289856e-01" purity="1.4735671877861023e-01" nType="-99"/>
      </Node>
    </BinaryTree>
    <BinaryTree type="DecisionTree" boostWeight="1.0000000000000000e+00" itree="92">
      <Node pos="s" depth="0" NCoef="0" IVar="7" Cut="6.9665724039077759e-01" cType="1" res="1.0970015864586458e-04" rms="1.9325947761535645e-01" purity="4.9990195035934448e-01" nType="0">
        <Node pos="l" depth="1" NCoef="0" IVar="3" Cut="3.5056497192382812e+02" cType="1" res="-2.2392403334379196e-03" rms="1.8441836535930634e-01" purity="5.3596127033233643e-01" nType="0">
          <Node pos="l" depth="2" NCoef="0" IVar="-1" Cut="0.0000000000000000e+00" cType="1" res="-7.1956813335418701e-02" rms="1.3030825555324554e-01" purity="2.2878991439938545e-02" nType="-99"/>
          <Node pos="r" depth="2" NCoef="0" IVar="5" Cut="3.1393804931640625e+02" cType="1" res="-1.2781289406120777e-03" rms="1.8651139736175537e-01" purity="5.5997443199157715e-01" nType="0">
            <Node pos="l" depth="3" NCoef="0" IVar="-1" Cut="0.0000000000000000e+00" cType="1" res="-7.9146549105644226e-03" rms="2.1128976345062256e-01" purity="2.9746446013450623e-01" nType="-99"/>
            <Node pos="r" depth="3" NCoef="0" IVar="-1" Cut="0.0000000000000000e+00" cType="1" res="1.1201896704733372e-02" rms="1.4034953713417053e-01" purity="9.6127051115036011e-01" nType="-99"/>
          </Node>
        </Node>
        <Node pos="r" depth="1" NCoef="0" IVar="3" Cut="6.7141009521484375e+02" cType="1" res="9.3472683802247047e-03" rms="2.2444082796573639e-01" purity="3.5809323191642761e-01" nType="0">
          <Node pos="l" depth="2" NCoef="0" IVar="1" Cut="1.6886824951171875e+03" cType="1" res="1.7030779272317886e-02" rms="2.2995860874652863e-01" purity="2.0108476281166077e-01" nType="0">
            <Node pos="l" depth="3" NCoef="0" IVar="-1" Cut="0.0000000000000000e+00" cType="1" res="8.6130965501070023e-03" rms="1.1505948752164841e-01" purity="1.4422263018786907e-02" nType="-99"/>
            <Node pos="r" depth="3" NCoef="0" IVar="-1" Cut="0.0000000000000000e+00" cType="1" res="4.4703267514705658e-02" rms="3.4047293663024902e-01" purity="5.0297820568084717e-01" nType="-99"/>
          </Node>
          <Node pos="r" depth="2" NCoef="0" IVar="0" Cut="9.0936828613281250e+02" cType="1" res="-5.1394253969192505e-03" rms="2.1289724111557007e-01" purity="6.5412104129791260e-01" nType="0">
            <Node pos="l" depth="3" NCoef="0" IVar="-1" Cut="0.0000000000000000e+00" cType="1" res="-3.9038337767124176e-02" rms="2.2726161777973175e-01" purity="4.2849028110504150e-01" nType="-99"/>
            <Node pos="r" depth="3" NCoef="0" IVar="-1" Cut="0.0000000000000000e+00" cType="1" res="3.9419993758201599e-02" rms="1.9218654930591583e-01" purity="9.3214398622512817e-01" nType="-99"/>
          </Node>
        </Node>
      </Node>
    </BinaryTree>
    <BinaryTree type="DecisionTree" boostWeight="1.0000000000000000e+00" itree="93">
      <Node pos="s" depth="0" NCoef="0" IVar="8" Cut="1.4666626453399658e+00" cType="1" res="9.2636342742480338e-05" rms="1.9466249644756317e-01" purity="4.9584507942199707e-01" nType="0">
        <Node pos="l" depth="1" NCoef="0" IVar="5" Cut="1.0680798339843750e+02" cType="1" res="-9.3726348131895065e-04" rms="1.9027601182460785e-01" purity="5.1578783988952637e-01" nType="0">
          <Node pos="l" depth="2" NCoef="0" IVar="1" Cut="1.6740891113281250e+03" cType="1" res="-8.5408557206392288e-03" rms="1.1193034052848816e-01" purity="2.3581972345709801e-02" nType="0">
            <Node pos="l" depth="3" NCoef="0" IVar="-1" Cut="0.0000000000000000e+00" cType="1" res="-5.6999363005161285e-02" rms="4.3046817183494568e-02" purity="2.0213385578244925e-03" nType="-99"/>
            <Node pos="r" depth="3" NCoef="0" IVar="-1" Cut="0.0000000000000000e+00" cType="1" res="-4.6762697398662567e-02" rms="1.8555301427841187e-01" purity="6.8267971277236938e-02" nType="-99"/>
          </Node>
          <Node pos="r" depth="2" NCoef="0" IVar="6" Cut="9.4900291442871094e+01" cType="1" res="1.0431703412905335e-04" rms="1.9859328866004944e-01" purity="5.8321279287338257e-01" nType="0">
            <Node pos="l" depth="3" NCoef="0" IVar="-1" Cut="0.0000000000000000e+00" cType="1" res="1.7896760255098343e-02" rms="2.2198563814163208e-01" purity="2.5380796194076538e-01" nType="-99"/>
            <Node pos="r" depth="3" NCoef="0" IVar="-1" Cut="0.0000000000000000e+00" cType="1" res="-6.2084603123366833e-03" rms="1.9076946377754211e-01" purity="6.8444001674652100e-01" nType="-99"/>
          </Node>
        </Node>
        <Node pos="r" depth="1" NCoef="0" IVar="1" Cut="1.8403937988281250e+03" cType="1" res="1.2952022254467010e-02" rms="2.4248284101486206e-01" purity="2.4683831632137299e-01" nType="0">
          <Node pos="l" depth="2" NCoef="0" IVar="-1" Cut="0.0000000000000000e+00" cType="1" res="1.7653057351708412e-02" rms="1.5176358819007874e-01" purity="2.4797858670353889e-02" nType="-99"/>
          <Node pos="r" depth="2" NCoef="0" IVar="-1" Cut="0.0000000000000000e+00" cType="1" res="3.2829955220222473e-02" rms="3.5131591558456421e-01" purity="6.5090876817703247e-01" nType="-99"/>
        </Node>
      </Node>
    </BinaryTree>
    <BinaryTree type="DecisionTree" boostWeight="1.0000000000000000e+00" itree="94">
      <Node pos="s" depth="0" NCoef="0" IVar="7" Cut="9.3738442659378052e-01" cType="1" res="-1.5112088294699788e-04" rms="1.9431316852569580e-01" purity="5.0274902582168579e-01" nType="0">
        <Node pos="l" depth="1" NCoef="0" IVar="9" Cut="1.7329380512237549e+00" cType="1" res="-1.2860256247222424e-03" rms="1.8872901797294617e-01" purity="5.3706079721450806e-01" nType="0">
          <Node pos="l" depth="2" NCoef="0" IVar="9" Cut="1.0853805541992188e+00" cType="1" res="-5.5634963791817427e-04" rms="1.8573011457920074e-01" purity="5.5172234773635864e-01" nType="0">
            <Node pos="l" depth="3" NCoef="0" IVar="-1" Cut="0.0000000000000000e+00" cType="1" res="-6.9789295084774494e-03" rms="1.8183699250221252e-01" purity="5.5554926395416260e-01" nType="-99"/>
            <Node pos="r" depth="3" NCoef="0" IVar="-1" Cut="0.0000000000000000e+00" cType="1" res="3.2635807991027832e-02" rms="2.1294552087783813e-01" purity="5.2213877439498901e-01" nType="-99"/>
          </Node>
          <Node pos="r" depth="2" NCoef="0" IVar="-1" Cut="0.0000000000000000e+00" cType="1" res="-2.4492537602782249e-02" rms="2.3271779716014862e-01" purity="2.9297229647636414e-01" nType="-99"/>
        </Node>
        <Node pos="r" depth="1" NCoef="0" IVar="10" Cut="-1.3337126374244690e-01" cType="1" res="7.6120509766042233e-03" rms="2.2873531281948090e-01" purity="2.6804408431053162e-01" nType="0">
          <Node pos="l" depth="2" NCoef="0" IVar="5" Cut="1.7677464294433594e+02" cType="1" res="2.6543106883764267e-02" rms="2.4579584598541260e-01" purity="2.9470238089561462e-01" nType="0">
            <Node pos="l" depth="3" NCoef="0" IVar="-1" Cut="0.0000000000000000e+00" cType="1" res="2.3408939596265554e-03" rms="1.4374271035194397e-01" purity="4.2759377509355545e-02" nType="-99"/>
            <Node pos="r" depth="3" NCoef="0" IVar="-1" Cut="0.0000000000000000e+00" cType="1" res="7.5464740395545959e-02" rms="3.0230468511581421e-01" purity="4.9720683693885803e-01" nType="-99"/>
          </Node>
          <Node pos="r" depth="2" NCoef="0" IVar="1" Cut="1.7985009765625000e+03" cType="1" res="-7.0209684781730175e-03" rms="2.1347360312938690e-01" purity="2.4743817746639252e-01" nType="0">
            <Node pos="l" depth="3" NCoef="0" IVar="-1" Cut="0.0000000000000000e+00" cType="1" res="2.8043705970048904e-02" rms="1.4358063042163849e-01" purity="2.4203905835747719e-02" nType="-99"/>
            <Node pos="r" depth="3" NCoef="0" IVar="-1" Cut="0.0000000000000000e+00" cType="1" res="-3.4839875996112823e-02" rms="2.9061454534530640e-01" purity="6.0055506229400635e-01" nType="-99"/>
          </Node>
        </Node>
      </Node>
    </BinaryTree>
    <BinaryTree type="DecisionTree" boostWeight="1.0000000000000000e+00" itree="95">
      <Node pos="s" depth="0" NCoef="0" IVar="9" Cut="-4.0001401305198669e-01" cType="1" res="-9.5900404267013073e-04" rms="1.9018302857875824e-01" purity="4.9699434638023376e-01" nType="0">
        <Node pos="l" depth="1" NCoef="0" IVar="5" Cut="1.4479357910156250e+02" cType="1" res="3.3949241042137146e-03" rms="2.0388042926788330e-01" purity="4.7072821855545044e-01" nType="0">
          <Node pos="l" depth="2" NCoef="0" IVar="2" Cut="1.8698057159781456e-02" cType="1" res="-8.3102062344551086e-03" rms="1.3220295310020447e-01" purity="4.6365834772586823e-02" nType="0">
            <Node pos="l" depth="3" NCoef="0" IVar="-1" Cut="0.0000000000000000e+00" cType="1" res="-1.0080434381961823e-02" rms="1.4067851006984711e-01" purity="3.7244237959384918e-02" nType="-99"/>
            <Node pos="r" depth="3" NCoef="0" IVar="-1" Cut="0.0000000000000000e+00" cType="1" res="-6.9375976920127869e-02" rms="1.1663010716438293e-01" purity="6.1017159372568130e-02" nType="-99"/>
          </Node>
          <Node pos="r" depth="2" NCoef="0" IVar="5" Cut="2.7319583129882812e+02" cType="1" res="7.5179915875196457e-03" rms="2.2357861697673798e-01" purity="6.2020748853683472e-01" nType="0">
            <Node pos="l" depth="3" NCoef="0" IVar="-1" Cut="0.0000000000000000e+00" cType="1" res="2.8970079496502876e-02" rms="2.6073402166366577e-01" purity="3.2824856042861938e-01" nType="-99"/>
            <Node pos="r" depth="3" NCoef="0" IVar="-1" Cut="0.0000000000000000e+00" cType="1" res="-5.6780348531901836e-03" rms="1.7942033708095551e-01" purity="9.0609002113342285e-01" nType="-99"/>
          </Node>
        </Node>
        <Node pos="r" depth="1" NCoef="0" IVar="1" Cut="3.1877155761718750e+03" cType="1" res="-3.4481955226510763e-03" rms="1.8184238672256470e-01" purity="5.1201099157333374e-01" nType="0">
          <Node pos="l" depth="2" NCoef="0" IVar="5" Cut="2.0786715698242188e+02" cType="1" res="-5.9794518165290356e-03" rms="2.1152956783771515e-01" purity="2.9904517531394958e-01" nType="0">
            <Node pos="l" depth="3" NCoef="0" IVar="-1" Cut="0.0000000000000000e+00" cType="1" res="-4.3894033879041672e-03" rms="1.7701046168804169e-01" purity="8.3918914198875427e-02" nType="-99"/>
            <Node pos="r" depth="3" NCoef="0" IVar="-1" Cut="0.0000000000000000e+00" cType="1" res="-1.9218880683183670e-02" rms="2.5287777185440063e-01" purity="6.0820758342742920e-01" nType="-99"/>
          </Node>
          <Node pos="r" depth="2" NCoef="0" IVar="0" Cut="1.3514625244140625e+03" cType="1" res="2.2678170353174210e-03" rms="8.1537313759326935e-02" purity="9.9292451143264771e-01" nType="0">
            <Node pos="l" depth="3" NCoef="0" IVar="-1" Cut="0.0000000000000000e+00" cType="1" res="3.6409795284271240e-03" rms="8.6811199784278870e-02" purity="9.9192053079605103e-01" nType="-99"/>
            <Node pos="r" depth="3" NCoef="0" IVar="-1" Cut="0.0000000000000000e+00" cType="1" res="5.6865129619836807e-02" rms="7.1062147617340088e-02" purity="9.9471020698547363e-01" nType="-99"/>
          </Node>
        </Node>
      </Node>
    </BinaryTree>
    <BinaryTree type="DecisionTree" boostWeight="1.0000000000000000e+00" itree="96">
      <Node pos="s" depth="0" NCoef="0" IVar="10" Cut="-1.7332650423049927e+00" cType="1" res="-8.9030386880040169e-04" rms="1.9170489907264709e-01" purity="4.9696013331413269e-01" nType="0">
        <Node pos="l" depth="1" NCoef="0" IVar="5" Cut="1.7883953857421875e+02" cType="1" res="7.7083292417228222e-03" rms="2.3980976641178131e-01" purity="4.2254608869552612e-01" nType="0">
          <Node pos="l" depth="2" NCoef="0" IVar="-1" Cut="0.0000000000000000e+00" cType="1" res="5.5980887264013290e-02" rms="2.3424085974693298e-01" purity="1.4440566301345825e-01" nType="-99"/>
          <Node pos="r" depth="2" NCoef="0" IVar="-1" Cut="0.0000000000000000e+00" cType="1" res="-8.3492565900087357e-03" rms="2.4347692728042603e-01" purity="6.4639210700988770e-01" nType="-99"/>
        </Node>
        <Node pos="r" depth="1" NCoef="0" IVar="3" Cut="6.3722503662109375e+02" cType="1" res="-1.6340092988684773e-03" rms="1.8694502115249634e-01" purity="5.0339621305465698e-01" nType="0">
          <Node pos="l" depth="2" NCoef="0" IVar="7" Cut="-1.1878659725189209e+00" cType="1" res="-5.1563763990998268e-03" rms="1.9080612063407898e-01" purity="1.8325792253017426e-01" nType="0">
            <Node pos="l" depth="3" NCoef="0" IVar="-1" Cut="0.0000000000000000e+00" cType="1" res="4.4463831931352615e-02" rms="1.8807546794414520e-01" purity="1.1742310971021652e-01" nType="-99"/>
            <Node pos="r" depth="3" NCoef="0" IVar="-1" Cut="0.0000000000000000e+00" cType="1" res="-1.9737627357244492e-02" rms="1.9105230271816254e-01" purity="1.9299434125423431e-01" nType="-99"/>
          </Node>
          <Node pos="r" depth="2" NCoef="0" IVar="5" Cut="2.0838084411621094e+02" cType="1" res="1.2273670872673392e-03" rms="1.8369905650615692e-01" purity="7.6345890760421753e-01" nType="0">
            <Node pos="l" depth="3" NCoef="0" IVar="-1" Cut="0.0000000000000000e+00" cType="1" res="1.7120473086833954e-02" rms="2.4450641870498657e-01" purity="2.8468585014343262e-01" nType="-99"/>
            <Node pos="r" depth="3" NCoef="0" IVar="-1" Cut="0.0000000000000000e+00" cType="1" res="-8.1263538450002670e-03" rms="1.5462490916252136e-01" purity="9.4366830587387085e-01" nType="-99"/>
          </Node>
        </Node>
      </Node>
    </BinaryTree>
    <BinaryTree type="DecisionTree" boostWeight="1.0000000000000000e+00" itree="97">
      <Node pos="s" depth="0" NCoef="0" IVar="9" Cut="-6.6675955057144165e-01" cType="1" res="2.4480770807713270e-03" rms="1.9572108983993530e-01" purity="5.0763642787933350e-01" nType="0">
        <Node pos="l" depth="1" NCoef="0" IVar="8" Cut="1.3340938091278076e-01" cType="1" res="8.4203043952584267e-03" rms="2.1310725808143616e-01" purity="4.6569907665252686e-01" nType="0">
          <Node pos="l" depth="2" NCoef="0" IVar="8" Cut="-9.8412328958511353e-01" cType="1" res="3.4304358996450901e-04" rms="1.9756613671779633e-01" purity="4.4216576218605042e-01" nType="0">
            <Node pos="l" depth="3" NCoef="0" IVar="-1" Cut="0.0000000000000000e+00" cType="1" res="2.4347122758626938e-02" rms="2.2937262058258057e-01" purity="2.8981855511665344e-01" nType="-99"/>
            <Node pos="r" depth="3" NCoef="0" IVar="-1" Cut="0.0000000000000000e+00" cType="1" res="-1.2837307527661324e-02" rms="1.7945893108844757e-01" purity="5.1795911788940430e-01" nType="-99"/>
          </Node>
          <Node pos="r" depth="2" NCoef="0" IVar="1" Cut="2.4408066406250000e+03" cType="1" res="1.9099505618214607e-02" rms="2.3163047432899475e-01" purity="4.9681329727172852e-01" nType="0">
            <Node pos="l" depth="3" NCoef="0" IVar="-1" Cut="0.0000000000000000e+00" cType="1" res="5.1324583590030670e-02" rms="2.6620617508888245e-01" purity="1.7624610662460327e-01" nType="-99"/>
            <Node pos="r" depth="3" NCoef="0" IVar="-1" Cut="0.0000000000000000e+00" cType="1" res="5.1598921418190002e-03" rms="1.6776596009731293e-01" purity="9.6195971965789795e-01" nType="-99"/>
          </Node>
        </Node>
        <Node pos="r" depth="1" NCoef="0" IVar="8" Cut="-1.3285510241985321e-01" cType="1" res="1.3251983909867704e-04" rms="1.8849840760231018e-01" purity="5.2389639616012573e-01" nType="0">
          <Node pos="l" depth="2" NCoef="0" IVar="7" Cut="-1.0886307954788208e+00" cType="1" res="5.5365753360092640e-03" rms="1.9672250747680664e-01" purity="5.3444558382034302e-01" nType="0">
            <Node pos="l" depth="3" NCoef="0" IVar="-1" Cut="0.0000000000000000e+00" cType="1" res="5.4158572107553482e-02" rms="2.4209661781787872e-01" purity="2.6780781149864197e-01" nType="-99"/>
            <Node pos="r" depth="3" NCoef="0" IVar="-1" Cut="0.0000000000000000e+00" cType="1" res="1.0854711756110191e-02" rms="1.9169752299785614e-01" purity="5.6017404794692993e-01" nType="-99"/>
          </Node>
          <Node pos="r" depth="2" NCoef="0" IVar="0" Cut="5.8411694335937500e+02" cType="1" res="-4.0188278071582317e-03" rms="1.8181934952735901e-01" purity="5.1579266786575317e-01" nType="0">
            <Node pos="l" depth="3" NCoef="0" IVar="-1" Cut="0.0000000000000000e+00" cType="1" res="-2.7493737637996674e-02" rms="1.8170402944087982e-01" purity="7.9650476574897766e-02" nType="-99"/>
            <Node pos="r" depth="3" NCoef="0" IVar="-1" Cut="0.0000000000000000e+00" cType="1" res="-2.1997643634676933e-03" rms="1.8180237710475922e-01" purity="7.6469403505325317e-01" nType="-99"/>
          </Node>
        </Node>
      </Node>
    </BinaryTree>
    <BinaryTree type="DecisionTree" boostWeight="1.0000000000000000e+00" itree="98">
      <Node pos="s" depth="0" NCoef="0" IVar="7" Cut="9.5925283432006836e-01" cType="1" res="8.3809084026142955e-04" rms="1.9454492628574371e-01" purity="5.0657951831817627e-01" nType="0">
        <Node pos="l" depth="1" NCoef="0" IVar="7" Cut="7.8417730331420898e-01" cType="1" res="2.2425237111747265e-03" rms="1.9369094073772430e-01" purity="5.4351204633712769e-01" nType="0">
          <Node pos="l" depth="2" NCoef="0" IVar="7" Cut="-8.8309228420257568e-01" cType="1" res="8.9176872279495001e-04" rms="1.9023033976554871e-01" purity="5.4569047689437866e-01" nType="0">
            <Node pos="l" depth="3" NCoef="0" IVar="-1" Cut="0.0000000000000000e+00" cType="1" res="-2.0281884819269180e-02" rms="1.9451978802680969e-01" purity="2.7905714511871338e-01" nType="-99"/>
            <Node pos="r" depth="3" NCoef="0" IVar="-1" Cut="0.0000000000000000e+00" cType="1" res="7.4158455245196819e-03" rms="1.8930223584175110e-01" purity="5.9968787431716919e-01" nType="-99"/>
          </Node>
          <Node pos="r" depth="2" NCoef="0" IVar="-1" Cut="0.0000000000000000e+00" cType="1" res="6.3869856297969818e-02" rms="2.4567699432373047e-01" purity="5.0507766008377075e-01" nType="-99"/>
        </Node>
        <Node pos="r" depth="1" NCoef="0" IVar="3" Cut="6.7141009521484375e+02" cType="1" res="-9.0802786871790886e-03" rms="2.0019206404685974e-01" purity="2.4575507640838623e-01" nType="0">
          <Node pos="l" depth="2" NCoef="0" IVar="8" Cut="-6.6616183519363403e-01" cType="1" res="-1.7920271493494511e-03" rms="2.0223189890384674e-01" purity="1.3736370205879211e-01" nType="0">
            <Node pos="l" depth="3" NCoef="0" IVar="-1" Cut="0.0000000000000000e+00" cType="1" res="-5.4459363222122192e-02" rms="1.8371340632438660e-01" purity="8.2929767668247223e-02" nType="-99"/>
            <Node pos="r" depth="3" NCoef="0" IVar="-1" Cut="0.0000000000000000e+00" cType="1" res="1.3967241160571575e-02" rms="2.0933076739311218e-01" purity="1.6103705763816833e-01" nType="-99"/>
          </Node>
          <Node pos="r" depth="2" NCoef="0" IVar="-1" Cut="0.0000000000000000e+00" cType="1" res="-6.3376724720001221e-02" rms="1.9379790127277374e-01" purity="5.1694697141647339e-01" nType="-99"/>
        </Node>
      </Node>
    </BinaryTree>
    <BinaryTree type="DecisionTree" boostWeight="1.0000000000000000e+00" itree="99">
      <Node pos="s" depth="0" NCoef="0" IVar="10" Cut="1.7333186864852905e+00" cType="1" res="4.7799330786801875e-04" rms="1.9201099872589111e-01" purity="5.0108861923217773e-01" nType="0">
        <Node pos="l" depth="1" NCoef="0" IVar="7" Cut="1.2426741123199463e+00" cType="1" res="-9.6975930500775576e-04" rms="1.8531425297260284e-01" purity="5.0792253017425537e-01" nType="0">
          <Node pos="l" depth="2" NCoef="0" IVar="6" Cut="1.8470040893554688e+02" cType="1" res="-1.9630892202258110e-03" rms="1.8106333911418915e-01" purity="5.3237843513488770e-01" nType="0">
            <Node pos="l" depth="3" NCoef="0" IVar="-1" Cut="0.0000000000000000e+00" cType="1" res="-1.1921059340238571e-02" rms="1.9836924970149994e-01" purity="3.1103235483169556e-01" nType="-99"/>
            <Node pos="r" depth="3" NCoef="0" IVar="-1" Cut="0.0000000000000000e+00" cType="1" res="1.3195622712373734e-02" rms="1.4427790045738220e-01" purity="9.3440127372741699e-01" nType="-99"/>
          </Node>
          <Node pos="r" depth="2" NCoef="0" IVar="3" Cut="5.6342028808593750e+02" cType="1" res="1.2043246999382973e-02" rms="2.3358552157878876e-01" purity="1.8754106760025024e-01" nType="0">
            <Node pos="l" depth="3" NCoef="0" IVar="-1" Cut="0.0000000000000000e+00" cType="1" res="7.9272031784057617e-02" rms="2.5371918082237244e-01" purity="1.3148559629917145e-01" nType="-99"/>
            <Node pos="r" depth="3" NCoef="0" IVar="-1" Cut="0.0000000000000000e+00" cType="1" res="-4.5456536114215851e-02" rms="1.9751384854316711e-01" purity="2.6823592185974121e-01" nType="-99"/>
          </Node>
        </Node>
        <Node pos="r" depth="1" NCoef="0" IVar="9" Cut="4.0010735392570496e-01" cType="1" res="1.7366329208016396e-02" rms="2.5697234272956848e-01" purity="4.2136859893798828e-01" nType="0">
          <Node pos="l" depth="2" NCoef="0" IVar="-1" Cut="0.0000000000000000e+00" cType="1" res="-3.3376901410520077e-03" rms="2.4190820753574371e-01" purity="4.4546207785606384e-01" nType="-99"/>
          <Node pos="r" depth="2" NCoef="0" IVar="-1" Cut="0.0000000000000000e+00" cType="1" res="6.6583551466464996e-02" rms="2.7372637391090393e-01" purity="3.8928020000457764e-01" nType="-99"/>
        </Node>
      </Node>
    </BinaryTree>
    <BinaryTree type="DecisionTree" boostWeight="1.0000000000000000e+00" itree="100">
      <Node pos="s" depth="0" NCoef="0" IVar="9" Cut="-3.9997753500938416e-01" cType="1" res="2.9432848095893860e-03" rms="1.9797034561634064e-01" purity="5.0161224603652954e-01" nType="0">
        <Node pos="l" depth="1" NCoef="0" IVar="2" Cut="6.0686554759740829e-02" cType="1" res="8.3552980795502663e-03" rms="2.1172152459621429e-01" purity="4.7619128227233887e-01" nType="0">
          <Node pos="l" depth="2" NCoef="0" IVar="2" Cut="1.4447458088397980e-02" cType="1" res="1.3306037522852421e-02" rms="2.2731062769889832e-01" purity="3.5171958804130554e-01" nType="0">
            <Node pos="l" depth="3" NCoef="0" IVar="-1" Cut="0.0000000000000000e+00" cType="1" res="-1.3046643289271742e-04" rms="1.9924652576446533e-01" purity="1.9796697795391083e-01" nType="-99"/>
            <Node pos="r" depth="3" NCoef="0" IVar="-1" Cut="0.0000000000000000e+00" cType="1" res="4.8086762428283691e-02" rms="2.4552689492702484e-01" purity="4.6528959274291992e-01" nType="-99"/>
          </Node>
          <Node pos="r" depth="2" NCoef="0" IVar="9" Cut="-1.0852121114730835e+00" cType="1" res="-1.6870044637471437e-03" rms="1.7547798156738281e-01" purity="7.2867530584335327e-01" nType="0">
            <Node pos="l" depth="3" NCoef="0" IVar="-1" Cut="0.0000000000000000e+00" cType="1" res="-3.2560423016548157e-02" rms="1.7372032999992371e-01" purity="6.7970681190490723e-01" nType="-99"/>
            <Node pos="r" depth="3" NCoef="0" IVar="-1" Cut="0.0000000000000000e+00" cType="1" res="1.7367610707879066e-02" rms="1.7636065185070038e-01" purity="7.6243883371353149e-01" nType="-99"/>
          </Node>
        </Node>
        <Node pos="r" depth="1" NCoef="0" IVar="7" Cut="-5.4896604269742966e-02" cType="1" res="-1.7158933042082936e-04" rms="1.8953417241573334e-01" purity="5.1624315977096558e-01" nType="0">
          <Node pos="l" depth="2" NCoef="0" IVar="10" Cut="1.4662512540817261e+00" cType="1" res="4.2090415954589844e-03" rms="1.9231227040290833e-01" purity="5.2441960573196411e-01" nType="0">
            <Node pos="l" depth="3" NCoef="0" IVar="-1" Cut="0.0000000000000000e+00" cType="1" res="2.6956528890877962e-03" rms="1.8127138912677765e-01" purity="5.2846902608871460e-01" nType="-99"/>
            <Node pos="r" depth="3" NCoef="0" IVar="-1" Cut="0.0000000000000000e+00" cType="1" res="5.6017987430095673e-02" rms="2.5686267018318176e-01" purity="4.9531480669975281e-01" nType="-99"/>
          </Node>
          <Node pos="r" depth="2" NCoef="0" IVar="10" Cut="1.7331660985946655e+00" cType="1" res="-4.0021482855081558e-03" rms="1.8698702752590179e-01" purity="5.0909340381622314e-01" nType="0">
            <Node pos="l" depth="3" NCoef="0" IVar="-1" Cut="0.0000000000000000e+00" cType="1" res="-6.2134624458849430e-03" rms="1.8443271517753601e-01" purity="5.2539455890655518e-01" nType="-99"/>
            <Node pos="r" depth="3" NCoef="0" IVar="-1" Cut="0.0000000000000000e+00" cType="1" res="-5.1884692162275314e-02" rms="2.1257750689983368e-01" purity="3.2523432374000549e-01" nType="-99"/>
          </Node>
        </Node>
      </Node>
    </BinaryTree>
    <BinaryTree type="DecisionTree" boostWeight="1.0000000000000000e+00" itree="101">
      <Node pos="s" depth="0" NCoef="0" IVar="9" Cut="6.6664320230484009e-01" cType="1" res="-1.5161144256126136e-04" rms="1.9399793446063995e-01" purity="5.0234562158584595e-01" nType="0">
        <Node pos="l" depth="1" NCoef="0" IVar="8" Cut="1.3362129032611847e-01" cType="1" res="-2.1756542846560478e-03" rms="1.8558757007122040e-01" purity="5.1859539747238159e-01" nType="0">
          <Node pos="l" depth="2" NCoef="0" IVar="5" Cut="3.4655541992187500e+02" cType="1" res="-5.3628273308277130e-03" rms="1.7856867611408234e-01" purity="5.1752007007598877e-01" nType="0">
            <Node pos="l" depth="3" NCoef="0" IVar="-1" Cut="0.0000000000000000e+00" cType="1" res="-2.2519163787364960e-02" rms="2.0085413753986359e-01" purity="2.8796592354774475e-01" nType="-99"/>
            <Node pos="r" depth="3" NCoef="0" IVar="-1" Cut="0.0000000000000000e+00" cType="1" res="1.5390469692647457e-02" rms="1.2213986366987228e-01" purity="9.7564363479614258e-01" nType="-99"/>
          </Node>
          <Node pos="r" depth="2" NCoef="0" IVar="6" Cut="1.5670056152343750e+02" cType="1" res="1.8910123035311699e-03" rms="1.9409927725791931e-01" purity="5.1996737718582153e-01" nType="0">
            <Node pos="l" depth="3" NCoef="0" IVar="-1" Cut="0.0000000000000000e+00" cType="1" res="1.4204682782292366e-02" rms="2.1255682408809662e-01" purity="2.6496464014053345e-01" nType="-99"/>
            <Node pos="r" depth="3" NCoef="0" IVar="-1" Cut="0.0000000000000000e+00" cType="1" res="-1.1267840862274170e-02" rms="1.6524001955986023e-01" purity="8.7065476179122925e-01" nType="-99"/>
          </Node>
        </Node>
        <Node pos="r" depth="1" NCoef="0" IVar="10" Cut="-6.6671687364578247e-01" cType="1" res="5.1307547837495804e-03" rms="2.1430890262126923e-01" purity="4.5993664860725403e-01" nType="0">
          <Node pos="l" depth="2" NCoef="0" IVar="0" Cut="5.6936645507812500e+02" cType="1" res="2.2355308756232262e-02" rms="2.4200436472892761e-01" purity="5.0551372766494751e-01" nType="0">
            <Node pos="l" depth="3" NCoef="0" IVar="-1" Cut="0.0000000000000000e+00" cType="1" res="7.4141435325145721e-02" rms="2.7366018295288086e-01" purity="1.6085003316402435e-01" nType="-99"/>
            <Node pos="r" depth="3" NCoef="0" IVar="-1" Cut="0.0000000000000000e+00" cType="1" res="2.3640315979719162e-02" rms="2.1830703318119049e-01" purity="7.2835701704025269e-01" nType="-99"/>
          </Node>
          <Node pos="r" depth="2" NCoef="0" IVar="9" Cut="1.7840329408645630e+00" cType="1" res="-1.7024030676111579e-03" rms="2.0186722278594971e-01" purity="4.4185575842857361e-01" nType="0">
            <Node pos="l" depth="3" NCoef="0" IVar="-1" Cut="0.0000000000000000e+00" cType="1" res="4.9743559211492538e-03" rms="2.0399792492389679e-01" purity="4.8344862461090088e-01" nType="-99"/>
            <Node pos="r" depth="3" NCoef="0" IVar="-1" Cut="0.0000000000000000e+00" cType="1" res="-4.1674241423606873e-02" rms="1.9098427891731262e-01" purity="2.5250357389450073e-01" nType="-99"/>
          </Node>
        </Node>
      </Node>
    </BinaryTree>
    <BinaryTree type="DecisionTree" boostWeight="1.0000000000000000e+00" itree="102">
      <Node pos="s" depth="0" NCoef="0" IVar="10" Cut="-1.1999901533126831e+00" cType="1" res="-2.6644511308404617e-05" rms="1.9355742633342743e-01" purity="4.9742519855499268e-01" nType="0">
        <Node pos="l" depth="1" NCoef="0" IVar="7" Cut="-6.1882585287094116e-01" cType="1" res="-7.0678428746759892e-03" rms="2.1389122307300568e-01" purity="4.3043488264083862e-01" nType="0">
          <Node pos="l" depth="2" NCoef="0" IVar="-1" Cut="0.0000000000000000e+00" cType="1" res="-4.1559211909770966e-02" rms="1.9361326098442078e-01" purity="2.8447431325912476e-01" nType="-99"/>
          <Node pos="r" depth="2" NCoef="0" IVar="2" Cut="3.8263723254203796e-02" cType="1" res="-2.8178528882563114e-03" rms="2.2041672468185425e-01" purity="4.8172181844711304e-01" nType="0">
            <Node pos="l" depth="3" NCoef="0" IVar="-1" Cut="0.0000000000000000e+00" cType="1" res="1.1548372916877270e-02" rms="2.3668715357780457e-01" purity="2.8692373633384705e-01" nType="-99"/>
            <Node pos="r" depth="3" NCoef="0" IVar="-1" Cut="0.0000000000000000e+00" cType="1" res="-2.4636827409267426e-02" rms="2.0440793037414551e-01" purity="6.5652090311050415e-01" nType="-99"/>
          </Node>
        </Node>
        <Node pos="r" depth="1" NCoef="0" IVar="8" Cut="1.3323754072189331e-01" cType="1" res="1.3775515835732222e-03" rms="1.8920989334583282e-01" purity="5.1078480482101440e-01" nType="0">
          <Node pos="l" depth="2" NCoef="0" IVar="10" Cut="1.2760795354843140e+00" cType="1" res="4.4185430742800236e-03" rms="1.8994453549385071e-01" purity="5.3479051589965820e-01" nType="0">
            <Node pos="l" depth="3" NCoef="0" IVar="-1" Cut="0.0000000000000000e+00" cType="1" res="5.5425111204385757e-03" rms="1.7838002741336823e-01" purity="5.3966778516769409e-01" nType="-99"/>
            <Node pos="r" depth="3" NCoef="0" IVar="-1" Cut="0.0000000000000000e+00" cType="1" res="3.4747973084449768e-02" rms="2.3741176724433899e-01" purity="5.1133668422698975e-01" nType="-99"/>
          </Node>
          <Node pos="r" depth="2" NCoef="0" IVar="9" Cut="1.2000659704208374e+00" cType="1" res="-2.3897171486169100e-03" rms="1.8822768330574036e-01" purity="4.8104584217071533e-01" nType="0">
            <Node pos="l" depth="3" NCoef="0" IVar="-1" Cut="0.0000000000000000e+00" cType="1" res="-1.3714473461732268e-03" rms="1.8928493559360504e-01" purity="5.1147818565368652e-01" nType="-99"/>
            <Node pos="r" depth="3" NCoef="0" IVar="-1" Cut="0.0000000000000000e+00" cType="1" res="-3.3241726458072662e-02" rms="1.8193766474723816e-01" purity="3.1338495016098022e-01" nType="-99"/>
          </Node>
        </Node>
      </Node>
    </BinaryTree>
    <BinaryTree type="DecisionTree" boostWeight="1.0000000000000000e+00" itree="103">
      <Node pos="s" depth="0" NCoef="0" IVar="6" Cut="2.7477197265625000e+02" cType="1" res="-1.1710779508575797e-03" rms="1.9061861932277679e-01" purity="5.0039750337600708e-01" nType="0">
        <Node pos="l" depth="1" NCoef="0" IVar="9" Cut="1.3329167664051056e-01" cType="1" res="-2.1433867514133453e-03" rms="2.0448157191276550e-01" purity="4.0595105290412903e-01" nType="0">
          <Node pos="l" depth="2" NCoef="0" IVar="10" Cut="-1.9999231100082397e+00" cType="1" res="-4.7294828109443188e-03" rms="2.0178671181201935e-01" purity="4.0442392230033875e-01" nType="0">
            <Node pos="l" depth="3" NCoef="0" IVar="-1" Cut="0.0000000000000000e+00" cType="1" res="2.9830129817128181e-02" rms="2.4655254185199738e-01" purity="3.4364593029022217e-01" nType="-99"/>
            <Node pos="r" depth="3" NCoef="0" IVar="-1" Cut="0.0000000000000000e+00" cType="1" res="-1.4918724074959755e-02" rms="1.9854263961315155e-01" purity="4.0827700495719910e-01" nType="-99"/>
          </Node>
          <Node pos="r" depth="2" NCoef="0" IVar="6" Cut="1.3561346435546875e+02" cType="1" res="9.5611799042671919e-04" rms="2.0762294530868530e-01" purity="4.0778139233589172e-01" nType="0">
            <Node pos="l" depth="3" NCoef="0" IVar="-1" Cut="0.0000000000000000e+00" cType="1" res="-5.9451232664287090e-03" rms="1.9375370442867279e-01" purity="2.2232979536056519e-01" nType="-99"/>
            <Node pos="r" depth="3" NCoef="0" IVar="-1" Cut="0.0000000000000000e+00" cType="1" res="1.3526260852813721e-02" rms="2.2869795560836792e-01" purity="7.1572959423065186e-01" nType="-99"/>
          </Node>
        </Node>
        <Node pos="r" depth="1" NCoef="0" IVar="-1" Cut="0.0000000000000000e+00" cType="1" res="3.2104998826980591e-02" rms="8.9579164981842041e-02" purity="9.8805671930313110e-01" nType="-99"/>
      </Node>
    </BinaryTree>
    <BinaryTree type="DecisionTree" boostWeight="1.0000000000000000e+00" itree="104">
      <Node pos="s" depth="0" NCoef="0" IVar="7" Cut="-9.2239075899124146e-01" cType="1" res="-4.3186984839849174e-04" rms="1.9477199018001556e-01" purity="4.9747189879417419e-01" nType="0">
        <Node pos="l" depth="1" NCoef="0" IVar="0" Cut="5.2786285400390625e+02" cType="1" res="7.0087863132357597e-03" rms="2.0173795521259308e-01" purity="2.7779150009155273e-01" nType="0">
          <Node pos="l" depth="2" NCoef="0" IVar="8" Cut="1.3550369441509247e-01" cType="1" res="-5.9856786392629147e-03" rms="1.5142059326171875e-01" purity="3.3357072621583939e-02" nType="0">
            <Node pos="l" depth="3" NCoef="0" IVar="-1" Cut="0.0000000000000000e+00" cType="1" res="-4.1035208851099014e-02" rms="1.3760501146316528e-01" purity="3.3693153411149979e-02" nType="-99"/>
            <Node pos="r" depth="3" NCoef="0" IVar="-1" Cut="0.0000000000000000e+00" cType="1" res="-6.2087937258183956e-03" rms="1.6396167874336243e-01" purity="3.3020816743373871e-02" nType="-99"/>
          </Node>
          <Node pos="r" depth="2" NCoef="0" IVar="5" Cut="1.8105238342285156e+02" cType="1" res="1.8518961966037750e-02" rms="2.3697337508201599e-01" purity="4.9430549144744873e-01" nType="0">
            <Node pos="l" depth="3" NCoef="0" IVar="-1" Cut="0.0000000000000000e+00" cType="1" res="4.9979542382061481e-03" rms="1.6590131819248199e-01" purity="7.3998779058456421e-02" nType="-99"/>
            <Node pos="r" depth="3" NCoef="0" IVar="-1" Cut="0.0000000000000000e+00" cType="1" res="4.3734259903430939e-02" rms="2.7576211094856262e-01" purity="7.9130804538726807e-01" nType="-99"/>
          </Node>
        </Node>
        <Node pos="r" depth="1" NCoef="0" IVar="7" Cut="1.3808583021163940e+00" cType="1" res="-1.5756560023874044e-03" rms="1.9365359842777252e-01" purity="5.3124141693115234e-01" nType="0">
          <Node pos="l" depth="2" NCoef="0" IVar="7" Cut="-8.1266260147094727e-01" cType="1" res="-7.8934791963547468e-04" rms="1.9405922293663025e-01" purity="5.5902981758117676e-01" nType="0">
            <Node pos="l" depth="3" NCoef="0" IVar="-1" Cut="0.0000000000000000e+00" cType="1" res="-3.0516639351844788e-02" rms="2.1338897943496704e-01" purity="4.3374100327491760e-01" nType="-99"/>
            <Node pos="r" depth="3" NCoef="0" IVar="-1" Cut="0.0000000000000000e+00" cType="1" res="-4.3013767572119832e-04" rms="1.9317401945590973e-01" purity="5.6432539224624634e-01" nType="-99"/>
          </Node>
          <Node pos="r" depth="2" NCoef="0" IVar="7" Cut="1.6508599519729614e+00" cType="1" res="-1.3416075147688389e-02" rms="1.8704043328762054e-01" purity="1.1279724538326263e-01" nType="0">
            <Node pos="l" depth="3" NCoef="0" IVar="-1" Cut="0.0000000000000000e+00" cType="1" res="-7.2268866002559662e-02" rms="1.7362798750400543e-01" purity="1.5441738069057465e-01" nType="-99"/>
            <Node pos="r" depth="3" NCoef="0" IVar="-1" Cut="0.0000000000000000e+00" cType="1" res="-3.1934543512761593e-03" rms="1.9735175371170044e-01" purity="7.5877383351325989e-02" nType="-99"/>
          </Node>
        </Node>
      </Node>
    </BinaryTree>
    <BinaryTree type="DecisionTree" boostWeight="1.0000000000000000e+00" itree="105">
      <Node pos="s" depth="0" NCoef="0" IVar="9" Cut="-1.9998853206634521e+00" cType="1" res="8.0917903687804937e-04" rms="1.9388410449028015e-01" purity="4.9845778942108154e-01" nType="0">
        <Node pos="l" depth="1" NCoef="0" IVar="-1" Cut="0.0000000000000000e+00" cType="1" res="3.4816671162843704e-02" rms="2.6262599229812622e-01" purity="2.3465614020824432e-01" nType="-99"/>
        <Node pos="r" depth="1" NCoef="0" IVar="7" Cut="9.6043509244918823e-01" cType="1" res="2.5023275520652533e-04" rms="1.9119232892990112e-01" purity="5.0708842277526855e-01" nType="0">
          <Node pos="l" depth="2" NCoef="0" IVar="4" Cut="5.9223272705078125e+02" cType="1" res="-5.8670755242928863e-04" rms="1.8801444768905640e-01" purity="5.4068708419799805e-01" nType="0">
            <Node pos="l" depth="3" NCoef="0" IVar="-1" Cut="0.0000000000000000e+00" cType="1" res="-5.4454575292766094e-03" rms="2.0645074546337128e-01" purity="3.8243436813354492e-01" nType="-99"/>
            <Node pos="r" depth="3" NCoef="0" IVar="-1" Cut="0.0000000000000000e+00" cType="1" res="2.2890174761414528e-02" rms="1.2472593784332275e-01" purity="9.7077262401580811e-01" nType="-99"/>
          </Node>
          <Node pos="r" depth="2" NCoef="0" IVar="0" Cut="6.8850744628906250e+02" cType="1" res="5.9652905911207199e-03" rms="2.1153233945369720e-01" purity="2.7765944600105286e-01" nType="0">
            <Node pos="l" depth="3" NCoef="0" IVar="-1" Cut="0.0000000000000000e+00" cType="1" res="-3.3062912989407778e-03" rms="1.9089318811893463e-01" purity="8.7473072111606598e-02" nType="-99"/>
            <Node pos="r" depth="3" NCoef="0" IVar="-1" Cut="0.0000000000000000e+00" cType="1" res="4.0786150842905045e-02" rms="2.5041344761848450e-01" purity="6.9710272550582886e-01" nType="-99"/>
          </Node>
        </Node>
      </Node>
    </BinaryTree>
    <BinaryTree type="DecisionTree" boostWeight="1.0000000000000000e+00" itree="106">
      <Node pos="s" depth="0" NCoef="0" IVar="9" Cut="-1.4666333198547363e+00" cType="1" res="-1.2812623754143715e-03" rms="1.8940286338329315e-01" purity="4.9571576714515686e-01" nType="0">
        <Node pos="l" depth="1" NCoef="0" IVar="1" Cut="1.8020026855468750e+03" cType="1" res="-1.5538587234914303e-02" rms="2.0505690574645996e-01" purity="3.1686255335807800e-01" nType="0">
          <Node pos="l" depth="2" NCoef="0" IVar="-1" Cut="0.0000000000000000e+00" cType="1" res="-2.0360339432954788e-02" rms="1.3606433570384979e-01" purity="2.0424596965312958e-02" nType="-99"/>
          <Node pos="r" depth="2" NCoef="0" IVar="-1" Cut="0.0000000000000000e+00" cType="1" res="-4.1054718196392059e-02" rms="2.6513731479644775e-01" purity="6.7668998241424561e-01" nType="-99"/>
        </Node>
        <Node pos="r" depth="1" NCoef="0" IVar="7" Cut="-5.9683871269226074e-01" cType="1" res="1.3427810335997492e-04" rms="1.8771836161613464e-01" purity="5.1347327232360840e-01" nType="0">
          <Node pos="l" depth="2" NCoef="0" IVar="2" Cut="1.7587179318070412e-02" cType="1" res="-4.8017078079283237e-03" rms="1.9154633581638336e-01" purity="3.7456014752388000e-01" nType="0">
            <Node pos="l" depth="3" NCoef="0" IVar="-1" Cut="0.0000000000000000e+00" cType="1" res="-4.0701124817132950e-02" rms="1.6198450326919556e-01" purity="1.5586772561073303e-01" nType="-99"/>
            <Node pos="r" depth="3" NCoef="0" IVar="-1" Cut="0.0000000000000000e+00" cType="1" res="3.6101504229009151e-03" rms="2.1074654161930084e-01" purity="5.3811675310134888e-01" nType="-99"/>
          </Node>
          <Node pos="r" depth="2" NCoef="0" IVar="7" Cut="1.0203250646591187e+00" cType="1" res="1.5540134627372026e-03" rms="1.8657860159873962e-01" purity="5.5342876911163330e-01" nType="0">
            <Node pos="l" depth="3" NCoef="0" IVar="-1" Cut="0.0000000000000000e+00" cType="1" res="8.4767369553446770e-03" rms="1.8590530753135681e-01" purity="6.0562956333160400e-01" nType="-99"/>
            <Node pos="r" depth="3" NCoef="0" IVar="-1" Cut="0.0000000000000000e+00" cType="1" res="-1.7199471592903137e-02" rms="1.9039286673069000e-01" purity="2.3844188451766968e-01" nType="-99"/>
          </Node>
        </Node>
      </Node>
    </BinaryTree>
    <BinaryTree type="DecisionTree" boostWeight="1.0000000000000000e+00" itree="107">
      <Node pos="s" depth="0" NCoef="0" IVar="10" Cut="2.2665853500366211e+00" cType="1" res="-4.3004946201108396e-04" rms="1.9111332297325134e-01" purity="5.0044727325439453e-01" nType="0">
        <Node pos="l" depth="1" NCoef="0" IVar="9" Cut="1.9999467134475708e+00" cType="1" res="-1.2164351064711809e-03" rms="1.8770985305309296e-01" purity="5.0375223159790039e-01" nType="0">
          <Node pos="l" depth="2" NCoef="0" IVar="1" Cut="3.4856662597656250e+03" cType="1" res="-1.6805807827040553e-03" rms="1.8590557575225830e-01" purity="5.1258343458175659e-01" nType="0">
            <Node pos="l" depth="3" NCoef="0" IVar="-1" Cut="0.0000000000000000e+00" cType="1" res="-6.8273199722170830e-03" rms="2.0621398091316223e-01" purity="3.8426828384399414e-01" nType="-99"/>
            <Node pos="r" depth="3" NCoef="0" IVar="-1" Cut="0.0000000000000000e+00" cType="1" res="4.1595768183469772e-02" rms="6.7586369812488556e-02" purity="9.9545210599899292e-01" nType="-99"/>
          </Node>
          <Node pos="r" depth="2" NCoef="0" IVar="-1" Cut="0.0000000000000000e+00" cType="1" res="2.3826291784644127e-02" rms="2.3472023010253906e-01" purity="2.4100933969020844e-01" nType="-99"/>
        </Node>
        <Node pos="r" depth="1" NCoef="0" IVar="-1" Cut="0.0000000000000000e+00" cType="1" res="4.7287624329328537e-02" rms="2.8568002581596375e-01" purity="3.8280308246612549e-01" nType="-99"/>
      </Node>
    </BinaryTree>
    <BinaryTree type="DecisionTree" boostWeight="1.0000000000000000e+00" itree="108">
      <Node pos="s" depth="0" NCoef="0" IVar="9" Cut="1.7332328557968140e+00" cType="1" res="1.3987979618832469e-03" rms="1.9184805452823639e-01" purity="5.0406408309936523e-01" nType="0">
        <Node pos="l" depth="1" NCoef="0" IVar="7" Cut="1.2043707370758057e+00" cType="1" res="2.2110592108219862e-03" rms="1.9045551121234894e-01" purity="5.1692944765090942e-01" nType="0">
          <Node pos="l" depth="2" NCoef="0" IVar="7" Cut="6.3478106260299683e-01" cType="1" res="3.1326508615165949e-03" rms="1.9096067547798157e-01" purity="5.4557389020919800e-01" nType="0">
            <Node pos="l" depth="3" NCoef="0" IVar="-1" Cut="0.0000000000000000e+00" cType="1" res="4.6638953499495983e-03" rms="1.8484303355216980e-01" purity="5.5648028850555420e-01" nType="-99"/>
            <Node pos="r" depth="3" NCoef="0" IVar="-1" Cut="0.0000000000000000e+00" cType="1" res="2.7121730148792267e-02" rms="2.2120386362075806e-01" purity="4.8602506518363953e-01" nType="-99"/>
          </Node>
          <Node pos="r" depth="2" NCoef="0" IVar="8" Cut="-4.0890520811080933e-01" cType="1" res="-9.0729882940649986e-03" rms="1.8378350138664246e-01" purity="1.6620479524135590e-01" nType="0">
            <Node pos="l" depth="3" NCoef="0" IVar="-1" Cut="0.0000000000000000e+00" cType="1" res="-5.8021489530801773e-02" rms="1.7587304115295410e-01" purity="1.3110713660717010e-01" nType="-99"/>
            <Node pos="r" depth="3" NCoef="0" IVar="-1" Cut="0.0000000000000000e+00" cType="1" res="-7.9260272905230522e-03" rms="1.8804816901683807e-01" purity="1.8701519072055817e-01" nType="-99"/>
          </Node>
        </Node>
        <Node pos="r" depth="1" NCoef="0" IVar="4" Cut="2.9662149047851562e+02" cType="1" res="-1.1331623420119286e-02" rms="2.1207804977893829e-01" purity="3.0242687463760376e-01" nType="0">
          <Node pos="l" depth="2" NCoef="0" IVar="-1" Cut="0.0000000000000000e+00" cType="1" res="-2.8321875724941492e-03" rms="1.7738869786262512e-01" purity="6.3165061175823212e-02" nType="-99"/>
          <Node pos="r" depth="2" NCoef="0" IVar="-1" Cut="0.0000000000000000e+00" cType="1" res="-3.3173300325870514e-02" rms="2.3466862738132477e-01" purity="4.8369380831718445e-01" nType="-99"/>
        </Node>
      </Node>
    </BinaryTree>
    <BinaryTree type="DecisionTree" boostWeight="1.0000000000000000e+00" itree="109">
      <Node pos="s" depth="0" NCoef="0" IVar="1" Cut="2.5023818359375000e+03" cType="1" res="2.1064146421849728e-03" rms="1.9656763970851898e-01" purity="5.0241148471832275e-01" nType="0">
        <Node pos="l" depth="1" NCoef="0" IVar="1" Cut="1.6099715576171875e+03" cType="1" res="6.5493183210492134e-03" rms="2.2726598381996155e-01" purity="1.2566493451595306e-01" nType="0">
          <Node pos="l" depth="2" NCoef="0" IVar="8" Cut="-1.4666943550109863e+00" cType="1" res="-1.4589916681870818e-03" rms="8.8343590497970581e-02" purity="8.1774210557341576e-03" nType="0">
            <Node pos="l" depth="3" NCoef="0" IVar="-1" Cut="0.0000000000000000e+00" cType="1" res="6.6948562860488892e-02" rms="1.3582853972911835e-01" purity="2.0653083920478821e-02" nType="-99"/>
            <Node pos="r" depth="3" NCoef="0" IVar="-1" Cut="0.0000000000000000e+00" cType="1" res="-3.0366713181138039e-02" rms="7.9761341214179993e-02" purity="6.5028169192373753e-03" nType="-99"/>
          </Node>
          <Node pos="r" depth="2" NCoef="0" IVar="10" Cut="3.9994999766349792e-01" cType="1" res="1.4147100970149040e-02" rms="3.0517020821571350e-01" purity="2.3712968826293945e-01" nType="0">
            <Node pos="l" depth="3" NCoef="0" IVar="-1" Cut="0.0000000000000000e+00" cType="1" res="2.0430237054824829e-03" rms="2.9354938864707947e-01" purity="2.0834238827228546e-01" nType="-99"/>
            <Node pos="r" depth="3" NCoef="0" IVar="-1" Cut="0.0000000000000000e+00" cType="1" res="3.5507321357727051e-02" rms="3.2062128186225891e-01" purity="2.7949416637420654e-01" nType="-99"/>
          </Node>
        </Node>
        <Node pos="r" depth="1" NCoef="0" IVar="6" Cut="1.2901945495605469e+02" cType="1" res="-3.3833745401352644e-03" rms="1.5002511441707611e-01" purity="9.6793127059936523e-01" nType="0">
          <Node pos="l" depth="2" NCoef="0" IVar="1" Cut="3.1716894531250000e+03" cType="1" res="-1.6143014654517174e-02" rms="2.4530588090419769e-01" purity="8.9694958925247192e-01" nType="0">
            <Node pos="l" depth="3" NCoef="0" IVar="-1" Cut="0.0000000000000000e+00" cType="1" res="-4.2256489396095276e-02" rms="3.2925379276275635e-01" purity="7.9815578460693359e-01" nType="-99"/>
            <Node pos="r" depth="3" NCoef="0" IVar="-1" Cut="0.0000000000000000e+00" cType="1" res="-3.8681813748553395e-04" rms="1.4787928760051727e-01" purity="9.7420835494995117e-01" nType="-99"/>
          </Node>
          <Node pos="r" depth="2" NCoef="0" IVar="6" Cut="1.6476672363281250e+02" cType="1" res="-2.2715590603183955e-04" rms="1.1462939530611038e-01" purity="9.8548918962478638e-01" nType="0">
            <Node pos="l" depth="3" NCoef="0" IVar="-1" Cut="0.0000000000000000e+00" cType="1" res="-3.4731309860944748e-02" rms="1.7662511765956879e-01" purity="9.6282863616943359e-01" nType="-99"/>
            <Node pos="r" depth="3" NCoef="0" IVar="-1" Cut="0.0000000000000000e+00" cType="1" res="1.0467444546520710e-02" rms="1.0049009323120117e-01" purity="9.8928987979888916e-01" nType="-99"/>
          </Node>
        </Node>
      </Node>
    </BinaryTree>
    <BinaryTree type="DecisionTree" boostWeight="1.0000000000000000e+00" itree="110">
      <Node pos="s" depth="0" NCoef="0" IVar="0" Cut="8.7765057373046875e+02" cType="1" res="-1.7165098106488585e-03" rms="1.8868739902973175e-01" purity="4.9904966354370117e-01" nType="0">
        <Node pos="l" depth="1" NCoef="0" IVar="9" Cut="9.3310755491256714e-01" cType="1" res="-4.4118780642747879e-03" rms="2.0438939332962036e-01" purity="2.5893607735633850e-01" nType="0">
          <Node pos="l" depth="2" NCoef="0" IVar="2" Cut="1.9280115142464638e-02" cType="1" res="-7.1586631238460541e-03" rms="1.9638022780418396e-01" purity="2.6272228360176086e-01" nType="0">
            <Node pos="l" depth="3" NCoef="0" IVar="-1" Cut="0.0000000000000000e+00" cType="1" res="-4.5253140851855278e-03" rms="1.7429882287979126e-01" purity="1.0045883804559708e-01" nType="-99"/>
            <Node pos="r" depth="3" NCoef="0" IVar="-1" Cut="0.0000000000000000e+00" cType="1" res="-2.3487431928515434e-02" rms="2.1065290272235870e-01" purity="3.7869867682456970e-01" nType="-99"/>
          </Node>
          <Node pos="r" depth="2" NCoef="0" IVar="8" Cut="9.2830353975296021e-01" cType="1" res="4.7106654383242130e-03" rms="2.2875130176544189e-01" purity="2.4636143445968628e-01" nType="0">
            <Node pos="l" depth="3" NCoef="0" IVar="-1" Cut="0.0000000000000000e+00" cType="1" res="2.3010609671473503e-02" rms="2.3813039064407349e-01" purity="2.8726041316986084e-01" nType="-99"/>
            <Node pos="r" depth="3" NCoef="0" IVar="-1" Cut="0.0000000000000000e+00" cType="1" res="-4.8989742994308472e-02" rms="1.9067995250225067e-01" purity="1.0408300161361694e-01" nType="-99"/>
          </Node>
        </Node>
        <Node pos="r" depth="1" NCoef="0" IVar="5" Cut="1.6356753540039062e+02" cType="1" res="3.2600117847323418e-03" rms="1.5546406805515289e-01" purity="9.4237703084945679e-01" nType="0">
          <Node pos="l" depth="2" NCoef="0" IVar="-1" Cut="0.0000000000000000e+00" cType="1" res="3.4914985299110413e-02" rms="3.2196953892707825e-01" purity="5.9979367256164551e-01" nType="-99"/>
          <Node pos="r" depth="2" NCoef="0" IVar="5" Cut="2.1490554809570312e+02" cType="1" res="-2.7992555988021195e-04" rms="1.2614734470844269e-01" purity="9.7737318277359009e-01" nType="0">
            <Node pos="l" depth="3" NCoef="0" IVar="-1" Cut="0.0000000000000000e+00" cType="1" res="-1.6841616481542587e-02" rms="2.5828343629837036e-01" purity="8.8039082288742065e-01" nType="-99"/>
            <Node pos="r" depth="3" NCoef="0" IVar="-1" Cut="0.0000000000000000e+00" cType="1" res="6.2219589017331600e-03" rms="1.0392852127552032e-01" purity="9.8711270093917847e-01" nType="-99"/>
          </Node>
        </Node>
      </Node>
    </BinaryTree>
    <BinaryTree type="DecisionTree" boostWeight="1.0000000000000000e+00" itree="111">
      <Node pos="s" depth="0" NCoef="0" IVar="10" Cut="1.4665826559066772e+00" cType="1" res="6.0504453722387552e-04" rms="1.9024147093296051e-01" purity="5.0555670261383057e-01" nType="0">
        <Node pos="l" depth="1" NCoef="0" IVar="8" Cut="1.1998485326766968e+00" cType="1" res="2.3302827030420303e-03" rms="1.8718361854553223e-01" purity="5.1502871513366699e-01" nType="0">
          <Node pos="l" depth="2" NCoef="0" IVar="10" Cut="-3.6196708679199219e-01" cType="1" res="1.1200995650142431e-03" rms="1.8029098212718964e-01" purity="5.4052686691284180e-01" nType="0">
            <Node pos="l" depth="3" NCoef="0" IVar="-1" Cut="0.0000000000000000e+00" cType="1" res="-5.0459732301533222e-03" rms="1.8360027670860291e-01" purity="5.1158827543258667e-01" nType="-99"/>
            <Node pos="r" depth="3" NCoef="0" IVar="-1" Cut="0.0000000000000000e+00" cType="1" res="1.0814399458467960e-02" rms="1.7767943441867828e-01" purity="5.6271493434906006e-01" nType="-99"/>
          </Node>
          <Node pos="r" depth="2" NCoef="0" IVar="10" Cut="2.4759460985660553e-01" cType="1" res="1.1849213391542435e-02" rms="2.3421864211559296e-01" purity="3.1446820497512817e-01" nType="0">
            <Node pos="l" depth="3" NCoef="0" IVar="-1" Cut="0.0000000000000000e+00" cType="1" res="4.8364151269197464e-02" rms="2.5118786096572876e-01" purity="3.2732090353965759e-01" nType="-99"/>
            <Node pos="r" depth="3" NCoef="0" IVar="-1" Cut="0.0000000000000000e+00" cType="1" res="-9.6543645486235619e-03" rms="2.0390982925891876e-01" purity="2.9437935352325439e-01" nType="-99"/>
          </Node>
        </Node>
        <Node pos="r" depth="1" NCoef="0" IVar="0" Cut="8.6447070312500000e+02" cType="1" res="-1.2293230742216110e-02" rms="2.1126189827919006e-01" purity="4.3474155664443970e-01" nType="0">
          <Node pos="l" depth="2" NCoef="0" IVar="1" Cut="1.6858303222656250e+03" cType="1" res="-1.7712727189064026e-02" rms="2.2415935993194580e-01" purity="2.2082962095737457e-01" nType="0">
            <Node pos="l" depth="3" NCoef="0" IVar="-1" Cut="0.0000000000000000e+00" cType="1" res="-2.9149953275918961e-02" rms="1.1102633178234100e-01" purity="1.2746924534440041e-02" nType="-99"/>
            <Node pos="r" depth="3" NCoef="0" IVar="-1" Cut="0.0000000000000000e+00" cType="1" res="-3.4534055739641190e-02" rms="3.0799531936645508e-01" purity="4.6798402070999146e-01" nType="-99"/>
          </Node>
          <Node pos="r" depth="2" NCoef="0" IVar="-1" Cut="0.0000000000000000e+00" cType="1" res="-3.6884928704239428e-05" rms="1.7800977826118469e-01" purity="9.1951316595077515e-01" nType="-99"/>
        </Node>
      </Node>
    </BinaryTree>
    <BinaryTree type="DecisionTree" boostWeight="1.0000000000000000e+00" itree="112">
      <Node pos="s" depth="0" NCoef="0" IVar="3" Cut="3.5062823486328125e+02" cType="1" res="-1.9960887730121613e-03" rms="1.8644151091575623e-01" purity="5.0024151802062988e-01" nType="0">
        <Node pos="l" depth="1" NCoef="0" IVar="-1" Cut="0.0000000000000000e+00" cType="1" res="-6.2171500176191330e-02" rms="1.2904010713100433e-01" purity="2.2008266299962997e-02" nType="-99"/>
        <Node pos="r" depth="1" NCoef="0" IVar="0" Cut="4.4712454223632812e+02" cType="1" res="-1.1635050177574158e-03" rms="1.8903109431266785e-01" purity="5.2627342939376831e-01" nType="0">
          <Node pos="l" depth="2" NCoef="0" IVar="0" Cut="4.2610595703125000e+02" cType="1" res="4.4258590787649155e-03" rms="1.6379377245903015e-01" purity="3.7731707096099854e-02" nType="0">
            <Node pos="l" depth="3" NCoef="0" IVar="-1" Cut="0.0000000000000000e+00" cType="1" res="4.3768592149717733e-05" rms="1.4209142327308655e-01" purity="2.4995308369398117e-02" nType="-99"/>
            <Node pos="r" depth="3" NCoef="0" IVar="-1" Cut="0.0000000000000000e+00" cType="1" res="6.1080809682607651e-02" rms="2.5266766548156738e-01" purity="1.1016710847616196e-01" nType="-99"/>
          </Node>
          <Node pos="r" depth="2" NCoef="0" IVar="6" Cut="1.9984797668457031e+02" cType="1" res="-2.6582733262330294e-03" rms="1.9520108401775360e-01" purity="6.5692460536956787e-01" nType="0">
            <Node pos="l" depth="3" NCoef="0" IVar="-1" Cut="0.0000000000000000e+00" cType="1" res="-1.0379958897829056e-02" rms="2.2439695894718170e-01" purity="4.7418063879013062e-01" nType="-99"/>
            <Node pos="r" depth="3" NCoef="0" IVar="-1" Cut="0.0000000000000000e+00" cType="1" res="9.5582855865359306e-03" rms="1.2992525100708008e-01" purity="9.7304791212081909e-01" nType="-99"/>
          </Node>
        </Node>
      </Node>
    </BinaryTree>
    <BinaryTree type="DecisionTree" boostWeight="1.0000000000000000e+00" itree="113">
      <Node pos="s" depth="0" NCoef="0" IVar="6" Cut="1.6238607788085938e+02" cType="1" res="5.2634178427979350e-04" rms="1.9125553965568542e-01" purity="5.0503599643707275e-01" nType="0">
        <Node pos="l" depth="1" NCoef="0" IVar="2" Cut="1.9459461793303490e-02" cType="1" res="2.7935572434216738e-03" rms="2.0670253038406372e-01" purity="2.6802328228950500e-01" nType="0">
          <Node pos="l" depth="2" NCoef="0" IVar="8" Cut="-1.3336129486560822e-01" cType="1" res="7.6537844724953175e-03" rms="1.9724103808403015e-01" purity="1.7134864628314972e-01" nType="0">
            <Node pos="l" depth="3" NCoef="0" IVar="-1" Cut="0.0000000000000000e+00" cType="1" res="-8.6096180602908134e-03" rms="1.7143812775611877e-01" purity="1.5620674192905426e-01" nType="-99"/>
            <Node pos="r" depth="3" NCoef="0" IVar="-1" Cut="0.0000000000000000e+00" cType="1" res="4.6002794057130814e-02" rms="2.1636202931404114e-01" purity="1.8421413004398346e-01" nType="-99"/>
          </Node>
          <Node pos="r" depth="2" NCoef="0" IVar="6" Cut="7.1407463073730469e+01" cType="1" res="-1.8744489643722773e-03" rms="2.1529564261436462e-01" purity="3.6087447404861450e-01" nType="0">
            <Node pos="l" depth="3" NCoef="0" IVar="-1" Cut="0.0000000000000000e+00" cType="1" res="-4.0745880454778671e-02" rms="1.7327181994915009e-01" purity="2.2135518491268158e-01" nType="-99"/>
            <Node pos="r" depth="3" NCoef="0" IVar="-1" Cut="0.0000000000000000e+00" cType="1" res="3.3956062979996204e-03" rms="2.2375753521919250e-01" purity="3.9314743876457214e-01" nType="-99"/>
          </Node>
        </Node>
        <Node pos="r" depth="1" NCoef="0" IVar="1" Cut="2.8021884765625000e+03" cType="1" res="-3.0074601527303457e-03" rms="1.6424597799777985e-01" purity="8.7445658445358276e-01" nType="0">
          <Node pos="l" depth="2" NCoef="0" IVar="2" Cut="3.8298599421977997e-02" cType="1" res="-1.3934255577623844e-02" rms="2.8567862510681152e-01" purity="5.7408922910690308e-01" nType="0">
            <Node pos="l" depth="3" NCoef="0" IVar="-1" Cut="0.0000000000000000e+00" cType="1" res="-3.0490610748529434e-02" rms="3.1193763017654419e-01" purity="4.2542299628257751e-01" nType="-99"/>
            <Node pos="r" depth="3" NCoef="0" IVar="-1" Cut="0.0000000000000000e+00" cType="1" res="-7.0365346036851406e-03" rms="2.6917570829391479e-01" purity="6.5895849466323853e-01" nType="-99"/>
          </Node>
          <Node pos="r" depth="2" NCoef="0" IVar="2" Cut="6.2741577625274658e-02" cType="1" res="1.3709729537367821e-03" rms="7.0830360054969788e-02" purity="9.9481558799743652e-01" nType="0">
            <Node pos="l" depth="3" NCoef="0" IVar="-1" Cut="0.0000000000000000e+00" cType="1" res="5.4243957856670022e-04" rms="9.1547437012195587e-02" purity="9.9125659465789795e-01" nType="-99"/>
            <Node pos="r" depth="3" NCoef="0" IVar="-1" Cut="0.0000000000000000e+00" cType="1" res="4.8082612454891205e-02" rms="5.0533454865217209e-02" purity="9.9741947650909424e-01" nType="-99"/>
          </Node>
        </Node>
      </Node>
    </BinaryTree>
    <BinaryTree type="DecisionTree" boostWeight="1.0000000000000000e+00" itree="114">
      <Node pos="s" depth="0" NCoef="0" IVar="8" Cut="3.9987039566040039e-01" cType="1" res="1.0074933525174856e-03" rms="1.9328734278678894e-01" purity="4.9872541427612305e-01" nType="0">
        <Node pos="l" depth="1" NCoef="0" IVar="9" Cut="1.7332166433334351e+00" cType="1" res="3.3322293311357498e-03" rms="1.9150233268737793e-01" purity="5.2348423004150391e-01" nType="0">
          <Node pos="l" depth="2" NCoef="0" IVar="9" Cut="1.3014647960662842e+00" cType="1" res="2.4553216062486172e-03" rms="1.8596619367599487e-01" purity="5.3573131561279297e-01" nType="0">
            <Node pos="l" depth="3" NCoef="0" IVar="-1" Cut="0.0000000000000000e+00" cType="1" res="9.7435172647237778e-03" rms="1.8502955138683319e-01" purity="5.3814458847045898e-01" nType="-99"/>
            <Node pos="r" depth="3" NCoef="0" IVar="-1" Cut="0.0000000000000000e+00" cType="1" res="-2.0848296582698822e-02" rms="1.9933748245239258e-01" purity="4.9896740913391113e-01" nType="-99"/>
          </Node>
          <Node pos="r" depth="2" NCoef="0" IVar="-1" Cut="0.0000000000000000e+00" cType="1" res="3.1573385000228882e-02" rms="2.7039015293121338e-01" purity="3.0846828222274780e-01" nType="-99"/>
        </Node>
        <Node pos="r" depth="1" NCoef="0" IVar="8" Cut="1.8854960203170776e+00" cType="1" res="-3.3308551646769047e-03" rms="1.9650156795978546e-01" purity="4.5252120494842529e-01" nType="0">
          <Node pos="l" depth="2" NCoef="0" IVar="8" Cut="1.6024475097656250e+00" cType="1" res="-2.2723446600139141e-03" rms="1.9623167812824249e-01" purity="4.8048222064971924e-01" nType="0">
            <Node pos="l" depth="3" NCoef="0" IVar="-1" Cut="0.0000000000000000e+00" cType="1" res="-1.0784994810819626e-02" rms="1.9070103764533997e-01" purity="4.9459898471832275e-01" nType="-99"/>
            <Node pos="r" depth="3" NCoef="0" IVar="-1" Cut="0.0000000000000000e+00" cType="1" res="3.6649134010076523e-02" rms="2.4934910237789154e-01" purity="3.2154592871665955e-01" nType="-99"/>
          </Node>
          <Node pos="r" depth="2" NCoef="0" IVar="-1" Cut="0.0000000000000000e+00" cType="1" res="-4.0989302098751068e-02" rms="1.9922268390655518e-01" purity="1.2425269931554794e-01" nType="-99"/>
        </Node>
      </Node>
    </BinaryTree>
    <BinaryTree type="DecisionTree" boostWeight="1.0000000000000000e+00" itree="115">
      <Node pos="s" depth="0" NCoef="0" IVar="7" Cut="7.0871746540069580e-01" cType="1" res="8.9135521557182074e-04" rms="1.8899305164813995e-01" purity="5.0897800922393799e-01" nType="0">
        <Node pos="l" depth="1" NCoef="0" IVar="3" Cut="3.5056497192382812e+02" cType="1" res="2.4046592880040407e-03" rms="1.8549957871437073e-01" purity="5.5115699768066406e-01" nType="0">
          <Node pos="l" depth="2" NCoef="0" IVar="-1" Cut="0.0000000000000000e+00" cType="1" res="-4.2010318487882614e-02" rms="1.3035218417644501e-01" purity="2.9074568301439285e-02" nType="-99"/>
          <Node pos="r" depth="2" NCoef="0" IVar="9" Cut="1.2001621723175049e+00" cType="1" res="3.0123947653919458e-03" rms="1.8757930397987366e-01" purity="5.7467001676559448e-01" nType="0">
            <Node pos="l" depth="3" NCoef="0" IVar="-1" Cut="0.0000000000000000e+00" cType="1" res="5.2591408602893353e-03" rms="1.8032664060592651e-01" purity="5.9145617485046387e-01" nType="-99"/>
            <Node pos="r" depth="3" NCoef="0" IVar="-1" Cut="0.0000000000000000e+00" cType="1" res="2.2130614146590233e-02" rms="2.2628557682037354e-01" purity="4.7346901893615723e-01" nType="-99"/>
          </Node>
        </Node>
        <Node pos="r" depth="1" NCoef="0" IVar="10" Cut="-1.3325449824333191e-01" cType="1" res="-5.2551091648638248e-03" rms="2.0244754850864410e-01" purity="3.3766311407089233e-01" nType="0">
          <Node pos="l" depth="2" NCoef="0" IVar="0" Cut="7.8563787841796875e+02" cType="1" res="3.8469845894724131e-03" rms="2.1503534913063049e-01" purity="3.7327364087104797e-01" nType="0">
            <Node pos="l" depth="3" NCoef="0" IVar="-1" Cut="0.0000000000000000e+00" cType="1" res="-1.2380773201584816e-02" rms="2.0769070088863373e-01" purity="1.3294243812561035e-01" nType="-99"/>
            <Node pos="r" depth="3" NCoef="0" IVar="-1" Cut="0.0000000000000000e+00" cType="1" res="5.0426460802555084e-02" rms="2.2840236127376556e-01" purity="8.7122702598571777e-01" nType="-99"/>
          </Node>
          <Node pos="r" depth="2" NCoef="0" IVar="1" Cut="1.8184136962890625e+03" cType="1" res="-1.2096622027456760e-02" rms="1.9216117262840271e-01" purity="3.1089681386947632e-01" nType="0">
            <Node pos="l" depth="3" NCoef="0" IVar="-1" Cut="0.0000000000000000e+00" cType="1" res="-1.6074890270829201e-02" rms="1.2297189235687256e-01" purity="1.6702765598893166e-02" nType="-99"/>
            <Node pos="r" depth="3" NCoef="0" IVar="-1" Cut="0.0000000000000000e+00" cType="1" res="-3.7854660302400589e-02" rms="2.5441274046897888e-01" purity="6.8935120105743408e-01" nType="-99"/>
          </Node>
        </Node>
      </Node>
    </BinaryTree>
    <BinaryTree type="DecisionTree" boostWeight="1.0000000000000000e+00" itree="116">
      <Node pos="s" depth="0" NCoef="0" IVar="7" Cut="1.2315008640289307e+00" cType="1" res="2.1697324700653553e-03" rms="1.9678759574890137e-01" purity="5.0223922729492188e-01" nType="0">
        <Node pos="l" depth="1" NCoef="0" IVar="9" Cut="-1.3336248695850372e-01" cType="1" res="9.8055601119995117e-04" rms="1.9372063875198364e-01" purity="5.2691000699996948e-01" nType="0">
          <Node pos="l" depth="2" NCoef="0" IVar="10" Cut="1.7334356307983398e+00" cType="1" res="4.9924035556614399e-03" rms="1.9734057784080505e-01" purity="5.2526634931564331e-01" nType="0">
            <Node pos="l" depth="3" NCoef="0" IVar="-1" Cut="0.0000000000000000e+00" cType="1" res="9.9977422505617142e-03" rms="1.8927451968193054e-01" purity="5.3083062171936035e-01" nType="-99"/>
            <Node pos="r" depth="3" NCoef="0" IVar="-1" Cut="0.0000000000000000e+00" cType="1" res="4.5654270797967911e-02" rms="2.8642153739929199e-01" purity="4.4756802916526794e-01" nType="-99"/>
          </Node>
          <Node pos="r" depth="2" NCoef="0" IVar="5" Cut="1.6365316772460938e+02" cType="1" res="-2.4262394290417433e-03" rms="1.9052635133266449e-01" purity="5.2830582857131958e-01" nType="0">
            <Node pos="l" depth="3" NCoef="0" IVar="-1" Cut="0.0000000000000000e+00" cType="1" res="1.3904055580496788e-02" rms="1.7743596434593201e-01" purity="8.8202245533466339e-02" nType="-99"/>
            <Node pos="r" depth="3" NCoef="0" IVar="-1" Cut="0.0000000000000000e+00" cType="1" res="-1.3167630881071091e-02" rms="1.9554719328880310e-01" purity="7.0767164230346680e-01" nType="-99"/>
          </Node>
        </Node>
        <Node pos="r" depth="1" NCoef="0" IVar="1" Cut="1.7284191894531250e+03" cType="1" res="1.6830967739224434e-02" rms="2.3077903687953949e-01" purity="1.9807513058185577e-01" nType="0">
          <Node pos="l" depth="2" NCoef="0" IVar="-1" Cut="0.0000000000000000e+00" cType="1" res="6.7797623574733734e-02" rms="1.3898016512393951e-01" purity="2.0688880234956741e-02" nType="-99"/>
          <Node pos="r" depth="2" NCoef="0" IVar="-1" Cut="0.0000000000000000e+00" cType="1" res="3.9817187935113907e-02" rms="3.2393530011177063e-01" purity="4.6964702010154724e-01" nType="-99"/>
        </Node>
      </Node>
    </BinaryTree>
    <BinaryTree type="DecisionTree" boostWeight="1.0000000000000000e+00" itree="117">
      <Node pos="s" depth="0" NCoef="0" IVar="3" Cut="3.4604681396484375e+02" cType="1" res="-2.0625289471354336e-04" rms="1.9170707464218140e-01" purity="5.0490158796310425e-01" nType="0">
        <Node pos="l" depth="1" NCoef="0" IVar="-1" Cut="0.0000000000000000e+00" cType="1" res="6.0666706413030624e-02" rms="2.0399701595306396e-01" purity="5.2673272788524628e-02" nType="-99"/>
        <Node pos="r" depth="1" NCoef="0" IVar="3" Cut="7.6216082763671875e+02" cType="1" res="-9.9588232114911079e-04" rms="1.9107644259929657e-01" purity="5.2605140209197998e-01" nType="0">
          <Node pos="l" depth="2" NCoef="0" IVar="7" Cut="-6.5837937593460083e-01" cType="1" res="-3.4550183918327093e-03" rms="1.9825212657451630e-01" purity="3.0174738168716431e-01" nType="0">
            <Node pos="l" depth="3" NCoef="0" IVar="-1" Cut="0.0000000000000000e+00" cType="1" res="1.1471194215118885e-02" rms="2.0400971174240112e-01" purity="2.3677979409694672e-01" nType="-99"/>
            <Node pos="r" depth="3" NCoef="0" IVar="-1" Cut="0.0000000000000000e+00" cType="1" res="-1.5280838124454021e-02" rms="1.9617705047130585e-01" purity="3.2390657067298889e-01" nType="-99"/>
          </Node>
          <Node pos="r" depth="2" NCoef="0" IVar="5" Cut="1.5555715942382812e+02" cType="1" res="2.7191927656531334e-03" rms="1.7962950468063354e-01" purity="8.6491280794143677e-01" nType="0">
            <Node pos="l" depth="3" NCoef="0" IVar="-1" Cut="0.0000000000000000e+00" cType="1" res="2.9512701556086540e-02" rms="2.9290589690208435e-01" purity="3.1128567457199097e-01" nType="-99"/>
            <Node pos="r" depth="3" NCoef="0" IVar="-1" Cut="0.0000000000000000e+00" cType="1" res="-2.1532906976062804e-04" rms="1.5801279246807098e-01" purity="9.3973565101623535e-01" nType="-99"/>
          </Node>
        </Node>
      </Node>
    </BinaryTree>
    <BinaryTree type="DecisionTree" boostWeight="1.0000000000000000e+00" itree="118">
      <Node pos="s" depth="0" NCoef="0" IVar="8" Cut="1.4666606187820435e+00" cType="1" res="-1.0748123750090599e-03" rms="1.9045446813106537e-01" purity="5.0044184923171997e-01" nType="0">
        <Node pos="l" depth="1" NCoef="0" IVar="10" Cut="-1.7332167625427246e+00" cType="1" res="-5.7234734413214028e-05" rms="1.8909591436386108e-01" purity="5.2204555273056030e-01" nType="0">
          <Node pos="l" depth="2" NCoef="0" IVar="7" Cut="2.4906085431575775e-01" cType="1" res="1.3468098826706409e-02" rms="2.3867405951023102e-01" purity="4.6224859356880188e-01" nType="0">
            <Node pos="l" depth="3" NCoef="0" IVar="-1" Cut="0.0000000000000000e+00" cType="1" res="7.9153534024953842e-03" rms="2.1006534993648529e-01" purity="4.9630653858184814e-01" nType="-99"/>
            <Node pos="r" depth="3" NCoef="0" IVar="-1" Cut="0.0000000000000000e+00" cType="1" res="5.6269757449626923e-02" rms="2.8255650401115417e-01" purity="4.0031969547271729e-01" nType="-99"/>
          </Node>
          <Node pos="r" depth="2" NCoef="0" IVar="9" Cut="-1.7328565120697021e+00" cType="1" res="-1.2615765444934368e-03" rms="1.8398666381835938e-01" purity="5.2737003564834595e-01" nType="0">
            <Node pos="l" depth="3" NCoef="0" IVar="-1" Cut="0.0000000000000000e+00" cType="1" res="2.8770681470632553e-02" rms="2.3721578717231750e-01" purity="3.2091322541236877e-01" nType="-99"/>
            <Node pos="r" depth="3" NCoef="0" IVar="-1" Cut="0.0000000000000000e+00" cType="1" res="-6.5354849211871624e-03" rms="1.8029825389385223e-01" purity="5.3960108757019043e-01" nType="-99"/>
          </Node>
        </Node>
        <Node pos="r" depth="1" NCoef="0" IVar="1" Cut="1.8028291015625000e+03" cType="1" res="-1.4405041001737118e-02" rms="2.0696969330310822e-01" purity="2.1743343770503998e-01" nType="0">
          <Node pos="l" depth="2" NCoef="0" IVar="-1" Cut="0.0000000000000000e+00" cType="1" res="-1.8684953451156616e-02" rms="1.2527716159820557e-01" purity="1.6044972464442253e-02" nType="-99"/>
          <Node pos="r" depth="2" NCoef="0" IVar="-1" Cut="0.0000000000000000e+00" cType="1" res="-4.1147112846374512e-02" rms="3.0378606915473938e-01" purity="5.8907425403594971e-01" nType="-99"/>
        </Node>
      </Node>
    </BinaryTree>
    <BinaryTree type="DecisionTree" boostWeight="1.0000000000000000e+00" itree="119">
      <Node pos="s" depth="0" NCoef="0" IVar="9" Cut="-1.3332851231098175e-01" cType="1" res="1.1407335987314582e-03" rms="1.9245374202728271e-01" purity="5.0369191169738770e-01" nType="0">
        <Node pos="l" depth="1" NCoef="0" IVar="7" Cut="-2.9933264851570129e-01" cType="1" res="5.2187629044055939e-03" rms="2.0133519172668457e-01" purity="4.9967914819717407e-01" nType="0">
          <Node pos="l" depth="2" NCoef="0" IVar="9" Cut="-1.2757928371429443e+00" cType="1" res="-3.5710856318473816e-03" rms="1.9500023126602173e-01" purity="4.2060738801956177e-01" nType="0">
            <Node pos="l" depth="3" NCoef="0" IVar="-1" Cut="0.0000000000000000e+00" cType="1" res="2.0009379833936691e-02" rms="2.2182343900203705e-01" purity="3.0761146545410156e-01" nType="-99"/>
            <Node pos="r" depth="3" NCoef="0" IVar="-1" Cut="0.0000000000000000e+00" cType="1" res="-2.5789109990000725e-02" rms="1.8245057761669159e-01" purity="4.6757584810256958e-01" nType="-99"/>
          </Node>
          <Node pos="r" depth="2" NCoef="0" IVar="5" Cut="2.8858670043945312e+02" cType="1" res="1.0037450119853020e-02" rms="2.0456469058990479e-01" purity="5.4302710294723511e-01" nType="0">
            <Node pos="l" depth="3" NCoef="0" IVar="-1" Cut="0.0000000000000000e+00" cType="1" res="3.3110756427049637e-02" rms="2.3657794296741486e-01" purity="2.7233487367630005e-01" nType="-99"/>
            <Node pos="r" depth="3" NCoef="0" IVar="-1" Cut="0.0000000000000000e+00" cType="1" res="6.5214573405683041e-03" rms="1.4508101344108582e-01" purity="9.3936061859130859e-01" nType="-99"/>
          </Node>
        </Node>
        <Node pos="r" depth="1" NCoef="0" IVar="7" Cut="7.0572692155838013e-01" cType="1" res="-2.2540281061083078e-03" rms="1.8466632068157196e-01" purity="5.0703227519989014e-01" nType="0">
          <Node pos="l" depth="2" NCoef="0" IVar="8" Cut="-1.4664423465728760e+00" cType="1" res="-9.6645351732149720e-05" rms="1.8337012827396393e-01" purity="5.5216562747955322e-01" nType="0">
            <Node pos="l" depth="3" NCoef="0" IVar="-1" Cut="0.0000000000000000e+00" cType="1" res="3.0321458354592323e-02" rms="2.4188765883445740e-01" purity="3.0937170982360840e-01" nType="-99"/>
            <Node pos="r" depth="3" NCoef="0" IVar="-1" Cut="0.0000000000000000e+00" cType="1" res="-3.5115033388137817e-03" rms="1.7885124683380127e-01" purity="5.6795120239257812e-01" nType="-99"/>
          </Node>
          <Node pos="r" depth="2" NCoef="0" IVar="10" Cut="1.3333973288536072e-01" cType="1" res="-1.0787775740027428e-02" rms="1.8946611881256104e-01" purity="3.2850280404090881e-01" nType="0">
            <Node pos="l" depth="3" NCoef="0" IVar="-1" Cut="0.0000000000000000e+00" cType="1" res="-4.7961819916963577e-02" rms="1.8654625117778778e-01" purity="3.5484296083450317e-01" nType="-99"/>
            <Node pos="r" depth="3" NCoef="0" IVar="-1" Cut="0.0000000000000000e+00" cType="1" res="-7.5575914233922958e-03" rms="1.9195704162120819e-01" purity="3.0277478694915771e-01" nType="-99"/>
          </Node>
        </Node>
      </Node>
    </BinaryTree>
    <BinaryTree type="DecisionTree" boostWeight="1.0000000000000000e+00" itree="120">
      <Node pos="s" depth="0" NCoef="0" IVar="2" Cut="6.4097017049789429e-02" cType="1" res="5.3255329839885235e-04" rms="1.9421899318695068e-01" purity="5.0346267223358154e-01" nType="0">
        <Node pos="l" depth="1" NCoef="0" IVar="3" Cut="1.2527287597656250e+03" cType="1" res="-2.2101930808275938e-03" rms="1.9750018417835236e-01" purity="3.8055872917175293e-01" nType="0">
          <Node pos="l" depth="2" NCoef="0" IVar="2" Cut="2.4417506530880928e-02" cType="1" res="-1.3025003718212247e-03" rms="1.9884338974952698e-01" purity="3.4049239754676819e-01" nType="0">
            <Node pos="l" depth="3" NCoef="0" IVar="-1" Cut="0.0000000000000000e+00" cType="1" res="3.3467577304691076e-03" rms="1.9521109759807587e-01" purity="2.2969895601272583e-01" nType="-99"/>
            <Node pos="r" depth="3" NCoef="0" IVar="-1" Cut="0.0000000000000000e+00" cType="1" res="-1.1824696324765682e-02" rms="2.0391255617141724e-01" purity="5.0034981966018677e-01" nType="-99"/>
          </Node>
          <Node pos="r" depth="2" NCoef="0" IVar="-1" Cut="0.0000000000000000e+00" cType="1" res="-7.1937888860702515e-02" rms="1.7662265896797180e-01" purity="9.5477461814880371e-01" nType="-99"/>
        </Node>
        <Node pos="r" depth="1" NCoef="0" IVar="1" Cut="2.1871542968750000e+03" cType="1" res="6.3802571967244148e-03" rms="1.8689683079719543e-01" purity="7.6550161838531494e-01" nType="0">
          <Node pos="l" depth="2" NCoef="0" IVar="7" Cut="2.1726533770561218e-01" cType="1" res="2.3152224719524384e-02" rms="2.9273313283920288e-01" purity="1.4602306485176086e-01" nType="0">
            <Node pos="l" depth="3" NCoef="0" IVar="-1" Cut="0.0000000000000000e+00" cType="1" res="5.8021242730319500e-03" rms="2.6725152134895325e-01" purity="1.2795796990394592e-01" nType="-99"/>
            <Node pos="r" depth="3" NCoef="0" IVar="-1" Cut="0.0000000000000000e+00" cType="1" res="7.7963106334209442e-02" rms="3.2633495330810547e-01" purity="1.7424006760120392e-01" nType="-99"/>
          </Node>
          <Node pos="r" depth="2" NCoef="0" IVar="10" Cut="3.9984184503555298e-01" cType="1" res="6.0577318072319031e-04" rms="1.3161726295948029e-01" purity="9.7878414392471313e-01" nType="0">
            <Node pos="l" depth="3" NCoef="0" IVar="-1" Cut="0.0000000000000000e+00" cType="1" res="-1.0036377236247063e-02" rms="1.3270646333694458e-01" purity="9.7796964645385742e-01" nType="-99"/>
            <Node pos="r" depth="3" NCoef="0" IVar="-1" Cut="0.0000000000000000e+00" cType="1" res="2.1937752142548561e-02" rms="1.2977939844131470e-01" purity="9.8008316755294800e-01" nType="-99"/>
          </Node>
        </Node>
      </Node>
    </BinaryTree>
    <BinaryTree type="DecisionTree" boostWeight="1.0000000000000000e+00" itree="121">
      <Node pos="s" depth="0" NCoef="0" IVar="7" Cut="-1.2549412250518799e-01" cType="1" res="-1.5325197018682957e-03" rms="1.8907666206359863e-01" purity="5.0070214271545410e-01" nType="0">
        <Node pos="l" depth="1" NCoef="0" IVar="10" Cut="-1.7331391572952271e+00" cType="1" res="1.9894579891115427e-03" rms="1.9144980609416962e-01" purity="4.8235762119293213e-01" nType="0">
          <Node pos="l" depth="2" NCoef="0" IVar="-1" Cut="0.0000000000000000e+00" cType="1" res="3.3107735216617584e-02" rms="2.3032149672508240e-01" purity="4.0390819311141968e-01" nType="-99"/>
          <Node pos="r" depth="2" NCoef="0" IVar="3" Cut="4.7188159179687500e+02" cType="1" res="5.1623181207105517e-04" rms="1.8722806870937347e-01" purity="4.8988869786262512e-01" nType="0">
            <Node pos="l" depth="3" NCoef="0" IVar="-1" Cut="0.0000000000000000e+00" cType="1" res="2.6910180225968361e-02" rms="2.0416593551635742e-01" purity="9.9807441234588623e-02" nType="-99"/>
            <Node pos="r" depth="3" NCoef="0" IVar="-1" Cut="0.0000000000000000e+00" cType="1" res="-5.3613740019500256e-03" rms="1.8270353972911835e-01" purity="5.8681225776672363e-01" nType="-99"/>
          </Node>
        </Node>
        <Node pos="r" depth="1" NCoef="0" IVar="5" Cut="3.3376055908203125e+02" cType="1" res="-4.2753620073199272e-03" rms="1.8716175854206085e-01" purity="5.1498854160308838e-01" nType="0">
          <Node pos="l" depth="2" NCoef="0" IVar="5" Cut="2.2567317199707031e+02" cType="1" res="-7.4365478940308094e-03" rms="2.0976905524730682e-01" purity="2.9169163107872009e-01" nType="0">
            <Node pos="l" depth="3" NCoef="0" IVar="-1" Cut="0.0000000000000000e+00" cType="1" res="-6.9898162037134171e-03" rms="1.9429323077201843e-01" purity="1.4728118479251862e-01" nType="-99"/>
            <Node pos="r" depth="3" NCoef="0" IVar="-1" Cut="0.0000000000000000e+00" cType="1" res="-2.9585044831037521e-02" rms="2.4195855855941772e-01" purity="6.3178694248199463e-01" nType="-99"/>
          </Node>
          <Node pos="r" depth="2" NCoef="0" IVar="-1" Cut="0.0000000000000000e+00" cType="1" res="1.2158477678894997e-02" rms="1.2888742983341217e-01" purity="9.7174096107482910e-01" nType="-99"/>
        </Node>
      </Node>
    </BinaryTree>
    <BinaryTree type="DecisionTree" boostWeight="1.0000000000000000e+00" itree="122">
      <Node pos="s" depth="0" NCoef="0" IVar="9" Cut="1.9998841285705566e+00" cType="1" res="-6.2712148064747453e-04" rms="1.9544105231761932e-01" purity="4.9887317419052124e-01" nType="0">
        <Node pos="l" depth="1" NCoef="0" IVar="7" Cut="1.2206255197525024e+00" cType="1" res="3.4545559901744127e-04" rms="1.9404354691505432e-01" purity="5.1023924350738525e-01" nType="0">
          <Node pos="l" depth="2" NCoef="0" IVar="7" Cut="-6.5447503328323364e-01" cType="1" res="-5.4775975877419114e-04" rms="1.9111345708370209e-01" purity="5.3554040193557739e-01" nType="0">
            <Node pos="l" depth="3" NCoef="0" IVar="-1" Cut="0.0000000000000000e+00" cType="1" res="1.6942465677857399e-02" rms="2.0489852130413055e-01" purity="3.7717744708061218e-01" nType="-99"/>
            <Node pos="r" depth="3" NCoef="0" IVar="-1" Cut="0.0000000000000000e+00" cType="1" res="-7.7971988357603550e-03" rms="1.8668742477893829e-01" purity="5.8345741033554077e-01" nType="-99"/>
          </Node>
          <Node pos="r" depth="2" NCoef="0" IVar="5" Cut="1.9948670959472656e+02" cType="1" res="1.1630501598119736e-02" rms="2.2753824293613434e-01" purity="1.9058059155941010e-01" nType="0">
            <Node pos="l" depth="3" NCoef="0" IVar="-1" Cut="0.0000000000000000e+00" cType="1" res="3.4383055754005909e-03" rms="1.5519748628139496e-01" purity="3.2362215220928192e-02" nType="-99"/>
            <Node pos="r" depth="3" NCoef="0" IVar="-1" Cut="0.0000000000000000e+00" cType="1" res="4.1253700852394104e-02" rms="3.0297866463661194e-01" purity="4.2174294590950012e-01" nType="-99"/>
          </Node>
        </Node>
        <Node pos="r" depth="1" NCoef="0" IVar="-1" Cut="0.0000000000000000e+00" cType="1" res="-4.7663446515798569e-02" rms="2.2760851681232452e-01" purity="2.0058211684226990e-01" nType="-99"/>
      </Node>
    </BinaryTree>
    <BinaryTree type="DecisionTree" boostWeight="1.0000000000000000e+00" itree="123">
      <Node pos="s" depth="0" NCoef="0" IVar="10" Cut="-1.9999538660049438e+00" cType="1" res="1.7464613483753055e-04" rms="1.9122791290283203e-01" purity="5.0219047069549561e-01" nType="0">
        <Node pos="l" depth="1" NCoef="0" IVar="-1" Cut="0.0000000000000000e+00" cType="1" res="-4.0764398872852325e-02" rms="2.2632497549057007e-01" purity="3.3345031738281250e-01" nType="-99"/>
        <Node pos="r" depth="1" NCoef="0" IVar="10" Cut="-6.2854331731796265e-01" cType="1" res="1.1812761658802629e-03" rms="1.8936809897422791e-01" purity="5.1007950305938721e-01" nType="0">
          <Node pos="l" depth="2" NCoef="0" IVar="7" Cut="-5.2648533135652542e-02" cType="1" res="7.6528852805495262e-03" rms="1.9871979951858521e-01" purity="5.0956720113754272e-01" nType="0">
            <Node pos="l" depth="3" NCoef="0" IVar="-1" Cut="0.0000000000000000e+00" cType="1" res="2.8323156293481588e-03" rms="1.8953798711299896e-01" purity="4.7234624624252319e-01" nType="-99"/>
            <Node pos="r" depth="3" NCoef="0" IVar="-1" Cut="0.0000000000000000e+00" cType="1" res="3.8178499788045883e-02" rms="2.0725293457508087e-01" purity="5.4665285348892212e-01" nType="-99"/>
          </Node>
          <Node pos="r" depth="2" NCoef="0" IVar="10" Cut="1.3305599689483643e+00" cType="1" res="-1.3103561941534281e-03" rms="1.8558187782764435e-01" purity="5.1027673482894897e-01" nType="0">
            <Node pos="l" depth="3" NCoef="0" IVar="-1" Cut="0.0000000000000000e+00" cType="1" res="5.1169842481613159e-04" rms="1.7600363492965698e-01" purity="5.2927887439727783e-01" nType="-99"/>
            <Node pos="r" depth="3" NCoef="0" IVar="-1" Cut="0.0000000000000000e+00" cType="1" res="-1.5324883162975311e-02" rms="2.1888351440429688e-01" purity="4.3614828586578369e-01" nType="-99"/>
          </Node>
        </Node>
      </Node>
    </BinaryTree>
    <BinaryTree type="DecisionTree" boostWeight="1.0000000000000000e+00" itree="124">
      <Node pos="s" depth="0" NCoef="0" IVar="1" Cut="1.9511942138671875e+03" cType="1" res="-1.1956115486100316e-03" rms="1.8534441292285919e-01" purity="4.9842590093612671e-01" nType="0">
        <Node pos="l" depth="1" NCoef="0" IVar="1" Cut="1.7149512939453125e+03" cType="1" res="-4.7656684182584286e-03" rms="1.4199620485305786e-01" purity="2.4954698979854584e-02" nType="0">
          <Node pos="l" depth="2" NCoef="0" IVar="5" Cut="2.3753077697753906e+02" cType="1" res="-1.4520314289256930e-03" rms="1.0444866865873337e-01" purity="1.2100402265787125e-02" nType="0">
            <Node pos="l" depth="3" NCoef="0" IVar="-1" Cut="0.0000000000000000e+00" cType="1" res="-2.7124827727675438e-02" rms="9.0009376406669617e-02" purity="8.5212271660566330e-03" nType="-99"/>
            <Node pos="r" depth="3" NCoef="0" IVar="-1" Cut="0.0000000000000000e+00" cType="1" res="4.6569094061851501e-02" rms="1.9965536892414093e-01" purity="4.9369942396879196e-02" nType="-99"/>
          </Node>
          <Node pos="r" depth="2" NCoef="0" IVar="0" Cut="4.4907192993164062e+02" cType="1" res="-1.6525719314813614e-02" rms="2.2983872890472412e-01" purity="7.0574417710304260e-02" nType="0">
            <Node pos="l" depth="3" NCoef="0" IVar="-1" Cut="0.0000000000000000e+00" cType="1" res="1.2444524327293038e-03" rms="2.2252330183982849e-01" purity="6.8870186805725098e-02" nType="-99"/>
            <Node pos="r" depth="3" NCoef="0" IVar="-1" Cut="0.0000000000000000e+00" cType="1" res="-3.6701805889606476e-02" rms="2.3325122892856598e-01" purity="7.1519829332828522e-02" nType="-99"/>
          </Node>
        </Node>
        <Node pos="r" depth="1" NCoef="0" IVar="7" Cut="-7.6816850900650024e-01" cType="1" res="1.6054640291258693e-03" rms="2.1323208510875702e-01" purity="8.6991262435913086e-01" nType="0">
          <Node pos="l" depth="2" NCoef="0" IVar="10" Cut="-1.3305288553237915e-01" cType="1" res="-1.2656990438699722e-02" rms="2.6350036263465881e-01" purity="7.6257514953613281e-01" nType="0">
            <Node pos="l" depth="3" NCoef="0" IVar="-1" Cut="0.0000000000000000e+00" cType="1" res="-3.0758032575249672e-02" rms="2.5741767883300781e-01" purity="7.4314713478088379e-01" nType="-99"/>
            <Node pos="r" depth="3" NCoef="0" IVar="-1" Cut="0.0000000000000000e+00" cType="1" res="-7.9624187201261520e-03" rms="2.6845732331275940e-01" purity="7.7945011854171753e-01" nType="-99"/>
          </Node>
          <Node pos="r" depth="2" NCoef="0" IVar="5" Cut="1.6365209960937500e+02" cType="1" res="3.4438590519130230e-03" rms="2.0578959584236145e-01" purity="8.8374817371368408e-01" nType="0">
            <Node pos="l" depth="3" NCoef="0" IVar="-1" Cut="0.0000000000000000e+00" cType="1" res="1.8672492355108261e-02" rms="3.3117878437042236e-01" purity="4.3475639820098877e-01" nType="-99"/>
            <Node pos="r" depth="3" NCoef="0" IVar="-1" Cut="0.0000000000000000e+00" cType="1" res="5.1677548326551914e-03" rms="1.8966816365718842e-01" purity="9.2607498168945312e-01" nType="-99"/>
          </Node>
        </Node>
      </Node>
    </BinaryTree>
    <BinaryTree type="DecisionTree" boostWeight="1.0000000000000000e+00" itree="125">
      <Node pos="s" depth="0" NCoef="0" IVar="9" Cut="1.7332204580307007e+00" cType="1" res="1.3884551590308547e-03" rms="1.9319480657577515e-01" purity="4.9965301156044006e-01" nType="0">
        <Node pos="l" depth="1" NCoef="0" IVar="9" Cut="-1.7205981016159058e+00" cType="1" res="6.1483099125325680e-04" rms="1.9010977447032928e-01" purity="5.1195019483566284e-01" nType="0">
          <Node pos="l" depth="2" NCoef="0" IVar="4" Cut="3.0415859985351562e+02" cType="1" res="-9.0526714920997620e-03" rms="2.2213314473628998e-01" purity="2.5935298204421997e-01" nType="0">
            <Node pos="l" depth="3" NCoef="0" IVar="-1" Cut="0.0000000000000000e+00" cType="1" res="1.1926079168915749e-02" rms="1.9231849908828735e-01" purity="9.3567900359630585e-02" nType="-99"/>
            <Node pos="r" depth="3" NCoef="0" IVar="-1" Cut="0.0000000000000000e+00" cType="1" res="-3.7460081279277802e-02" rms="2.4925197660923004e-01" purity="4.3618968129158020e-01" nType="-99"/>
          </Node>
          <Node pos="r" depth="2" NCoef="0" IVar="6" Cut="1.8470036315917969e+02" cType="1" res="1.2472699163481593e-03" rms="1.8780732154846191e-01" purity="5.2847486734390259e-01" nType="0">
            <Node pos="l" depth="3" NCoef="0" IVar="-1" Cut="0.0000000000000000e+00" cType="1" res="-8.2685373490676284e-04" rms="2.0445655286312103e-01" purity="3.1038424372673035e-01" nType="-99"/>
            <Node pos="r" depth="3" NCoef="0" IVar="-1" Cut="0.0000000000000000e+00" cType="1" res="1.6679638996720314e-02" rms="1.5265390276908875e-01" purity="9.2771160602569580e-01" nType="-99"/>
          </Node>
        </Node>
        <Node pos="r" depth="1" NCoef="0" IVar="6" Cut="9.9814704895019531e+01" cType="1" res="1.3900618068873882e-02" rms="2.3724086582660675e-01" purity="3.0076533555984497e-01" nType="0">
          <Node pos="l" depth="2" NCoef="0" IVar="-1" Cut="0.0000000000000000e+00" cType="1" res="-8.3452407270669937e-03" rms="1.9227868318557739e-01" purity="1.2703865766525269e-01" nType="-99"/>
          <Node pos="r" depth="2" NCoef="0" IVar="-1" Cut="0.0000000000000000e+00" cType="1" res="4.8014536499977112e-02" rms="2.7566897869110107e-01" purity="4.8392876982688904e-01" nType="-99"/>
        </Node>
      </Node>
    </BinaryTree>
    <BinaryTree type="DecisionTree" boostWeight="1.0000000000000000e+00" itree="126">
      <Node pos="s" depth="0" NCoef="0" IVar="9" Cut="-3.9980012178421021e-01" cType="1" res="3.9738262421451509e-04" rms="1.9512128829956055e-01" purity="4.9571385979652405e-01" nType="0">
        <Node pos="l" depth="1" NCoef="0" IVar="7" Cut="1.8952819705009460e-01" cType="1" res="-3.7247831933200359e-03" rms="2.0122396945953369e-01" purity="4.6662831306457520e-01" nType="0">
          <Node pos="l" depth="2" NCoef="0" IVar="1" Cut="2.5217409667968750e+03" cType="1" res="-7.0024156011641026e-03" rms="1.8836756050586700e-01" purity="4.7760176658630371e-01" nType="0">
            <Node pos="l" depth="3" NCoef="0" IVar="-1" Cut="0.0000000000000000e+00" cType="1" res="-2.4415470659732819e-02" rms="2.1339599788188934e-01" purity="1.1131452769041061e-01" nType="-99"/>
            <Node pos="r" depth="3" NCoef="0" IVar="-1" Cut="0.0000000000000000e+00" cType="1" res="-3.3374279737472534e-03" rms="1.4786981046199799e-01" purity="9.7106790542602539e-01" nType="-99"/>
          </Node>
          <Node pos="r" depth="2" NCoef="0" IVar="9" Cut="-7.4262136220932007e-01" cType="1" res="1.2155700242146850e-03" rms="2.1908934414386749e-01" purity="4.5008817315101624e-01" nType="0">
            <Node pos="l" depth="3" NCoef="0" IVar="-1" Cut="0.0000000000000000e+00" cType="1" res="-1.2171459384262562e-02" rms="2.1721228957176208e-01" purity="4.0911126136779785e-01" nType="-99"/>
            <Node pos="r" depth="3" NCoef="0" IVar="-1" Cut="0.0000000000000000e+00" cType="1" res="4.4644121080636978e-02" rms="2.2279763221740723e-01" purity="5.4854130744934082e-01" nType="-99"/>
          </Node>
        </Node>
        <Node pos="r" depth="1" NCoef="0" IVar="7" Cut="-1.4052531719207764e+00" cType="1" res="2.7261935174465179e-03" rms="1.9154846668243408e-01" purity="5.1214563846588135e-01" nType="0">
          <Node pos="l" depth="2" NCoef="0" IVar="-1" Cut="0.0000000000000000e+00" cType="1" res="-6.0239512473344803e-02" rms="1.5010862052440643e-01" purity="1.0211450606584549e-01" nType="-99"/>
          <Node pos="r" depth="2" NCoef="0" IVar="7" Cut="-1.0053964853286743e+00" cType="1" res="3.6294385790824890e-03" rms="1.9311448931694031e-01" purity="5.3015291690826416e-01" nType="0">
            <Node pos="l" depth="3" NCoef="0" IVar="-1" Cut="0.0000000000000000e+00" cType="1" res="7.6596975326538086e-02" rms="2.4530029296875000e-01" purity="3.6842221021652222e-01" nType="-99"/>
            <Node pos="r" depth="3" NCoef="0" IVar="-1" Cut="0.0000000000000000e+00" cType="1" res="4.5467098243534565e-03" rms="1.8864341080188751e-01" purity="5.4177594184875488e-01" nType="-99"/>
          </Node>
        </Node>
      </Node>
    </BinaryTree>
    <BinaryTree type="DecisionTree" boostWeight="1.0000000000000000e+00" itree="127">
      <Node pos="s" depth="0" NCoef="0" IVar="10" Cut="-2.2666339874267578e+00" cType="1" res="-1.5286157140508294e-03" rms="1.8959783017635345e-01" purity="4.9274462461471558e-01" nType="0">
        <Node pos="l" depth="1" NCoef="0" IVar="-1" Cut="0.0000000000000000e+00" cType="1" res="3.8401458412408829e-02" rms="2.6252481341362000e-01" purity="3.4345442056655884e-01" nType="-99"/>
        <Node pos="r" depth="1" NCoef="0" IVar="10" Cut="-1.3014639616012573e+00" cType="1" res="-2.1713729947805405e-03" rms="1.8722359836101532e-01" purity="4.9672338366508484e-01" nType="0">
          <Node pos="l" depth="2" NCoef="0" IVar="2" Cut="3.5468351095914841e-02" cType="1" res="-9.4647444784641266e-03" rms="1.8889486789703369e-01" purity="4.5188555121421814e-01" nType="0">
            <Node pos="l" depth="3" NCoef="0" IVar="-1" Cut="0.0000000000000000e+00" cType="1" res="-4.3841235339641571e-02" rms="1.8189483880996704e-01" purity="2.2545433044433594e-01" nType="-99"/>
            <Node pos="r" depth="3" NCoef="0" IVar="-1" Cut="0.0000000000000000e+00" cType="1" res="1.2124669738113880e-03" rms="1.9509449601173401e-01" purity="6.7688947916030884e-01" nType="-99"/>
          </Node>
          <Node pos="r" depth="2" NCoef="0" IVar="7" Cut="1.2422004938125610e+00" cType="1" res="-1.1106393067166209e-03" rms="1.8695558607578278e-01" purity="5.0324451923370361e-01" nType="0">
            <Node pos="l" depth="3" NCoef="0" IVar="-1" Cut="0.0000000000000000e+00" cType="1" res="-6.3561541028320789e-03" rms="1.8372611701488495e-01" purity="5.2857333421707153e-01" nType="-99"/>
            <Node pos="r" depth="3" NCoef="0" IVar="-1" Cut="0.0000000000000000e+00" cType="1" res="2.9298933222889900e-02" rms="2.2347787022590637e-01" purity="1.8251864612102509e-01" nType="-99"/>
          </Node>
        </Node>
      </Node>
    </BinaryTree>
    <BinaryTree type="DecisionTree" boostWeight="1.0000000000000000e+00" itree="128">
      <Node pos="s" depth="0" NCoef="0" IVar="3" Cut="3.4967559814453125e+02" cType="1" res="6.9065237767063081e-05" rms="1.9072093069553375e-01" purity="4.9343335628509521e-01" nType="0">
        <Node pos="l" depth="1" NCoef="0" IVar="-1" Cut="0.0000000000000000e+00" cType="1" res="-5.7879608124494553e-02" rms="1.2971825897693634e-01" purity="2.0642096176743507e-02" nType="-99"/>
        <Node pos="r" depth="1" NCoef="0" IVar="10" Cut="-1.7333043813705444e+00" cType="1" res="9.4831641763448715e-04" rms="1.9340892136096954e-01" purity="5.1877439022064209e-01" nType="0">
          <Node pos="l" depth="2" NCoef="0" IVar="10" Cut="-2.0380911827087402e+00" cType="1" res="-1.1760653927922249e-02" rms="2.1513265371322632e-01" purity="3.9678588509559631e-01" nType="0">
            <Node pos="l" depth="3" NCoef="0" IVar="-1" Cut="0.0000000000000000e+00" cType="1" res="-3.1936697196215391e-03" rms="2.2899773716926575e-01" purity="3.6792781949043274e-01" nType="-99"/>
            <Node pos="r" depth="3" NCoef="0" IVar="-1" Cut="0.0000000000000000e+00" cType="1" res="-5.9188179671764374e-02" rms="1.9403339922428131e-01" purity="4.3571490049362183e-01" nType="-99"/>
          </Node>
          <Node pos="r" depth="2" NCoef="0" IVar="3" Cut="1.1217530517578125e+03" cType="1" res="2.0135317463427782e-03" rms="1.9143788516521454e-01" purity="5.2899903059005737e-01" nType="0">
            <Node pos="l" depth="3" NCoef="0" IVar="-1" Cut="0.0000000000000000e+00" cType="1" res="8.3164311945438385e-03" rms="1.9531887769699097e-01" purity="4.7643354535102844e-01" nType="-99"/>
            <Node pos="r" depth="3" NCoef="0" IVar="-1" Cut="0.0000000000000000e+00" cType="1" res="-2.8367633000016212e-02" rms="1.5637767314910889e-01" purity="9.5327377319335938e-01" nType="-99"/>
          </Node>
        </Node>
      </Node>
    </BinaryTree>
    <BinaryTree type="DecisionTree" boostWeight="1.0000000000000000e+00" itree="129">
      <Node pos="s" depth="0" NCoef="0" IVar="9" Cut="-9.3332338333129883e-01" cType="1" res="-9.6008687978610396e-04" rms="1.9003768265247345e-01" purity="4.9725115299224854e-01" nType="0">
        <Node pos="l" depth="1" NCoef="0" IVar="2" Cut="1.9399572163820267e-02" cType="1" res="-6.4945989288389683e-03" rms="1.9699612259864807e-01" purity="4.2141360044479370e-01" nType="0">
          <Node pos="l" depth="2" NCoef="0" IVar="4" Cut="3.0803112792968750e+02" cType="1" res="-1.2647333554923534e-02" rms="1.9122089445590973e-01" purity="1.7444679141044617e-01" nType="0">
            <Node pos="l" depth="3" NCoef="0" IVar="-1" Cut="0.0000000000000000e+00" cType="1" res="-1.5463522635400295e-02" rms="1.5258052945137024e-01" purity="5.2547641098499298e-02" nType="-99"/>
            <Node pos="r" depth="3" NCoef="0" IVar="-1" Cut="0.0000000000000000e+00" cType="1" res="-4.0179453790187836e-02" rms="2.2653761506080627e-01" purity="3.1135827302932739e-01" nType="-99"/>
          </Node>
          <Node pos="r" depth="2" NCoef="0" IVar="10" Cut="6.6471952199935913e-01" cType="1" res="-2.7851324994117022e-03" rms="2.0030628144741058e-01" purity="5.7030922174453735e-01" nType="0">
            <Node pos="l" depth="3" NCoef="0" IVar="-1" Cut="0.0000000000000000e+00" cType="1" res="-1.5086432918906212e-02" rms="1.9426138699054718e-01" purity="5.5763804912567139e-01" nType="-99"/>
            <Node pos="r" depth="3" NCoef="0" IVar="-1" Cut="0.0000000000000000e+00" cType="1" res="1.1739122681319714e-02" rms="2.1496227383613586e-01" purity="6.0311090946197510e-01" nType="-99"/>
          </Node>
        </Node>
        <Node pos="r" depth="1" NCoef="0" IVar="3" Cut="6.1977661132812500e+02" cType="1" res="4.6351927448995411e-04" rms="1.8817989528179169e-01" purity="5.1675838232040405e-01" nType="0">
          <Node pos="l" depth="2" NCoef="0" IVar="6" Cut="1.7026940917968750e+02" cType="1" res="3.9370907470583916e-03" rms="2.0819073915481567e-01" purity="1.8209110200405121e-01" nType="0">
            <Node pos="l" depth="3" NCoef="0" IVar="-1" Cut="0.0000000000000000e+00" cType="1" res="2.3268507793545723e-02" rms="1.9589351117610931e-01" purity="7.8706167638301849e-02" nType="-99"/>
            <Node pos="r" depth="3" NCoef="0" IVar="-1" Cut="0.0000000000000000e+00" cType="1" res="-1.3797610998153687e-02" rms="2.5210914015769958e-01" purity="6.0751956701278687e-01" nType="-99"/>
          </Node>
          <Node pos="r" depth="2" NCoef="0" IVar="0" Cut="5.8882995605468750e+02" cType="1" res="-1.9340728176757693e-03" rms="1.7298215627670288e-01" purity="7.4775850772857666e-01" nType="0">
            <Node pos="l" depth="3" NCoef="0" IVar="-1" Cut="0.0000000000000000e+00" cType="1" res="-2.2468730807304382e-02" rms="2.0830093324184418e-01" purity="1.6458076238632202e-01" nType="-99"/>
            <Node pos="r" depth="3" NCoef="0" IVar="-1" Cut="0.0000000000000000e+00" cType="1" res="7.0418999530375004e-04" rms="1.6340219974517822e-01" purity="8.8629996776580811e-01" nType="-99"/>
          </Node>
        </Node>
      </Node>
    </BinaryTree>
    <BinaryTree type="DecisionTree" boostWeight="1.0000000000000000e+00" itree="130">
      <Node pos="s" depth="0" NCoef="0" IVar="7" Cut="-1.3807737827301025e+00" cType="1" res="1.7720719333738089e-03" rms="1.9412238895893097e-01" purity="4.9735635519027710e-01" nType="0">
        <Node pos="l" depth="1" NCoef="0" IVar="4" Cut="3.0446612548828125e+02" cType="1" res="1.5906589105725288e-02" rms="1.9719949364662170e-01" purity="1.2465484440326691e-01" nType="0">
          <Node pos="l" depth="2" NCoef="0" IVar="-1" Cut="0.0000000000000000e+00" cType="1" res="3.1929641962051392e-02" rms="1.3341999053955078e-01" purity="2.4234265089035034e-02" nType="-99"/>
          <Node pos="r" depth="2" NCoef="0" IVar="-1" Cut="0.0000000000000000e+00" cType="1" res="5.9665430337190628e-02" rms="2.5368845462799072e-01" purity="2.4757930636405945e-01" nType="-99"/>
        </Node>
        <Node pos="r" depth="1" NCoef="0" IVar="8" Cut="-1.7332795858383179e+00" cType="1" res="9.2704984126612544e-04" rms="1.9390423595905304e-01" purity="5.1963800191879272e-01" nType="0">
          <Node pos="l" depth="2" NCoef="0" IVar="-1" Cut="0.0000000000000000e+00" cType="1" res="3.5028010606765747e-02" rms="2.4810180068016052e-01" purity="2.2575208544731140e-01" nType="-99"/>
          <Node pos="r" depth="2" NCoef="0" IVar="10" Cut="2.2666020393371582e+00" cType="1" res="2.3455478367395699e-04" rms="1.9121012091636658e-01" purity="5.3222322463989258e-01" nType="0">
            <Node pos="l" depth="3" NCoef="0" IVar="-1" Cut="0.0000000000000000e+00" cType="1" res="-1.0991139570251107e-03" rms="1.8780918419361115e-01" purity="5.3583198785781860e-01" nType="-99"/>
            <Node pos="r" depth="3" NCoef="0" IVar="-1" Cut="0.0000000000000000e+00" cType="1" res="3.6925595253705978e-02" rms="2.8482931852340698e-01" purity="4.0611502528190613e-01" nType="-99"/>
          </Node>
        </Node>
      </Node>
    </BinaryTree>
    <BinaryTree type="DecisionTree" boostWeight="1.0000000000000000e+00" itree="131">
      <Node pos="s" depth="0" NCoef="0" IVar="10" Cut="2.2664608955383301e+00" cType="1" res="-1.2651333236135542e-04" rms="1.9123910367488861e-01" purity="4.9692243337631226e-01" nType="0">
        <Node pos="l" depth="1" NCoef="0" IVar="2" Cut="2.1365815773606300e-02" cType="1" res="5.1047070883214474e-04" rms="1.8975207209587097e-01" purity="5.0188434123992920e-01" nType="0">
          <Node pos="l" depth="2" NCoef="0" IVar="1" Cut="2.8897609863281250e+03" cType="1" res="4.9948380328714848e-03" rms="2.0193904638290405e-01" purity="2.5881671905517578e-01" nType="0">
            <Node pos="l" depth="3" NCoef="0" IVar="-1" Cut="0.0000000000000000e+00" cType="1" res="1.8705027177929878e-02" rms="2.0635573565959930e-01" purity="1.0804595053195953e-01" nType="-99"/>
            <Node pos="r" depth="3" NCoef="0" IVar="-1" Cut="0.0000000000000000e+00" cType="1" res="-2.4851623922586441e-02" rms="1.7960041761398315e-01" purity="9.5701712369918823e-01" nType="-99"/>
          </Node>
          <Node pos="r" depth="2" NCoef="0" IVar="6" Cut="1.8470155334472656e+02" cType="1" res="-2.1350672468543053e-03" rms="1.8212868273258209e-01" purity="6.4528131484985352e-01" nType="0">
            <Node pos="l" depth="3" NCoef="0" IVar="-1" Cut="0.0000000000000000e+00" cType="1" res="-1.4542823657393456e-02" rms="2.0865860581398010e-01" purity="3.9951962232589722e-01" nType="-99"/>
            <Node pos="r" depth="3" NCoef="0" IVar="-1" Cut="0.0000000000000000e+00" cType="1" res="1.2688225135207176e-02" rms="1.4429803192615509e-01" purity="9.3689590692520142e-01" nType="-99"/>
          </Node>
        </Node>
        <Node pos="r" depth="1" NCoef="0" IVar="-1" Cut="0.0000000000000000e+00" cType="1" res="-4.4849283993244171e-02" rms="2.3724117875099182e-01" purity="3.1962537765502930e-01" nType="-99"/>
      </Node>
    </BinaryTree>
    <BinaryTree type="DecisionTree" boostWeight="1.0000000000000000e+00" itree="132">
      <Node pos="s" depth="0" NCoef="0" IVar="1" Cut="2.5918110351562500e+03" cType="1" res="1.8975783605128527e-03" rms="1.9591461122035980e-01" purity="4.9636662006378174e-01" nType="0">
        <Node pos="l" depth="1" NCoef="0" IVar="1" Cut="2.1377890625000000e+03" cType="1" res="3.9963102899491787e-03" rms="2.2610561549663544e-01" purity="1.4749658107757568e-01" nType="0">
          <Node pos="l" depth="2" NCoef="0" IVar="6" Cut="1.7832159423828125e+02" cType="1" res="-7.0693327870685607e-05" rms="1.8701548874378204e-01" purity="5.0498884171247482e-02" nType="0">
            <Node pos="l" depth="3" NCoef="0" IVar="-1" Cut="0.0000000000000000e+00" cType="1" res="6.0455398634076118e-03" rms="1.7667159438133240e-01" purity="4.1976235806941986e-02" nType="-99"/>
            <Node pos="r" depth="3" NCoef="0" IVar="-1" Cut="0.0000000000000000e+00" cType="1" res="-2.6864122599363327e-02" rms="3.0593374371528625e-01" purity="1.8542340397834778e-01" nType="-99"/>
          </Node>
          <Node pos="r" depth="2" NCoef="0" IVar="3" Cut="7.0057189941406250e+02" cType="1" res="2.6127051562070847e-02" rms="3.7204715609550476e-01" purity="6.7531287670135498e-01" nType="0">
            <Node pos="l" depth="3" NCoef="0" IVar="-1" Cut="0.0000000000000000e+00" cType="1" res="6.3121216371655464e-03" rms="3.6424103379249573e-01" purity="7.8383511304855347e-01" nType="-99"/>
            <Node pos="r" depth="3" NCoef="0" IVar="-1" Cut="0.0000000000000000e+00" cType="1" res="3.0699109658598900e-02" rms="3.7955433130264282e-01" purity="5.5444949865341187e-01" nType="-99"/>
          </Node>
        </Node>
        <Node pos="r" depth="1" NCoef="0" IVar="6" Cut="8.5865287780761719e+01" cType="1" res="-9.6789910458028316e-04" rms="1.4481800794601440e-01" purity="9.7269201278686523e-01" nType="0">
          <Node pos="l" depth="2" NCoef="0" IVar="-1" Cut="0.0000000000000000e+00" cType="1" res="1.2410217896103859e-02" rms="2.7418050169944763e-01" purity="8.7869924306869507e-01" nType="-99"/>
          <Node pos="r" depth="2" NCoef="0" IVar="2" Cut="4.1797060519456863e-02" cType="1" res="-1.8532385583966970e-03" rms="1.2683163583278656e-01" purity="9.8114830255508423e-01" nType="0">
            <Node pos="l" depth="3" NCoef="0" IVar="-1" Cut="0.0000000000000000e+00" cType="1" res="-2.5801431387662888e-02" rms="1.7932559549808502e-01" purity="9.6010208129882812e-01" nType="-99"/>
            <Node pos="r" depth="3" NCoef="0" IVar="-1" Cut="0.0000000000000000e+00" cType="1" res="5.5164741352200508e-03" rms="9.1891922056674957e-02" purity="9.9113357067108154e-01" nType="-99"/>
          </Node>
        </Node>
      </Node>
    </BinaryTree>
    <BinaryTree type="DecisionTree" boostWeight="1.0000000000000000e+00" itree="133">
      <Node pos="s" depth="0" NCoef="0" IVar="7" Cut="9.6990388631820679e-01" cType="1" res="1.6676533268764615e-03" rms="1.9133929908275604e-01" purity="5.0288653373718262e-01" nType="0">
        <Node pos="l" depth="1" NCoef="0" IVar="8" Cut="1.4664715528488159e+00" cType="1" res="3.1070890836417675e-03" rms="1.9078554213047028e-01" purity="5.4011362791061401e-01" nType="0">
          <Node pos="l" depth="2" NCoef="0" IVar="5" Cut="2.2025521850585938e+02" cType="1" res="2.1412502974271774e-03" rms="1.8600082397460938e-01" purity="5.6067055463790894e-01" nType="0">
            <Node pos="l" depth="3" NCoef="0" IVar="-1" Cut="0.0000000000000000e+00" cType="1" res="-5.8121238835155964e-03" rms="1.8876068294048309e-01" purity="1.5257237851619720e-01" nType="-99"/>
            <Node pos="r" depth="3" NCoef="0" IVar="-1" Cut="0.0000000000000000e+00" cType="1" res="1.5865329653024673e-02" rms="1.8390557169914246e-01" purity="8.5716199874877930e-01" nType="-99"/>
          </Node>
          <Node pos="r" depth="2" NCoef="0" IVar="1" Cut="1.6098508300781250e+03" cType="1" res="1.5638789162039757e-02" rms="2.4417504668235779e-01" purity="2.7338939905166626e-01" nType="0">
            <Node pos="l" depth="3" NCoef="0" IVar="-1" Cut="0.0000000000000000e+00" cType="1" res="-3.3873748034238815e-02" rms="7.9288572072982788e-02" purity="6.3352030701935291e-03" nType="-99"/>
            <Node pos="r" depth="3" NCoef="0" IVar="-1" Cut="0.0000000000000000e+00" cType="1" res="3.8043346256017685e-02" rms="3.1440368294715881e-01" purity="4.7210195660591125e-01" nType="-99"/>
          </Node>
        </Node>
        <Node pos="r" depth="1" NCoef="0" IVar="5" Cut="2.1472816467285156e+02" cType="1" res="-8.7773939594626427e-03" rms="1.9499243795871735e-01" purity="2.3275353014469147e-01" nType="0">
          <Node pos="l" depth="2" NCoef="0" IVar="9" Cut="1.3289433717727661e-01" cType="1" res="-2.0466749556362629e-03" rms="1.6394948959350586e-01" purity="5.1911775022745132e-02" nType="0">
            <Node pos="l" depth="3" NCoef="0" IVar="-1" Cut="0.0000000000000000e+00" cType="1" res="1.7260363325476646e-02" rms="1.8427826464176178e-01" purity="6.6242739558219910e-02" nType="-99"/>
            <Node pos="r" depth="3" NCoef="0" IVar="-1" Cut="0.0000000000000000e+00" cType="1" res="-3.7213966250419617e-02" rms="1.3886056840419769e-01" purity="3.6757733672857285e-02" nType="-99"/>
          </Node>
          <Node pos="r" depth="2" NCoef="0" IVar="-1" Cut="0.0000000000000000e+00" cType="1" res="-3.4226909279823303e-02" rms="2.3894153535366058e-01" purity="5.4574596881866455e-01" nType="-99"/>
        </Node>
      </Node>
    </BinaryTree>
    <BinaryTree type="DecisionTree" boostWeight="1.0000000000000000e+00" itree="134">
      <Node pos="s" depth="0" NCoef="0" IVar="9" Cut="9.3325418233871460e-01" cType="1" res="-1.3083630474284291e-03" rms="1.8990397453308105e-01" purity="4.9881494045257568e-01" nType="0">
        <Node pos="l" depth="1" NCoef="0" IVar="2" Cut="2.0228983834385872e-02" cType="1" res="-3.7570673157460988e-05" rms="1.8532358109951019e-01" purity="5.2205485105514526e-01" nType="0">
          <Node pos="l" depth="2" NCoef="0" IVar="2" Cut="1.4448816888034344e-02" cType="1" res="-3.7747346796095371e-03" rms="1.8742233514785767e-01" purity="2.7274143695831299e-01" nType="0">
            <Node pos="l" depth="3" NCoef="0" IVar="-1" Cut="0.0000000000000000e+00" cType="1" res="-2.2532675415277481e-02" rms="1.7772650718688965e-01" purity="2.3842521011829376e-01" nType="-99"/>
            <Node pos="r" depth="3" NCoef="0" IVar="-1" Cut="0.0000000000000000e+00" cType="1" res="2.2905923426151276e-02" rms="2.1862842142581940e-01" purity="3.9794549345970154e-01" nType="-99"/>
          </Node>
          <Node pos="r" depth="2" NCoef="0" IVar="8" Cut="-9.3232244253158569e-01" cType="1" res="1.9227365264669061e-03" rms="1.8418282270431519e-01" purity="6.5283071994781494e-01" nType="0">
            <Node pos="l" depth="3" NCoef="0" IVar="-1" Cut="0.0000000000000000e+00" cType="1" res="2.4556469172239304e-02" rms="2.2458890080451965e-01" purity="5.4115730524063110e-01" nType="-99"/>
            <Node pos="r" depth="3" NCoef="0" IVar="-1" Cut="0.0000000000000000e+00" cType="1" res="1.6727355541661382e-03" rms="1.7631874978542328e-01" purity="6.7190766334533691e-01" nType="-99"/>
          </Node>
        </Node>
        <Node pos="r" depth="1" NCoef="0" IVar="6" Cut="8.5093772888183594e+01" cType="1" res="-6.3320873305201530e-03" rms="2.0694507658481598e-01" purity="4.0694239735603333e-01" nType="0">
          <Node pos="l" depth="2" NCoef="0" IVar="9" Cut="1.6443328857421875e+00" cType="1" res="3.2081650570034981e-03" rms="1.9613237679004669e-01" purity="1.4143265783786774e-01" nType="0">
            <Node pos="l" depth="3" NCoef="0" IVar="-1" Cut="0.0000000000000000e+00" cType="1" res="-1.1273086071014404e-02" rms="1.8145050108432770e-01" purity="1.4398871362209320e-01" nType="-99"/>
            <Node pos="r" depth="3" NCoef="0" IVar="-1" Cut="0.0000000000000000e+00" cType="1" res="3.0481170862913132e-02" rms="2.1352064609527588e-01" purity="1.3807903230190277e-01" nType="-99"/>
          </Node>
          <Node pos="r" depth="2" NCoef="0" IVar="4" Cut="3.4569049072265625e+02" cType="1" res="-1.0773849673569202e-02" rms="2.1164435148239136e-01" purity="5.3055876493453979e-01" nType="0">
            <Node pos="l" depth="3" NCoef="0" IVar="-1" Cut="0.0000000000000000e+00" cType="1" res="-4.0333136916160583e-02" rms="2.0757403969764709e-01" purity="1.2451317906379700e-01" nType="-99"/>
            <Node pos="r" depth="3" NCoef="0" IVar="-1" Cut="0.0000000000000000e+00" cType="1" res="-1.2169836089015007e-02" rms="2.1420282125473022e-01" purity="8.0883544683456421e-01" nType="-99"/>
          </Node>
        </Node>
      </Node>
    </BinaryTree>
    <BinaryTree type="DecisionTree" boostWeight="1.0000000000000000e+00" itree="135">
      <Node pos="s" depth="0" NCoef="0" IVar="0" Cut="4.4712454223632812e+02" cType="1" res="2.0342040807008743e-04" rms="1.9128236174583435e-01" purity="4.9888870120048523e-01" nType="0">
        <Node pos="l" depth="1" NCoef="0" IVar="7" Cut="-3.3316522836685181e-01" cType="1" res="-6.1908159404993057e-03" rms="1.3630598783493042e-01" purity="2.3870244622230530e-02" nType="0">
          <Node pos="l" depth="2" NCoef="0" IVar="0" Cut="3.8407131958007812e+02" cType="1" res="2.3249068181030452e-04" rms="1.4256757497787476e-01" purity="2.7591601014137268e-02" nType="0">
            <Node pos="l" depth="3" NCoef="0" IVar="-1" Cut="0.0000000000000000e+00" cType="1" res="-4.8431146889925003e-02" rms="9.5512136816978455e-02" purity="9.9633326753973961e-03" nType="-99"/>
            <Node pos="r" depth="3" NCoef="0" IVar="-1" Cut="0.0000000000000000e+00" cType="1" res="3.7815041840076447e-02" rms="1.8957823514938354e-01" purity="5.2495542913675308e-02" nType="-99"/>
          </Node>
          <Node pos="r" depth="2" NCoef="0" IVar="5" Cut="2.2202848815917969e+02" cType="1" res="-1.0166011750698090e-02" rms="1.3212616741657257e-01" purity="2.1567206829786301e-02" nType="0">
            <Node pos="l" depth="3" NCoef="0" IVar="-1" Cut="0.0000000000000000e+00" cType="1" res="-2.6413887739181519e-02" rms="1.0066478699445724e-01" purity="1.1085556820034981e-02" nType="-99"/>
            <Node pos="r" depth="3" NCoef="0" IVar="-1" Cut="0.0000000000000000e+00" cType="1" res="-5.4652117192745209e-02" rms="2.0046748220920563e-01" purity="5.4930645972490311e-02" nType="-99"/>
          </Node>
        </Node>
        <Node pos="r" depth="1" NCoef="0" IVar="10" Cut="-1.7332613468170166e+00" cType="1" res="1.9747207406908274e-03" rms="2.0387107133865356e-01" purity="6.3047599792480469e-01" nType="0">
          <Node pos="l" depth="2" NCoef="0" IVar="0" Cut="7.4269665527343750e+02" cType="1" res="1.2909574434161186e-02" rms="2.4862547218799591e-01" purity="5.4232013225555420e-01" nType="0">
            <Node pos="l" depth="3" NCoef="0" IVar="-1" Cut="0.0000000000000000e+00" cType="1" res="3.5218980163335800e-02" rms="2.7061823010444641e-01" purity="3.0419504642486572e-01" nType="-99"/>
            <Node pos="r" depth="3" NCoef="0" IVar="-1" Cut="0.0000000000000000e+00" cType="1" res="-5.8430584613233805e-04" rms="2.1989952027797699e-01" purity="8.1617826223373413e-01" nType="-99"/>
          </Node>
          <Node pos="r" depth="2" NCoef="0" IVar="8" Cut="1.7332966327667236e+00" cType="1" res="1.0706655448302627e-03" rms="1.9969581067562103e-01" purity="6.3776439428329468e-01" nType="0">
            <Node pos="l" depth="3" NCoef="0" IVar="-1" Cut="0.0000000000000000e+00" cType="1" res="1.2487962376326323e-03" rms="1.9600401818752289e-01" purity="6.5106558799743652e-01" nType="-99"/>
            <Node pos="r" depth="3" NCoef="0" IVar="-1" Cut="0.0000000000000000e+00" cType="1" res="2.9306162148714066e-02" rms="2.8137654066085815e-01" purity="2.7746278047561646e-01" nType="-99"/>
          </Node>
        </Node>
      </Node>
    </BinaryTree>
    <BinaryTree type="DecisionTree" boostWeight="1.0000000000000000e+00" itree="136">
      <Node pos="s" depth="0" NCoef="0" IVar="1" Cut="2.2938635253906250e+03" cType="1" res="7.1174645563587546e-04" rms="1.9278331100940704e-01" purity="4.9921920895576477e-01" nType="0">
        <Node pos="l" depth="1" NCoef="0" IVar="1" Cut="2.1236042480468750e+03" cType="1" res="3.8169776089489460e-03" rms="2.0834879577159882e-01" purity="7.5597785413265228e-02" nType="0">
          <Node pos="l" depth="2" NCoef="0" IVar="10" Cut="-1.1998840570449829e+00" cType="1" res="9.1484514996409416e-04" rms="1.8510533869266510e-01" purity="4.7973383218050003e-02" nType="0">
            <Node pos="l" depth="3" NCoef="0" IVar="-1" Cut="0.0000000000000000e+00" cType="1" res="2.4153424426913261e-02" rms="2.2379724681377411e-01" purity="7.9222112894058228e-02" nType="-99"/>
            <Node pos="r" depth="3" NCoef="0" IVar="-1" Cut="0.0000000000000000e+00" cType="1" res="-4.6658338978886604e-03" rms="1.7475046217441559e-01" purity="4.0669906884431839e-02" nType="-99"/>
          </Node>
          <Node pos="r" depth="2" NCoef="0" IVar="-1" Cut="0.0000000000000000e+00" cType="1" res="2.8886018320918083e-02" rms="4.2398220300674438e-01" purity="4.9367848038673401e-01" nType="-99"/>
        </Node>
        <Node pos="r" depth="1" NCoef="0" IVar="1" Cut="2.5492595214843750e+03" cType="1" res="-2.5748901534825563e-03" rms="1.7474502325057983e-01" purity="9.4758844375610352e-01" nType="0">
          <Node pos="l" depth="2" NCoef="0" IVar="-1" Cut="0.0000000000000000e+00" cType="1" res="-2.0481161773204803e-02" rms="3.4288123250007629e-01" purity="7.2247660160064697e-01" nType="-99"/>
          <Node pos="r" depth="2" NCoef="0" IVar="0" Cut="1.5078071289062500e+03" cType="1" res="-1.2433680240064859e-04" rms="1.4474445581436157e-01" purity="9.7222268581390381e-01" nType="0">
            <Node pos="l" depth="3" NCoef="0" IVar="-1" Cut="0.0000000000000000e+00" cType="1" res="-5.9830322861671448e-03" rms="1.5256240963935852e-01" purity="9.6880018711090088e-01" nType="-99"/>
            <Node pos="r" depth="3" NCoef="0" IVar="-1" Cut="0.0000000000000000e+00" cType="1" res="5.9555009007453918e-02" rms="8.0946363508701324e-02" purity="9.9333614110946655e-01" nType="-99"/>
          </Node>
        </Node>
      </Node>
    </BinaryTree>
    <BinaryTree type="DecisionTree" boostWeight="1.0000000000000000e+00" itree="137">
      <Node pos="s" depth="0" NCoef="0" IVar="8" Cut="1.7332985401153564e+00" cType="1" res="6.8797887070104480e-04" rms="1.9380107522010803e-01" purity="4.9883347749710083e-01" nType="0">
        <Node pos="l" depth="1" NCoef="0" IVar="8" Cut="-1.9364697933197021e+00" cType="1" res="1.4740858459845185e-03" rms="1.9324624538421631e-01" purity="5.1438623666763306e-01" nType="0">
          <Node pos="l" depth="2" NCoef="0" IVar="-1" Cut="0.0000000000000000e+00" cType="1" res="-6.8839058279991150e-02" rms="1.7062303423881531e-01" purity="9.9107109010219574e-02" nType="-99"/>
          <Node pos="r" depth="2" NCoef="0" IVar="2" Cut="2.1366233006119728e-02" cType="1" res="2.1731534507125616e-03" rms="1.9377562403678894e-01" purity="5.2565509080886841e-01" nType="0">
            <Node pos="l" depth="3" NCoef="0" IVar="-1" Cut="0.0000000000000000e+00" cType="1" res="1.6660276800394058e-02" rms="1.9948020577430725e-01" purity="2.8545290231704712e-01" nType="-99"/>
            <Node pos="r" depth="3" NCoef="0" IVar="-1" Cut="0.0000000000000000e+00" cType="1" res="-1.4362229558173567e-04" rms="1.9069625437259674e-01" purity="6.5087854862213135e-01" nType="-99"/>
          </Node>
        </Node>
        <Node pos="r" depth="1" NCoef="0" IVar="-1" Cut="0.0000000000000000e+00" cType="1" res="-4.4494688510894775e-02" rms="2.0525895059108734e-01" purity="1.4325909316539764e-01" nType="-99"/>
      </Node>
    </BinaryTree>
    <BinaryTree type="DecisionTree" boostWeight="1.0000000000000000e+00" itree="138">
      <Node pos="s" depth="0" NCoef="0" IVar="7" Cut="6.7276257276535034e-01" cType="1" res="-1.4564211014658213e-03" rms="1.9031842052936554e-01" purity="5.0177031755447388e-01" nType="0">
        <Node pos="l" depth="1" NCoef="0" IVar="3" Cut="3.5076727294921875e+02" cType="1" res="-1.3675143418367952e-04" rms="1.8809324502944946e-01" purity="5.4458445310592651e-01" nType="0">
          <Node pos="l" depth="2" NCoef="0" IVar="-1" Cut="0.0000000000000000e+00" cType="1" res="-7.5586058199405670e-02" rms="1.1222594231367111e-01" purity="1.6843724995851517e-02" nType="-99"/>
          <Node pos="r" depth="2" NCoef="0" IVar="8" Cut="-1.7330297231674194e+00" cType="1" res="6.1375368386507034e-04" rms="1.9062355160713196e-01" purity="5.6709897518157959e-01" nType="0">
            <Node pos="l" depth="3" NCoef="0" IVar="-1" Cut="0.0000000000000000e+00" cType="1" res="-4.4284518808126450e-02" rms="1.8208056688308716e-01" purity="1.6537255048751831e-01" nType="-99"/>
            <Node pos="r" depth="3" NCoef="0" IVar="-1" Cut="0.0000000000000000e+00" cType="1" res="3.5435520112514496e-03" rms="1.9088765978813171e-01" purity="5.8124893903732300e-01" nType="-99"/>
          </Node>
        </Node>
        <Node pos="r" depth="1" NCoef="0" IVar="1" Cut="1.8887801513671875e+03" cType="1" res="-6.5804286859929562e-03" rms="1.9863918423652649e-01" purity="3.3553177118301392e-01" nType="0">
          <Node pos="l" depth="2" NCoef="0" IVar="10" Cut="-6.6731458902359009e-01" cType="1" res="8.7252462981268764e-04" rms="1.4841061830520630e-01" purity="2.5179112330079079e-02" nType="0">
            <Node pos="l" depth="3" NCoef="0" IVar="-1" Cut="0.0000000000000000e+00" cType="1" res="5.2794203162193298e-02" rms="1.9454567134380341e-01" purity="4.6821113675832748e-02" nType="-99"/>
            <Node pos="r" depth="3" NCoef="0" IVar="-1" Cut="0.0000000000000000e+00" cType="1" res="-2.4160746484994888e-02" rms="1.2497270107269287e-01" purity="1.6557784751057625e-02" nType="-99"/>
          </Node>
          <Node pos="r" depth="2" NCoef="0" IVar="0" Cut="9.0944866943359375e+02" cType="1" res="-1.6711609438061714e-02" rms="2.5094887614250183e-01" purity="7.5740998983383179e-01" nType="0">
            <Node pos="l" depth="3" NCoef="0" IVar="-1" Cut="0.0000000000000000e+00" cType="1" res="-3.4979313611984253e-02" rms="3.0307167768478394e-01" purity="5.8707422018051147e-01" nType="-99"/>
            <Node pos="r" depth="3" NCoef="0" IVar="-1" Cut="0.0000000000000000e+00" cType="1" res="-8.5434392094612122e-03" rms="1.8585954606533051e-01" purity="9.2277634143829346e-01" nType="-99"/>
          </Node>
        </Node>
      </Node>
    </BinaryTree>
    <BinaryTree type="DecisionTree" boostWeight="1.0000000000000000e+00" itree="139">
      <Node pos="s" depth="0" NCoef="0" IVar="7" Cut="-9.2333459854125977e-01" cType="1" res="-4.1374156717211008e-04" rms="1.8962311744689941e-01" purity="4.9792701005935669e-01" nType="0">
        <Node pos="l" depth="1" NCoef="0" IVar="0" Cut="7.5571936035156250e+02" cType="1" res="-9.0064946562051773e-03" rms="1.7862746119499207e-01" purity="2.5270286202430725e-01" nType="0">
          <Node pos="l" depth="2" NCoef="0" IVar="1" Cut="1.7663361816406250e+03" cType="1" res="-1.2208574451506138e-02" rms="1.6468128561973572e-01" purity="8.4301568567752838e-02" nType="0">
            <Node pos="l" depth="3" NCoef="0" IVar="-1" Cut="0.0000000000000000e+00" cType="1" res="-4.2731266468763351e-02" rms="8.2148984074592590e-02" purity="6.9777998141944408e-03" nType="-99"/>
            <Node pos="r" depth="3" NCoef="0" IVar="-1" Cut="0.0000000000000000e+00" cType="1" res="-3.8884323090314865e-02" rms="2.9480516910552979e-01" purity="3.1370076537132263e-01" nType="-99"/>
          </Node>
          <Node pos="r" depth="2" NCoef="0" IVar="-1" Cut="0.0000000000000000e+00" cType="1" res="1.8679911736398935e-03" rms="2.1578872203826904e-01" purity="7.7278220653533936e-01" nType="-99"/>
        </Node>
        <Node pos="r" depth="1" NCoef="0" IVar="9" Cut="1.1999117136001587e+00" cType="1" res="9.1579213039949536e-04" rms="1.9123350083827972e-01" purity="5.3586989641189575e-01" nType="0">
          <Node pos="l" depth="2" NCoef="0" IVar="0" Cut="4.4441793823242188e+02" cType="1" res="-5.4043333511799574e-04" rms="1.8542650341987610e-01" purity="5.5311465263366699e-01" nType="0">
            <Node pos="l" depth="3" NCoef="0" IVar="-1" Cut="0.0000000000000000e+00" cType="1" res="2.1260255947709084e-02" rms="1.5931256115436554e-01" purity="3.4250993281602859e-02" nType="-99"/>
            <Node pos="r" depth="3" NCoef="0" IVar="-1" Cut="0.0000000000000000e+00" cType="1" res="-4.9223825335502625e-03" rms="1.9107165932655334e-01" purity="6.7610251903533936e-01" nType="-99"/>
          </Node>
          <Node pos="r" depth="2" NCoef="0" IVar="5" Cut="1.3741410827636719e+02" cType="1" res="9.4913132488727570e-03" rms="2.2218172252178192e-01" purity="4.3431779742240906e-01" nType="0">
            <Node pos="l" depth="3" NCoef="0" IVar="-1" Cut="0.0000000000000000e+00" cType="1" res="-5.3855646401643753e-02" rms="1.4744517207145691e-01" purity="6.3383691012859344e-02" nType="-99"/>
            <Node pos="r" depth="3" NCoef="0" IVar="-1" Cut="0.0000000000000000e+00" cType="1" res="3.5588946193456650e-02" rms="2.4455332756042480e-01" purity="5.7935172319412231e-01" nType="-99"/>
          </Node>
        </Node>
      </Node>
    </BinaryTree>
    <BinaryTree type="DecisionTree" boostWeight="1.0000000000000000e+00" itree="140">
      <Node pos="s" depth="0" NCoef="0" IVar="10" Cut="-2.2666449546813965e+00" cType="1" res="-1.9032615236938000e-03" rms="1.8911169469356537e-01" purity="4.9610731005668640e-01" nType="0">
        <Node pos="l" depth="1" NCoef="0" IVar="-1" Cut="0.0000000000000000e+00" cType="1" res="-4.5791383832693100e-02" rms="2.2342647612094879e-01" purity="3.2019871473312378e-01" nType="-99"/>
        <Node pos="r" depth="1" NCoef="0" IVar="8" Cut="-1.4665566682815552e+00" cType="1" res="-1.3177895452827215e-03" rms="1.8804889917373657e-01" purity="5.0092869997024536e-01" nType="0">
          <Node pos="l" depth="2" NCoef="0" IVar="3" Cut="5.6085174560546875e+02" cType="1" res="9.7911711782217026e-03" rms="2.3141442239284515e-01" purity="2.3877686262130737e-01" nType="0">
            <Node pos="l" depth="3" NCoef="0" IVar="-1" Cut="0.0000000000000000e+00" cType="1" res="5.6615520268678665e-02" rms="2.3494787514209747e-01" purity="1.3387934863567352e-01" nType="-99"/>
            <Node pos="r" depth="3" NCoef="0" IVar="-1" Cut="0.0000000000000000e+00" cType="1" res="-6.8012224510312080e-03" rms="2.2697398066520691e-01" purity="3.4673210978507996e-01" nType="-99"/>
          </Node>
          <Node pos="r" depth="2" NCoef="0" IVar="9" Cut="1.1997933387756348e+00" cType="1" res="-2.1607410162687302e-03" rms="1.8431504070758820e-01" purity="5.2082085609436035e-01" nType="0">
            <Node pos="l" depth="3" NCoef="0" IVar="-1" Cut="0.0000000000000000e+00" cType="1" res="-2.8675952926278114e-03" rms="1.8091818690299988e-01" purity="5.4007220268249512e-01" nType="-99"/>
            <Node pos="r" depth="3" NCoef="0" IVar="-1" Cut="0.0000000000000000e+00" cType="1" res="-2.3297727108001709e-02" rms="2.0398677885532379e-01" purity="4.0125215053558350e-01" nType="-99"/>
          </Node>
        </Node>
      </Node>
    </BinaryTree>
    <BinaryTree type="DecisionTree" boostWeight="1.0000000000000000e+00" itree="141">
      <Node pos="s" depth="0" NCoef="0" IVar="1" Cut="2.2938591308593750e+03" cType="1" res="2.6687111239880323e-03" rms="1.9285877048969269e-01" purity="5.0018620491027832e-01" nType="0">
        <Node pos="l" depth="1" NCoef="0" IVar="5" Cut="2.3690826416015625e+02" cType="1" res="5.6360173039138317e-03" rms="2.1007770299911499e-01" purity="7.9996429383754730e-02" nType="0">
          <Node pos="l" depth="2" NCoef="0" IVar="10" Cut="-1.9999173879623413e+00" cType="1" res="2.5889733806252480e-03" rms="1.7203912138938904e-01" purity="4.2388916015625000e-02" nType="0">
            <Node pos="l" depth="3" NCoef="0" IVar="-1" Cut="0.0000000000000000e+00" cType="1" res="6.4042560756206512e-02" rms="2.5385114550590515e-01" purity="8.2865133881568909e-02" nType="-99"/>
            <Node pos="r" depth="3" NCoef="0" IVar="-1" Cut="0.0000000000000000e+00" cType="1" res="3.8240675348788500e-03" rms="1.6515110433101654e-01" purity="3.9736088365316391e-02" nType="-99"/>
          </Node>
          <Node pos="r" depth="2" NCoef="0" IVar="9" Cut="-6.6356152296066284e-01" cType="1" res="2.1748451516032219e-02" rms="3.4739655256271362e-01" purity="2.7886086702346802e-01" nType="0">
            <Node pos="l" depth="3" NCoef="0" IVar="-1" Cut="0.0000000000000000e+00" cType="1" res="5.3596395999193192e-02" rms="3.6828336119651794e-01" purity="3.3672681450843811e-01" nType="-99"/>
            <Node pos="r" depth="3" NCoef="0" IVar="-1" Cut="0.0000000000000000e+00" cType="1" res="2.5816082488745451e-03" rms="3.3548343181610107e-01" purity="2.5176081061363220e-01" nType="-99"/>
          </Node>
        </Node>
        <Node pos="r" depth="1" NCoef="0" IVar="5" Cut="1.6351545715332031e+02" cType="1" res="-4.8972136573866010e-04" rms="1.7259816825389862e-01" purity="9.4744068384170532e-01" nType="0">
          <Node pos="l" depth="2" NCoef="0" IVar="-1" Cut="0.0000000000000000e+00" cType="1" res="1.2205670587718487e-02" rms="3.4126022458076477e-01" purity="6.4227825403213501e-01" nType="-99"/>
          <Node pos="r" depth="2" NCoef="0" IVar="5" Cut="2.1485665893554688e+02" cType="1" res="-1.4747985405847430e-03" rms="1.5660931169986725e-01" purity="9.6591436862945557e-01" nType="0">
            <Node pos="l" depth="3" NCoef="0" IVar="-1" Cut="0.0000000000000000e+00" cType="1" res="-3.5432342439889908e-02" rms="2.8346934914588928e-01" purity="8.5366857051849365e-01" nType="-99"/>
            <Node pos="r" depth="3" NCoef="0" IVar="-1" Cut="0.0000000000000000e+00" cType="1" res="7.4107269756495953e-04" rms="1.4388452470302582e-01" purity="9.7351735830307007e-01" nType="-99"/>
          </Node>
        </Node>
      </Node>
    </BinaryTree>
    <BinaryTree type="DecisionTree" boostWeight="1.0000000000000000e+00" itree="142">
      <Node pos="s" depth="0" NCoef="0" IVar="8" Cut="-1.7332795858383179e+00" cType="1" res="1.2454089010134339e-03" rms="1.9387260079383850e-01" purity="5.0733369588851929e-01" nType="0">
        <Node pos="l" depth="1" NCoef="0" IVar="-1" Cut="0.0000000000000000e+00" cType="1" res="3.3315498381853104e-02" rms="2.2588330507278442e-01" purity="1.9358445703983307e-01" nType="-99"/>
        <Node pos="r" depth="1" NCoef="0" IVar="7" Cut="1.7187820374965668e-01" cType="1" res="6.7282258532941341e-04" rms="1.9238416850566864e-01" purity="5.2056908607482910e-01" nType="0">
          <Node pos="l" depth="2" NCoef="0" IVar="6" Cut="8.5653419494628906e+01" cType="1" res="-1.6149792354553938e-03" rms="1.8520413339138031e-01" purity="5.3868925571441650e-01" nType="0">
            <Node pos="l" depth="3" NCoef="0" IVar="-1" Cut="0.0000000000000000e+00" cType="1" res="-2.5160957127809525e-02" rms="1.6547331213951111e-01" purity="1.7300528287887573e-01" nType="-99"/>
            <Node pos="r" depth="3" NCoef="0" IVar="-1" Cut="0.0000000000000000e+00" cType="1" res="1.8755077617242932e-03" rms="1.9145466387271881e-01" purity="6.6418802738189697e-01" nType="-99"/>
          </Node>
          <Node pos="r" depth="2" NCoef="0" IVar="10" Cut="-9.3329662084579468e-01" cType="1" res="3.8949791342020035e-03" rms="2.0202039182186127e-01" purity="4.9504834413528442e-01" nType="0">
            <Node pos="l" depth="3" NCoef="0" IVar="-1" Cut="0.0000000000000000e+00" cType="1" res="-9.2595862224698067e-03" rms="2.0582237839698792e-01" purity="4.9415960907936096e-01" nType="-99"/>
            <Node pos="r" depth="3" NCoef="0" IVar="-1" Cut="0.0000000000000000e+00" cType="1" res="1.6967557370662689e-02" rms="2.0087853074073792e-01" purity="4.9529895186424255e-01" nType="-99"/>
          </Node>
        </Node>
      </Node>
    </BinaryTree>
    <BinaryTree type="DecisionTree" boostWeight="1.0000000000000000e+00" itree="143">
      <Node pos="s" depth="0" NCoef="0" IVar="10" Cut="2.2664608955383301e+00" cType="1" res="6.6811393480747938e-04" rms="1.9285988807678223e-01" purity="5.0397276878356934e-01" nType="0">
        <Node pos="l" depth="1" NCoef="0" IVar="10" Cut="-2.0761899948120117e+00" cType="1" res="1.1008850997313857e-03" rms="1.9160693883895874e-01" purity="5.0891739130020142e-01" nType="0">
          <Node pos="l" depth="2" NCoef="0" IVar="-1" Cut="0.0000000000000000e+00" cType="1" res="-1.6480576246976852e-02" rms="2.4195714294910431e-01" purity="3.8038939237594604e-01" nType="-99"/>
          <Node pos="r" depth="2" NCoef="0" IVar="2" Cut="6.4097017049789429e-02" cType="1" res="1.5809405595064163e-03" rms="1.8904736638069153e-01" purity="5.1462185382843018e-01" nType="0">
            <Node pos="l" depth="3" NCoef="0" IVar="-1" Cut="0.0000000000000000e+00" cType="1" res="8.3074374124407768e-03" rms="1.9902367889881134e-01" purity="3.9707624912261963e-01" nType="-99"/>
            <Node pos="r" depth="3" NCoef="0" IVar="-1" Cut="0.0000000000000000e+00" cType="1" res="-6.2809744849801064e-03" rms="1.6556650400161743e-01" purity="7.6693153381347656e-01" nType="-99"/>
          </Node>
        </Node>
        <Node pos="r" depth="1" NCoef="0" IVar="-1" Cut="0.0000000000000000e+00" cType="1" res="-2.9213488101959229e-02" rms="2.3514533042907715e-01" purity="3.1532847881317139e-01" nType="-99"/>
      </Node>
    </BinaryTree>
    <BinaryTree type="DecisionTree" boostWeight="1.0000000000000000e+00" itree="144">
      <Node pos="s" depth="0" NCoef="0" IVar="0" Cut="4.4441381835937500e+02" cType="1" res="1.7460335220675915e-04" rms="1.9150048494338989e-01" purity="4.9959641695022583e-01" nType="0">
        <Node pos="l" depth="1" NCoef="0" IVar="7" Cut="-2.7853801846504211e-01" cType="1" res="-4.4820569455623627e-03" rms="1.4041368663311005e-01" purity="2.5000534951686859e-02" nType="0">
          <Node pos="l" depth="2" NCoef="0" IVar="4" Cut="3.3429129028320312e+02" cType="1" res="2.6572667993605137e-03" rms="1.5234698355197906e-01" purity="3.0961561948060989e-02" nType="0">
            <Node pos="l" depth="3" NCoef="0" IVar="-1" Cut="0.0000000000000000e+00" cType="1" res="-4.4200155884027481e-02" rms="9.3693308532238007e-02" purity="9.0779140591621399e-03" nType="-99"/>
            <Node pos="r" depth="3" NCoef="0" IVar="-1" Cut="0.0000000000000000e+00" cType="1" res="4.2774029076099396e-02" rms="2.0924885571002960e-01" purity="6.2568806111812592e-02" nType="-99"/>
          </Node>
          <Node pos="r" depth="2" NCoef="0" IVar="5" Cut="2.2183720397949219e+02" cType="1" res="-9.3320989981293678e-03" rms="1.3147054612636566e-01" purity="2.0950961858034134e-02" nType="0">
            <Node pos="l" depth="3" NCoef="0" IVar="-1" Cut="0.0000000000000000e+00" cType="1" res="-2.6052512228488922e-02" rms="1.0272512584924698e-01" purity="1.1213880963623524e-02" nType="-99"/>
            <Node pos="r" depth="3" NCoef="0" IVar="-1" Cut="0.0000000000000000e+00" cType="1" res="-4.8783622682094574e-02" rms="1.9455671310424805e-01" purity="5.1320135593414307e-02" nType="-99"/>
          </Node>
        </Node>
        <Node pos="r" depth="1" NCoef="0" IVar="8" Cut="-1.7330486774444580e+00" cType="1" res="1.4742698986083269e-03" rms="2.0346303284168243e-01" purity="6.3205534219741821e-01" nType="0">
          <Node pos="l" depth="2" NCoef="0" IVar="-1" Cut="0.0000000000000000e+00" cType="1" res="4.7099296003580093e-02" rms="2.6622977852821350e-01" purity="2.8939554095268250e-01" nType="-99"/>
          <Node pos="r" depth="2" NCoef="0" IVar="8" Cut="1.5048032999038696e+00" cType="1" res="5.6051899446174502e-04" rms="2.0072411000728607e-01" purity="6.4464867115020752e-01" nType="0">
            <Node pos="l" depth="3" NCoef="0" IVar="-1" Cut="0.0000000000000000e+00" cType="1" res="-1.5483009628951550e-03" rms="1.9579565525054932e-01" purity="6.6329884529113770e-01" nType="-99"/>
            <Node pos="r" depth="3" NCoef="0" IVar="-1" Cut="0.0000000000000000e+00" cType="1" res="3.2639294862747192e-02" rms="2.6607170701026917e-01" purity="3.5022947192192078e-01" nType="-99"/>
          </Node>
        </Node>
      </Node>
    </BinaryTree>
    <BinaryTree type="DecisionTree" boostWeight="1.0000000000000000e+00" itree="145">
      <Node pos="s" depth="0" NCoef="0" IVar="6" Cut="1.7662754821777344e+02" cType="1" res="-8.5972645319998264e-04" rms="1.9006879627704620e-01" purity="4.9966025352478027e-01" nType="0">
        <Node pos="l" depth="1" NCoef="0" IVar="1" Cut="1.9511928710937500e+03" cType="1" res="-3.2304537016898394e-03" rms="2.0313909649848938e-01" purity="2.8175723552703857e-01" nType="0">
          <Node pos="l" depth="2" NCoef="0" IVar="1" Cut="1.8199459228515625e+03" cType="1" res="-1.7894826305564493e-04" rms="1.4578248560428619e-01" purity="2.5108629837632179e-02" nType="0">
            <Node pos="l" depth="3" NCoef="0" IVar="-1" Cut="0.0000000000000000e+00" cType="1" res="1.3660174794495106e-02" rms="1.2879142165184021e-01" purity="1.9528413191437721e-02" nType="-99"/>
            <Node pos="r" depth="3" NCoef="0" IVar="-1" Cut="0.0000000000000000e+00" cType="1" res="-3.0198827385902405e-02" rms="2.5962370634078979e-01" purity="8.1036679446697235e-02" nType="-99"/>
          </Node>
          <Node pos="r" depth="2" NCoef="0" IVar="4" Cut="5.2629669189453125e+02" cType="1" res="-8.6185205727815628e-03" rms="2.7668946981430054e-01" purity="7.3492372035980225e-01" nType="0">
            <Node pos="l" depth="3" NCoef="0" IVar="-1" Cut="0.0000000000000000e+00" cType="1" res="-1.7524126917123795e-02" rms="3.2782882452011108e-01" purity="5.8537465333938599e-01" nType="-99"/>
            <Node pos="r" depth="3" NCoef="0" IVar="-1" Cut="0.0000000000000000e+00" cType="1" res="2.3268046788871288e-03" rms="2.1275761723518372e-01" purity="8.8539224863052368e-01" nType="-99"/>
          </Node>
        </Node>
        <Node pos="r" depth="1" NCoef="0" IVar="1" Cut="1.9959458007812500e+03" cType="1" res="3.5739974118769169e-03" rms="1.6274029016494751e-01" purity="9.0718168020248413e-01" nType="0">
          <Node pos="l" depth="2" NCoef="0" IVar="-1" Cut="0.0000000000000000e+00" cType="1" res="2.8990911319851875e-02" rms="3.1730756163597107e-01" purity="1.5677125751972198e-01" nType="-99"/>
          <Node pos="r" depth="2" NCoef="0" IVar="6" Cut="2.4898703002929688e+02" cType="1" res="1.8917788984254003e-03" rms="1.4298500120639801e-01" purity="9.6788096427917480e-01" nType="0">
            <Node pos="l" depth="3" NCoef="0" IVar="-1" Cut="0.0000000000000000e+00" cType="1" res="-5.6520579382777214e-03" rms="1.8979611992835999e-01" purity="9.3540549278259277e-01" nType="-99"/>
            <Node pos="r" depth="3" NCoef="0" IVar="-1" Cut="0.0000000000000000e+00" cType="1" res="3.5977423191070557e-02" rms="1.0237488895654678e-01" purity="9.8861622810363770e-01" nType="-99"/>
          </Node>
        </Node>
      </Node>
    </BinaryTree>
    <BinaryTree type="DecisionTree" boostWeight="1.0000000000000000e+00" itree="146">
      <Node pos="s" depth="0" NCoef="0" IVar="8" Cut="1.4666378498077393e+00" cType="1" res="2.6954445638693869e-04" rms="1.8988820910453796e-01" purity="4.9559488892555237e-01" nType="0">
        <Node pos="l" depth="1" NCoef="0" IVar="4" Cut="5.9914093017578125e+02" cType="1" res="1.1728167301043868e-03" rms="1.8824186921119690e-01" purity="5.1749575138092041e-01" nType="0">
          <Node pos="l" depth="2" NCoef="0" IVar="4" Cut="1.8317829895019531e+02" cType="1" res="-1.2765705469064415e-04" rms="2.0162810385227203e-01" purity="3.7292611598968506e-01" nType="0">
            <Node pos="l" depth="3" NCoef="0" IVar="-1" Cut="0.0000000000000000e+00" cType="1" res="-8.4398344159126282e-02" rms="6.9357529282569885e-02" purity="6.7769908346235752e-03" nType="-99"/>
            <Node pos="r" depth="3" NCoef="0" IVar="-1" Cut="0.0000000000000000e+00" cType="1" res="2.2997925989329815e-03" rms="2.1173875033855438e-01" purity="4.1574800014495850e-01" nType="-99"/>
          </Node>
          <Node pos="r" depth="2" NCoef="0" IVar="1" Cut="3.2926145019531250e+03" cType="1" res="5.2254083566367626e-03" rms="1.3838346302509308e-01" purity="9.6800976991653442e-01" nType="0">
            <Node pos="l" depth="3" NCoef="0" IVar="-1" Cut="0.0000000000000000e+00" cType="1" res="3.1781397759914398e-02" rms="2.3380084335803986e-01" purity="8.9963728189468384e-01" nType="-99"/>
            <Node pos="r" depth="3" NCoef="0" IVar="-1" Cut="0.0000000000000000e+00" cType="1" res="1.5709284693002701e-02" rms="7.3151931166648865e-02" purity="9.9445188045501709e-01" nType="-99"/>
          </Node>
        </Node>
        <Node pos="r" depth="1" NCoef="0" IVar="1" Cut="1.6082506103515625e+03" cType="1" res="-1.1452031321823597e-02" rms="2.0973317325115204e-01" purity="2.1139167249202728e-01" nType="0">
          <Node pos="l" depth="2" NCoef="0" IVar="-1" Cut="0.0000000000000000e+00" cType="1" res="-4.4224774464964867e-03" rms="9.3010120093822479e-02" purity="8.9304642751812935e-03" nType="-99"/>
          <Node pos="r" depth="2" NCoef="0" IVar="-1" Cut="0.0000000000000000e+00" cType="1" res="-2.9976841062307358e-02" rms="2.7720785140991211e-01" purity="4.0090614557266235e-01" nType="-99"/>
        </Node>
      </Node>
    </BinaryTree>
    <BinaryTree type="DecisionTree" boostWeight="1.0000000000000000e+00" itree="147">
      <Node pos="s" depth="0" NCoef="0" IVar="7" Cut="-5.9747606515884399e-01" cType="1" res="8.2670769188553095e-04" rms="1.9105845689773560e-01" purity="4.9893465638160706e-01" nType="0">
        <Node pos="l" depth="1" NCoef="0" IVar="0" Cut="1.0220661010742188e+03" cType="1" res="-5.6031499989330769e-03" rms="1.8932354450225830e-01" purity="3.5560870170593262e-01" nType="0">
          <Node pos="l" depth="2" NCoef="0" IVar="1" Cut="1.9564573974609375e+03" cType="1" res="-8.8082598522305489e-03" rms="1.9530983269214630e-01" purity="2.2626914083957672e-01" nType="0">
            <Node pos="l" depth="3" NCoef="0" IVar="-1" Cut="0.0000000000000000e+00" cType="1" res="-8.4947906434535980e-03" rms="1.3979035615921021e-01" purity="2.3522391915321350e-02" nType="-99"/>
            <Node pos="r" depth="3" NCoef="0" IVar="-1" Cut="0.0000000000000000e+00" cType="1" res="-3.2640997320413589e-02" rms="2.8618213534355164e-01" purity="7.0737904310226440e-01" nType="-99"/>
          </Node>
          <Node pos="r" depth="2" NCoef="0" IVar="-1" Cut="0.0000000000000000e+00" cType="1" res="3.9178196340799332e-02" rms="1.5769171714782715e-01" purity="9.5704215764999390e-01" nType="-99"/>
        </Node>
        <Node pos="r" depth="1" NCoef="0" IVar="8" Cut="1.1996525526046753e+00" cType="1" res="2.7411079499870539e-03" rms="1.9153027236461639e-01" purity="5.4160797595977783e-01" nType="0">
          <Node pos="l" depth="2" NCoef="0" IVar="9" Cut="1.7333178520202637e+00" cType="1" res="1.0681622661650181e-03" rms="1.8374179303646088e-01" purity="5.6830793619155884e-01" nType="0">
            <Node pos="l" depth="3" NCoef="0" IVar="-1" Cut="0.0000000000000000e+00" cType="1" res="2.0335614681243896e-04" rms="1.7911423742771149e-01" purity="5.7927697896957397e-01" nType="-99"/>
            <Node pos="r" depth="3" NCoef="0" IVar="-1" Cut="0.0000000000000000e+00" cType="1" res="3.3392559736967087e-02" rms="2.5419822335243225e-01" purity="3.6436027288436890e-01" nType="-99"/>
          </Node>
          <Node pos="r" depth="2" NCoef="0" IVar="0" Cut="5.5411682128906250e+02" cType="1" res="1.5838049352169037e-02" rms="2.4366375803947449e-01" purity="3.3258277177810669e-01" nType="0">
            <Node pos="l" depth="3" NCoef="0" IVar="-1" Cut="0.0000000000000000e+00" cType="1" res="8.3383053541183472e-02" rms="2.3846365511417389e-01" purity="9.6145793795585632e-02" nType="-99"/>
            <Node pos="r" depth="3" NCoef="0" IVar="-1" Cut="0.0000000000000000e+00" cType="1" res="6.8449946120381355e-03" rms="2.4749499559402466e-01" purity="5.4110598564147949e-01" nType="-99"/>
          </Node>
        </Node>
      </Node>
    </BinaryTree>
    <BinaryTree type="DecisionTree" boostWeight="1.0000000000000000e+00" itree="148">
      <Node pos="s" depth="0" NCoef="0" IVar="1" Cut="3.6103122558593750e+03" cType="1" res="-2.0668974611908197e-03" rms="1.8856278061866760e-01" purity="4.9523451924324036e-01" nType="0">
        <Node pos="l" depth="1" NCoef="0" IVar="1" Cut="1.9262247314453125e+03" cType="1" res="-3.0492425430566072e-03" rms="2.0441088080406189e-01" purity="3.9585936069488525e-01" nType="0">
          <Node pos="l" depth="2" NCoef="0" IVar="1" Cut="1.7508092041015625e+03" cType="1" res="2.6113603962585330e-04" rms="1.5146090090274811e-01" purity="2.8097026050090790e-02" nType="0">
            <Node pos="l" depth="3" NCoef="0" IVar="-1" Cut="0.0000000000000000e+00" cType="1" res="-1.3567408546805382e-02" rms="1.1027625948190689e-01" purity="1.2824275530874729e-02" nType="-99"/>
            <Node pos="r" depth="3" NCoef="0" IVar="-1" Cut="0.0000000000000000e+00" cType="1" res="1.5822298824787140e-02" rms="2.7971896529197693e-01" purity="1.0665547102689743e-01" nType="-99"/>
          </Node>
          <Node pos="r" depth="2" NCoef="0" IVar="1" Cut="2.4073449707031250e+03" cType="1" res="-6.7391498014330864e-03" rms="2.5052294135093689e-01" purity="8.0578494071960449e-01" nType="0">
            <Node pos="l" depth="3" NCoef="0" IVar="-1" Cut="0.0000000000000000e+00" cType="1" res="-1.4809322543442249e-02" rms="3.7329092621803284e-01" purity="3.8341143727302551e-01" nType="-99"/>
            <Node pos="r" depth="3" NCoef="0" IVar="-1" Cut="0.0000000000000000e+00" cType="1" res="-6.1694653704762459e-03" rms="1.9515632092952728e-01" purity="9.4140595197677612e-01" nType="-99"/>
          </Node>
        </Node>
        <Node pos="r" depth="1" NCoef="0" IVar="-1" Cut="0.0000000000000000e+00" cType="1" res="4.5491218566894531e-02" rms="6.4369939267635345e-02" purity="9.9599808454513550e-01" nType="-99"/>
      </Node>
    </BinaryTree>
    <BinaryTree type="DecisionTree" boostWeight="1.0000000000000000e+00" itree="149">
      <Node pos="s" depth="0" NCoef="0" IVar="9" Cut="1.9998859167098999e+00" cType="1" res="-7.8417285112664104e-04" rms="1.8765649199485779e-01" purity="5.0182867050170898e-01" nType="0">
        <Node pos="l" depth="1" NCoef="0" IVar="9" Cut="1.0856333971023560e+00" cType="1" res="-1.0977027704939246e-04" rms="1.8635545670986176e-01" purity="5.1185655593872070e-01" nType="0">
          <Node pos="l" depth="2" NCoef="0" IVar="8" Cut="4.0004292130470276e-01" cType="1" res="-1.8786861328408122e-03" rms="1.8100003898143768e-01" purity="5.1833570003509521e-01" nType="0">
            <Node pos="l" depth="3" NCoef="0" IVar="-1" Cut="0.0000000000000000e+00" cType="1" res="-1.2459045276045799e-02" rms="1.7145487666130066e-01" purity="5.3849124908447266e-01" nType="-99"/>
            <Node pos="r" depth="3" NCoef="0" IVar="-1" Cut="0.0000000000000000e+00" cType="1" res="5.6199086830019951e-03" rms="1.9797475636005402e-01" purity="4.7965180873870850e-01" nType="-99"/>
          </Node>
          <Node pos="r" depth="2" NCoef="0" IVar="10" Cut="-9.3326044082641602e-01" cType="1" res="1.0643106885254383e-02" rms="2.1576093137264252e-01" purity="4.7247135639190674e-01" nType="0">
            <Node pos="l" depth="3" NCoef="0" IVar="-1" Cut="0.0000000000000000e+00" cType="1" res="-1.6249667853116989e-02" rms="2.0722980797290802e-01" purity="4.7742506861686707e-01" nType="-99"/>
            <Node pos="r" depth="3" NCoef="0" IVar="-1" Cut="0.0000000000000000e+00" cType="1" res="3.6447312682867050e-02" rms="2.1766108274459839e-01" purity="4.7118461132049561e-01" nType="-99"/>
          </Node>
        </Node>
        <Node pos="r" depth="1" NCoef="0" IVar="-1" Cut="0.0000000000000000e+00" cType="1" res="-3.9241008460521698e-02" rms="2.2211223840713501e-01" purity="2.0221813023090363e-01" nType="-99"/>
      </Node>
    </BinaryTree>
    <BinaryTree type="DecisionTree" boostWeight="1.0000000000000000e+00" itree="150">
      <Node pos="s" depth="0" NCoef="0" IVar="8" Cut="-3.9998683333396912e-01" cType="1" res="1.8871093634516001e-03" rms="1.9377033412456512e-01" purity="4.9692443013191223e-01" nType="0">
        <Node pos="l" depth="1" NCoef="0" IVar="1" Cut="2.5051694335937500e+03" cType="1" res="6.3483822159469128e-03" rms="2.0563270151615143e-01" purity="4.6101686358451843e-01" nType="0">
          <Node pos="l" depth="2" NCoef="0" IVar="1" Cut="1.8736524658203125e+03" cType="1" res="1.1337739415466785e-02" rms="2.3254489898681641e-01" purity="1.3757367432117462e-01" nType="0">
            <Node pos="l" depth="3" NCoef="0" IVar="-1" Cut="0.0000000000000000e+00" cType="1" res="1.5530147589743137e-02" rms="1.5206575393676758e-01" purity="2.7264397591352463e-02" nType="-99"/>
            <Node pos="r" depth="3" NCoef="0" IVar="-1" Cut="0.0000000000000000e+00" cType="1" res="2.7030799537897110e-02" rms="3.8195121288299561e-01" purity="4.6756210923194885e-01" nType="-99"/>
          </Node>
          <Node pos="r" depth="2" NCoef="0" IVar="7" Cut="2.5178104639053345e-01" cType="1" res="-1.4382016379386187e-03" rms="1.5421341359615326e-01" purity="9.6579474210739136e-01" nType="0">
            <Node pos="l" depth="3" NCoef="0" IVar="-1" Cut="0.0000000000000000e+00" cType="1" res="7.5860098004341125e-03" rms="1.4611755311489105e-01" purity="9.6988207101821899e-01" nType="-99"/>
            <Node pos="r" depth="3" NCoef="0" IVar="-1" Cut="0.0000000000000000e+00" cType="1" res="-3.2422997057437897e-02" rms="1.6887560486793518e-01" purity="9.5773470401763916e-01" nType="-99"/>
          </Node>
        </Node>
        <Node pos="r" depth="1" NCoef="0" IVar="5" Cut="1.5574319458007812e+02" cType="1" res="-4.4286117190495133e-04" rms="1.8723432719707489e-01" purity="5.1567775011062622e-01" nType="0">
          <Node pos="l" depth="2" NCoef="0" IVar="1" Cut="1.8876520996093750e+03" cType="1" res="6.2651825137436390e-03" rms="1.6501851379871368e-01" purity="8.0703206360340118e-02" nType="0">
            <Node pos="l" depth="3" NCoef="0" IVar="-1" Cut="0.0000000000000000e+00" cType="1" res="-2.2934169974178076e-03" rms="9.4150394201278687e-02" purity="1.0417606681585312e-02" nType="-99"/>
            <Node pos="r" depth="3" NCoef="0" IVar="-1" Cut="0.0000000000000000e+00" cType="1" res="3.2537396997213364e-02" rms="3.2409295439720154e-01" purity="3.8210377097129822e-01" nType="-99"/>
          </Node>
          <Node pos="r" depth="2" NCoef="0" IVar="3" Cut="5.7153356933593750e+02" cType="1" res="-2.9981557745486498e-03" rms="1.9497184455394745e-01" purity="6.8137258291244507e-01" nType="0">
            <Node pos="l" depth="3" NCoef="0" IVar="-1" Cut="0.0000000000000000e+00" cType="1" res="-1.7725091427564621e-02" rms="2.3250508308410645e-01" purity="2.0731522142887115e-01" nType="-99"/>
            <Node pos="r" depth="3" NCoef="0" IVar="-1" Cut="0.0000000000000000e+00" cType="1" res="-1.1490340111777186e-03" rms="1.7831183969974518e-01" purity="8.6437815427780151e-01" nType="-99"/>
          </Node>
        </Node>
      </Node>
    </BinaryTree>
    <BinaryTree type="DecisionTree" boostWeight="1.0000000000000000e+00" itree="151">
      <Node pos="s" depth="0" NCoef="0" IVar="1" Cut="2.2288713378906250e+03" cType="1" res="4.0142313810065389e-04" rms="1.9386850297451019e-01" purity="4.9981680512428284e-01" nType="0">
        <Node pos="l" depth="1" NCoef="0" IVar="1" Cut="1.9131116943359375e+03" cType="1" res="3.1742826104164124e-03" rms="2.0075558125972748e-01" purity="6.8317376077175140e-02" nType="0">
          <Node pos="l" depth="2" NCoef="0" IVar="1" Cut="1.8153474121093750e+03" cType="1" res="3.7998479092493653e-04" rms="1.5124423801898956e-01" purity="2.6112545281648636e-02" nType="0">
            <Node pos="l" depth="3" NCoef="0" IVar="-1" Cut="0.0000000000000000e+00" cType="1" res="9.4966720789670944e-03" rms="1.3438665866851807e-01" purity="2.0216189324855804e-02" nType="-99"/>
            <Node pos="r" depth="3" NCoef="0" IVar="-1" Cut="0.0000000000000000e+00" cType="1" res="-1.6742220148444176e-02" rms="2.7594140172004700e-01" purity="9.1589026153087616e-02" nType="-99"/>
          </Node>
          <Node pos="r" depth="2" NCoef="0" IVar="3" Cut="6.4895281982421875e+02" cType="1" res="1.9209545105695724e-02" rms="3.7418246269226074e-01" purity="3.1051257252693176e-01" nType="0">
            <Node pos="l" depth="3" NCoef="0" IVar="-1" Cut="0.0000000000000000e+00" cType="1" res="2.2669391706585884e-02" rms="4.3103751540184021e-01" purity="4.5436549186706543e-01" nType="-99"/>
            <Node pos="r" depth="3" NCoef="0" IVar="-1" Cut="0.0000000000000000e+00" cType="1" res="-3.1718842219561338e-03" rms="2.9644095897674561e-01" purity="1.4962920546531677e-01" nType="-99"/>
          </Node>
        </Node>
        <Node pos="r" depth="1" NCoef="0" IVar="1" Cut="2.7025104980468750e+03" cType="1" res="-2.4029598571360111e-03" rms="1.8660292029380798e-01" purity="9.3622171878814697e-01" nType="0">
          <Node pos="l" depth="2" NCoef="0" IVar="6" Cut="1.4857379150390625e+02" cType="1" res="-1.4575126580893993e-02" rms="3.4374558925628662e-01" purity="7.4004483222961426e-01" nType="0">
            <Node pos="l" depth="3" NCoef="0" IVar="-1" Cut="0.0000000000000000e+00" cType="1" res="-2.3944875225424767e-02" rms="3.8424974679946899e-01" purity="5.7861745357513428e-01" nType="-99"/>
            <Node pos="r" depth="3" NCoef="0" IVar="-1" Cut="0.0000000000000000e+00" cType="1" res="2.8837518766522408e-03" rms="3.0283942818641663e-01" purity="8.8140738010406494e-01" nType="-99"/>
          </Node>
          <Node pos="r" depth="2" NCoef="0" IVar="6" Cut="9.4902191162109375e+01" cType="1" res="3.1392776872962713e-04" rms="1.2719359993934631e-01" purity="9.8000937700271606e-01" nType="0">
            <Node pos="l" depth="3" NCoef="0" IVar="-1" Cut="0.0000000000000000e+00" cType="1" res="1.6448197886347771e-02" rms="2.4708867073059082e-01" purity="9.1313642263412476e-01" nType="-99"/>
            <Node pos="r" depth="3" NCoef="0" IVar="-1" Cut="0.0000000000000000e+00" cType="1" res="-6.5780268050730228e-03" rms="1.0639001429080963e-01" purity="9.8723477125167847e-01" nType="-99"/>
          </Node>
        </Node>
      </Node>
    </BinaryTree>
    <BinaryTree type="DecisionTree" boostWeight="1.0000000000000000e+00" itree="152">
      <Node pos="s" depth="0" NCoef="0" IVar="10" Cut="-2.2665991783142090e+00" cType="1" res="1.1554169468581676e-03" rms="1.8935859203338623e-01" purity="5.0283998250961304e-01" nType="0">
        <Node pos="l" depth="1" NCoef="0" IVar="-1" Cut="0.0000000000000000e+00" cType="1" res="3.3126678317785263e-02" rms="2.5615054368972778e-01" purity="3.4364923834800720e-01" nType="-99"/>
        <Node pos="r" depth="1" NCoef="0" IVar="3" Cut="4.7096304321289062e+02" cType="1" res="6.7652889993041754e-04" rms="1.8721404671669006e-01" purity="5.0711345672607422e-01" nType="0">
          <Node pos="l" depth="2" NCoef="0" IVar="1" Cut="1.6975952148437500e+03" cType="1" res="-3.9604883641004562e-03" rms="1.9144855439662933e-01" purity="8.1504963338375092e-02" nType="0">
            <Node pos="l" depth="3" NCoef="0" IVar="-1" Cut="0.0000000000000000e+00" cType="1" res="7.9059705603867769e-04" rms="1.2500450015068054e-01" purity="1.6938395798206329e-02" nType="-99"/>
            <Node pos="r" depth="3" NCoef="0" IVar="-1" Cut="0.0000000000000000e+00" cType="1" res="-1.6973493620753288e-02" rms="3.4650745987892151e-01" purity="3.3866760134696960e-01" nType="-99"/>
          </Node>
          <Node pos="r" depth="2" NCoef="0" IVar="5" Cut="1.6365316772460938e+02" cType="1" res="1.7413458554074168e-03" rms="1.8621174991130829e-01" purity="6.0484760999679565e-01" nType="0">
            <Node pos="l" depth="3" NCoef="0" IVar="-1" Cut="0.0000000000000000e+00" cType="1" res="-8.9083686470985413e-03" rms="1.6291141510009766e-01" purity="9.0690791606903076e-02" nType="-99"/>
            <Node pos="r" depth="3" NCoef="0" IVar="-1" Cut="0.0000000000000000e+00" cType="1" res="9.4042755663394928e-03" rms="1.9459116458892822e-01" purity="8.0720859766006470e-01" nType="-99"/>
          </Node>
        </Node>
      </Node>
    </BinaryTree>
    <BinaryTree type="DecisionTree" boostWeight="1.0000000000000000e+00" itree="153">
      <Node pos="s" depth="0" NCoef="0" IVar="3" Cut="5.0095898437500000e+02" cType="1" res="-1.0981896193698049e-03" rms="1.8895205855369568e-01" purity="4.9838802218437195e-01" nType="0">
        <Node pos="l" depth="1" NCoef="0" IVar="1" Cut="1.7862905273437500e+03" cType="1" res="-7.0338877849280834e-03" rms="1.9304600358009338e-01" purity="9.6853069961071014e-02" nType="0">
          <Node pos="l" depth="2" NCoef="0" IVar="1" Cut="1.6023360595703125e+03" cType="1" res="3.1653672340326011e-04" rms="1.4226438105106354e-01" purity="2.4139568209648132e-02" nType="0">
            <Node pos="l" depth="3" NCoef="0" IVar="-1" Cut="0.0000000000000000e+00" cType="1" res="-4.7288998961448669e-02" rms="7.8685812652111053e-02" purity="6.5246131271123886e-03" nType="-99"/>
            <Node pos="r" depth="3" NCoef="0" IVar="-1" Cut="0.0000000000000000e+00" cType="1" res="3.5868696868419647e-02" rms="2.5314095616340637e-01" purity="7.9672329127788544e-02" nType="-99"/>
          </Node>
          <Node pos="r" depth="2" NCoef="0" IVar="-1" Cut="0.0000000000000000e+00" cType="1" res="-3.4406922757625580e-02" rms="3.5225370526313782e-01" purity="4.7502645850181580e-01" nType="-99"/>
        </Node>
        <Node pos="r" depth="1" NCoef="0" IVar="10" Cut="2.0000162124633789e+00" cType="1" res="7.3743198299780488e-04" rms="1.8762990832328796e-01" purity="6.2256318330764771e-01" nType="0">
          <Node pos="l" depth="2" NCoef="0" IVar="9" Cut="-1.1999791860580444e+00" cType="1" res="1.5120343305170536e-03" rms="1.8541467189788818e-01" purity="6.3012546300888062e-01" nType="0">
            <Node pos="l" depth="3" NCoef="0" IVar="-1" Cut="0.0000000000000000e+00" cType="1" res="1.8181402236223221e-02" rms="2.1562580764293671e-01" purity="5.1729571819305420e-01" nType="-99"/>
            <Node pos="r" depth="3" NCoef="0" IVar="-1" Cut="0.0000000000000000e+00" cType="1" res="1.3661700068041682e-03" rms="1.8037892878055573e-01" purity="6.4719939231872559e-01" nType="-99"/>
          </Node>
          <Node pos="r" depth="2" NCoef="0" IVar="-1" Cut="0.0000000000000000e+00" cType="1" res="-3.3930238336324692e-02" rms="2.2940084338188171e-01" purity="4.6051499247550964e-01" nType="-99"/>
        </Node>
      </Node>
    </BinaryTree>
    <BinaryTree type="DecisionTree" boostWeight="1.0000000000000000e+00" itree="154">
      <Node pos="s" depth="0" NCoef="0" IVar="0" Cut="8.7764996337890625e+02" cType="1" res="-1.6705421730875969e-03" rms="1.8755707144737244e-01" purity="4.9754405021667480e-01" nType="0">
        <Node pos="l" depth="1" NCoef="0" IVar="10" Cut="-1.9998123645782471e+00" cType="1" res="-3.8342576008290052e-03" rms="2.0289422571659088e-01" purity="2.6144140958786011e-01" nType="0">
          <Node pos="l" depth="2" NCoef="0" IVar="-1" Cut="0.0000000000000000e+00" cType="1" res="-3.5217676311731339e-02" rms="2.2492016851902008e-01" purity="1.7838078737258911e-01" nType="-99"/>
          <Node pos="r" depth="2" NCoef="0" IVar="9" Cut="-1.2002141475677490e+00" cType="1" res="-2.9190983623266220e-03" rms="2.0147867500782013e-01" purity="2.6635476946830750e-01" nType="0">
            <Node pos="l" depth="3" NCoef="0" IVar="-1" Cut="0.0000000000000000e+00" cType="1" res="-2.4034757167100906e-02" rms="2.1016272902488708e-01" purity="1.8854613602161407e-01" nType="-99"/>
            <Node pos="r" depth="3" NCoef="0" IVar="-1" Cut="0.0000000000000000e+00" cType="1" res="-3.4249825403094292e-03" rms="1.9976188242435455e-01" purity="2.8102836012840271e-01" nType="-99"/>
          </Node>
        </Node>
        <Node pos="r" depth="1" NCoef="0" IVar="1" Cut="2.6111022949218750e+03" cType="1" res="2.4110940285027027e-03" rms="1.5445265173912048e-01" purity="9.4292855262756348e-01" nType="0">
          <Node pos="l" depth="2" NCoef="0" IVar="-1" Cut="0.0000000000000000e+00" cType="1" res="2.9933637008070946e-02" rms="3.4960728883743286e-01" purity="5.6132870912551880e-01" nType="-99"/>
          <Node pos="r" depth="2" NCoef="0" IVar="5" Cut="2.2030455017089844e+02" cType="1" res="-1.0363929904997349e-03" rms="1.1720205098390579e-01" purity="9.8168373107910156e-01" nType="0">
            <Node pos="l" depth="3" NCoef="0" IVar="-1" Cut="0.0000000000000000e+00" cType="1" res="-2.6737395673990250e-02" rms="2.5512340664863586e-01" purity="8.9744800329208374e-01" nType="-99"/>
            <Node pos="r" depth="3" NCoef="0" IVar="-1" Cut="0.0000000000000000e+00" cType="1" res="9.4774821773171425e-03" rms="8.3893500268459320e-02" purity="9.9262684583663940e-01" nType="-99"/>
          </Node>
        </Node>
      </Node>
    </BinaryTree>
    <BinaryTree type="DecisionTree" boostWeight="1.0000000000000000e+00" itree="155">
      <Node pos="s" depth="0" NCoef="0" IVar="9" Cut="-3.9951568841934204e-01" cType="1" res="-1.7754271393641829e-03" rms="1.8909564614295959e-01" purity="5.0073653459548950e-01" nType="0">
        <Node pos="l" depth="1" NCoef="0" IVar="8" Cut="1.4669681787490845e+00" cType="1" res="-6.4859301783144474e-03" rms="1.8690581619739532e-01" purity="4.7279044985771179e-01" nType="0">
          <Node pos="l" depth="2" NCoef="0" IVar="5" Cut="2.1269895935058594e+02" cType="1" res="-4.8468904569745064e-03" rms="1.8465587496757507e-01" purity="4.9141189455986023e-01" nType="0">
            <Node pos="l" depth="3" NCoef="0" IVar="-1" Cut="0.0000000000000000e+00" cType="1" res="-3.2676961272954941e-02" rms="1.6685706377029419e-01" purity="1.2047063559293747e-01" nType="-99"/>
            <Node pos="r" depth="3" NCoef="0" IVar="-1" Cut="0.0000000000000000e+00" cType="1" res="2.7084068278782070e-04" rms="1.9825583696365356e-01" purity="8.0334162712097168e-01" nType="-99"/>
          </Node>
          <Node pos="r" depth="2" NCoef="0" IVar="-1" Cut="0.0000000000000000e+00" cType="1" res="-5.7789150625467300e-02" rms="2.1284613013267517e-01" purity="2.3093871772289276e-01" nType="-99"/>
        </Node>
        <Node pos="r" depth="1" NCoef="0" IVar="7" Cut="9.8146790266036987e-01" cType="1" res="9.0659700799733400e-04" rms="1.9027912616729736e-01" purity="5.1664823293685913e-01" nType="0">
          <Node pos="l" depth="2" NCoef="0" IVar="10" Cut="6.6669934988021851e-01" cType="1" res="-8.7836646707728505e-04" rms="1.8641151487827301e-01" purity="5.4999166727066040e-01" nType="0">
            <Node pos="l" depth="3" NCoef="0" IVar="-1" Cut="0.0000000000000000e+00" cType="1" res="-9.9054928869009018e-03" rms="1.8005622923374176e-01" purity="5.5415529012680054e-01" nType="-99"/>
            <Node pos="r" depth="3" NCoef="0" IVar="-1" Cut="0.0000000000000000e+00" cType="1" res="1.0673287324607372e-02" rms="1.9938121736049652e-01" purity="5.4098379611968994e-01" nType="-99"/>
          </Node>
          <Node pos="r" depth="2" NCoef="0" IVar="10" Cut="-3.9997225999832153e-01" cType="1" res="1.3683827593922615e-02" rms="2.1552005410194397e-01" purity="2.7796748280525208e-01" nType="0">
            <Node pos="l" depth="3" NCoef="0" IVar="-1" Cut="0.0000000000000000e+00" cType="1" res="7.4120797216892242e-02" rms="2.4163721501827240e-01" purity="3.1518408656120300e-01" nType="-99"/>
            <Node pos="r" depth="3" NCoef="0" IVar="-1" Cut="0.0000000000000000e+00" cType="1" res="9.6996370702981949e-03" rms="2.0111873745918274e-01" purity="2.6021173596382141e-01" nType="-99"/>
          </Node>
        </Node>
      </Node>
    </BinaryTree>
    <BinaryTree type="DecisionTree" boostWeight="1.0000000000000000e+00" itree="156">
      <Node pos="s" depth="0" NCoef="0" IVar="9" Cut="-1.9999409914016724e+00" cType="1" res="2.4853709619492292e-03" rms="1.9127741456031799e-01" purity="4.9809312820434570e-01" nType="0">
        <Node pos="l" depth="1" NCoef="0" IVar="-1" Cut="0.0000000000000000e+00" cType="1" res="4.2846780270338058e-02" rms="2.6761725544929504e-01" purity="2.2094193100929260e-01" nType="-99"/>
        <Node pos="r" depth="1" NCoef="0" IVar="0" Cut="4.4712985229492188e+02" cType="1" res="1.8542627803981304e-03" rms="1.8800084292888641e-01" purity="5.0783205032348633e-01" nType="0">
          <Node pos="l" depth="2" NCoef="0" IVar="10" Cut="-1.1994659900665283e+00" cType="1" res="-1.8840751145035028e-03" rms="1.4303220808506012e-01" purity="2.8201777487993240e-02" nType="0">
            <Node pos="l" depth="3" NCoef="0" IVar="-1" Cut="0.0000000000000000e+00" cType="1" res="-4.8173919320106506e-02" rms="1.3968919217586517e-01" purity="2.5602620095014572e-02" nType="-99"/>
            <Node pos="r" depth="3" NCoef="0" IVar="-1" Cut="0.0000000000000000e+00" cType="1" res="4.0688705630600452e-03" rms="1.4361247420310974e-01" purity="2.8774200007319450e-02" nType="-99"/>
          </Node>
          <Node pos="r" depth="2" NCoef="0" IVar="4" Cut="3.2241723632812500e+02" cType="1" res="2.8878811281174421e-03" rms="1.9863349199295044e-01" purity="6.4044570922851562e-01" nType="0">
            <Node pos="l" depth="3" NCoef="0" IVar="-1" Cut="0.0000000000000000e+00" cType="1" res="1.8934654071927071e-02" rms="2.0493316650390625e-01" purity="1.3407789170742035e-01" nType="-99"/>
            <Node pos="r" depth="3" NCoef="0" IVar="-1" Cut="0.0000000000000000e+00" cType="1" res="1.9753787200897932e-03" rms="1.9581869244575500e-01" purity="8.5856795310974121e-01" nType="-99"/>
          </Node>
        </Node>
      </Node>
    </BinaryTree>
    <BinaryTree type="DecisionTree" boostWeight="1.0000000000000000e+00" itree="157">
      <Node pos="s" depth="0" NCoef="0" IVar="7" Cut="-1.2464965879917145e-01" cType="1" res="2.7303516981191933e-04" rms="1.8701858818531036e-01" purity="5.0085979700088501e-01" nType="0">
        <Node pos="l" depth="1" NCoef="0" IVar="5" Cut="1.5847795104980469e+02" cType="1" res="4.7256508842110634e-03" rms="1.9353859126567841e-01" purity="4.8429206013679504e-01" nType="0">
          <Node pos="l" depth="2" NCoef="0" IVar="5" Cut="1.2232701110839844e+02" cType="1" res="-2.6885154657065868e-03" rms="1.4086467027664185e-01" purity="6.3333205878734589e-02" nType="0">
            <Node pos="l" depth="3" NCoef="0" IVar="-1" Cut="0.0000000000000000e+00" cType="1" res="-3.7349320948123932e-02" rms="1.1342504620552063e-01" purity="3.2816488295793533e-02" nType="-99"/>
            <Node pos="r" depth="3" NCoef="0" IVar="-1" Cut="0.0000000000000000e+00" cType="1" res="1.0519335046410561e-02" rms="1.7351436614990234e-01" purity="1.0848230123519897e-01" nType="-99"/>
          </Node>
          <Node pos="r" depth="2" NCoef="0" IVar="1" Cut="3.0462995605468750e+03" cType="1" res="7.8928787261247635e-03" rms="2.1201007068157196e-01" purity="6.6411978006362915e-01" nType="0">
            <Node pos="l" depth="3" NCoef="0" IVar="-1" Cut="0.0000000000000000e+00" cType="1" res="2.2672362625598907e-02" rms="2.6900437474250793e-01" purity="4.2112794518470764e-01" nType="-99"/>
            <Node pos="r" depth="3" NCoef="0" IVar="-1" Cut="0.0000000000000000e+00" cType="1" res="-2.8341719880700111e-02" rms="8.8360518217086792e-02" purity="9.9187535047531128e-01" nType="-99"/>
          </Node>
        </Node>
        <Node pos="r" depth="1" NCoef="0" IVar="0" Cut="8.8849768066406250e+02" cType="1" res="-3.1872759573161602e-03" rms="1.8171489238739014e-01" purity="5.1373529434204102e-01" nType="0">
          <Node pos="l" depth="2" NCoef="0" IVar="0" Cut="4.4010421752929688e+02" cType="1" res="-7.2079449892044067e-03" rms="1.9592781364917755e-01" purity="2.7356770634651184e-01" nType="0">
            <Node pos="l" depth="3" NCoef="0" IVar="-1" Cut="0.0000000000000000e+00" cType="1" res="6.9377192994579673e-04" rms="1.4812247455120087e-01" purity="2.6636481285095215e-02" nType="-99"/>
            <Node pos="r" depth="3" NCoef="0" IVar="-1" Cut="0.0000000000000000e+00" cType="1" res="-2.0594868808984756e-02" rms="2.1448017656803131e-01" purity="3.8843381404876709e-01" nType="-99"/>
          </Node>
          <Node pos="r" depth="2" NCoef="0" IVar="5" Cut="2.0268440246582031e+02" cType="1" res="4.0844446048140526e-03" rms="1.5241645276546478e-01" purity="9.4809871912002563e-01" nType="0">
            <Node pos="l" depth="3" NCoef="0" IVar="-1" Cut="0.0000000000000000e+00" cType="1" res="2.5463530793786049e-02" rms="3.0839431285858154e-01" purity="7.1698242425918579e-01" nType="-99"/>
            <Node pos="r" depth="3" NCoef="0" IVar="-1" Cut="0.0000000000000000e+00" cType="1" res="6.7021129652857780e-03" rms="1.0661861300468445e-01" purity="9.8599714040756226e-01" nType="-99"/>
          </Node>
        </Node>
      </Node>
    </BinaryTree>
    <BinaryTree type="DecisionTree" boostWeight="1.0000000000000000e+00" itree="158">
      <Node pos="s" depth="0" NCoef="0" IVar="8" Cut="1.7333439588546753e+00" cType="1" res="5.2113767014816403e-04" rms="1.9177941977977753e-01" purity="5.0398457050323486e-01" nType="0">
        <Node pos="l" depth="1" NCoef="0" IVar="8" Cut="-1.9364583492279053e+00" cType="1" res="2.4152885089279152e-05" rms="1.8883304297924042e-01" purity="5.1719540357589722e-01" nType="0">
          <Node pos="l" depth="2" NCoef="0" IVar="-1" Cut="0.0000000000000000e+00" cType="1" res="-3.9927963167428970e-02" rms="1.9189889729022980e-01" purity="1.1781695485115051e-01" nType="-99"/>
          <Node pos="r" depth="2" NCoef="0" IVar="3" Cut="6.5123278808593750e+02" cType="1" res="5.1092583453282714e-04" rms="1.8872298300266266e-01" purity="5.2845722436904907e-01" nType="0">
            <Node pos="l" depth="3" NCoef="0" IVar="-1" Cut="0.0000000000000000e+00" cType="1" res="8.3293840289115906e-03" rms="2.0556244254112244e-01" purity="2.1881243586540222e-01" nType="-99"/>
            <Node pos="r" depth="3" NCoef="0" IVar="-1" Cut="0.0000000000000000e+00" cType="1" res="-6.1044669710099697e-03" rms="1.7339365184307098e-01" purity="7.8674376010894775e-01" nType="-99"/>
          </Node>
        </Node>
        <Node pos="r" depth="1" NCoef="0" IVar="-1" Cut="0.0000000000000000e+00" cType="1" res="2.9877802357077599e-02" rms="2.5355544686317444e-01" purity="1.7805275321006775e-01" nType="-99"/>
      </Node>
    </BinaryTree>
    <BinaryTree type="DecisionTree" boostWeight="1.0000000000000000e+00" itree="159">
      <Node pos="s" depth="0" NCoef="0" IVar="10" Cut="-2.2664704322814941e+00" cType="1" res="1.6888182144612074e-03" rms="1.9400759041309357e-01" purity="4.9938866496086121e-01" nType="0">
        <Node pos="l" depth="1" NCoef="0" IVar="-1" Cut="0.0000000000000000e+00" cType="1" res="7.1784384548664093e-02" rms="2.9120397567749023e-01" purity="3.6857324838638306e-01" nType="-99"/>
        <Node pos="r" depth="1" NCoef="0" IVar="9" Cut="-3.9971536397933960e-01" cType="1" res="5.9951766161248088e-04" rms="1.9048649072647095e-01" purity="5.0302219390869141e-01" nType="0">
          <Node pos="l" depth="2" NCoef="0" IVar="3" Cut="6.0226947021484375e+02" cType="1" res="-4.5193671248853207e-03" rms="1.9163212180137634e-01" purity="4.7380682826042175e-01" nType="0">
            <Node pos="l" depth="3" NCoef="0" IVar="-1" Cut="0.0000000000000000e+00" cType="1" res="-2.9560662806034088e-02" rms="1.8824465572834015e-01" purity="1.4852447807788849e-01" nType="-99"/>
            <Node pos="r" depth="3" NCoef="0" IVar="-1" Cut="0.0000000000000000e+00" cType="1" res="1.2313934275880456e-03" rms="1.9381827116012573e-01" purity="7.0181757211685181e-01" nType="-99"/>
          </Node>
          <Node pos="r" depth="2" NCoef="0" IVar="10" Cut="1.5935579538345337e+00" cType="1" res="3.4844891633838415e-03" rms="1.8977695703506470e-01" purity="5.1948785781860352e-01" nType="0">
            <Node pos="l" depth="3" NCoef="0" IVar="-1" Cut="0.0000000000000000e+00" cType="1" res="6.8197110667824745e-03" rms="1.8266312777996063e-01" purity="5.3057396411895752e-01" nType="-99"/>
            <Node pos="r" depth="3" NCoef="0" IVar="-1" Cut="0.0000000000000000e+00" cType="1" res="2.7270281687378883e-02" rms="2.3932349681854248e-01" purity="4.3004724383354187e-01" nType="-99"/>
          </Node>
        </Node>
      </Node>
    </BinaryTree>
    <BinaryTree type="DecisionTree" boostWeight="1.0000000000000000e+00" itree="160">
      <Node pos="s" depth="0" NCoef="0" IVar="9" Cut="9.3327575922012329e-01" cType="1" res="1.9889480900019407e-03" rms="1.9357958436012268e-01" purity="4.9927550554275513e-01" nType="0">
        <Node pos="l" depth="1" NCoef="0" IVar="1" Cut="2.5918125000000000e+03" cType="1" res="4.2015505023300648e-03" rms="1.9153258204460144e-01" purity="5.1731550693511963e-01" nType="0">
          <Node pos="l" depth="2" NCoef="0" IVar="5" Cut="2.4374253845214844e+02" cType="1" res="7.6824785210192204e-03" rms="2.2603252530097961e-01" purity="1.4782267808914185e-01" nType="0">
            <Node pos="l" depth="3" NCoef="0" IVar="-1" Cut="0.0000000000000000e+00" cType="1" res="1.0450746864080429e-02" rms="1.8646124005317688e-01" purity="6.7420460283756256e-02" nType="-99"/>
            <Node pos="r" depth="3" NCoef="0" IVar="-1" Cut="0.0000000000000000e+00" cType="1" res="2.2291887551546097e-02" rms="3.4138974547386169e-01" purity="4.7201395034790039e-01" nType="-99"/>
          </Node>
          <Node pos="r" depth="2" NCoef="0" IVar="7" Cut="7.1012997627258301e-01" cType="1" res="-1.1831994925159961e-04" rms="1.3701482117176056e-01" purity="9.7586017847061157e-01" nType="0">
            <Node pos="l" depth="3" NCoef="0" IVar="-1" Cut="0.0000000000000000e+00" cType="1" res="6.6114529035985470e-03" rms="1.3088606297969818e-01" purity="9.7804957628250122e-01" nType="-99"/>
            <Node pos="r" depth="3" NCoef="0" IVar="-1" Cut="0.0000000000000000e+00" cType="1" res="-4.4812928885221481e-02" rms="1.7642013728618622e-01" purity="9.5925241708755493e-01" nType="-99"/>
          </Node>
        </Node>
        <Node pos="r" depth="1" NCoef="0" IVar="3" Cut="5.5005334472656250e+02" cType="1" res="-6.9364504888653755e-03" rms="2.0137940347194672e-01" purity="4.2650425434112549e-01" nType="0">
          <Node pos="l" depth="2" NCoef="0" IVar="1" Cut="1.6091166992187500e+03" cType="1" res="-1.9576463848352432e-02" rms="1.8884888291358948e-01" purity="1.1899992823600769e-01" nType="0">
            <Node pos="l" depth="3" NCoef="0" IVar="-1" Cut="0.0000000000000000e+00" cType="1" res="-4.0318515151739120e-02" rms="8.6717955768108368e-02" purity="7.9347072169184685e-03" nType="-99"/>
            <Node pos="r" depth="3" NCoef="0" IVar="-1" Cut="0.0000000000000000e+00" cType="1" res="-4.6403728425502777e-02" rms="2.8639584779739380e-01" purity="3.0569425225257874e-01" nType="-99"/>
          </Node>
          <Node pos="r" depth="2" NCoef="0" IVar="1" Cut="2.0879399414062500e+03" cType="1" res="-1.4455502969212830e-04" rms="2.0748281478881836e-01" purity="5.9173643589019775e-01" nType="0">
            <Node pos="l" depth="3" NCoef="0" IVar="-1" Cut="0.0000000000000000e+00" cType="1" res="2.8586080297827721e-02" rms="1.9646793603897095e-01" purity="5.9473618865013123e-02" nType="-99"/>
            <Node pos="r" depth="3" NCoef="0" IVar="-1" Cut="0.0000000000000000e+00" cType="1" res="-1.2538079172372818e-02" rms="2.1315629780292511e-01" purity="8.8807153701782227e-01" nType="-99"/>
          </Node>
        </Node>
      </Node>
    </BinaryTree>
    <BinaryTree type="DecisionTree" boostWeight="1.0000000000000000e+00" itree="161">
      <Node pos="s" depth="0" NCoef="0" IVar="9" Cut="1.9998707771301270e+00" cType="1" res="-4.8336911277147010e-05" rms="1.9055810570716858e-01" purity="5.0498545169830322e-01" nType="0">
        <Node pos="l" depth="1" NCoef="0" IVar="4" Cut="2.3611256408691406e+02" cType="1" res="-6.6663575125858188e-04" rms="1.8805749714374542e-01" purity="5.1382565498352051e-01" nType="0">
          <Node pos="l" depth="2" NCoef="0" IVar="6" Cut="1.0950031280517578e+02" cType="1" res="6.1401291750371456e-03" rms="1.5098193287849426e-01" purity="3.8368996232748032e-02" nType="0">
            <Node pos="l" depth="3" NCoef="0" IVar="-1" Cut="0.0000000000000000e+00" cType="1" res="-1.7718294635415077e-02" rms="1.0925717651844025e-01" purity="1.5351897105574608e-02" nType="-99"/>
            <Node pos="r" depth="3" NCoef="0" IVar="-1" Cut="0.0000000000000000e+00" cType="1" res="7.4527911841869354e-02" rms="2.2099120914936066e-01" purity="9.4843223690986633e-02" nType="-99"/>
          </Node>
          <Node pos="r" depth="2" NCoef="0" IVar="8" Cut="1.2002182006835938e+00" cType="1" res="-2.0517464727163315e-03" rms="1.9471046328544617e-01" purity="6.1057645082473755e-01" nType="0">
            <Node pos="l" depth="3" NCoef="0" IVar="-1" Cut="0.0000000000000000e+00" cType="1" res="-2.2270118352025747e-03" rms="1.9123166799545288e-01" purity="6.3236677646636963e-01" nType="-99"/>
            <Node pos="r" depth="3" NCoef="0" IVar="-1" Cut="0.0000000000000000e+00" cType="1" res="-2.6697406545281410e-02" rms="2.2457695007324219e-01" purity="4.0492251515388489e-01" nType="-99"/>
          </Node>
        </Node>
        <Node pos="r" depth="1" NCoef="0" IVar="-1" Cut="0.0000000000000000e+00" cType="1" res="3.1282089650630951e-02" rms="2.5190865993499756e-01" purity="2.4841377139091492e-01" nType="-99"/>
      </Node>
    </BinaryTree>
    <BinaryTree type="DecisionTree" boostWeight="1.0000000000000000e+00" itree="162">
      <Node pos="s" depth="0" NCoef="0" IVar="9" Cut="-4.0001460909843445e-01" cType="1" res="3.4787270124070346e-04" rms="1.9038510322570801e-01" purity="4.9973830580711365e-01" nType="0">
        <Node pos="l" depth="1" NCoef="0" IVar="8" Cut="1.4654928445816040e+00" cType="1" res="4.4842087663710117e-03" rms="1.9957007467746735e-01" purity="4.7535228729248047e-01" nType="0">
          <Node pos="l" depth="2" NCoef="0" IVar="4" Cut="4.1276681518554688e+02" cType="1" res="2.8384611941874027e-03" rms="1.9355857372283936e-01" purity="4.9050179123878479e-01" nType="0">
            <Node pos="l" depth="3" NCoef="0" IVar="-1" Cut="0.0000000000000000e+00" cType="1" res="-5.0335568375885487e-03" rms="1.9691459834575653e-01" purity="1.6207402944564819e-01" nType="-99"/>
            <Node pos="r" depth="3" NCoef="0" IVar="-1" Cut="0.0000000000000000e+00" cType="1" res="2.5402303785085678e-02" rms="1.8954329192638397e-01" purity="8.6171585321426392e-01" nType="-99"/>
          </Node>
          <Node pos="r" depth="2" NCoef="0" IVar="-1" Cut="0.0000000000000000e+00" cType="1" res="5.1453057676553726e-02" rms="2.6340478658676147e-01" purity="2.8287917375564575e-01" nType="-99"/>
        </Node>
        <Node pos="r" depth="1" NCoef="0" IVar="7" Cut="1.1996669769287109e+00" cType="1" res="-2.0246477797627449e-03" rms="1.8486924469470978e-01" purity="5.1372569799423218e-01" nType="0">
          <Node pos="l" depth="2" NCoef="0" IVar="9" Cut="2.0379774570465088e+00" cType="1" res="-2.8523786459118128e-03" rms="1.8241980671882629e-01" purity="5.4173123836517334e-01" nType="0">
            <Node pos="l" depth="3" NCoef="0" IVar="-1" Cut="0.0000000000000000e+00" cType="1" res="-5.8292737230658531e-03" rms="1.8007321655750275e-01" purity="5.5716484785079956e-01" nType="-99"/>
            <Node pos="r" depth="3" NCoef="0" IVar="-1" Cut="0.0000000000000000e+00" cType="1" res="-4.2922507971525192e-02" rms="2.2513274848461151e-01" purity="2.1832738816738129e-01" nType="-99"/>
          </Node>
          <Node pos="r" depth="2" NCoef="0" IVar="-1" Cut="0.0000000000000000e+00" cType="1" res="2.0547907799482346e-02" rms="2.1124121546745300e-01" purity="1.8535849452018738e-01" nType="-99"/>
        </Node>
      </Node>
    </BinaryTree>
    <BinaryTree type="DecisionTree" boostWeight="1.0000000000000000e+00" itree="163">
      <Node pos="s" depth="0" NCoef="0" IVar="3" Cut="6.1983355712890625e+02" cType="1" res="-5.3237809333950281e-04" rms="1.8905398249626160e-01" purity="4.9776691198348999e-01" nType="0">
        <Node pos="l" depth="1" NCoef="0" IVar="1" Cut="1.9395208740234375e+03" cType="1" res="-3.7658263463526964e-03" rms="1.9701373577117920e-01" purity="1.6839089989662170e-01" nType="0">
          <Node pos="l" depth="2" NCoef="0" IVar="3" Cut="3.2016183471679688e+02" cType="1" res="-3.9071362698450685e-04" rms="1.5845157206058502e-01" purity="3.0784215778112411e-02" nType="0">
            <Node pos="l" depth="3" NCoef="0" IVar="-1" Cut="0.0000000000000000e+00" cType="1" res="-7.8100889921188354e-02" rms="8.5379950702190399e-02" purity="7.0670233108103275e-03" nType="-99"/>
            <Node pos="r" depth="3" NCoef="0" IVar="-1" Cut="0.0000000000000000e+00" cType="1" res="4.0443502366542816e-03" rms="1.6344511508941650e-01" purity="3.2956570386886597e-02" nType="-99"/>
          </Node>
          <Node pos="r" depth="2" NCoef="0" IVar="1" Cut="2.3762756347656250e+03" cType="1" res="-1.8013969063758850e-02" rms="3.1053179502487183e-01" purity="7.4930173158645630e-01" nType="0">
            <Node pos="l" depth="3" NCoef="0" IVar="-1" Cut="0.0000000000000000e+00" cType="1" res="-2.0843749865889549e-02" rms="4.1363161802291870e-01" purity="5.0170046091079712e-01" nType="-99"/>
            <Node pos="r" depth="3" NCoef="0" IVar="-1" Cut="0.0000000000000000e+00" cType="1" res="-1.1164285242557526e-02" rms="1.7881116271018982e-01" purity="9.6153330802917480e-01" nType="-99"/>
          </Node>
        </Node>
        <Node pos="r" depth="1" NCoef="0" IVar="7" Cut="-1.0197365283966064e+00" cType="1" res="1.7895433120429516e-03" rms="1.8308959901332855e-01" purity="7.3429006338119507e-01" nType="0">
          <Node pos="l" depth="2" NCoef="0" IVar="-1" Cut="0.0000000000000000e+00" cType="1" res="-3.3683385699987411e-02" rms="1.9744855165481567e-01" purity="4.0785306692123413e-01" nType="-99"/>
          <Node pos="r" depth="2" NCoef="0" IVar="8" Cut="6.6457736492156982e-01" cType="1" res="2.9398037586361170e-03" rms="1.8194602429866791e-01" purity="7.5806468725204468e-01" nType="0">
            <Node pos="l" depth="3" NCoef="0" IVar="-1" Cut="0.0000000000000000e+00" cType="1" res="2.0319181494414806e-03" rms="1.7488925158977509e-01" purity="7.7791732549667358e-01" nType="-99"/>
            <Node pos="r" depth="3" NCoef="0" IVar="-1" Cut="0.0000000000000000e+00" cType="1" res="2.6683256030082703e-02" rms="2.0503920316696167e-01" purity="6.8692117929458618e-01" nType="-99"/>
          </Node>
        </Node>
      </Node>
    </BinaryTree>
    <BinaryTree type="DecisionTree" boostWeight="1.0000000000000000e+00" itree="164">
      <Node pos="s" depth="0" NCoef="0" IVar="3" Cut="6.1963238525390625e+02" cType="1" res="3.6478412221185863e-04" rms="1.9477134943008423e-01" purity="4.9736955761909485e-01" nType="0">
        <Node pos="l" depth="1" NCoef="0" IVar="8" Cut="6.6669052839279175e-01" cType="1" res="5.4718642495572567e-03" rms="2.1195515990257263e-01" purity="1.7646232247352600e-01" nType="0">
          <Node pos="l" depth="2" NCoef="0" IVar="1" Cut="1.6886893310546875e+03" cType="1" res="1.0096933692693710e-02" rms="2.1766316890716553e-01" purity="1.9547843933105469e-01" nType="0">
            <Node pos="l" depth="3" NCoef="0" IVar="-1" Cut="0.0000000000000000e+00" cType="1" res="3.6250762641429901e-02" rms="1.2166842073202133e-01" purity="1.6081245616078377e-02" nType="-99"/>
            <Node pos="r" depth="3" NCoef="0" IVar="-1" Cut="0.0000000000000000e+00" cType="1" res="2.2215863689780235e-02" rms="3.2137116789817810e-01" purity="5.0426912307739258e-01" nType="-99"/>
          </Node>
          <Node pos="r" depth="2" NCoef="0" IVar="1" Cut="1.6924373779296875e+03" cType="1" res="-6.1389505863189697e-03" rms="1.9641867280006409e-01" purity="1.2872403860092163e-01" nType="0">
            <Node pos="l" depth="3" NCoef="0" IVar="-1" Cut="0.0000000000000000e+00" cType="1" res="1.5568627044558525e-02" rms="1.2409889698028564e-01" purity="1.6305863857269287e-02" nType="-99"/>
            <Node pos="r" depth="3" NCoef="0" IVar="-1" Cut="0.0000000000000000e+00" cType="1" res="-2.6461621746420860e-02" rms="3.0764782428741455e-01" purity="4.0341731905937195e-01" nType="-99"/>
          </Node>
        </Node>
        <Node pos="r" depth="1" NCoef="0" IVar="0" Cut="8.8849822998046875e+02" cType="1" res="-3.3615573775023222e-03" rms="1.8111711740493774e-01" purity="7.3151713609695435e-01" nType="0">
          <Node pos="l" depth="2" NCoef="0" IVar="0" Cut="5.2417883300781250e+02" cType="1" res="-7.8900689259171486e-03" rms="2.1965961158275604e-01" purity="4.8437348008155823e-01" nType="0">
            <Node pos="l" depth="3" NCoef="0" IVar="-1" Cut="0.0000000000000000e+00" cType="1" res="-4.7653030604124069e-02" rms="2.0026528835296631e-01" purity="8.5373021662235260e-02" nType="-99"/>
            <Node pos="r" depth="3" NCoef="0" IVar="-1" Cut="0.0000000000000000e+00" cType="1" res="-4.1472786106169224e-03" rms="2.2802972793579102e-01" purity="6.7313593626022339e-01" nType="-99"/>
          </Node>
          <Node pos="r" depth="2" NCoef="0" IVar="4" Cut="3.2798193359375000e+02" cType="1" res="7.2082568658515811e-04" rms="1.3727012276649475e-01" purity="9.5431327819824219e-01" nType="0">
            <Node pos="l" depth="3" NCoef="0" IVar="-1" Cut="0.0000000000000000e+00" cType="1" res="1.9538791850209236e-02" rms="2.8516519069671631e-01" purity="6.4892125129699707e-01" nType="-99"/>
            <Node pos="r" depth="3" NCoef="0" IVar="-1" Cut="0.0000000000000000e+00" cType="1" res="-7.4848434887826443e-03" rms="1.1427932232618332e-01" purity="9.8242181539535522e-01" nType="-99"/>
          </Node>
        </Node>
      </Node>
    </BinaryTree>
    <BinaryTree type="DecisionTree" boostWeight="1.0000000000000000e+00" itree="165">
      <Node pos="s" depth="0" NCoef="0" IVar="10" Cut="2.2664361000061035e+00" cType="1" res="5.7303393259644508e-04" rms="1.9187501072883606e-01" purity="5.0159591436386108e-01" nType="0">
        <Node pos="l" depth="1" NCoef="0" IVar="5" Cut="1.6369172668457031e+02" cType="1" res="7.7238248195499182e-05" rms="1.8938647210597992e-01" purity="5.0504815578460693e-01" nType="0">
          <Node pos="l" depth="2" NCoef="0" IVar="1" Cut="2.2222163085937500e+03" cType="1" res="3.9761760272085667e-03" rms="1.6164034605026245e-01" purity="7.9850621521472931e-02" nType="0">
            <Node pos="l" depth="3" NCoef="0" IVar="-1" Cut="0.0000000000000000e+00" cType="1" res="-8.9208735153079033e-03" rms="1.1707592755556107e-01" purity="1.7668822780251503e-02" nType="-99"/>
            <Node pos="r" depth="3" NCoef="0" IVar="-1" Cut="0.0000000000000000e+00" cType="1" res="4.0135763585567474e-02" rms="3.6495363712310791e-01" purity="6.2848114967346191e-01" nType="-99"/>
          </Node>
          <Node pos="r" depth="2" NCoef="0" IVar="1" Cut="1.9608769531250000e+03" cType="1" res="-1.6299103153869510e-03" rms="2.0030516386032104e-01" purity="6.9122070074081421e-01" nType="0">
            <Node pos="l" depth="3" NCoef="0" IVar="-1" Cut="0.0000000000000000e+00" cType="1" res="1.2600502930581570e-02" rms="2.1340866386890411e-01" purity="6.1357267200946808e-02" nType="-99"/>
            <Node pos="r" depth="3" NCoef="0" IVar="-1" Cut="0.0000000000000000e+00" cType="1" res="-1.1205147951841354e-02" rms="1.9530980288982391e-01" purity="9.1797733306884766e-01" nType="-99"/>
          </Node>
        </Node>
        <Node pos="r" depth="1" NCoef="0" IVar="-1" Cut="0.0000000000000000e+00" cType="1" res="3.3383280038833618e-02" rms="2.6173394918441772e-01" purity="3.8524919748306274e-01" nType="-99"/>
      </Node>
    </BinaryTree>
    <BinaryTree type="DecisionTree" boostWeight="1.0000000000000000e+00" itree="166">
      <Node pos="s" depth="0" NCoef="0" IVar="8" Cut="6.6655707359313965e-01" cType="1" res="-2.8410329832695425e-04" rms="1.9168552756309509e-01" purity="5.0328886508941650e-01" nType="0">
        <Node pos="l" depth="1" NCoef="0" IVar="3" Cut="3.5090289306640625e+02" cType="1" res="-1.8732914468273520e-03" rms="1.8703857064247131e-01" purity="5.3124135732650757e-01" nType="0">
          <Node pos="l" depth="2" NCoef="0" IVar="-1" Cut="0.0000000000000000e+00" cType="1" res="5.8582454919815063e-02" rms="1.9836543500423431e-01" purity="5.2728161215782166e-02" nType="-99"/>
          <Node pos="r" depth="2" NCoef="0" IVar="1" Cut="2.5217326660156250e+03" cType="1" res="-2.7034902013838291e-03" rms="1.8643452227115631e-01" purity="5.5432862043380737e-01" nType="0">
            <Node pos="l" depth="3" NCoef="0" IVar="-1" Cut="0.0000000000000000e+00" cType="1" res="-1.2417242862284184e-02" rms="2.1944119036197662e-01" purity="1.3081176578998566e-01" nType="-99"/>
            <Node pos="r" depth="3" NCoef="0" IVar="-1" Cut="0.0000000000000000e+00" cType="1" res="4.2476155795156956e-03" rms="1.4678122103214264e-01" purity="9.7123396396636963e-01" nType="-99"/>
          </Node>
        </Node>
        <Node pos="r" depth="1" NCoef="0" IVar="2" Cut="1.8291059881448746e-02" cType="1" res="4.3474556878209114e-03" rms="2.0455724000930786e-01" purity="4.2182365059852600e-01" nType="0">
          <Node pos="l" depth="2" NCoef="0" IVar="7" Cut="6.5858739614486694e-01" cType="1" res="-4.2710043489933014e-03" rms="1.9724684953689575e-01" purity="1.9443598389625549e-01" nType="0">
            <Node pos="l" depth="3" NCoef="0" IVar="-1" Cut="0.0000000000000000e+00" cType="1" res="-3.2312732189893723e-02" rms="1.7916616797447205e-01" purity="2.1187376976013184e-01" nType="-99"/>
            <Node pos="r" depth="3" NCoef="0" IVar="-1" Cut="0.0000000000000000e+00" cType="1" res="3.5357374697923660e-02" rms="2.3685915768146515e-01" purity="1.4915558695793152e-01" nType="-99"/>
          </Node>
          <Node pos="r" depth="2" NCoef="0" IVar="10" Cut="-9.3293470144271851e-01" cType="1" res="1.0150228627026081e-02" rms="2.0913554728031158e-01" purity="5.7492280006408691e-01" nType="0">
            <Node pos="l" depth="3" NCoef="0" IVar="-1" Cut="0.0000000000000000e+00" cType="1" res="6.3229210674762726e-02" rms="2.4762962758541107e-01" purity="6.1110961437225342e-01" nType="-99"/>
            <Node pos="r" depth="3" NCoef="0" IVar="-1" Cut="0.0000000000000000e+00" cType="1" res="8.3740390837192535e-03" rms="1.9553014636039734e-01" purity="5.6402456760406494e-01" nType="-99"/>
          </Node>
        </Node>
      </Node>
    </BinaryTree>
    <BinaryTree type="DecisionTree" boostWeight="1.0000000000000000e+00" itree="167">
      <Node pos="s" depth="0" NCoef="0" IVar="10" Cut="1.4666758775711060e+00" cType="1" res="1.5729997539892793e-03" rms="1.9368761777877808e-01" purity="5.0227737426757812e-01" nType="0">
        <Node pos="l" depth="1" NCoef="0" IVar="0" Cut="8.4596795654296875e+02" cType="1" res="2.6454476173967123e-03" rms="1.9113263487815857e-01" purity="5.1203155517578125e-01" nType="0">
          <Node pos="l" depth="2" NCoef="0" IVar="1" Cut="1.5542910156250000e+03" cType="1" res="6.0076462104916573e-03" rms="2.1242563426494598e-01" purity="2.5771960616111755e-01" nType="0">
            <Node pos="l" depth="3" NCoef="0" IVar="-1" Cut="0.0000000000000000e+00" cType="1" res="-1.5301009640097618e-02" rms="7.7446825802326202e-02" purity="6.0195350088179111e-03" nType="-99"/>
            <Node pos="r" depth="3" NCoef="0" IVar="-1" Cut="0.0000000000000000e+00" cType="1" res="1.6181502491235733e-02" rms="2.5510731339454651e-01" purity="3.8633814454078674e-01" nType="-99"/>
          </Node>
          <Node pos="r" depth="2" NCoef="0" IVar="5" Cut="2.2042221069335938e+02" cType="1" res="-2.9300102032721043e-03" rms="1.4910511672496796e-01" purity="9.3375134468078613e-01" nType="0">
            <Node pos="l" depth="3" NCoef="0" IVar="-1" Cut="0.0000000000000000e+00" cType="1" res="-2.3642240092158318e-02" rms="2.8955307602882385e-01" purity="6.5782350301742554e-01" nType="-99"/>
            <Node pos="r" depth="3" NCoef="0" IVar="-1" Cut="0.0000000000000000e+00" cType="1" res="2.8647475410252810e-03" rms="1.0212806612253189e-01" purity="9.8631346225738525e-01" nType="-99"/>
          </Node>
        </Node>
        <Node pos="r" depth="1" NCoef="0" IVar="0" Cut="7.4113610839843750e+02" cType="1" res="-6.1097112484276295e-03" rms="2.1092906594276428e-01" purity="4.3240126967430115e-01" nType="0">
          <Node pos="l" depth="2" NCoef="0" IVar="10" Cut="1.9111112356185913e+00" cType="1" res="-1.3791212812066078e-02" rms="2.1056945621967316e-01" purity="1.6288642585277557e-01" nType="0">
            <Node pos="l" depth="3" NCoef="0" IVar="-1" Cut="0.0000000000000000e+00" cType="1" res="-5.2638448774814606e-02" rms="1.7862515151500702e-01" purity="1.6849280893802643e-01" nType="-99"/>
            <Node pos="r" depth="3" NCoef="0" IVar="-1" Cut="0.0000000000000000e+00" cType="1" res="-8.0465748906135559e-03" rms="2.3614849150180817e-01" purity="1.5764921903610229e-01" nType="-99"/>
          </Node>
          <Node pos="r" depth="2" NCoef="0" IVar="-1" Cut="0.0000000000000000e+00" cType="1" res="1.4148243702948093e-02" rms="2.1093341708183289e-01" purity="8.4981530904769897e-01" nType="-99"/>
        </Node>
      </Node>
    </BinaryTree>
    <BinaryTree type="DecisionTree" boostWeight="1.0000000000000000e+00" itree="168">
      <Node pos="s" depth="0" NCoef="0" IVar="5" Cut="2.2030455017089844e+02" cType="1" res="5.0479709170758724e-04" rms="1.9332332909107208e-01" purity="5.0292772054672241e-01" nType="0">
        <Node pos="l" depth="1" NCoef="0" IVar="6" Cut="1.2285710906982422e+02" cType="1" res="4.3220543302595615e-03" rms="1.9699539244174957e-01" purity="1.4527745544910431e-01" nType="0">
          <Node pos="l" depth="2" NCoef="0" IVar="8" Cut="1.3347688317298889e-01" cType="1" res="7.1976229082792997e-04" rms="1.7585308849811554e-01" purity="9.4510637223720551e-02" nType="0">
            <Node pos="l" depth="3" NCoef="0" IVar="-1" Cut="0.0000000000000000e+00" cType="1" res="1.7706407234072685e-02" rms="1.8372622132301331e-01" purity="9.9815107882022858e-02" nType="-99"/>
            <Node pos="r" depth="3" NCoef="0" IVar="-1" Cut="0.0000000000000000e+00" cType="1" res="-1.6672518104314804e-02" rms="1.6581048071384430e-01" purity="8.8188543915748596e-02" nType="-99"/>
          </Node>
          <Node pos="r" depth="2" NCoef="0" IVar="8" Cut="-6.6343718767166138e-01" cType="1" res="1.6164923086762428e-02" rms="2.5404712557792664e-01" purity="3.1217798590660095e-01" nType="0">
            <Node pos="l" depth="3" NCoef="0" IVar="-1" Cut="0.0000000000000000e+00" cType="1" res="7.9831555485725403e-02" rms="2.9912617802619934e-01" purity="3.3340919017791748e-01" nType="-99"/>
            <Node pos="r" depth="3" NCoef="0" IVar="-1" Cut="0.0000000000000000e+00" cType="1" res="1.2538922019302845e-03" rms="2.3054435849189758e-01" purity="3.0316749215126038e-01" nType="-99"/>
          </Node>
        </Node>
        <Node pos="r" depth="1" NCoef="0" IVar="4" Cut="3.8063745117187500e+02" cType="1" res="-2.8911000117659569e-03" rms="1.8993249535560608e-01" purity="8.2109951972961426e-01" nType="0">
          <Node pos="l" depth="2" NCoef="0" IVar="7" Cut="-6.1852693557739258e-01" cType="1" res="-1.6836352646350861e-02" rms="2.6962259411811829e-01" purity="3.7338051199913025e-01" nType="0">
            <Node pos="l" depth="3" NCoef="0" IVar="-1" Cut="0.0000000000000000e+00" cType="1" res="1.3924045488238335e-02" rms="2.7408358454704285e-01" purity="3.1385666131973267e-01" nType="-99"/>
            <Node pos="r" depth="3" NCoef="0" IVar="-1" Cut="0.0000000000000000e+00" cType="1" res="-3.4602984786033630e-02" rms="2.6742035150527954e-01" purity="3.9387717843055725e-01" nType="-99"/>
          </Node>
          <Node pos="r" depth="2" NCoef="0" IVar="1" Cut="2.2953881835937500e+03" cType="1" res="6.3338049221783876e-04" rms="1.6357582807540894e-01" purity="9.3425464630126953e-01" nType="0">
            <Node pos="l" depth="3" NCoef="0" IVar="-1" Cut="0.0000000000000000e+00" cType="1" res="1.0221498087048531e-02" rms="3.7704080343246460e-01" purity="3.8324335217475891e-01" nType="-99"/>
            <Node pos="r" depth="3" NCoef="0" IVar="-1" Cut="0.0000000000000000e+00" cType="1" res="-2.5483535137027502e-03" rms="1.3266955316066742e-01" purity="9.7789484262466431e-01" nType="-99"/>
          </Node>
        </Node>
      </Node>
    </BinaryTree>
    <BinaryTree type="DecisionTree" boostWeight="1.0000000000000000e+00" itree="169">
      <Node pos="s" depth="0" NCoef="0" IVar="8" Cut="-1.4663983583450317e+00" cType="1" res="-1.2063757749274373e-03" rms="1.9196613132953644e-01" purity="4.9830532073974609e-01" nType="0">
        <Node pos="l" depth="1" NCoef="0" IVar="6" Cut="1.0386585998535156e+02" cType="1" res="-1.4768796972930431e-02" rms="2.0191667973995209e-01" purity="2.2983397543430328e-01" nType="0">
          <Node pos="l" depth="2" NCoef="0" IVar="-1" Cut="0.0000000000000000e+00" cType="1" res="-1.4649539254605770e-02" rms="1.7227347195148468e-01" purity="8.4022805094718933e-02" nType="-99"/>
          <Node pos="r" depth="2" NCoef="0" IVar="-1" Cut="0.0000000000000000e+00" cType="1" res="-4.6319581568241119e-02" rms="2.3119729757308960e-01" purity="3.9978367090225220e-01" nType="-99"/>
        </Node>
        <Node pos="r" depth="1" NCoef="0" IVar="9" Cut="-1.9995296001434326e+00" cType="1" res="-1.8703054229263216e-04" rms="1.9115845859050751e-01" purity="5.1848351955413818e-01" nType="0">
          <Node pos="l" depth="2" NCoef="0" IVar="-1" Cut="0.0000000000000000e+00" cType="1" res="-3.5077333450317383e-02" rms="2.1557965874671936e-01" purity="2.2350370883941650e-01" nType="-99"/>
          <Node pos="r" depth="2" NCoef="0" IVar="1" Cut="1.9959151611328125e+03" cType="1" res="2.9189494671300054e-04" rms="1.9033502042293549e-01" purity="5.2758473157882690e-01" nType="0">
            <Node pos="l" depth="3" NCoef="0" IVar="-1" Cut="0.0000000000000000e+00" cType="1" res="1.3694175519049168e-02" rms="1.6898721456527710e-01" purity="3.7388168275356293e-02" nType="-99"/>
            <Node pos="r" depth="3" NCoef="0" IVar="-1" Cut="0.0000000000000000e+00" cType="1" res="-5.2684489637613297e-03" rms="2.0469531416893005e-01" purity="8.9101833105087280e-01" nType="-99"/>
          </Node>
        </Node>
      </Node>
    </BinaryTree>
    <BinaryTree type="DecisionTree" boostWeight="1.0000000000000000e+00" itree="170">
      <Node pos="s" depth="0" NCoef="0" IVar="10" Cut="2.2666490077972412e+00" cType="1" res="4.5674187276745215e-05" rms="1.8963284790515900e-01" purity="4.9992147088050842e-01" nType="0">
        <Node pos="l" depth="1" NCoef="0" IVar="9" Cut="1.9998663663864136e+00" cType="1" res="-4.8180288285948336e-04" rms="1.8711800873279572e-01" purity="5.0462245941162109e-01" nType="0">
          <Node pos="l" depth="2" NCoef="0" IVar="10" Cut="-1.5935796499252319e+00" cType="1" res="6.3190425862558186e-05" rms="1.8579420447349548e-01" purity="5.1467823982238770e-01" nType="0">
            <Node pos="l" depth="3" NCoef="0" IVar="-1" Cut="0.0000000000000000e+00" cType="1" res="1.6014210879802704e-02" rms="2.3075343668460846e-01" purity="4.3908032774925232e-01" nType="-99"/>
            <Node pos="r" depth="3" NCoef="0" IVar="-1" Cut="0.0000000000000000e+00" cType="1" res="-2.5424971245229244e-03" rms="1.7995889484882355e-01" purity="5.2325958013534546e-01" nType="-99"/>
          </Node>
          <Node pos="r" depth="2" NCoef="0" IVar="-1" Cut="0.0000000000000000e+00" cType="1" res="-2.9469829052686691e-02" rms="2.2039808332920074e-01" purity="2.2346557676792145e-01" nType="-99"/>
        </Node>
        <Node pos="r" depth="1" NCoef="0" IVar="-1" Cut="0.0000000000000000e+00" cType="1" res="3.2912138849496841e-02" rms="2.5910043716430664e-01" purity="3.4368401765823364e-01" nType="-99"/>
      </Node>
    </BinaryTree>
    <BinaryTree type="DecisionTree" boostWeight="1.0000000000000000e+00" itree="171">
      <Node pos="s" depth="0" NCoef="0" IVar="4" Cut="3.2798193359375000e+02" cType="1" res="-1.3002355117350817e-03" rms="1.8751086294651031e-01" purity="4.9831622838973999e-01" nType="0">
        <Node pos="l" depth="1" NCoef="0" IVar="1" Cut="1.6584792480468750e+03" cType="1" res="-5.5789537727832794e-03" rms="1.6949391365051270e-01" purity="8.2268208265304565e-02" nType="0">
          <Node pos="l" depth="2" NCoef="0" IVar="1" Cut="1.6092458496093750e+03" cType="1" res="-7.2451418964192271e-04" rms="9.3821890652179718e-02" purity="1.0216822847723961e-02" nType="0">
            <Node pos="l" depth="3" NCoef="0" IVar="-1" Cut="0.0000000000000000e+00" cType="1" res="-4.0177587419748306e-02" rms="7.1900151669979095e-02" purity="5.3408723324537277e-03" nType="-99"/>
            <Node pos="r" depth="3" NCoef="0" IVar="-1" Cut="0.0000000000000000e+00" cType="1" res="8.0132253468036652e-02" rms="1.9211994111537933e-01" purity="4.8619866371154785e-02" nType="-99"/>
          </Node>
          <Node pos="r" depth="2" NCoef="0" IVar="9" Cut="-6.6644459962844849e-01" cType="1" res="-1.4952655881643295e-02" rms="2.5897938013076782e-01" purity="2.2139616310596466e-01" nType="0">
            <Node pos="l" depth="3" NCoef="0" IVar="-1" Cut="0.0000000000000000e+00" cType="1" res="1.1650917120277882e-02" rms="2.8031149506568909e-01" purity="2.7448865771293640e-01" nType="-99"/>
            <Node pos="r" depth="3" NCoef="0" IVar="-1" Cut="0.0000000000000000e+00" cType="1" res="-3.7002202123403549e-02" rms="2.4710392951965332e-01" purity="1.9568565487861633e-01" nType="-99"/>
          </Node>
        </Node>
        <Node pos="r" depth="1" NCoef="0" IVar="8" Cut="-1.1994504928588867e+00" cType="1" res="1.1749472469091415e-03" rms="1.9714085757732391e-01" purity="7.3899459838867188e-01" nType="0">
          <Node pos="l" depth="2" NCoef="0" IVar="-1" Cut="0.0000000000000000e+00" cType="1" res="-2.5548990815877914e-02" rms="2.3264956474304199e-01" purity="5.3054475784301758e-01" nType="-99"/>
          <Node pos="r" depth="2" NCoef="0" IVar="7" Cut="2.4015773832798004e-01" cType="1" res="2.4903563316911459e-03" rms="1.9356955587863922e-01" purity="7.5776708126068115e-01" nType="0">
            <Node pos="l" depth="3" NCoef="0" IVar="-1" Cut="0.0000000000000000e+00" cType="1" res="-3.2869658898562193e-03" rms="1.8334034085273743e-01" purity="7.7260494232177734e-01" nType="-99"/>
            <Node pos="r" depth="3" NCoef="0" IVar="-1" Cut="0.0000000000000000e+00" cType="1" res="2.1534983068704605e-02" rms="2.0991158485412598e-01" purity="7.3215347528457642e-01" nType="-99"/>
          </Node>
        </Node>
      </Node>
    </BinaryTree>
    <BinaryTree type="DecisionTree" boostWeight="1.0000000000000000e+00" itree="172">
      <Node pos="s" depth="0" NCoef="0" IVar="9" Cut="1.9998749494552612e+00" cType="1" res="1.8950274679809809e-03" rms="1.9465659558773041e-01" purity="5.0419819355010986e-01" nType="0">
        <Node pos="l" depth="1" NCoef="0" IVar="3" Cut="4.7992810058593750e+02" cType="1" res="1.2067641364410520e-03" rms="1.9278532266616821e-01" purity="5.1199603080749512e-01" nType="0">
          <Node pos="l" depth="2" NCoef="0" IVar="5" Cut="2.4939883422851562e+02" cType="1" res="6.9382148794829845e-03" rms="2.1150566637516022e-01" purity="1.0386060923337936e-01" nType="0">
            <Node pos="l" depth="3" NCoef="0" IVar="-1" Cut="0.0000000000000000e+00" cType="1" res="4.2465981096029282e-03" rms="1.6936357319355011e-01" purity="4.2938705533742905e-02" nType="-99"/>
            <Node pos="r" depth="3" NCoef="0" IVar="-1" Cut="0.0000000000000000e+00" cType="1" res="3.3592920750379562e-02" rms="3.2301515340805054e-01" purity="3.3233246207237244e-01" nType="-99"/>
          </Node>
          <Node pos="r" depth="2" NCoef="0" IVar="7" Cut="4.4547185301780701e-01" cType="1" res="-2.1981613826937973e-04" rms="1.8780881166458130e-01" purity="6.1358249187469482e-01" nType="0">
            <Node pos="l" depth="3" NCoef="0" IVar="-1" Cut="0.0000000000000000e+00" cType="1" res="9.7996965050697327e-03" rms="1.8346723914146423e-01" purity="6.5146505832672119e-01" nType="-99"/>
            <Node pos="r" depth="3" NCoef="0" IVar="-1" Cut="0.0000000000000000e+00" cType="1" res="-2.5312727317214012e-02" rms="1.9872060418128967e-01" purity="5.1155203580856323e-01" nType="-99"/>
          </Node>
        </Node>
        <Node pos="r" depth="1" NCoef="0" IVar="-1" Cut="0.0000000000000000e+00" cType="1" res="4.0565006434917450e-02" rms="2.4201588332653046e-01" purity="2.7730768918991089e-01" nType="-99"/>
      </Node>
    </BinaryTree>
    <BinaryTree type="DecisionTree" boostWeight="1.0000000000000000e+00" itree="173">
      <Node pos="s" depth="0" NCoef="0" IVar="10" Cut="2.2666416168212891e+00" cType="1" res="-1.0593216866254807e-03" rms="1.9106346368789673e-01" purity="4.9582630395889282e-01" nType="0">
        <Node pos="l" depth="1" NCoef="0" IVar="10" Cut="-2.0761303901672363e+00" cType="1" res="-4.0749355684965849e-04" rms="1.8917082250118256e-01" purity="5.0090044736862183e-01" nType="0">
          <Node pos="l" depth="2" NCoef="0" IVar="-1" Cut="0.0000000000000000e+00" cType="1" res="-2.0559923723340034e-02" rms="2.3999944329261780e-01" purity="3.5265779495239258e-01" nType="-99"/>
          <Node pos="r" depth="2" NCoef="0" IVar="7" Cut="9.6937936544418335e-01" cType="1" res="7.8643381129950285e-05" rms="1.8651027977466583e-01" purity="5.0765609741210938e-01" nType="0">
            <Node pos="l" depth="3" NCoef="0" IVar="-1" Cut="0.0000000000000000e+00" cType="1" res="2.5375953409820795e-03" rms="1.8560412526130676e-01" purity="5.4314678907394409e-01" nType="-99"/>
            <Node pos="r" depth="3" NCoef="0" IVar="-1" Cut="0.0000000000000000e+00" cType="1" res="-1.3426503166556358e-02" rms="1.9283945858478546e-01" purity="2.5115281343460083e-01" nType="-99"/>
          </Node>
        </Node>
        <Node pos="r" depth="1" NCoef="0" IVar="-1" Cut="0.0000000000000000e+00" cType="1" res="-4.8229694366455078e-02" rms="2.4750214815139771e-01" purity="3.1749609112739563e-01" nType="-99"/>
      </Node>
    </BinaryTree>
    <BinaryTree type="DecisionTree" boostWeight="1.0000000000000000e+00" itree="174">
      <Node pos="s" depth="0" NCoef="0" IVar="3" Cut="5.0095898437500000e+02" cType="1" res="3.0647366656921804e-04" rms="1.9372281432151794e-01" purity="4.9693208932876587e-01" nType="0">
        <Node pos="l" depth="1" NCoef="0" IVar="7" Cut="1.6947789490222931e-01" cType="1" res="5.3497357293963432e-03" rms="2.1066147089004517e-01" purity="1.1268244683742523e-01" nType="0">
          <Node pos="l" depth="2" NCoef="0" IVar="10" Cut="6.6660565137863159e-01" cType="1" res="-1.2247187551110983e-03" rms="1.9572722911834717e-01" purity="1.0301581025123596e-01" nType="0">
            <Node pos="l" depth="3" NCoef="0" IVar="-1" Cut="0.0000000000000000e+00" cType="1" res="-1.9711736589670181e-02" rms="1.7538614571094513e-01" purity="9.5184527337551117e-02" nType="-99"/>
            <Node pos="r" depth="3" NCoef="0" IVar="-1" Cut="0.0000000000000000e+00" cType="1" res="2.8517769649624825e-02" rms="2.3722155392169952e-01" purity="1.2194238603115082e-01" nType="-99"/>
          </Node>
          <Node pos="r" depth="2" NCoef="0" IVar="2" Cut="3.5181377083063126e-02" cType="1" res="1.3246749527752399e-02" rms="2.2705502808094025e-01" purity="1.2429367750883102e-01" nType="0">
            <Node pos="l" depth="3" NCoef="0" IVar="-1" Cut="0.0000000000000000e+00" cType="1" res="6.3040919601917267e-02" rms="2.3128375411033630e-01" purity="8.4685087203979492e-02" nType="-99"/>
            <Node pos="r" depth="3" NCoef="0" IVar="-1" Cut="0.0000000000000000e+00" cType="1" res="1.9686557352542877e-03" rms="2.2108542919158936e-01" purity="1.7339675128459930e-01" nType="-99"/>
          </Node>
        </Node>
        <Node pos="r" depth="1" NCoef="0" IVar="7" Cut="-8.5934954881668091e-01" cType="1" res="-1.2215861352160573e-03" rms="1.8826334178447723e-01" purity="6.1335605382919312e-01" nType="0">
          <Node pos="l" depth="2" NCoef="0" IVar="8" Cut="-1.3125951588153839e-01" cType="1" res="-8.2870554178953171e-03" rms="1.9106282293796539e-01" purity="3.6340373754501343e-01" nType="0">
            <Node pos="l" depth="3" NCoef="0" IVar="-1" Cut="0.0000000000000000e+00" cType="1" res="1.1217006249353290e-03" rms="1.8469445407390594e-01" purity="4.0973448753356934e-01" nType="-99"/>
            <Node pos="r" depth="3" NCoef="0" IVar="-1" Cut="0.0000000000000000e+00" cType="1" res="-4.3027304112911224e-02" rms="1.9604913890361786e-01" purity="3.2370463013648987e-01" nType="-99"/>
          </Node>
          <Node pos="r" depth="2" NCoef="0" IVar="8" Cut="1.1997106075286865e+00" cType="1" res="-2.0384434901643544e-04" rms="1.8783475458621979e-01" purity="6.4936029911041260e-01" nType="0">
            <Node pos="l" depth="3" NCoef="0" IVar="-1" Cut="0.0000000000000000e+00" cType="1" res="-3.1001570168882608e-03" rms="1.8178522586822510e-01" purity="6.7028933763504028e-01" nType="-99"/>
            <Node pos="r" depth="3" NCoef="0" IVar="-1" Cut="0.0000000000000000e+00" cType="1" res="1.6839448362588882e-02" rms="2.3854839801788330e-01" purity="4.4629675149917603e-01" nType="-99"/>
          </Node>
        </Node>
      </Node>
    </BinaryTree>
    <BinaryTree type="DecisionTree" boostWeight="1.0000000000000000e+00" itree="175">
      <Node pos="s" depth="0" NCoef="0" IVar="10" Cut="1.9999800920486450e+00" cType="1" res="-1.2942998437210917e-03" rms="1.8732787668704987e-01" purity="5.0385689735412598e-01" nType="0">
        <Node pos="l" depth="1" NCoef="0" IVar="6" Cut="1.8470036315917969e+02" cType="1" res="-1.9162325188517570e-03" rms="1.8382546305656433e-01" purity="5.1055139303207397e-01" nType="0">
          <Node pos="l" depth="2" NCoef="0" IVar="5" Cut="2.6112411499023438e+02" cType="1" res="-3.8590207695960999e-03" rms="1.9901750981807709e-01" purity="2.9731562733650208e-01" nType="0">
            <Node pos="l" depth="3" NCoef="0" IVar="-1" Cut="0.0000000000000000e+00" cType="1" res="-4.4120941311120987e-03" rms="1.9314052164554596e-01" purity="1.5444448590278625e-01" nType="-99"/>
            <Node pos="r" depth="3" NCoef="0" IVar="-1" Cut="0.0000000000000000e+00" cType="1" res="-2.2347521036863327e-02" rms="2.1727095544338226e-01" purity="7.7252376079559326e-01" nType="-99"/>
          </Node>
          <Node pos="r" depth="2" NCoef="0" IVar="4" Cut="3.5635861206054688e+02" cType="1" res="1.8658363260328770e-03" rms="1.4982551336288452e-01" purity="9.2566227912902832e-01" nType="0">
            <Node pos="l" depth="3" NCoef="0" IVar="-1" Cut="0.0000000000000000e+00" cType="1" res="-1.4884076081216335e-02" rms="2.7559906244277954e-01" purity="4.9028196930885315e-01" nType="-99"/>
            <Node pos="r" depth="3" NCoef="0" IVar="-1" Cut="0.0000000000000000e+00" cType="1" res="2.0407645031809807e-02" rms="1.2793564796447754e-01" purity="9.7490096092224121e-01" nType="-99"/>
          </Node>
        </Node>
        <Node pos="r" depth="1" NCoef="0" IVar="-1" Cut="0.0000000000000000e+00" cType="1" res="1.9306777045130730e-02" rms="2.4440494179725647e-01" purity="3.7619149684906006e-01" nType="-99"/>
      </Node>
    </BinaryTree>
    <BinaryTree type="DecisionTree" boostWeight="1.0000000000000000e+00" itree="176">
      <Node pos="s" depth="0" NCoef="0" IVar="9" Cut="-1.1999777555465698e+00" cType="1" res="-1.4855521731078625e-03" rms="1.8720339238643646e-01" purity="4.9877586960792542e-01" nType="0">
        <Node pos="l" depth="1" NCoef="0" IVar="8" Cut="4.0003615617752075e-01" cType="1" res="-8.4695024415850639e-03" rms="1.9640772044658661e-01" purity="3.5611322522163391e-01" nType="0">
          <Node pos="l" depth="2" NCoef="0" IVar="5" Cut="2.1124948120117188e+02" cType="1" res="-3.4944091457873583e-03" rms="1.8807771801948547e-01" purity="3.7744793295860291e-01" nType="0">
            <Node pos="l" depth="3" NCoef="0" IVar="-1" Cut="0.0000000000000000e+00" cType="1" res="-2.9776902869343758e-02" rms="1.6381333768367767e-01" purity="1.0711204260587692e-01" nType="-99"/>
            <Node pos="r" depth="3" NCoef="0" IVar="-1" Cut="0.0000000000000000e+00" cType="1" res="9.8960557952523232e-03" rms="2.1590852737426758e-01" purity="7.3696529865264893e-01" nType="-99"/>
          </Node>
          <Node pos="r" depth="2" NCoef="0" IVar="-1" Cut="0.0000000000000000e+00" cType="1" res="-4.0374726057052612e-02" rms="2.1301013231277466e-01" purity="3.0969470739364624e-01" nType="-99"/>
        </Node>
        <Node pos="r" depth="1" NCoef="0" IVar="9" Cut="1.6570358276367188e+00" cType="1" res="-3.2740226015448570e-04" rms="1.8560752272605896e-01" purity="5.2243363857269287e-01" nType="0">
          <Node pos="l" depth="2" NCoef="0" IVar="1" Cut="1.6979534912109375e+03" cType="1" res="5.3547858260571957e-04" rms="1.8383687734603882e-01" purity="5.4015213251113892e-01" nType="0">
            <Node pos="l" depth="3" NCoef="0" IVar="-1" Cut="0.0000000000000000e+00" cType="1" res="-2.9957145452499390e-02" rms="8.5876718163490295e-02" purity="7.9044234007596970e-03" nType="-99"/>
            <Node pos="r" depth="3" NCoef="0" IVar="-1" Cut="0.0000000000000000e+00" cType="1" res="4.8855734057724476e-03" rms="2.1259354054927826e-01" purity="7.6997166872024536e-01" nType="-99"/>
          </Node>
          <Node pos="r" depth="2" NCoef="0" IVar="1" Cut="1.8629227294921875e+03" cType="1" res="-1.0807652026414871e-02" rms="2.0561228692531586e-01" purity="3.0723059177398682e-01" nType="0">
            <Node pos="l" depth="3" NCoef="0" IVar="-1" Cut="0.0000000000000000e+00" cType="1" res="-5.9991157613694668e-03" rms="1.5777055919170380e-01" purity="3.1497500836849213e-02" nType="-99"/>
            <Node pos="r" depth="3" NCoef="0" IVar="-1" Cut="0.0000000000000000e+00" cType="1" res="-3.3583037555217743e-02" rms="2.6048186421394348e-01" purity="7.1778887510299683e-01" nType="-99"/>
          </Node>
        </Node>
      </Node>
    </BinaryTree>
    <BinaryTree type="DecisionTree" boostWeight="1.0000000000000000e+00" itree="177">
      <Node pos="s" depth="0" NCoef="0" IVar="9" Cut="1.9997553825378418e+00" cType="1" res="-1.5640042256563902e-03" rms="1.9111323356628418e-01" purity="5.0105017423629761e-01" nType="0">
        <Node pos="l" depth="1" NCoef="0" IVar="7" Cut="7.1085089445114136e-01" cType="1" res="-9.3440886121243238e-04" rms="1.8983660638332367e-01" purity="5.1153177022933960e-01" nType="0">
          <Node pos="l" depth="2" NCoef="0" IVar="3" Cut="5.0095898437500000e+02" cType="1" res="-2.1354779601097107e-03" rms="1.8343836069107056e-01" purity="5.5053341388702393e-01" nType="0">
            <Node pos="l" depth="3" NCoef="0" IVar="-1" Cut="0.0000000000000000e+00" cType="1" res="-2.4616403505206108e-02" rms="1.8281260132789612e-01" purity="9.0467289090156555e-02" nType="-99"/>
            <Node pos="r" depth="3" NCoef="0" IVar="-1" Cut="0.0000000000000000e+00" cType="1" res="-1.2696988414973021e-03" rms="1.8356089293956757e-01" purity="6.6978287696838379e-01" nType="-99"/>
          </Node>
          <Node pos="r" depth="2" NCoef="0" IVar="7" Cut="1.1084506511688232e+00" cType="1" res="4.0013133548200130e-03" rms="2.1406127512454987e-01" purity="3.5125669836997986e-01" nType="0">
            <Node pos="l" depth="3" NCoef="0" IVar="-1" Cut="0.0000000000000000e+00" cType="1" res="2.4480644613504410e-02" rms="2.2363649308681488e-01" purity="4.7809430956840515e-01" nType="-99"/>
            <Node pos="r" depth="3" NCoef="0" IVar="-1" Cut="0.0000000000000000e+00" cType="1" res="-9.6634561195969582e-03" rms="2.0278452336788177e-01" purity="2.1253228187561035e-01" nType="-99"/>
          </Node>
        </Node>
        <Node pos="r" depth="1" NCoef="0" IVar="-1" Cut="0.0000000000000000e+00" cType="1" res="-3.4977797418832779e-02" rms="2.2320219874382019e-01" purity="2.0757536590099335e-01" nType="-99"/>
      </Node>
    </BinaryTree>
    <BinaryTree type="DecisionTree" boostWeight="1.0000000000000000e+00" itree="178">
      <Node pos="s" depth="0" NCoef="0" IVar="10" Cut="-1.7332875728607178e+00" cType="1" res="6.3476862851530313e-04" rms="1.8584507703781128e-01" purity="5.0500971078872681e-01" nType="0">
        <Node pos="l" depth="1" NCoef="0" IVar="2" Cut="1.7739394679665565e-02" cType="1" res="8.8985441252589226e-03" rms="2.3197391629219055e-01" purity="4.1047629714012146e-01" nType="0">
          <Node pos="l" depth="2" NCoef="0" IVar="-1" Cut="0.0000000000000000e+00" cType="1" res="-8.7183592841029167e-03" rms="2.0012865960597992e-01" purity="1.7029160261154175e-01" nType="-99"/>
          <Node pos="r" depth="2" NCoef="0" IVar="-1" Cut="0.0000000000000000e+00" cType="1" res="2.7473127469420433e-02" rms="2.4568344652652740e-01" purity="5.2696281671524048e-01" nType="-99"/>
        </Node>
        <Node pos="r" depth="1" NCoef="0" IVar="10" Cut="1.0729906558990479e+00" cType="1" res="-8.0757723480928689e-05" rms="1.8128196895122528e-01" purity="5.1319491863250732e-01" nType="0">
          <Node pos="l" depth="2" NCoef="0" IVar="0" Cut="5.7298547363281250e+02" cType="1" res="1.2172217248007655e-03" rms="1.7630495131015778e-01" purity="5.2558827400207520e-01" nType="0">
            <Node pos="l" depth="3" NCoef="0" IVar="-1" Cut="0.0000000000000000e+00" cType="1" res="-9.2701334506273270e-03" rms="1.7014701664447784e-01" purity="7.4280142784118652e-02" nType="-99"/>
            <Node pos="r" depth="3" NCoef="0" IVar="-1" Cut="0.0000000000000000e+00" cType="1" res="1.0958928614854813e-02" rms="1.7951141297817230e-01" purity="7.7007734775543213e-01" nType="-99"/>
          </Node>
          <Node pos="r" depth="2" NCoef="0" IVar="6" Cut="7.9294601440429688e+01" cType="1" res="-4.9360236153006554e-03" rms="1.9872231781482697e-01" purity="4.6683618426322937e-01" nType="0">
            <Node pos="l" depth="3" NCoef="0" IVar="-1" Cut="0.0000000000000000e+00" cType="1" res="-4.8496577888727188e-02" rms="1.6826348006725311e-01" purity="1.4932604134082794e-01" nType="-99"/>
            <Node pos="r" depth="3" NCoef="0" IVar="-1" Cut="0.0000000000000000e+00" cType="1" res="-1.6879383474588394e-03" rms="2.0891073346138000e-01" purity="5.8662909269332886e-01" nType="-99"/>
          </Node>
        </Node>
      </Node>
    </BinaryTree>
    <BinaryTree type="DecisionTree" boostWeight="1.0000000000000000e+00" itree="179">
      <Node pos="s" depth="0" NCoef="0" IVar="9" Cut="1.9997792243957520e+00" cType="1" res="2.1301505330484360e-04" rms="1.9059775769710541e-01" purity="4.9621036648750305e-01" nType="0">
        <Node pos="l" depth="1" NCoef="0" IVar="8" Cut="1.4666806459426880e+00" cType="1" res="-4.7227984759956598e-04" rms="1.8814156949520111e-01" purity="5.0517708063125610e-01" nType="0">
          <Node pos="l" depth="2" NCoef="0" IVar="7" Cut="1.4701749086380005e+00" cType="1" res="4.9209664575755596e-04" rms="1.8547530472278595e-01" purity="5.2571827173233032e-01" nType="0">
            <Node pos="l" depth="3" NCoef="0" IVar="-1" Cut="0.0000000000000000e+00" cType="1" res="-3.4807526390068233e-04" rms="1.8347132205963135e-01" purity="5.4315495491027832e-01" nType="-99"/>
            <Node pos="r" depth="3" NCoef="0" IVar="-1" Cut="0.0000000000000000e+00" cType="1" res="4.0002159774303436e-02" rms="2.2528912127017975e-01" purity="1.3540761172771454e-01" nType="-99"/>
          </Node>
          <Node pos="r" depth="2" NCoef="0" IVar="4" Cut="2.5726232910156250e+02" cType="1" res="-1.3233553618192673e-02" rms="2.2000908851623535e-01" purity="2.3336191475391388e-01" nType="0">
            <Node pos="l" depth="3" NCoef="0" IVar="-1" Cut="0.0000000000000000e+00" cType="1" res="2.5076635181903839e-02" rms="1.8233330547809601e-01" purity="7.3713421821594238e-02" nType="-99"/>
            <Node pos="r" depth="3" NCoef="0" IVar="-1" Cut="0.0000000000000000e+00" cType="1" res="-5.5107794702053070e-02" rms="2.3924550414085388e-01" purity="3.3094942569732666e-01" nType="-99"/>
          </Node>
        </Node>
        <Node pos="r" depth="1" NCoef="0" IVar="-1" Cut="0.0000000000000000e+00" cType="1" res="3.4301906824111938e-02" rms="2.4813671410083771e-01" purity="2.4932372570037842e-01" nType="-99"/>
      </Node>
    </BinaryTree>
    <BinaryTree type="DecisionTree" boostWeight="1.0000000000000000e+00" itree="180">
      <Node pos="s" depth="0" NCoef="0" IVar="10" Cut="-2.2666301727294922e+00" cType="1" res="1.2260084040462971e-03" rms="1.9107860326766968e-01" purity="4.9946933984756470e-01" nType="0">
        <Node pos="l" depth="1" NCoef="0" IVar="-1" Cut="0.0000000000000000e+00" cType="1" res="-3.5656318068504333e-02" rms="2.3348450660705566e-01" purity="3.0663439631462097e-01" nType="-99"/>
        <Node pos="r" depth="1" NCoef="0" IVar="10" Cut="1.8349148035049438e+00" cType="1" res="1.8131216056644917e-03" rms="1.8976150453090668e-01" purity="5.0470203161239624e-01" nType="0">
          <Node pos="l" depth="2" NCoef="0" IVar="3" Cut="3.4018560791015625e+02" cType="1" res="2.5410479865968227e-03" rms="1.8642708659172058e-01" purity="5.1315194368362427e-01" nType="0">
            <Node pos="l" depth="3" NCoef="0" IVar="-1" Cut="0.0000000000000000e+00" cType="1" res="6.6397190093994141e-02" rms="1.8902732431888580e-01" purity="5.1958829164505005e-02" nType="-99"/>
            <Node pos="r" depth="3" NCoef="0" IVar="-1" Cut="0.0000000000000000e+00" cType="1" res="5.4601705633103848e-03" rms="1.8628308176994324e-01" purity="5.3431397676467896e-01" nType="-99"/>
          </Node>
          <Node pos="r" depth="2" NCoef="0" IVar="1" Cut="1.6756213378906250e+03" cType="1" res="-7.8284656628966331e-03" rms="2.2918103635311127e-01" purity="3.9278081059455872e-01" nType="0">
            <Node pos="l" depth="3" NCoef="0" IVar="-1" Cut="0.0000000000000000e+00" cType="1" res="4.6732142567634583e-02" rms="1.4946357905864716e-01" purity="2.5381091982126236e-02" nType="-99"/>
            <Node pos="r" depth="3" NCoef="0" IVar="-1" Cut="0.0000000000000000e+00" cType="1" res="-2.4825615808367729e-02" rms="2.7034384012222290e-01" purity="6.4648914337158203e-01" nType="-99"/>
          </Node>
        </Node>
      </Node>
    </BinaryTree>
    <BinaryTree type="DecisionTree" boostWeight="1.0000000000000000e+00" itree="181">
      <Node pos="s" depth="0" NCoef="0" IVar="10" Cut="-1.4666280746459961e+00" cType="1" res="1.7271762480959296e-03" rms="1.9207850098609924e-01" purity="4.9928984045982361e-01" nType="0">
        <Node pos="l" depth="1" NCoef="0" IVar="6" Cut="1.3156156921386719e+02" cType="1" res="-9.2362919822335243e-03" rms="2.0520251989364624e-01" purity="4.3386885523796082e-01" nType="0">
          <Node pos="l" depth="2" NCoef="0" IVar="1" Cut="1.6740848388671875e+03" cType="1" res="-1.4197603799402714e-02" rms="1.9835622608661652e-01" purity="2.3178054392337799e-01" nType="0">
            <Node pos="l" depth="3" NCoef="0" IVar="-1" Cut="0.0000000000000000e+00" cType="1" res="-3.8685515522956848e-02" rms="9.8637588322162628e-02" purity="9.4558438286185265e-03" nType="-99"/>
            <Node pos="r" depth="3" NCoef="0" IVar="-1" Cut="0.0000000000000000e+00" cType="1" res="-3.0611500144004822e-02" rms="2.6364645361900330e-01" purity="4.5940214395523071e-01" nType="-99"/>
          </Node>
          <Node pos="r" depth="2" NCoef="0" IVar="-1" Cut="0.0000000000000000e+00" cType="1" res="-3.6221945192664862e-03" rms="2.1490290760993958e-01" purity="7.3875832557678223e-01" nType="-99"/>
        </Node>
        <Node pos="r" depth="1" NCoef="0" IVar="10" Cut="1.9872485399246216e+00" cType="1" res="3.2164163421839476e-03" rms="1.9017718732357025e-01" purity="5.0817638635635376e-01" nType="0">
          <Node pos="l" depth="2" NCoef="0" IVar="3" Cut="3.5056497192382812e+02" cType="1" res="2.3053381592035294e-03" rms="1.8518424034118652e-01" purity="5.1567411422729492e-01" nType="0">
            <Node pos="l" depth="3" NCoef="0" IVar="-1" Cut="0.0000000000000000e+00" cType="1" res="5.4917171597480774e-02" rms="1.9114813208580017e-01" purity="5.7216644287109375e-02" nType="-99"/>
            <Node pos="r" depth="3" NCoef="0" IVar="-1" Cut="0.0000000000000000e+00" cType="1" res="4.7869393602013588e-03" rms="1.8483923375606537e-01" purity="5.3985100984573364e-01" nType="-99"/>
          </Node>
          <Node pos="r" depth="2" NCoef="0" IVar="-1" Cut="0.0000000000000000e+00" cType="1" res="3.3938650041818619e-02" rms="2.5844565033912659e-01" purity="3.8469579815864563e-01" nType="-99"/>
        </Node>
      </Node>
    </BinaryTree>
    <BinaryTree type="DecisionTree" boostWeight="1.0000000000000000e+00" itree="182">
      <Node pos="s" depth="0" NCoef="0" IVar="9" Cut="-1.7332874536514282e+00" cType="1" res="1.4349470147863030e-03" rms="1.8846794962882996e-01" purity="5.0277519226074219e-01" nType="0">
        <Node pos="l" depth="1" NCoef="0" IVar="1" Cut="1.6585163574218750e+03" cType="1" res="-1.4553599990904331e-02" rms="2.0133216679096222e-01" purity="2.8328052163124084e-01" nType="0">
          <Node pos="l" depth="2" NCoef="0" IVar="-1" Cut="0.0000000000000000e+00" cType="1" res="1.8379561197434668e-06" rms="1.0863561183214188e-01" purity="1.5911016613245010e-02" nType="-99"/>
          <Node pos="r" depth="2" NCoef="0" IVar="-1" Cut="0.0000000000000000e+00" cType="1" res="-3.8294982165098190e-02" rms="2.5734615325927734e-01" purity="5.2576553821563721e-01" nType="-99"/>
        </Node>
        <Node pos="r" depth="1" NCoef="0" IVar="7" Cut="4.0695852041244507e-01" cType="1" res="2.4044916499406099e-03" rms="1.8761569261550903e-01" purity="5.1608532667160034e-01" nType="0">
          <Node pos="l" depth="2" NCoef="0" IVar="1" Cut="2.5918264160156250e+03" cType="1" res="4.1849822737276554e-03" rms="1.8413428962230682e-01" purity="5.5048471689224243e-01" nType="0">
            <Node pos="l" depth="3" NCoef="0" IVar="-1" Cut="0.0000000000000000e+00" cType="1" res="1.6544504091143608e-02" rms="2.2443491220474243e-01" purity="1.6069088876247406e-01" nType="-99"/>
            <Node pos="r" depth="3" NCoef="0" IVar="-1" Cut="0.0000000000000000e+00" cType="1" res="-5.7957734679803252e-04" rms="1.2565970420837402e-01" purity="9.7849947214126587e-01" nType="-99"/>
          </Node>
          <Node pos="r" depth="2" NCoef="0" IVar="10" Cut="1.4667432308197021e+00" cType="1" res="-1.6966881230473518e-03" rms="1.9533719122409821e-01" purity="4.3684974312782288e-01" nType="0">
            <Node pos="l" depth="3" NCoef="0" IVar="-1" Cut="0.0000000000000000e+00" cType="1" res="6.4465648028999567e-04" rms="1.9548130035400391e-01" purity="4.4875168800354004e-01" nType="-99"/>
            <Node pos="r" depth="3" NCoef="0" IVar="-1" Cut="0.0000000000000000e+00" cType="1" res="-3.3649347722530365e-02" rms="1.9384144246578217e-01" purity="3.5610660910606384e-01" nType="-99"/>
          </Node>
        </Node>
      </Node>
    </BinaryTree>
    <BinaryTree type="DecisionTree" boostWeight="1.0000000000000000e+00" itree="183">
      <Node pos="s" depth="0" NCoef="0" IVar="9" Cut="1.9998749494552612e+00" cType="1" res="-1.6761861043050885e-03" rms="1.8807631731033325e-01" purity="4.9614885449409485e-01" nType="0">
        <Node pos="l" depth="1" NCoef="0" IVar="4" Cut="5.2661871337890625e+02" cType="1" res="-2.3499389644712210e-03" rms="1.8585403263568878e-01" purity="5.0523841381072998e-01" nType="0">
          <Node pos="l" depth="2" NCoef="0" IVar="5" Cut="2.5290188598632812e+02" cType="1" res="-4.6489350497722626e-03" rms="2.0171907544136047e-01" purity="2.9050889611244202e-01" nType="0">
            <Node pos="l" depth="3" NCoef="0" IVar="-1" Cut="0.0000000000000000e+00" cType="1" res="-1.9080338999629021e-02" rms="1.8045350909233093e-01" purity="1.0914435982704163e-01" nType="-99"/>
            <Node pos="r" depth="3" NCoef="0" IVar="-1" Cut="0.0000000000000000e+00" cType="1" res="1.0518362978473306e-03" rms="2.4694192409515381e-01" purity="7.4415767192840576e-01" nType="-99"/>
          </Node>
          <Node pos="r" depth="2" NCoef="0" IVar="1" Cut="2.8623532714843750e+03" cType="1" res="2.3472723551094532e-03" rms="1.4814101159572601e-01" purity="9.4396448135375977e-01" nType="0">
            <Node pos="l" depth="3" NCoef="0" IVar="-1" Cut="0.0000000000000000e+00" cType="1" res="2.0964223891496658e-02" rms="2.8717762231826782e-01" purity="7.1710115671157837e-01" nType="-99"/>
            <Node pos="r" depth="3" NCoef="0" IVar="-1" Cut="0.0000000000000000e+00" cType="1" res="-8.9097786694765091e-03" rms="1.0004399716854095e-01" purity="9.8847448825836182e-01" nType="-99"/>
          </Node>
        </Node>
        <Node pos="r" depth="1" NCoef="0" IVar="-1" Cut="0.0000000000000000e+00" cType="1" res="3.1790159642696381e-02" rms="2.4005314707756042e-01" purity="2.4893333017826080e-01" nType="-99"/>
      </Node>
    </BinaryTree>
    <BinaryTree type="DecisionTree" boostWeight="1.0000000000000000e+00" itree="184">
      <Node pos="s" depth="0" NCoef="0" IVar="8" Cut="-1.1999006271362305e+00" cType="1" res="1.0496474569663405e-03" rms="1.9437308609485626e-01" purity="5.0550842285156250e-01" nType="0">
        <Node pos="l" depth="1" NCoef="0" IVar="9" Cut="-1.3385102152824402e-01" cType="1" res="-1.3334073126316071e-02" rms="1.9934999942779541e-01" purity="2.8710308670997620e-01" nType="0">
          <Node pos="l" depth="2" NCoef="0" IVar="4" Cut="3.0959225463867188e+02" cType="1" res="-2.0503727719187737e-03" rms="2.0834915339946747e-01" purity="2.7714982628822327e-01" nType="0">
            <Node pos="l" depth="3" NCoef="0" IVar="-1" Cut="0.0000000000000000e+00" cType="1" res="2.3582492023706436e-02" rms="1.8756787478923798e-01" purity="1.0273692756891251e-01" nType="-99"/>
            <Node pos="r" depth="3" NCoef="0" IVar="-1" Cut="0.0000000000000000e+00" cType="1" res="-2.5426069274544716e-02" rms="2.2742338478565216e-01" purity="4.5808014273643494e-01" nType="-99"/>
          </Node>
          <Node pos="r" depth="2" NCoef="0" IVar="8" Cut="-1.5808715820312500e+00" cType="1" res="-2.4225620552897453e-02" rms="1.8962451815605164e-01" purity="2.9671040177345276e-01" nType="0">
            <Node pos="l" depth="3" NCoef="0" IVar="-1" Cut="0.0000000000000000e+00" cType="1" res="-7.4222646653652191e-02" rms="1.9588972628116608e-01" purity="1.9665740430355072e-01" nType="-99"/>
            <Node pos="r" depth="3" NCoef="0" IVar="-1" Cut="0.0000000000000000e+00" cType="1" res="-2.9794188216328621e-02" rms="1.8292215466499329e-01" purity="3.8917875289916992e-01" nType="-99"/>
          </Node>
        </Node>
        <Node pos="r" depth="1" NCoef="0" IVar="1" Cut="2.2938605957031250e+03" cType="1" res="2.8596434276551008e-03" rms="1.9366209208965302e-01" purity="5.3299182653427124e-01" nType="0">
          <Node pos="l" depth="2" NCoef="0" IVar="5" Cut="2.6219393920898438e+02" cType="1" res="7.1749002672731876e-03" rms="2.1619842946529388e-01" purity="8.2175143063068390e-02" nType="0">
            <Node pos="l" depth="3" NCoef="0" IVar="-1" Cut="0.0000000000000000e+00" cType="1" res="2.9107028618454933e-02" rms="1.9702270627021790e-01" purity="5.9913586825132370e-02" nType="-99"/>
            <Node pos="r" depth="3" NCoef="0" IVar="-1" Cut="0.0000000000000000e+00" cType="1" res="-1.1400004848837852e-02" rms="3.3951213955879211e-01" purity="2.7600368857383728e-01" nType="-99"/>
          </Node>
          <Node pos="r" depth="2" NCoef="0" IVar="9" Cut="-9.3274050951004028e-01" cType="1" res="-1.1290244292467833e-03" rms="1.7010052502155304e-01" purity="9.4968956708908081e-01" nType="0">
            <Node pos="l" depth="3" NCoef="0" IVar="-1" Cut="0.0000000000000000e+00" cType="1" res="1.8657946959137917e-02" rms="1.8760363757610321e-01" purity="9.4476121664047241e-01" nType="-99"/>
            <Node pos="r" depth="3" NCoef="0" IVar="-1" Cut="0.0000000000000000e+00" cType="1" res="-1.0088508017361164e-02" rms="1.6615819931030273e-01" purity="9.5072078704833984e-01" nType="-99"/>
          </Node>
        </Node>
      </Node>
    </BinaryTree>
    <BinaryTree type="DecisionTree" boostWeight="1.0000000000000000e+00" itree="185">
      <Node pos="s" depth="0" NCoef="0" IVar="7" Cut="-8.7865400314331055e-01" cType="1" res="-1.1297260643914342e-03" rms="1.8803365528583527e-01" purity="4.9749609827995300e-01" nType="0">
        <Node pos="l" depth="1" NCoef="0" IVar="6" Cut="8.0322204589843750e+01" cType="1" res="7.0869377814233303e-03" rms="2.0514169335365295e-01" purity="2.7876839041709900e-01" nType="0">
          <Node pos="l" depth="2" NCoef="0" IVar="-1" Cut="0.0000000000000000e+00" cType="1" res="-4.5433916151523590e-02" rms="1.1805208772420883e-01" purity="4.9902625381946564e-02" nType="-99"/>
          <Node pos="r" depth="2" NCoef="0" IVar="8" Cut="1.3658824563026428e-01" cType="1" res="1.3797949999570847e-02" rms="2.3100791871547699e-01" purity="3.7176766991615295e-01" nType="0">
            <Node pos="l" depth="3" NCoef="0" IVar="-1" Cut="0.0000000000000000e+00" cType="1" res="3.2280783634632826e-03" rms="2.1934965252876282e-01" purity="3.8677293062210083e-01" nType="-99"/>
            <Node pos="r" depth="3" NCoef="0" IVar="-1" Cut="0.0000000000000000e+00" cType="1" res="6.1898510903120041e-02" rms="2.4267092347145081e-01" purity="3.5494309663772583e-01" nType="-99"/>
          </Node>
        </Node>
        <Node pos="r" depth="1" NCoef="0" IVar="6" Cut="1.2492457580566406e+02" cType="1" res="-2.5220764800906181e-03" rms="1.8494173884391785e-01" purity="5.3456044197082520e-01" nType="0">
          <Node pos="l" depth="2" NCoef="0" IVar="9" Cut="-1.4659328460693359e+00" cType="1" res="-6.1628725379705429e-03" rms="1.8742154538631439e-01" purity="2.2324606776237488e-01" nType="0">
            <Node pos="l" depth="3" NCoef="0" IVar="-1" Cut="0.0000000000000000e+00" cType="1" res="1.5724357217550278e-02" rms="2.1767061948776245e-01" purity="1.9773279130458832e-01" nType="-99"/>
            <Node pos="r" depth="3" NCoef="0" IVar="-1" Cut="0.0000000000000000e+00" cType="1" res="-2.1358575671911240e-02" rms="1.8263179063796997e-01" purity="2.2687824070453644e-01" nType="-99"/>
          </Node>
          <Node pos="r" depth="2" NCoef="0" IVar="5" Cut="2.3132580566406250e+02" cType="1" res="5.3821020992472768e-04" rms="1.8277521431446075e-01" purity="7.9623711109161377e-01" nType="0">
            <Node pos="l" depth="3" NCoef="0" IVar="-1" Cut="0.0000000000000000e+00" cType="1" res="1.5379532240331173e-02" rms="2.5815907120704651e-01" purity="3.4764146804809570e-01" nType="-99"/>
            <Node pos="r" depth="3" NCoef="0" IVar="-1" Cut="0.0000000000000000e+00" cType="1" res="-7.4641020037233829e-03" rms="1.5679830312728882e-01" purity="9.1490679979324341e-01" nType="-99"/>
          </Node>
        </Node>
      </Node>
    </BinaryTree>
    <BinaryTree type="DecisionTree" boostWeight="1.0000000000000000e+00" itree="186">
      <Node pos="s" depth="0" NCoef="0" IVar="10" Cut="2.2665908336639404e+00" cType="1" res="-1.0751397348940372e-03" rms="1.8892650306224823e-01" purity="5.0025957822799683e-01" nType="0">
        <Node pos="l" depth="1" NCoef="0" IVar="3" Cut="5.0089886474609375e+02" cType="1" res="-1.5674851601943374e-03" rms="1.8607531487941742e-01" purity="5.0451415777206421e-01" nType="0">
          <Node pos="l" depth="2" NCoef="0" IVar="7" Cut="-1.3495837450027466e+00" cType="1" res="-8.2510737702250481e-03" rms="1.8572755157947540e-01" purity="9.5418207347393036e-02" nType="0">
            <Node pos="l" depth="3" NCoef="0" IVar="-1" Cut="0.0000000000000000e+00" cType="1" res="5.0521265715360641e-02" rms="1.9128736853599548e-01" purity="9.7308695316314697e-02" nType="-99"/>
            <Node pos="r" depth="3" NCoef="0" IVar="-1" Cut="0.0000000000000000e+00" cType="1" res="-2.7751555666327477e-02" rms="1.8476812541484833e-01" purity="9.5172055065631866e-02" nType="-99"/>
          </Node>
          <Node pos="r" depth="2" NCoef="0" IVar="8" Cut="1.2000089883804321e+00" cType="1" res="4.2132596718147397e-04" rms="1.8613234162330627e-01" purity="6.2624740600585938e-01" nType="0">
            <Node pos="l" depth="3" NCoef="0" IVar="-1" Cut="0.0000000000000000e+00" cType="1" res="4.5772562734782696e-03" rms="1.8167628347873688e-01" purity="6.5003818273544312e-01" nType="-99"/>
            <Node pos="r" depth="3" NCoef="0" IVar="-1" Cut="0.0000000000000000e+00" cType="1" res="-2.2289453074336052e-02" rms="2.2392427921295166e-01" purity="3.9949792623519897e-01" nType="-99"/>
          </Node>
        </Node>
        <Node pos="r" depth="1" NCoef="0" IVar="-1" Cut="0.0000000000000000e+00" cType="1" res="3.1094137579202652e-02" rms="2.7186724543571472e-01" purity="3.4689274430274963e-01" nType="-99"/>
      </Node>
    </BinaryTree>
    <BinaryTree type="DecisionTree" boostWeight="1.0000000000000000e+00" itree="187">
      <Node pos="s" depth="0" NCoef="0" IVar="8" Cut="-9.3324524164199829e-01" cType="1" res="-5.8529351372271776e-04" rms="1.8676531314849854e-01" purity="5.0030791759490967e-01" nType="0">
        <Node pos="l" depth="1" NCoef="0" IVar="1" Cut="1.8618630371093750e+03" cType="1" res="7.2218198329210281e-03" rms="2.0826944708824158e-01" purity="3.6561319231987000e-01" nType="0">
          <Node pos="l" depth="2" NCoef="0" IVar="6" Cut="1.1461508178710938e+02" cType="1" res="-2.5713092181831598e-03" rms="1.3357391953468323e-01" purity="2.2397959604859352e-02" nType="0">
            <Node pos="l" depth="3" NCoef="0" IVar="-1" Cut="0.0000000000000000e+00" cType="1" res="-5.2329890429973602e-02" rms="8.5732713341712952e-02" purity="7.3978509753942490e-03" nType="-99"/>
            <Node pos="r" depth="3" NCoef="0" IVar="-1" Cut="0.0000000000000000e+00" cType="1" res="1.8691949546337128e-02" rms="2.0998631417751312e-01" purity="6.0154076665639877e-02" nType="-99"/>
          </Node>
          <Node pos="r" depth="2" NCoef="0" IVar="4" Cut="3.7965521240234375e+02" cType="1" res="1.8592162057757378e-02" rms="2.6978150010108948e-01" purity="7.6410418748855591e-01" nType="0">
            <Node pos="l" depth="3" NCoef="0" IVar="-1" Cut="0.0000000000000000e+00" cType="1" res="5.0423413515090942e-02" rms="3.4268862009048462e-01" purity="5.6481462717056274e-01" nType="-99"/>
            <Node pos="r" depth="3" NCoef="0" IVar="-1" Cut="0.0000000000000000e+00" cType="1" res="5.5877268314361572e-03" rms="2.2937682271003723e-01" purity="8.5044425725936890e-01" nType="-99"/>
          </Node>
        </Node>
        <Node pos="r" depth="1" NCoef="0" IVar="10" Cut="-1.7333121299743652e+00" cType="1" res="-2.2798343561589718e-03" rms="1.8171779811382294e-01" purity="5.2954357862472534e-01" nType="0">
          <Node pos="l" depth="2" NCoef="0" IVar="0" Cut="6.2744653320312500e+02" cType="1" res="-1.4333602041006088e-02" rms="2.1129240095615387e-01" purity="4.3632313609123230e-01" nType="0">
            <Node pos="l" depth="3" NCoef="0" IVar="-1" Cut="0.0000000000000000e+00" cType="1" res="-5.0196073949337006e-02" rms="2.0704840123653412e-01" purity="1.2511667609214783e-01" nType="-99"/>
            <Node pos="r" depth="3" NCoef="0" IVar="-1" Cut="0.0000000000000000e+00" cType="1" res="-1.7017005011439323e-03" rms="2.1463631093502045e-01" purity="7.4979001283645630e-01" nType="-99"/>
          </Node>
          <Node pos="r" depth="2" NCoef="0" IVar="9" Cut="9.3315118551254272e-01" cType="1" res="-1.2857177061960101e-03" rms="1.7902454733848572e-01" purity="5.3723174333572388e-01" nType="0">
            <Node pos="l" depth="3" NCoef="0" IVar="-1" Cut="0.0000000000000000e+00" cType="1" res="-8.9446986094117165e-03" rms="1.7186093330383301e-01" purity="5.6196284294128418e-01" nType="-99"/>
            <Node pos="r" depth="3" NCoef="0" IVar="-1" Cut="0.0000000000000000e+00" cType="1" res="1.1706215329468250e-02" rms="2.0371232926845551e-01" purity="4.4383427500724792e-01" nType="-99"/>
          </Node>
        </Node>
      </Node>
    </BinaryTree>
    <BinaryTree type="DecisionTree" boostWeight="1.0000000000000000e+00" itree="188">
      <Node pos="s" depth="0" NCoef="0" IVar="9" Cut="-1.4666345119476318e+00" cType="1" res="5.3946143452776596e-05" rms="1.8786224722862244e-01" purity="4.9974712729454041e-01" nType="0">
        <Node pos="l" depth="1" NCoef="0" IVar="10" Cut="-9.3348258733749390e-01" cType="1" res="1.1086003854870796e-02" rms="2.2933126986026764e-01" purity="3.5160204768180847e-01" nType="0">
          <Node pos="l" depth="2" NCoef="0" IVar="-1" Cut="0.0000000000000000e+00" cType="1" res="4.9659300595521927e-02" rms="2.5211331248283386e-01" purity="3.1255340576171875e-01" nType="-99"/>
          <Node pos="r" depth="2" NCoef="0" IVar="5" Cut="1.7112435913085938e+02" cType="1" res="4.5792614109814167e-03" rms="2.1825104951858521e-01" purity="3.6876419186592102e-01" nType="0">
            <Node pos="l" depth="3" NCoef="0" IVar="-1" Cut="0.0000000000000000e+00" cType="1" res="-9.8978877067565918e-03" rms="1.6043804585933685e-01" purity="8.7317608296871185e-02" nType="-99"/>
            <Node pos="r" depth="3" NCoef="0" IVar="-1" Cut="0.0000000000000000e+00" cType="1" res="1.8030790612101555e-02" rms="2.5294047594070435e-01" purity="5.7990759611129761e-01" nType="-99"/>
          </Node>
        </Node>
        <Node pos="r" depth="1" NCoef="0" IVar="5" Cut="2.6694738769531250e+02" cType="1" res="-1.1108990292996168e-03" rms="1.8289694190025330e-01" purity="5.1538944244384766e-01" nType="0">
          <Node pos="l" depth="2" NCoef="0" IVar="7" Cut="1.4681336879730225e+00" cType="1" res="-3.7780753336846828e-03" rms="1.9561323523521423e-01" purity="1.9003690779209137e-01" nType="0">
            <Node pos="l" depth="3" NCoef="0" IVar="-1" Cut="0.0000000000000000e+00" cType="1" res="-1.1773667298257351e-02" rms="1.9549046456813812e-01" purity="1.9850143790245056e-01" nType="-99"/>
            <Node pos="r" depth="3" NCoef="0" IVar="-1" Cut="0.0000000000000000e+00" cType="1" res="3.6818593740463257e-02" rms="1.9682741165161133e-01" purity="6.5250106155872345e-02" nType="-99"/>
          </Node>
          <Node pos="r" depth="2" NCoef="0" IVar="0" Cut="5.7770324707031250e+02" cType="1" res="2.1580441389232874e-03" rms="1.6592974960803986e-01" purity="9.1414773464202881e-01" nType="0">
            <Node pos="l" depth="3" NCoef="0" IVar="-1" Cut="0.0000000000000000e+00" cType="1" res="1.9261352717876434e-02" rms="3.3127674460411072e-01" purity="4.4221645593643188e-01" nType="-99"/>
            <Node pos="r" depth="3" NCoef="0" IVar="-1" Cut="0.0000000000000000e+00" cType="1" res="-1.3033016584813595e-03" rms="1.3020341098308563e-01" purity="9.7459197044372559e-01" nType="-99"/>
          </Node>
        </Node>
      </Node>
    </BinaryTree>
    <BinaryTree type="DecisionTree" boostWeight="1.0000000000000000e+00" itree="189">
      <Node pos="s" depth="0" NCoef="0" IVar="8" Cut="1.7332966327667236e+00" cType="1" res="1.7860423540696502e-03" rms="1.9325153529644012e-01" purity="5.0084656476974487e-01" nType="0">
        <Node pos="l" depth="1" NCoef="0" IVar="10" Cut="1.1999958753585815e+00" cType="1" res="1.0870468104258180e-03" rms="1.9069537520408630e-01" purity="5.1450884342193604e-01" nType="0">
          <Node pos="l" depth="2" NCoef="0" IVar="9" Cut="1.9998899698257446e+00" cType="1" res="-1.5621144484612159e-05" rms="1.8283657729625702e-01" purity="5.2325230836868286e-01" nType="0">
            <Node pos="l" depth="3" NCoef="0" IVar="-1" Cut="0.0000000000000000e+00" cType="1" res="1.6414070269092917e-03" rms="1.8155141174793243e-01" purity="5.3139913082122803e-01" nType="-99"/>
            <Node pos="r" depth="3" NCoef="0" IVar="-1" Cut="0.0000000000000000e+00" cType="1" res="-2.9448173940181732e-02" rms="2.1790404617786407e-01" purity="2.7350685000419617e-01" nType="-99"/>
          </Node>
          <Node pos="r" depth="2" NCoef="0" IVar="1" Cut="2.2267915039062500e+03" cType="1" res="6.7806472070515156e-03" rms="2.2689971327781677e-01" purity="4.6936210989952087e-01" nType="0">
            <Node pos="l" depth="3" NCoef="0" IVar="-1" Cut="0.0000000000000000e+00" cType="1" res="3.1754065304994583e-02" rms="2.4300479888916016e-01" purity="1.0872877389192581e-01" nType="-99"/>
            <Node pos="r" depth="3" NCoef="0" IVar="-1" Cut="0.0000000000000000e+00" cType="1" res="-1.3066302053630352e-02" rms="2.0405244827270508e-01" purity="9.2672842741012573e-01" nType="-99"/>
          </Node>
        </Node>
        <Node pos="r" depth="1" NCoef="0" IVar="-1" Cut="0.0000000000000000e+00" cType="1" res="4.0717072784900665e-02" rms="2.4544461071491241e-01" purity="1.7814953625202179e-01" nType="-99"/>
      </Node>
    </BinaryTree>
    <BinaryTree type="DecisionTree" boostWeight="1.0000000000000000e+00" itree="190">
      <Node pos="s" depth="0" NCoef="0" IVar="9" Cut="1.9998311996459961e+00" cType="1" res="2.0195585675537586e-03" rms="1.9366441667079926e-01" purity="5.0102084875106812e-01" nType="0">
        <Node pos="l" depth="1" NCoef="0" IVar="10" Cut="-1.4666324853897095e+00" cType="1" res="1.1760899797081947e-03" rms="1.9082216918468475e-01" purity="5.0967270135879517e-01" nType="0">
          <Node pos="l" depth="2" NCoef="0" IVar="0" Cut="8.7842340087890625e+02" cType="1" res="1.1013922281563282e-02" rms="2.2867803275585175e-01" purity="4.3443700671195984e-01" nType="0">
            <Node pos="l" depth="3" NCoef="0" IVar="-1" Cut="0.0000000000000000e+00" cType="1" res="3.3147521317005157e-02" rms="2.4956764280796051e-01" purity="2.4494893848896027e-01" nType="-99"/>
            <Node pos="r" depth="3" NCoef="0" IVar="-1" Cut="0.0000000000000000e+00" cType="1" res="-1.8921177834272385e-02" rms="1.6210897266864777e-01" purity="9.2071741819381714e-01" nType="-99"/>
          </Node>
          <Node pos="r" depth="2" NCoef="0" IVar="8" Cut="1.4665074348449707e+00" cType="1" res="-1.5710559091530740e-04" rms="1.8505707383155823e-01" purity="5.1986843347549438e-01" nType="0">
            <Node pos="l" depth="3" NCoef="0" IVar="-1" Cut="0.0000000000000000e+00" cType="1" res="-3.7191275041550398e-03" rms="1.7941462993621826e-01" purity="5.4067718982696533e-01" nType="-99"/>
            <Node pos="r" depth="3" NCoef="0" IVar="-1" Cut="0.0000000000000000e+00" cType="1" res="3.0802588909864426e-02" rms="2.4594357609748840e-01" purity="2.5219565629959106e-01" nType="-99"/>
          </Node>
        </Node>
        <Node pos="r" depth="1" NCoef="0" IVar="-1" Cut="0.0000000000000000e+00" cType="1" res="4.5051973313093185e-02" rms="2.6435804367065430e-01" purity="2.3934601247310638e-01" nType="-99"/>
      </Node>
    </BinaryTree>
    <BinaryTree type="DecisionTree" boostWeight="1.0000000000000000e+00" itree="191">
      <Node pos="s" depth="0" NCoef="0" IVar="5" Cut="1.6356753540039062e+02" cType="1" res="4.4299010187387466e-04" rms="1.9274088740348816e-01" purity="5.0094020366668701e-01" nType="0">
        <Node pos="l" depth="1" NCoef="0" IVar="1" Cut="1.9481406250000000e+03" cType="1" res="9.4692716374993324e-03" rms="1.7888024449348450e-01" purity="8.5092298686504364e-02" nType="0">
          <Node pos="l" depth="2" NCoef="0" IVar="10" Cut="-1.7331840991973877e+00" cType="1" res="2.3385153617709875e-03" rms="1.1508955806493759e-01" purity="1.4934053644537926e-02" nType="0">
            <Node pos="l" depth="3" NCoef="0" IVar="-1" Cut="0.0000000000000000e+00" cType="1" res="1.1254906654357910e-01" rms="2.0363670587539673e-01" purity="5.1174111664295197e-02" nType="-99"/>
            <Node pos="r" depth="3" NCoef="0" IVar="-1" Cut="0.0000000000000000e+00" cType="1" res="-3.0019604600965977e-03" rms="9.9551856517791748e-02" purity="1.0737953707575798e-02" nType="-99"/>
          </Node>
          <Node pos="r" depth="2" NCoef="0" IVar="10" Cut="1.3328015804290771e-01" cType="1" res="4.4411972165107727e-02" rms="3.4988662600517273e-01" purity="4.2888733744621277e-01" nType="0">
            <Node pos="l" depth="3" NCoef="0" IVar="-1" Cut="0.0000000000000000e+00" cType="1" res="2.8960131108760834e-02" rms="3.3958441019058228e-01" purity="4.0452718734741211e-01" nType="-99"/>
            <Node pos="r" depth="3" NCoef="0" IVar="-1" Cut="0.0000000000000000e+00" cType="1" res="5.5480893701314926e-02" rms="3.5995876789093018e-01" purity="4.5499143004417419e-01" nType="-99"/>
          </Node>
        </Node>
        <Node pos="r" depth="1" NCoef="0" IVar="10" Cut="1.1994876861572266e+00" cType="1" res="-3.5421326756477356e-03" rms="1.9842210412025452e-01" purity="6.8453788757324219e-01" nType="0">
          <Node pos="l" depth="2" NCoef="0" IVar="9" Cut="1.4652944803237915e+00" cType="1" res="-1.0114286560565233e-03" rms="1.9398730993270874e-01" purity="6.9356995820999146e-01" nType="0">
            <Node pos="l" depth="3" NCoef="0" IVar="-1" Cut="0.0000000000000000e+00" cType="1" res="-3.7404877366498113e-04" rms="1.9088004529476166e-01" purity="7.0656758546829224e-01" nType="-99"/>
            <Node pos="r" depth="3" NCoef="0" IVar="-1" Cut="0.0000000000000000e+00" cType="1" res="-2.0893312990665436e-02" rms="2.2973941266536713e-01" purity="5.2745807170867920e-01" nType="-99"/>
          </Node>
          <Node pos="r" depth="2" NCoef="0" IVar="0" Cut="8.8252209472656250e+02" cType="1" res="-1.7122237011790276e-02" rms="2.2020673751831055e-01" purity="6.3607043027877808e-01" nType="0">
            <Node pos="l" depth="3" NCoef="0" IVar="-1" Cut="0.0000000000000000e+00" cType="1" res="-3.9276398718357086e-02" rms="2.5835120677947998e-01" purity="4.1328012943267822e-01" nType="-99"/>
            <Node pos="r" depth="3" NCoef="0" IVar="-1" Cut="0.0000000000000000e+00" cType="1" res="-2.3241644725203514e-02" rms="1.4485824108123779e-01" purity="9.6842545270919800e-01" nType="-99"/>
          </Node>
        </Node>
      </Node>
    </BinaryTree>
    <BinaryTree type="DecisionTree" boostWeight="1.0000000000000000e+00" itree="192">
      <Node pos="s" depth="0" NCoef="0" IVar="10" Cut="2.2665882110595703e+00" cType="1" res="9.0268738858867437e-05" rms="1.8964575231075287e-01" purity="4.9967497587203979e-01" nType="0">
        <Node pos="l" depth="1" NCoef="0" IVar="1" Cut="1.6979572753906250e+03" cType="1" res="6.2809209339320660e-04" rms="1.8836778402328491e-01" purity="5.0405973196029663e-01" nType="0">
          <Node pos="l" depth="2" NCoef="0" IVar="10" Cut="-1.1108298301696777e+00" cType="1" res="-3.9521679282188416e-03" rms="8.5403427481651306e-02" purity="7.4436976574361324e-03" nType="0">
            <Node pos="l" depth="3" NCoef="0" IVar="-1" Cut="0.0000000000000000e+00" cType="1" res="-7.2543613612651825e-02" rms="7.3197223246097565e-02" purity="5.3616403602063656e-03" nType="-99"/>
            <Node pos="r" depth="3" NCoef="0" IVar="-1" Cut="0.0000000000000000e+00" cType="1" res="-2.0066004246473312e-02" rms="8.8282920420169830e-02" purity="8.0028297379612923e-03" nType="-99"/>
          </Node>
          <Node pos="r" depth="2" NCoef="0" IVar="2" Cut="2.0630732178688049e-02" cType="1" res="2.8737382963299751e-03" rms="2.2200824320316315e-01" purity="7.4754452705383301e-01" nType="0">
            <Node pos="l" depth="3" NCoef="0" IVar="-1" Cut="0.0000000000000000e+00" cType="1" res="1.9093235954642296e-02" rms="2.6618462800979614e-01" purity="4.9197420477867126e-01" nType="-99"/>
            <Node pos="r" depth="3" NCoef="0" IVar="-1" Cut="0.0000000000000000e+00" cType="1" res="-1.8750418676063418e-03" rms="2.0306810736656189e-01" purity="8.4236872196197510e-01" nType="-99"/>
          </Node>
        </Node>
        <Node pos="r" depth="1" NCoef="0" IVar="-1" Cut="0.0000000000000000e+00" cType="1" res="-3.8511220365762711e-02" rms="2.3125046491622925e-01" purity="3.3702671527862549e-01" nType="-99"/>
      </Node>
    </BinaryTree>
    <BinaryTree type="DecisionTree" boostWeight="1.0000000000000000e+00" itree="193">
      <Node pos="s" depth="0" NCoef="0" IVar="7" Cut="-1.1205475330352783e+00" cType="1" res="-8.3946349332109094e-04" rms="1.8936447799205780e-01" purity="5.0012016296386719e-01" nType="0">
        <Node pos="l" depth="1" NCoef="0" IVar="5" Cut="2.0540072631835938e+02" cType="1" res="-8.6237527430057526e-03" rms="1.7848280072212219e-01" purity="1.8939420580863953e-01" nType="0">
          <Node pos="l" depth="2" NCoef="0" IVar="3" Cut="5.3941522216796875e+02" cType="1" res="7.0740999944973737e-05" rms="1.3684278726577759e-01" purity="3.2719645649194717e-02" nType="0">
            <Node pos="l" depth="3" NCoef="0" IVar="-1" Cut="0.0000000000000000e+00" cType="1" res="4.5170739293098450e-02" rms="1.4390024542808533e-01" purity="2.8833618387579918e-02" nType="-99"/>
            <Node pos="r" depth="3" NCoef="0" IVar="-1" Cut="0.0000000000000000e+00" cType="1" res="-3.5092297941446304e-02" rms="1.2811486423015594e-01" purity="3.7009697407484055e-02" nType="-99"/>
          </Node>
          <Node pos="r" depth="2" NCoef="0" IVar="-1" Cut="0.0000000000000000e+00" cType="1" res="-3.9482224732637405e-02" rms="2.3364453017711639e-01" purity="4.6504068374633789e-01" nType="-99"/>
        </Node>
        <Node pos="r" depth="1" NCoef="0" IVar="5" Cut="1.5847795104980469e+02" cType="1" res="-5.7931774790631607e-05" rms="1.9040507078170776e-01" purity="5.3131657838821411e-01" nType="0">
          <Node pos="l" depth="2" NCoef="0" IVar="9" Cut="9.3325066566467285e-01" cType="1" res="-4.2025903239846230e-03" rms="1.5355551242828369e-01" purity="7.4758790433406830e-02" nType="0">
            <Node pos="l" depth="3" NCoef="0" IVar="-1" Cut="0.0000000000000000e+00" cType="1" res="-6.8109822459518909e-03" rms="1.5332478284835815e-01" purity="7.1642756462097168e-02" nType="-99"/>
            <Node pos="r" depth="3" NCoef="0" IVar="-1" Cut="0.0000000000000000e+00" cType="1" res="-3.6985915154218674e-02" rms="1.5400731563568115e-01" purity="8.4012493491172791e-02" nType="-99"/>
          </Node>
          <Node pos="r" depth="2" NCoef="0" IVar="1" Cut="2.2938605957031250e+03" cType="1" res="1.5095496783033013e-03" rms="2.0257999002933502e-01" purity="7.0398366451263428e-01" nType="0">
            <Node pos="l" depth="3" NCoef="0" IVar="-1" Cut="0.0000000000000000e+00" cType="1" res="1.2237169779837132e-02" rms="2.7545702457427979e-01" purity="1.5102793276309967e-01" nType="-99"/>
            <Node pos="r" depth="3" NCoef="0" IVar="-1" Cut="0.0000000000000000e+00" cType="1" res="-8.1190196797251701e-03" rms="1.5645575523376465e-01" purity="9.6623688936233521e-01" nType="-99"/>
          </Node>
        </Node>
      </Node>
    </BinaryTree>
    <BinaryTree type="DecisionTree" boostWeight="1.0000000000000000e+00" itree="194">
      <Node pos="s" depth="0" NCoef="0" IVar="9" Cut="-1.9999415874481201e+00" cType="1" res="5.2196462638676167e-04" rms="1.8937063217163086e-01" purity="5.0071203708648682e-01" nType="0">
        <Node pos="l" depth="1" NCoef="0" IVar="-1" Cut="0.0000000000000000e+00" cType="1" res="-3.7199474871158600e-02" rms="2.0093542337417603e-01" purity="2.1288764476776123e-01" nType="-99"/>
        <Node pos="r" depth="1" NCoef="0" IVar="10" Cut="1.7333335876464844e+00" cType="1" res="1.0493410518392920e-03" rms="1.8897047638893127e-01" purity="5.0978541374206543e-01" nType="0">
          <Node pos="l" depth="2" NCoef="0" IVar="10" Cut="-1.2887877225875854e+00" cType="1" res="3.1970054260455072e-04" rms="1.8424271047115326e-01" purity="5.1547175645828247e-01" nType="0">
            <Node pos="l" depth="3" NCoef="0" IVar="-1" Cut="0.0000000000000000e+00" cType="1" res="1.4241591095924377e-02" rms="2.2266688942909241e-01" purity="4.7244691848754883e-01" nType="-99"/>
            <Node pos="r" depth="3" NCoef="0" IVar="-1" Cut="0.0000000000000000e+00" cType="1" res="-2.8305870946496725e-03" rms="1.7606562376022339e-01" purity="5.2355319261550903e-01" nType="-99"/>
          </Node>
          <Node pos="r" depth="2" NCoef="0" IVar="8" Cut="-1.3233858346939087e-01" cType="1" res="9.3628223985433578e-03" rms="2.3609089851379395e-01" purity="4.4499570131301880e-01" nType="0">
            <Node pos="l" depth="3" NCoef="0" IVar="-1" Cut="0.0000000000000000e+00" cType="1" res="-1.1390784755349159e-02" rms="2.3569262027740479e-01" purity="4.6738994121551514e-01" nType="-99"/>
            <Node pos="r" depth="3" NCoef="0" IVar="-1" Cut="0.0000000000000000e+00" cType="1" res="4.0324237197637558e-02" rms="2.3576462268829346e-01" purity="4.2909735441207886e-01" nType="-99"/>
          </Node>
        </Node>
      </Node>
    </BinaryTree>
    <BinaryTree type="DecisionTree" boostWeight="1.0000000000000000e+00" itree="195">
      <Node pos="s" depth="0" NCoef="0" IVar="8" Cut="-1.3327609002590179e-01" cType="1" res="-1.2871803482994437e-03" rms="1.8544690310955048e-01" purity="5.0330066680908203e-01" nType="0">
        <Node pos="l" depth="1" NCoef="0" IVar="9" Cut="-4.0061470866203308e-01" cType="1" res="-3.9441445842385292e-03" rms="1.8391953408718109e-01" purity="4.9127718806266785e-01" nType="0">
          <Node pos="l" depth="2" NCoef="0" IVar="0" Cut="1.0040961914062500e+03" cType="1" res="-9.1486265882849693e-03" rms="1.8182036280632019e-01" purity="4.3150186538696289e-01" nType="0">
            <Node pos="l" depth="3" NCoef="0" IVar="-1" Cut="0.0000000000000000e+00" cType="1" res="-2.9296390712261200e-02" rms="1.9139793515205383e-01" purity="2.7163013815879822e-01" nType="-99"/>
            <Node pos="r" depth="3" NCoef="0" IVar="-1" Cut="0.0000000000000000e+00" cType="1" res="-8.6459247395396233e-03" rms="1.4589871466159821e-01" purity="9.5494240522384644e-01" nType="-99"/>
          </Node>
          <Node pos="r" depth="2" NCoef="0" IVar="1" Cut="2.1538093261718750e+03" cType="1" res="-7.6886598253622651e-04" rms="1.8511669337749481e-01" purity="5.2774637937545776e-01" nType="0">
            <Node pos="l" depth="3" NCoef="0" IVar="-1" Cut="0.0000000000000000e+00" cType="1" res="-2.1132906898856163e-02" rms="1.8110382556915283e-01" purity="4.9522612243890762e-02" nType="-99"/>
            <Node pos="r" depth="3" NCoef="0" IVar="-1" Cut="0.0000000000000000e+00" cType="1" res="1.3592040166258812e-02" rms="1.8823830783367157e-01" purity="9.3100816011428833e-01" nType="-99"/>
          </Node>
        </Node>
        <Node pos="r" depth="1" NCoef="0" IVar="9" Cut="1.7332328557968140e+00" cType="1" res="8.4097968647256494e-04" rms="1.8663398921489716e-01" purity="5.1293116807937622e-01" nType="0">
          <Node pos="l" depth="2" NCoef="0" IVar="4" Cut="3.3676824951171875e+02" cType="1" res="3.5540855606086552e-05" rms="1.8301750719547272e-01" purity="5.2694976329803467e-01" nType="0">
            <Node pos="l" depth="3" NCoef="0" IVar="-1" Cut="0.0000000000000000e+00" cType="1" res="-1.3448670506477356e-02" rms="1.7184701561927795e-01" purity="9.0969190001487732e-02" nType="-99"/>
            <Node pos="r" depth="3" NCoef="0" IVar="-1" Cut="0.0000000000000000e+00" cType="1" res="7.1577075868844986e-03" rms="1.8900412321090698e-01" purity="7.7380293607711792e-01" nType="-99"/>
          </Node>
          <Node pos="r" depth="2" NCoef="0" IVar="-1" Cut="0.0000000000000000e+00" cType="1" res="2.7611417695879936e-02" rms="2.3567548394203186e-01" purity="2.9398474097251892e-01" nType="-99"/>
        </Node>
      </Node>
    </BinaryTree>
    <BinaryTree type="DecisionTree" boostWeight="1.0000000000000000e+00" itree="196">
      <Node pos="s" depth="0" NCoef="0" IVar="7" Cut="1.4901276826858521e+00" cType="1" res="-1.5429087216034532e-04" rms="1.8984773755073547e-01" purity="4.9581900238990784e-01" nType="0">
        <Node pos="l" depth="1" NCoef="0" IVar="7" Cut="-1.0961867570877075e+00" cType="1" res="4.2988671339116991e-04" rms="1.9028137624263763e-01" purity="5.1368921995162964e-01" nType="0">
          <Node pos="l" depth="2" NCoef="0" IVar="5" Cut="2.2271699523925781e+02" cType="1" res="-7.9527432098984718e-03" rms="1.7998051643371582e-01" purity="1.8671785295009613e-01" nType="0">
            <Node pos="l" depth="3" NCoef="0" IVar="-1" Cut="0.0000000000000000e+00" cType="1" res="-1.4922401169314981e-03" rms="1.4364914596080780e-01" purity="4.0094964206218719e-02" nType="-99"/>
            <Node pos="r" depth="3" NCoef="0" IVar="-1" Cut="0.0000000000000000e+00" cType="1" res="-4.0682539343833923e-02" rms="2.3939323425292969e-01" purity="5.0237965583801270e-01" nType="-99"/>
          </Node>
          <Node pos="r" depth="2" NCoef="0" IVar="10" Cut="9.3329519033432007e-01" cType="1" res="1.3896550517529249e-03" rms="1.9140198826789856e-01" purity="5.5112582445144653e-01" nType="0">
            <Node pos="l" depth="3" NCoef="0" IVar="-1" Cut="0.0000000000000000e+00" cType="1" res="-1.1970415944233537e-03" rms="1.8276645243167877e-01" purity="5.5951637029647827e-01" nType="-99"/>
            <Node pos="r" depth="3" NCoef="0" IVar="-1" Cut="0.0000000000000000e+00" cType="1" res="1.7496393993496895e-02" rms="2.1814760565757751e-01" purity="5.2255463600158691e-01" nType="-99"/>
          </Node>
        </Node>
        <Node pos="r" depth="1" NCoef="0" IVar="-1" Cut="0.0000000000000000e+00" cType="1" res="-3.7344809621572495e-02" rms="1.7928890883922577e-01" purity="9.2913009226322174e-02" nType="-99"/>
      </Node>
    </BinaryTree>
    <BinaryTree type="DecisionTree" boostWeight="1.0000000000000000e+00" itree="197">
      <Node pos="s" depth="0" NCoef="0" IVar="10" Cut="-1.9998744726181030e+00" cType="1" res="-8.8917958782985806e-04" rms="1.8877160549163818e-01" purity="4.9720874428749084e-01" nType="0">
        <Node pos="l" depth="1" NCoef="0" IVar="9" Cut="-1.3280624151229858e-01" cType="1" res="-1.6084134578704834e-02" rms="2.2757968306541443e-01" purity="3.5536032915115356e-01" nType="0">
          <Node pos="l" depth="2" NCoef="0" IVar="-1" Cut="0.0000000000000000e+00" cType="1" res="-2.3894151672720909e-02" rms="1.9798991084098816e-01" purity="3.3099713921546936e-01" nType="-99"/>
          <Node pos="r" depth="2" NCoef="0" IVar="-1" Cut="0.0000000000000000e+00" cType="1" res="-3.5199042409658432e-02" rms="2.5260421633720398e-01" purity="3.7869665026664734e-01" nType="-99"/>
        </Node>
        <Node pos="r" depth="1" NCoef="0" IVar="9" Cut="-1.9999409914016724e+00" cType="1" res="-5.9976126067340374e-05" rms="1.8638584017753601e-01" purity="5.0494956970214844e-01" nType="0">
          <Node pos="l" depth="2" NCoef="0" IVar="-1" Cut="0.0000000000000000e+00" cType="1" res="3.2533731311559677e-02" rms="2.4973493814468384e-01" purity="2.3325690627098083e-01" nType="-99"/>
          <Node pos="r" depth="2" NCoef="0" IVar="9" Cut="1.6570370197296143e+00" cType="1" res="-5.8014976093545556e-04" rms="1.8395499885082245e-01" purity="5.1371741294860840e-01" nType="0">
            <Node pos="l" depth="3" NCoef="0" IVar="-1" Cut="0.0000000000000000e+00" cType="1" res="-4.3751467019319534e-03" rms="1.7945587635040283e-01" purity="5.2830970287322998e-01" nType="-99"/>
            <Node pos="r" depth="3" NCoef="0" IVar="-1" Cut="0.0000000000000000e+00" cType="1" res="2.1668849512934685e-02" rms="2.3549415171146393e-01" purity="3.1944802403450012e-01" nType="-99"/>
          </Node>
        </Node>
      </Node>
    </BinaryTree>
    <BinaryTree type="DecisionTree" boostWeight="1.0000000000000000e+00" itree="198">
      <Node pos="s" depth="0" NCoef="0" IVar="10" Cut="-1.9999496936798096e+00" cType="1" res="-3.5999095416627824e-04" rms="1.8877884745597839e-01" purity="4.9818438291549683e-01" nType="0">
        <Node pos="l" depth="1" NCoef="0" IVar="0" Cut="6.1065490722656250e+02" cType="1" res="2.0850470289587975e-02" rms="2.5716358423233032e-01" purity="4.1170579195022583e-01" nType="0">
          <Node pos="l" depth="2" NCoef="0" IVar="-1" Cut="0.0000000000000000e+00" cType="1" res="8.3352282643318176e-02" rms="2.8160926699638367e-01" purity="1.5215130150318146e-01" nType="-99"/>
          <Node pos="r" depth="2" NCoef="0" IVar="-1" Cut="0.0000000000000000e+00" cType="1" res="-6.5239183604717255e-03" rms="2.2698171436786652e-01" purity="6.7561012506484985e-01" nType="-99"/>
        </Node>
        <Node pos="r" depth="1" NCoef="0" IVar="9" Cut="1.9997645616531372e+00" cType="1" res="-1.5008928021416068e-03" rms="1.8431386351585388e-01" purity="5.0283604860305786e-01" nType="0">
          <Node pos="l" depth="2" NCoef="0" IVar="10" Cut="2.1142134666442871e+00" cType="1" res="-9.3015411403030157e-04" rms="1.8362988531589508e-01" purity="5.1242506504058838e-01" nType="0">
            <Node pos="l" depth="3" NCoef="0" IVar="-1" Cut="0.0000000000000000e+00" cType="1" res="-1.0807031067088246e-03" rms="1.8241009116172791e-01" purity="5.1773428916931152e-01" nType="-99"/>
            <Node pos="r" depth="3" NCoef="0" IVar="-1" Cut="0.0000000000000000e+00" cType="1" res="-3.0764540657401085e-02" rms="2.1066223084926605e-01" purity="3.8330563902854919e-01" nType="-99"/>
          </Node>
          <Node pos="r" depth="2" NCoef="0" IVar="-1" Cut="0.0000000000000000e+00" cType="1" res="-4.3013803660869598e-02" rms="2.0391415059566498e-01" purity="2.0014840364456177e-01" nType="-99"/>
        </Node>
      </Node>
    </BinaryTree>
    <BinaryTree type="DecisionTree" boostWeight="1.0000000000000000e+00" itree="199">
      <Node pos="s" depth="0" NCoef="0" IVar="6" Cut="1.3980079650878906e+02" cType="1" res="8.4201799472793937e-04" rms="1.9040295481681824e-01" purity="4.9944424629211426e-01" nType="0">
        <Node pos="l" depth="1" NCoef="0" IVar="6" Cut="5.4276908874511719e+01" cType="1" res="3.2958274241536856e-03" rms="1.9879525899887085e-01" purity="2.2711248695850372e-01" nType="0">
          <Node pos="l" depth="2" NCoef="0" IVar="-1" Cut="0.0000000000000000e+00" cType="1" res="-5.2566293627023697e-02" rms="1.3894735276699066e-01" purity="9.8364375531673431e-02" nType="-99"/>
          <Node pos="r" depth="2" NCoef="0" IVar="1" Cut="1.6552999267578125e+03" cType="1" res="4.5580449514091015e-03" rms="2.0256778597831726e-01" purity="2.3690050840377808e-01" nType="0">
            <Node pos="l" depth="3" NCoef="0" IVar="-1" Cut="0.0000000000000000e+00" cType="1" res="1.8411624478176236e-03" rms="8.8933296501636505e-02" purity="8.6346371099352837e-03" nType="-99"/>
            <Node pos="r" depth="3" NCoef="0" IVar="-1" Cut="0.0000000000000000e+00" cType="1" res="1.2583588249981403e-02" rms="2.6822271943092346e-01" purity="4.5014539361000061e-01" nType="-99"/>
          </Node>
        </Node>
        <Node pos="r" depth="1" NCoef="0" IVar="0" Cut="4.4713140869140625e+02" cType="1" res="-1.9718492403626442e-03" rms="1.8025790154933929e-01" purity="8.1173640489578247e-01" nType="0">
          <Node pos="l" depth="2" NCoef="0" IVar="7" Cut="-4.0731701999902725e-02" cType="1" res="-1.2802641838788986e-02" rms="2.1016336977481842e-01" purity="6.4983226358890533e-02" nType="0">
            <Node pos="l" depth="3" NCoef="0" IVar="-1" Cut="0.0000000000000000e+00" cType="1" res="-5.2065864205360413e-02" rms="1.7746530473232269e-01" purity="4.5156359672546387e-02" nType="-99"/>
            <Node pos="r" depth="3" NCoef="0" IVar="-1" Cut="0.0000000000000000e+00" cType="1" res="-3.7857107818126678e-03" rms="2.3712493479251862e-01" purity="8.4205031394958496e-02" nType="-99"/>
          </Node>
          <Node pos="r" depth="2" NCoef="0" IVar="10" Cut="-9.3278414011001587e-01" cType="1" res="-5.4465432185679674e-04" rms="1.7588883638381958e-01" purity="9.1013753414154053e-01" nType="0">
            <Node pos="l" depth="3" NCoef="0" IVar="-1" Cut="0.0000000000000000e+00" cType="1" res="2.2275144234299660e-02" rms="2.0379550755023956e-01" purity="8.9840942621231079e-01" nType="-99"/>
            <Node pos="r" depth="3" NCoef="0" IVar="-1" Cut="0.0000000000000000e+00" cType="1" res="-9.7518442198634148e-03" rms="1.6821898519992828e-01" purity="9.1303068399429321e-01" nType="-99"/>
          </Node>
        </Node>
      </Node>
    </BinaryTree>
    <BinaryTree type="DecisionTree" boostWeight="1.0000000000000000e+00" itree="200">
      <Node pos="s" depth="0" NCoef="0" IVar="6" Cut="9.4900291442871094e+01" cType="1" res="1.4035962522029877e-03" rms="1.9033405184745789e-01" purity="4.9747151136398315e-01" nType="0">
        <Node pos="l" depth="1" NCoef="0" IVar="5" Cut="1.9206568908691406e+02" cType="1" res="5.6821512989699841e-03" rms="1.8805016577243805e-01" purity="1.7009976506233215e-01" nType="0">
          <Node pos="l" depth="2" NCoef="0" IVar="10" Cut="1.4666501283645630e+00" cType="1" res="4.0090217953547835e-04" rms="1.5274305641651154e-01" purity="6.6399015486240387e-02" nType="0">
            <Node pos="l" depth="3" NCoef="0" IVar="-1" Cut="0.0000000000000000e+00" cType="1" res="1.2135486118495464e-02" rms="1.5366186201572418e-01" purity="6.7038282752037048e-02" nType="-99"/>
            <Node pos="r" depth="3" NCoef="0" IVar="-1" Cut="0.0000000000000000e+00" cType="1" res="-4.8847403377294540e-02" rms="1.4605507254600525e-01" purity="6.2433525919914246e-02" nType="-99"/>
          </Node>
          <Node pos="r" depth="2" NCoef="0" IVar="10" Cut="-4.0035852789878845e-01" cType="1" res="2.0187482237815857e-02" rms="2.6100531220436096e-01" purity="4.5492130517959595e-01" nType="0">
            <Node pos="l" depth="3" NCoef="0" IVar="-1" Cut="0.0000000000000000e+00" cType="1" res="4.0350542403757572e-03" rms="2.3088872432708740e-01" purity="4.4995382428169250e-01" nType="-99"/>
            <Node pos="r" depth="3" NCoef="0" IVar="-1" Cut="0.0000000000000000e+00" cType="1" res="5.2507568150758743e-02" rms="2.7828311920166016e-01" purity="4.5815780758857727e-01" nType="-99"/>
          </Node>
        </Node>
        <Node pos="r" depth="1" NCoef="0" IVar="8" Cut="1.3371255993843079e-01" cType="1" res="-7.7121309004724026e-04" rms="1.9144786894321442e-01" purity="6.6387599706649780e-01" nType="0">
          <Node pos="l" depth="2" NCoef="0" IVar="4" Cut="3.6140582275390625e+02" cType="1" res="-3.5251723602414131e-03" rms="1.8458193540573120e-01" purity="6.6784268617630005e-01" nType="0">
            <Node pos="l" depth="3" NCoef="0" IVar="-1" Cut="0.0000000000000000e+00" cType="1" res="-2.5356259196996689e-02" rms="2.1515241265296936e-01" purity="1.6971817612648010e-01" nType="-99"/>
            <Node pos="r" depth="3" NCoef="0" IVar="-1" Cut="0.0000000000000000e+00" cType="1" res="1.6070590354502201e-03" rms="1.6868375241756439e-01" purity="8.9469552040100098e-01" nType="-99"/>
          </Node>
          <Node pos="r" depth="2" NCoef="0" IVar="4" Cut="3.6152151489257812e+02" cType="1" res="2.6190590579062700e-03" rms="1.9952389597892761e-01" purity="6.5899282693862915e-01" nType="0">
            <Node pos="l" depth="3" NCoef="0" IVar="-1" Cut="0.0000000000000000e+00" cType="1" res="2.1545000374317169e-02" rms="2.4234220385551453e-01" purity="2.0358999073505402e-01" nType="-99"/>
            <Node pos="r" depth="3" NCoef="0" IVar="-1" Cut="0.0000000000000000e+00" cType="1" res="-5.7058585807681084e-03" rms="1.7337763309478760e-01" purity="8.9231753349304199e-01" nType="-99"/>
          </Node>
        </Node>
      </Node>
    </BinaryTree>
    <BinaryTree type="DecisionTree" boostWeight="1.0000000000000000e+00" itree="201">
      <Node pos="s" depth="0" NCoef="0" IVar="8" Cut="1.7333651781082153e+00" cType="1" res="2.4592317640781403e-04" rms="1.9043366611003876e-01" purity="4.9653416872024536e-01" nType="0">
        <Node pos="l" depth="1" NCoef="0" IVar="9" Cut="6.6660296916961670e-01" cType="1" res="9.4824749976396561e-04" rms="1.8950758874416351e-01" purity="5.1138854026794434e-01" nType="0">
          <Node pos="l" depth="2" NCoef="0" IVar="9" Cut="5.0151485204696655e-01" cType="1" res="-9.6277421107515693e-04" rms="1.8078812956809998e-01" purity="5.2868795394897461e-01" nType="0">
            <Node pos="l" depth="3" NCoef="0" IVar="-1" Cut="0.0000000000000000e+00" cType="1" res="-2.8398417634889483e-04" rms="1.8170158565044403e-01" purity="5.2585756778717041e-01" nType="-99"/>
            <Node pos="r" depth="3" NCoef="0" IVar="-1" Cut="0.0000000000000000e+00" cType="1" res="-4.2906090617179871e-02" rms="1.6729676723480225e-01" purity="5.6753367185592651e-01" nType="-99"/>
          </Node>
          <Node pos="r" depth="2" NCoef="0" IVar="2" Cut="2.0478490740060806e-02" cType="1" res="5.8679981157183647e-03" rms="2.1021825075149536e-01" purity="4.6685278415679932e-01" nType="0">
            <Node pos="l" depth="3" NCoef="0" IVar="-1" Cut="0.0000000000000000e+00" cType="1" res="-1.2427935376763344e-02" rms="1.9079256057739258e-01" purity="2.0577028393745422e-01" nType="-99"/>
            <Node pos="r" depth="3" NCoef="0" IVar="-1" Cut="0.0000000000000000e+00" cType="1" res="2.7841094881296158e-02" rms="2.2006092965602875e-01" purity="6.1230266094207764e-01" nType="-99"/>
          </Node>
        </Node>
        <Node pos="r" depth="1" NCoef="0" IVar="-1" Cut="0.0000000000000000e+00" cType="1" res="-3.8245532661676407e-02" rms="2.0985069870948792e-01" purity="1.5705852210521698e-01" nType="-99"/>
      </Node>
    </BinaryTree>
    <BinaryTree type="DecisionTree" boostWeight="1.0000000000000000e+00" itree="202">
      <Node pos="s" depth="0" NCoef="0" IVar="8" Cut="-1.1999689340591431e+00" cType="1" res="2.7632416458800435e-04" rms="1.8856333196163177e-01" purity="5.0199335813522339e-01" nType="0">
        <Node pos="l" depth="1" NCoef="0" IVar="5" Cut="1.7259495544433594e+02" cType="1" res="1.0417808778584003e-02" rms="2.2533532977104187e-01" purity="3.0124211311340332e-01" nType="0">
          <Node pos="l" depth="2" NCoef="0" IVar="8" Cut="-1.6570721864700317e+00" cType="1" res="9.0407405514270067e-04" rms="1.4852735400199890e-01" purity="5.5172890424728394e-02" nType="0">
            <Node pos="l" depth="3" NCoef="0" IVar="-1" Cut="0.0000000000000000e+00" cType="1" res="2.3747032508254051e-02" rms="1.4740988612174988e-01" purity="5.3004186600446701e-02" nType="-99"/>
            <Node pos="r" depth="3" NCoef="0" IVar="-1" Cut="0.0000000000000000e+00" cType="1" res="-1.4201916754245758e-02" rms="1.4955383539199829e-01" purity="5.7443179190158844e-02" nType="-99"/>
          </Node>
          <Node pos="r" depth="2" NCoef="0" IVar="7" Cut="-5.9772902168333530e-03" cType="1" res="1.9040338695049286e-02" rms="2.7684891223907471e-01" purity="5.2426064014434814e-01" nType="0">
            <Node pos="l" depth="3" NCoef="0" IVar="-1" Cut="0.0000000000000000e+00" cType="1" res="4.5939214527606964e-02" rms="2.8357848525047302e-01" purity="5.5862194299697876e-01" nType="-99"/>
            <Node pos="r" depth="3" NCoef="0" IVar="-1" Cut="0.0000000000000000e+00" cType="1" res="1.7602110281586647e-02" rms="2.6976382732391357e-01" purity="4.9028018116950989e-01" nType="-99"/>
          </Node>
        </Node>
        <Node pos="r" depth="1" NCoef="0" IVar="9" Cut="1.4665815830230713e+00" cType="1" res="-1.0039104381576180e-03" rms="1.8335810303688049e-01" purity="5.2733564376831055e-01" nType="0">
          <Node pos="l" depth="2" NCoef="0" IVar="10" Cut="-1.4666512012481689e+00" cType="1" res="3.0850607436150312e-04" rms="1.8065601587295532e-01" purity="5.4564076662063599e-01" nType="0">
            <Node pos="l" depth="3" NCoef="0" IVar="-1" Cut="0.0000000000000000e+00" cType="1" res="-2.2852404043078423e-02" rms="2.0092421770095825e-01" purity="4.6191999316215515e-01" nType="-99"/>
            <Node pos="r" depth="3" NCoef="0" IVar="-1" Cut="0.0000000000000000e+00" cType="1" res="4.8856264911592007e-03" rms="1.7784093320369720e-01" purity="5.5641192197799683e-01" nType="-99"/>
          </Node>
          <Node pos="r" depth="2" NCoef="0" IVar="1" Cut="1.8541328125000000e+03" cType="1" res="-1.4171179383993149e-02" rms="2.0808129012584686e-01" purity="3.4368345141410828e-01" nType="0">
            <Node pos="l" depth="3" NCoef="0" IVar="-1" Cut="0.0000000000000000e+00" cType="1" res="-2.1183392964303493e-03" rms="1.5589387714862823e-01" purity="3.3754572272300720e-02" nType="-99"/>
            <Node pos="r" depth="3" NCoef="0" IVar="-1" Cut="0.0000000000000000e+00" cType="1" res="-4.5571815222501755e-02" rms="2.5690451264381409e-01" purity="7.2228962182998657e-01" nType="-99"/>
          </Node>
        </Node>
      </Node>
    </BinaryTree>
    <BinaryTree type="DecisionTree" boostWeight="1.0000000000000000e+00" itree="203">
      <Node pos="s" depth="0" NCoef="0" IVar="8" Cut="3.9999517798423767e-01" cType="1" res="-3.1911488622426987e-04" rms="1.8857041001319885e-01" purity="5.0025987625122070e-01" nType="0">
        <Node pos="l" depth="1" NCoef="0" IVar="7" Cut="-5.2052099257707596e-02" cType="1" res="1.8611905397847295e-03" rms="1.8642517924308777e-01" purity="5.2788877487182617e-01" nType="0">
          <Node pos="l" depth="2" NCoef="0" IVar="7" Cut="-9.1608095169067383e-01" cType="1" res="-2.9038731008768082e-03" rms="1.7545573413372040e-01" purity="5.1856654882431030e-01" nType="0">
            <Node pos="l" depth="3" NCoef="0" IVar="-1" Cut="0.0000000000000000e+00" cType="1" res="1.4148107729852200e-02" rms="1.8475501239299774e-01" purity="2.8104218840599060e-01" nType="-99"/>
            <Node pos="r" depth="3" NCoef="0" IVar="-1" Cut="0.0000000000000000e+00" cType="1" res="-1.8572799861431122e-02" rms="1.7169113457202911e-01" purity="6.0873770713806152e-01" nType="-99"/>
          </Node>
          <Node pos="r" depth="2" NCoef="0" IVar="3" Cut="5.0031393432617188e+02" cType="1" res="5.9841196052730083e-03" rms="1.9532637298107147e-01" purity="5.3595483303070068e-01" nType="0">
            <Node pos="l" depth="3" NCoef="0" IVar="-1" Cut="0.0000000000000000e+00" cType="1" res="3.5300545394420624e-02" rms="2.3463244736194611e-01" purity="1.3628472387790680e-01" nType="-99"/>
            <Node pos="r" depth="3" NCoef="0" IVar="-1" Cut="0.0000000000000000e+00" cType="1" res="9.7771240398287773e-03" rms="1.8280848860740662e-01" purity="6.4713925123214722e-01" nType="-99"/>
          </Node>
        </Node>
        <Node pos="r" depth="1" NCoef="0" IVar="7" Cut="-6.6255551576614380e-01" cType="1" res="-4.4652442447841167e-03" rms="1.9251580536365509e-01" purity="4.4772005081176758e-01" nType="0">
          <Node pos="l" depth="2" NCoef="0" IVar="2" Cut="1.4699934981763363e-02" cType="1" res="8.0026239156723022e-03" rms="2.0868946611881256e-01" purity="3.0492666363716125e-01" nType="0">
            <Node pos="l" depth="3" NCoef="0" IVar="-1" Cut="0.0000000000000000e+00" cType="1" res="-1.5800250694155693e-02" rms="1.6915567219257355e-01" purity="9.1090187430381775e-02" nType="-99"/>
            <Node pos="r" depth="3" NCoef="0" IVar="-1" Cut="0.0000000000000000e+00" cType="1" res="3.4292627125978470e-02" rms="2.3510752618312836e-01" purity="4.7584837675094604e-01" nType="-99"/>
          </Node>
          <Node pos="r" depth="2" NCoef="0" IVar="5" Cut="2.9326351928710938e+02" cType="1" res="-8.1271193921566010e-03" rms="1.8734307587146759e-01" purity="4.8965913057327271e-01" nType="0">
            <Node pos="l" depth="3" NCoef="0" IVar="-1" Cut="0.0000000000000000e+00" cType="1" res="-2.7170868590474129e-02" rms="1.9974583387374878e-01" purity="2.4016420543193817e-01" nType="-99"/>
            <Node pos="r" depth="3" NCoef="0" IVar="-1" Cut="0.0000000000000000e+00" cType="1" res="-3.1757275573909283e-03" rms="1.6276682913303375e-01" purity="9.3245512247085571e-01" nType="-99"/>
          </Node>
        </Node>
      </Node>
    </BinaryTree>
    <BinaryTree type="DecisionTree" boostWeight="1.0000000000000000e+00" itree="204">
      <Node pos="s" depth="0" NCoef="0" IVar="9" Cut="1.9998663663864136e+00" cType="1" res="-1.5798973618075252e-03" rms="1.8857988715171814e-01" purity="4.9918299913406372e-01" nType="0">
        <Node pos="l" depth="1" NCoef="0" IVar="0" Cut="1.0356220703125000e+03" cType="1" res="-2.1567733492702246e-03" rms="1.8662564456462860e-01" purity="5.0843375921249390e-01" nType="0">
          <Node pos="l" depth="2" NCoef="0" IVar="2" Cut="9.6707269549369812e-02" cType="1" res="-3.6354530602693558e-03" rms="2.0356205105781555e-01" purity="3.4523278474807739e-01" nType="0">
            <Node pos="l" depth="3" NCoef="0" IVar="-1" Cut="0.0000000000000000e+00" cType="1" res="-1.2293407693505287e-02" rms="2.0348228514194489e-01" purity="2.7876475453376770e-01" nType="-99"/>
            <Node pos="r" depth="3" NCoef="0" IVar="-1" Cut="0.0000000000000000e+00" cType="1" res="9.3503845855593681e-03" rms="2.0380717515945435e-01" purity="6.8667703866958618e-01" nType="-99"/>
          </Node>
          <Node pos="r" depth="2" NCoef="0" IVar="3" Cut="1.3082280273437500e+03" cType="1" res="2.0374332088977098e-03" rms="1.2673199176788330e-01" purity="9.7134584188461304e-01" nType="0">
            <Node pos="l" depth="3" NCoef="0" IVar="-1" Cut="0.0000000000000000e+00" cType="1" res="6.1922180466353893e-03" rms="1.2505888938903809e-01" purity="9.7013390064239502e-01" nType="-99"/>
            <Node pos="r" depth="3" NCoef="0" IVar="-1" Cut="0.0000000000000000e+00" cType="1" res="3.9762269705533981e-02" rms="1.3645930588245392e-01" purity="9.7884345054626465e-01" nType="-99"/>
          </Node>
        </Node>
        <Node pos="r" depth="1" NCoef="0" IVar="-1" Cut="0.0000000000000000e+00" cType="1" res="2.7112038806080818e-02" rms="2.3598882555961609e-01" purity="2.4187050759792328e-01" nType="-99"/>
      </Node>
    </BinaryTree>
    <BinaryTree type="DecisionTree" boostWeight="1.0000000000000000e+00" itree="205">
      <Node pos="s" depth="0" NCoef="0" IVar="10" Cut="1.9999758005142212e+00" cType="1" res="-3.2673147507011890e-04" rms="1.9171662628650665e-01" purity="5.0409734249114990e-01" nType="0">
        <Node pos="l" depth="1" NCoef="0" IVar="9" Cut="-1.9998853206634521e+00" cType="1" res="5.2855978719890118e-04" rms="1.8995569646358490e-01" purity="5.1093310117721558e-01" nType="0">
          <Node pos="l" depth="2" NCoef="0" IVar="-1" Cut="0.0000000000000000e+00" cType="1" res="4.7630697488784790e-02" rms="2.6620760560035706e-01" purity="2.4089320003986359e-01" nType="-99"/>
          <Node pos="r" depth="2" NCoef="0" IVar="4" Cut="2.2840747070312500e+02" cType="1" res="-1.7189387290272862e-04" rms="1.8698120117187500e-01" purity="5.1951384544372559e-01" nType="0">
            <Node pos="l" depth="3" NCoef="0" IVar="-1" Cut="0.0000000000000000e+00" cType="1" res="-3.6180432885885239e-02" rms="1.1196481436491013e-01" purity="2.1259203553199768e-02" nType="-99"/>
            <Node pos="r" depth="3" NCoef="0" IVar="-1" Cut="0.0000000000000000e+00" cType="1" res="2.2821025922894478e-03" rms="1.9725383818149567e-01" purity="6.0737425088882446e-01" nType="-99"/>
          </Node>
        </Node>
        <Node pos="r" depth="1" NCoef="0" IVar="-1" Cut="0.0000000000000000e+00" cType="1" res="-3.4679472446441650e-02" rms="2.2387669980525970e-01" purity="3.6492305994033813e-01" nType="-99"/>
      </Node>
    </BinaryTree>
    <BinaryTree type="DecisionTree" boostWeight="1.0000000000000000e+00" itree="206">
      <Node pos="s" depth="0" NCoef="0" IVar="8" Cut="1.4664715528488159e+00" cType="1" res="-3.8574135396629572e-04" rms="1.9081155955791473e-01" purity="5.0005739927291870e-01" nType="0">
        <Node pos="l" depth="1" NCoef="0" IVar="7" Cut="-8.5992026329040527e-01" cType="1" res="4.6077420120127499e-04" rms="1.8999253213405609e-01" purity="5.2209532260894775e-01" nType="0">
          <Node pos="l" depth="2" NCoef="0" IVar="0" Cut="5.2785760498046875e+02" cType="1" res="8.8451663032174110e-03" rms="2.0812349021434784e-01" purity="3.0335870385169983e-01" nType="0">
            <Node pos="l" depth="3" NCoef="0" IVar="-1" Cut="0.0000000000000000e+00" cType="1" res="-1.0301781818270683e-02" rms="1.5672230720520020e-01" purity="4.5880109071731567e-02" nType="-99"/>
            <Node pos="r" depth="3" NCoef="0" IVar="-1" Cut="0.0000000000000000e+00" cType="1" res="3.6991771310567856e-02" rms="2.4357500672340393e-01" purity="5.2633428573608398e-01" nType="-99"/>
          </Node>
          <Node pos="r" depth="2" NCoef="0" IVar="7" Cut="1.5771807432174683e+00" cType="1" res="-9.5786573365330696e-04" rms="1.8671348690986633e-01" purity="5.5910557508468628e-01" nType="0">
            <Node pos="l" depth="3" NCoef="0" IVar="-1" Cut="0.0000000000000000e+00" cType="1" res="-7.5374089647084475e-04" rms="1.8788774311542511e-01" purity="5.7774841785430908e-01" nType="-99"/>
            <Node pos="r" depth="3" NCoef="0" IVar="-1" Cut="0.0000000000000000e+00" cType="1" res="-5.6941181421279907e-02" rms="1.5300022065639496e-01" purity="8.7438888847827911e-02" nType="-99"/>
          </Node>
        </Node>
        <Node pos="r" depth="1" NCoef="0" IVar="9" Cut="-1.3340556621551514e-01" cType="1" res="-1.1411382816731930e-02" rms="2.0084935426712036e-01" purity="2.1301895380020142e-01" nType="0">
          <Node pos="l" depth="2" NCoef="0" IVar="-1" Cut="0.0000000000000000e+00" cType="1" res="-5.3712170571088791e-02" rms="2.0521810650825500e-01" purity="2.4398101866245270e-01" nType="-99"/>
          <Node pos="r" depth="2" NCoef="0" IVar="-1" Cut="0.0000000000000000e+00" cType="1" res="-6.3651883974671364e-03" rms="1.9706118106842041e-01" purity="1.8983533978462219e-01" nType="-99"/>
        </Node>
      </Node>
    </BinaryTree>
    <BinaryTree type="DecisionTree" boostWeight="1.0000000000000000e+00" itree="207">
      <Node pos="s" depth="0" NCoef="0" IVar="10" Cut="-1.1999570131301880e+00" cType="1" res="1.3290175702422857e-03" rms="1.9138172268867493e-01" purity="5.0302278995513916e-01" nType="0">
        <Node pos="l" depth="1" NCoef="0" IVar="9" Cut="6.6646814346313477e-01" cType="1" res="-5.7628140784800053e-03" rms="2.0751270651817322e-01" purity="4.3917110562324524e-01" nType="0">
          <Node pos="l" depth="2" NCoef="0" IVar="8" Cut="-1.3324116170406342e-01" cType="1" res="-1.4283441705629230e-03" rms="2.0287789404392242e-01" purity="4.4062685966491699e-01" nType="0">
            <Node pos="l" depth="3" NCoef="0" IVar="-1" Cut="0.0000000000000000e+00" cType="1" res="-2.1340174600481987e-02" rms="1.8999516963958740e-01" purity="3.6632397770881653e-01" nType="-99"/>
            <Node pos="r" depth="3" NCoef="0" IVar="-1" Cut="0.0000000000000000e+00" cType="1" res="1.2027674354612827e-02" rms="2.1404269337654114e-01" purity="5.1027894020080566e-01" nType="-99"/>
          </Node>
          <Node pos="r" depth="2" NCoef="0" IVar="-1" Cut="0.0000000000000000e+00" cType="1" res="-3.3622208982706070e-02" rms="2.1981766819953918e-01" purity="4.3498656153678894e-01" nType="-99"/>
        </Node>
        <Node pos="r" depth="1" NCoef="0" IVar="5" Cut="3.3377859497070312e+02" cType="1" res="2.7531802188605070e-03" rms="1.8794324994087219e-01" purity="5.1584529876708984e-01" nType="0">
          <Node pos="l" depth="2" NCoef="0" IVar="1" Cut="1.9496281738281250e+03" cType="1" res="5.0580077804625034e-03" rms="2.0809632539749146e-01" purity="2.9842028021812439e-01" nType="0">
            <Node pos="l" depth="3" NCoef="0" IVar="-1" Cut="0.0000000000000000e+00" cType="1" res="7.8499540686607361e-03" rms="1.4763379096984863e-01" purity="2.5800153613090515e-02" nType="-99"/>
            <Node pos="r" depth="3" NCoef="0" IVar="-1" Cut="0.0000000000000000e+00" cType="1" res="1.3608498498797417e-02" rms="2.8074723482131958e-01" purity="7.4924534559249878e-01" nType="-99"/>
          </Node>
          <Node pos="r" depth="2" NCoef="0" IVar="4" Cut="5.5213555908203125e+02" cType="1" res="-1.9863515626639128e-03" rms="1.3739247620105743e-01" purity="9.6294707059860229e-01" nType="0">
            <Node pos="l" depth="3" NCoef="0" IVar="-1" Cut="0.0000000000000000e+00" cType="1" res="-2.5469502434134483e-02" rms="1.9932976365089417e-01" purity="9.0914338827133179e-01" nType="-99"/>
            <Node pos="r" depth="3" NCoef="0" IVar="-1" Cut="0.0000000000000000e+00" cType="1" res="1.7001699656248093e-02" rms="8.8588826358318329e-02" purity="9.9130737781524658e-01" nType="-99"/>
          </Node>
        </Node>
      </Node>
    </BinaryTree>
    <BinaryTree type="DecisionTree" boostWeight="1.0000000000000000e+00" itree="208">
      <Node pos="s" depth="0" NCoef="0" IVar="8" Cut="1.2000287771224976e+00" cType="1" res="1.9877222366631031e-03" rms="1.9101963937282562e-01" purity="5.0064343214035034e-01" nType="0">
        <Node pos="l" depth="1" NCoef="0" IVar="7" Cut="1.2414958477020264e+00" cType="1" res="7.6637399615719914e-04" rms="1.8566657602787018e-01" purity="5.2658891677856445e-01" nType="0">
          <Node pos="l" depth="2" NCoef="0" IVar="10" Cut="9.3333339691162109e-01" cType="1" res="-5.9194007917540148e-05" rms="1.8211044371128082e-01" purity="5.5294573307037354e-01" nType="0">
            <Node pos="l" depth="3" NCoef="0" IVar="-1" Cut="0.0000000000000000e+00" cType="1" res="-5.1296125166118145e-03" rms="1.7387321591377258e-01" purity="5.5694240331649780e-01" nType="-99"/>
            <Node pos="r" depth="3" NCoef="0" IVar="-1" Cut="0.0000000000000000e+00" cType="1" res="1.2861994095146656e-02" rms="2.0773009955883026e-01" purity="5.3928184509277344e-01" nType="-99"/>
          </Node>
          <Node pos="r" depth="2" NCoef="0" IVar="9" Cut="1.3382036983966827e-01" cType="1" res="1.1478268541395664e-02" rms="2.2653532028198242e-01" purity="1.8460473418235779e-01" nType="0">
            <Node pos="l" depth="3" NCoef="0" IVar="-1" Cut="0.0000000000000000e+00" cType="1" res="5.4491527378559113e-02" rms="2.4252124130725861e-01" purity="1.9401387870311737e-01" nType="-99"/>
            <Node pos="r" depth="3" NCoef="0" IVar="-1" Cut="0.0000000000000000e+00" cType="1" res="-4.2637069709599018e-03" rms="2.0822267234325409e-01" purity="1.7503964900970459e-01" nType="-99"/>
          </Node>
        </Node>
        <Node pos="r" depth="1" NCoef="0" IVar="0" Cut="5.5410681152343750e+02" cType="1" res="1.1436194181442261e-02" rms="2.2800652682781219e-01" purity="2.9992651939392090e-01" nType="0">
          <Node pos="l" depth="2" NCoef="0" IVar="1" Cut="1.5694648437500000e+03" cType="1" res="2.3773705586791039e-02" rms="2.2175385057926178e-01" purity="8.8805116713047028e-02" nType="0">
            <Node pos="l" depth="3" NCoef="0" IVar="-1" Cut="0.0000000000000000e+00" cType="1" res="8.4038324654102325e-02" rms="1.1087501794099808e-01" purity="1.2890605255961418e-02" nType="-99"/>
            <Node pos="r" depth="3" NCoef="0" IVar="-1" Cut="0.0000000000000000e+00" cType="1" res="6.7262552678585052e-02" rms="3.0926483869552612e-01" purity="1.8640522658824921e-01" nType="-99"/>
          </Node>
          <Node pos="r" depth="2" NCoef="0" IVar="8" Cut="1.5048164129257202e+00" cType="1" res="-9.5347507158294320e-04" rms="2.3346245288848877e-01" purity="5.1194047927856445e-01" nType="0">
            <Node pos="l" depth="3" NCoef="0" IVar="-1" Cut="0.0000000000000000e+00" cType="1" res="2.1116565912961960e-02" rms="2.2779424488544464e-01" purity="6.3946497440338135e-01" nType="-99"/>
            <Node pos="r" depth="3" NCoef="0" IVar="-1" Cut="0.0000000000000000e+00" cType="1" res="-2.1032914519309998e-02" rms="2.3831279575824738e-01" purity="3.8809150457382202e-01" nType="-99"/>
          </Node>
        </Node>
      </Node>
    </BinaryTree>
    <BinaryTree type="DecisionTree" boostWeight="1.0000000000000000e+00" itree="209">
      <Node pos="s" depth="0" NCoef="0" IVar="7" Cut="1.4920315742492676e+00" cType="1" res="-1.3443508651107550e-03" rms="1.8760244548320770e-01" purity="4.9786651134490967e-01" nType="0">
        <Node pos="l" depth="1" NCoef="0" IVar="10" Cut="-1.7333211898803711e+00" cType="1" res="-5.6149699958041310e-04" rms="1.8866220116615295e-01" purity="5.1496165990829468e-01" nType="0">
          <Node pos="l" depth="2" NCoef="0" IVar="9" Cut="-3.9758524298667908e-01" cType="1" res="1.0735343210399151e-02" rms="2.3602388799190521e-01" purity="4.3841424584388733e-01" nType="0">
            <Node pos="l" depth="3" NCoef="0" IVar="-1" Cut="0.0000000000000000e+00" cType="1" res="3.6633722484111786e-03" rms="2.2956727445125580e-01" purity="3.8952758908271790e-01" nType="-99"/>
            <Node pos="r" depth="3" NCoef="0" IVar="-1" Cut="0.0000000000000000e+00" cType="1" res="3.3592756837606430e-02" rms="2.4046297371387482e-01" purity="4.7446444630622864e-01" nType="-99"/>
          </Node>
          <Node pos="r" depth="2" NCoef="0" IVar="9" Cut="-9.3294256925582886e-01" cType="1" res="-1.5979958698153496e-03" rms="1.8367138504981995e-01" purity="5.2198499441146851e-01" nType="0">
            <Node pos="l" depth="3" NCoef="0" IVar="-1" Cut="0.0000000000000000e+00" cType="1" res="-1.9203517585992813e-02" rms="1.8984644114971161e-01" purity="4.3508881330490112e-01" nType="-99"/>
            <Node pos="r" depth="3" NCoef="0" IVar="-1" Cut="0.0000000000000000e+00" cType="1" res="-6.1815360095351934e-04" rms="1.8208613991737366e-01" purity="5.4346227645874023e-01" nType="-99"/>
          </Node>
        </Node>
        <Node pos="r" depth="1" NCoef="0" IVar="-1" Cut="0.0000000000000000e+00" cType="1" res="-5.5930178612470627e-02" rms="1.5935187041759491e-01" purity="9.3009255826473236e-02" nType="-99"/>
      </Node>
    </BinaryTree>
    <BinaryTree type="DecisionTree" boostWeight="1.0000000000000000e+00" itree="210">
      <Node pos="s" depth="0" NCoef="0" IVar="10" Cut="2.2666020393371582e+00" cType="1" res="4.9722456606104970e-04" rms="1.9306294620037079e-01" purity="4.9191835522651672e-01" nType="0">
        <Node pos="l" depth="1" NCoef="0" IVar="10" Cut="1.0602433681488037e+00" cType="1" res="-1.2091861572116613e-04" rms="1.9055163860321045e-01" purity="4.9558690190315247e-01" nType="0">
          <Node pos="l" depth="2" NCoef="0" IVar="8" Cut="1.4666806459426880e+00" cType="1" res="1.2309843441471457e-03" rms="1.8932683765888214e-01" purity="5.0189173221588135e-01" nType="0">
            <Node pos="l" depth="3" NCoef="0" IVar="-1" Cut="0.0000000000000000e+00" cType="1" res="6.3571881037205458e-04" rms="1.8437196314334869e-01" purity="5.1943111419677734e-01" nType="-99"/>
            <Node pos="r" depth="3" NCoef="0" IVar="-1" Cut="0.0000000000000000e+00" cType="1" res="3.3182915300130844e-02" rms="2.4773284792900085e-01" purity="2.5806328654289246e-01" nType="-99"/>
          </Node>
          <Node pos="r" depth="2" NCoef="0" IVar="1" Cut="1.6756031494140625e+03" cType="1" res="-6.1995177529752254e-03" rms="1.9584883749485016e-01" purity="4.6723812818527222e-01" nType="0">
            <Node pos="l" depth="3" NCoef="0" IVar="-1" Cut="0.0000000000000000e+00" cType="1" res="2.0771522074937820e-02" rms="1.1709681898355484e-01" purity="1.5148149803280830e-02" nType="-99"/>
            <Node pos="r" depth="3" NCoef="0" IVar="-1" Cut="0.0000000000000000e+00" cType="1" res="-2.1015856415033340e-02" rms="2.2678928077220917e-01" purity="7.0824515819549561e-01" nType="-99"/>
          </Node>
        </Node>
        <Node pos="r" depth="1" NCoef="0" IVar="-1" Cut="0.0000000000000000e+00" cType="1" res="4.0341846644878387e-02" rms="2.6401907205581665e-01" purity="3.6667138338088989e-01" nType="-99"/>
      </Node>
    </BinaryTree>
    <BinaryTree type="DecisionTree" boostWeight="1.0000000000000000e+00" itree="211">
      <Node pos="s" depth="0" NCoef="0" IVar="9" Cut="1.7332328557968140e+00" cType="1" res="1.1705752694979310e-03" rms="1.8968580663204193e-01" purity="4.9789741635322571e-01" nType="0">
        <Node pos="l" depth="1" NCoef="0" IVar="5" Cut="2.1269895935058594e+02" cType="1" res="5.1876448560506105e-04" rms="1.8561699986457825e-01" purity="5.1035004854202271e-01" nType="0">
          <Node pos="l" depth="2" NCoef="0" IVar="2" Cut="5.8377955108880997e-02" cType="1" res="-2.5477136950939894e-03" rms="1.7807047069072723e-01" purity="1.1574520915746689e-01" nType="0">
            <Node pos="l" depth="3" NCoef="0" IVar="-1" Cut="0.0000000000000000e+00" cType="1" res="-1.0093434248119593e-03" rms="1.7251083254814148e-01" purity="1.0612937808036804e-01" nType="-99"/>
            <Node pos="r" depth="3" NCoef="0" IVar="-1" Cut="0.0000000000000000e+00" cType="1" res="-3.2804947346448898e-02" rms="2.0477272570133209e-01" purity="1.6700990498065948e-01" nType="-99"/>
          </Node>
          <Node pos="r" depth="2" NCoef="0" IVar="7" Cut="-8.3573168516159058e-01" cType="1" res="2.8521725907921791e-03" rms="1.9112701714038849e-01" purity="8.1062090396881104e-01" nType="0">
            <Node pos="l" depth="3" NCoef="0" IVar="-1" Cut="0.0000000000000000e+00" cType="1" res="2.8589636087417603e-02" rms="2.5267273187637329e-01" purity="6.5145593881607056e-01" nType="-99"/>
            <Node pos="r" depth="3" NCoef="0" IVar="-1" Cut="0.0000000000000000e+00" cType="1" res="3.1811890657991171e-03" rms="1.8106596171855927e-01" purity="8.3229064941406250e-01" nType="-99"/>
          </Node>
        </Node>
        <Node pos="r" depth="1" NCoef="0" IVar="9" Cut="2.0887787342071533e+00" cType="1" res="1.1265700682997704e-02" rms="2.4397252500057220e-01" purity="3.0503386259078979e-01" nType="0">
          <Node pos="l" depth="2" NCoef="0" IVar="-1" Cut="0.0000000000000000e+00" cType="1" res="4.6861048787832260e-02" rms="2.5854805111885071e-01" purity="3.8500747084617615e-01" nType="-99"/>
          <Node pos="r" depth="2" NCoef="0" IVar="-1" Cut="0.0000000000000000e+00" cType="1" res="-1.4061711728572845e-02" rms="2.2283419966697693e-01" purity="2.0400799810886383e-01" nType="-99"/>
        </Node>
      </Node>
    </BinaryTree>
    <BinaryTree type="DecisionTree" boostWeight="1.0000000000000000e+00" itree="212">
      <Node pos="s" depth="0" NCoef="0" IVar="7" Cut="9.6789479255676270e-01" cType="1" res="3.0285812681540847e-04" rms="1.8976779282093048e-01" purity="5.0747060775756836e-01" nType="0">
        <Node pos="l" depth="1" NCoef="0" IVar="0" Cut="5.8411706542968750e+02" cType="1" res="-8.2662020577117801e-04" rms="1.8525785207748413e-01" purity="5.4060113430023193e-01" nType="0">
          <Node pos="l" depth="2" NCoef="0" IVar="9" Cut="1.4661160707473755e+00" cType="1" res="3.4749766346067190e-03" rms="1.9971561431884766e-01" purity="1.0813722014427185e-01" nType="0">
            <Node pos="l" depth="3" NCoef="0" IVar="-1" Cut="0.0000000000000000e+00" cType="1" res="1.5938354656100273e-02" rms="2.0068651437759399e-01" purity="1.1477427184581757e-01" nType="-99"/>
            <Node pos="r" depth="3" NCoef="0" IVar="-1" Cut="0.0000000000000000e+00" cType="1" res="-4.1267994791269302e-02" rms="1.9074797630310059e-01" purity="5.6587275117635727e-02" nType="-99"/>
          </Node>
          <Node pos="r" depth="2" NCoef="0" IVar="0" Cut="7.1264923095703125e+02" cType="1" res="-3.2001622021198273e-03" rms="1.7672999203205109e-01" purity="7.7922672033309937e-01" nType="0">
            <Node pos="l" depth="3" NCoef="0" IVar="-1" Cut="0.0000000000000000e+00" cType="1" res="-2.5934211909770966e-02" rms="2.1499067544937134e-01" purity="4.0077084302902222e-01" nType="-99"/>
            <Node pos="r" depth="3" NCoef="0" IVar="-1" Cut="0.0000000000000000e+00" cType="1" res="-2.5130314752459526e-03" rms="1.6521413624286652e-01" purity="8.7790024280548096e-01" nType="-99"/>
          </Node>
        </Node>
        <Node pos="r" depth="1" NCoef="0" IVar="0" Cut="3.9891024780273438e+02" cType="1" res="8.4385741502046585e-03" rms="2.1936120092868805e-01" purity="2.6882940530776978e-01" nType="0">
          <Node pos="l" depth="2" NCoef="0" IVar="-1" Cut="0.0000000000000000e+00" cType="1" res="-6.5233573317527771e-02" rms="8.8378414511680603e-02" purity="7.7741052955389023e-03" nType="-99"/>
          <Node pos="r" depth="2" NCoef="0" IVar="2" Cut="1.3146373443305492e-02" cType="1" res="1.4398375526070595e-02" rms="2.4540019035339355e-01" purity="3.4819322824478149e-01" nType="0">
            <Node pos="l" depth="3" NCoef="0" IVar="-1" Cut="0.0000000000000000e+00" cType="1" res="-7.6997722499072552e-04" rms="1.9648565351963043e-01" purity="1.4403404295444489e-01" nType="-99"/>
            <Node pos="r" depth="3" NCoef="0" IVar="-1" Cut="0.0000000000000000e+00" cType="1" res="4.4302064925432205e-02" rms="2.7913656830787659e-01" purity="5.1846039295196533e-01" nType="-99"/>
          </Node>
        </Node>
      </Node>
    </BinaryTree>
    <BinaryTree type="DecisionTree" boostWeight="1.0000000000000000e+00" itree="213">
      <Node pos="s" depth="0" NCoef="0" IVar="2" Cut="6.2688998878002167e-02" cType="1" res="-1.8352930201217532e-03" rms="1.8789830803871155e-01" purity="4.9729177355766296e-01" nType="0">
        <Node pos="l" depth="1" NCoef="0" IVar="10" Cut="-1.9999672174453735e+00" cType="1" res="-3.6043077707290649e-03" rms="1.9335931539535522e-01" purity="3.6877214908599854e-01" nType="0">
          <Node pos="l" depth="2" NCoef="0" IVar="-1" Cut="0.0000000000000000e+00" cType="1" res="-3.1173972412943840e-02" rms="2.2307378053665161e-01" purity="2.3609995841979980e-01" nType="-99"/>
          <Node pos="r" depth="2" NCoef="0" IVar="2" Cut="4.7762922942638397e-02" cType="1" res="-2.9315715655684471e-03" rms="1.9169785082340240e-01" purity="3.7553137540817261e-01" nType="0">
            <Node pos="l" depth="3" NCoef="0" IVar="-1" Cut="0.0000000000000000e+00" cType="1" res="-4.5122038573026657e-03" rms="1.9153171777725220e-01" purity="3.4245720505714417e-01" nType="-99"/>
            <Node pos="r" depth="3" NCoef="0" IVar="-1" Cut="0.0000000000000000e+00" cType="1" res="-3.2582953572273254e-02" rms="1.9262030720710754e-01" purity="6.0501420497894287e-01" nType="-99"/>
          </Node>
        </Node>
        <Node pos="r" depth="1" NCoef="0" IVar="9" Cut="-6.6688764095306396e-01" cType="1" res="1.8048228230327368e-03" rms="1.7607337236404419e-01" purity="7.6174765825271606e-01" nType="0">
          <Node pos="l" depth="2" NCoef="0" IVar="-1" Cut="0.0000000000000000e+00" cType="1" res="3.3959198743104935e-02" rms="1.8748581409454346e-01" purity="7.4124693870544434e-01" nType="-99"/>
          <Node pos="r" depth="2" NCoef="0" IVar="4" Cut="4.1218688964843750e+02" cType="1" res="-1.9452198175713420e-03" rms="1.7149847745895386e-01" purity="7.6934754848480225e-01" nType="0">
            <Node pos="l" depth="3" NCoef="0" IVar="-1" Cut="0.0000000000000000e+00" cType="1" res="-1.9317027181386948e-02" rms="2.4118591845035553e-01" purity="3.0798286199569702e-01" nType="-99"/>
            <Node pos="r" depth="3" NCoef="0" IVar="-1" Cut="0.0000000000000000e+00" cType="1" res="1.0927947238087654e-02" rms="1.3107644021511078e-01" purity="9.6476894617080688e-01" nType="-99"/>
          </Node>
        </Node>
      </Node>
    </BinaryTree>
    <BinaryTree type="DecisionTree" boostWeight="1.0000000000000000e+00" itree="214">
      <Node pos="s" depth="0" NCoef="0" IVar="9" Cut="1.9999434947967529e+00" cType="1" res="6.2082719523459673e-04" rms="1.8853895366191864e-01" purity="4.9518683552742004e-01" nType="0">
        <Node pos="l" depth="1" NCoef="0" IVar="10" Cut="1.9998458623886108e+00" cType="1" res="-1.3622613914776593e-04" rms="1.8625985085964203e-01" purity="5.0459915399551392e-01" nType="0">
          <Node pos="l" depth="2" NCoef="0" IVar="10" Cut="1.5426974296569824e+00" cType="1" res="-8.8219705503433943e-04" rms="1.8209026753902435e-01" purity="5.1024711132049561e-01" nType="0">
            <Node pos="l" depth="3" NCoef="0" IVar="-1" Cut="0.0000000000000000e+00" cType="1" res="-2.7525614132173359e-04" rms="1.8203908205032349e-01" purity="5.1220190525054932e-01" nType="-99"/>
            <Node pos="r" depth="3" NCoef="0" IVar="-1" Cut="0.0000000000000000e+00" cType="1" res="-3.3183723688125610e-02" rms="1.8243999779224396e-01" purity="4.7875937819480896e-01" nType="-99"/>
          </Node>
          <Node pos="r" depth="2" NCoef="0" IVar="-1" Cut="0.0000000000000000e+00" cType="1" res="2.7371428906917572e-02" rms="2.5449073314666748e-01" purity="3.9317369461059570e-01" nType="-99"/>
        </Node>
        <Node pos="r" depth="1" NCoef="0" IVar="-1" Cut="0.0000000000000000e+00" cType="1" res="3.8201119750738144e-02" rms="2.4090521037578583e-01" purity="2.4267578125000000e-01" nType="-99"/>
      </Node>
    </BinaryTree>
    <BinaryTree type="DecisionTree" boostWeight="1.0000000000000000e+00" itree="215">
      <Node pos="s" depth="0" NCoef="0" IVar="9" Cut="1.9998749494552612e+00" cType="1" res="7.8151689376682043e-04" rms="1.8629145622253418e-01" purity="4.9395197629928589e-01" nType="0">
        <Node pos="l" depth="1" NCoef="0" IVar="10" Cut="2.2666049003601074e+00" cType="1" res="2.1505317999981344e-04" rms="1.8395695090293884e-01" purity="5.0195610523223877e-01" nType="0">
          <Node pos="l" depth="2" NCoef="0" IVar="10" Cut="1.7840375900268555e+00" cType="1" res="6.4289337024092674e-04" rms="1.8284042179584503e-01" purity="5.0692498683929443e-01" nType="0">
            <Node pos="l" depth="3" NCoef="0" IVar="-1" Cut="0.0000000000000000e+00" cType="1" res="-1.4300517796073109e-04" rms="1.7999181151390076e-01" purity="5.1175403594970703e-01" nType="-99"/>
            <Node pos="r" depth="3" NCoef="0" IVar="-1" Cut="0.0000000000000000e+00" cType="1" res="2.7875026687979698e-02" rms="2.3162576556205750e-01" purity="4.1153672337532043e-01" nType="-99"/>
          </Node>
          <Node pos="r" depth="2" NCoef="0" IVar="-1" Cut="0.0000000000000000e+00" cType="1" res="-3.3787839114665985e-02" rms="2.1865126490592957e-01" purity="3.2973787188529968e-01" nType="-99"/>
        </Node>
        <Node pos="r" depth="1" NCoef="0" IVar="-1" Cut="0.0000000000000000e+00" cType="1" res="2.9973801225423813e-02" rms="2.4560743570327759e-01" purity="2.5395441055297852e-01" nType="-99"/>
      </Node>
    </BinaryTree>
    <BinaryTree type="DecisionTree" boostWeight="1.0000000000000000e+00" itree="216">
      <Node pos="s" depth="0" NCoef="0" IVar="9" Cut="-1.4666653871536255e+00" cType="1" res="3.6672616261057556e-05" rms="1.9004750251770020e-01" purity="5.0225567817687988e-01" nType="0">
        <Node pos="l" depth="1" NCoef="0" IVar="7" Cut="-5.9404748678207397e-01" cType="1" res="-1.0138756595551968e-02" rms="2.0804516971111298e-01" purity="3.3640962839126587e-01" nType="0">
          <Node pos="l" depth="2" NCoef="0" IVar="-1" Cut="0.0000000000000000e+00" cType="1" res="1.5097265131771564e-02" rms="1.9898630678653717e-01" purity="2.7413499355316162e-01" nType="-99"/>
          <Node pos="r" depth="2" NCoef="0" IVar="1" Cut="1.8165268554687500e+03" cType="1" res="-1.6405060887336731e-02" rms="2.1110966801643372e-01" purity="3.6048266291618347e-01" nType="0">
            <Node pos="l" depth="3" NCoef="0" IVar="-1" Cut="0.0000000000000000e+00" cType="1" res="-2.2779943421483040e-02" rms="1.3779659569263458e-01" purity="2.1443625912070274e-02" nType="-99"/>
            <Node pos="r" depth="3" NCoef="0" IVar="-1" Cut="0.0000000000000000e+00" cType="1" res="-4.0884763002395630e-02" rms="2.6629647612571716e-01" purity="7.1308940649032593e-01" nType="-99"/>
          </Node>
        </Node>
        <Node pos="r" depth="1" NCoef="0" IVar="9" Cut="1.9870662689208984e+00" cType="1" res="1.0774271795526147e-03" rms="1.8807859718799591e-01" purity="5.1921856403350830e-01" nType="0">
          <Node pos="l" depth="2" NCoef="0" IVar="7" Cut="9.6843236684799194e-01" cType="1" res="1.7009213333949447e-03" rms="1.8625326454639435e-01" purity="5.3074002265930176e-01" nType="0">
            <Node pos="l" depth="3" NCoef="0" IVar="-1" Cut="0.0000000000000000e+00" cType="1" res="1.9160050433129072e-03" rms="1.8263463675975800e-01" purity="5.6535959243774414e-01" nType="-99"/>
            <Node pos="r" depth="3" NCoef="0" IVar="-1" Cut="0.0000000000000000e+00" cType="1" res="2.2978803142905235e-02" rms="2.1078170835971832e-01" purity="2.7639308571815491e-01" nType="-99"/>
          </Node>
          <Node pos="r" depth="2" NCoef="0" IVar="-1" Cut="0.0000000000000000e+00" cType="1" res="-2.8248650953173637e-02" rms="2.3082911968231201e-01" purity="2.1242384612560272e-01" nType="-99"/>
        </Node>
      </Node>
    </BinaryTree>
    <BinaryTree type="DecisionTree" boostWeight="1.0000000000000000e+00" itree="217">
      <Node pos="s" depth="0" NCoef="0" IVar="9" Cut="-1.7332340478897095e+00" cType="1" res="2.7911302167922258e-03" rms="1.9188095629215240e-01" purity="5.0047385692596436e-01" nType="0">
        <Node pos="l" depth="1" NCoef="0" IVar="4" Cut="3.0341003417968750e+02" cType="1" res="1.5288385562598705e-02" rms="2.3866207897663116e-01" purity="2.9794046282768250e-01" nType="0">
          <Node pos="l" depth="2" NCoef="0" IVar="-1" Cut="0.0000000000000000e+00" cType="1" res="6.4884051680564880e-03" rms="1.8378283083438873e-01" purity="7.5767651200294495e-02" nType="-99"/>
          <Node pos="r" depth="2" NCoef="0" IVar="-1" Cut="0.0000000000000000e+00" cType="1" res="4.5442488044500351e-02" rms="2.8143769502639771e-01" purity="5.1435458660125732e-01" nType="-99"/>
        </Node>
        <Node pos="r" depth="1" NCoef="0" IVar="4" Cut="3.3703079223632812e+02" cType="1" res="1.9895012956112623e-03" rms="1.8845607340335846e-01" purity="5.1346522569656372e-01" nType="0">
          <Node pos="l" depth="2" NCoef="0" IVar="1" Cut="2.0239649658203125e+03" cType="1" res="5.9448750689625740e-03" rms="1.8760608136653900e-01" purity="1.0322953015565872e-01" nType="0">
            <Node pos="l" depth="3" NCoef="0" IVar="-1" Cut="0.0000000000000000e+00" cType="1" res="1.1049149557948112e-02" rms="1.4771027863025665e-01" purity="2.9311995953321457e-02" nType="-99"/>
            <Node pos="r" depth="3" NCoef="0" IVar="-1" Cut="0.0000000000000000e+00" cType="1" res="2.5586040690541267e-02" rms="3.5324913263320923e-01" purity="6.0203337669372559e-01" nType="-99"/>
          </Node>
          <Node pos="r" depth="2" NCoef="0" IVar="7" Cut="4.7182625532150269e-01" cType="1" res="-4.1748091462068260e-04" rms="1.8893092870712280e-01" purity="7.6310795545578003e-01" nType="0">
            <Node pos="l" depth="3" NCoef="0" IVar="-1" Cut="0.0000000000000000e+00" cType="1" res="5.9970100410282612e-03" rms="1.8370707333087921e-01" purity="7.8858798742294312e-01" nType="-99"/>
            <Node pos="r" depth="3" NCoef="0" IVar="-1" Cut="0.0000000000000000e+00" cType="1" res="-1.8442058935761452e-02" rms="2.0423708856105804e-01" purity="6.8332433700561523e-01" nType="-99"/>
          </Node>
        </Node>
      </Node>
    </BinaryTree>
    <BinaryTree type="DecisionTree" boostWeight="1.0000000000000000e+00" itree="218">
      <Node pos="s" depth="0" NCoef="0" IVar="8" Cut="-1.2000312805175781e+00" cType="1" res="2.6016758056357503e-04" rms="1.8833653628826141e-01" purity="5.0136572122573853e-01" nType="0">
        <Node pos="l" depth="1" NCoef="0" IVar="3" Cut="6.4347430419921875e+02" cType="1" res="8.6313327774405479e-03" rms="2.1917665004730225e-01" purity="3.0092293024063110e-01" nType="0">
          <Node pos="l" depth="2" NCoef="0" IVar="5" Cut="1.7571325683593750e+02" cType="1" res="1.6540223732590675e-02" rms="2.1776762604713440e-01" purity="1.6109128296375275e-01" nType="0">
            <Node pos="l" depth="3" NCoef="0" IVar="-1" Cut="0.0000000000000000e+00" cType="1" res="-4.3734265491366386e-03" rms="1.1591513454914093e-01" purity="1.9783737137913704e-02" nType="-99"/>
            <Node pos="r" depth="3" NCoef="0" IVar="-1" Cut="0.0000000000000000e+00" cType="1" res="5.2827563136816025e-02" rms="2.9250070452690125e-01" purity="3.2267636060714722e-01" nType="-99"/>
          </Node>
          <Node pos="r" depth="2" NCoef="0" IVar="-1" Cut="0.0000000000000000e+00" cType="1" res="-1.1648158542811871e-02" rms="2.2096446156501770e-01" purity="5.5004918575286865e-01" nType="-99"/>
        </Node>
        <Node pos="r" depth="1" NCoef="0" IVar="6" Cut="1.7662765502929688e+02" cType="1" res="-8.4923894610255957e-04" rms="1.8383298814296722e-01" purity="5.2792984247207642e-01" nType="0">
          <Node pos="l" depth="2" NCoef="0" IVar="10" Cut="-3.9997270703315735e-01" cType="1" res="-2.5327268522232771e-03" rms="2.0025801658630371e-01" purity="3.0069044232368469e-01" nType="0">
            <Node pos="l" depth="3" NCoef="0" IVar="-1" Cut="0.0000000000000000e+00" cType="1" res="-1.8387673422694206e-02" rms="1.9299975037574768e-01" purity="2.8926986455917358e-01" nType="-99"/>
            <Node pos="r" depth="3" NCoef="0" IVar="-1" Cut="0.0000000000000000e+00" cType="1" res="1.2857537949457765e-03" rms="2.0433968305587769e-01" purity="3.0739888548851013e-01" nType="-99"/>
          </Node>
          <Node pos="r" depth="2" NCoef="0" IVar="0" Cut="5.5142810058593750e+02" cType="1" res="2.0486922003328800e-03" rms="1.5139873325824738e-01" purity="9.1909629106521606e-01" nType="0">
            <Node pos="l" depth="3" NCoef="0" IVar="-1" Cut="0.0000000000000000e+00" cType="1" res="2.3741029202938080e-02" rms="3.2401391863822937e-01" purity="3.9134016633033752e-01" nType="-99"/>
            <Node pos="r" depth="3" NCoef="0" IVar="-1" Cut="0.0000000000000000e+00" cType="1" res="-2.4396239314228296e-03" rms="1.1747489124536514e-01" purity="9.7737902402877808e-01" nType="-99"/>
          </Node>
        </Node>
      </Node>
    </BinaryTree>
    <BinaryTree type="DecisionTree" boostWeight="1.0000000000000000e+00" itree="219">
      <Node pos="s" depth="0" NCoef="0" IVar="9" Cut="1.7332328557968140e+00" cType="1" res="-7.8655843390151858e-04" rms="1.8849679827690125e-01" purity="5.0054305791854858e-01" nType="0">
        <Node pos="l" depth="1" NCoef="0" IVar="9" Cut="1.5173065662384033e+00" cType="1" res="-2.3184131714515388e-04" rms="1.8655914068222046e-01" purity="5.1334178447723389e-01" nType="0">
          <Node pos="l" depth="2" NCoef="0" IVar="9" Cut="-1.7719488143920898e+00" cType="1" res="-6.2814477132633328e-04" rms="1.8538255989551544e-01" purity="5.1536870002746582e-01" nType="0">
            <Node pos="l" depth="3" NCoef="0" IVar="-1" Cut="0.0000000000000000e+00" cType="1" res="1.5872731804847717e-02" rms="2.3097226023674011e-01" purity="3.0412766337394714e-01" nType="-99"/>
            <Node pos="r" depth="3" NCoef="0" IVar="-1" Cut="0.0000000000000000e+00" cType="1" res="-3.5443345550447702e-03" rms="1.8202456831932068e-01" purity="5.2904331684112549e-01" nType="-99"/>
          </Node>
          <Node pos="r" depth="2" NCoef="0" IVar="-1" Cut="0.0000000000000000e+00" cType="1" res="2.7490036562085152e-02" rms="2.2126308083534241e-01" purity="4.4698429107666016e-01" nType="-99"/>
        </Node>
        <Node pos="r" depth="1" NCoef="0" IVar="2" Cut="2.1366233006119728e-02" cType="1" res="-9.9755991250276566e-03" rms="2.1789903938770294e-01" purity="2.8852850198745728e-01" nType="0">
          <Node pos="l" depth="2" NCoef="0" IVar="-1" Cut="0.0000000000000000e+00" cType="1" res="2.1560648456215858e-03" rms="2.0682810246944427e-01" purity="1.5661127865314484e-01" nType="-99"/>
          <Node pos="r" depth="2" NCoef="0" IVar="-1" Cut="0.0000000000000000e+00" cType="1" res="-3.9072357118129730e-02" rms="2.2834485769271851e-01" purity="4.2663192749023438e-01" nType="-99"/>
        </Node>
      </Node>
    </BinaryTree>
    <BinaryTree type="DecisionTree" boostWeight="1.0000000000000000e+00" itree="220">
      <Node pos="s" depth="0" NCoef="0" IVar="8" Cut="-1.7334237098693848e+00" cType="1" res="-1.0549704311415553e-03" rms="1.8692690134048462e-01" purity="4.9709242582321167e-01" nType="0">
        <Node pos="l" depth="1" NCoef="0" IVar="-1" Cut="0.0000000000000000e+00" cType="1" res="-4.3424289673566818e-02" rms="1.9161641597747803e-01" purity="1.5328282117843628e-01" nType="-99"/>
        <Node pos="r" depth="1" NCoef="0" IVar="0" Cut="5.9408575439453125e+02" cType="1" res="-3.6383676342666149e-04" rms="1.8668965995311737e-01" purity="5.1203775405883789e-01" nType="0">
          <Node pos="l" depth="2" NCoef="0" IVar="1" Cut="2.0685815429687500e+03" cType="1" res="-3.7158178165555000e-03" rms="1.9076277315616608e-01" purity="9.2639833688735962e-02" nType="0">
            <Node pos="l" depth="3" NCoef="0" IVar="-1" Cut="0.0000000000000000e+00" cType="1" res="-9.8941870965063572e-04" rms="1.6198095679283142e-01" purity="3.5516265779733658e-02" nType="-99"/>
            <Node pos="r" depth="3" NCoef="0" IVar="-1" Cut="0.0000000000000000e+00" cType="1" res="-2.7140455320477486e-02" rms="3.5276630520820618e-01" purity="5.9382140636444092e-01" nType="-99"/>
          </Node>
          <Node pos="r" depth="2" NCoef="0" IVar="9" Cut="1.4666728973388672e+00" cType="1" res="1.7705262871459126e-03" rms="1.8401734530925751e-01" purity="7.7908802032470703e-01" nType="0">
            <Node pos="l" depth="3" NCoef="0" IVar="-1" Cut="0.0000000000000000e+00" cType="1" res="2.1914183162152767e-03" rms="1.7836682498455048e-01" purity="7.9075890779495239e-01" nType="-99"/>
            <Node pos="r" depth="3" NCoef="0" IVar="-1" Cut="0.0000000000000000e+00" cType="1" res="2.4584047496318817e-02" rms="2.4407789111137390e-01" purity="6.3143134117126465e-01" nType="-99"/>
          </Node>
        </Node>
      </Node>
    </BinaryTree>
    <BinaryTree type="DecisionTree" boostWeight="1.0000000000000000e+00" itree="221">
      <Node pos="s" depth="0" NCoef="0" IVar="9" Cut="1.7332328557968140e+00" cType="1" res="3.8603096618317068e-04" rms="1.8824277818202972e-01" purity="5.0097137689590454e-01" nType="0">
        <Node pos="l" depth="1" NCoef="0" IVar="7" Cut="1.8686142563819885e-01" cType="1" res="1.3812793185934424e-03" rms="1.8625438213348389e-01" purity="5.1587802171707153e-01" nType="0">
          <Node pos="l" depth="2" NCoef="0" IVar="3" Cut="6.1948785400390625e+02" cType="1" res="-8.3220039959996939e-04" rms="1.7794953286647797e-01" purity="5.3428298234939575e-01" nType="0">
            <Node pos="l" depth="3" NCoef="0" IVar="-1" Cut="0.0000000000000000e+00" cType="1" res="-1.7428044229745865e-02" rms="1.8705275654792786e-01" purity="1.7680740356445312e-01" nType="-99"/>
            <Node pos="r" depth="3" NCoef="0" IVar="-1" Cut="0.0000000000000000e+00" cType="1" res="8.8376812636852264e-03" rms="1.7182211577892303e-01" purity="7.6121222972869873e-01" nType="-99"/>
          </Node>
          <Node pos="r" depth="2" NCoef="0" IVar="9" Cut="-1.5046979188919067e+00" cType="1" res="4.5676259323954582e-03" rms="1.9755390286445618e-01" purity="4.8938360810279846e-01" nType="0">
            <Node pos="l" depth="3" NCoef="0" IVar="-1" Cut="0.0000000000000000e+00" cType="1" res="2.9852977022528648e-02" rms="2.4663542211055756e-01" purity="3.2624948024749756e-01" nType="-99"/>
            <Node pos="r" depth="3" NCoef="0" IVar="-1" Cut="0.0000000000000000e+00" cType="1" res="9.0007008984684944e-03" rms="1.9144476950168610e-01" purity="5.0702309608459473e-01" nType="-99"/>
          </Node>
        </Node>
        <Node pos="r" depth="1" NCoef="0" IVar="5" Cut="1.6591213989257812e+02" cType="1" res="-1.5371037647128105e-02" rms="2.1670456230640411e-01" purity="2.6496484875679016e-01" nType="0">
          <Node pos="l" depth="2" NCoef="0" IVar="-1" Cut="0.0000000000000000e+00" cType="1" res="4.0584595990367234e-04" rms="1.7739644646644592e-01" purity="1.1416020989418030e-01" nType="-99"/>
          <Node pos="r" depth="2" NCoef="0" IVar="-1" Cut="0.0000000000000000e+00" cType="1" res="-4.8690661787986755e-02" rms="2.5153779983520508e-01" purity="4.2906838655471802e-01" nType="-99"/>
        </Node>
      </Node>
    </BinaryTree>
    <BinaryTree type="DecisionTree" boostWeight="1.0000000000000000e+00" itree="222">
      <Node pos="s" depth="0" NCoef="0" IVar="8" Cut="9.3331652879714966e-01" cType="1" res="4.7876306780381128e-05" rms="1.8707536160945892e-01" purity="5.0061875581741333e-01" nType="0">
        <Node pos="l" depth="1" NCoef="0" IVar="2" Cut="4.2731549590826035e-02" cType="1" res="1.5942786121740937e-03" rms="1.8445150554180145e-01" purity="5.3115266561508179e-01" nType="0">
          <Node pos="l" depth="2" NCoef="0" IVar="1" Cut="1.6597943115234375e+03" cType="1" res="5.1302593201398849e-03" rms="1.9958436489105225e-01" purity="3.5205075144767761e-01" nType="0">
            <Node pos="l" depth="3" NCoef="0" IVar="-1" Cut="0.0000000000000000e+00" cType="1" res="-7.4919476173818111e-03" rms="8.0514170229434967e-02" purity="6.9333007559180260e-03" nType="-99"/>
            <Node pos="r" depth="3" NCoef="0" IVar="-1" Cut="0.0000000000000000e+00" cType="1" res="1.5142814256250858e-02" rms="2.4647682905197144e-01" purity="5.6883710622787476e-01" nType="-99"/>
          </Node>
          <Node pos="r" depth="2" NCoef="0" IVar="1" Cut="2.2413117675781250e+03" cType="1" res="-2.2727833129465580e-03" rms="1.6624684631824493e-01" purity="7.2702437639236450e-01" nType="0">
            <Node pos="l" depth="3" NCoef="0" IVar="-1" Cut="0.0000000000000000e+00" cType="1" res="-2.0035855472087860e-02" rms="2.2872255742549896e-01" purity="1.0891241580247879e-01" nType="-99"/>
            <Node pos="r" depth="3" NCoef="0" IVar="-1" Cut="0.0000000000000000e+00" cType="1" res="8.0616129562258720e-03" rms="1.3264150917530060e-01" purity="9.7737616300582886e-01" nType="-99"/>
          </Node>
        </Node>
        <Node pos="r" depth="1" NCoef="0" IVar="3" Cut="6.7375793457031250e+02" cType="1" res="-7.3289107531309128e-03" rms="1.9895130395889282e-01" purity="3.5496300458908081e-01" nType="0">
          <Node pos="l" depth="2" NCoef="0" IVar="1" Cut="1.6587746582031250e+03" cType="1" res="-1.4028918929398060e-02" rms="1.8228575587272644e-01" purity="1.5483896434307098e-01" nType="0">
            <Node pos="l" depth="3" NCoef="0" IVar="-1" Cut="0.0000000000000000e+00" cType="1" res="-2.6557069271802902e-02" rms="9.2305727303028107e-02" purity="8.9454222470521927e-03" nType="-99"/>
            <Node pos="r" depth="3" NCoef="0" IVar="-1" Cut="0.0000000000000000e+00" cType="1" res="-3.8455214351415634e-02" rms="2.7415585517883301e-01" purity="4.0577280521392822e-01" nType="-99"/>
          </Node>
          <Node pos="r" depth="2" NCoef="0" IVar="8" Cut="1.2000261545181274e+00" cType="1" res="3.6165460478514433e-03" rms="2.2308723628520966e-01" purity="6.8189531564712524e-01" nType="0">
            <Node pos="l" depth="3" NCoef="0" IVar="-1" Cut="0.0000000000000000e+00" cType="1" res="3.4277386963367462e-02" rms="2.0337024331092834e-01" purity="7.8054088354110718e-01" nType="-99"/>
            <Node pos="r" depth="3" NCoef="0" IVar="-1" Cut="0.0000000000000000e+00" cType="1" res="-7.6652141287922859e-03" rms="2.3635359108448029e-01" purity="6.0884135961532593e-01" nType="-99"/>
          </Node>
        </Node>
      </Node>
    </BinaryTree>
    <BinaryTree type="DecisionTree" boostWeight="1.0000000000000000e+00" itree="223">
      <Node pos="s" depth="0" NCoef="0" IVar="9" Cut="1.1997526884078979e+00" cType="1" res="9.7382049716543406e-05" rms="1.8542839586734772e-01" purity="5.0600111484527588e-01" nType="0">
        <Node pos="l" depth="1" NCoef="0" IVar="7" Cut="-7.4841760098934174e-02" cType="1" res="9.4144599279388785e-04" rms="1.8287414312362671e-01" purity="5.2371823787689209e-01" nType="0">
          <Node pos="l" depth="2" NCoef="0" IVar="1" Cut="1.6662766113281250e+03" cType="1" res="3.2585626468062401e-03" rms="1.8293504416942596e-01" purity="5.1340520381927490e-01" nType="0">
            <Node pos="l" depth="3" NCoef="0" IVar="-1" Cut="0.0000000000000000e+00" cType="1" res="-3.5745475441217422e-02" rms="6.8559087812900543e-02" purity="5.2000056020915508e-03" nType="-99"/>
            <Node pos="r" depth="3" NCoef="0" IVar="-1" Cut="0.0000000000000000e+00" cType="1" res="1.3093831017613411e-02" rms="2.1341593563556671e-01" purity="7.2722315788269043e-01" nType="-99"/>
          </Node>
          <Node pos="r" depth="2" NCoef="0" IVar="5" Cut="2.6112411499023438e+02" cType="1" res="-1.0669927578419447e-03" rms="1.8279756605625153e-01" purity="5.3265744447708130e-01" nType="0">
            <Node pos="l" depth="3" NCoef="0" IVar="-1" Cut="0.0000000000000000e+00" cType="1" res="-1.1882469058036804e-02" rms="1.9562552869319916e-01" purity="1.9417317211627960e-01" nType="-99"/>
            <Node pos="r" depth="3" NCoef="0" IVar="-1" Cut="0.0000000000000000e+00" cType="1" res="9.8700979724526405e-03" rms="1.6729637980461121e-01" purity="9.0902125835418701e-01" nType="-99"/>
          </Node>
        </Node>
        <Node pos="r" depth="1" NCoef="0" IVar="10" Cut="3.9992260932922363e-01" cType="1" res="-4.9147810786962509e-03" rms="1.9985142350196838e-01" purity="4.0079462528228760e-01" nType="0">
          <Node pos="l" depth="2" NCoef="0" IVar="7" Cut="-3.1140068173408508e-01" cType="1" res="-1.0079437866806984e-02" rms="1.9424767792224884e-01" purity="4.1073176264762878e-01" nType="0">
            <Node pos="l" depth="3" NCoef="0" IVar="-1" Cut="0.0000000000000000e+00" cType="1" res="-1.3010929978918284e-04" rms="2.0848959684371948e-01" purity="3.3615636825561523e-01" nType="-99"/>
            <Node pos="r" depth="3" NCoef="0" IVar="-1" Cut="0.0000000000000000e+00" cType="1" res="-3.7601064890623093e-02" rms="1.8593600392341614e-01" purity="4.5074108242988586e-01" nType="-99"/>
          </Node>
          <Node pos="r" depth="2" NCoef="0" IVar="7" Cut="2.8602622915059328e-03" cType="1" res="1.8038869602605700e-03" rms="2.0672126114368439e-01" purity="3.8786745071411133e-01" nType="0">
            <Node pos="l" depth="3" NCoef="0" IVar="-1" Cut="0.0000000000000000e+00" cType="1" res="-3.1439263373613358e-02" rms="2.0200026035308838e-01" purity="3.7380382418632507e-01" nType="-99"/>
            <Node pos="r" depth="3" NCoef="0" IVar="-1" Cut="0.0000000000000000e+00" cType="1" res="2.8383428230881691e-02" rms="2.0964452624320984e-01" purity="3.9895877242088318e-01" nType="-99"/>
          </Node>
        </Node>
      </Node>
    </BinaryTree>
    <BinaryTree type="DecisionTree" boostWeight="1.0000000000000000e+00" itree="224">
      <Node pos="s" depth="0" NCoef="0" IVar="3" Cut="4.9879882812500000e+02" cType="1" res="1.4255960704758763e-03" rms="1.9014467298984528e-01" purity="5.0038576126098633e-01" nType="0">
        <Node pos="l" depth="1" NCoef="0" IVar="9" Cut="9.3319958448410034e-01" cType="1" res="7.7788699418306351e-03" rms="2.0918178558349609e-01" purity="1.1395750939846039e-01" nType="0">
          <Node pos="l" depth="2" NCoef="0" IVar="10" Cut="3.9887580275535583e-01" cType="1" res="1.5859662089496851e-03" rms="1.9119088351726532e-01" purity="1.0405817627906799e-01" nType="0">
            <Node pos="l" depth="3" NCoef="0" IVar="-1" Cut="0.0000000000000000e+00" cType="1" res="-1.1152382940053940e-02" rms="1.7620688676834106e-01" purity="8.9505344629287720e-02" nType="-99"/>
            <Node pos="r" depth="3" NCoef="0" IVar="-1" Cut="0.0000000000000000e+00" cType="1" res="2.5764049962162971e-02" rms="2.1403896808624268e-01" purity="1.2889099121093750e-01" nType="-99"/>
          </Node>
          <Node pos="r" depth="2" NCoef="0" IVar="6" Cut="1.0425847625732422e+02" cType="1" res="2.6952169835567474e-02" rms="2.5606921315193176e-01" purity="1.4460596442222595e-01" nType="0">
            <Node pos="l" depth="3" NCoef="0" IVar="-1" Cut="0.0000000000000000e+00" cType="1" res="1.7313851416110992e-01" rms="2.4836555123329163e-01" purity="9.3208834528923035e-02" nType="-99"/>
            <Node pos="r" depth="3" NCoef="0" IVar="-1" Cut="0.0000000000000000e+00" cType="1" res="1.6269942745566368e-02" rms="2.6107338070869446e-01" purity="1.8775171041488647e-01" nType="-99"/>
          </Node>
        </Node>
        <Node pos="r" depth="1" NCoef="0" IVar="10" Cut="-1.1999266147613525e+00" cType="1" res="-5.3246901370584965e-04" rms="1.8383632600307465e-01" purity="6.1948204040527344e-01" nType="0">
          <Node pos="l" depth="2" NCoef="0" IVar="3" Cut="6.3387799072265625e+02" cType="1" res="6.9269104860723019e-03" rms="2.0961134135723114e-01" purity="5.7349371910095215e-01" nType="0">
            <Node pos="l" depth="3" NCoef="0" IVar="-1" Cut="0.0000000000000000e+00" cType="1" res="-1.6354613006114960e-02" rms="2.2369158267974854e-01" purity="2.4253237247467041e-01" nType="-99"/>
            <Node pos="r" depth="3" NCoef="0" IVar="-1" Cut="0.0000000000000000e+00" cType="1" res="3.0485782772302628e-02" rms="2.0290483534336090e-01" purity="7.1680307388305664e-01" nType="-99"/>
          </Node>
          <Node pos="r" depth="2" NCoef="0" IVar="8" Cut="-9.3347793817520142e-01" cType="1" res="-2.0013779867440462e-03" rms="1.7828539013862610e-01" purity="6.2853819131851196e-01" nType="0">
            <Node pos="l" depth="3" NCoef="0" IVar="-1" Cut="0.0000000000000000e+00" cType="1" res="-2.3294832557439804e-02" rms="1.9296835362911224e-01" purity="4.8528730869293213e-01" nType="-99"/>
            <Node pos="r" depth="3" NCoef="0" IVar="-1" Cut="0.0000000000000000e+00" cType="1" res="-2.4293123278766870e-03" rms="1.7549416422843933e-01" purity="6.5422272682189941e-01" nType="-99"/>
          </Node>
        </Node>
      </Node>
    </BinaryTree>
    <BinaryTree type="DecisionTree" boostWeight="1.0000000000000000e+00" itree="225">
      <Node pos="s" depth="0" NCoef="0" IVar="9" Cut="-1.9998503923416138e+00" cType="1" res="-7.7291985508054495e-04" rms="1.8695473670959473e-01" purity="5.0278687477111816e-01" nType="0">
        <Node pos="l" depth="1" NCoef="0" IVar="-1" Cut="0.0000000000000000e+00" cType="1" res="-3.4016981720924377e-02" rms="2.1626348793506622e-01" purity="1.9237655401229858e-01" nType="-99"/>
        <Node pos="r" depth="1" NCoef="0" IVar="7" Cut="-1.1200408935546875e+00" cType="1" res="-2.8719953843392432e-04" rms="1.8591934442520142e-01" purity="5.1272779703140259e-01" nType="0">
          <Node pos="l" depth="2" NCoef="0" IVar="6" Cut="1.0314589691162109e+02" cType="1" res="-9.2472312971949577e-03" rms="1.6840733587741852e-01" purity="1.9799984991550446e-01" nType="0">
            <Node pos="l" depth="3" NCoef="0" IVar="-1" Cut="0.0000000000000000e+00" cType="1" res="-6.9470726884901524e-03" rms="1.3297377526760101e-01" purity="4.3392080813646317e-02" nType="-99"/>
            <Node pos="r" depth="3" NCoef="0" IVar="-1" Cut="0.0000000000000000e+00" cType="1" res="-3.7754956632852554e-02" rms="1.9686147570610046e-01" purity="3.5021993517875671e-01" nType="-99"/>
          </Node>
          <Node pos="r" depth="2" NCoef="0" IVar="8" Cut="1.7328996658325195e+00" cType="1" res="5.9561978559941053e-04" rms="1.8753315508365631e-01" purity="5.4373747110366821e-01" nType="0">
            <Node pos="l" depth="3" NCoef="0" IVar="-1" Cut="0.0000000000000000e+00" cType="1" res="-5.0402359192958102e-05" rms="1.8479293584823608e-01" purity="5.5528974533081055e-01" nType="-99"/>
            <Node pos="r" depth="3" NCoef="0" IVar="-1" Cut="0.0000000000000000e+00" cType="1" res="3.6725513637065887e-02" rms="2.5225993990898132e-01" purity="2.1790957450866699e-01" nType="-99"/>
          </Node>
        </Node>
      </Node>
    </BinaryTree>
    <BinaryTree type="DecisionTree" boostWeight="1.0000000000000000e+00" itree="226">
      <Node pos="s" depth="0" NCoef="0" IVar="10" Cut="-6.6666829586029053e-01" cType="1" res="-3.4557605977170169e-04" rms="1.8933649361133575e-01" purity="5.0131154060363770e-01" nType="0">
        <Node pos="l" depth="1" NCoef="0" IVar="1" Cut="2.6765048828125000e+03" cType="1" res="5.0624208524823189e-03" rms="2.0151288807392120e-01" purity="4.7168120741844177e-01" nType="0">
          <Node pos="l" depth="2" NCoef="0" IVar="1" Cut="1.7647241210937500e+03" cType="1" res="8.9850239455699921e-03" rms="2.3206321895122528e-01" purity="1.7728236317634583e-01" nType="0">
            <Node pos="l" depth="3" NCoef="0" IVar="-1" Cut="0.0000000000000000e+00" cType="1" res="9.7603546455502510e-03" rms="1.2616676092147827e-01" purity="1.8503732979297638e-02" nType="-99"/>
            <Node pos="r" depth="3" NCoef="0" IVar="-1" Cut="0.0000000000000000e+00" cType="1" res="1.9374737516045570e-02" rms="3.4548601508140564e-01" purity="4.5257937908172607e-01" nType="-99"/>
          </Node>
          <Node pos="r" depth="2" NCoef="0" IVar="9" Cut="-1.3288412988185883e-01" cType="1" res="-1.6774702817201614e-03" rms="1.3332755863666534e-01" purity="9.7752296924591064e-01" nType="0">
            <Node pos="l" depth="3" NCoef="0" IVar="-1" Cut="0.0000000000000000e+00" cType="1" res="-2.2488094866275787e-02" rms="1.3766868412494659e-01" purity="9.7598254680633545e-01" nType="-99"/>
            <Node pos="r" depth="3" NCoef="0" IVar="-1" Cut="0.0000000000000000e+00" cType="1" res="-9.0881316282320768e-05" rms="1.2963511049747467e-01" purity="9.7878628969192505e-01" nType="-99"/>
          </Node>
        </Node>
        <Node pos="r" depth="1" NCoef="0" IVar="7" Cut="1.4927831888198853e+00" cType="1" res="-2.7141033206135035e-03" rms="1.8369957804679871e-01" purity="5.1428866386413574e-01" nType="0">
          <Node pos="l" depth="2" NCoef="0" IVar="6" Cut="2.2960041809082031e+02" cType="1" res="-3.4752208739519119e-03" rms="1.8260955810546875e-01" purity="5.3077030181884766e-01" nType="0">
            <Node pos="l" depth="3" NCoef="0" IVar="-1" Cut="0.0000000000000000e+00" cType="1" res="-1.3757241889834404e-02" rms="2.0228081941604614e-01" purity="3.6808013916015625e-01" nType="-99"/>
            <Node pos="r" depth="3" NCoef="0" IVar="-1" Cut="0.0000000000000000e+00" cType="1" res="1.6090219840407372e-02" rms="1.1189616471529007e-01" purity="9.7730487585067749e-01" nType="-99"/>
          </Node>
          <Node pos="r" depth="2" NCoef="0" IVar="-1" Cut="0.0000000000000000e+00" cType="1" res="4.1019503027200699e-02" rms="2.0608960092067719e-01" purity="1.4124958217144012e-01" nType="-99"/>
        </Node>
      </Node>
    </BinaryTree>
    <BinaryTree type="DecisionTree" boostWeight="1.0000000000000000e+00" itree="227">
      <Node pos="s" depth="0" NCoef="0" IVar="10" Cut="-6.6667652130126953e-01" cType="1" res="-7.7351316576823592e-04" rms="1.8816298246383667e-01" purity="5.0180792808532715e-01" nType="0">
        <Node pos="l" depth="1" NCoef="0" IVar="5" Cut="1.0180290985107422e+02" cType="1" res="3.5230331122875214e-03" rms="2.0546764135360718e-01" purity="4.7887155413627625e-01" nType="0">
          <Node pos="l" depth="2" NCoef="0" IVar="-1" Cut="0.0000000000000000e+00" cType="1" res="-6.9249376654624939e-02" rms="8.8608048856258392e-02" purity="2.3214971646666527e-02" nType="-99"/>
          <Node pos="r" depth="2" NCoef="0" IVar="4" Cut="4.5244302368164062e+02" cType="1" res="5.5949473753571510e-03" rms="2.1606977283954620e-01" purity="5.3862011432647705e-01" nType="0">
            <Node pos="l" depth="3" NCoef="0" IVar="-1" Cut="0.0000000000000000e+00" cType="1" res="1.9918877631425858e-02" rms="2.4497279524803162e-01" purity="2.5864595174789429e-01" nType="-99"/>
            <Node pos="r" depth="3" NCoef="0" IVar="-1" Cut="0.0000000000000000e+00" cType="1" res="-3.6777029745280743e-03" rms="1.7002326250076294e-01" purity="9.1051191091537476e-01" nType="-99"/>
          </Node>
        </Node>
        <Node pos="r" depth="1" NCoef="0" IVar="7" Cut="1.2043707370758057e+00" cType="1" res="-2.6012824382632971e-03" rms="1.8026760220527649e-01" purity="5.1156514883041382e-01" nType="0">
          <Node pos="l" depth="2" NCoef="0" IVar="8" Cut="-1.1985825300216675e+00" cType="1" res="-1.6263433499261737e-03" rms="1.8034458160400391e-01" purity="5.3999245166778564e-01" nType="0">
            <Node pos="l" depth="3" NCoef="0" IVar="-1" Cut="0.0000000000000000e+00" cType="1" res="2.3055331781506538e-02" rms="2.3025187849998474e-01" purity="3.6081942915916443e-01" nType="-99"/>
            <Node pos="r" depth="3" NCoef="0" IVar="-1" Cut="0.0000000000000000e+00" cType="1" res="-9.5135401934385300e-03" rms="1.7352278530597687e-01" purity="5.6093698740005493e-01" nType="-99"/>
          </Node>
          <Node pos="r" depth="2" NCoef="0" IVar="6" Cut="9.9956474304199219e+01" cType="1" res="-1.3877869583666325e-02" rms="1.7898926138877869e-01" purity="1.8276199698448181e-01" nType="0">
            <Node pos="l" depth="3" NCoef="0" IVar="-1" Cut="0.0000000000000000e+00" cType="1" res="-4.0892817080020905e-02" rms="1.2524141371250153e-01" purity="4.9065943807363510e-02" nType="-99"/>
            <Node pos="r" depth="3" NCoef="0" IVar="-1" Cut="0.0000000000000000e+00" cType="1" res="-3.3338721841573715e-02" rms="2.1559132635593414e-01" purity="3.0112776160240173e-01" nType="-99"/>
          </Node>
        </Node>
      </Node>
    </BinaryTree>
    <BinaryTree type="DecisionTree" boostWeight="1.0000000000000000e+00" itree="228">
      <Node pos="s" depth="0" NCoef="0" IVar="8" Cut="-1.7332133054733276e+00" cType="1" res="-2.6640304713509977e-04" rms="1.8575765192508698e-01" purity="4.9735298752784729e-01" nType="0">
        <Node pos="l" depth="1" NCoef="0" IVar="-1" Cut="0.0000000000000000e+00" cType="1" res="-3.5348519682884216e-02" rms="1.8439723551273346e-01" purity="1.4330370724201202e-01" nType="-99"/>
        <Node pos="r" depth="1" NCoef="0" IVar="9" Cut="1.7332290410995483e+00" cType="1" res="3.0837795929983258e-04" rms="1.8579308688640594e-01" purity="5.1233077049255371e-01" nType="0">
          <Node pos="l" depth="2" NCoef="0" IVar="1" Cut="1.6748138427734375e+03" cType="1" res="7.9710275167599320e-04" rms="1.8389824032783508e-01" purity="5.2573251724243164e-01" nType="0">
            <Node pos="l" depth="3" NCoef="0" IVar="-1" Cut="0.0000000000000000e+00" cType="1" res="4.8021547496318817e-02" rms="1.1343471705913544e-01" purity="1.3977719470858574e-02" nType="-99"/>
            <Node pos="r" depth="3" NCoef="0" IVar="-1" Cut="0.0000000000000000e+00" cType="1" res="-1.6770021757110953e-03" rms="2.0686469972133636e-01" purity="7.4513596296310425e-01" nType="-99"/>
          </Node>
          <Node pos="r" depth="2" NCoef="0" IVar="4" Cut="3.0337423706054688e+02" cType="1" res="-7.4511757120490074e-03" rms="2.1348802745342255e-01" purity="2.9954758286476135e-01" nType="0">
            <Node pos="l" depth="3" NCoef="0" IVar="-1" Cut="0.0000000000000000e+00" cType="1" res="3.0343227554112673e-03" rms="1.7744235694408417e-01" purity="8.7438039481639862e-02" nType="-99"/>
            <Node pos="r" depth="3" NCoef="0" IVar="-1" Cut="0.0000000000000000e+00" cType="1" res="-2.3501629009842873e-02" rms="2.3943009972572327e-01" purity="4.7815951704978943e-01" nType="-99"/>
          </Node>
        </Node>
      </Node>
    </BinaryTree>
    <BinaryTree type="DecisionTree" boostWeight="1.0000000000000000e+00" itree="229">
      <Node pos="s" depth="0" NCoef="0" IVar="10" Cut="-2.2666082382202148e+00" cType="1" res="-3.1412567477673292e-04" rms="1.8635842204093933e-01" purity="5.0235706567764282e-01" nType="0">
        <Node pos="l" depth="1" NCoef="0" IVar="-1" Cut="0.0000000000000000e+00" cType="1" res="-4.2284950613975525e-02" rms="2.2506064176559448e-01" purity="3.2040634751319885e-01" nType="-99"/>
        <Node pos="r" depth="1" NCoef="0" IVar="1" Cut="1.9959088134765625e+03" cType="1" res="2.5665480643510818e-04" rms="1.8521139025688171e-01" purity="5.0708025693893433e-01" nType="0">
          <Node pos="l" depth="2" NCoef="0" IVar="6" Cut="1.5130282592773438e+02" cType="1" res="-2.7887891046702862e-03" rms="1.5486803650856018e-01" purity="3.0603297054767609e-02" nType="0">
            <Node pos="l" depth="3" NCoef="0" IVar="-1" Cut="0.0000000000000000e+00" cType="1" res="-4.3738107196986675e-03" rms="1.3594526052474976e-01" purity="2.2773215547204018e-02" nType="-99"/>
            <Node pos="r" depth="3" NCoef="0" IVar="-1" Cut="0.0000000000000000e+00" cType="1" res="-2.3730218410491943e-02" rms="2.5201851129531860e-01" purity="8.7160654366016388e-02" nType="-99"/>
          </Node>
          <Node pos="r" depth="2" NCoef="0" IVar="9" Cut="-1.1995590925216675e+00" cType="1" res="2.6970587205141783e-03" rms="2.0629811286926270e-01" purity="8.8889521360397339e-01" nType="0">
            <Node pos="l" depth="3" NCoef="0" IVar="-1" Cut="0.0000000000000000e+00" cType="1" res="2.6004413142800331e-02" rms="2.5963902473449707e-01" purity="8.4740644693374634e-01" nType="-99"/>
            <Node pos="r" depth="3" NCoef="0" IVar="-1" Cut="0.0000000000000000e+00" cType="1" res="2.1374800708144903e-03" rms="1.9861461222171783e-01" purity="8.9403825998306274e-01" nType="-99"/>
          </Node>
        </Node>
      </Node>
    </BinaryTree>
    <BinaryTree type="DecisionTree" boostWeight="1.0000000000000000e+00" itree="230">
      <Node pos="s" depth="0" NCoef="0" IVar="8" Cut="-1.3324940204620361e-01" cType="1" res="3.3118805731646717e-04" rms="1.9105263054370880e-01" purity="4.9876201152801514e-01" nType="0">
        <Node pos="l" depth="1" NCoef="0" IVar="9" Cut="1.7330653667449951e+00" cType="1" res="-3.3076372928917408e-03" rms="1.8718005716800690e-01" purity="4.8187124729156494e-01" nType="0">
          <Node pos="l" depth="2" NCoef="0" IVar="7" Cut="7.5723659992218018e-01" cType="1" res="-2.2672018967568874e-03" rms="1.8345087766647339e-01" purity="4.9372458457946777e-01" nType="0">
            <Node pos="l" depth="3" NCoef="0" IVar="-1" Cut="0.0000000000000000e+00" cType="1" res="-1.4930384932085872e-03" rms="1.8013808131217957e-01" purity="5.3693360090255737e-01" nType="-99"/>
            <Node pos="r" depth="3" NCoef="0" IVar="-1" Cut="0.0000000000000000e+00" cType="1" res="-2.6463413611054420e-02" rms="1.9739924371242523e-01" purity="3.0038905143737793e-01" nType="-99"/>
          </Node>
          <Node pos="r" depth="2" NCoef="0" IVar="-1" Cut="0.0000000000000000e+00" cType="1" res="-3.3260323107242584e-02" rms="2.3857873678207397e-01" purity="2.9165881872177124e-01" nType="-99"/>
        </Node>
        <Node pos="r" depth="1" NCoef="0" IVar="9" Cut="1.7332328557968140e+00" cType="1" res="3.2111078035086393e-03" rms="1.9401440024375916e-01" purity="5.1213008165359497e-01" nType="0">
          <Node pos="l" depth="2" NCoef="0" IVar="9" Cut="-1.7205433845520020e+00" cType="1" res="2.1556157153099775e-03" rms="1.9060890376567841e-01" purity="5.2771317958831787e-01" nType="0">
            <Node pos="l" depth="3" NCoef="0" IVar="-1" Cut="0.0000000000000000e+00" cType="1" res="-2.0267846062779427e-02" rms="2.4832135438919067e-01" purity="2.7528938651084900e-01" nType="-99"/>
            <Node pos="r" depth="3" NCoef="0" IVar="-1" Cut="0.0000000000000000e+00" cType="1" res="8.5562746971845627e-03" rms="1.8657155334949493e-01" purity="5.4279428720474243e-01" nType="-99"/>
          </Node>
          <Node pos="r" depth="2" NCoef="0" IVar="-1" Cut="0.0000000000000000e+00" cType="1" res="3.8712929934263229e-02" rms="2.4060063064098358e-01" purity="2.6778331398963928e-01" nType="-99"/>
        </Node>
      </Node>
    </BinaryTree>
    <BinaryTree type="DecisionTree" boostWeight="1.0000000000000000e+00" itree="231">
      <Node pos="s" depth="0" NCoef="0" IVar="10" Cut="-2.2666339874267578e+00" cType="1" res="1.0628399904817343e-03" rms="1.8882176280021667e-01" purity="5.0572603940963745e-01" nType="0">
        <Node pos="l" depth="1" NCoef="0" IVar="-1" Cut="0.0000000000000000e+00" cType="1" res="2.7678687125444412e-02" rms="2.7187985181808472e-01" purity="3.4446078538894653e-01" nType="-99"/>
        <Node pos="r" depth="1" NCoef="0" IVar="2" Cut="5.8377888053655624e-02" cType="1" res="6.3898361986503005e-04" rms="1.8608754873275757e-01" purity="5.1001691818237305e-01" nType="0">
          <Node pos="l" depth="2" NCoef="0" IVar="1" Cut="1.9959074707031250e+03" cType="1" res="2.3849792778491974e-03" rms="1.9503439962863922e-01" purity="3.8326367735862732e-01" nType="0">
            <Node pos="l" depth="3" NCoef="0" IVar="-1" Cut="0.0000000000000000e+00" cType="1" res="-2.7608934324234724e-03" rms="1.4360858500003815e-01" purity="2.5575395673513412e-02" nType="-99"/>
            <Node pos="r" depth="3" NCoef="0" IVar="-1" Cut="0.0000000000000000e+00" cType="1" res="1.0105281136929989e-02" rms="2.4406240880489349e-01" purity="8.2593446969985962e-01" nType="-99"/>
          </Node>
          <Node pos="r" depth="2" NCoef="0" IVar="1" Cut="2.1550134277343750e+03" cType="1" res="-2.7447373140603304e-03" rms="1.6734091937541962e-01" purity="7.5566345453262329e-01" nType="0">
            <Node pos="l" depth="3" NCoef="0" IVar="-1" Cut="0.0000000000000000e+00" cType="1" res="-2.5689819827675819e-02" rms="2.4083441495895386e-01" purity="9.8061487078666687e-02" nType="-99"/>
            <Node pos="r" depth="3" NCoef="0" IVar="-1" Cut="0.0000000000000000e+00" cType="1" res="8.3298077806830406e-03" rms="1.3366386294364929e-01" purity="9.7620803117752075e-01" nType="-99"/>
          </Node>
        </Node>
      </Node>
    </BinaryTree>
    <BinaryTree type="DecisionTree" boostWeight="1.0000000000000000e+00" itree="232">
      <Node pos="s" depth="0" NCoef="0" IVar="8" Cut="9.3335390090942383e-01" cType="1" res="2.9266398632898927e-04" rms="1.9204229116439819e-01" purity="4.9676164984703064e-01" nType="0">
        <Node pos="l" depth="1" NCoef="0" IVar="0" Cut="7.0947619628906250e+02" cType="1" res="1.5507315983995795e-03" rms="1.8874953687191010e-01" purity="5.2832800149917603e-01" nType="0">
          <Node pos="l" depth="2" NCoef="0" IVar="4" Cut="3.7844198608398438e+02" cType="1" res="5.7148137129843235e-03" rms="2.0828133821487427e-01" purity="1.8278022110462189e-01" nType="0">
            <Node pos="l" depth="3" NCoef="0" IVar="-1" Cut="0.0000000000000000e+00" cType="1" res="2.0361039787530899e-03" rms="1.7000231146812439e-01" purity="4.2446494102478027e-02" nType="-99"/>
            <Node pos="r" depth="3" NCoef="0" IVar="-1" Cut="0.0000000000000000e+00" cType="1" res="2.3393910378217697e-02" rms="2.7018108963966370e-01" purity="4.7144547104835510e-01" nType="-99"/>
          </Node>
          <Node pos="r" depth="2" NCoef="0" IVar="1" Cut="2.5029020996093750e+03" cType="1" res="-2.6007762644439936e-03" rms="1.6691482067108154e-01" purity="8.7283235788345337e-01" nType="0">
            <Node pos="l" depth="3" NCoef="0" IVar="-1" Cut="0.0000000000000000e+00" cType="1" res="-1.6319498419761658e-02" rms="2.9495239257812500e-01" purity="2.8052636981010437e-01" nType="-99"/>
            <Node pos="r" depth="3" NCoef="0" IVar="-1" Cut="0.0000000000000000e+00" cType="1" res="-3.4528111573308706e-03" rms="1.3248558342456818e-01" purity="9.7580093145370483e-01" nType="-99"/>
          </Node>
        </Node>
        <Node pos="r" depth="1" NCoef="0" IVar="4" Cut="3.1851382446289062e+02" cType="1" res="-5.6440727785229683e-03" rms="2.0677132904529572e-01" purity="3.4780210256576538e-01" nType="0">
          <Node pos="l" depth="2" NCoef="0" IVar="8" Cut="1.5554916858673096e+00" cType="1" res="5.4985838942229748e-03" rms="1.9255287945270538e-01" purity="8.9737176895141602e-02" nType="0">
            <Node pos="l" depth="3" NCoef="0" IVar="-1" Cut="0.0000000000000000e+00" cType="1" res="-2.5995386764407158e-02" rms="1.6353996098041534e-01" purity="7.3214292526245117e-02" nType="-99"/>
            <Node pos="r" depth="3" NCoef="0" IVar="-1" Cut="0.0000000000000000e+00" cType="1" res="5.6569166481494904e-02" rms="2.2112202644348145e-01" purity="1.0946822166442871e-01" nType="-99"/>
          </Node>
          <Node pos="r" depth="2" NCoef="0" IVar="0" Cut="7.0457696533203125e+02" cType="1" res="-1.5852469950914383e-02" rms="2.1849058568477631e-01" purity="5.8422946929931641e-01" nType="0">
            <Node pos="l" depth="3" NCoef="0" IVar="-1" Cut="0.0000000000000000e+00" cType="1" res="-4.7634217888116837e-02" rms="2.4704647064208984e-01" purity="2.2508335113525391e-01" nType="-99"/>
            <Node pos="r" depth="3" NCoef="0" IVar="-1" Cut="0.0000000000000000e+00" cType="1" res="-1.0611413046717644e-02" rms="1.8619729578495026e-01" purity="9.2847889661788940e-01" nType="-99"/>
          </Node>
        </Node>
      </Node>
    </BinaryTree>
    <BinaryTree type="DecisionTree" boostWeight="1.0000000000000000e+00" itree="233">
      <Node pos="s" depth="0" NCoef="0" IVar="8" Cut="-1.2000312805175781e+00" cType="1" res="-5.1401795644778758e-05" rms="1.8794427812099457e-01" purity="4.9935951828956604e-01" nType="0">
        <Node pos="l" depth="1" NCoef="0" IVar="0" Cut="6.3011004638671875e+02" cType="1" res="-6.3894502818584442e-03" rms="2.0017987489700317e-01" purity="2.8505161404609680e-01" nType="0">
          <Node pos="l" depth="2" NCoef="0" IVar="1" Cut="1.5814395751953125e+03" cType="1" res="-1.4220747165381908e-02" rms="1.6323235630989075e-01" purity="6.1745490878820419e-02" nType="0">
            <Node pos="l" depth="3" NCoef="0" IVar="-1" Cut="0.0000000000000000e+00" cType="1" res="-4.3722756206989288e-02" rms="7.0259258151054382e-02" purity="5.0229234620928764e-03" nType="-99"/>
            <Node pos="r" depth="3" NCoef="0" IVar="-1" Cut="0.0000000000000000e+00" cType="1" res="-4.5634128153324127e-02" rms="2.3061770200729370e-01" purity="1.3189637660980225e-01" nType="-99"/>
          </Node>
          <Node pos="r" depth="2" NCoef="0" IVar="-1" Cut="0.0000000000000000e+00" cType="1" res="9.9921450018882751e-03" rms="2.4492986500263214e-01" purity="6.2014389038085938e-01" nType="-99"/>
        </Node>
        <Node pos="r" depth="1" NCoef="0" IVar="9" Cut="1.9999434947967529e+00" cType="1" res="7.4968941044062376e-04" rms="1.8632523715496063e-01" purity="5.2644675970077515e-01" nType="0">
          <Node pos="l" depth="2" NCoef="0" IVar="8" Cut="1.6569107770919800e+00" cType="1" res="2.4070276413112879e-04" rms="1.8348741531372070e-01" purity="5.3561502695083618e-01" nType="0">
            <Node pos="l" depth="3" NCoef="0" IVar="-1" Cut="0.0000000000000000e+00" cType="1" res="2.5892702396959066e-03" rms="1.8230596184730530e-01" purity="5.5448698997497559e-01" nType="-99"/>
            <Node pos="r" depth="3" NCoef="0" IVar="-1" Cut="0.0000000000000000e+00" cType="1" res="-2.6129173114895821e-02" rms="2.0433384180068970e-01" purity="1.7600399255752563e-01" nType="-99"/>
          </Node>
          <Node pos="r" depth="2" NCoef="0" IVar="-1" Cut="0.0000000000000000e+00" cType="1" res="2.8834169730544090e-02" rms="2.5816407799720764e-01" purity="2.4528814852237701e-01" nType="-99"/>
        </Node>
      </Node>
    </BinaryTree>
    <BinaryTree type="DecisionTree" boostWeight="1.0000000000000000e+00" itree="234">
      <Node pos="s" depth="0" NCoef="0" IVar="1" Cut="2.2288701171875000e+03" cType="1" res="2.2441702894866467e-03" rms="1.9345130026340485e-01" purity="4.9831074476242065e-01" nType="0">
        <Node pos="l" depth="1" NCoef="0" IVar="4" Cut="4.7043350219726562e+02" cType="1" res="5.0913551822304726e-03" rms="2.0375807583332062e-01" purity="6.6154018044471741e-02" nType="0">
          <Node pos="l" depth="2" NCoef="0" IVar="1" Cut="2.0315177001953125e+03" cType="1" res="3.4497359301894903e-03" rms="1.9490449130535126e-01" purity="5.9192497283220291e-02" nType="0">
            <Node pos="l" depth="3" NCoef="0" IVar="-1" Cut="0.0000000000000000e+00" cType="1" res="1.8084855750203133e-02" rms="1.7382931709289551e-01" purity="4.0561925619840622e-02" nType="-99"/>
            <Node pos="r" depth="3" NCoef="0" IVar="-1" Cut="0.0000000000000000e+00" cType="1" res="-1.2005087919533253e-02" rms="3.9219850301742554e-01" purity="3.3807951211929321e-01" nType="-99"/>
          </Node>
          <Node pos="r" depth="2" NCoef="0" IVar="-1" Cut="0.0000000000000000e+00" cType="1" res="4.2193863540887833e-02" rms="3.1926387548446655e-01" purity="1.8700046837329865e-01" nType="-99"/>
        </Node>
        <Node pos="r" depth="1" NCoef="0" IVar="7" Cut="-7.6584881544113159e-01" cType="1" res="-6.6156627144664526e-04" rms="1.8228699266910553e-01" purity="9.3935477733612061e-01" nType="0">
          <Node pos="l" depth="2" NCoef="0" IVar="9" Cut="-1.3274812698364258e-01" cType="1" res="-1.0338647291064262e-02" rms="2.1925523877143860e-01" purity="8.9227288961410522e-01" nType="0">
            <Node pos="l" depth="3" NCoef="0" IVar="-1" Cut="0.0000000000000000e+00" cType="1" res="-3.5959929227828979e-02" rms="2.2146409749984741e-01" purity="8.8608616590499878e-01" nType="-99"/>
            <Node pos="r" depth="3" NCoef="0" IVar="-1" Cut="0.0000000000000000e+00" cType="1" res="-9.1433161869645119e-03" rms="2.1699501574039459e-01" purity="8.9807844161987305e-01" nType="-99"/>
          </Node>
          <Node pos="r" depth="2" NCoef="0" IVar="3" Cut="1.2835123291015625e+03" cType="1" res="4.6988672693260014e-04" rms="1.7742803692817688e-01" purity="9.4485962390899658e-01" nType="0">
            <Node pos="l" depth="3" NCoef="0" IVar="-1" Cut="0.0000000000000000e+00" cType="1" res="4.2119589634239674e-03" rms="1.8120817840099335e-01" purity="9.4167757034301758e-01" nType="-99"/>
            <Node pos="r" depth="3" NCoef="0" IVar="-1" Cut="0.0000000000000000e+00" cType="1" res="-4.0001541376113892e-02" rms="1.4364506304264069e-01" purity="9.7017842531204224e-01" nType="-99"/>
          </Node>
        </Node>
      </Node>
    </BinaryTree>
    <BinaryTree type="DecisionTree" boostWeight="1.0000000000000000e+00" itree="235">
      <Node pos="s" depth="0" NCoef="0" IVar="4" Cut="4.3214328002929688e+02" cType="1" res="4.5781969674862921e-04" rms="1.8965207040309906e-01" purity="4.9912545084953308e-01" nType="0">
        <Node pos="l" depth="1" NCoef="0" IVar="2" Cut="5.8150082826614380e-02" cType="1" res="2.7130020316690207e-03" rms="2.0509965717792511e-01" purity="1.9152677059173584e-01" nType="0">
          <Node pos="l" depth="2" NCoef="0" IVar="6" Cut="1.7273954772949219e+02" cType="1" res="4.6862182207405567e-03" rms="1.9598680734634399e-01" purity="1.4545390009880066e-01" nType="0">
            <Node pos="l" depth="3" NCoef="0" IVar="-1" Cut="0.0000000000000000e+00" cType="1" res="2.1951900795102119e-02" rms="1.8876101076602936e-01" purity="1.0061623156070709e-01" nType="-99"/>
            <Node pos="r" depth="3" NCoef="0" IVar="-1" Cut="0.0000000000000000e+00" cType="1" res="-2.4359755218029022e-02" rms="2.4843801558017731e-01" purity="5.3027021884918213e-01" nType="-99"/>
          </Node>
          <Node pos="r" depth="2" NCoef="0" IVar="6" Cut="1.5618284606933594e+02" cType="1" res="-4.2541609145700932e-03" rms="2.3432673513889313e-01" purity="3.5420396924018860e-01" nType="0">
            <Node pos="l" depth="3" NCoef="0" IVar="-1" Cut="0.0000000000000000e+00" cType="1" res="-2.8282888233661652e-02" rms="2.1086044609546661e-01" purity="1.3821138441562653e-01" nType="-99"/>
            <Node pos="r" depth="3" NCoef="0" IVar="-1" Cut="0.0000000000000000e+00" cType="1" res="1.3211753219366074e-02" rms="2.6313832402229309e-01" purity="6.5638673305511475e-01" nType="-99"/>
          </Node>
        </Node>
        <Node pos="r" depth="1" NCoef="0" IVar="6" Cut="8.7462944030761719e+01" cType="1" res="-2.3347351234406233e-03" rms="1.6853132843971252e-01" purity="8.8001978397369385e-01" nType="0">
          <Node pos="l" depth="2" NCoef="0" IVar="10" Cut="-1.3189394772052765e-01" cType="1" res="-1.4406318776309490e-02" rms="2.4239888787269592e-01" purity="4.9229380488395691e-01" nType="0">
            <Node pos="l" depth="3" NCoef="0" IVar="-1" Cut="0.0000000000000000e+00" cType="1" res="-3.0433224310399964e-05" rms="2.4542763829231262e-01" purity="5.1442772150039673e-01" nType="-99"/>
            <Node pos="r" depth="3" NCoef="0" IVar="-1" Cut="0.0000000000000000e+00" cType="1" res="-4.8553559929132462e-02" rms="2.3895864188671112e-01" purity="4.7267204523086548e-01" nType="-99"/>
          </Node>
          <Node pos="r" depth="2" NCoef="0" IVar="2" Cut="6.1893131583929062e-02" cType="1" res="-5.0866202218458056e-04" rms="1.5422615408897400e-01" purity="9.3867123126983643e-01" nType="0">
            <Node pos="l" depth="3" NCoef="0" IVar="-1" Cut="0.0000000000000000e+00" cType="1" res="-1.1698140762746334e-02" rms="1.8656769394874573e-01" purity="8.9455509185791016e-01" nType="-99"/>
            <Node pos="r" depth="3" NCoef="0" IVar="-1" Cut="0.0000000000000000e+00" cType="1" res="2.0096251741051674e-02" rms="1.1689194291830063e-01" purity="9.7909766435623169e-01" nType="-99"/>
          </Node>
        </Node>
      </Node>
    </BinaryTree>
    <BinaryTree type="DecisionTree" boostWeight="1.0000000000000000e+00" itree="236">
      <Node pos="s" depth="0" NCoef="0" IVar="7" Cut="1.2031041383743286e+00" cType="1" res="2.7321649249643087e-03" rms="1.9477850198745728e-01" purity="4.9968001246452332e-01" nType="0">
        <Node pos="l" depth="1" NCoef="0" IVar="8" Cut="-1.4664921760559082e+00" cType="1" res="1.7162159783765674e-03" rms="1.9077406823635101e-01" purity="5.2508068084716797e-01" nType="0">
          <Node pos="l" depth="2" NCoef="0" IVar="4" Cut="3.1677462768554688e+02" cType="1" res="1.3728299178183079e-02" rms="2.3543107509613037e-01" purity="2.6945167779922485e-01" nType="0">
            <Node pos="l" depth="3" NCoef="0" IVar="-1" Cut="0.0000000000000000e+00" cType="1" res="6.5262168645858765e-02" rms="2.2406418621540070e-01" purity="1.2781010568141937e-01" nType="-99"/>
            <Node pos="r" depth="3" NCoef="0" IVar="-1" Cut="0.0000000000000000e+00" cType="1" res="-1.5318164369091392e-03" rms="2.4962526559829712e-01" purity="4.6611803770065308e-01" nType="-99"/>
          </Node>
          <Node pos="r" depth="2" NCoef="0" IVar="9" Cut="1.7332123517990112e+00" cType="1" res="8.2814710913226008e-04" rms="1.8701910972595215e-01" purity="5.4397964477539062e-01" nType="0">
            <Node pos="l" depth="3" NCoef="0" IVar="-1" Cut="0.0000000000000000e+00" cType="1" res="5.6214961223304272e-03" rms="1.8579682707786560e-01" purity="5.5869656801223755e-01" nType="-99"/>
            <Node pos="r" depth="3" NCoef="0" IVar="-1" Cut="0.0000000000000000e+00" cType="1" res="-3.4799419343471527e-02" rms="2.0556481182575226e-01" purity="2.9732164740562439e-01" nType="-99"/>
          </Node>
        </Node>
        <Node pos="r" depth="1" NCoef="0" IVar="0" Cut="5.9138183593750000e+02" cType="1" res="1.4722892083227634e-02" rms="2.3665340244770050e-01" purity="1.9988851249217987e-01" nType="0">
          <Node pos="l" depth="2" NCoef="0" IVar="-1" Cut="0.0000000000000000e+00" cType="1" res="1.4346402138471603e-02" rms="1.9615750014781952e-01" purity="5.7187587022781372e-02" nType="-99"/>
          <Node pos="r" depth="2" NCoef="0" IVar="-1" Cut="0.0000000000000000e+00" cType="1" res="5.4162148386240005e-02" rms="2.9421380162239075e-01" purity="4.5285966992378235e-01" nType="-99"/>
        </Node>
      </Node>
    </BinaryTree>
    <BinaryTree type="DecisionTree" boostWeight="1.0000000000000000e+00" itree="237">
      <Node pos="s" depth="0" NCoef="0" IVar="10" Cut="-1.9999672174453735e+00" cType="1" res="1.5402645803987980e-03" rms="1.9163659214973450e-01" purity="5.0089573860168457e-01" nType="0">
        <Node pos="l" depth="1" NCoef="0" IVar="8" Cut="-1.3849698007106781e-01" cType="1" res="1.8392154946923256e-02" rms="2.5374618172645569e-01" purity="3.9416593313217163e-01" nType="0">
          <Node pos="l" depth="2" NCoef="0" IVar="-1" Cut="0.0000000000000000e+00" cType="1" res="6.6943019628524780e-02" rms="2.7132830023765564e-01" purity="3.7350806593894958e-01" nType="-99"/>
          <Node pos="r" depth="2" NCoef="0" IVar="-1" Cut="0.0000000000000000e+00" cType="1" res="-4.1341953910887241e-03" rms="2.3302403092384338e-01" purity="4.1482105851173401e-01" nType="-99"/>
        </Node>
        <Node pos="r" depth="1" NCoef="0" IVar="9" Cut="-1.7332864999771118e+00" cType="1" res="6.3240778399631381e-04" rms="1.8766513466835022e-01" purity="5.0664561986923218e-01" nType="0">
          <Node pos="l" depth="2" NCoef="0" IVar="7" Cut="-5.9904372319579124e-03" cType="1" res="1.3852652162313461e-02" rms="2.4270440638065338e-01" purity="2.9783475399017334e-01" nType="0">
            <Node pos="l" depth="3" NCoef="0" IVar="-1" Cut="0.0000000000000000e+00" cType="1" res="4.4251340441405773e-03" rms="2.2005183994770050e-01" purity="2.8460866212844849e-01" nType="-99"/>
            <Node pos="r" depth="3" NCoef="0" IVar="-1" Cut="0.0000000000000000e+00" cType="1" res="4.6577181667089462e-02" rms="2.6085168123245239e-01" purity="3.0967035889625549e-01" nType="-99"/>
          </Node>
          <Node pos="r" depth="2" NCoef="0" IVar="8" Cut="9.3317097425460815e-01" cType="1" res="-1.4541982091031969e-04" rms="1.8388488888740540e-01" purity="5.1893115043640137e-01" nType="0">
            <Node pos="l" depth="3" NCoef="0" IVar="-1" Cut="0.0000000000000000e+00" cType="1" res="-4.4639445841312408e-03" rms="1.7443077266216278e-01" purity="5.4919040203094482e-01" nType="-99"/>
            <Node pos="r" depth="3" NCoef="0" IVar="-1" Cut="0.0000000000000000e+00" cType="1" res="1.4349485747516155e-02" rms="2.2440689802169800e-01" purity="3.7070861458778381e-01" nType="-99"/>
          </Node>
        </Node>
      </Node>
    </BinaryTree>
    <BinaryTree type="DecisionTree" boostWeight="1.0000000000000000e+00" itree="238">
      <Node pos="s" depth="0" NCoef="0" IVar="10" Cut="1.2000654935836792e+00" cType="1" res="-9.7261066548526287e-04" rms="1.8879429996013641e-01" purity="4.9784871935844421e-01" nType="0">
        <Node pos="l" depth="1" NCoef="0" IVar="7" Cut="1.2224104404449463e+00" cType="1" res="-2.0261760801076889e-03" rms="1.8306183815002441e-01" purity="5.0475084781646729e-01" nType="0">
          <Node pos="l" depth="2" NCoef="0" IVar="0" Cut="4.3884991455078125e+02" cType="1" res="-1.1848880676552653e-03" rms="1.8285451829433441e-01" purity="5.2914291620254517e-01" nType="0">
            <Node pos="l" depth="3" NCoef="0" IVar="-1" Cut="0.0000000000000000e+00" cType="1" res="2.0146192982792854e-02" rms="1.4340284466743469e-01" purity="2.8747931122779846e-02" nType="-99"/>
            <Node pos="r" depth="3" NCoef="0" IVar="-1" Cut="0.0000000000000000e+00" cType="1" res="-6.4313407056033611e-03" rms="1.9102330505847931e-01" purity="6.4817041158676147e-01" nType="-99"/>
          </Node>
          <Node pos="r" depth="2" NCoef="0" IVar="0" Cut="4.9425521850585938e+02" cType="1" res="-1.2856254354119301e-02" rms="1.8536944687366486e-01" purity="1.9074718654155731e-01" nType="0">
            <Node pos="l" depth="3" NCoef="0" IVar="-1" Cut="0.0000000000000000e+00" cType="1" res="-1.8570049433037639e-03" rms="1.5955428779125214e-01" purity="3.0789870768785477e-02" nType="-99"/>
            <Node pos="r" depth="3" NCoef="0" IVar="-1" Cut="0.0000000000000000e+00" cType="1" res="-5.0187114626169205e-02" rms="2.0700241625308990e-01" purity="3.4863555431365967e-01" nType="-99"/>
          </Node>
        </Node>
        <Node pos="r" depth="1" NCoef="0" IVar="1" Cut="2.5023857421875000e+03" cType="1" res="4.0623708628118038e-03" rms="2.1400882303714752e-01" purity="4.6486341953277588e-01" nType="0">
          <Node pos="l" depth="2" NCoef="0" IVar="1" Cut="1.9249167480468750e+03" cType="1" res="1.0008538141846657e-02" rms="2.3913691937923431e-01" purity="1.6536070406436920e-01" nType="0">
            <Node pos="l" depth="3" NCoef="0" IVar="-1" Cut="0.0000000000000000e+00" cType="1" res="-1.6331773251295090e-02" rms="1.6666848957538605e-01" purity="3.2894149422645569e-02" nType="-99"/>
            <Node pos="r" depth="3" NCoef="0" IVar="-1" Cut="0.0000000000000000e+00" cType="1" res="3.8227304816246033e-02" rms="3.8256931304931641e-01" purity="5.8013695478439331e-01" nType="-99"/>
          </Node>
          <Node pos="r" depth="2" NCoef="0" IVar="-1" Cut="0.0000000000000000e+00" cType="1" res="-2.5087906047701836e-02" rms="1.6353589296340942e-01" purity="9.6197974681854248e-01" nType="-99"/>
        </Node>
      </Node>
    </BinaryTree>
    <BinaryTree type="DecisionTree" boostWeight="1.0000000000000000e+00" itree="239">
      <Node pos="s" depth="0" NCoef="0" IVar="10" Cut="-1.9999470710754395e+00" cType="1" res="-2.3493247572332621e-03" rms="1.8559803068637848e-01" purity="5.0005137920379639e-01" nType="0">
        <Node pos="l" depth="1" NCoef="0" IVar="-1" Cut="0.0000000000000000e+00" cType="1" res="-3.0962688848376274e-02" rms="2.2823527455329895e-01" purity="3.4596112370491028e-01" nType="-99"/>
        <Node pos="r" depth="1" NCoef="0" IVar="8" Cut="-3.9944770932197571e-01" cType="1" res="-1.6368272481486201e-03" rms="1.8319116532802582e-01" purity="5.0770932435989380e-01" nType="0">
          <Node pos="l" depth="2" NCoef="0" IVar="9" Cut="1.1999266147613525e+00" cType="1" res="2.0276932045817375e-03" rms="1.9666993618011475e-01" purity="4.6627077460289001e-01" nType="0">
            <Node pos="l" depth="3" NCoef="0" IVar="-1" Cut="0.0000000000000000e+00" cType="1" res="1.1720245704054832e-02" rms="1.9387821853160858e-01" purity="4.8464927077293396e-01" nType="-99"/>
            <Node pos="r" depth="3" NCoef="0" IVar="-1" Cut="0.0000000000000000e+00" cType="1" res="-2.5196308270096779e-02" rms="2.1329063177108765e-01" purity="3.4797453880310059e-01" nType="-99"/>
          </Node>
          <Node pos="r" depth="2" NCoef="0" IVar="3" Cut="6.4813964843750000e+02" cType="1" res="-3.5643083974719048e-03" rms="1.7565636336803436e-01" purity="5.2950537204742432e-01" nType="0">
            <Node pos="l" depth="3" NCoef="0" IVar="-1" Cut="0.0000000000000000e+00" cType="1" res="-2.2527037188410759e-02" rms="1.8238712847232819e-01" purity="1.8987040221691132e-01" nType="-99"/>
            <Node pos="r" depth="3" NCoef="0" IVar="-1" Cut="0.0000000000000000e+00" cType="1" res="9.3803176423534751e-04" rms="1.7022691667079926e-01" purity="7.8935945034027100e-01" nType="-99"/>
          </Node>
        </Node>
      </Node>
    </BinaryTree>
    <BinaryTree type="DecisionTree" boostWeight="1.0000000000000000e+00" itree="240">
      <Node pos="s" depth="0" NCoef="0" IVar="9" Cut="-1.9999415874481201e+00" cType="1" res="-3.6010617623105645e-04" rms="1.9174726307392120e-01" purity="4.9908307194709778e-01" nType="0">
        <Node pos="l" depth="1" NCoef="0" IVar="-1" Cut="0.0000000000000000e+00" cType="1" res="-4.6375084668397903e-02" rms="2.0769742131233215e-01" purity="1.9234693050384521e-01" nType="-99"/>
        <Node pos="r" depth="1" NCoef="0" IVar="4" Cut="3.2550106811523438e+02" cType="1" res="2.6910877204500139e-04" rms="1.9119341671466827e-01" purity="5.0866454839706421e-01" nType="0">
          <Node pos="l" depth="2" NCoef="0" IVar="5" Cut="2.0699301147460938e+02" cType="1" res="-4.7240760177373886e-03" rms="1.6876289248466492e-01" purity="8.3104938268661499e-02" nType="0">
            <Node pos="l" depth="3" NCoef="0" IVar="-1" Cut="0.0000000000000000e+00" cType="1" res="-5.3776223212480545e-03" rms="1.4565090835094452e-01" purity="4.4236406683921814e-02" nType="-99"/>
            <Node pos="r" depth="3" NCoef="0" IVar="-1" Cut="0.0000000000000000e+00" cType="1" res="-2.9380688443779945e-02" rms="2.3541201651096344e-01" purity="2.2835132479667664e-01" nType="-99"/>
          </Node>
          <Node pos="r" depth="2" NCoef="0" IVar="1" Cut="2.2938757324218750e+03" cType="1" res="2.9758543241769075e-03" rms="2.0226444303989410e-01" purity="7.3935532569885254e-01" nType="0">
            <Node pos="l" depth="3" NCoef="0" IVar="-1" Cut="0.0000000000000000e+00" cType="1" res="2.2814458236098289e-02" rms="2.7965658903121948e-01" purity="1.5557801723480225e-01" nType="-99"/>
            <Node pos="r" depth="3" NCoef="0" IVar="-1" Cut="0.0000000000000000e+00" cType="1" res="-7.2484849952161312e-03" rms="1.6369733214378357e-01" purity="9.5892959833145142e-01" nType="-99"/>
          </Node>
        </Node>
      </Node>
    </BinaryTree>
    <BinaryTree type="DecisionTree" boostWeight="1.0000000000000000e+00" itree="241">
      <Node pos="s" depth="0" NCoef="0" IVar="7" Cut="-8.5896515846252441e-01" cType="1" res="1.0233577340841293e-03" rms="1.9248336553573608e-01" purity="4.9908575415611267e-01" nType="0">
        <Node pos="l" depth="1" NCoef="0" IVar="1" Cut="1.8170394287109375e+03" cType="1" res="-8.5994293913245201e-03" rms="1.8943804502487183e-01" purity="2.6397866010665894e-01" nType="0">
          <Node pos="l" depth="2" NCoef="0" IVar="2" Cut="1.7438186332583427e-02" cType="1" res="1.5197159955278039e-03" rms="1.2162292748689651e-01" purity="1.6404520720243454e-02" nType="0">
            <Node pos="l" depth="3" NCoef="0" IVar="-1" Cut="0.0000000000000000e+00" cType="1" res="-5.9520311653614044e-02" rms="6.4029790461063385e-02" purity="4.1137747466564178e-03" nType="-99"/>
            <Node pos="r" depth="3" NCoef="0" IVar="-1" Cut="0.0000000000000000e+00" cType="1" res="5.7998612523078918e-02" rms="1.7692722380161285e-01" purity="3.5596616566181183e-02" nType="-99"/>
          </Node>
          <Node pos="r" depth="2" NCoef="0" IVar="10" Cut="-1.3288223743438721e-01" cType="1" res="-2.4093173444271088e-02" rms="2.6036244630813599e-01" purity="6.4304721355438232e-01" nType="0">
            <Node pos="l" depth="3" NCoef="0" IVar="-1" Cut="0.0000000000000000e+00" cType="1" res="-6.2577851116657257e-02" rms="2.4769225716590881e-01" purity="6.0552191734313965e-01" nType="-99"/>
            <Node pos="r" depth="3" NCoef="0" IVar="-1" Cut="0.0000000000000000e+00" cType="1" res="-1.3551921583712101e-02" rms="2.7041101455688477e-01" purity="6.7684906721115112e-01" nType="-99"/>
          </Node>
        </Node>
        <Node pos="r" depth="1" NCoef="0" IVar="8" Cut="-1.7331894636154175e+00" cType="1" res="2.6969772297888994e-03" rms="1.9295912981033325e-01" purity="5.3997617959976196e-01" nType="0">
          <Node pos="l" depth="2" NCoef="0" IVar="-1" Cut="0.0000000000000000e+00" cType="1" res="4.2841710150241852e-02" rms="2.2942113876342773e-01" purity="2.0582154393196106e-01" nType="-99"/>
          <Node pos="r" depth="2" NCoef="0" IVar="3" Cut="6.1948785400390625e+02" cType="1" res="1.9509874982759356e-03" rms="1.9113101065158844e-01" purity="5.5492913722991943e-01" nType="0">
            <Node pos="l" depth="3" NCoef="0" IVar="-1" Cut="0.0000000000000000e+00" cType="1" res="1.4703967608511448e-02" rms="2.1236947178840637e-01" purity="2.1086964011192322e-01" nType="-99"/>
            <Node pos="r" depth="3" NCoef="0" IVar="-1" Cut="0.0000000000000000e+00" cType="1" res="-2.4005658924579620e-03" rms="1.7690838873386383e-01" purity="7.6430469751358032e-01" nType="-99"/>
          </Node>
        </Node>
      </Node>
    </BinaryTree>
    <BinaryTree type="DecisionTree" boostWeight="1.0000000000000000e+00" itree="242">
      <Node pos="s" depth="0" NCoef="0" IVar="9" Cut="1.7332328557968140e+00" cType="1" res="2.1004356676712632e-04" rms="1.8931673467159271e-01" purity="5.0307118892669678e-01" nType="0">
        <Node pos="l" depth="1" NCoef="0" IVar="8" Cut="1.4666588306427002e+00" cType="1" res="-6.8657146766781807e-04" rms="1.8462724983692169e-01" purity="5.1609981060028076e-01" nType="0">
          <Node pos="l" depth="2" NCoef="0" IVar="9" Cut="-6.4125800132751465e-01" cType="1" res="-8.6492589616682380e-05" rms="1.8307441473007202e-01" purity="5.3624331951141357e-01" nType="0">
            <Node pos="l" depth="3" NCoef="0" IVar="-1" Cut="0.0000000000000000e+00" cType="1" res="9.4896061345934868e-03" rms="1.9751898944377899e-01" purity="4.7738271951675415e-01" nType="-99"/>
            <Node pos="r" depth="3" NCoef="0" IVar="-1" Cut="0.0000000000000000e+00" cType="1" res="-5.3449370898306370e-03" rms="1.7631059885025024e-01" purity="5.6217563152313232e-01" nType="-99"/>
          </Node>
          <Node pos="r" depth="2" NCoef="0" IVar="4" Cut="3.0632339477539062e+02" cType="1" res="-9.2073781415820122e-03" rms="2.0522443950176239e-01" purity="2.3007187247276306e-01" nType="0">
            <Node pos="l" depth="3" NCoef="0" IVar="-1" Cut="0.0000000000000000e+00" cType="1" res="5.8600283227860928e-03" rms="1.8838678300380707e-01" purity="8.8053435087203979e-02" nType="-99"/>
            <Node pos="r" depth="3" NCoef="0" IVar="-1" Cut="0.0000000000000000e+00" cType="1" res="-4.3893720954656601e-02" rms="2.2415979206562042e-01" purity="4.1250571608543396e-01" nType="-99"/>
          </Node>
        </Node>
        <Node pos="r" depth="1" NCoef="0" IVar="1" Cut="1.7940261230468750e+03" cType="1" res="1.4483329840004444e-02" rms="2.5207161903381348e-01" purity="2.9566842317581177e-01" nType="0">
          <Node pos="l" depth="2" NCoef="0" IVar="-1" Cut="0.0000000000000000e+00" cType="1" res="3.1510680913925171e-02" rms="1.7208535969257355e-01" purity="3.2745294272899628e-02" nType="-99"/>
          <Node pos="r" depth="2" NCoef="0" IVar="-1" Cut="0.0000000000000000e+00" cType="1" res="2.5909710675477982e-02" rms="3.3043482899665833e-01" purity="6.5075850486755371e-01" nType="-99"/>
        </Node>
      </Node>
    </BinaryTree>
    <BinaryTree type="DecisionTree" boostWeight="1.0000000000000000e+00" itree="243">
      <Node pos="s" depth="0" NCoef="0" IVar="2" Cut="8.3585202693939209e-02" cType="1" res="1.3110492145642638e-03" rms="1.8732452392578125e-01" purity="5.0395935773849487e-01" nType="0">
        <Node pos="l" depth="1" NCoef="0" IVar="3" Cut="6.3732116699218750e+02" cType="1" res="4.2277224565623328e-05" rms="1.9334714114665985e-01" purity="4.1150036454200745e-01" nType="0">
          <Node pos="l" depth="2" NCoef="0" IVar="2" Cut="6.3676543533802032e-02" cType="1" res="-2.8095208108425140e-03" rms="1.8797320127487183e-01" purity="1.3062188029289246e-01" nType="0">
            <Node pos="l" depth="3" NCoef="0" IVar="-1" Cut="0.0000000000000000e+00" cType="1" res="-3.1595504842698574e-03" rms="1.8419921398162842e-01" purity="1.1784272640943527e-01" nType="-99"/>
            <Node pos="r" depth="3" NCoef="0" IVar="-1" Cut="0.0000000000000000e+00" cType="1" res="-4.2551171034574509e-02" rms="2.2292187809944153e-01" purity="2.6448526978492737e-01" nType="-99"/>
          </Node>
          <Node pos="r" depth="2" NCoef="0" IVar="10" Cut="1.4663881063461304e+00" cType="1" res="2.7249730192124844e-03" rms="1.9823206961154938e-01" purity="6.7572367191314697e-01" nType="0">
            <Node pos="l" depth="3" NCoef="0" IVar="-1" Cut="0.0000000000000000e+00" cType="1" res="2.4816463701426983e-03" rms="1.9324141740798950e-01" purity="6.8289071321487427e-01" nType="-99"/>
            <Node pos="r" depth="3" NCoef="0" IVar="-1" Cut="0.0000000000000000e+00" cType="1" res="3.1069150194525719e-02" rms="2.3637580871582031e-01" purity="6.1397433280944824e-01" nType="-99"/>
          </Node>
        </Node>
        <Node pos="r" depth="1" NCoef="0" IVar="1" Cut="1.9248350830078125e+03" cType="1" res="5.2861575968563557e-03" rms="1.6699315607547760e-01" purity="7.9363673925399780e-01" nType="0">
          <Node pos="l" depth="2" NCoef="0" IVar="-1" Cut="0.0000000000000000e+00" cType="1" res="5.0079822540283203e-02" rms="2.3004491627216339e-01" purity="7.8544452786445618e-02" nType="-99"/>
          <Node pos="r" depth="2" NCoef="0" IVar="10" Cut="1.3390973210334778e-01" cType="1" res="1.6210795147344470e-03" rms="1.4844076335430145e-01" purity="9.5875453948974609e-01" nType="0">
            <Node pos="l" depth="3" NCoef="0" IVar="-1" Cut="0.0000000000000000e+00" cType="1" res="-4.9467380158603191e-03" rms="1.4468315243721008e-01" purity="9.5633029937744141e-01" nType="-99"/>
            <Node pos="r" depth="3" NCoef="0" IVar="-1" Cut="0.0000000000000000e+00" cType="1" res="1.8637306988239288e-02" rms="1.5263521671295166e-01" purity="9.6157699823379517e-01" nType="-99"/>
          </Node>
        </Node>
      </Node>
    </BinaryTree>
    <BinaryTree type="DecisionTree" boostWeight="1.0000000000000000e+00" itree="244">
      <Node pos="s" depth="0" NCoef="0" IVar="0" Cut="4.4712631225585938e+02" cType="1" res="1.8100149463862181e-03" rms="1.9096578657627106e-01" purity="5.0167089700698853e-01" nType="0">
        <Node pos="l" depth="1" NCoef="0" IVar="0" Cut="4.2609970092773438e+02" cType="1" res="-3.3268330153077841e-03" rms="1.3849225640296936e-01" purity="2.7367649599909782e-02" nType="0">
          <Node pos="l" depth="2" NCoef="0" IVar="5" Cut="1.7304978942871094e+02" cType="1" res="-5.5096973665058613e-03" rms="1.2317788600921631e-01" purity="1.8835930153727531e-02" nType="0">
            <Node pos="l" depth="3" NCoef="0" IVar="-1" Cut="0.0000000000000000e+00" cType="1" res="-4.1213929653167725e-03" rms="8.6236588656902313e-02" purity="7.6721464283764362e-03" nType="-99"/>
            <Node pos="r" depth="3" NCoef="0" IVar="-1" Cut="0.0000000000000000e+00" cType="1" res="-3.3211566507816315e-02" rms="1.5064600110054016e-01" purity="2.9765395447611809e-02" nType="-99"/>
          </Node>
          <Node pos="r" depth="2" NCoef="0" IVar="-1" Cut="0.0000000000000000e+00" cType="1" res="2.2935042157769203e-02" rms="2.0808133482933044e-01" purity="7.9150520265102386e-02" nType="-99"/>
        </Node>
        <Node pos="r" depth="1" NCoef="0" IVar="5" Cut="2.6694738769531250e+02" cType="1" res="3.2608201727271080e-03" rms="2.0332485437393188e-01" purity="6.3562881946563721e-01" nType="0">
          <Node pos="l" depth="2" NCoef="0" IVar="5" Cut="1.3268894958496094e+02" cType="1" res="7.3331338353455067e-03" rms="2.4337156116962433e-01" purity="2.9873102903366089e-01" nType="0">
            <Node pos="l" depth="3" NCoef="0" IVar="-1" Cut="0.0000000000000000e+00" cType="1" res="-1.0165851563215256e-02" rms="1.5529069304466248e-01" purity="6.5328106284141541e-02" nType="-99"/>
            <Node pos="r" depth="3" NCoef="0" IVar="-1" Cut="0.0000000000000000e+00" cType="1" res="1.8754290416836739e-02" rms="2.8462165594100952e-01" purity="4.4418019056320190e-01" nType="-99"/>
          </Node>
          <Node pos="r" depth="2" NCoef="0" IVar="0" Cut="7.2736340332031250e+02" cType="1" res="-5.5001821601763368e-04" rms="1.5675085783004761e-01" purity="9.5089507102966309e-01" nType="0">
            <Node pos="l" depth="3" NCoef="0" IVar="-1" Cut="0.0000000000000000e+00" cType="1" res="-1.1665293015539646e-02" rms="2.7858942747116089e-01" purity="8.1244534254074097e-01" nType="-99"/>
            <Node pos="r" depth="3" NCoef="0" IVar="-1" Cut="0.0000000000000000e+00" cType="1" res="1.3869151473045349e-02" rms="1.0377644002437592e-01" purity="9.8685556650161743e-01" nType="-99"/>
          </Node>
        </Node>
      </Node>
    </BinaryTree>
    <BinaryTree type="DecisionTree" boostWeight="1.0000000000000000e+00" itree="245">
      <Node pos="s" depth="0" NCoef="0" IVar="8" Cut="-1.3332617282867432e-01" cType="1" res="-4.6105083310976624e-04" rms="1.9041785597801208e-01" purity="5.0367313623428345e-01" nType="0">
        <Node pos="l" depth="1" NCoef="0" IVar="10" Cut="-6.6672962903976440e-01" cType="1" res="-3.8800151087343693e-03" rms="1.8656511604785919e-01" purity="4.9297249317169189e-01" nType="0">
          <Node pos="l" depth="2" NCoef="0" IVar="1" Cut="1.6479813232421875e+03" cType="1" res="-9.6653234213590622e-03" rms="1.8276390433311462e-01" purity="4.2497244477272034e-01" nType="0">
            <Node pos="l" depth="3" NCoef="0" IVar="-1" Cut="0.0000000000000000e+00" cType="1" res="1.8664747476577759e-02" rms="1.0699051618576050e-01" purity="1.1786584742367268e-02" nType="-99"/>
            <Node pos="r" depth="3" NCoef="0" IVar="-1" Cut="0.0000000000000000e+00" cType="1" res="-3.1576823443174362e-02" rms="2.1180650591850281e-01" purity="6.4261120557785034e-01" nType="-99"/>
          </Node>
          <Node pos="r" depth="2" NCoef="0" IVar="7" Cut="-5.4703995585441589e-02" cType="1" res="-1.1487270239740610e-03" rms="1.8827128410339355e-01" purity="5.2507579326629639e-01" nType="0">
            <Node pos="l" depth="3" NCoef="0" IVar="-1" Cut="0.0000000000000000e+00" cType="1" res="1.4109130948781967e-02" rms="1.8973113596439362e-01" purity="5.4151546955108643e-01" nType="-99"/>
            <Node pos="r" depth="3" NCoef="0" IVar="-1" Cut="0.0000000000000000e+00" cType="1" res="-1.6773402690887451e-02" rms="1.8694283068180084e-01" purity="5.1189070940017700e-01" nType="-99"/>
          </Node>
        </Node>
        <Node pos="r" depth="1" NCoef="0" IVar="7" Cut="4.3820706009864807e-01" cType="1" res="2.2358321584761143e-03" rms="1.9336010515689850e-01" purity="5.1211374998092651e-01" nType="0">
          <Node pos="l" depth="2" NCoef="0" IVar="7" Cut="-4.5492053031921387e-01" cType="1" res="-9.9223013967275620e-04" rms="1.8467715382575989e-01" purity="5.3866708278656006e-01" nType="0">
            <Node pos="l" depth="3" NCoef="0" IVar="-1" Cut="0.0000000000000000e+00" cType="1" res="1.0690800845623016e-02" rms="2.0174342393875122e-01" purity="4.1112849116325378e-01" nType="-99"/>
            <Node pos="r" depth="3" NCoef="0" IVar="-1" Cut="0.0000000000000000e+00" cType="1" res="-1.4475888572633266e-02" rms="1.7146852612495422e-01" purity="6.2904620170593262e-01" nType="-99"/>
          </Node>
          <Node pos="r" depth="2" NCoef="0" IVar="10" Cut="-1.1999173164367676e+00" cType="1" res="9.8363803699612617e-03" rms="2.1221333742141724e-01" purity="4.4959324598312378e-01" nType="0">
            <Node pos="l" depth="3" NCoef="0" IVar="-1" Cut="0.0000000000000000e+00" cType="1" res="-3.0406601727008820e-02" rms="2.0587199926376343e-01" purity="4.3705156445503235e-01" nType="-99"/>
            <Node pos="r" depth="3" NCoef="0" IVar="-1" Cut="0.0000000000000000e+00" cType="1" res="3.4959267824888229e-02" rms="2.1299123764038086e-01" purity="4.5181292295455933e-01" nType="-99"/>
          </Node>
        </Node>
      </Node>
    </BinaryTree>
    <BinaryTree type="DecisionTree" boostWeight="1.0000000000000000e+00" itree="246">
      <Node pos="s" depth="0" NCoef="0" IVar="8" Cut="1.2001781463623047e+00" cType="1" res="-2.2894002904649824e-04" rms="1.9092234969139099e-01" purity="4.9427580833435059e-01" nType="0">
        <Node pos="l" depth="1" NCoef="0" IVar="10" Cut="-1.4666280746459961e+00" cType="1" res="7.6277623884379864e-04" rms="1.8833094835281372e-01" purity="5.2319508790969849e-01" nType="0">
          <Node pos="l" depth="2" NCoef="0" IVar="9" Cut="1.3316476345062256e-01" cType="1" res="8.8837081566452980e-03" rms="2.2495712339878082e-01" purity="4.5022001862525940e-01" nType="0">
            <Node pos="l" depth="3" NCoef="0" IVar="-1" Cut="0.0000000000000000e+00" cType="1" res="-9.2943822965025902e-03" rms="2.0894086360931396e-01" purity="4.2398655414581299e-01" nType="-99"/>
            <Node pos="r" depth="3" NCoef="0" IVar="-1" Cut="0.0000000000000000e+00" cType="1" res="4.7243595123291016e-02" rms="2.4373438954353333e-01" purity="4.8540309071540833e-01" nType="-99"/>
          </Node>
          <Node pos="r" depth="2" NCoef="0" IVar="9" Cut="1.9996478557586670e+00" cType="1" res="-3.6638829624280334e-04" rms="1.8262906372547150e-01" purity="5.3334176540374756e-01" nType="0">
            <Node pos="l" depth="3" NCoef="0" IVar="-1" Cut="0.0000000000000000e+00" cType="1" res="-2.9412491712719202e-03" rms="1.7986205220222473e-01" purity="5.4184961318969727e-01" nType="-99"/>
            <Node pos="r" depth="3" NCoef="0" IVar="-1" Cut="0.0000000000000000e+00" cType="1" res="2.9539272189140320e-02" rms="2.5019991397857666e-01" purity="2.8265821933746338e-01" nType="-99"/>
          </Node>
        </Node>
        <Node pos="r" depth="1" NCoef="0" IVar="6" Cut="8.1468841552734375e+01" cType="1" res="-7.7584558166563511e-03" rms="2.0940150320529938e-01" purity="2.7470898628234863e-01" nType="0">
          <Node pos="l" depth="2" NCoef="0" IVar="-1" Cut="0.0000000000000000e+00" cType="1" res="1.3946302235126495e-02" rms="1.8033421039581299e-01" purity="7.3169834911823273e-02" nType="-99"/>
          <Node pos="r" depth="2" NCoef="0" IVar="1" Cut="1.6687495117187500e+03" cType="1" res="-1.3458684086799622e-02" rms="2.2211354970932007e-01" purity="3.7404769659042358e-01" nType="0">
            <Node pos="l" depth="3" NCoef="0" IVar="-1" Cut="0.0000000000000000e+00" cType="1" res="-2.0218705758452415e-03" rms="1.2588319182395935e-01" purity="1.9768945872783661e-02" nType="-99"/>
            <Node pos="r" depth="3" NCoef="0" IVar="-1" Cut="0.0000000000000000e+00" cType="1" res="-3.0240172520279884e-02" rms="2.6954951882362366e-01" purity="6.2295001745223999e-01" nType="-99"/>
          </Node>
        </Node>
      </Node>
    </BinaryTree>
    <BinaryTree type="DecisionTree" boostWeight="1.0000000000000000e+00" itree="247">
      <Node pos="s" depth="0" NCoef="0" IVar="9" Cut="-1.7327508926391602e+00" cType="1" res="-7.5233890675008297e-04" rms="1.8934513628482819e-01" purity="4.9655577540397644e-01" nType="0">
        <Node pos="l" depth="1" NCoef="0" IVar="5" Cut="1.6781480407714844e+02" cType="1" res="1.3863145373761654e-02" rms="2.5340238213539124e-01" purity="3.1930565834045410e-01" nType="0">
          <Node pos="l" depth="2" NCoef="0" IVar="-1" Cut="0.0000000000000000e+00" cType="1" res="6.7629446275532246e-03" rms="1.8695263564586639e-01" purity="1.0645624995231628e-01" nType="-99"/>
          <Node pos="r" depth="2" NCoef="0" IVar="-1" Cut="0.0000000000000000e+00" cType="1" res="4.3158072978258133e-02" rms="3.0540698766708374e-01" purity="5.3265768289566040e-01" nType="-99"/>
        </Node>
        <Node pos="r" depth="1" NCoef="0" IVar="10" Cut="-1.9998250007629395e+00" cType="1" res="-1.6398397274315357e-03" rms="1.8470418453216553e-01" purity="5.0731897354125977e-01" nType="0">
          <Node pos="l" depth="2" NCoef="0" IVar="-1" Cut="0.0000000000000000e+00" cType="1" res="-2.9613897204399109e-02" rms="2.2097972035408020e-01" purity="3.4509551525115967e-01" nType="-99"/>
          <Node pos="r" depth="2" NCoef="0" IVar="7" Cut="7.0783823728561401e-01" cType="1" res="-8.8088784832507372e-04" rms="1.8260748684406281e-01" purity="5.1567894220352173e-01" nType="0">
            <Node pos="l" depth="3" NCoef="0" IVar="-1" Cut="0.0000000000000000e+00" cType="1" res="1.6268087783828378e-03" rms="1.8158383667469025e-01" purity="5.5723816156387329e-01" nType="-99"/>
            <Node pos="r" depth="3" NCoef="0" IVar="-1" Cut="0.0000000000000000e+00" cType="1" res="-1.6964774578809738e-02" rms="1.8667709827423096e-01" purity="3.4338536858558655e-01" nType="-99"/>
          </Node>
        </Node>
      </Node>
    </BinaryTree>
    <BinaryTree type="DecisionTree" boostWeight="1.0000000000000000e+00" itree="248">
      <Node pos="s" depth="0" NCoef="0" IVar="4" Cut="4.1397427368164062e+02" cType="1" res="2.2187330760061741e-03" rms="1.9244803488254547e-01" purity="5.0157904624938965e-01" nType="0">
        <Node pos="l" depth="1" NCoef="0" IVar="4" Cut="2.7636065673828125e+02" cType="1" res="4.9924664199352264e-03" rms="2.1036885678768158e-01" purity="1.7375071346759796e-01" nType="0">
          <Node pos="l" depth="2" NCoef="0" IVar="6" Cut="1.4143605041503906e+02" cType="1" res="-1.6034105792641640e-03" rms="1.6107968986034393e-01" purity="5.7419762015342712e-02" nType="0">
            <Node pos="l" depth="3" NCoef="0" IVar="-1" Cut="0.0000000000000000e+00" cType="1" res="4.5010964386165142e-03" rms="1.4728730916976929e-01" purity="3.9283450692892075e-02" nType="-99"/>
            <Node pos="r" depth="3" NCoef="0" IVar="-1" Cut="0.0000000000000000e+00" cType="1" res="-2.7467777952551842e-02" rms="2.2138166427612305e-01" purity="1.5675413608551025e-01" nType="-99"/>
          </Node>
          <Node pos="r" depth="2" NCoef="0" IVar="1" Cut="1.6162077636718750e+03" cType="1" res="1.1402990669012070e-02" rms="2.4892885982990265e-01" purity="2.8681260347366333e-01" nType="0">
            <Node pos="l" depth="3" NCoef="0" IVar="-1" Cut="0.0000000000000000e+00" cType="1" res="-1.3225501403212547e-02" rms="9.1877028346061707e-02" purity="8.9480560272932053e-03" nType="-99"/>
            <Node pos="r" depth="3" NCoef="0" IVar="-1" Cut="0.0000000000000000e+00" cType="1" res="2.2416403517127037e-02" rms="3.0710208415985107e-01" purity="4.5555257797241211e-01" nType="-99"/>
          </Node>
        </Node>
        <Node pos="r" depth="1" NCoef="0" IVar="0" Cut="5.7312023925781250e+02" cType="1" res="-8.2590244710445404e-04" rms="1.7057164013385773e-01" purity="8.6142534017562866e-01" nType="0">
          <Node pos="l" depth="2" NCoef="0" IVar="0" Cut="4.4312927246093750e+02" cType="1" res="-1.1935651302337646e-02" rms="2.6338696479797363e-01" purity="2.7061560750007629e-01" nType="0">
            <Node pos="l" depth="3" NCoef="0" IVar="-1" Cut="0.0000000000000000e+00" cType="1" res="3.9189700037240982e-03" rms="1.9184267520904541e-01" purity="6.5469555556774139e-02" nType="-99"/>
            <Node pos="r" depth="3" NCoef="0" IVar="-1" Cut="0.0000000000000000e+00" cType="1" res="-2.2683413699269295e-02" rms="3.1649988889694214e-01" purity="4.6677377820014954e-01" nType="-99"/>
          </Node>
          <Node pos="r" depth="2" NCoef="0" IVar="6" Cut="9.4906677246093750e+01" cType="1" res="9.9933554884046316e-04" rms="1.4984570443630219e-01" purity="9.5849043130874634e-01" nType="0">
            <Node pos="l" depth="3" NCoef="0" IVar="-1" Cut="0.0000000000000000e+00" cType="1" res="1.9144793972373009e-02" rms="2.7455350756645203e-01" purity="8.0817013978958130e-01" nType="-99"/>
            <Node pos="r" depth="3" NCoef="0" IVar="-1" Cut="0.0000000000000000e+00" cType="1" res="-5.2481009624898434e-03" rms="1.2349402159452438e-01" purity="9.7887033224105835e-01" nType="-99"/>
          </Node>
        </Node>
      </Node>
    </BinaryTree>
    <BinaryTree type="DecisionTree" boostWeight="1.0000000000000000e+00" itree="249">
      <Node pos="s" depth="0" NCoef="0" IVar="0" Cut="4.4712454223632812e+02" cType="1" res="2.6321670156903565e-04" rms="1.9104310870170593e-01" purity="4.9733880162239075e-01" nType="0">
        <Node pos="l" depth="1" NCoef="0" IVar="1" Cut="1.7436115722656250e+03" cType="1" res="5.7886224240064621e-03" rms="1.6381531953811646e-01" purity="3.6168348044157028e-02" nType="0">
          <Node pos="l" depth="2" NCoef="0" IVar="9" Cut="1.3340191543102264e-01" cType="1" res="1.1675942223519087e-03" rms="1.1124352365732193e-01" purity="1.3038349337875843e-02" nType="0">
            <Node pos="l" depth="3" NCoef="0" IVar="-1" Cut="0.0000000000000000e+00" cType="1" res="5.4767865687608719e-02" rms="1.3244348764419556e-01" purity="1.8786074593663216e-02" nType="-99"/>
            <Node pos="r" depth="3" NCoef="0" IVar="-1" Cut="0.0000000000000000e+00" cType="1" res="-4.7447875142097473e-02" rms="7.8340217471122742e-02" purity="6.1786193400621414e-03" nType="-99"/>
          </Node>
          <Node pos="r" depth="2" NCoef="0" IVar="-1" Cut="0.0000000000000000e+00" cType="1" res="3.5867758095264435e-02" rms="3.1469595432281494e-01" purity="1.5269157290458679e-01" nType="-99"/>
        </Node>
        <Node pos="r" depth="1" NCoef="0" IVar="4" Cut="5.1190634155273438e+02" cType="1" res="-1.3076537288725376e-03" rms="1.9807378947734833e-01" purity="6.2844938039779663e-01" nType="0">
          <Node pos="l" depth="2" NCoef="0" IVar="8" Cut="-1.4664022922515869e+00" cType="1" res="-3.8403694052249193e-03" rms="2.2775050997734070e-01" purity="3.9110183715820312e-01" nType="0">
            <Node pos="l" depth="3" NCoef="0" IVar="-1" Cut="0.0000000000000000e+00" cType="1" res="1.8815325573086739e-02" rms="2.4684727191925049e-01" purity="2.9644498229026794e-01" nType="-99"/>
            <Node pos="r" depth="3" NCoef="0" IVar="-1" Cut="0.0000000000000000e+00" cType="1" res="-1.0461963713169098e-02" rms="2.2558596730232239e-01" purity="4.0106520056724548e-01" nType="-99"/>
          </Node>
          <Node pos="r" depth="2" NCoef="0" IVar="1" Cut="2.7925239257812500e+03" cType="1" res="2.1576813887804747e-03" rms="1.4806088805198669e-01" purity="9.5319515466690063e-01" nType="0">
            <Node pos="l" depth="3" NCoef="0" IVar="-1" Cut="0.0000000000000000e+00" cType="1" res="1.5630654990673065e-02" rms="3.1327420473098755e-01" purity="7.1484911441802979e-01" nType="-99"/>
            <Node pos="r" depth="3" NCoef="0" IVar="-1" Cut="0.0000000000000000e+00" cType="1" res="7.8795646550133824e-04" rms="1.0465329885482788e-01" purity="9.8739182949066162e-01" nType="-99"/>
          </Node>
        </Node>
      </Node>
    </BinaryTree>
    <BinaryTree type="DecisionTree" boostWeight="1.0000000000000000e+00" itree="250">
      <Node pos="s" depth="0" NCoef="0" IVar="8" Cut="1.4664534330368042e+00" cType="1" res="-2.9862954397685826e-04" rms="1.9169834256172180e-01" purity="4.9327102303504944e-01" nType="0">
        <Node pos="l" depth="1" NCoef="0" IVar="1" Cut="1.6804321289062500e+03" cType="1" res="-1.2731264578178525e-03" rms="1.8747363984584808e-01" purity="5.1250714063644409e-01" nType="0">
          <Node pos="l" depth="2" NCoef="0" IVar="6" Cut="1.5261236572265625e+02" cType="1" res="2.7050261851400137e-03" rms="1.1188133805990219e-01" purity="1.4113157987594604e-02" nType="0">
            <Node pos="l" depth="3" NCoef="0" IVar="-1" Cut="0.0000000000000000e+00" cType="1" res="8.0713685601949692e-03" rms="9.9012851715087891e-02" purity="1.0735964402556419e-02" nType="-99"/>
            <Node pos="r" depth="3" NCoef="0" IVar="-1" Cut="0.0000000000000000e+00" cType="1" res="9.4637043774127960e-02" rms="1.9974277913570404e-01" purity="4.8724502325057983e-02" nType="-99"/>
          </Node>
          <Node pos="r" depth="2" NCoef="0" IVar="3" Cut="4.9211529541015625e+02" cType="1" res="-3.0647423118352890e-03" rms="2.1290205419063568e-01" purity="7.3696583509445190e-01" nType="0">
            <Node pos="l" depth="3" NCoef="0" IVar="-1" Cut="0.0000000000000000e+00" cType="1" res="-1.8633717671036720e-02" rms="3.1646651029586792e-01" purity="3.4934088587760925e-01" nType="-99"/>
            <Node pos="r" depth="3" NCoef="0" IVar="-1" Cut="0.0000000000000000e+00" cType="1" res="-3.8954503834247589e-03" rms="2.0191815495491028e-01" purity="7.6898795366287231e-01" nType="-99"/>
          </Node>
        </Node>
        <Node pos="r" depth="1" NCoef="0" IVar="2" Cut="1.9443886354565620e-02" cType="1" res="1.2064956128597260e-02" rms="2.3855128884315491e-01" purity="2.4921929836273193e-01" nType="0">
          <Node pos="l" depth="2" NCoef="0" IVar="-1" Cut="0.0000000000000000e+00" cType="1" res="-2.1957820281386375e-03" rms="2.1702989935874939e-01" purity="1.2632155418395996e-01" nType="-99"/>
          <Node pos="r" depth="2" NCoef="0" IVar="-1" Cut="0.0000000000000000e+00" cType="1" res="5.7653807103633881e-02" rms="2.6683560013771057e-01" purity="4.3650573492050171e-01" nType="-99"/>
        </Node>
      </Node>
    </BinaryTree>
    <BinaryTree type="DecisionTree" boostWeight="1.0000000000000000e+00" itree="251">
      <Node pos="s" depth="0" NCoef="0" IVar="0" Cut="4.4712454223632812e+02" cType="1" res="7.3256902396678925e-05" rms="1.8801312148571014e-01" purity="4.9921232461929321e-01" nType="0">
        <Node pos="l" depth="1" NCoef="0" IVar="0" Cut="4.1909835815429688e+02" cType="1" res="-4.2414083145558834e-03" rms="1.4376103878021240e-01" purity="3.0876655131578445e-02" nType="0">
          <Node pos="l" depth="2" NCoef="0" IVar="5" Cut="2.5125648498535156e+02" cType="1" res="-4.0741972043178976e-04" rms="1.3485893607139587e-01" purity="2.4534050375223160e-02" nType="0">
            <Node pos="l" depth="3" NCoef="0" IVar="-1" Cut="0.0000000000000000e+00" cType="1" res="-3.5590454936027527e-02" rms="9.6322201192378998e-02" purity="9.7732665017247200e-03" nType="-99"/>
            <Node pos="r" depth="3" NCoef="0" IVar="-1" Cut="0.0000000000000000e+00" cType="1" res="4.0404431521892548e-02" rms="2.6312664151191711e-01" purity="1.1033901572227478e-01" nType="-99"/>
          </Node>
          <Node pos="r" depth="2" NCoef="0" IVar="-1" Cut="0.0000000000000000e+00" cType="1" res="-4.5102152973413467e-02" rms="1.7637228965759277e-01" purity="5.8447241783142090e-02" nType="-99"/>
        </Node>
        <Node pos="r" depth="1" NCoef="0" IVar="9" Cut="1.7333221435546875e+00" cType="1" res="1.2697676429525018e-03" rms="1.9852899014949799e-01" purity="6.2908762693405151e-01" nType="0">
          <Node pos="l" depth="2" NCoef="0" IVar="10" Cut="4.0001156926155090e-01" cType="1" res="4.2433792259544134e-04" rms="1.9488805532455444e-01" purity="6.3896381855010986e-01" nType="0">
            <Node pos="l" depth="3" NCoef="0" IVar="-1" Cut="0.0000000000000000e+00" cType="1" res="7.2535392828285694e-03" rms="1.9368118047714233e-01" purity="6.4099460840225220e-01" nType="-99"/>
            <Node pos="r" depth="3" NCoef="0" IVar="-1" Cut="0.0000000000000000e+00" cType="1" res="-8.4151960909366608e-03" rms="1.9680775701999664e-01" purity="6.3560742139816284e-01" nType="-99"/>
          </Node>
          <Node pos="r" depth="2" NCoef="0" IVar="-1" Cut="0.0000000000000000e+00" cType="1" res="2.4186024442315102e-02" rms="2.5316551327705383e-01" purity="4.5735529065132141e-01" nType="-99"/>
        </Node>
      </Node>
    </BinaryTree>
    <BinaryTree type="DecisionTree" boostWeight="1.0000000000000000e+00" itree="252">
      <Node pos="s" depth="0" NCoef="0" IVar="9" Cut="-1.1999051570892334e+00" cType="1" res="9.5338624669238925e-04" rms="1.9247058033943176e-01" purity="4.9840080738067627e-01" nType="0">
        <Node pos="l" depth="1" NCoef="0" IVar="8" Cut="-6.6653597354888916e-01" cType="1" res="-8.2843163982033730e-03" rms="2.0190657675266266e-01" purity="3.7867376208305359e-01" nType="0">
          <Node pos="l" depth="2" NCoef="0" IVar="-1" Cut="0.0000000000000000e+00" cType="1" res="-5.6682005524635315e-02" rms="1.8638065457344055e-01" purity="2.7210131287574768e-01" nType="-99"/>
          <Node pos="r" depth="2" NCoef="0" IVar="1" Cut="2.1806125488281250e+03" cType="1" res="-2.3941777180880308e-03" rms="2.0734149217605591e-01" purity="4.2018169164657593e-01" nType="0">
            <Node pos="l" depth="3" NCoef="0" IVar="-1" Cut="0.0000000000000000e+00" cType="1" res="-2.5753617286682129e-02" rms="1.9256420433521271e-01" purity="5.4689764976501465e-02" nType="-99"/>
            <Node pos="r" depth="3" NCoef="0" IVar="-1" Cut="0.0000000000000000e+00" cType="1" res="1.9733304157853127e-02" rms="2.2549566626548767e-01" purity="9.2110151052474976e-01" nType="-99"/>
          </Node>
        </Node>
        <Node pos="r" depth="1" NCoef="0" IVar="8" Cut="1.1999754905700684e+00" cType="1" res="2.4815551005303860e-03" rms="1.9082154333591461e-01" purity="5.1820689439773560e-01" nType="0">
          <Node pos="l" depth="2" NCoef="0" IVar="8" Cut="2.4757537245750427e-01" cType="1" res="8.9424033649265766e-04" rms="1.8551523983478546e-01" purity="5.4438972473144531e-01" nType="0">
            <Node pos="l" depth="3" NCoef="0" IVar="-1" Cut="0.0000000000000000e+00" cType="1" res="1.1248152703046799e-02" rms="1.8954521417617798e-01" purity="5.4099476337432861e-01" nType="-99"/>
            <Node pos="r" depth="3" NCoef="0" IVar="-1" Cut="0.0000000000000000e+00" cType="1" res="-1.6298608854413033e-02" rms="1.7694020271301270e-01" purity="5.5124270915985107e-01" nType="-99"/>
          </Node>
          <Node pos="r" depth="2" NCoef="0" IVar="5" Cut="2.1007720947265625e+02" cType="1" res="1.4467268250882626e-02" rms="2.2655913233757019e-01" purity="3.2050263881683350e-01" nType="0">
            <Node pos="l" depth="3" NCoef="0" IVar="-1" Cut="0.0000000000000000e+00" cType="1" res="1.3880867511034012e-02" rms="1.9131179153919220e-01" purity="9.4086132943630219e-02" nType="-99"/>
            <Node pos="r" depth="3" NCoef="0" IVar="-1" Cut="0.0000000000000000e+00" cType="1" res="4.5946173369884491e-02" rms="2.7168291807174683e-01" purity="6.7177033424377441e-01" nType="-99"/>
          </Node>
        </Node>
      </Node>
    </BinaryTree>
    <BinaryTree type="DecisionTree" boostWeight="1.0000000000000000e+00" itree="253">
      <Node pos="s" depth="0" NCoef="0" IVar="8" Cut="-1.4665967226028442e+00" cType="1" res="-8.1158895045518875e-04" rms="1.8977397680282593e-01" purity="4.9456462264060974e-01" nType="0">
        <Node pos="l" depth="1" NCoef="0" IVar="9" Cut="-6.6699624061584473e-01" cType="1" res="1.0196078568696976e-02" rms="2.3250761628150940e-01" purity="2.2872412204742432e-01" nType="0">
          <Node pos="l" depth="2" NCoef="0" IVar="-1" Cut="0.0000000000000000e+00" cType="1" res="-2.2886525839567184e-02" rms="1.9529926776885986e-01" purity="1.5550719201564789e-01" nType="-99"/>
          <Node pos="r" depth="2" NCoef="0" IVar="-1" Cut="0.0000000000000000e+00" cType="1" res="4.2062822729349136e-02" rms="2.5049200654029846e-01" purity="2.7004855871200562e-01" nType="-99"/>
        </Node>
        <Node pos="r" depth="1" NCoef="0" IVar="8" Cut="-1.0602626800537109e+00" cType="1" res="-1.6535385511815548e-03" rms="1.8607504665851593e-01" purity="5.1489812135696411e-01" nType="0">
          <Node pos="l" depth="2" NCoef="0" IVar="1" Cut="1.8559721679687500e+03" cType="1" res="-1.2410344555974007e-02" rms="1.9882965087890625e-01" purity="4.1103160381317139e-01" nType="0">
            <Node pos="l" depth="3" NCoef="0" IVar="-1" Cut="0.0000000000000000e+00" cType="1" res="-1.9914831966161728e-02" rms="1.2437506765127182e-01" purity="1.9875928759574890e-02" nType="-99"/>
            <Node pos="r" depth="3" NCoef="0" IVar="-1" Cut="0.0000000000000000e+00" cType="1" res="-3.6645606160163879e-02" rms="2.4847608804702759e-01" purity="7.7405673265457153e-01" nType="-99"/>
          </Node>
          <Node pos="r" depth="2" NCoef="0" IVar="8" Cut="1.6968711614608765e+00" cType="1" res="-7.6496647670865059e-04" rms="1.8495415151119232e-01" purity="5.2347803115844727e-01" nType="0">
            <Node pos="l" depth="3" NCoef="0" IVar="-1" Cut="0.0000000000000000e+00" cType="1" res="-4.0942565537989140e-03" rms="1.8090941011905670e-01" purity="5.4115986824035645e-01" nType="-99"/>
            <Node pos="r" depth="3" NCoef="0" IVar="-1" Cut="0.0000000000000000e+00" cType="1" res="2.0788308233022690e-02" rms="2.4799223244190216e-01" purity="1.9590036571025848e-01" nType="-99"/>
          </Node>
        </Node>
      </Node>
    </BinaryTree>
    <BinaryTree type="DecisionTree" boostWeight="1.0000000000000000e+00" itree="254">
      <Node pos="s" depth="0" NCoef="0" IVar="8" Cut="-1.7333420515060425e+00" cType="1" res="6.8012712290510535e-04" rms="1.9013825058937073e-01" purity="4.9732941389083862e-01" nType="0">
        <Node pos="l" depth="1" NCoef="0" IVar="-1" Cut="0.0000000000000000e+00" cType="1" res="-3.3272247761487961e-02" rms="2.0219531655311584e-01" purity="1.5256138145923615e-01" nType="-99"/>
        <Node pos="r" depth="1" NCoef="0" IVar="10" Cut="2.2664968967437744e+00" cType="1" res="1.2675386387854815e-03" rms="1.8959496915340424e-01" purity="5.1173859834671021e-01" nType="0">
          <Node pos="l" depth="2" NCoef="0" IVar="8" Cut="1.9362404346466064e+00" cType="1" res="8.0837239511311054e-04" rms="1.8661585450172424e-01" purity="5.1540750265121460e-01" nType="0">
            <Node pos="l" depth="3" NCoef="0" IVar="-1" Cut="0.0000000000000000e+00" cType="1" res="3.5631353966891766e-03" rms="1.8571276962757111e-01" purity="5.2669674158096313e-01" nType="-99"/>
            <Node pos="r" depth="3" NCoef="0" IVar="-1" Cut="0.0000000000000000e+00" cType="1" res="-3.7404470145702362e-02" rms="2.1579170227050781e-01" purity="1.1160199344158173e-01" nType="-99"/>
          </Node>
          <Node pos="r" depth="2" NCoef="0" IVar="-1" Cut="0.0000000000000000e+00" cType="1" res="2.9385903850197792e-02" rms="2.7859881520271301e-01" purity="3.7433239817619324e-01" nType="-99"/>
        </Node>
      </Node>
    </BinaryTree>
    <BinaryTree type="DecisionTree" boostWeight="1.0000000000000000e+00" itree="255">
      <Node pos="s" depth="0" NCoef="0" IVar="8" Cut="1.7331560850143433e+00" cType="1" res="-1.8733060278464109e-04" rms="1.8815350532531738e-01" purity="5.0442612171173096e-01" nType="0">
        <Node pos="l" depth="1" NCoef="0" IVar="0" Cut="5.9424890136718750e+02" cType="1" res="-9.3388580717146397e-04" rms="1.8511994183063507e-01" purity="5.1847434043884277e-01" nType="0">
          <Node pos="l" depth="2" NCoef="0" IVar="3" Cut="6.3946044921875000e+02" cType="1" res="-4.7355117276310921e-03" rms="1.8839682638645172e-01" purity="9.7627677023410797e-02" nType="0">
            <Node pos="l" depth="3" NCoef="0" IVar="-1" Cut="0.0000000000000000e+00" cType="1" res="-2.0182896405458450e-03" rms="1.7870651185512543e-01" purity="6.9793149828910828e-02" nType="-99"/>
            <Node pos="r" depth="3" NCoef="0" IVar="-1" Cut="0.0000000000000000e+00" cType="1" res="-3.0991772189736366e-02" rms="2.1290795505046844e-01" purity="1.7595899105072021e-01" nType="-99"/>
          </Node>
          <Node pos="r" depth="2" NCoef="0" IVar="5" Cut="1.0677571105957031e+02" cType="1" res="1.4287610538303852e-03" rms="1.8301406502723694e-01" purity="7.8002351522445679e-01" nType="0">
            <Node pos="l" depth="3" NCoef="0" IVar="-1" Cut="0.0000000000000000e+00" cType="1" res="4.1302386671304703e-02" rms="1.9451637566089630e-01" purity="8.5929870605468750e-02" nType="-99"/>
            <Node pos="r" depth="3" NCoef="0" IVar="-1" Cut="0.0000000000000000e+00" cType="1" res="6.5346970222890377e-04" rms="1.8178537487983704e-01" purity="8.4909874200820923e-01" nType="-99"/>
          </Node>
        </Node>
        <Node pos="r" depth="1" NCoef="0" IVar="-1" Cut="0.0000000000000000e+00" cType="1" res="3.6770001053810120e-02" rms="2.4566809833049774e-01" purity="1.9128718972206116e-01" nType="-99"/>
      </Node>
    </BinaryTree>
    <BinaryTree type="DecisionTree" boostWeight="1.0000000000000000e+00" itree="256">
      <Node pos="s" depth="0" NCoef="0" IVar="8" Cut="1.7331217527389526e+00" cType="1" res="-2.0532382186502218e-03" rms="1.8566301465034485e-01" purity="4.9998122453689575e-01" nType="0">
        <Node pos="l" depth="1" NCoef="0" IVar="8" Cut="-1.0730569362640381e+00" cType="1" res="-1.3949202839285135e-03" rms="1.8470473587512970e-01" purity="5.1545864343643188e-01" nType="0">
          <Node pos="l" depth="2" NCoef="0" IVar="5" Cut="2.1327401733398438e+02" cType="1" res="-1.0727523826062679e-02" rms="2.0189774036407471e-01" purity="3.1234872341156006e-01" nType="0">
            <Node pos="l" depth="3" NCoef="0" IVar="-1" Cut="0.0000000000000000e+00" cType="1" res="-8.8253002613782883e-03" rms="1.7216022312641144e-01" purity="9.5564097166061401e-02" nType="-99"/>
            <Node pos="r" depth="3" NCoef="0" IVar="-1" Cut="0.0000000000000000e+00" cType="1" res="-4.1410151869058609e-02" rms="2.4008847773075104e-01" purity="6.4597439765930176e-01" nType="-99"/>
          </Node>
          <Node pos="r" depth="2" NCoef="0" IVar="7" Cut="1.4701749086380005e+00" cType="1" res="1.9999775395262986e-04" rms="1.8155571818351746e-01" purity="5.5016964673995972e-01" nType="0">
            <Node pos="l" depth="3" NCoef="0" IVar="-1" Cut="0.0000000000000000e+00" cType="1" res="-2.1391494665294886e-03" rms="1.7819561064243317e-01" purity="5.6649756431579590e-01" nType="-99"/>
            <Node pos="r" depth="3" NCoef="0" IVar="-1" Cut="0.0000000000000000e+00" cType="1" res="5.1634732633829117e-02" rms="2.4816077947616577e-01" purity="1.5671430528163910e-01" nType="-99"/>
          </Node>
        </Node>
        <Node pos="r" depth="1" NCoef="0" IVar="-1" Cut="0.0000000000000000e+00" cType="1" res="-4.1226230561733246e-02" rms="2.0634855329990387e-01" purity="1.3542973995208740e-01" nType="-99"/>
      </Node>
    </BinaryTree>
    <BinaryTree type="DecisionTree" boostWeight="1.0000000000000000e+00" itree="257">
      <Node pos="s" depth="0" NCoef="0" IVar="6" Cut="9.4900230407714844e+01" cType="1" res="-1.1051103938370943e-03" rms="1.8611031770706177e-01" purity="5.0060242414474487e-01" nType="0">
        <Node pos="l" depth="1" NCoef="0" IVar="2" Cut="8.5463352501392365e-02" cType="1" res="3.0689802952110767e-03" rms="1.8158438801765442e-01" purity="1.7141754925251007e-01" nType="0">
          <Node pos="l" depth="2" NCoef="0" IVar="6" Cut="5.4276218414306641e+01" cType="1" res="1.2546367943286896e-03" rms="1.7413057386875153e-01" purity="1.4679941534996033e-01" nType="0">
            <Node pos="l" depth="3" NCoef="0" IVar="-1" Cut="0.0000000000000000e+00" cType="1" res="-5.0778787583112717e-02" rms="1.3481348752975464e-01" purity="8.2446373999118805e-02" nType="-99"/>
            <Node pos="r" depth="3" NCoef="0" IVar="-1" Cut="0.0000000000000000e+00" cType="1" res="9.2982137575745583e-03" rms="1.7866751551628113e-01" purity="1.5542787313461304e-01" nType="-99"/>
          </Node>
          <Node pos="r" depth="2" NCoef="0" IVar="-1" Cut="0.0000000000000000e+00" cType="1" res="4.0794670581817627e-02" rms="2.4914035201072693e-01" purity="4.4572281837463379e-01" nType="-99"/>
        </Node>
        <Node pos="r" depth="1" NCoef="0" IVar="9" Cut="1.7318426370620728e+00" cType="1" res="-3.1615204643458128e-03" rms="1.8826605379581451e-01" purity="6.6277885437011719e-01" nType="0">
          <Node pos="l" depth="2" NCoef="0" IVar="2" Cut="6.1890840530395508e-02" cType="1" res="-2.1802594419568777e-03" rms="1.8535093963146210e-01" purity="6.7508304119110107e-01" nType="0">
            <Node pos="l" depth="3" NCoef="0" IVar="-1" Cut="0.0000000000000000e+00" cType="1" res="-1.2311342172324657e-02" rms="2.0181122422218323e-01" purity="5.6142514944076538e-01" nType="-99"/>
            <Node pos="r" depth="3" NCoef="0" IVar="-1" Cut="0.0000000000000000e+00" cType="1" res="7.2334660217165947e-03" rms="1.6177055239677429e-01" purity="8.2054901123046875e-01" nType="-99"/>
          </Node>
          <Node pos="r" depth="2" NCoef="0" IVar="-1" Cut="0.0000000000000000e+00" cType="1" res="-3.9817310869693756e-02" rms="2.4311737716197968e-01" purity="3.8987326622009277e-01" nType="-99"/>
        </Node>
      </Node>
    </BinaryTree>
    <BinaryTree type="DecisionTree" boostWeight="1.0000000000000000e+00" itree="258">
      <Node pos="s" depth="0" NCoef="0" IVar="7" Cut="1.4850434064865112e+00" cType="1" res="-1.6118714120239019e-03" rms="1.8530613183975220e-01" purity="5.0305992364883423e-01" nType="0">
        <Node pos="l" depth="1" NCoef="0" IVar="7" Cut="1.0848281383514404e+00" cType="1" res="-9.5650297589600086e-04" rms="1.8604068458080292e-01" purity="5.2061468362808228e-01" nType="0">
          <Node pos="l" depth="2" NCoef="0" IVar="3" Cut="5.0095898437500000e+02" cType="1" res="-2.9988659662194550e-04" rms="1.8566967546939850e-01" purity="5.3526896238327026e-01" nType="0">
            <Node pos="l" depth="3" NCoef="0" IVar="-1" Cut="0.0000000000000000e+00" cType="1" res="-1.0402274318039417e-02" rms="1.9352795183658600e-01" purity="1.0499843209981918e-01" nType="-99"/>
            <Node pos="r" depth="3" NCoef="0" IVar="-1" Cut="0.0000000000000000e+00" cType="1" res="2.0316715817898512e-03" rms="1.8348866701126099e-01" purity="6.5083825588226318e-01" nType="-99"/>
          </Node>
          <Node pos="r" depth="2" NCoef="0" IVar="8" Cut="1.3389037549495697e-01" cType="1" res="-1.1388284154236317e-02" rms="1.9153700768947601e-01" purity="2.8780063986778259e-01" nType="0">
            <Node pos="l" depth="3" NCoef="0" IVar="-1" Cut="0.0000000000000000e+00" cType="1" res="-6.1074467375874519e-03" rms="1.9867783784866333e-01" purity="2.9646643996238708e-01" nType="-99"/>
            <Node pos="r" depth="3" NCoef="0" IVar="-1" Cut="0.0000000000000000e+00" cType="1" res="-5.2549298852682114e-02" rms="1.8154689669609070e-01" purity="2.7690345048904419e-01" nType="-99"/>
          </Node>
        </Node>
        <Node pos="r" depth="1" NCoef="0" IVar="-1" Cut="0.0000000000000000e+00" cType="1" res="-4.3932020664215088e-02" rms="1.6691620647907257e-01" purity="1.0130738466978073e-01" nType="-99"/>
      </Node>
    </BinaryTree>
    <BinaryTree type="DecisionTree" boostWeight="1.0000000000000000e+00" itree="259">
      <Node pos="s" depth="0" NCoef="0" IVar="9" Cut="3.9994582533836365e-01" cType="1" res="3.4297539968974888e-04" rms="1.8823210895061493e-01" purity="5.0120979547500610e-01" nType="0">
        <Node pos="l" depth="1" NCoef="0" IVar="0" Cut="4.4205465698242188e+02" cType="1" res="-1.8368365708738565e-03" rms="1.8246375024318695e-01" purity="5.1455193758010864e-01" nType="0">
          <Node pos="l" depth="2" NCoef="0" IVar="10" Cut="9.3353277444839478e-01" cType="1" res="3.7718464154750109e-03" rms="1.5192085504531860e-01" purity="3.2177090644836426e-02" nType="0">
            <Node pos="l" depth="3" NCoef="0" IVar="-1" Cut="0.0000000000000000e+00" cType="1" res="-8.7184449657797813e-03" rms="1.3065704703330994e-01" purity="2.2792899981141090e-02" nType="-99"/>
            <Node pos="r" depth="3" NCoef="0" IVar="-1" Cut="0.0000000000000000e+00" cType="1" res="7.2753608226776123e-02" rms="2.0746177434921265e-01" purity="6.4052432775497437e-02" nType="-99"/>
          </Node>
          <Node pos="r" depth="2" NCoef="0" IVar="0" Cut="8.4792645263671875e+02" cType="1" res="-3.3346025738865137e-03" rms="1.8976227939128876e-01" purity="6.4336729049682617e-01" nType="0">
            <Node pos="l" depth="3" NCoef="0" IVar="-1" Cut="0.0000000000000000e+00" cType="1" res="-1.5281772240996361e-02" rms="2.2108927369117737e-01" purity="3.5363930463790894e-01" nType="-99"/>
            <Node pos="r" depth="3" NCoef="0" IVar="-1" Cut="0.0000000000000000e+00" cType="1" res="4.4635194353759289e-03" rms="1.5135131776332855e-01" purity="9.3746352195739746e-01" nType="-99"/>
          </Node>
        </Node>
        <Node pos="r" depth="1" NCoef="0" IVar="10" Cut="-9.3298339843750000e-01" cType="1" res="4.1050394065678120e-03" rms="1.9773569703102112e-01" purity="4.7818306088447571e-01" nType="0">
          <Node pos="l" depth="2" NCoef="0" IVar="5" Cut="1.8098342895507812e+02" cType="1" res="1.7437294125556946e-02" rms="2.2346088290214539e-01" purity="5.1028418540954590e-01" nType="0">
            <Node pos="l" depth="3" NCoef="0" IVar="-1" Cut="0.0000000000000000e+00" cType="1" res="1.0777306742966175e-03" rms="1.9292505085468292e-01" purity="1.2904632091522217e-01" nType="-99"/>
            <Node pos="r" depth="3" NCoef="0" IVar="-1" Cut="0.0000000000000000e+00" cType="1" res="5.2566755563020706e-02" rms="2.3944741487503052e-01" purity="7.4055582284927368e-01" nType="-99"/>
          </Node>
          <Node pos="r" depth="2" NCoef="0" IVar="6" Cut="1.7754000854492188e+02" cType="1" res="4.0073480340652168e-04" rms="1.8980449438095093e-01" purity="4.6926388144493103e-01" nType="0">
            <Node pos="l" depth="3" NCoef="0" IVar="-1" Cut="0.0000000000000000e+00" cType="1" res="-8.2726925611495972e-03" rms="1.9465108215808868e-01" purity="2.6463422179222107e-01" nType="-99"/>
            <Node pos="r" depth="3" NCoef="0" IVar="-1" Cut="0.0000000000000000e+00" cType="1" res="2.9982140287756920e-02" rms="1.7869308590888977e-01" purity="9.0755510330200195e-01" nType="-99"/>
          </Node>
        </Node>
      </Node>
    </BinaryTree>
    <BinaryTree type="DecisionTree" boostWeight="1.0000000000000000e+00" itree="260">
      <Node pos="s" depth="0" NCoef="0" IVar="10" Cut="1.9999564886093140e+00" cType="1" res="4.1350399260409176e-04" rms="1.8571987748146057e-01" purity="5.0234973430633545e-01" nType="0">
        <Node pos="l" depth="1" NCoef="0" IVar="4" Cut="2.4222540283203125e+02" cType="1" res="9.8006648477166891e-04" rms="1.8393717706203461e-01" purity="5.0817185640335083e-01" nType="0">
          <Node pos="l" depth="2" NCoef="0" IVar="5" Cut="1.7740972900390625e+02" cType="1" res="-4.4798445887863636e-03" rms="1.2216664850711823e-01" purity="3.0568830668926239e-02" nType="0">
            <Node pos="l" depth="3" NCoef="0" IVar="-1" Cut="0.0000000000000000e+00" cType="1" res="-1.0299190878868103e-02" rms="1.1255086958408356e-01" purity="2.1548623219132423e-02" nType="-99"/>
            <Node pos="r" depth="3" NCoef="0" IVar="-1" Cut="0.0000000000000000e+00" cType="1" res="-5.0787929445505142e-02" rms="1.5719969570636749e-01" purity="7.0547088980674744e-02" nType="-99"/>
          </Node>
          <Node pos="r" depth="2" NCoef="0" IVar="0" Cut="7.4112036132812500e+02" cType="1" res="2.1719732321798801e-03" rms="1.9481436908245087e-01" purity="6.1243337392807007e-01" nType="0">
            <Node pos="l" depth="3" NCoef="0" IVar="-1" Cut="0.0000000000000000e+00" cType="1" res="9.7755473107099533e-03" rms="2.2799085080623627e-01" purity="2.5551044940948486e-01" nType="-99"/>
            <Node pos="r" depth="3" NCoef="0" IVar="-1" Cut="0.0000000000000000e+00" cType="1" res="-2.2965366952121258e-03" rms="1.5882426500320435e-01" purity="9.3587893247604370e-01" nType="-99"/>
          </Node>
        </Node>
        <Node pos="r" depth="1" NCoef="0" IVar="-1" Cut="0.0000000000000000e+00" cType="1" res="-2.1683748811483383e-02" rms="2.1876148879528046e-01" purity="3.8302400708198547e-01" nType="-99"/>
      </Node>
    </BinaryTree>
    <BinaryTree type="DecisionTree" boostWeight="1.0000000000000000e+00" itree="261">
      <Node pos="s" depth="0" NCoef="0" IVar="7" Cut="1.2206255197525024e+00" cType="1" res="-1.3363073812797666e-03" rms="1.8752411007881165e-01" purity="4.9605399370193481e-01" nType="0">
        <Node pos="l" depth="1" NCoef="0" IVar="9" Cut="1.1997282505035400e+00" cType="1" res="-5.1915767835453153e-04" rms="1.8789714574813843e-01" purity="5.2178502082824707e-01" nType="0">
          <Node pos="l" depth="2" NCoef="0" IVar="9" Cut="-1.6571071147918701e+00" cType="1" res="4.7792764962650836e-04" rms="1.8578168749809265e-01" purity="5.4070699214935303e-01" nType="0">
            <Node pos="l" depth="3" NCoef="0" IVar="-1" Cut="0.0000000000000000e+00" cType="1" res="-2.0204236730933189e-02" rms="2.1773727238178253e-01" purity="2.9426130652427673e-01" nType="-99"/>
            <Node pos="r" depth="3" NCoef="0" IVar="-1" Cut="0.0000000000000000e+00" cType="1" res="3.7531461566686630e-03" rms="1.8285821378231049e-01" purity="5.6115430593490601e-01" nType="-99"/>
          </Node>
          <Node pos="r" depth="2" NCoef="0" IVar="7" Cut="-3.9765924215316772e-01" cType="1" res="-6.5430095419287682e-03" rms="2.0009708404541016e-01" purity="4.0746894478797913e-01" nType="0">
            <Node pos="l" depth="3" NCoef="0" IVar="-1" Cut="0.0000000000000000e+00" cType="1" res="-3.5073563456535339e-02" rms="1.9513127207756042e-01" purity="3.0924889445304871e-01" nType="-99"/>
            <Node pos="r" depth="3" NCoef="0" IVar="-1" Cut="0.0000000000000000e+00" cType="1" res="-4.6301567927002907e-03" rms="2.0249846577644348e-01" purity="4.5871627330780029e-01" nType="-99"/>
          </Node>
        </Node>
        <Node pos="r" depth="1" NCoef="0" IVar="7" Cut="1.6706500053405762e+00" cType="1" res="-1.1774930171668530e-02" rms="1.8237002193927765e-01" purity="1.6735398769378662e-01" nType="0">
          <Node pos="l" depth="2" NCoef="0" IVar="-1" Cut="0.0000000000000000e+00" cType="1" res="-1.4718243852257729e-02" rms="2.0540659129619598e-01" purity="2.3022666573524475e-01" nType="-99"/>
          <Node pos="r" depth="2" NCoef="0" IVar="-1" Cut="0.0000000000000000e+00" cType="1" res="-6.6023945808410645e-02" rms="1.3152351975440979e-01" purity="5.5943146347999573e-02" nType="-99"/>
        </Node>
      </Node>
    </BinaryTree>
    <BinaryTree type="DecisionTree" boostWeight="1.0000000000000000e+00" itree="262">
      <Node pos="s" depth="0" NCoef="0" IVar="5" Cut="2.6691995239257812e+02" cType="1" res="1.2300449889153242e-03" rms="1.9088295102119446e-01" purity="5.0160896778106689e-01" nType="0">
        <Node pos="l" depth="1" NCoef="0" IVar="2" Cut="8.5462696850299835e-02" cType="1" res="3.5491394810378551e-03" rms="2.0527340471744537e-01" purity="2.0239321887493134e-01" nType="0">
          <Node pos="l" depth="2" NCoef="0" IVar="5" Cut="1.9462428283691406e+02" cType="1" res="5.5422559380531311e-03" rms="2.0319817960262299e-01" purity="1.8196463584899902e-01" nType="0">
            <Node pos="l" depth="3" NCoef="0" IVar="-1" Cut="0.0000000000000000e+00" cType="1" res="4.4491766020655632e-03" rms="1.7532400786876678e-01" purity="9.8300926387310028e-02" nType="-99"/>
            <Node pos="r" depth="3" NCoef="0" IVar="-1" Cut="0.0000000000000000e+00" cType="1" res="2.5210598483681679e-02" rms="2.6049071550369263e-01" purity="3.9387300610542297e-01" nType="-99"/>
          </Node>
          <Node pos="r" depth="2" NCoef="0" IVar="7" Cut="5.1220610737800598e-02" cType="1" res="-1.1737761087715626e-02" rms="2.1994210779666901e-01" purity="3.5907751321792603e-01" nType="0">
            <Node pos="l" depth="3" NCoef="0" IVar="-1" Cut="0.0000000000000000e+00" cType="1" res="-6.0214237309992313e-03" rms="2.1961040794849396e-01" purity="3.7158542871475220e-01" nType="-99"/>
            <Node pos="r" depth="3" NCoef="0" IVar="-1" Cut="0.0000000000000000e+00" cType="1" res="-4.0265802294015884e-02" rms="2.1989879012107849e-01" purity="3.4509414434432983e-01" nType="-99"/>
          </Node>
        </Node>
        <Node pos="r" depth="1" NCoef="0" IVar="4" Cut="3.5215380859375000e+02" cType="1" res="-1.8578069284558296e-03" rms="1.6979090869426727e-01" purity="9.0001183748245239e-01" nType="0">
          <Node pos="l" depth="2" NCoef="0" IVar="-1" Cut="0.0000000000000000e+00" cType="1" res="-3.3995836973190308e-02" rms="2.7089989185333252e-01" purity="4.1441947221755981e-01" nType="-99"/>
          <Node pos="r" depth="2" NCoef="0" IVar="0" Cut="5.9428070068359375e+02" cType="1" res="-5.4514162911800668e-05" rms="1.6002629697322845e-01" purity="9.3457603454589844e-01" nType="0">
            <Node pos="l" depth="3" NCoef="0" IVar="-1" Cut="0.0000000000000000e+00" cType="1" res="-8.2735214382410049e-03" rms="3.3736601471900940e-01" purity="5.4037505388259888e-01" nType="-99"/>
            <Node pos="r" depth="3" NCoef="0" IVar="-1" Cut="0.0000000000000000e+00" cType="1" res="7.0117367431521416e-03" rms="1.2354656308889389e-01" purity="9.8075044155120850e-01" nType="-99"/>
          </Node>
        </Node>
      </Node>
    </BinaryTree>
    <BinaryTree type="DecisionTree" boostWeight="1.0000000000000000e+00" itree="263">
      <Node pos="s" depth="0" NCoef="0" IVar="2" Cut="2.1365730091929436e-02" cType="1" res="1.1944485595449805e-03" rms="1.8732526898384094e-01" purity="5.0456744432449341e-01" nType="0">
        <Node pos="l" depth="1" NCoef="0" IVar="10" Cut="6.6658663749694824e-01" cType="1" res="-3.6226140800863504e-03" rms="1.8457138538360596e-01" purity="2.4864105880260468e-01" nType="0">
          <Node pos="l" depth="2" NCoef="0" IVar="8" Cut="1.1998212337493896e+00" cType="1" res="-5.7414261391386390e-04" rms="1.8544875085353851e-01" purity="2.6179844141006470e-01" nType="0">
            <Node pos="l" depth="3" NCoef="0" IVar="-1" Cut="0.0000000000000000e+00" cType="1" res="-9.6200341358780861e-03" rms="1.7512783408164978e-01" purity="2.7620321512222290e-01" nType="-99"/>
            <Node pos="r" depth="3" NCoef="0" IVar="-1" Cut="0.0000000000000000e+00" cType="1" res="3.3331163227558136e-02" rms="2.3219808936119080e-01" purity="1.8527279794216156e-01" nType="-99"/>
          </Node>
          <Node pos="r" depth="2" NCoef="0" IVar="0" Cut="7.4112585449218750e+02" cType="1" res="-1.1016691103577614e-02" rms="1.8221406638622284e-01" purity="2.1672779321670532e-01" nType="0">
            <Node pos="l" depth="3" NCoef="0" IVar="-1" Cut="0.0000000000000000e+00" cType="1" res="-2.1928619593381882e-02" rms="1.5760728716850281e-01" purity="7.3677577078342438e-02" nType="-99"/>
            <Node pos="r" depth="3" NCoef="0" IVar="-1" Cut="0.0000000000000000e+00" cType="1" res="-3.9261743426322937e-02" rms="2.4041025340557098e-01" purity="6.4070248603820801e-01" nType="-99"/>
          </Node>
        </Node>
        <Node pos="r" depth="1" NCoef="0" IVar="1" Cut="2.5022285156250000e+03" cType="1" res="3.9634918794035912e-03" rms="1.8883453309535980e-01" purity="6.5168428421020508e-01" nType="0">
          <Node pos="l" depth="2" NCoef="0" IVar="1" Cut="1.9248624267578125e+03" cType="1" res="9.2089315876364708e-03" rms="2.5689402222633362e-01" purity="2.0213074982166290e-01" nType="0">
            <Node pos="l" depth="3" NCoef="0" IVar="-1" Cut="0.0000000000000000e+00" cType="1" res="1.3757680542767048e-02" rms="1.8338978290557861e-01" purity="4.0833640843629837e-02" nType="-99"/>
            <Node pos="r" depth="3" NCoef="0" IVar="-1" Cut="0.0000000000000000e+00" cType="1" res="1.4762807637453079e-02" rms="3.8674813508987427e-01" purity="6.1991262435913086e-01" nType="-99"/>
          </Node>
          <Node pos="r" depth="2" NCoef="0" IVar="1" Cut="2.9483754882812500e+03" cType="1" res="7.6882955909240991e-05" rms="1.1465376615524292e-01" purity="9.8478108644485474e-01" nType="0">
            <Node pos="l" depth="3" NCoef="0" IVar="-1" Cut="0.0000000000000000e+00" cType="1" res="-1.3713378459215164e-02" rms="2.1070200204849243e-01" purity="9.4650048017501831e-01" nType="-99"/>
            <Node pos="r" depth="3" NCoef="0" IVar="-1" Cut="0.0000000000000000e+00" cType="1" res="2.4184154346585274e-02" rms="6.9950059056282043e-02" purity="9.9487739801406860e-01" nType="-99"/>
          </Node>
        </Node>
      </Node>
    </BinaryTree>
    <BinaryTree type="DecisionTree" boostWeight="1.0000000000000000e+00" itree="264">
      <Node pos="s" depth="0" NCoef="0" IVar="7" Cut="-1.3822323083877563e+00" cType="1" res="2.2858327720314264e-03" rms="1.9164189696311951e-01" purity="5.0170922279357910e-01" nType="0">
        <Node pos="l" depth="1" NCoef="0" IVar="0" Cut="4.9652462768554688e+02" cType="1" res="1.4252614229917526e-02" rms="1.9161848723888397e-01" purity="1.4522658288478851e-01" nType="0">
          <Node pos="l" depth="2" NCoef="0" IVar="-1" Cut="0.0000000000000000e+00" cType="1" res="2.0426735281944275e-02" rms="1.3162170350551605e-01" purity="2.0802337676286697e-02" nType="-99"/>
          <Node pos="r" depth="2" NCoef="0" IVar="-1" Cut="0.0000000000000000e+00" cType="1" res="5.0918631255626678e-02" rms="2.3971146345138550e-01" purity="2.8015789389610291e-01" nType="-99"/>
        </Node>
        <Node pos="r" depth="1" NCoef="0" IVar="8" Cut="-1.3360965251922607e-01" cType="1" res="1.6130821313709021e-03" rms="1.9162102043628693e-01" purity="5.2175009250640869e-01" nType="0">
          <Node pos="l" depth="2" NCoef="0" IVar="1" Cut="1.8989919433593750e+03" cType="1" res="-1.0333074023947120e-03" rms="1.9004417955875397e-01" purity="5.0478458404541016e-01" nType="0">
            <Node pos="l" depth="3" NCoef="0" IVar="-1" Cut="0.0000000000000000e+00" cType="1" res="1.3320426456630230e-02" rms="1.4846131205558777e-01" purity="2.8465138748288155e-02" nType="-99"/>
            <Node pos="r" depth="3" NCoef="0" IVar="-1" Cut="0.0000000000000000e+00" cType="1" res="-8.0671096220612526e-03" rms="2.1497642993927002e-01" purity="8.4712088108062744e-01" nType="-99"/>
          </Node>
          <Node pos="r" depth="2" NCoef="0" IVar="5" Cut="2.6112411499023438e+02" cType="1" res="3.7870169617235661e-03" rms="1.9287955760955811e-01" purity="5.3568667173385620e-01" nType="0">
            <Node pos="l" depth="3" NCoef="0" IVar="-1" Cut="0.0000000000000000e+00" cType="1" res="1.9005918875336647e-02" rms="2.1366608142852783e-01" purity="2.1992230415344238e-01" nType="-99"/>
            <Node pos="r" depth="3" NCoef="0" IVar="-1" Cut="0.0000000000000000e+00" cType="1" res="-4.6616168692708015e-03" rms="1.6465391218662262e-01" purity="9.1099721193313599e-01" nType="-99"/>
          </Node>
        </Node>
      </Node>
    </BinaryTree>
    <BinaryTree type="DecisionTree" boostWeight="1.0000000000000000e+00" itree="265">
      <Node pos="s" depth="0" NCoef="0" IVar="9" Cut="-1.9994484186172485e+00" cType="1" res="5.1001133397221565e-04" rms="1.9078473746776581e-01" purity="4.9432903528213501e-01" nType="0">
        <Node pos="l" depth="1" NCoef="0" IVar="-1" Cut="0.0000000000000000e+00" cType="1" res="5.3452223539352417e-02" rms="2.7664420008659363e-01" purity="2.2504355013370514e-01" nType="-99"/>
        <Node pos="r" depth="1" NCoef="0" IVar="6" Cut="1.2492407226562500e+02" cType="1" res="-3.0990474624559283e-04" rms="1.8712921440601349e-01" purity="5.0346094369888306e-01" nType="0">
          <Node pos="l" depth="2" NCoef="0" IVar="5" Cut="2.4779322814941406e+02" cType="1" res="-3.3621164038777351e-03" rms="1.8963786959648132e-01" purity="1.9831275939941406e-01" nType="0">
            <Node pos="l" depth="3" NCoef="0" IVar="-1" Cut="0.0000000000000000e+00" cType="1" res="-2.3629872594028711e-03" rms="1.7819920182228088e-01" purity="1.0073043406009674e-01" nType="-99"/>
            <Node pos="r" depth="3" NCoef="0" IVar="-1" Cut="0.0000000000000000e+00" cType="1" res="-2.5641115382313728e-02" rms="2.3443137109279633e-01" purity="6.4291197061538696e-01" nType="-99"/>
          </Node>
          <Node pos="r" depth="2" NCoef="0" IVar="10" Cut="1.1995537281036377e+00" cType="1" res="2.3968883324414492e-03" rms="1.8483382463455200e-01" purity="7.7407544851303101e-01" nType="0">
            <Node pos="l" depth="3" NCoef="0" IVar="-1" Cut="0.0000000000000000e+00" cType="1" res="2.5647396687418222e-03" rms="1.7973281443119049e-01" purity="7.8024315834045410e-01" nType="-99"/>
            <Node pos="r" depth="3" NCoef="0" IVar="-1" Cut="0.0000000000000000e+00" cType="1" res="2.4163821712136269e-02" rms="2.1055418252944946e-01" purity="7.4006730318069458e-01" nType="-99"/>
          </Node>
        </Node>
      </Node>
    </BinaryTree>
    <BinaryTree type="DecisionTree" boostWeight="1.0000000000000000e+00" itree="266">
      <Node pos="s" depth="0" NCoef="0" IVar="10" Cut="-1.4666882753372192e+00" cType="1" res="2.3942450061440468e-03" rms="1.9218564033508301e-01" purity="5.0252830982208252e-01" nType="0">
        <Node pos="l" depth="1" NCoef="0" IVar="9" Cut="1.3316476345062256e-01" cType="1" res="-6.8420404568314552e-03" rms="2.0894366502761841e-01" purity="4.1808351874351501e-01" nType="0">
          <Node pos="l" depth="2" NCoef="0" IVar="1" Cut="1.8446826171875000e+03" cType="1" res="-1.4147239737212658e-02" rms="1.9663369655609131e-01" purity="3.7448582053184509e-01" nType="0">
            <Node pos="l" depth="3" NCoef="0" IVar="-1" Cut="0.0000000000000000e+00" cType="1" res="-3.3660169690847397e-02" rms="1.3719180226325989e-01" purity="2.0309993997216225e-02" nType="-99"/>
            <Node pos="r" depth="3" NCoef="0" IVar="-1" Cut="0.0000000000000000e+00" cType="1" res="-3.2624285668134689e-02" rms="2.4348340928554535e-01" purity="7.4379789829254150e-01" nType="-99"/>
          </Node>
          <Node pos="r" depth="2" NCoef="0" IVar="-1" Cut="0.0000000000000000e+00" cType="1" res="6.7002899013459682e-03" rms="2.2479610145092010e-01" purity="4.7971591353416443e-01" nType="-99"/>
        </Node>
        <Node pos="r" depth="1" NCoef="0" IVar="9" Cut="-1.1998127698898315e+00" cType="1" res="3.5993747878819704e-03" rms="1.8985691666603088e-01" purity="5.1354646682739258e-01" nType="0">
          <Node pos="l" depth="2" NCoef="0" IVar="7" Cut="-5.7114422321319580e-01" cType="1" res="1.2068399228155613e-02" rms="2.2334919869899750e-01" purity="4.2309194803237915e-01" nType="0">
            <Node pos="l" depth="3" NCoef="0" IVar="-1" Cut="0.0000000000000000e+00" cType="1" res="6.0376401990652084e-02" rms="2.2755038738250732e-01" purity="3.2121452689170837e-01" nType="-99"/>
            <Node pos="r" depth="3" NCoef="0" IVar="-1" Cut="0.0000000000000000e+00" cType="1" res="1.4082286506891251e-02" rms="2.2140382230281830e-01" purity="4.6285292506217957e-01" nType="-99"/>
          </Node>
          <Node pos="r" depth="2" NCoef="0" IVar="8" Cut="9.3331497907638550e-01" cType="1" res="2.2432287223637104e-03" rms="1.8389193713665009e-01" purity="5.2803093194961548e-01" nType="0">
            <Node pos="l" depth="3" NCoef="0" IVar="-1" Cut="0.0000000000000000e+00" cType="1" res="2.2676819935441017e-03" rms="1.7528571188449860e-01" purity="5.6015837192535400e-01" nType="-99"/>
            <Node pos="r" depth="3" NCoef="0" IVar="-1" Cut="0.0000000000000000e+00" cType="1" res="2.3052327334880829e-02" rms="2.2077280282974243e-01" purity="3.7223643064498901e-01" nType="-99"/>
          </Node>
        </Node>
      </Node>
    </BinaryTree>
    <BinaryTree type="DecisionTree" boostWeight="1.0000000000000000e+00" itree="267">
      <Node pos="s" depth="0" NCoef="0" IVar="8" Cut="1.1994336843490601e+00" cType="1" res="-1.1814732570201159e-03" rms="1.8980848789215088e-01" purity="5.0151485204696655e-01" nType="0">
        <Node pos="l" depth="1" NCoef="0" IVar="6" Cut="9.4900779724121094e+01" cType="1" res="-3.6499465932138264e-04" rms="1.8590271472930908e-01" purity="5.2782428264617920e-01" nType="0">
          <Node pos="l" depth="2" NCoef="0" IVar="8" Cut="-1.0858799219131470e+00" cType="1" res="2.7886342722922564e-03" rms="1.8831719458103180e-01" purity="1.8153882026672363e-01" nType="0">
            <Node pos="l" depth="3" NCoef="0" IVar="-1" Cut="0.0000000000000000e+00" cType="1" res="4.6728480607271194e-02" rms="2.0363835990428925e-01" purity="1.3572080433368683e-01" nType="-99"/>
            <Node pos="r" depth="3" NCoef="0" IVar="-1" Cut="0.0000000000000000e+00" cType="1" res="-1.8246729159727693e-03" rms="1.8395158648490906e-01" purity="1.9350862503051758e-01" nType="-99"/>
          </Node>
          <Node pos="r" depth="2" NCoef="0" IVar="9" Cut="-1.7334054708480835e+00" cType="1" res="-1.8167704110965133e-03" rms="1.8476249277591705e-01" purity="6.8723708391189575e-01" nType="0">
            <Node pos="l" depth="3" NCoef="0" IVar="-1" Cut="0.0000000000000000e+00" cType="1" res="-3.3087827265262604e-02" rms="2.2359097003936768e-01" purity="4.1154494881629944e-01" nType="-99"/>
            <Node pos="r" depth="3" NCoef="0" IVar="-1" Cut="0.0000000000000000e+00" cType="1" res="-3.2521877437829971e-03" rms="1.8264849483966827e-01" purity="7.0055258274078369e-01" nType="-99"/>
          </Node>
        </Node>
        <Node pos="r" depth="1" NCoef="0" IVar="1" Cut="1.6686822509765625e+03" cType="1" res="-7.5070192106068134e-03" rms="2.1760259568691254e-01" purity="2.9768657684326172e-01" nType="0">
          <Node pos="l" depth="2" NCoef="0" IVar="5" Cut="1.4234968566894531e+02" cType="1" res="7.5120301917195320e-03" rms="1.4031018316745758e-01" purity="2.4368608370423317e-02" nType="0">
            <Node pos="l" depth="3" NCoef="0" IVar="-1" Cut="0.0000000000000000e+00" cType="1" res="-4.0270951576530933e-03" rms="8.0025330185890198e-02" purity="6.3857976347208023e-03" nType="-99"/>
            <Node pos="r" depth="3" NCoef="0" IVar="-1" Cut="0.0000000000000000e+00" cType="1" res="6.3342712819576263e-02" rms="1.8316709995269775e-01" purity="4.3314162641763687e-02" nType="-99"/>
          </Node>
          <Node pos="r" depth="2" NCoef="0" IVar="7" Cut="-9.8800202831625938e-03" cType="1" res="-2.0822856575250626e-02" rms="2.6739549636840820e-01" purity="5.4000931978225708e-01" nType="0">
            <Node pos="l" depth="3" NCoef="0" IVar="-1" Cut="0.0000000000000000e+00" cType="1" res="-6.5236710943281651e-03" rms="2.7859717607498169e-01" purity="5.4487383365631104e-01" nType="-99"/>
            <Node pos="r" depth="3" NCoef="0" IVar="-1" Cut="0.0000000000000000e+00" cType="1" res="-5.1069416105747223e-02" rms="2.5474119186401367e-01" purity="5.3516107797622681e-01" nType="-99"/>
          </Node>
        </Node>
      </Node>
    </BinaryTree>
    <BinaryTree type="DecisionTree" boostWeight="1.0000000000000000e+00" itree="268">
      <Node pos="s" depth="0" NCoef="0" IVar="0" Cut="4.4713140869140625e+02" cType="1" res="7.6865381561219692e-04" rms="1.8708272278308868e-01" purity="5.0461620092391968e-01" nType="0">
        <Node pos="l" depth="1" NCoef="0" IVar="1" Cut="1.7436115722656250e+03" cType="1" res="-4.7714402899146080e-03" rms="1.3812179863452911e-01" purity="2.6683293282985687e-02" nType="0">
          <Node pos="l" depth="2" NCoef="0" IVar="5" Cut="2.1114245605468750e+02" cType="1" res="-2.9470585286617279e-03" rms="9.3791931867599487e-02" purity="9.3923015519976616e-03" nType="0">
            <Node pos="l" depth="3" NCoef="0" IVar="-1" Cut="0.0000000000000000e+00" cType="1" res="-3.7705237045884132e-03" rms="8.5779555141925812e-02" purity="7.8383879736065865e-03" nType="-99"/>
            <Node pos="r" depth="3" NCoef="0" IVar="-1" Cut="0.0000000000000000e+00" cType="1" res="-4.7099880874156952e-02" rms="1.1426014453172684e-01" purity="1.4083542861044407e-02" nType="-99"/>
          </Node>
          <Node pos="r" depth="2" NCoef="0" IVar="-1" Cut="0.0000000000000000e+00" cType="1" res="-1.6648715361952782e-02" rms="2.6668199896812439e-01" purity="1.1438390612602234e-01" nType="-99"/>
        </Node>
        <Node pos="r" depth="1" NCoef="0" IVar="8" Cut="-1.1989474296569824e+00" cType="1" res="2.3284018971025944e-03" rms="1.9867461919784546e-01" purity="6.3917255401611328e-01" nType="0">
          <Node pos="l" depth="2" NCoef="0" IVar="1" Cut="2.0839194335937500e+03" cType="1" res="-9.9232820793986320e-03" rms="2.2900840640068054e-01" purity="4.2397069931030273e-01" nType="0">
            <Node pos="l" depth="3" NCoef="0" IVar="-1" Cut="0.0000000000000000e+00" cType="1" res="-1.1992398649454117e-02" rms="1.8976689875125885e-01" purity="6.3283935189247131e-02" nType="-99"/>
            <Node pos="r" depth="3" NCoef="0" IVar="-1" Cut="0.0000000000000000e+00" cType="1" res="-2.5075593963265419e-02" rms="2.6700878143310547e-01" purity="8.3893829584121704e-01" nType="-99"/>
          </Node>
          <Node pos="r" depth="2" NCoef="0" IVar="0" Cut="8.6748730468750000e+02" cType="1" res="3.6206243094056845e-03" rms="1.9515578448772430e-01" purity="6.6187059879302979e-01" nType="0">
            <Node pos="l" depth="3" NCoef="0" IVar="-1" Cut="0.0000000000000000e+00" cType="1" res="1.5105684287846088e-02" rms="2.3186779022216797e-01" purity="4.1055729985237122e-01" nType="-99"/>
            <Node pos="r" depth="3" NCoef="0" IVar="-1" Cut="0.0000000000000000e+00" cType="1" res="-6.1664986424148083e-03" rms="1.4314888417720795e-01" purity="9.4317173957824707e-01" nType="-99"/>
          </Node>
        </Node>
      </Node>
    </BinaryTree>
    <BinaryTree type="DecisionTree" boostWeight="1.0000000000000000e+00" itree="269">
      <Node pos="s" depth="0" NCoef="0" IVar="3" Cut="5.0089886474609375e+02" cType="1" res="-1.4745194930583239e-03" rms="1.8673714995384216e-01" purity="4.9722036719322205e-01" nType="0">
        <Node pos="l" depth="1" NCoef="0" IVar="7" Cut="-1.3521656990051270e+00" cType="1" res="-6.8895998410880566e-03" rms="1.8657128512859344e-01" purity="9.3605808913707733e-02" nType="0">
          <Node pos="l" depth="2" NCoef="0" IVar="-1" Cut="0.0000000000000000e+00" cType="1" res="4.0255464613437653e-02" rms="1.8837444484233856e-01" purity="9.0623326599597931e-02" nType="-99"/>
          <Node pos="r" depth="2" NCoef="0" IVar="5" Cut="1.5293258666992188e+02" cType="1" res="-9.5163527876138687e-03" rms="1.8617117404937744e-01" purity="9.4006940722465515e-02" nType="0">
            <Node pos="l" depth="3" NCoef="0" IVar="-1" Cut="0.0000000000000000e+00" cType="1" res="-1.0033895261585712e-02" rms="1.0564462095499039e-01" purity="1.4053036458790302e-02" nType="-99"/>
            <Node pos="r" depth="3" NCoef="0" IVar="-1" Cut="0.0000000000000000e+00" cType="1" res="-2.4604655802249908e-02" rms="2.1517455577850342e-01" purity="1.3378334045410156e-01" nType="-99"/>
          </Node>
        </Node>
        <Node pos="r" depth="1" NCoef="0" IVar="9" Cut="-1.4661930799484253e+00" cType="1" res="1.6872923879418522e-04" rms="1.8675640225410461e-01" purity="6.1970037221908569e-01" nType="0">
          <Node pos="l" depth="2" NCoef="0" IVar="1" Cut="2.1754611816406250e+03" cType="1" res="9.0381195768713951e-03" rms="2.3834858834743500e-01" purity="4.4819596409797668e-01" nType="0">
            <Node pos="l" depth="3" NCoef="0" IVar="-1" Cut="0.0000000000000000e+00" cType="1" res="5.1298785954713821e-02" rms="2.2894813120365143e-01" purity="7.8172944486141205e-02" nType="-99"/>
            <Node pos="r" depth="3" NCoef="0" IVar="-1" Cut="0.0000000000000000e+00" cType="1" res="-7.4488883838057518e-03" rms="2.4827985465526581e-01" purity="8.8251084089279175e-01" nType="-99"/>
          </Node>
          <Node pos="r" depth="2" NCoef="0" IVar="10" Cut="-1.3333058357238770e-01" cType="1" res="-6.5672106575220823e-04" rms="1.8118718266487122e-01" purity="6.3566184043884277e-01" nType="0">
            <Node pos="l" depth="3" NCoef="0" IVar="-1" Cut="0.0000000000000000e+00" cType="1" res="-8.5816532373428345e-03" rms="1.8204855918884277e-01" purity="6.3074958324432373e-01" nType="-99"/>
            <Node pos="r" depth="3" NCoef="0" IVar="-1" Cut="0.0000000000000000e+00" cType="1" res="3.2207749318331480e-03" rms="1.8048112094402313e-01" purity="6.3956290483474731e-01" nType="-99"/>
          </Node>
        </Node>
      </Node>
    </BinaryTree>
    <BinaryTree type="DecisionTree" boostWeight="1.0000000000000000e+00" itree="270">
      <Node pos="s" depth="0" NCoef="0" IVar="9" Cut="-1.7332010269165039e+00" cType="1" res="-4.3252737668808550e-05" rms="1.9043740630149841e-01" purity="5.0247156620025635e-01" nType="0">
        <Node pos="l" depth="1" NCoef="0" IVar="5" Cut="1.6296087646484375e+02" cType="1" res="-1.2395409867167473e-02" rms="2.1938171982765198e-01" purity="2.7398318052291870e-01" nType="0">
          <Node pos="l" depth="2" NCoef="0" IVar="-1" Cut="0.0000000000000000e+00" cType="1" res="-2.3116979282349348e-03" rms="1.8469025194644928e-01" purity="1.0644533485174179e-01" nType="-99"/>
          <Node pos="r" depth="2" NCoef="0" IVar="-1" Cut="0.0000000000000000e+00" cType="1" res="-3.9156433194875717e-02" rms="2.4714680016040802e-01" purity="4.3171980977058411e-01" nType="-99"/>
        </Node>
        <Node pos="r" depth="1" NCoef="0" IVar="1" Cut="1.9525891113281250e+03" cType="1" res="7.0340977981686592e-04" rms="1.8851947784423828e-01" purity="5.1628321409225464e-01" nType="0">
          <Node pos="l" depth="2" NCoef="0" IVar="1" Cut="1.6631414794921875e+03" cType="1" res="3.0411174520850182e-03" rms="1.5965114533901215e-01" purity="3.4065689891576767e-02" nType="0">
            <Node pos="l" depth="3" NCoef="0" IVar="-1" Cut="0.0000000000000000e+00" cType="1" res="-1.7182471230626106e-02" rms="9.0096749365329742e-02" purity="9.1123022139072418e-03" nType="-99"/>
            <Node pos="r" depth="3" NCoef="0" IVar="-1" Cut="0.0000000000000000e+00" cType="1" res="2.4271227419376373e-02" rms="2.5526857376098633e-01" purity="9.1306589543819427e-02" nType="-99"/>
          </Node>
          <Node pos="r" depth="2" NCoef="0" IVar="5" Cut="2.0849307250976562e+02" cType="1" res="-1.0340033331885934e-03" rms="2.0737072825431824e-01" purity="8.7467324733734131e-01" nType="0">
            <Node pos="l" depth="3" NCoef="0" IVar="-1" Cut="0.0000000000000000e+00" cType="1" res="-1.0031734593212605e-02" rms="3.1519505381584167e-01" purity="5.1646524667739868e-01" nType="-99"/>
            <Node pos="r" depth="3" NCoef="0" IVar="-1" Cut="0.0000000000000000e+00" cType="1" res="1.7717129085212946e-03" rms="1.8246671557426453e-01" purity="9.3627917766571045e-01" nType="-99"/>
          </Node>
        </Node>
      </Node>
    </BinaryTree>
    <BinaryTree type="DecisionTree" boostWeight="1.0000000000000000e+00" itree="271">
      <Node pos="s" depth="0" NCoef="0" IVar="9" Cut="-1.7333130836486816e+00" cType="1" res="3.7226165295578539e-04" rms="1.8827368319034576e-01" purity="4.9823883175849915e-01" nType="0">
        <Node pos="l" depth="1" NCoef="0" IVar="9" Cut="-1.9872779846191406e+00" cType="1" res="1.2342285364866257e-02" rms="2.3459953069686890e-01" purity="3.0523234605789185e-01" nType="0">
          <Node pos="l" depth="2" NCoef="0" IVar="-1" Cut="0.0000000000000000e+00" cType="1" res="2.5306243915110826e-03" rms="2.4209000170230865e-01" purity="2.0007583498954773e-01" nType="-99"/>
          <Node pos="r" depth="2" NCoef="0" IVar="-1" Cut="0.0000000000000000e+00" cType="1" res="5.2320804446935654e-02" rms="2.2431145608425140e-01" purity="4.3424186110496521e-01" nType="-99"/>
        </Node>
        <Node pos="r" depth="1" NCoef="0" IVar="9" Cut="1.2887028455734253e+00" cType="1" res="-3.8054079050198197e-04" rms="1.8494696915149689e-01" purity="5.1037704944610596e-01" nType="0">
          <Node pos="l" depth="2" NCoef="0" IVar="10" Cut="-1.1999685764312744e+00" cType="1" res="-1.5770063037052751e-03" rms="1.7944410443305969e-01" purity="5.2784711122512817e-01" nType="0">
            <Node pos="l" depth="3" NCoef="0" IVar="-1" Cut="0.0000000000000000e+00" cType="1" res="1.2486751191318035e-02" rms="2.0903719961643219e-01" purity="4.7505456209182739e-01" nType="-99"/>
            <Node pos="r" depth="3" NCoef="0" IVar="-1" Cut="0.0000000000000000e+00" cType="1" res="-9.4680776819586754e-03" rms="1.7268741130828857e-01" purity="5.3871965408325195e-01" nType="-99"/>
          </Node>
          <Node pos="r" depth="2" NCoef="0" IVar="6" Cut="1.3485919189453125e+02" cType="1" res="7.2971140034496784e-03" rms="2.1680508553981781e-01" purity="3.9827272295951843e-01" nType="0">
            <Node pos="l" depth="3" NCoef="0" IVar="-1" Cut="0.0000000000000000e+00" cType="1" res="-2.7176802977919579e-03" rms="2.0310106873512268e-01" purity="1.9333429634571075e-01" nType="-99"/>
            <Node pos="r" depth="3" NCoef="0" IVar="-1" Cut="0.0000000000000000e+00" cType="1" res="3.9384730160236359e-02" rms="2.3662643134593964e-01" purity="7.2936159372329712e-01" nType="-99"/>
          </Node>
        </Node>
      </Node>
    </BinaryTree>
    <BinaryTree type="DecisionTree" boostWeight="1.0000000000000000e+00" itree="272">
      <Node pos="s" depth="0" NCoef="0" IVar="8" Cut="-1.1999629735946655e+00" cType="1" res="7.5231288792565465e-04" rms="1.8668840825557709e-01" purity="5.0491821765899658e-01" nType="0">
        <Node pos="l" depth="1" NCoef="0" IVar="6" Cut="1.3414117431640625e+02" cType="1" res="9.6482830122113228e-03" rms="2.1790578961372375e-01" purity="3.0079051852226257e-01" nType="0">
          <Node pos="l" depth="2" NCoef="0" IVar="9" Cut="1.3404084742069244e-01" cType="1" res="-8.0995884491130710e-04" rms="1.8668238818645477e-01" purity="1.1388327926397324e-01" nType="0">
            <Node pos="l" depth="3" NCoef="0" IVar="-1" Cut="0.0000000000000000e+00" cType="1" res="-1.9736248999834061e-02" rms="1.6877777874469757e-01" purity="9.7199216485023499e-02" nType="-99"/>
            <Node pos="r" depth="3" NCoef="0" IVar="-1" Cut="0.0000000000000000e+00" cType="1" res="1.4270599931478500e-02" rms="2.0777094364166260e-01" purity="1.3591505587100983e-01" nType="-99"/>
          </Node>
          <Node pos="r" depth="2" NCoef="0" IVar="-1" Cut="0.0000000000000000e+00" cType="1" res="4.5402236282825470e-02" rms="2.6465106010437012e-01" purity="6.4292305707931519e-01" nType="-99"/>
        </Node>
        <Node pos="r" depth="1" NCoef="0" IVar="10" Cut="6.6663634777069092e-01" cType="1" res="-3.8392713759094477e-04" rms="1.8228533864021301e-01" purity="5.3099048137664795e-01" nType="0">
          <Node pos="l" depth="2" NCoef="0" IVar="7" Cut="-3.5636726021766663e-01" cType="1" res="1.5213920269161463e-03" rms="1.8078233301639557e-01" purity="5.4004704952239990e-01" nType="0">
            <Node pos="l" depth="3" NCoef="0" IVar="-1" Cut="0.0000000000000000e+00" cType="1" res="1.5227074734866619e-02" rms="1.8933190405368805e-01" purity="4.5980894565582275e-01" nType="-99"/>
            <Node pos="r" depth="3" NCoef="0" IVar="-1" Cut="0.0000000000000000e+00" cType="1" res="-1.5097768045961857e-03" rms="1.7631103098392487e-01" purity="5.8022588491439819e-01" nType="-99"/>
          </Node>
          <Node pos="r" depth="2" NCoef="0" IVar="3" Cut="7.3422619628906250e+02" cType="1" res="-4.7591794282197952e-03" rms="1.8561668694019318e-01" purity="5.1019376516342163e-01" nType="0">
            <Node pos="l" depth="3" NCoef="0" IVar="-1" Cut="0.0000000000000000e+00" cType="1" res="-2.5676976889371872e-02" rms="1.8628038465976715e-01" purity="2.6971974968910217e-01" nType="-99"/>
            <Node pos="r" depth="3" NCoef="0" IVar="-1" Cut="0.0000000000000000e+00" cType="1" res="9.9794045090675354e-03" rms="1.8436671793460846e-01" purity="8.5386520624160767e-01" nType="-99"/>
          </Node>
        </Node>
      </Node>
    </BinaryTree>
    <BinaryTree type="DecisionTree" boostWeight="1.0000000000000000e+00" itree="273">
      <Node pos="s" depth="0" NCoef="0" IVar="7" Cut="9.6843236684799194e-01" cType="1" res="1.6623506962787360e-04" rms="1.9189058244228363e-01" purity="4.9754998087882996e-01" nType="0">
        <Node pos="l" depth="1" NCoef="0" IVar="1" Cut="1.9525828857421875e+03" cType="1" res="-9.9122594110667706e-04" rms="1.8867057561874390e-01" purity="5.3220993280410767e-01" nType="0">
          <Node pos="l" depth="2" NCoef="0" IVar="1" Cut="1.7946807861328125e+03" cType="1" res="2.9473439790308475e-03" rms="1.6166029870510101e-01" purity="3.3357091248035431e-02" nType="0">
            <Node pos="l" depth="3" NCoef="0" IVar="-1" Cut="0.0000000000000000e+00" cType="1" res="2.5658949743956327e-04" rms="1.2434714287519455e-01" purity="1.7701357603073120e-02" nType="-99"/>
            <Node pos="r" depth="3" NCoef="0" IVar="-1" Cut="0.0000000000000000e+00" cType="1" res="2.7111778035759926e-02" rms="3.0847695469856262e-01" purity="1.3522164523601532e-01" nType="-99"/>
          </Node>
          <Node pos="r" depth="2" NCoef="0" IVar="1" Cut="2.4525373535156250e+03" cType="1" res="-3.7146890535950661e-03" rms="2.0523558557033539e-01" purity="8.7715923786163330e-01" nType="0">
            <Node pos="l" depth="3" NCoef="0" IVar="-1" Cut="0.0000000000000000e+00" cType="1" res="-1.6543075442314148e-02" rms="3.7217798829078674e-01" purity="4.2932203412055969e-01" nType="-99"/>
            <Node pos="r" depth="3" NCoef="0" IVar="-1" Cut="0.0000000000000000e+00" cType="1" res="1.1942288838326931e-03" rms="1.5063570439815521e-01" purity="9.6698915958404541e-01" nType="-99"/>
          </Node>
        </Node>
        <Node pos="r" depth="1" NCoef="0" IVar="5" Cut="2.1900167846679688e+02" cType="1" res="8.2523534074425697e-03" rms="2.1285694837570190e-01" purity="2.5541314482688904e-01" nType="0">
          <Node pos="l" depth="2" NCoef="0" IVar="4" Cut="3.2122082519531250e+02" cType="1" res="-6.5061455825343728e-04" rms="1.6875018179416656e-01" purity="5.5205557495355606e-02" nType="0">
            <Node pos="l" depth="3" NCoef="0" IVar="-1" Cut="0.0000000000000000e+00" cType="1" res="-2.8341365978121758e-02" rms="1.2696360051631927e-01" purity="2.2027509286999702e-02" nType="-99"/>
            <Node pos="r" depth="3" NCoef="0" IVar="-1" Cut="0.0000000000000000e+00" cType="1" res="2.3091495037078857e-02" rms="2.3398964107036591e-01" purity="1.2620373070240021e-01" nType="-99"/>
          </Node>
          <Node pos="r" depth="2" NCoef="0" IVar="-1" Cut="0.0000000000000000e+00" cType="1" res="3.6307029426097870e-02" rms="2.7388015389442444e-01" purity="6.1341774463653564e-01" nType="-99"/>
        </Node>
      </Node>
    </BinaryTree>
    <BinaryTree type="DecisionTree" boostWeight="1.0000000000000000e+00" itree="274">
      <Node pos="s" depth="0" NCoef="0" IVar="10" Cut="-1.3335518538951874e-01" cType="1" res="3.9138874853961170e-04" rms="1.9017603993415833e-01" purity="4.9758195877075195e-01" nType="0">
        <Node pos="l" depth="1" NCoef="0" IVar="4" Cut="4.1980609130859375e+02" cType="1" res="3.7578805349767208e-03" rms="1.9384090602397919e-01" purity="4.9845719337463379e-01" nType="0">
          <Node pos="l" depth="2" NCoef="0" IVar="5" Cut="2.0806814575195312e+02" cType="1" res="7.5018415227532387e-03" rms="2.1075181663036346e-01" purity="1.8771772086620331e-01" nType="0">
            <Node pos="l" depth="3" NCoef="0" IVar="-1" Cut="0.0000000000000000e+00" cType="1" res="2.0507513545453548e-03" rms="1.6490271687507629e-01" purity="6.2940791249275208e-02" nType="-99"/>
            <Node pos="r" depth="3" NCoef="0" IVar="-1" Cut="0.0000000000000000e+00" cType="1" res="2.8907094150781631e-02" rms="2.8479501605033875e-01" purity="4.5588716864585876e-01" nType="-99"/>
          </Node>
          <Node pos="r" depth="2" NCoef="0" IVar="6" Cut="1.1959784698486328e+02" cType="1" res="-5.9302046429365873e-04" rms="1.7201124131679535e-01" purity="8.5957121849060059e-01" nType="0">
            <Node pos="l" depth="3" NCoef="0" IVar="-1" Cut="0.0000000000000000e+00" cType="1" res="-1.2194287031888962e-02" rms="2.4104745686054230e-01" purity="5.6825256347656250e-01" nType="-99"/>
            <Node pos="r" depth="3" NCoef="0" IVar="-1" Cut="0.0000000000000000e+00" cType="1" res="7.9987198114395142e-03" rms="1.4084465801715851e-01" purity="9.5898926258087158e-01" nType="-99"/>
          </Node>
        </Node>
        <Node pos="r" depth="1" NCoef="0" IVar="9" Cut="9.3341064453125000e-01" cType="1" res="-2.4677827022969723e-03" rms="1.8695947527885437e-01" purity="4.9683856964111328e-01" nType="0">
          <Node pos="l" depth="2" NCoef="0" IVar="0" Cut="5.9425018310546875e+02" cType="1" res="-4.4184057042002678e-03" rms="1.7977902293205261e-01" purity="5.2758383750915527e-01" nType="0">
            <Node pos="l" depth="3" NCoef="0" IVar="-1" Cut="0.0000000000000000e+00" cType="1" res="-2.5009278208017349e-02" rms="1.8167594075202942e-01" purity="9.3611963093280792e-02" nType="-99"/>
            <Node pos="r" depth="3" NCoef="0" IVar="-1" Cut="0.0000000000000000e+00" cType="1" res="-3.7995902821421623e-03" rms="1.7856334149837494e-01" purity="7.8539019823074341e-01" nType="-99"/>
          </Node>
          <Node pos="r" depth="2" NCoef="0" IVar="6" Cut="8.5095108032226562e+01" cType="1" res="4.5080869458615780e-03" rms="2.1049708127975464e-01" purity="3.8688644766807556e-01" nType="0">
            <Node pos="l" depth="3" NCoef="0" IVar="-1" Cut="0.0000000000000000e+00" cType="1" res="5.7966265827417374e-02" rms="2.1319447457790375e-01" purity="1.4424081146717072e-01" nType="-99"/>
            <Node pos="r" depth="3" NCoef="0" IVar="-1" Cut="0.0000000000000000e+00" cType="1" res="-7.9623758792877197e-03" rms="2.0861089229583740e-01" purity="5.1334881782531738e-01" nType="-99"/>
          </Node>
        </Node>
      </Node>
    </BinaryTree>
    <BinaryTree type="DecisionTree" boostWeight="1.0000000000000000e+00" itree="275">
      <Node pos="s" depth="0" NCoef="0" IVar="10" Cut="-1.9998904466629028e+00" cType="1" res="-1.8800099496729672e-04" rms="1.8933673202991486e-01" purity="4.9656817317008972e-01" nType="0">
        <Node pos="l" depth="1" NCoef="0" IVar="-1" Cut="0.0000000000000000e+00" cType="1" res="-3.5884354263544083e-02" rms="2.1071590483188629e-01" purity="3.5691908001899719e-01" nType="-99"/>
        <Node pos="r" depth="1" NCoef="0" IVar="9" Cut="-1.9999409914016724e+00" cType="1" res="7.3534477269276977e-04" rms="1.8815855681896210e-01" purity="5.0353723764419556e-01" nType="0">
          <Node pos="l" depth="2" NCoef="0" IVar="-1" Cut="0.0000000000000000e+00" cType="1" res="-4.3683342635631561e-02" rms="2.0388013124465942e-01" purity="2.0666070282459259e-01" nType="-99"/>
          <Node pos="r" depth="2" NCoef="0" IVar="7" Cut="-5.9815162420272827e-01" cType="1" res="1.4109256444498897e-03" rms="1.8759623169898987e-01" purity="5.1300328969955444e-01" nType="0">
            <Node pos="l" depth="3" NCoef="0" IVar="-1" Cut="0.0000000000000000e+00" cType="1" res="-1.2609877623617649e-02" rms="1.9369763135910034e-01" purity="3.6706539988517761e-01" nType="-99"/>
            <Node pos="r" depth="3" NCoef="0" IVar="-1" Cut="0.0000000000000000e+00" cType="1" res="9.3146516010165215e-03" rms="1.8570929765701294e-01" purity="5.5629432201385498e-01" nType="-99"/>
          </Node>
        </Node>
      </Node>
    </BinaryTree>
    <BinaryTree type="DecisionTree" boostWeight="1.0000000000000000e+00" itree="276">
      <Node pos="s" depth="0" NCoef="0" IVar="9" Cut="1.4665912389755249e+00" cType="1" res="-8.6424442997667938e-05" rms="1.8841870129108429e-01" purity="4.9528464674949646e-01" nType="0">
        <Node pos="l" depth="1" NCoef="0" IVar="9" Cut="1.2633986473083496e+00" cType="1" res="9.2971744015812874e-04" rms="1.8606296181678772e-01" purity="5.1087301969528198e-01" nType="0">
          <Node pos="l" depth="2" NCoef="0" IVar="3" Cut="4.9896038818359375e+02" cType="1" res="2.6038495707325637e-04" rms="1.8491202592849731e-01" purity="5.1255720853805542e-01" nType="0">
            <Node pos="l" depth="3" NCoef="0" IVar="-1" Cut="0.0000000000000000e+00" cType="1" res="1.4810424298048019e-02" rms="2.0234116911888123e-01" purity="1.0688412189483643e-01" nType="-99"/>
            <Node pos="r" depth="3" NCoef="0" IVar="-1" Cut="0.0000000000000000e+00" cType="1" res="-3.9104348979890347e-03" rms="1.7958490550518036e-01" purity="6.2860196828842163e-01" nType="-99"/>
          </Node>
          <Node pos="r" depth="2" NCoef="0" IVar="-1" Cut="0.0000000000000000e+00" cType="1" res="3.7794783711433411e-02" rms="2.1055021882057190e-01" purity="4.7155991196632385e-01" nType="-99"/>
        </Node>
        <Node pos="r" depth="1" NCoef="0" IVar="3" Cut="6.2063378906250000e+02" cType="1" res="-9.9728507921099663e-03" rms="2.0970673859119415e-01" purity="3.4361988306045532e-01" nType="0">
          <Node pos="l" depth="2" NCoef="0" IVar="-1" Cut="0.0000000000000000e+00" cType="1" res="-4.1140083223581314e-02" rms="2.0302133262157440e-01" purity="1.2746115028858185e-01" nType="-99"/>
          <Node pos="r" depth="2" NCoef="0" IVar="-1" Cut="0.0000000000000000e+00" cType="1" res="1.3807936338707805e-03" rms="2.1619971096515656e-01" purity="5.7750147581100464e-01" nType="-99"/>
        </Node>
      </Node>
    </BinaryTree>
    <BinaryTree type="DecisionTree" boostWeight="1.0000000000000000e+00" itree="277">
      <Node pos="s" depth="0" NCoef="0" IVar="10" Cut="1.9999899864196777e+00" cType="1" res="4.7041862853802741e-04" rms="1.9213625788688660e-01" purity="4.9671536684036255e-01" nType="0">
        <Node pos="l" depth="1" NCoef="0" IVar="10" Cut="1.3142746686935425e+00" cType="1" res="1.3615132775157690e-03" rms="1.9133622944355011e-01" purity="5.0459182262420654e-01" nType="0">
          <Node pos="l" depth="2" NCoef="0" IVar="10" Cut="-1.6243917942047119e+00" cType="1" res="-8.0575373431202024e-05" rms="1.8766802549362183e-01" purity="5.0639778375625610e-01" nType="0">
            <Node pos="l" depth="3" NCoef="0" IVar="-1" Cut="0.0000000000000000e+00" cType="1" res="1.9295660778880119e-02" rms="2.3771280050277710e-01" purity="4.2065432667732239e-01" nType="-99"/>
            <Node pos="r" depth="3" NCoef="0" IVar="-1" Cut="0.0000000000000000e+00" cType="1" res="-3.9945696480572224e-03" rms="1.8042279779911041e-01" purity="5.1708090305328369e-01" nType="-99"/>
          </Node>
          <Node pos="r" depth="2" NCoef="0" IVar="3" Cut="6.7860284423828125e+02" cType="1" res="1.3662799261510372e-02" rms="2.1977202594280243e-01" purity="4.8918616771697998e-01" nType="0">
            <Node pos="l" depth="3" NCoef="0" IVar="-1" Cut="0.0000000000000000e+00" cType="1" res="-4.4251144863665104e-03" rms="2.0423817634582520e-01" purity="2.2655835747718811e-01" nType="-99"/>
            <Node pos="r" depth="3" NCoef="0" IVar="-1" Cut="0.0000000000000000e+00" cType="1" res="7.6620310544967651e-02" rms="2.3490390181541443e-01" purity="7.8729087114334106e-01" nType="-99"/>
          </Node>
        </Node>
        <Node pos="r" depth="1" NCoef="0" IVar="-1" Cut="0.0000000000000000e+00" cType="1" res="-3.3832721412181854e-02" rms="2.0601233839988708e-01" purity="3.4713467955589294e-01" nType="-99"/>
      </Node>
    </BinaryTree>
    <BinaryTree type="DecisionTree" boostWeight="1.0000000000000000e+00" itree="278">
      <Node pos="s" depth="0" NCoef="0" IVar="10" Cut="-1.9999672174453735e+00" cType="1" res="-2.6038411306217313e-04" rms="1.8896514177322388e-01" purity="5.0167328119277954e-01" nType="0">
        <Node pos="l" depth="1" NCoef="0" IVar="-1" Cut="0.0000000000000000e+00" cType="1" res="2.6037685573101044e-02" rms="2.5503987073898315e-01" purity="3.7906089425086975e-01" nType="-99"/>
        <Node pos="r" depth="1" NCoef="0" IVar="10" Cut="-1.5428208112716675e+00" cType="1" res="-1.0037246393039823e-03" rms="1.8485541641712189e-01" purity="5.0804722309112549e-01" nType="0">
          <Node pos="l" depth="2" NCoef="0" IVar="1" Cut="1.9482160644531250e+03" cType="1" res="-1.1592548340559006e-02" rms="1.9630920886993408e-01" purity="4.6012094616889954e-01" nType="0">
            <Node pos="l" depth="3" NCoef="0" IVar="-1" Cut="0.0000000000000000e+00" cType="1" res="-5.6434698402881622e-02" rms="1.5214067697525024e-01" purity="2.8658093884587288e-02" nType="-99"/>
            <Node pos="r" depth="3" NCoef="0" IVar="-1" Cut="0.0000000000000000e+00" cType="1" res="-7.9089542850852013e-03" rms="2.2948013246059418e-01" purity="8.5933589935302734e-01" nType="-99"/>
          </Node>
          <Node pos="r" depth="2" NCoef="0" IVar="9" Cut="1.9998755455017090e+00" cType="1" res="-3.1356609542854130e-04" rms="1.8406300246715546e-01" purity="5.1117104291915894e-01" nType="0">
            <Node pos="l" depth="3" NCoef="0" IVar="-1" Cut="0.0000000000000000e+00" cType="1" res="5.5067328503355384e-04" rms="1.8317651748657227e-01" purity="5.2087181806564331e-01" nType="-99"/>
            <Node pos="r" depth="3" NCoef="0" IVar="-1" Cut="0.0000000000000000e+00" cType="1" res="-3.3241145312786102e-02" rms="2.0883975923061371e-01" purity="2.1377347409725189e-01" nType="-99"/>
          </Node>
        </Node>
      </Node>
    </BinaryTree>
    <BinaryTree type="DecisionTree" boostWeight="1.0000000000000000e+00" itree="279">
      <Node pos="s" depth="0" NCoef="0" IVar="8" Cut="1.7333167791366577e+00" cType="1" res="1.7188875935971737e-03" rms="1.8777722120285034e-01" purity="5.0019484758377075e-01" nType="0">
        <Node pos="l" depth="1" NCoef="0" IVar="9" Cut="1.7332204580307007e+00" cType="1" res="9.4369013095274568e-04" rms="1.8442289531230927e-01" purity="5.1475673913955688e-01" nType="0">
          <Node pos="l" depth="2" NCoef="0" IVar="1" Cut="2.2244404296875000e+03" cType="1" res="2.8927100356668234e-04" rms="1.8020209670066833e-01" purity="5.2607917785644531e-01" nType="0">
            <Node pos="l" depth="3" NCoef="0" IVar="-1" Cut="0.0000000000000000e+00" cType="1" res="-8.9072594419121742e-03" rms="1.8613570928573608e-01" purity="5.7597957551479340e-02" nType="-99"/>
            <Node pos="r" depth="3" NCoef="0" IVar="-1" Cut="0.0000000000000000e+00" cType="1" res="1.0458309203386307e-02" rms="1.7468756437301636e-01" purity="9.4333535432815552e-01" nType="-99"/>
          </Node>
          <Node pos="r" depth="2" NCoef="0" IVar="3" Cut="5.9391107177734375e+02" cType="1" res="1.2138025835156441e-02" rms="2.4536718428134918e-01" purity="3.2107663154602051e-01" nType="0">
            <Node pos="l" depth="3" NCoef="0" IVar="-1" Cut="0.0000000000000000e+00" cType="1" res="4.6617351472377777e-02" rms="2.5497508049011230e-01" purity="1.4890871942043304e-01" nType="-99"/>
            <Node pos="r" depth="3" NCoef="0" IVar="-1" Cut="0.0000000000000000e+00" cType="1" res="-2.4021530989557505e-03" rms="2.3403444886207581e-01" purity="5.0302934646606445e-01" nType="-99"/>
          </Node>
        </Node>
        <Node pos="r" depth="1" NCoef="0" IVar="-1" Cut="0.0000000000000000e+00" cType="1" res="4.0971692651510239e-02" rms="2.4868620932102203e-01" purity="1.8672099709510803e-01" nType="-99"/>
      </Node>
    </BinaryTree>
    <BinaryTree type="DecisionTree" boostWeight="1.0000000000000000e+00" itree="280">
      <Node pos="s" depth="0" NCoef="0" IVar="7" Cut="9.3856668472290039e-01" cType="1" res="3.0288225389085710e-04" rms="1.8937686085700989e-01" purity="5.0296115875244141e-01" nType="0">
        <Node pos="l" depth="1" NCoef="0" IVar="8" Cut="9.3345355987548828e-01" cType="1" res="-1.2959407176822424e-03" rms="1.8352819979190826e-01" purity="5.3848052024841309e-01" nType="0">
          <Node pos="l" depth="2" NCoef="0" IVar="0" Cut="4.4712454223632812e+02" cType="1" res="2.9339073807932436e-04" rms="1.8058592081069946e-01" purity="5.7162624597549438e-01" nType="0">
            <Node pos="l" depth="3" NCoef="0" IVar="-1" Cut="0.0000000000000000e+00" cType="1" res="3.4818615764379501e-02" rms="1.6116335988044739e-01" purity="3.9960179477930069e-02" nType="-99"/>
            <Node pos="r" depth="3" NCoef="0" IVar="-1" Cut="0.0000000000000000e+00" cType="1" res="-4.0149334818124771e-03" rms="1.8470327556133270e-01" purity="6.9341242313385010e-01" nType="-99"/>
          </Node>
          <Node pos="r" depth="2" NCoef="0" IVar="9" Cut="9.3345659971237183e-01" cType="1" res="-8.9023802429437637e-03" rms="1.9682472944259644e-01" purity="3.7984699010848999e-01" nType="0">
            <Node pos="l" depth="3" NCoef="0" IVar="-1" Cut="0.0000000000000000e+00" cType="1" res="-1.2385683134198189e-02" rms="2.0095247030258179e-01" purity="4.1537353396415710e-01" nType="-99"/>
            <Node pos="r" depth="3" NCoef="0" IVar="-1" Cut="0.0000000000000000e+00" cType="1" res="-5.2978541702032089e-02" rms="1.8210446834564209e-01" purity="2.6344946026802063e-01" nType="-99"/>
          </Node>
        </Node>
        <Node pos="r" depth="1" NCoef="0" IVar="2" Cut="2.4995638057589531e-02" cType="1" res="1.0865922085940838e-02" rms="2.2392952442169189e-01" purity="2.6829293370246887e-01" nType="0">
          <Node pos="l" depth="2" NCoef="0" IVar="3" Cut="5.5323767089843750e+02" cType="1" res="3.2218426931649446e-03" rms="1.9556157290935516e-01" purity="1.4949269592761993e-01" nType="0">
            <Node pos="l" depth="3" NCoef="0" IVar="-1" Cut="0.0000000000000000e+00" cType="1" res="-3.7901483476161957e-02" rms="1.4729502797126770e-01" purity="4.6517696231603622e-02" nType="-99"/>
            <Node pos="r" depth="3" NCoef="0" IVar="-1" Cut="0.0000000000000000e+00" cType="1" res="4.0379483252763748e-02" rms="2.2800664603710175e-01" purity="2.3726092278957367e-01" nType="-99"/>
          </Node>
          <Node pos="r" depth="2" NCoef="0" IVar="-1" Cut="0.0000000000000000e+00" cType="1" res="4.7813914716243744e-02" rms="2.6860749721527100e-01" purity="4.9112358689308167e-01" nType="-99"/>
        </Node>
      </Node>
    </BinaryTree>
    <BinaryTree type="DecisionTree" boostWeight="1.0000000000000000e+00" itree="281">
      <Node pos="s" depth="0" NCoef="0" IVar="9" Cut="-1.4665528535842896e+00" cType="1" res="-1.3897281605750322e-03" rms="1.8580457568168640e-01" purity="4.9590855836868286e-01" nType="0">
        <Node pos="l" depth="1" NCoef="0" IVar="1" Cut="1.6585163574218750e+03" cType="1" res="-1.1014917865395546e-02" rms="2.0160585641860962e-01" purity="3.1983524560928345e-01" nType="0">
          <Node pos="l" depth="2" NCoef="0" IVar="-1" Cut="0.0000000000000000e+00" cType="1" res="-9.8678795620799065e-03" rms="1.1116170138120651e-01" purity="1.2879997491836548e-02" nType="-99"/>
          <Node pos="r" depth="2" NCoef="0" IVar="0" Cut="8.0043395996093750e+02" cType="1" res="-1.8461473286151886e-02" rms="2.4954238533973694e-01" purity="5.5588990449905396e-01" nType="0">
            <Node pos="l" depth="3" NCoef="0" IVar="-1" Cut="0.0000000000000000e+00" cType="1" res="-3.9241094142198563e-02" rms="2.6770195364952087e-01" purity="2.9708862304687500e-01" nType="-99"/>
            <Node pos="r" depth="3" NCoef="0" IVar="-1" Cut="0.0000000000000000e+00" cType="1" res="-8.0411601811647415e-03" rms="2.2673717141151428e-01" purity="8.4322893619537354e-01" nType="-99"/>
          </Node>
        </Node>
        <Node pos="r" depth="1" NCoef="0" IVar="6" Cut="9.4900810241699219e+01" cType="1" res="-3.8048275746405125e-04" rms="1.8404002487659454e-01" purity="5.1437062025070190e-01" nType="0">
          <Node pos="l" depth="2" NCoef="0" IVar="10" Cut="1.7333335876464844e+00" cType="1" res="-4.0100328624248505e-03" rms="1.7268025875091553e-01" purity="1.5778236091136932e-01" nType="0">
            <Node pos="l" depth="3" NCoef="0" IVar="-1" Cut="0.0000000000000000e+00" cType="1" res="-6.7003276199102402e-03" rms="1.7139138281345367e-01" purity="1.5665504336357117e-01" nType="-99"/>
            <Node pos="r" depth="3" NCoef="0" IVar="-1" Cut="0.0000000000000000e+00" cType="1" res="-5.0642009824514389e-02" rms="1.8222621083259583e-01" purity="1.6711594164371490e-01" nType="-99"/>
          </Node>
          <Node pos="r" depth="2" NCoef="0" IVar="2" Cut="6.1434116214513779e-02" cType="1" res="1.3292200164869428e-03" rms="1.8913069367408752e-01" purity="6.8234181404113770e-01" nType="0">
            <Node pos="l" depth="3" NCoef="0" IVar="-1" Cut="0.0000000000000000e+00" cType="1" res="1.0001348331570625e-02" rms="2.0961292088031769e-01" purity="5.7111942768096924e-01" nType="-99"/>
            <Node pos="r" depth="3" NCoef="0" IVar="-1" Cut="0.0000000000000000e+00" cType="1" res="-9.8862433806061745e-03" rms="1.5976713597774506e-01" purity="8.2149845361709595e-01" nType="-99"/>
          </Node>
        </Node>
      </Node>
    </BinaryTree>
    <BinaryTree type="DecisionTree" boostWeight="1.0000000000000000e+00" itree="282">
      <Node pos="s" depth="0" NCoef="0" IVar="10" Cut="2.2666020393371582e+00" cType="1" res="8.5826066788285971e-04" rms="1.9176131486892700e-01" purity="5.0117498636245728e-01" nType="0">
        <Node pos="l" depth="1" NCoef="0" IVar="8" Cut="-6.6658836603164673e-01" cType="1" res="4.1900476207956672e-04" rms="1.8987852334976196e-01" purity="5.0396764278411865e-01" nType="0">
          <Node pos="l" depth="2" NCoef="0" IVar="3" Cut="6.5153686523437500e+02" cType="1" res="5.3055621683597565e-03" rms="2.0437148213386536e-01" purity="4.1536372900009155e-01" nType="0">
            <Node pos="l" depth="3" NCoef="0" IVar="-1" Cut="0.0000000000000000e+00" cType="1" res="2.5405291467905045e-02" rms="2.1177144348621368e-01" purity="2.0397862792015076e-01" nType="-99"/>
            <Node pos="r" depth="3" NCoef="0" IVar="-1" Cut="0.0000000000000000e+00" cType="1" res="-3.2790391705930233e-03" rms="1.9430826604366302e-01" purity="6.8547278642654419e-01" nType="-99"/>
          </Node>
          <Node pos="r" depth="2" NCoef="0" IVar="10" Cut="-3.8733136653900146e-01" cType="1" res="-1.2482560705393553e-03" rms="1.8464398384094238e-01" purity="5.3419870138168335e-01" nType="0">
            <Node pos="l" depth="3" NCoef="0" IVar="-1" Cut="0.0000000000000000e+00" cType="1" res="-1.5308427624404430e-02" rms="1.8825046718120575e-01" purity="5.3224003314971924e-01" nType="-99"/>
            <Node pos="r" depth="3" NCoef="0" IVar="-1" Cut="0.0000000000000000e+00" cType="1" res="3.9865230210125446e-03" rms="1.8244989216327667e-01" purity="5.3534585237503052e-01" nType="-99"/>
          </Node>
        </Node>
        <Node pos="r" depth="1" NCoef="0" IVar="-1" Cut="0.0000000000000000e+00" cType="1" res="2.8019813820719719e-02" rms="2.4763579666614532e-01" purity="4.0483826398849487e-01" nType="-99"/>
      </Node>
    </BinaryTree>
    <BinaryTree type="DecisionTree" boostWeight="1.0000000000000000e+00" itree="283">
      <Node pos="s" depth="0" NCoef="0" IVar="9" Cut="1.1998120546340942e+00" cType="1" res="-2.2729241754859686e-03" rms="1.8736591935157776e-01" purity="4.9571084976196289e-01" nType="0">
        <Node pos="l" depth="1" NCoef="0" IVar="8" Cut="1.7333167791366577e+00" cType="1" res="-1.0483193909749389e-03" rms="1.8428443372249603e-01" purity="5.1741272211074829e-01" nType="0">
          <Node pos="l" depth="2" NCoef="0" IVar="8" Cut="6.5398812294006348e-01" cType="1" res="-5.6029122788459063e-04" rms="1.8257251381874084e-01" purity="5.3116744756698608e-01" nType="0">
            <Node pos="l" depth="3" NCoef="0" IVar="-1" Cut="0.0000000000000000e+00" cType="1" res="-6.0686483047902584e-03" rms="1.7759078741073608e-01" purity="5.4139077663421631e-01" nType="-99"/>
            <Node pos="r" depth="3" NCoef="0" IVar="-1" Cut="0.0000000000000000e+00" cType="1" res="1.1121421121060848e-02" rms="1.9937245547771454e-01" purity="4.9441349506378174e-01" nType="-99"/>
          </Node>
          <Node pos="r" depth="2" NCoef="0" IVar="-1" Cut="0.0000000000000000e+00" cType="1" res="-2.9137548059225082e-02" rms="2.2253440320491791e-01" purity="1.7321187257766724e-01" nType="-99"/>
        </Node>
        <Node pos="r" depth="1" NCoef="0" IVar="10" Cut="-9.3321084976196289e-01" cType="1" res="-9.6133025363087654e-03" rms="2.0471385121345520e-01" purity="3.6562806367874146e-01" nType="0">
          <Node pos="l" depth="2" NCoef="0" IVar="-1" Cut="0.0000000000000000e+00" cType="1" res="-3.9179675281047821e-02" rms="2.2015145421028137e-01" purity="3.8691690564155579e-01" nType="-99"/>
          <Node pos="r" depth="2" NCoef="0" IVar="7" Cut="7.2195959091186523e-01" cType="1" res="-5.6477179750800133e-03" rms="2.0015223324298859e-01" purity="3.5987353324890137e-01" nType="0">
            <Node pos="l" depth="3" NCoef="0" IVar="-1" Cut="0.0000000000000000e+00" cType="1" res="-3.4505559597164392e-03" rms="2.0400066673755646e-01" purity="3.9990878105163574e-01" nType="-99"/>
            <Node pos="r" depth="3" NCoef="0" IVar="-1" Cut="0.0000000000000000e+00" cType="1" res="-4.8605360090732574e-02" rms="1.8559445440769196e-01" purity="2.2229488193988800e-01" nType="-99"/>
          </Node>
        </Node>
      </Node>
    </BinaryTree>
    <BinaryTree type="DecisionTree" boostWeight="1.0000000000000000e+00" itree="284">
      <Node pos="s" depth="0" NCoef="0" IVar="10" Cut="2.2666416168212891e+00" cType="1" res="-2.6003218954429030e-04" rms="1.8710806965827942e-01" purity="4.9573314189910889e-01" nType="0">
        <Node pos="l" depth="1" NCoef="0" IVar="4" Cut="4.1372631835937500e+02" cType="1" res="-7.3846994200721383e-04" rms="1.8405291438102722e-01" purity="4.9933943152427673e-01" nType="0">
          <Node pos="l" depth="2" NCoef="0" IVar="6" Cut="6.6904609680175781e+01" cType="1" res="-3.5148495808243752e-03" rms="1.9261264801025391e-01" purity="1.6280214488506317e-01" nType="0">
            <Node pos="l" depth="3" NCoef="0" IVar="-1" Cut="0.0000000000000000e+00" cType="1" res="2.4639861658215523e-02" rms="1.4368817210197449e-01" purity="4.3242514133453369e-02" nType="-99"/>
            <Node pos="r" depth="3" NCoef="0" IVar="-1" Cut="0.0000000000000000e+00" cType="1" res="-1.2576668523252010e-02" rms="2.0372956991195679e-01" purity="1.9497925043106079e-01" nType="-99"/>
          </Node>
          <Node pos="r" depth="2" NCoef="0" IVar="1" Cut="2.7721188964843750e+03" cType="1" res="2.2627317812293768e-03" rms="1.7427821457386017e-01" purity="8.6312830448150635e-01" nType="0">
            <Node pos="l" depth="3" NCoef="0" IVar="-1" Cut="0.0000000000000000e+00" cType="1" res="1.0637273080646992e-02" rms="2.9045233130455017e-01" purity="5.1325434446334839e-01" nType="-99"/>
            <Node pos="r" depth="3" NCoef="0" IVar="-1" Cut="0.0000000000000000e+00" cType="1" res="-2.0530894398689270e-03" rms="1.0605926811695099e-01" purity="9.8690772056579590e-01" nType="-99"/>
          </Node>
        </Node>
        <Node pos="r" depth="1" NCoef="0" IVar="-1" Cut="0.0000000000000000e+00" cType="1" res="2.9520917683839798e-02" rms="2.7703970670700073e-01" purity="3.6195662617683411e-01" nType="-99"/>
      </Node>
    </BinaryTree>
    <BinaryTree type="DecisionTree" boostWeight="1.0000000000000000e+00" itree="285">
      <Node pos="s" depth="0" NCoef="0" IVar="10" Cut="2.2666049003601074e+00" cType="1" res="-2.8520397609099746e-04" rms="1.8802441656589508e-01" purity="5.0378376245498657e-01" nType="0">
        <Node pos="l" depth="1" NCoef="0" IVar="3" Cut="3.3619635009765625e+02" cType="1" res="-6.5860006725415587e-04" rms="1.8522112071514130e-01" purity="5.0720763206481934e-01" nType="0">
          <Node pos="l" depth="2" NCoef="0" IVar="-1" Cut="0.0000000000000000e+00" cType="1" res="-4.5631822198629379e-02" rms="1.3166254758834839e-01" purity="2.9622416943311691e-02" nType="-99"/>
          <Node pos="r" depth="2" NCoef="0" IVar="3" Cut="4.6552178955078125e+02" cType="1" res="-1.8790492322295904e-04" rms="1.8703959882259369e-01" purity="5.2641820907592773e-01" nType="0">
            <Node pos="l" depth="3" NCoef="0" IVar="-1" Cut="0.0000000000000000e+00" cType="1" res="1.5306969173252583e-02" rms="2.1027256548404694e-01" purity="1.1154788732528687e-01" nType="-99"/>
            <Node pos="r" depth="3" NCoef="0" IVar="-1" Cut="0.0000000000000000e+00" cType="1" res="-3.7882740143686533e-03" rms="1.8279446661472321e-01" purity="5.9659808874130249e-01" nType="-99"/>
          </Node>
        </Node>
        <Node pos="r" depth="1" NCoef="0" IVar="-1" Cut="0.0000000000000000e+00" cType="1" res="2.2343942895531654e-02" rms="2.7197176218032837e-01" purity="3.7677517533302307e-01" nType="-99"/>
      </Node>
    </BinaryTree>
    <BinaryTree type="DecisionTree" boostWeight="1.0000000000000000e+00" itree="286">
      <Node pos="s" depth="0" NCoef="0" IVar="8" Cut="-1.7333317995071411e+00" cType="1" res="7.1436137659475207e-04" rms="1.8961317837238312e-01" purity="4.9770805239677429e-01" nType="0">
        <Node pos="l" depth="1" NCoef="0" IVar="-1" Cut="0.0000000000000000e+00" cType="1" res="3.8746837526559830e-02" rms="2.3332972824573517e-01" purity="1.9324779510498047e-01" nType="-99"/>
        <Node pos="r" depth="1" NCoef="0" IVar="7" Cut="1.7187820374965668e-01" cType="1" res="-5.0281316362088546e-05" rms="1.8742668628692627e-01" purity="5.1105368137359619e-01" nType="0">
          <Node pos="l" depth="2" NCoef="0" IVar="8" Cut="1.5045892000198364e+00" cType="1" res="2.3510290775448084e-03" rms="1.8789981305599213e-01" purity="5.3076851367950439e-01" nType="0">
            <Node pos="l" depth="3" NCoef="0" IVar="-1" Cut="0.0000000000000000e+00" cType="1" res="3.4142108634114265e-03" rms="1.8185591697692871e-01" purity="5.5316931009292603e-01" nType="-99"/>
            <Node pos="r" depth="3" NCoef="0" IVar="-1" Cut="0.0000000000000000e+00" cType="1" res="3.8078330457210541e-02" rms="2.5093403458595276e-01" purity="2.5105622410774231e-01" nType="-99"/>
          </Node>
          <Node pos="r" depth="2" NCoef="0" IVar="5" Cut="1.5559698486328125e+02" cType="1" res="-3.4927902743220329e-03" rms="1.8669246137142181e-01" purity="4.8279064893722534e-01" nType="0">
            <Node pos="l" depth="3" NCoef="0" IVar="-1" Cut="0.0000000000000000e+00" cType="1" res="1.1988773010671139e-02" rms="1.6362744569778442e-01" purity="7.2918258607387543e-02" nType="-99"/>
            <Node pos="r" depth="3" NCoef="0" IVar="-1" Cut="0.0000000000000000e+00" cType="1" res="-1.5725951641798019e-02" rms="1.9519077241420746e-01" purity="6.4870387315750122e-01" nType="-99"/>
          </Node>
        </Node>
      </Node>
    </BinaryTree>
    <BinaryTree type="DecisionTree" boostWeight="1.0000000000000000e+00" itree="287">
      <Node pos="s" depth="0" NCoef="0" IVar="9" Cut="-1.9999787807464600e+00" cType="1" res="-6.0433310864027590e-05" rms="1.8800956010818481e-01" purity="5.0270754098892212e-01" nType="0">
        <Node pos="l" depth="1" NCoef="0" IVar="-1" Cut="0.0000000000000000e+00" cType="1" res="3.7761539220809937e-02" rms="2.5574526190757751e-01" purity="2.4118953943252563e-01" nType="-99"/>
        <Node pos="r" depth="1" NCoef="0" IVar="10" Cut="-1.1999685764312744e+00" cType="1" res="-6.3263828633353114e-04" rms="1.8534658849239349e-01" purity="5.1126801967620850e-01" nType="0">
          <Node pos="l" depth="2" NCoef="0" IVar="10" Cut="-1.3523547649383545e+00" cType="1" res="-6.6610835492610931e-03" rms="2.0125550031661987e-01" purity="4.6276724338531494e-01" nType="0">
            <Node pos="l" depth="3" NCoef="0" IVar="-1" Cut="0.0000000000000000e+00" cType="1" res="-6.9444123655557632e-03" rms="2.0246712863445282e-01" purity="4.5759230852127075e-01" nType="-99"/>
            <Node pos="r" depth="3" NCoef="0" IVar="-1" Cut="0.0000000000000000e+00" cType="1" res="-5.8816544711589813e-02" rms="1.9474822282791138e-01" purity="4.8664069175720215e-01" nType="-99"/>
          </Node>
          <Node pos="r" depth="2" NCoef="0" IVar="8" Cut="-1.3333831727504730e-01" cType="1" res="5.9178756782785058e-04" rms="1.8192107975482941e-01" purity="5.2111887931823730e-01" nType="0">
            <Node pos="l" depth="3" NCoef="0" IVar="-1" Cut="0.0000000000000000e+00" cType="1" res="-7.0319008082151413e-03" rms="1.8041098117828369e-01" purity="5.1255327463150024e-01" nType="-99"/>
            <Node pos="r" depth="3" NCoef="0" IVar="-1" Cut="0.0000000000000000e+00" cType="1" res="9.0282289311289787e-03" rms="1.8306916952133179e-01" purity="5.2788054943084717e-01" nType="-99"/>
          </Node>
        </Node>
      </Node>
    </BinaryTree>
    <BinaryTree type="DecisionTree" boostWeight="1.0000000000000000e+00" itree="288">
      <Node pos="s" depth="0" NCoef="0" IVar="9" Cut="1.9998749494552612e+00" cType="1" res="-1.2038981076329947e-03" rms="1.8662102520465851e-01" purity="4.9616783857345581e-01" nType="0">
        <Node pos="l" depth="1" NCoef="0" IVar="8" Cut="6.6676974296569824e-01" cType="1" res="-7.0334860356524587e-04" rms="1.8553000688552856e-01" purity="5.0560456514358521e-01" nType="0">
          <Node pos="l" depth="2" NCoef="0" IVar="7" Cut="-8.5875844955444336e-01" cType="1" res="7.8673684038221836e-04" rms="1.8266206979751587e-01" purity="5.3828305006027222e-01" nType="0">
            <Node pos="l" depth="3" NCoef="0" IVar="-1" Cut="0.0000000000000000e+00" cType="1" res="2.1317204460501671e-02" rms="1.9615910947322845e-01" purity="3.2864227890968323e-01" nType="-99"/>
            <Node pos="r" depth="3" NCoef="0" IVar="-1" Cut="0.0000000000000000e+00" cType="1" res="-1.3758416753262281e-03" rms="1.8034176528453827e-01" purity="5.7236605882644653e-01" nType="-99"/>
          </Node>
          <Node pos="r" depth="2" NCoef="0" IVar="7" Cut="9.5181769132614136e-01" cType="1" res="-5.0851763226091862e-03" rms="1.9365131855010986e-01" purity="4.0950825810432434e-01" nType="0">
            <Node pos="l" depth="3" NCoef="0" IVar="-1" Cut="0.0000000000000000e+00" cType="1" res="-8.4223095327615738e-03" rms="1.9719611108303070e-01" purity="4.4168725609779358e-01" nType="-99"/>
            <Node pos="r" depth="3" NCoef="0" IVar="-1" Cut="0.0000000000000000e+00" cType="1" res="-3.9415739476680756e-02" rms="1.6935780644416809e-01" purity="2.0803533494472504e-01" nType="-99"/>
          </Node>
        </Node>
        <Node pos="r" depth="1" NCoef="0" IVar="-1" Cut="0.0000000000000000e+00" cType="1" res="-2.7528541162610054e-02" rms="2.1541550755500793e-01" purity="2.2203044593334198e-01" nType="-99"/>
      </Node>
    </BinaryTree>
    <BinaryTree type="DecisionTree" boostWeight="1.0000000000000000e+00" itree="289">
      <Node pos="s" depth="0" NCoef="0" IVar="8" Cut="1.4667034149169922e+00" cType="1" res="-4.1288288775831461e-04" rms="1.8683896958827972e-01" purity="4.9970409274101257e-01" nType="0">
        <Node pos="l" depth="1" NCoef="0" IVar="10" Cut="1.7333186864852905e+00" cType="1" res="4.6006939373910427e-04" rms="1.8492062389850616e-01" purity="5.2047711610794067e-01" nType="0">
          <Node pos="l" depth="2" NCoef="0" IVar="0" Cut="5.9424951171875000e+02" cType="1" res="1.1825643014162779e-03" rms="1.8198300898075104e-01" purity="5.2938115596771240e-01" nType="0">
            <Node pos="l" depth="3" NCoef="0" IVar="-1" Cut="0.0000000000000000e+00" cType="1" res="1.1383987031877041e-02" rms="1.9406422972679138e-01" purity="1.0681590437889099e-01" nType="-99"/>
            <Node pos="r" depth="3" NCoef="0" IVar="-1" Cut="0.0000000000000000e+00" cType="1" res="-2.2007317747920752e-03" rms="1.7416736483573914e-01" purity="7.8741461038589478e-01" nType="-99"/>
          </Node>
          <Node pos="r" depth="2" NCoef="0" IVar="10" Cut="2.0888681411743164e+00" cType="1" res="-8.5199596360325813e-03" rms="2.1795636415481567e-01" purity="4.0980765223503113e-01" nType="0">
            <Node pos="l" depth="3" NCoef="0" IVar="-1" Cut="0.0000000000000000e+00" cType="1" res="1.0663850698620081e-03" rms="2.1137908101081848e-01" purity="4.6939420700073242e-01" nType="-99"/>
            <Node pos="r" depth="3" NCoef="0" IVar="-1" Cut="0.0000000000000000e+00" cType="1" res="-3.4195132553577423e-02" rms="2.2380463778972626e-01" purity="3.5199475288391113e-01" nType="-99"/>
          </Node>
        </Node>
        <Node pos="r" depth="1" NCoef="0" IVar="2" Cut="1.9234715029597282e-02" cType="1" res="-1.2063045985996723e-02" rms="2.1042941510677338e-01" purity="2.2247290611267090e-01" nType="0">
          <Node pos="l" depth="2" NCoef="0" IVar="-1" Cut="0.0000000000000000e+00" cType="1" res="-4.9248013645410538e-02" rms="1.9122411310672760e-01" purity="1.1165835708379745e-01" nType="-99"/>
          <Node pos="r" depth="2" NCoef="0" IVar="-1" Cut="0.0000000000000000e+00" cType="1" res="-8.1294478150084615e-04" rms="2.3758698999881744e-01" purity="4.0040382742881775e-01" nType="-99"/>
        </Node>
      </Node>
    </BinaryTree>
    <BinaryTree type="DecisionTree" boostWeight="1.0000000000000000e+00" itree="290">
      <Node pos="s" depth="0" NCoef="0" IVar="10" Cut="1.7332990169525146e+00" cType="1" res="8.5020484402775764e-04" rms="1.8704740703105927e-01" purity="4.9894729256629944e-01" nType="0">
        <Node pos="l" depth="1" NCoef="0" IVar="6" Cut="1.9226834106445312e+02" cType="1" res="-6.8213330814614892e-04" rms="1.8152299523353577e-01" purity="5.0554174184799194e-01" nType="0">
          <Node pos="l" depth="2" NCoef="0" IVar="10" Cut="-6.4122003316879272e-01" cType="1" res="-2.1974290721118450e-03" rms="1.9741202890872955e-01" purity="3.0132013559341431e-01" nType="0">
            <Node pos="l" depth="3" NCoef="0" IVar="-1" Cut="0.0000000000000000e+00" cType="1" res="3.4292680211365223e-03" rms="2.0952965319156647e-01" purity="3.0774673819541931e-01" nType="-99"/>
            <Node pos="r" depth="3" NCoef="0" IVar="-1" Cut="0.0000000000000000e+00" cType="1" res="-1.1349103413522243e-02" rms="1.9037498533725739e-01" purity="2.9777935147285461e-01" nType="-99"/>
          </Node>
          <Node pos="r" depth="2" NCoef="0" IVar="1" Cut="2.7778557128906250e+03" cType="1" res="2.5063860230147839e-03" rms="1.4235964417457581e-01" purity="9.3526941537857056e-01" nType="0">
            <Node pos="l" depth="3" NCoef="0" IVar="-1" Cut="0.0000000000000000e+00" cType="1" res="1.0970070958137512e-02" rms="2.8288549184799194e-01" purity="7.0516788959503174e-01" nType="-99"/>
            <Node pos="r" depth="3" NCoef="0" IVar="-1" Cut="0.0000000000000000e+00" cType="1" res="1.0750898160040379e-02" rms="6.8640448153018951e-02" purity="9.9509423971176147e-01" nType="-99"/>
          </Node>
        </Node>
        <Node pos="r" depth="1" NCoef="0" IVar="9" Cut="-1.3340581953525543e-01" cType="1" res="1.7954189330339432e-02" rms="2.3957328498363495e-01" purity="4.2534029483795166e-01" nType="0">
          <Node pos="l" depth="2" NCoef="0" IVar="-1" Cut="0.0000000000000000e+00" cType="1" res="7.9719267785549164e-02" rms="2.8073564171791077e-01" purity="4.7936290502548218e-01" nType="-99"/>
          <Node pos="r" depth="2" NCoef="0" IVar="-1" Cut="0.0000000000000000e+00" cType="1" res="-2.1552667021751404e-03" rms="2.0152243971824646e-01" purity="3.8512754440307617e-01" nType="-99"/>
        </Node>
      </Node>
    </BinaryTree>
    <BinaryTree type="DecisionTree" boostWeight="1.0000000000000000e+00" itree="291">
      <Node pos="s" depth="0" NCoef="0" IVar="9" Cut="1.4665815830230713e+00" cType="1" res="1.1502902489155531e-03" rms="1.8930466473102570e-01" purity="4.9659648537635803e-01" nType="0">
        <Node pos="l" depth="1" NCoef="0" IVar="9" Cut="4.5074948668479919e-01" cType="1" res="2.3821042850613594e-04" rms="1.8440996110439301e-01" purity="5.1110613346099854e-01" nType="0">
          <Node pos="l" depth="2" NCoef="0" IVar="10" Cut="1.9999395608901978e+00" cType="1" res="1.7301050247624516e-03" rms="1.8399539589881897e-01" purity="5.1029205322265625e-01" nType="0">
            <Node pos="l" depth="3" NCoef="0" IVar="-1" Cut="0.0000000000000000e+00" cType="1" res="2.7787012513726950e-03" rms="1.7918384075164795e-01" purity="5.1366692781448364e-01" nType="-99"/>
            <Node pos="r" depth="3" NCoef="0" IVar="-1" Cut="0.0000000000000000e+00" cType="1" res="3.6062933504581451e-02" rms="2.6666969060897827e-01" purity="4.3772915005683899e-01" nType="-99"/>
          </Node>
          <Node pos="r" depth="2" NCoef="0" IVar="7" Cut="6.7110407352447510e-01" cType="1" res="-3.5954229533672333e-03" rms="1.8541592359542847e-01" purity="5.1319795846939087e-01" nType="0">
            <Node pos="l" depth="3" NCoef="0" IVar="-1" Cut="0.0000000000000000e+00" cType="1" res="-2.9614232480525970e-03" rms="1.8668787181377411e-01" purity="5.6774371862411499e-01" nType="-99"/>
            <Node pos="r" depth="3" NCoef="0" IVar="-1" Cut="0.0000000000000000e+00" cType="1" res="-3.6430206149816513e-02" rms="1.8015772104263306e-01" purity="3.0575734376907349e-01" nType="-99"/>
          </Node>
        </Node>
        <Node pos="r" depth="1" NCoef="0" IVar="7" Cut="-3.1483474373817444e-01" cType="1" res="9.7173862159252167e-03" rms="2.3007997870445251e-01" purity="3.6030897498130798e-01" nType="0">
          <Node pos="l" depth="2" NCoef="0" IVar="-1" Cut="0.0000000000000000e+00" cType="1" res="-1.2344780378043652e-02" rms="2.2265188395977020e-01" purity="2.8431090712547302e-01" nType="-99"/>
          <Node pos="r" depth="2" NCoef="0" IVar="8" Cut="1.2951458990573883e-01" cType="1" res="1.8286326900124550e-02" rms="2.3361691832542419e-01" purity="4.0205273032188416e-01" nType="0">
            <Node pos="l" depth="3" NCoef="0" IVar="-1" Cut="0.0000000000000000e+00" cType="1" res="4.6047553420066833e-02" rms="2.4090774357318878e-01" purity="4.5733261108398438e-01" nType="-99"/>
            <Node pos="r" depth="3" NCoef="0" IVar="-1" Cut="0.0000000000000000e+00" cType="1" res="1.5920309349894524e-02" rms="2.2426027059555054e-01" purity="3.3671486377716064e-01" nType="-99"/>
          </Node>
        </Node>
      </Node>
    </BinaryTree>
    <BinaryTree type="DecisionTree" boostWeight="1.0000000000000000e+00" itree="292">
      <Node pos="s" depth="0" NCoef="0" IVar="10" Cut="-1.7332910299301147e+00" cType="1" res="-5.3255399689078331e-04" rms="1.8571978807449341e-01" purity="4.9248805642127991e-01" nType="0">
        <Node pos="l" depth="1" NCoef="0" IVar="0" Cut="7.6279028320312500e+02" cType="1" res="-1.1433006264269352e-02" rms="2.0739768445491791e-01" purity="3.9184007048606873e-01" nType="0">
          <Node pos="l" depth="2" NCoef="0" IVar="7" Cut="-3.8999319076538086e-02" cType="1" res="-2.0171821117401123e-02" rms="2.0295177400112152e-01" purity="1.5509231388568878e-01" nType="0">
            <Node pos="l" depth="3" NCoef="0" IVar="-1" Cut="0.0000000000000000e+00" cType="1" res="-2.6833659037947655e-02" rms="2.0643979310989380e-01" purity="1.7065611481666565e-01" nType="-99"/>
            <Node pos="r" depth="3" NCoef="0" IVar="-1" Cut="0.0000000000000000e+00" cType="1" res="-5.1568794995546341e-02" rms="1.9920934736728668e-01" purity="1.3953807950019836e-01" nType="-99"/>
          </Node>
          <Node pos="r" depth="2" NCoef="0" IVar="-1" Cut="0.0000000000000000e+00" cType="1" res="1.0440796613693237e-02" rms="2.1458180248737335e-01" purity="8.3938926458358765e-01" nType="-99"/>
        </Node>
        <Node pos="r" depth="1" NCoef="0" IVar="7" Cut="-1.6426056623458862e+00" cType="1" res="3.7539083859883249e-04" rms="1.8376965820789337e-01" purity="5.0087153911590576e-01" nType="0">
          <Node pos="l" depth="2" NCoef="0" IVar="-1" Cut="0.0000000000000000e+00" cType="1" res="-6.0132078826427460e-02" rms="1.3991820812225342e-01" purity="7.5148105621337891e-02" nType="-99"/>
          <Node pos="r" depth="2" NCoef="0" IVar="7" Cut="-1.0080280303955078e+00" cType="1" res="8.2570343511179090e-04" rms="1.8488292396068573e-01" purity="5.1339364051818848e-01" nType="0">
            <Node pos="l" depth="3" NCoef="0" IVar="-1" Cut="0.0000000000000000e+00" cType="1" res="2.8177101165056229e-02" rms="2.0433045923709869e-01" purity="3.0726248025894165e-01" nType="-99"/>
            <Node pos="r" depth="3" NCoef="0" IVar="-1" Cut="0.0000000000000000e+00" cType="1" res="-4.7923400416038930e-04" rms="1.8284276127815247e-01" purity="5.3352612257003784e-01" nType="-99"/>
          </Node>
        </Node>
      </Node>
    </BinaryTree>
    <BinaryTree type="DecisionTree" boostWeight="1.0000000000000000e+00" itree="293">
      <Node pos="s" depth="0" NCoef="0" IVar="8" Cut="-1.1998407840728760e+00" cType="1" res="-7.0166759542189538e-05" rms="1.8630442023277283e-01" purity="4.9686118960380554e-01" nType="0">
        <Node pos="l" depth="1" NCoef="0" IVar="9" Cut="-1.3379569351673126e-01" cType="1" res="-1.1714151129126549e-02" rms="1.9520689547061920e-01" purity="2.8302794694900513e-01" nType="0">
          <Node pos="l" depth="2" NCoef="0" IVar="8" Cut="-1.6569851636886597e+00" cType="1" res="-4.1881944052875042e-03" rms="1.9418857991695404e-01" purity="2.6953342556953430e-01" nType="0">
            <Node pos="l" depth="3" NCoef="0" IVar="-1" Cut="0.0000000000000000e+00" cType="1" res="1.4384321868419647e-02" rms="1.9183045625686646e-01" purity="1.9243007898330688e-01" nType="-99"/>
            <Node pos="r" depth="3" NCoef="0" IVar="-1" Cut="0.0000000000000000e+00" cType="1" res="-2.9229164123535156e-02" rms="1.9571019709110260e-01" purity="3.3119517564773560e-01" nType="-99"/>
          </Node>
          <Node pos="r" depth="2" NCoef="0" IVar="10" Cut="1.3481467962265015e-01" cType="1" res="-1.9633783027529716e-02" rms="1.9596089422702789e-01" purity="2.9722833633422852e-01" nType="0">
            <Node pos="l" depth="3" NCoef="0" IVar="-1" Cut="0.0000000000000000e+00" cType="1" res="-3.0002430081367493e-02" rms="1.9198209047317505e-01" purity="3.0538317561149597e-01" nType="-99"/>
            <Node pos="r" depth="3" NCoef="0" IVar="-1" Cut="0.0000000000000000e+00" cType="1" res="-6.1325572431087494e-02" rms="2.0042328536510468e-01" purity="2.8719353675842285e-01" nType="-99"/>
          </Node>
        </Node>
        <Node pos="r" depth="1" NCoef="0" IVar="7" Cut="-3.9209005236625671e-01" cType="1" res="1.4360980130732059e-03" rms="1.8506801128387451e-01" purity="5.2452266216278076e-01" nType="0">
          <Node pos="l" depth="2" NCoef="0" IVar="10" Cut="1.4669553041458130e+00" cType="1" res="-3.4951332490891218e-03" rms="1.8544642627239227e-01" purity="4.3040934205055237e-01" nType="0">
            <Node pos="l" depth="3" NCoef="0" IVar="-1" Cut="0.0000000000000000e+00" cType="1" res="-5.6585636921226978e-03" rms="1.7911107838153839e-01" purity="4.3370091915130615e-01" nType="-99"/>
            <Node pos="r" depth="3" NCoef="0" IVar="-1" Cut="0.0000000000000000e+00" cType="1" res="-3.1245030462741852e-02" rms="2.2495681047439575e-01" purity="4.0710839629173279e-01" nType="-99"/>
          </Node>
          <Node pos="r" depth="2" NCoef="0" IVar="10" Cut="-9.3324619531631470e-01" cType="1" res="3.6062011495232582e-03" rms="1.8485957384109497e-01" purity="5.6593936681747437e-01" nType="0">
            <Node pos="l" depth="3" NCoef="0" IVar="-1" Cut="0.0000000000000000e+00" cType="1" res="2.7774132788181305e-02" rms="2.1065716445446014e-01" purity="5.6668853759765625e-01" nType="-99"/>
            <Node pos="r" depth="3" NCoef="0" IVar="-1" Cut="0.0000000000000000e+00" cType="1" res="4.1463007219135761e-03" rms="1.7709110677242279e-01" purity="5.6573468446731567e-01" nType="-99"/>
          </Node>
        </Node>
      </Node>
    </BinaryTree>
    <BinaryTree type="DecisionTree" boostWeight="1.0000000000000000e+00" itree="294">
      <Node pos="s" depth="0" NCoef="0" IVar="5" Cut="1.5853002929687500e+02" cType="1" res="3.3484338782727718e-03" rms="1.8996211886405945e-01" purity="5.0085228681564331e-01" nType="0">
        <Node pos="l" depth="1" NCoef="0" IVar="1" Cut="2.1314848632812500e+03" cType="1" res="-1.2421353021636605e-03" rms="1.5049606561660767e-01" purity="6.8766690790653229e-02" nType="0">
          <Node pos="l" depth="2" NCoef="0" IVar="0" Cut="7.4369360351562500e+02" cType="1" res="-2.6057038921862841e-03" rms="1.0049580037593842e-01" purity="1.1924996972084045e-02" nType="0">
            <Node pos="l" depth="3" NCoef="0" IVar="-1" Cut="0.0000000000000000e+00" cType="1" res="-3.7282783538103104e-02" rms="8.2279123365879059e-02" purity="7.5418460182845592e-03" nType="-99"/>
            <Node pos="r" depth="3" NCoef="0" IVar="-1" Cut="0.0000000000000000e+00" cType="1" res="2.2366466000676155e-02" rms="2.0235829055309296e-01" purity="5.2704736590385437e-02" nType="-99"/>
          </Node>
          <Node pos="r" depth="2" NCoef="0" IVar="-1" Cut="0.0000000000000000e+00" cType="1" res="7.8635131940245628e-03" rms="3.5085856914520264e-01" purity="5.2435964345932007e-01" nType="-99"/>
        </Node>
        <Node pos="r" depth="1" NCoef="0" IVar="1" Cut="2.2413044433593750e+03" cType="1" res="5.2223154343664646e-03" rms="2.0385858416557312e-01" purity="6.7723065614700317e-01" nType="0">
          <Node pos="l" depth="2" NCoef="0" IVar="1" Cut="2.0409937744140625e+03" cType="1" res="1.3068577274680138e-02" rms="2.6447591185569763e-01" purity="1.3271491229534149e-01" nType="0">
            <Node pos="l" depth="3" NCoef="0" IVar="-1" Cut="0.0000000000000000e+00" cType="1" res="1.4922219328582287e-02" rms="2.3338450491428375e-01" purity="7.6835185289382935e-02" nType="-99"/>
            <Node pos="r" depth="3" NCoef="0" IVar="-1" Cut="0.0000000000000000e+00" cType="1" res="3.0715128406882286e-02" rms="4.2167004942893982e-01" purity="5.2895069122314453e-01" nType="-99"/>
          </Node>
          <Node pos="r" depth="2" NCoef="0" IVar="5" Cut="2.0759350585937500e+02" cType="1" res="1.1213313555344939e-03" rms="1.6331328451633453e-01" purity="9.6183115243911743e-01" nType="0">
            <Node pos="l" depth="3" NCoef="0" IVar="-1" Cut="0.0000000000000000e+00" cType="1" res="1.4530283398926258e-02" rms="3.0321973562240601e-01" purity="8.4302276372909546e-01" nType="-99"/>
            <Node pos="r" depth="3" NCoef="0" IVar="-1" Cut="0.0000000000000000e+00" cType="1" res="1.4226031489670277e-03" rms="1.4961294829845428e-01" purity="9.6961635351181030e-01" nType="-99"/>
          </Node>
        </Node>
      </Node>
    </BinaryTree>
    <BinaryTree type="DecisionTree" boostWeight="1.0000000000000000e+00" itree="295">
      <Node pos="s" depth="0" NCoef="0" IVar="8" Cut="-1.3324940204620361e-01" cType="1" res="-6.1180384363979101e-04" rms="1.8403123319149017e-01" purity="4.9905776977539062e-01" nType="0">
        <Node pos="l" depth="1" NCoef="0" IVar="0" Cut="4.2147808837890625e+02" cType="1" res="3.6022230051457882e-03" rms="1.9024826586246490e-01" purity="4.9409374594688416e-01" nType="0">
          <Node pos="l" depth="2" NCoef="0" IVar="0" Cut="3.6363583374023438e+02" cType="1" res="-7.9465843737125397e-03" rms="1.2265259027481079e-01" purity="1.6156865283846855e-02" nType="0">
            <Node pos="l" depth="3" NCoef="0" IVar="-1" Cut="0.0000000000000000e+00" cType="1" res="3.0322419479489326e-03" rms="1.1929946392774582e-01" purity="1.5263147652149200e-02" nType="-99"/>
            <Node pos="r" depth="3" NCoef="0" IVar="-1" Cut="0.0000000000000000e+00" cType="1" res="-6.3910312950611115e-02" rms="1.2545117735862732e-01" purity="1.7083637416362762e-02" nType="-99"/>
          </Node>
          <Node pos="r" depth="2" NCoef="0" IVar="7" Cut="-1.0836049318313599e+00" cType="1" res="6.1853285878896713e-03" rms="2.0220944285392761e-01" purity="6.0099321603775024e-01" nType="0">
            <Node pos="l" depth="3" NCoef="0" IVar="-1" Cut="0.0000000000000000e+00" cType="1" res="5.8333192020654678e-02" rms="2.4649679660797119e-01" purity="3.5441297292709351e-01" nType="-99"/>
            <Node pos="r" depth="3" NCoef="0" IVar="-1" Cut="0.0000000000000000e+00" cType="1" res="9.6385218203067780e-03" rms="1.9718635082244873e-01" purity="6.2517982721328735e-01" nType="-99"/>
          </Node>
        </Node>
        <Node pos="r" depth="1" NCoef="0" IVar="5" Cut="3.3388314819335938e+02" cType="1" res="-4.1086939163506031e-03" rms="1.7863261699676514e-01" purity="5.0317704677581787e-01" nType="0">
          <Node pos="l" depth="2" NCoef="0" IVar="7" Cut="7.2217524051666260e-01" cType="1" res="-6.9080390967428684e-03" rms="1.9821111857891083e-01" purity="2.8105181455612183e-01" nType="0">
            <Node pos="l" depth="3" NCoef="0" IVar="-1" Cut="0.0000000000000000e+00" cType="1" res="-1.0810058563947678e-02" rms="2.0054836571216583e-01" purity="3.0875873565673828e-01" nType="-99"/>
            <Node pos="r" depth="3" NCoef="0" IVar="-1" Cut="0.0000000000000000e+00" cType="1" res="-3.6362741142511368e-02" rms="1.8907006084918976e-01" purity="1.7853929102420807e-01" nType="-99"/>
          </Node>
          <Node pos="r" depth="2" NCoef="0" IVar="-1" Cut="0.0000000000000000e+00" cType="1" res="9.6577676013112068e-03" rms="1.2830568850040436e-01" purity="9.6671706438064575e-01" nType="-99"/>
        </Node>
      </Node>
    </BinaryTree>
    <BinaryTree type="DecisionTree" boostWeight="1.0000000000000000e+00" itree="296">
      <Node pos="s" depth="0" NCoef="0" IVar="0" Cut="5.9426025390625000e+02" cType="1" res="-2.2138087661005557e-04" rms="1.8809013068675995e-01" purity="5.0116550922393799e-01" nType="0">
        <Node pos="l" depth="1" NCoef="0" IVar="2" Cut="1.1365079134702682e-01" cType="1" res="-4.1076014749705791e-03" rms="1.8570186197757721e-01" purity="9.4806514680385590e-02" nType="0">
          <Node pos="l" depth="2" NCoef="0" IVar="1" Cut="1.6228723144531250e+03" cType="1" res="-6.1184265650808811e-03" rms="1.7798008024692535e-01" purity="8.0118604004383087e-02" nType="0">
            <Node pos="l" depth="3" NCoef="0" IVar="-1" Cut="0.0000000000000000e+00" cType="1" res="-2.9876079410314560e-02" rms="7.4709773063659668e-02" purity="5.7456670328974724e-03" nType="-99"/>
            <Node pos="r" depth="3" NCoef="0" IVar="-1" Cut="0.0000000000000000e+00" cType="1" res="-1.5134071931242943e-02" rms="2.6252710819244385e-01" purity="1.8640646338462830e-01" nType="-99"/>
          </Node>
          <Node pos="r" depth="2" NCoef="0" IVar="-1" Cut="0.0000000000000000e+00" cType="1" res="3.7245426326990128e-02" rms="2.6737627387046814e-01" purity="2.9246509075164795e-01" nType="-99"/>
        </Node>
        <Node pos="r" depth="1" NCoef="0" IVar="7" Cut="9.7781324386596680e-01" cType="1" res="2.3453438188880682e-03" rms="1.8960732221603394e-01" purity="7.6955264806747437e-01" nType="0">
          <Node pos="l" depth="2" NCoef="0" IVar="5" Cut="1.5569871520996094e+02" cType="1" res="7.7064009383320808e-04" rms="1.8243734538555145e-01" purity="7.8905618190765381e-01" nType="0">
            <Node pos="l" depth="3" NCoef="0" IVar="-1" Cut="0.0000000000000000e+00" cType="1" res="2.2869421169161797e-02" rms="2.2538189589977264e-01" purity="1.8253639340400696e-01" nType="-99"/>
            <Node pos="r" depth="3" NCoef="0" IVar="-1" Cut="0.0000000000000000e+00" cType="1" res="-4.8423488624393940e-03" rms="1.7213723063468933e-01" purity="9.1455370187759399e-01" nType="-99"/>
          </Node>
          <Node pos="r" depth="2" NCoef="0" IVar="1" Cut="2.3780920410156250e+03" cType="1" res="1.9054388627409935e-02" rms="2.5288462638854980e-01" purity="5.6260174512863159e-01" nType="0">
            <Node pos="l" depth="3" NCoef="0" IVar="-1" Cut="0.0000000000000000e+00" cType="1" res="5.2942309528589249e-02" rms="2.9989612102508545e-01" purity="1.8295300006866455e-01" nType="-99"/>
            <Node pos="r" depth="3" NCoef="0" IVar="-1" Cut="0.0000000000000000e+00" cType="1" res="3.7634761538356543e-03" rms="1.9453208148479462e-01" purity="9.3500244617462158e-01" nType="-99"/>
          </Node>
        </Node>
      </Node>
    </BinaryTree>
    <BinaryTree type="DecisionTree" boostWeight="1.0000000000000000e+00" itree="297">
      <Node pos="s" depth="0" NCoef="0" IVar="8" Cut="9.3335390090942383e-01" cType="1" res="1.3645016588270664e-03" rms="1.9261860847473145e-01" purity="4.9981999397277832e-01" nType="0">
        <Node pos="l" depth="1" NCoef="0" IVar="5" Cut="3.9054589843750000e+02" cType="1" res="-4.4538316433317959e-04" rms="1.8475699424743652e-01" purity="5.2989780902862549e-01" nType="0">
          <Node pos="l" depth="2" NCoef="0" IVar="5" Cut="1.9602526855468750e+02" cType="1" res="-1.7876569181680679e-03" rms="2.0698334276676178e-01" purity="3.6919894814491272e-01" nType="0">
            <Node pos="l" depth="3" NCoef="0" IVar="-1" Cut="0.0000000000000000e+00" cType="1" res="9.5722442492842674e-03" rms="1.8069285154342651e-01" purity="1.1412499099969864e-01" nType="-99"/>
            <Node pos="r" depth="3" NCoef="0" IVar="-1" Cut="0.0000000000000000e+00" cType="1" res="-1.2705472297966480e-02" rms="2.3126488924026489e-01" purity="6.3675218820571899e-01" nType="-99"/>
          </Node>
          <Node pos="r" depth="2" NCoef="0" IVar="-1" Cut="0.0000000000000000e+00" cType="1" res="2.8831781819462776e-02" rms="9.6672989428043365e-02" purity="9.8705792427062988e-01" nType="-99"/>
        </Node>
        <Node pos="r" depth="1" NCoef="0" IVar="9" Cut="9.3345278501510620e-01" cType="1" res="9.8362592980265617e-03" rms="2.2561430931091309e-01" purity="3.5903075337409973e-01" nType="0">
          <Node pos="l" depth="2" NCoef="0" IVar="0" Cut="8.0625415039062500e+02" cType="1" res="1.7242597416043282e-02" rms="2.3733799159526825e-01" purity="4.0011847019195557e-01" nType="0">
            <Node pos="l" depth="3" NCoef="0" IVar="-1" Cut="0.0000000000000000e+00" cType="1" res="5.6125067174434662e-02" rms="2.5698739290237427e-01" purity="2.0537042617797852e-01" nType="-99"/>
            <Node pos="r" depth="3" NCoef="0" IVar="-1" Cut="0.0000000000000000e+00" cType="1" res="-2.2451115772128105e-02" rms="1.7863012850284576e-01" purity="8.7233668565750122e-01" nType="-99"/>
          </Node>
          <Node pos="r" depth="2" NCoef="0" IVar="-1" Cut="0.0000000000000000e+00" cType="1" res="-3.8511045277118683e-02" rms="1.8149372935295105e-01" purity="2.2856037318706512e-01" nType="-99"/>
        </Node>
      </Node>
    </BinaryTree>
    <BinaryTree type="DecisionTree" boostWeight="1.0000000000000000e+00" itree="298">
      <Node pos="s" depth="0" NCoef="0" IVar="10" Cut="6.6660672426223755e-01" cType="1" res="-2.9617460677400231e-04" rms="1.8768697977066040e-01" purity="5.0141900777816772e-01" nType="0">
        <Node pos="l" depth="1" NCoef="0" IVar="3" Cut="1.0039437866210938e+03" cType="1" res="-2.6722617913037539e-03" rms="1.7910714447498322e-01" purity="5.0384598970413208e-01" nType="0">
          <Node pos="l" depth="2" NCoef="0" IVar="1" Cut="2.9996997070312500e+03" cType="1" res="-4.1557331569492817e-03" rms="1.8283447623252869e-01" purity="4.1331329941749573e-01" nType="0">
            <Node pos="l" depth="3" NCoef="0" IVar="-1" Cut="0.0000000000000000e+00" cType="1" res="-1.3138260692358017e-02" rms="2.0618091523647308e-01" purity="2.3234601318836212e-01" nType="-99"/>
            <Node pos="r" depth="3" NCoef="0" IVar="-1" Cut="0.0000000000000000e+00" cType="1" res="2.8017664328217506e-02" rms="6.4459852874279022e-02" purity="9.9574130773544312e-01" nType="-99"/>
          </Node>
          <Node pos="r" depth="2" NCoef="0" IVar="1" Cut="3.4277988281250000e+03" cType="1" res="4.5807189308106899e-03" rms="1.5943680703639984e-01" purity="9.4647794961929321e-01" nType="0">
            <Node pos="l" depth="3" NCoef="0" IVar="-1" Cut="0.0000000000000000e+00" cType="1" res="1.8094304949045181e-02" rms="2.8234180808067322e-01" purity="8.0882251262664795e-01" nType="-99"/>
            <Node pos="r" depth="3" NCoef="0" IVar="-1" Cut="0.0000000000000000e+00" cType="1" res="1.7436252906918526e-02" rms="8.6242027580738068e-02" purity="9.9197393655776978e-01" nType="-99"/>
          </Node>
        </Node>
        <Node pos="r" depth="1" NCoef="0" IVar="1" Cut="2.5217307128906250e+03" cType="1" res="5.2176169119775295e-03" rms="2.0612058043479919e-01" purity="4.9578723311424255e-01" nType="0">
          <Node pos="l" depth="2" NCoef="0" IVar="5" Cut="2.3606324768066406e+02" cType="1" res="9.6512753516435623e-03" rms="2.3701418936252594e-01" purity="1.6232836246490479e-01" nType="0">
            <Node pos="l" depth="3" NCoef="0" IVar="-1" Cut="0.0000000000000000e+00" cType="1" res="5.4179704748094082e-03" rms="1.9658866524696350e-01" purity="7.6065346598625183e-02" nType="-99"/>
            <Node pos="r" depth="3" NCoef="0" IVar="-1" Cut="0.0000000000000000e+00" cType="1" res="3.3170979470014572e-02" rms="3.4579139947891235e-01" purity="4.7915711998939514e-01" nType="-99"/>
          </Node>
          <Node pos="r" depth="2" NCoef="0" IVar="3" Cut="9.5653948974609375e+02" cType="1" res="-1.0635146172717214e-03" rms="1.5173600614070892e-01" purity="9.6819603443145752e-01" nType="0">
            <Node pos="l" depth="3" NCoef="0" IVar="-1" Cut="0.0000000000000000e+00" cType="1" res="-2.3267757147550583e-02" rms="1.4450897276401520e-01" purity="9.7413390874862671e-01" nType="-99"/>
            <Node pos="r" depth="3" NCoef="0" IVar="-1" Cut="0.0000000000000000e+00" cType="1" res="1.1267438530921936e-02" rms="1.6017232835292816e-01" purity="9.6082025766372681e-01" nType="-99"/>
          </Node>
        </Node>
      </Node>
    </BinaryTree>
    <BinaryTree type="DecisionTree" boostWeight="1.0000000000000000e+00" itree="299">
      <Node pos="s" depth="0" NCoef="0" IVar="9" Cut="-1.9998503923416138e+00" cType="1" res="-1.1199323926120996e-03" rms="1.8596312403678894e-01" purity="5.0130093097686768e-01" nType="0">
        <Node pos="l" depth="1" NCoef="0" IVar="-1" Cut="0.0000000000000000e+00" cType="1" res="-4.3391972780227661e-02" rms="2.0407196879386902e-01" purity="1.9709405303001404e-01" nType="-99"/>
        <Node pos="r" depth="1" NCoef="0" IVar="7" Cut="4.3507501482963562e-01" cType="1" res="-5.4508005268871784e-04" rms="1.8534205853939056e-01" purity="5.1076096296310425e-01" nType="0">
          <Node pos="l" depth="2" NCoef="0" IVar="4" Cut="5.2661871337890625e+02" cType="1" res="-2.5908572133630514e-03" rms="1.7726048827171326e-01" purity="5.4425179958343506e-01" nType="0">
            <Node pos="l" depth="3" NCoef="0" IVar="-1" Cut="0.0000000000000000e+00" cType="1" res="-1.1077177710831165e-02" rms="1.9642366468906403e-01" purity="3.1237939000129700e-01" nType="-99"/>
            <Node pos="r" depth="3" NCoef="0" IVar="-1" Cut="0.0000000000000000e+00" cType="1" res="5.2412361837923527e-03" rms="1.3729648292064667e-01" purity="9.5064824819564819e-01" nType="-99"/>
          </Node>
          <Node pos="r" depth="2" NCoef="0" IVar="9" Cut="1.4284155368804932e+00" cType="1" res="4.3948008678853512e-03" rms="2.0345301926136017e-01" purity="4.2989155650138855e-01" nType="0">
            <Node pos="l" depth="3" NCoef="0" IVar="-1" Cut="0.0000000000000000e+00" cType="1" res="6.0149664059281349e-03" rms="1.9830282032489777e-01" purity="4.4070988893508911e-01" nType="-99"/>
            <Node pos="r" depth="3" NCoef="0" IVar="-1" Cut="0.0000000000000000e+00" cType="1" res="3.6239899694919586e-02" rms="2.3912733793258667e-01" purity="3.4571430087089539e-01" nType="-99"/>
          </Node>
        </Node>
      </Node>
    </BinaryTree>
    <BinaryTree type="DecisionTree" boostWeight="1.0000000000000000e+00" itree="300">
      <Node pos="s" depth="0" NCoef="0" IVar="10" Cut="-1.4665656089782715e+00" cType="1" res="-6.7008222686126828e-04" rms="1.8978413939476013e-01" purity="4.9632635712623596e-01" nType="0">
        <Node pos="l" depth="1" NCoef="0" IVar="9" Cut="-6.6613066196441650e-01" cType="1" res="-6.8820375017821789e-03" rms="2.0736379921436310e-01" purity="4.3919399380683899e-01" nType="0">
          <Node pos="l" depth="2" NCoef="0" IVar="-1" Cut="0.0000000000000000e+00" cType="1" res="1.2354200705885887e-02" rms="2.1533782780170441e-01" purity="3.8082829117774963e-01" nType="-99"/>
          <Node pos="r" depth="2" NCoef="0" IVar="7" Cut="-2.9625797271728516e-01" cType="1" res="-1.2994724325835705e-02" rms="2.0301854610443115e-01" purity="4.6811953186988831e-01" nType="0">
            <Node pos="l" depth="3" NCoef="0" IVar="-1" Cut="0.0000000000000000e+00" cType="1" res="-7.0967315696179867e-04" rms="2.1419222652912140e-01" purity="4.4047749042510986e-01" nType="-99"/>
            <Node pos="r" depth="3" NCoef="0" IVar="-1" Cut="0.0000000000000000e+00" cType="1" res="-4.6432819217443466e-02" rms="1.9564238190650940e-01" purity="4.8464944958686829e-01" nType="-99"/>
          </Node>
        </Node>
        <Node pos="r" depth="1" NCoef="0" IVar="10" Cut="-4.5075970888137817e-01" cType="1" res="1.7996570386458188e-04" rms="1.8723416328430176e-01" purity="5.0414437055587769e-01" nType="0">
          <Node pos="l" depth="2" NCoef="0" IVar="4" Cut="4.2042822265625000e+02" cType="1" res="4.7625452280044556e-03" rms="1.8905544281005859e-01" purity="5.0816512107849121e-01" nType="0">
            <Node pos="l" depth="3" NCoef="0" IVar="-1" Cut="0.0000000000000000e+00" cType="1" res="2.6082156226038933e-02" rms="2.1057267487049103e-01" purity="1.7399655282497406e-01" nType="-99"/>
            <Node pos="r" depth="3" NCoef="0" IVar="-1" Cut="0.0000000000000000e+00" cType="1" res="-2.1046553738415241e-03" rms="1.6285319626331329e-01" purity="8.6435878276824951e-01" nType="-99"/>
          </Node>
          <Node pos="r" depth="2" NCoef="0" IVar="8" Cut="1.3398867845535278e-01" cType="1" res="-1.5744148986414075e-03" rms="1.8650239706039429e-01" purity="5.0260514020919800e-01" nType="0">
            <Node pos="l" depth="3" NCoef="0" IVar="-1" Cut="0.0000000000000000e+00" cType="1" res="4.9550533294677734e-03" rms="1.9098903238773346e-01" purity="5.2678328752517700e-01" nType="-99"/>
            <Node pos="r" depth="3" NCoef="0" IVar="-1" Cut="0.0000000000000000e+00" cType="1" res="-1.5642534941434860e-02" rms="1.8118102848529816e-01" purity="4.7505351901054382e-01" nType="-99"/>
          </Node>
        </Node>
      </Node>
    </BinaryTree>
    <BinaryTree type="DecisionTree" boostWeight="1.0000000000000000e+00" itree="301">
      <Node pos="s" depth="0" NCoef="0" IVar="10" Cut="1.4666501283645630e+00" cType="1" res="7.4641691753640771e-04" rms="1.8968527019023895e-01" purity="4.9761340022087097e-01" nType="0">
        <Node pos="l" depth="1" NCoef="0" IVar="0" Cut="5.8882476806640625e+02" cType="1" res="1.9059581682085991e-03" rms="1.8606905639171600e-01" purity="5.0737488269805908e-01" nType="0">
          <Node pos="l" depth="2" NCoef="0" IVar="1" Cut="2.0485749511718750e+03" cType="1" res="4.5775282196700573e-03" rms="1.9045870006084442e-01" purity="1.0079648345708847e-01" nType="0">
            <Node pos="l" depth="3" NCoef="0" IVar="-1" Cut="0.0000000000000000e+00" cType="1" res="2.8047056403011084e-03" rms="1.5649521350860596e-01" purity="3.1601727008819580e-02" nType="-99"/>
            <Node pos="r" depth="3" NCoef="0" IVar="-1" Cut="0.0000000000000000e+00" cType="1" res="2.6526967063546181e-02" rms="3.5463476181030273e-01" purity="6.3230377435684204e-01" nType="-99"/>
          </Node>
          <Node pos="r" depth="2" NCoef="0" IVar="4" Cut="3.2219796752929688e+02" cType="1" res="1.9956908363383263e-04" rms="1.8318986892700195e-01" purity="7.6706522703170776e-01" nType="0">
            <Node pos="l" depth="3" NCoef="0" IVar="-1" Cut="0.0000000000000000e+00" cType="1" res="1.1096087284386158e-02" rms="2.3206992447376251e-01" purity="1.8525095283985138e-01" nType="-99"/>
            <Node pos="r" depth="3" NCoef="0" IVar="-1" Cut="0.0000000000000000e+00" cType="1" res="-4.7345021739602089e-03" rms="1.6718506813049316e-01" purity="9.2749482393264771e-01" nType="-99"/>
          </Node>
        </Node>
        <Node pos="r" depth="1" NCoef="0" IVar="8" Cut="-4.0013200044631958e-01" cType="1" res="-7.7983867377042770e-03" rms="2.1426810324192047e-01" purity="4.2567998170852661e-01" nType="0">
          <Node pos="l" depth="2" NCoef="0" IVar="-1" Cut="0.0000000000000000e+00" cType="1" res="-5.5811975151300430e-02" rms="2.0545285940170288e-01" purity="4.0817371010780334e-01" nType="-99"/>
          <Node pos="r" depth="2" NCoef="0" IVar="7" Cut="-3.4327855706214905e-01" cType="1" res="8.4628161857835948e-05" rms="2.1751110255718231e-01" purity="4.3327686190605164e-01" nType="0">
            <Node pos="l" depth="3" NCoef="0" IVar="-1" Cut="0.0000000000000000e+00" cType="1" res="-3.2130375504493713e-02" rms="2.2578883171081543e-01" purity="4.1346782445907593e-01" nType="-99"/>
            <Node pos="r" depth="3" NCoef="0" IVar="-1" Cut="0.0000000000000000e+00" cType="1" res="1.5416677109897137e-02" rms="2.1336019039154053e-01" purity="4.4219708442687988e-01" nType="-99"/>
          </Node>
        </Node>
      </Node>
    </BinaryTree>
    <BinaryTree type="DecisionTree" boostWeight="1.0000000000000000e+00" itree="302">
      <Node pos="s" depth="0" NCoef="0" IVar="10" Cut="-1.3329666852951050e-01" cType="1" res="-8.3038484444841743e-04" rms="1.8868461251258850e-01" purity="4.9852457642555237e-01" nType="0">
        <Node pos="l" depth="1" NCoef="0" IVar="1" Cut="2.2266704101562500e+03" cType="1" res="2.4260720238089561e-03" rms="1.9421157240867615e-01" purity="4.9402180314064026e-01" nType="0">
          <Node pos="l" depth="2" NCoef="0" IVar="1" Cut="1.7542749023437500e+03" cType="1" res="6.3657243736088276e-03" rms="2.0306544005870819e-01" purity="6.9218754768371582e-02" nType="0">
            <Node pos="l" depth="3" NCoef="0" IVar="-1" Cut="0.0000000000000000e+00" cType="1" res="-2.7291304431855679e-03" rms="1.1474612355232239e-01" purity="1.4273757115006447e-02" nType="-99"/>
            <Node pos="r" depth="3" NCoef="0" IVar="-1" Cut="0.0000000000000000e+00" cType="1" res="2.3039175197482109e-02" rms="3.3887863159179688e-01" purity="2.1414825320243835e-01" nType="-99"/>
          </Node>
          <Node pos="r" depth="2" NCoef="0" IVar="4" Cut="4.1980609130859375e+02" cType="1" res="-1.6616492066532373e-03" rms="1.8448762595653534e-01" purity="9.3479079008102417e-01" nType="0">
            <Node pos="l" depth="3" NCoef="0" IVar="-1" Cut="0.0000000000000000e+00" cType="1" res="-1.1927824467420578e-02" rms="2.7769184112548828e-01" purity="8.1210654973983765e-01" nType="-99"/>
            <Node pos="r" depth="3" NCoef="0" IVar="-1" Cut="0.0000000000000000e+00" cType="1" res="-5.5226453696377575e-05" rms="1.5937548875808716e-01" purity="9.5933735370635986e-01" nType="-99"/>
          </Node>
        </Node>
        <Node pos="r" depth="1" NCoef="0" IVar="10" Cut="1.8222131729125977e+00" cType="1" res="-3.5680860746651888e-03" rms="1.8386501073837280e-01" purity="5.0231003761291504e-01" nType="0">
          <Node pos="l" depth="2" NCoef="0" IVar="1" Cut="2.8021572265625000e+03" cType="1" res="-4.6970900148153305e-03" rms="1.7522400617599487e-01" purity="5.1494699716567993e-01" nType="0">
            <Node pos="l" depth="3" NCoef="0" IVar="-1" Cut="0.0000000000000000e+00" cType="1" res="-1.6583180055022240e-02" rms="2.0941910147666931e-01" purity="1.8600894510746002e-01" nType="-99"/>
            <Node pos="r" depth="3" NCoef="0" IVar="-1" Cut="0.0000000000000000e+00" cType="1" res="-3.3725099638104439e-03" rms="1.0886934399604797e-01" purity="9.8560011386871338e-01" nType="-99"/>
          </Node>
          <Node pos="r" depth="2" NCoef="0" IVar="10" Cut="2.1015913486480713e+00" cType="1" res="3.8460814394056797e-03" rms="2.3263634741306305e-01" purity="4.1932347416877747e-01" nType="0">
            <Node pos="l" depth="3" NCoef="0" IVar="-1" Cut="0.0000000000000000e+00" cType="1" res="4.4201225042343140e-02" rms="2.4038313329219818e-01" purity="4.6998131275177002e-01" nType="-99"/>
            <Node pos="r" depth="3" NCoef="0" IVar="-1" Cut="0.0000000000000000e+00" cType="1" res="-2.1887701004743576e-02" rms="2.2515001893043518e-01" purity="3.7962555885314941e-01" nType="-99"/>
          </Node>
        </Node>
      </Node>
    </BinaryTree>
    <BinaryTree type="DecisionTree" boostWeight="1.0000000000000000e+00" itree="303">
      <Node pos="s" depth="0" NCoef="0" IVar="9" Cut="-1.1999422311782837e+00" cType="1" res="-2.3391883587464690e-04" rms="1.8763655424118042e-01" purity="5.0197869539260864e-01" nType="0">
        <Node pos="l" depth="1" NCoef="0" IVar="8" Cut="6.6629064083099365e-01" cType="1" res="-7.6487818732857704e-03" rms="1.9732445478439331e-01" purity="3.7078467011451721e-01" nType="0">
          <Node pos="l" depth="2" NCoef="0" IVar="9" Cut="-1.9617809057235718e+00" cType="1" res="-3.4673190675675869e-03" rms="1.9393360614776611e-01" purity="3.9853081107139587e-01" nType="0">
            <Node pos="l" depth="3" NCoef="0" IVar="-1" Cut="0.0000000000000000e+00" cType="1" res="2.6769397780299187e-02" rms="2.3953434824943542e-01" purity="2.9770100116729736e-01" nType="-99"/>
            <Node pos="r" depth="3" NCoef="0" IVar="-1" Cut="0.0000000000000000e+00" cType="1" res="-2.3934179916977882e-02" rms="1.7708744108676910e-01" purity="4.2982390522956848e-01" nType="-99"/>
          </Node>
          <Node pos="r" depth="2" NCoef="0" IVar="-1" Cut="0.0000000000000000e+00" cType="1" res="-4.3590974062681198e-02" rms="2.0686657726764679e-01" purity="2.8554928302764893e-01" nType="-99"/>
        </Node>
        <Node pos="r" depth="1" NCoef="0" IVar="8" Cut="3.9984172582626343e-01" cType="1" res="9.8892604000866413e-04" rms="1.8596197664737701e-01" purity="5.2361494302749634e-01" nType="0">
          <Node pos="l" depth="2" NCoef="0" IVar="9" Cut="-1.0094832181930542e+00" cType="1" res="-1.5167339006438851e-03" rms="1.8163983523845673e-01" purity="5.4677277803421021e-01" nType="0">
            <Node pos="l" depth="3" NCoef="0" IVar="-1" Cut="0.0000000000000000e+00" cType="1" res="4.1480116546154022e-02" rms="2.1343462169170380e-01" purity="5.2492052316665649e-01" nType="-99"/>
            <Node pos="r" depth="3" NCoef="0" IVar="-1" Cut="0.0000000000000000e+00" cType="1" res="-7.1670608595013618e-03" rms="1.7973852157592773e-01" purity="5.4794132709503174e-01" nType="-99"/>
          </Node>
          <Node pos="r" depth="2" NCoef="0" IVar="2" Cut="5.7417888194322586e-02" cType="1" res="5.6606968864798546e-03" rms="1.9367671012878418e-01" purity="4.8043739795684814e-01" nType="0">
            <Node pos="l" depth="3" NCoef="0" IVar="-1" Cut="0.0000000000000000e+00" cType="1" res="4.6060173772275448e-03" rms="1.9488042593002319e-01" purity="3.5510969161987305e-01" nType="-99"/>
            <Node pos="r" depth="3" NCoef="0" IVar="-1" Cut="0.0000000000000000e+00" cType="1" res="4.1990470141172409e-02" rms="1.9081506133079529e-01" purity="7.4831485748291016e-01" nType="-99"/>
          </Node>
        </Node>
      </Node>
    </BinaryTree>
    <BinaryTree type="DecisionTree" boostWeight="1.0000000000000000e+00" itree="304">
      <Node pos="s" depth="0" NCoef="0" IVar="9" Cut="9.3325418233871460e-01" cType="1" res="1.2839936243835837e-04" rms="1.8628782033920288e-01" purity="5.0055360794067383e-01" nType="0">
        <Node pos="l" depth="1" NCoef="0" IVar="3" Cut="5.0089886474609375e+02" cType="1" res="-1.3497882755473256e-03" rms="1.7895661294460297e-01" purity="5.1952677965164185e-01" nType="0">
          <Node pos="l" depth="2" NCoef="0" IVar="5" Cut="2.2010954284667969e+02" cType="1" res="-5.5807805620133877e-03" rms="1.8378494679927826e-01" purity="1.0080385208129883e-01" nType="0">
            <Node pos="l" depth="3" NCoef="0" IVar="-1" Cut="0.0000000000000000e+00" cType="1" res="-1.9050351693294942e-04" rms="1.4100813865661621e-01" purity="2.8415298089385033e-02" nType="-99"/>
            <Node pos="r" depth="3" NCoef="0" IVar="-1" Cut="0.0000000000000000e+00" cType="1" res="-2.3288922384381294e-02" rms="2.5198957324028015e-01" purity="2.5674775242805481e-01" nType="-99"/>
          </Node>
          <Node pos="r" depth="2" NCoef="0" IVar="10" Cut="6.6660672426223755e-01" cType="1" res="-1.4047938748262823e-04" rms="1.7753392457962036e-01" purity="6.3920682668685913e-01" nType="0">
            <Node pos="l" depth="3" NCoef="0" IVar="-1" Cut="0.0000000000000000e+00" cType="1" res="4.5312428846955299e-03" rms="1.7654842138290405e-01" purity="6.3710904121398926e-01" nType="-99"/>
            <Node pos="r" depth="3" NCoef="0" IVar="-1" Cut="0.0000000000000000e+00" cType="1" res="-1.1711063794791698e-02" rms="1.7987526953220367e-01" purity="6.4436292648315430e-01" nType="-99"/>
          </Node>
        </Node>
        <Node pos="r" depth="1" NCoef="0" IVar="5" Cut="2.1359358215332031e+02" cType="1" res="5.8762608096003532e-03" rms="2.1230559051036835e-01" purity="4.2677727341651917e-01" nType="0">
          <Node pos="l" depth="2" NCoef="0" IVar="6" Cut="1.1884145355224609e+02" cType="1" res="1.3282217085361481e-02" rms="2.1637625992298126e-01" purity="1.6644881665706635e-01" nType="0">
            <Node pos="l" depth="3" NCoef="0" IVar="-1" Cut="0.0000000000000000e+00" cType="1" res="9.1831563040614128e-03" rms="1.8764948844909668e-01" purity="9.6398919820785522e-02" nType="-99"/>
            <Node pos="r" depth="3" NCoef="0" IVar="-1" Cut="0.0000000000000000e+00" cType="1" res="6.0991737991571426e-02" rms="2.7898588776588440e-01" purity="3.6014237999916077e-01" nType="-99"/>
          </Node>
          <Node pos="r" depth="2" NCoef="0" IVar="3" Cut="5.8962640380859375e+02" cType="1" res="-3.2097394578158855e-03" rms="2.0684036612510681e-01" purity="7.4616134166717529e-01" nType="0">
            <Node pos="l" depth="3" NCoef="0" IVar="-1" Cut="0.0000000000000000e+00" cType="1" res="-2.2722467780113220e-02" rms="2.6540037989616394e-01" purity="3.4161677956581116e-01" nType="-99"/>
            <Node pos="r" depth="3" NCoef="0" IVar="-1" Cut="0.0000000000000000e+00" cType="1" res="7.3712230660021305e-03" rms="1.7583732306957245e-01" purity="9.1814142465591431e-01" nType="-99"/>
          </Node>
        </Node>
      </Node>
    </BinaryTree>
    <BinaryTree type="DecisionTree" boostWeight="1.0000000000000000e+00" itree="305">
      <Node pos="s" depth="0" NCoef="0" IVar="10" Cut="-1.7333643436431885e+00" cType="1" res="1.7109080217778683e-03" rms="1.8934193253517151e-01" purity="5.0035780668258667e-01" nType="0">
        <Node pos="l" depth="1" NCoef="0" IVar="3" Cut="6.2588848876953125e+02" cType="1" res="1.7415875568985939e-02" rms="2.4183417856693268e-01" purity="4.2856857180595398e-01" nType="0">
          <Node pos="l" depth="2" NCoef="0" IVar="-1" Cut="0.0000000000000000e+00" cType="1" res="6.2597744166851044e-02" rms="2.6733803749084473e-01" purity="1.9167211651802063e-01" nType="-99"/>
          <Node pos="r" depth="2" NCoef="0" IVar="-1" Cut="0.0000000000000000e+00" cType="1" res="7.6938359998166561e-03" rms="2.1305914223194122e-01" purity="6.6067087650299072e-01" nType="-99"/>
        </Node>
        <Node pos="r" depth="1" NCoef="0" IVar="7" Cut="1.4688236713409424e+00" cType="1" res="2.7342623798176646e-04" rms="1.8372283875942230e-01" purity="5.0692868232727051e-01" nType="0">
          <Node pos="l" depth="2" NCoef="0" IVar="4" Cut="4.1370495605468750e+02" cType="1" res="-2.5347303017042577e-04" rms="1.8173553049564362e-01" purity="5.2383732795715332e-01" nType="0">
            <Node pos="l" depth="3" NCoef="0" IVar="-1" Cut="0.0000000000000000e+00" cType="1" res="-8.3345910534262657e-03" rms="1.9331298768520355e-01" purity="1.6639824211597443e-01" nType="-99"/>
            <Node pos="r" depth="3" NCoef="0" IVar="-1" Cut="0.0000000000000000e+00" cType="1" res="9.2920511960983276e-03" rms="1.6960763931274414e-01" purity="8.7314188480377197e-01" nType="-99"/>
          </Node>
          <Node pos="r" depth="2" NCoef="0" IVar="-1" Cut="0.0000000000000000e+00" cType="1" res="3.3048875629901886e-02" rms="2.2324648499488831e-01" purity="1.2907969951629639e-01" nType="-99"/>
        </Node>
      </Node>
    </BinaryTree>
    <BinaryTree type="DecisionTree" boostWeight="1.0000000000000000e+00" itree="306">
      <Node pos="s" depth="0" NCoef="0" IVar="9" Cut="1.4665660858154297e+00" cType="1" res="1.0532125597819686e-03" rms="1.8886353075504303e-01" purity="5.0147891044616699e-01" nType="0">
        <Node pos="l" depth="1" NCoef="0" IVar="7" Cut="9.7021842002868652e-01" cType="1" res="-3.7273176712915301e-04" rms="1.8261899054050446e-01" purity="5.1539742946624756e-01" nType="0">
          <Node pos="l" depth="2" NCoef="0" IVar="10" Cut="-3.9993318915367126e-01" cType="1" res="8.9182442752644420e-04" rms="1.8246218562126160e-01" purity="5.4908680915832520e-01" nType="0">
            <Node pos="l" depth="3" NCoef="0" IVar="-1" Cut="0.0000000000000000e+00" cType="1" res="1.3927222229540348e-02" rms="1.8807494640350342e-01" purity="5.2451336383819580e-01" nType="-99"/>
            <Node pos="r" depth="3" NCoef="0" IVar="-1" Cut="0.0000000000000000e+00" cType="1" res="-4.9581876955926418e-03" rms="1.7889507114887238e-01" purity="5.6412398815155029e-01" nType="-99"/>
          </Node>
          <Node pos="r" depth="2" NCoef="0" IVar="8" Cut="4.0059843659400940e-01" cType="1" res="-9.4996038824319839e-03" rms="1.8348844349384308e-01" purity="2.7224603295326233e-01" nType="0">
            <Node pos="l" depth="3" NCoef="0" IVar="-1" Cut="0.0000000000000000e+00" cType="1" res="-4.0952514857053757e-02" rms="1.7280302941799164e-01" purity="2.6905852556228638e-01" nType="-99"/>
            <Node pos="r" depth="3" NCoef="0" IVar="-1" Cut="0.0000000000000000e+00" cType="1" res="2.0162053406238556e-03" rms="2.0199413597583771e-01" purity="2.7835577726364136e-01" nType="-99"/>
          </Node>
        </Node>
        <Node pos="r" depth="1" NCoef="0" IVar="3" Cut="4.8106884765625000e+02" cType="1" res="1.4652718789875507e-02" rms="2.3997682332992554e-01" purity="3.6873552203178406e-01" nType="0">
          <Node pos="l" depth="2" NCoef="0" IVar="-1" Cut="0.0000000000000000e+00" cType="1" res="6.6159278154373169e-02" rms="2.6737421751022339e-01" purity="1.6040641069412231e-01" nType="-99"/>
          <Node pos="r" depth="2" NCoef="0" IVar="2" Cut="1.6458218917250633e-02" cType="1" res="6.1913272365927696e-03" rms="2.2829477488994598e-01" purity="4.4678610563278198e-01" nType="0">
            <Node pos="l" depth="3" NCoef="0" IVar="-1" Cut="0.0000000000000000e+00" cType="1" res="6.0669519007205963e-02" rms="2.4700848758220673e-01" purity="2.1793469786643982e-01" nType="-99"/>
            <Node pos="r" depth="3" NCoef="0" IVar="-1" Cut="0.0000000000000000e+00" cType="1" res="-1.7897401005029678e-02" rms="2.1434195339679718e-01" purity="5.9089422225952148e-01" nType="-99"/>
          </Node>
        </Node>
      </Node>
    </BinaryTree>
    <BinaryTree type="DecisionTree" boostWeight="1.0000000000000000e+00" itree="307">
      <Node pos="s" depth="0" NCoef="0" IVar="9" Cut="1.9998800754547119e+00" cType="1" res="4.0553105645813048e-04" rms="1.8686756491661072e-01" purity="4.9921324849128723e-01" nType="0">
        <Node pos="l" depth="1" NCoef="0" IVar="8" Cut="4.0007492899894714e-01" cType="1" res="1.0491714347153902e-03" rms="1.8582609295845032e-01" purity="5.0883728265762329e-01" nType="0">
          <Node pos="l" depth="2" NCoef="0" IVar="9" Cut="1.5426248311996460e+00" cType="1" res="2.5247631128877401e-03" rms="1.8235431611537933e-01" purity="5.3123730421066284e-01" nType="0">
            <Node pos="l" depth="3" NCoef="0" IVar="-1" Cut="0.0000000000000000e+00" cType="1" res="1.0386254638433456e-02" rms="1.8117392063140869e-01" purity="5.3753405809402466e-01" nType="-99"/>
            <Node pos="r" depth="3" NCoef="0" IVar="-1" Cut="0.0000000000000000e+00" cType="1" res="-3.2879855483770370e-02" rms="2.0454975962638855e-01" purity="3.9992079138755798e-01" nType="-99"/>
          </Node>
          <Node pos="r" depth="2" NCoef="0" IVar="5" Cut="2.5660937500000000e+02" cType="1" res="-1.7724315403029323e-03" rms="1.9225876033306122e-01" purity="4.6600428223609924e-01" nType="0">
            <Node pos="l" depth="3" NCoef="0" IVar="-1" Cut="0.0000000000000000e+00" cType="1" res="6.3252532854676247e-03" rms="2.0371711254119873e-01" purity="1.7610956728458405e-01" nType="-99"/>
            <Node pos="r" depth="3" NCoef="0" IVar="-1" Cut="0.0000000000000000e+00" cType="1" res="-2.4116965010762215e-02" rms="1.7487785220146179e-01" purity="8.6965948343276978e-01" nType="-99"/>
          </Node>
        </Node>
        <Node pos="r" depth="1" NCoef="0" IVar="-1" Cut="0.0000000000000000e+00" cType="1" res="-3.8933027535676956e-02" rms="2.1457226574420929e-01" purity="2.1413952112197876e-01" nType="-99"/>
      </Node>
    </BinaryTree>
    <BinaryTree type="DecisionTree" boostWeight="1.0000000000000000e+00" itree="308">
      <Node pos="s" depth="0" NCoef="0" IVar="8" Cut="1.4667034149169922e+00" cType="1" res="1.7388674896210432e-03" rms="1.9184140861034393e-01" purity="5.0389015674591064e-01" nType="0">
        <Node pos="l" depth="1" NCoef="0" IVar="3" Cut="1.3183535156250000e+03" cType="1" res="7.4652163311839104e-04" rms="1.8613518774509430e-01" purity="5.2386343479156494e-01" nType="0">
          <Node pos="l" depth="2" NCoef="0" IVar="3" Cut="4.1332821655273438e+02" cType="1" res="1.2943310430273414e-03" rms="1.8753160536289215e-01" purity="5.0218749046325684e-01" nType="0">
            <Node pos="l" depth="3" NCoef="0" IVar="-1" Cut="0.0000000000000000e+00" cType="1" res="-2.4478698149323463e-02" rms="1.7069579660892487e-01" purity="4.7869939357042313e-02" nType="-99"/>
            <Node pos="r" depth="3" NCoef="0" IVar="-1" Cut="0.0000000000000000e+00" cType="1" res="6.6574937663972378e-03" rms="1.8949328362941742e-01" purity="5.5877470970153809e-01" nType="-99"/>
          </Node>
          <Node pos="r" depth="2" NCoef="0" IVar="-1" Cut="0.0000000000000000e+00" cType="1" res="-5.5145516991615295e-02" rms="1.5465746819972992e-01" purity="9.6409571170806885e-01" nType="-99"/>
        </Node>
        <Node pos="r" depth="1" NCoef="0" IVar="2" Cut="1.8490565940737724e-02" cType="1" res="1.4259372837841511e-02" rms="2.5267896056175232e-01" purity="2.5188598036766052e-01" nType="0">
          <Node pos="l" depth="2" NCoef="0" IVar="-1" Cut="0.0000000000000000e+00" cType="1" res="5.7422932237386703e-02" rms="2.6095163822174072e-01" purity="1.4457832276821136e-01" nType="-99"/>
          <Node pos="r" depth="2" NCoef="0" IVar="-1" Cut="0.0000000000000000e+00" cType="1" res="2.2543864906765521e-04" rms="2.3859190940856934e-01" purity="4.1836997866630554e-01" nType="-99"/>
        </Node>
      </Node>
    </BinaryTree>
    <BinaryTree type="DecisionTree" boostWeight="1.0000000000000000e+00" itree="309">
      <Node pos="s" depth="0" NCoef="0" IVar="8" Cut="-1.4666815996170044e+00" cType="1" res="-1.4535121154040098e-03" rms="1.8815030157566071e-01" purity="5.0019842386245728e-01" nType="0">
        <Node pos="l" depth="1" NCoef="0" IVar="1" Cut="1.6228161621093750e+03" cType="1" res="-1.0412583127617836e-02" rms="1.9548155367374420e-01" purity="2.3086206614971161e-01" nType="0">
          <Node pos="l" depth="2" NCoef="0" IVar="-1" Cut="0.0000000000000000e+00" cType="1" res="8.6597157642245293e-03" rms="1.0479049384593964e-01" purity="1.2300244532525539e-02" nType="-99"/>
          <Node pos="r" depth="2" NCoef="0" IVar="-1" Cut="0.0000000000000000e+00" cType="1" res="-2.9398493468761444e-02" rms="2.4952556192874908e-01" purity="4.2562419176101685e-01" nType="-99"/>
        </Node>
        <Node pos="r" depth="1" NCoef="0" IVar="8" Cut="-1.2635061740875244e+00" cType="1" res="-7.7630730811506510e-04" rms="1.8756709992885590e-01" purity="5.2055728435516357e-01" nType="0">
          <Node pos="l" depth="2" NCoef="0" IVar="-1" Cut="0.0000000000000000e+00" cType="1" res="4.3908324092626572e-02" rms="2.3095498979091644e-01" purity="4.1296371817588806e-01" nType="-99"/>
          <Node pos="r" depth="2" NCoef="0" IVar="0" Cut="1.0356225585937500e+03" cType="1" res="-1.4817981282249093e-03" rms="1.8588636815547943e-01" purity="5.2418595552444458e-01" nType="0">
            <Node pos="l" depth="3" NCoef="0" IVar="-1" Cut="0.0000000000000000e+00" cType="1" res="-7.5958720408380032e-03" rms="2.0331637561321259e-01" purity="3.6210316419601440e-01" nType="-99"/>
            <Node pos="r" depth="3" NCoef="0" IVar="-1" Cut="0.0000000000000000e+00" cType="1" res="1.8912540748715401e-02" rms="1.2551106512546539e-01" purity="9.7266501188278198e-01" nType="-99"/>
          </Node>
        </Node>
      </Node>
    </BinaryTree>
    <BinaryTree type="DecisionTree" boostWeight="1.0000000000000000e+00" itree="310">
      <Node pos="s" depth="0" NCoef="0" IVar="9" Cut="9.3325418233871460e-01" cType="1" res="4.0658630314283073e-04" rms="1.9277039170265198e-01" purity="4.9775475263595581e-01" nType="0">
        <Node pos="l" depth="1" NCoef="0" IVar="7" Cut="-6.1632066965103149e-01" cType="1" res="-1.3736491091549397e-03" rms="1.8619300425052643e-01" purity="5.1637500524520874e-01" nType="0">
          <Node pos="l" depth="2" NCoef="0" IVar="0" Cut="8.0780865478515625e+02" cType="1" res="-7.1121435612440109e-03" rms="1.8615280091762543e-01" purity="3.6535766720771790e-01" nType="0">
            <Node pos="l" depth="3" NCoef="0" IVar="-1" Cut="0.0000000000000000e+00" cType="1" res="-2.6986779645085335e-02" rms="1.8708057701587677e-01" purity="1.4888504147529602e-01" nType="-99"/>
            <Node pos="r" depth="3" NCoef="0" IVar="-1" Cut="0.0000000000000000e+00" cType="1" res="1.1609953362494707e-03" rms="1.8370810151100159e-01" purity="8.8085937500000000e-01" nType="-99"/>
          </Node>
          <Node pos="r" depth="2" NCoef="0" IVar="7" Cut="-4.5371091365814209e-01" cType="1" res="2.5764110614545643e-04" rms="1.8617214262485504e-01" purity="5.5930495262145996e-01" nType="0">
            <Node pos="l" depth="3" NCoef="0" IVar="-1" Cut="0.0000000000000000e+00" cType="1" res="4.0815476328134537e-02" rms="2.0154951512813568e-01" purity="5.9519350528717041e-01" nType="-99"/>
            <Node pos="r" depth="3" NCoef="0" IVar="-1" Cut="0.0000000000000000e+00" cType="1" res="-3.1430691014975309e-03" rms="1.8460431694984436e-01" purity="5.5592620372772217e-01" nType="-99"/>
          </Node>
        </Node>
        <Node pos="r" depth="1" NCoef="0" IVar="1" Cut="1.8629227294921875e+03" cType="1" res="7.2493688203394413e-03" rms="2.1606092154979706e-01" purity="4.2618328332901001e-01" nType="0">
          <Node pos="l" depth="2" NCoef="0" IVar="4" Cut="3.3190240478515625e+02" cType="1" res="4.2389388545416296e-04" rms="1.5318855643272400e-01" purity="2.9227012768387794e-02" nType="0">
            <Node pos="l" depth="3" NCoef="0" IVar="-1" Cut="0.0000000000000000e+00" cType="1" res="-1.9166914746165276e-02" rms="1.2857916951179504e-01" purity="2.0092030987143517e-02" nType="-99"/>
            <Node pos="r" depth="3" NCoef="0" IVar="-1" Cut="0.0000000000000000e+00" cType="1" res="3.6391265690326691e-02" rms="2.0578815042972565e-01" purity="5.4356560111045837e-02" nType="-99"/>
          </Node>
          <Node pos="r" depth="2" NCoef="0" IVar="1" Cut="2.2817622070312500e+03" cType="1" res="1.3582981191575527e-02" rms="2.6103943586349487e-01" purity="7.9453378915786743e-01" nType="0">
            <Node pos="l" depth="3" NCoef="0" IVar="-1" Cut="0.0000000000000000e+00" cType="1" res="3.5738874226808548e-02" rms="3.9867681264877319e-01" purity="3.7090209126472473e-01" nType="-99"/>
            <Node pos="r" depth="3" NCoef="0" IVar="-1" Cut="0.0000000000000000e+00" cType="1" res="3.0568849761039019e-03" rms="1.9357661902904510e-01" purity="9.3475109338760376e-01" nType="-99"/>
          </Node>
        </Node>
      </Node>
    </BinaryTree>
    <BinaryTree type="DecisionTree" boostWeight="1.0000000000000000e+00" itree="311">
      <Node pos="s" depth="0" NCoef="0" IVar="2" Cut="6.1890516430139542e-02" cType="1" res="-1.2560586910694838e-03" rms="1.8835353851318359e-01" purity="4.9425774812698364e-01" nType="0">
        <Node pos="l" depth="1" NCoef="0" IVar="1" Cut="1.9496260986328125e+03" cType="1" res="-2.7961130253970623e-03" rms="1.9299286603927612e-01" purity="3.6939182877540588e-01" nType="0">
          <Node pos="l" depth="2" NCoef="0" IVar="6" Cut="1.5278155517578125e+02" cType="1" res="2.8285730513744056e-04" rms="1.4277572929859161e-01" purity="2.4725940078496933e-02" nType="0">
            <Node pos="l" depth="3" NCoef="0" IVar="-1" Cut="0.0000000000000000e+00" cType="1" res="1.6852268949151039e-02" rms="1.3659964501857758e-01" purity="2.2548902779817581e-02" nType="-99"/>
            <Node pos="r" depth="3" NCoef="0" IVar="-1" Cut="0.0000000000000000e+00" cType="1" res="-4.8247296363115311e-02" rms="1.9288909435272217e-01" purity="4.6925261616706848e-02" nType="-99"/>
          </Node>
          <Node pos="r" depth="2" NCoef="0" IVar="5" Cut="1.5125518798828125e+02" cType="1" res="-6.6006258130073547e-03" rms="2.4094536900520325e-01" purity="7.9527640342712402e-01" nType="0">
            <Node pos="l" depth="3" NCoef="0" IVar="-1" Cut="0.0000000000000000e+00" cType="1" res="-2.8490470722317696e-02" rms="2.9407674074172974e-01" purity="2.8729230165481567e-01" nType="-99"/>
            <Node pos="r" depth="3" NCoef="0" IVar="-1" Cut="0.0000000000000000e+00" cType="1" res="-6.7790448665618896e-03" rms="2.3273234069347382e-01" purity="8.6348736286163330e-01" nType="-99"/>
          </Node>
        </Node>
        <Node pos="r" depth="1" NCoef="0" IVar="5" Cut="2.6264923095703125e+02" cType="1" res="1.8854958470910788e-03" rms="1.7847517132759094e-01" purity="7.4897146224975586e-01" nType="0">
          <Node pos="l" depth="2" NCoef="0" IVar="6" Cut="1.5014179992675781e+02" cType="1" res="8.6944550275802612e-03" rms="2.3609842360019684e-01" purity="3.3411321043968201e-01" nType="0">
            <Node pos="l" depth="3" NCoef="0" IVar="-1" Cut="0.0000000000000000e+00" cType="1" res="4.7156000509858131e-03" rms="2.2449812293052673e-01" purity="2.2487936913967133e-01" nType="-99"/>
            <Node pos="r" depth="3" NCoef="0" IVar="-1" Cut="0.0000000000000000e+00" cType="1" res="3.4750618040561676e-02" rms="2.5705301761627197e-01" purity="5.5046290159225464e-01" nType="-99"/>
          </Node>
          <Node pos="r" depth="2" NCoef="0" IVar="1" Cut="2.8033222656250000e+03" cType="1" res="-1.3294718228280544e-03" rms="1.4332313835620880e-01" purity="9.4485396146774292e-01" nType="0">
            <Node pos="l" depth="3" NCoef="0" IVar="-1" Cut="0.0000000000000000e+00" cType="1" res="-9.6164746209979057e-03" rms="2.8635284304618835e-01" purity="7.5738877058029175e-01" nType="-99"/>
            <Node pos="r" depth="3" NCoef="0" IVar="-1" Cut="0.0000000000000000e+00" cType="1" res="9.1643305495381355e-03" rms="6.0519415885210037e-02" purity="9.9630022048950195e-01" nType="-99"/>
          </Node>
        </Node>
      </Node>
    </BinaryTree>
    <BinaryTree type="DecisionTree" boostWeight="1.0000000000000000e+00" itree="312">
      <Node pos="s" depth="0" NCoef="0" IVar="10" Cut="1.9997719526290894e+00" cType="1" res="2.6564984000287950e-04" rms="1.8609906733036041e-01" purity="5.0184899568557739e-01" nType="0">
        <Node pos="l" depth="1" NCoef="0" IVar="7" Cut="-8.3468556404113770e-01" cType="1" res="9.1984891332685947e-04" rms="1.8407090008258820e-01" purity="5.0909495353698730e-01" nType="0">
          <Node pos="l" depth="2" NCoef="0" IVar="10" Cut="-2.8579744696617126e-01" cType="1" res="6.8519483320415020e-03" rms="1.9622699916362762e-01" purity="3.0043274164199829e-01" nType="0">
            <Node pos="l" depth="3" NCoef="0" IVar="-1" Cut="0.0000000000000000e+00" cType="1" res="-6.1807911843061447e-03" rms="1.8047119677066803e-01" purity="2.5770431756973267e-01" nType="-99"/>
            <Node pos="r" depth="3" NCoef="0" IVar="-1" Cut="0.0000000000000000e+00" cType="1" res="4.1022919118404388e-02" rms="2.0951768755912781e-01" purity="3.4031689167022705e-01" nType="-99"/>
          </Node>
          <Node pos="r" depth="2" NCoef="0" IVar="9" Cut="1.2000455856323242e+00" cType="1" res="-2.0231041708029807e-04" rms="1.8165811896324158e-01" purity="5.4856699705123901e-01" nType="0">
            <Node pos="l" depth="3" NCoef="0" IVar="-1" Cut="0.0000000000000000e+00" cType="1" res="-4.3230210430920124e-03" rms="1.7504060268402100e-01" purity="5.6324851512908936e-01" nType="-99"/>
            <Node pos="r" depth="3" NCoef="0" IVar="-1" Cut="0.0000000000000000e+00" cType="1" res="1.5510346740484238e-02" rms="2.1723318099975586e-01" purity="4.5990681648254395e-01" nType="-99"/>
          </Node>
        </Node>
        <Node pos="r" depth="1" NCoef="0" IVar="-1" Cut="0.0000000000000000e+00" cType="1" res="-2.5307195261120796e-02" rms="2.2216071188449860e-01" purity="3.5804715752601624e-01" nType="-99"/>
      </Node>
    </BinaryTree>
    <BinaryTree type="DecisionTree" boostWeight="1.0000000000000000e+00" itree="313">
      <Node pos="s" depth="0" NCoef="0" IVar="7" Cut="1.4063765108585358e-01" cType="1" res="-6.7111611133441329e-04" rms="1.8658059835433960e-01" purity="5.0092202425003052e-01" nType="0">
        <Node pos="l" depth="1" NCoef="0" IVar="9" Cut="9.3352013826370239e-01" cType="1" res="-3.2041841186583042e-03" rms="1.8266090750694275e-01" purity="5.1624876260757446e-01" nType="0">
          <Node pos="l" depth="2" NCoef="0" IVar="5" Cut="2.2041677856445312e+02" cType="1" res="-1.3859044993296266e-03" rms="1.7872396111488342e-01" purity="5.3609597682952881e-01" nType="0">
            <Node pos="l" depth="3" NCoef="0" IVar="-1" Cut="0.0000000000000000e+00" cType="1" res="-1.7521470785140991e-02" rms="1.6896380484104156e-01" purity="1.2365043908357620e-01" nType="-99"/>
            <Node pos="r" depth="3" NCoef="0" IVar="-1" Cut="0.0000000000000000e+00" cType="1" res="5.2285203710198402e-03" rms="1.8565739691257477e-01" purity="8.4597593545913696e-01" nType="-99"/>
          </Node>
          <Node pos="r" depth="2" NCoef="0" IVar="1" Cut="1.6686958007812500e+03" cType="1" res="-1.0878806933760643e-02" rms="1.9823552668094635e-01" purity="4.3247756361961365e-01" nType="0">
            <Node pos="l" depth="3" NCoef="0" IVar="-1" Cut="0.0000000000000000e+00" cType="1" res="-1.2238375842571259e-02" rms="1.0384418815374374e-01" purity="1.1305526830255985e-02" nType="-99"/>
            <Node pos="r" depth="3" NCoef="0" IVar="-1" Cut="0.0000000000000000e+00" cType="1" res="-2.8135633096098900e-02" rms="2.3467332124710083e-01" purity="6.6661357879638672e-01" nType="-99"/>
          </Node>
        </Node>
        <Node pos="r" depth="1" NCoef="0" IVar="3" Cut="4.9901644897460938e+02" cType="1" res="2.5877836160361767e-03" rms="1.9145619869232178e-01" purity="4.8120343685150146e-01" nType="0">
          <Node pos="l" depth="2" NCoef="0" IVar="0" Cut="5.5490209960937500e+02" cType="1" res="1.0368414223194122e-02" rms="2.1684060990810394e-01" purity="1.1566667258739471e-01" nType="0">
            <Node pos="l" depth="3" NCoef="0" IVar="-1" Cut="0.0000000000000000e+00" cType="1" res="5.2616572938859463e-03" rms="1.7522364854812622e-01" purity="4.6351268887519836e-02" nType="-99"/>
            <Node pos="r" depth="3" NCoef="0" IVar="-1" Cut="0.0000000000000000e+00" cType="1" res="4.3422970920801163e-02" rms="2.7335864305496216e-01" purity="2.3488868772983551e-01" nType="-99"/>
          </Node>
          <Node pos="r" depth="2" NCoef="0" IVar="5" Cut="2.5657501220703125e+02" cType="1" res="-6.0875881899846718e-06" rms="1.8213547766208649e-01" purity="6.0306447744369507e-01" nType="0">
            <Node pos="l" depth="3" NCoef="0" IVar="-1" Cut="0.0000000000000000e+00" cType="1" res="-1.4519713819026947e-02" rms="2.0283746719360352e-01" purity="2.4709707498550415e-01" nType="-99"/>
            <Node pos="r" depth="3" NCoef="0" IVar="-1" Cut="0.0000000000000000e+00" cType="1" res="2.1843275055289268e-02" rms="1.5958546102046967e-01" purity="9.4384455680847168e-01" nType="-99"/>
          </Node>
        </Node>
      </Node>
    </BinaryTree>
    <BinaryTree type="DecisionTree" boostWeight="1.0000000000000000e+00" itree="314">
      <Node pos="s" depth="0" NCoef="0" IVar="10" Cut="-1.9999730587005615e+00" cType="1" res="8.1023672828450799e-04" rms="1.8791174888610840e-01" purity="5.0281536579132080e-01" nType="0">
        <Node pos="l" depth="1" NCoef="0" IVar="7" Cut="-5.6577954441308975e-02" cType="1" res="-1.1795671656727791e-02" rms="2.2122658789157867e-01" purity="3.5492286086082458e-01" nType="0">
          <Node pos="l" depth="2" NCoef="0" IVar="-1" Cut="0.0000000000000000e+00" cType="1" res="-2.1427724510431290e-02" rms="2.1755412220954895e-01" purity="3.1817221641540527e-01" nType="-99"/>
          <Node pos="r" depth="2" NCoef="0" IVar="-1" Cut="0.0000000000000000e+00" cType="1" res="-1.8884919583797455e-02" rms="2.2481937706470490e-01" purity="3.9150643348693848e-01" nType="-99"/>
        </Node>
        <Node pos="r" depth="1" NCoef="0" IVar="8" Cut="1.4666807651519775e+00" cType="1" res="1.4716202858835459e-03" rms="1.8597558140754700e-01" purity="5.1057475805282593e-01" nType="0">
          <Node pos="l" depth="2" NCoef="0" IVar="8" Cut="1.2633922100067139e+00" cType="1" res="8.7639584671705961e-04" rms="1.8129557371139526e-01" purity="5.3063350915908813e-01" nType="0">
            <Node pos="l" depth="3" NCoef="0" IVar="-1" Cut="0.0000000000000000e+00" cType="1" res="4.0142075158655643e-03" rms="1.8145048618316650e-01" purity="5.3597420454025269e-01" nType="-99"/>
            <Node pos="r" depth="3" NCoef="0" IVar="-1" Cut="0.0000000000000000e+00" cType="1" res="-3.5389501601457596e-02" rms="1.7585729062557220e-01" purity="3.6693957448005676e-01" nType="-99"/>
          </Node>
          <Node pos="r" depth="2" NCoef="0" IVar="2" Cut="9.7220484167337418e-03" cType="1" res="9.3424385413527489e-03" rms="2.3926736414432526e-01" purity="2.4533206224441528e-01" nType="0">
            <Node pos="l" depth="3" NCoef="0" IVar="-1" Cut="0.0000000000000000e+00" cType="1" res="6.4256347715854645e-02" rms="2.3690129816532135e-01" purity="1.2963370978832245e-01" nType="-99"/>
            <Node pos="r" depth="3" NCoef="0" IVar="-1" Cut="0.0000000000000000e+00" cType="1" res="-1.8115011043846607e-03" rms="2.4028407037258148e-01" purity="3.2274404168128967e-01" nType="-99"/>
          </Node>
        </Node>
      </Node>
    </BinaryTree>
    <BinaryTree type="DecisionTree" boostWeight="1.0000000000000000e+00" itree="315">
      <Node pos="s" depth="0" NCoef="0" IVar="10" Cut="-4.0000739693641663e-01" cType="1" res="1.7734209541231394e-03" rms="1.8951159715652466e-01" purity="5.0541031360626221e-01" nType="0">
        <Node pos="l" depth="1" NCoef="0" IVar="10" Cut="-2.1142604351043701e+00" cType="1" res="-3.5993722267448902e-03" rms="1.8836049735546112e-01" purity="4.8521539568901062e-01" nType="0">
          <Node pos="l" depth="2" NCoef="0" IVar="-1" Cut="0.0000000000000000e+00" cType="1" res="2.0891742780804634e-02" rms="2.3330856859683990e-01" purity="3.9113286137580872e-01" nType="-99"/>
          <Node pos="r" depth="2" NCoef="0" IVar="10" Cut="-1.7060796022415161e+00" cType="1" res="-5.3344247862696648e-03" rms="1.8234749138355255e-01" purity="4.9613669514656067e-01" nType="0">
            <Node pos="l" depth="3" NCoef="0" IVar="-1" Cut="0.0000000000000000e+00" cType="1" res="-3.3084489405155182e-02" rms="1.9813878834247589e-01" purity="4.3806341290473938e-01" nType="-99"/>
            <Node pos="r" depth="3" NCoef="0" IVar="-1" Cut="0.0000000000000000e+00" cType="1" res="-1.1521231383085251e-02" rms="1.7980878055095673e-01" purity="5.0487166643142700e-01" nType="-99"/>
          </Node>
        </Node>
        <Node pos="r" depth="1" NCoef="0" IVar="1" Cut="2.5217258300781250e+03" cType="1" res="4.8621664755046368e-03" rms="1.9010144472122192e-01" purity="5.1702010631561279e-01" nType="0">
          <Node pos="l" depth="2" NCoef="0" IVar="1" Cut="1.8807193603515625e+03" cType="1" res="8.4124747663736343e-03" rms="2.2000047564506531e-01" purity="1.3657610118389130e-01" nType="0">
            <Node pos="l" depth="3" NCoef="0" IVar="-1" Cut="0.0000000000000000e+00" cType="1" res="4.2657419107854366e-03" rms="1.3627912104129791e-01" purity="2.2062489762902260e-02" nType="-99"/>
            <Node pos="r" depth="3" NCoef="0" IVar="-1" Cut="0.0000000000000000e+00" cType="1" res="2.2344416007399559e-02" rms="3.6459198594093323e-01" purity="4.6354523301124573e-01" nType="-99"/>
          </Node>
          <Node pos="r" depth="2" NCoef="0" IVar="4" Cut="3.8484698486328125e+02" cType="1" res="6.3354300800710917e-04" rms="1.4663334190845490e-01" purity="9.7015100717544556e-01" nType="0">
            <Node pos="l" depth="3" NCoef="0" IVar="-1" Cut="0.0000000000000000e+00" cType="1" res="2.6917617768049240e-02" rms="2.6841771602630615e-01" purity="8.8604003190994263e-01" nType="-99"/>
            <Node pos="r" depth="3" NCoef="0" IVar="-1" Cut="0.0000000000000000e+00" cType="1" res="-7.3337624780833721e-03" rms="1.2898109853267670e-01" purity="9.7818452119827271e-01" nType="-99"/>
          </Node>
        </Node>
      </Node>
    </BinaryTree>
    <BinaryTree type="DecisionTree" boostWeight="1.0000000000000000e+00" itree="316">
      <Node pos="s" depth="0" NCoef="0" IVar="8" Cut="-1.3332617282867432e-01" cType="1" res="-7.6617364538833499e-04" rms="1.8856392800807953e-01" purity="4.9789497256278992e-01" nType="0">
        <Node pos="l" depth="1" NCoef="0" IVar="10" Cut="1.1996867656707764e+00" cType="1" res="2.4806628935039043e-03" rms="1.9090412557125092e-01" purity="4.9338632822036743e-01" nType="0">
          <Node pos="l" depth="2" NCoef="0" IVar="9" Cut="1.3280458748340607e-01" cType="1" res="8.5417728405445814e-04" rms="1.8224090337753296e-01" purity="4.9343776702880859e-01" nType="0">
            <Node pos="l" depth="3" NCoef="0" IVar="-1" Cut="0.0000000000000000e+00" cType="1" res="-6.4547532238066196e-03" rms="1.7975674569606781e-01" purity="4.6958261728286743e-01" nType="-99"/>
            <Node pos="r" depth="3" NCoef="0" IVar="-1" Cut="0.0000000000000000e+00" cType="1" res="1.2985394336283207e-02" rms="1.8538449704647064e-01" purity="5.2480375766754150e-01" nType="-99"/>
          </Node>
          <Node pos="r" depth="2" NCoef="0" IVar="0" Cut="7.3092260742187500e+02" cType="1" res="1.1049705557525158e-02" rms="2.3105838894844055e-01" purity="4.9311542510986328e-01" nType="0">
            <Node pos="l" depth="3" NCoef="0" IVar="-1" Cut="0.0000000000000000e+00" cType="1" res="3.9920888841152191e-02" rms="2.4730366468429565e-01" purity="2.3101902008056641e-01" nType="-99"/>
            <Node pos="r" depth="3" NCoef="0" IVar="-1" Cut="0.0000000000000000e+00" cType="1" res="-1.1621877551078796e-02" rms="2.0494416356086731e-01" purity="8.6316549777984619e-01" nType="-99"/>
          </Node>
        </Node>
        <Node pos="r" depth="1" NCoef="0" IVar="7" Cut="9.6843236684799194e-01" cType="1" res="-3.4726283047348261e-03" rms="1.8654760718345642e-01" purity="5.0165331363677979e-01" nType="0">
          <Node pos="l" depth="2" NCoef="0" IVar="9" Cut="1.7330342531204224e+00" cType="1" res="-2.1525314077734947e-03" rms="1.8450579047203064e-01" purity="5.3382581472396851e-01" nType="0">
            <Node pos="l" depth="3" NCoef="0" IVar="-1" Cut="0.0000000000000000e+00" cType="1" res="-8.9206043630838394e-03" rms="1.8170635402202606e-01" purity="5.4846298694610596e-01" nType="-99"/>
            <Node pos="r" depth="3" NCoef="0" IVar="-1" Cut="0.0000000000000000e+00" cType="1" res="2.3757506161928177e-02" rms="2.2194449603557587e-01" purity="3.1359604001045227e-01" nType="-99"/>
          </Node>
          <Node pos="r" depth="2" NCoef="0" IVar="0" Cut="5.9147387695312500e+02" cType="1" res="-1.3613354414701462e-02" rms="2.0125529170036316e-01" purity="2.5451046228408813e-01" nType="0">
            <Node pos="l" depth="3" NCoef="0" IVar="-1" Cut="0.0000000000000000e+00" cType="1" res="6.9670320954173803e-04" rms="1.8359993398189545e-01" purity="6.8420037627220154e-02" nType="-99"/>
            <Node pos="r" depth="3" NCoef="0" IVar="-1" Cut="0.0000000000000000e+00" cType="1" res="-6.2732420861721039e-02" rms="2.2063769400119781e-01" purity="4.9395403265953064e-01" nType="-99"/>
          </Node>
        </Node>
      </Node>
    </BinaryTree>
    <BinaryTree type="DecisionTree" boostWeight="1.0000000000000000e+00" itree="317">
      <Node pos="s" depth="0" NCoef="0" IVar="9" Cut="1.7332290410995483e+00" cType="1" res="-3.9989536162465811e-05" rms="1.8833003938198090e-01" purity="5.0342005491256714e-01" nType="0">
        <Node pos="l" depth="1" NCoef="0" IVar="2" Cut="8.0915272235870361e-02" cType="1" res="1.1542781721800566e-03" rms="1.8644176423549652e-01" purity="5.1736688613891602e-01" nType="0">
          <Node pos="l" depth="2" NCoef="0" IVar="8" Cut="-4.0045267343521118e-01" cType="1" res="3.1323228031396866e-03" rms="1.9538545608520508e-01" purity="4.2354336380958557e-01" nType="0">
            <Node pos="l" depth="3" NCoef="0" IVar="-1" Cut="0.0000000000000000e+00" cType="1" res="1.9458860158920288e-02" rms="2.0140239596366882e-01" purity="3.9544066786766052e-01" nType="-99"/>
            <Node pos="r" depth="3" NCoef="0" IVar="-1" Cut="0.0000000000000000e+00" cType="1" res="1.4407545095309615e-03" rms="1.9178344309329987e-01" purity="4.3974205851554871e-01" nType="-99"/>
          </Node>
          <Node pos="r" depth="2" NCoef="0" IVar="1" Cut="2.7119765625000000e+03" cType="1" res="-4.7091469168663025e-03" rms="1.5681765973567963e-01" purity="7.9548346996307373e-01" nType="0">
            <Node pos="l" depth="3" NCoef="0" IVar="-1" Cut="0.0000000000000000e+00" cType="1" res="-2.0008940249681473e-02" rms="2.5273263454437256e-01" purity="3.8978239893913269e-01" nType="-99"/>
            <Node pos="r" depth="3" NCoef="0" IVar="-1" Cut="0.0000000000000000e+00" cType="1" res="-1.2475131079554558e-02" rms="7.2572842240333557e-02" purity="9.9453866481781006e-01" nType="-99"/>
          </Node>
        </Node>
        <Node pos="r" depth="1" NCoef="0" IVar="4" Cut="3.0306436157226562e+02" cType="1" res="-1.9666483625769615e-02" rms="2.1607735753059387e-01" purity="2.7421963214874268e-01" nType="0">
          <Node pos="l" depth="2" NCoef="0" IVar="-1" Cut="0.0000000000000000e+00" cType="1" res="-2.0460408180952072e-02" rms="1.7715047299861908e-01" purity="7.2379365563392639e-02" nType="-99"/>
          <Node pos="r" depth="2" NCoef="0" IVar="-1" Cut="0.0000000000000000e+00" cType="1" res="-4.6517644077539444e-02" rms="2.4347719550132751e-01" purity="4.4320392608642578e-01" nType="-99"/>
        </Node>
      </Node>
    </BinaryTree>
    <BinaryTree type="DecisionTree" boostWeight="1.0000000000000000e+00" itree="318">
      <Node pos="s" depth="0" NCoef="0" IVar="9" Cut="-1.4661954641342163e+00" cType="1" res="1.3733014930039644e-04" rms="1.8837672472000122e-01" purity="5.0320559740066528e-01" nType="0">
        <Node pos="l" depth="1" NCoef="0" IVar="1" Cut="1.9170126953125000e+03" cType="1" res="9.1759748756885529e-03" rms="2.2587102651596069e-01" purity="3.5613712668418884e-01" nType="0">
          <Node pos="l" depth="2" NCoef="0" IVar="2" Cut="1.7592327669262886e-02" cType="1" res="-7.5073068728670478e-05" rms="1.5217526257038116e-01" purity="2.7200363576412201e-02" nType="0">
            <Node pos="l" depth="3" NCoef="0" IVar="-1" Cut="0.0000000000000000e+00" cType="1" res="-3.7602256983518600e-02" rms="1.1380659043788910e-01" purity="1.3522055931389332e-02" nType="-99"/>
            <Node pos="r" depth="3" NCoef="0" IVar="-1" Cut="0.0000000000000000e+00" cType="1" res="2.5830755010247231e-02" rms="1.8515993654727936e-01" purity="4.2261887341737747e-02" nType="-99"/>
          </Node>
          <Node pos="r" depth="2" NCoef="0" IVar="-1" Cut="0.0000000000000000e+00" cType="1" res="2.7904575690627098e-02" rms="2.9524409770965576e-01" purity="7.8600794076919556e-01" nType="-99"/>
        </Node>
        <Node pos="r" depth="1" NCoef="0" IVar="8" Cut="-6.6664844751358032e-01" cType="1" res="-8.2965142792090774e-04" rms="1.8388709425926208e-01" purity="5.1893937587738037e-01" nType="0">
          <Node pos="l" depth="2" NCoef="0" IVar="5" Cut="1.0101874542236328e+02" cType="1" res="-6.1869588680565357e-03" rms="1.9293950498104095e-01" purity="4.3602848052978516e-01" nType="0">
            <Node pos="l" depth="3" NCoef="0" IVar="-1" Cut="0.0000000000000000e+00" cType="1" res="4.1234884411096573e-02" rms="1.3653427362442017e-01" purity="3.7378061562776566e-02" nType="-99"/>
            <Node pos="r" depth="3" NCoef="0" IVar="-1" Cut="0.0000000000000000e+00" cType="1" res="-1.8960785120725632e-02" rms="1.9952061772346497e-01" purity="4.9196454882621765e-01" nType="-99"/>
          </Node>
          <Node pos="r" depth="2" NCoef="0" IVar="10" Cut="-1.7331953048706055e+00" cType="1" res="8.8318233611062169e-04" rms="1.8086384236812592e-01" purity="5.4544758796691895e-01" nType="0">
            <Node pos="l" depth="3" NCoef="0" IVar="-1" Cut="0.0000000000000000e+00" cType="1" res="2.8464803472161293e-02" rms="2.3982274532318115e-01" purity="4.9974754452705383e-01" nType="-99"/>
            <Node pos="r" depth="3" NCoef="0" IVar="-1" Cut="0.0000000000000000e+00" cType="1" res="-5.5902876192703843e-04" rms="1.7528432607650757e-01" purity="5.4908061027526855e-01" nType="-99"/>
          </Node>
        </Node>
      </Node>
    </BinaryTree>
    <BinaryTree type="DecisionTree" boostWeight="1.0000000000000000e+00" itree="319">
      <Node pos="s" depth="0" NCoef="0" IVar="8" Cut="1.7331399917602539e+00" cType="1" res="-2.2007501684129238e-05" rms="1.8774311244487762e-01" purity="4.9768194556236267e-01" nType="0">
        <Node pos="l" depth="1" NCoef="0" IVar="2" Cut="2.0478062331676483e-02" cType="1" res="8.6986826499924064e-04" rms="1.8690037727355957e-01" purity="5.1306027173995972e-01" nType="0">
          <Node pos="l" depth="2" NCoef="0" IVar="4" Cut="3.3698748779296875e+02" cType="1" res="5.2664843387901783e-03" rms="1.9502867758274078e-01" purity="2.6530542969703674e-01" nType="0">
            <Node pos="l" depth="3" NCoef="0" IVar="-1" Cut="0.0000000000000000e+00" cType="1" res="-4.0060589089989662e-03" rms="1.4483657479286194e-01" purity="5.3800109773874283e-02" nType="-99"/>
            <Node pos="r" depth="3" NCoef="0" IVar="-1" Cut="0.0000000000000000e+00" cType="1" res="2.2821713238954544e-02" rms="2.3810626566410065e-01" purity="4.9776265025138855e-01" nType="-99"/>
          </Node>
          <Node pos="r" depth="2" NCoef="0" IVar="1" Cut="2.8021708984375000e+03" cType="1" res="-1.4565278543159366e-03" rms="1.8241013586521149e-01" purity="6.4415562152862549e-01" nType="0">
            <Node pos="l" depth="3" NCoef="0" IVar="-1" Cut="0.0000000000000000e+00" cType="1" res="-7.5720231980085373e-03" rms="2.4375496804714203e-01" purity="2.9882171750068665e-01" nType="-99"/>
            <Node pos="r" depth="3" NCoef="0" IVar="-1" Cut="0.0000000000000000e+00" cType="1" res="1.9995952025055885e-02" rms="8.2821801304817200e-02" purity="9.9281322956085205e-01" nType="-99"/>
          </Node>
        </Node>
        <Node pos="r" depth="1" NCoef="0" IVar="-1" Cut="0.0000000000000000e+00" cType="1" res="-5.0510119646787643e-02" rms="2.0535980165004730e-01" purity="1.3830561935901642e-01" nType="-99"/>
      </Node>
    </BinaryTree>
    <BinaryTree type="DecisionTree" boostWeight="1.0000000000000000e+00" itree="320">
      <Node pos="s" depth="0" NCoef="0" IVar="7" Cut="4.3406167626380920e-01" cType="1" res="6.0704638599418104e-05" rms="1.8685366213321686e-01" purity="4.9837026000022888e-01" nType="0">
        <Node pos="l" depth="1" NCoef="0" IVar="8" Cut="1.1998138427734375e+00" cType="1" res="-1.5179273905232549e-03" rms="1.7793402075767517e-01" purity="5.3526556491851807e-01" nType="0">
          <Node pos="l" depth="2" NCoef="0" IVar="4" Cut="6.9534643554687500e+02" cType="1" res="-4.1131419129669666e-04" rms="1.7523439228534698e-01" purity="5.6567960977554321e-01" nType="0">
            <Node pos="l" depth="3" NCoef="0" IVar="-1" Cut="0.0000000000000000e+00" cType="1" res="-5.1216362044215202e-03" rms="1.8614026904106140e-01" purity="4.7769179940223694e-01" nType="-99"/>
            <Node pos="r" depth="3" NCoef="0" IVar="-1" Cut="0.0000000000000000e+00" cType="1" res="4.5903809368610382e-02" rms="1.0915479809045792e-01" purity="9.8389935493469238e-01" nType="-99"/>
          </Node>
          <Node pos="r" depth="2" NCoef="0" IVar="4" Cut="3.0736767578125000e+02" cType="1" res="-1.0303734801709652e-02" rms="1.9784627854824066e-01" purity="2.9379749298095703e-01" nType="0">
            <Node pos="l" depth="3" NCoef="0" IVar="-1" Cut="0.0000000000000000e+00" cType="1" res="-5.1790680736303329e-03" rms="1.7908588051795959e-01" purity="7.7925249934196472e-02" nType="-99"/>
            <Node pos="r" depth="3" NCoef="0" IVar="-1" Cut="0.0000000000000000e+00" cType="1" res="-3.6458771675825119e-02" rms="2.1326157450675964e-01" purity="4.9113467335700989e-01" nType="-99"/>
          </Node>
        </Node>
        <Node pos="r" depth="1" NCoef="0" IVar="0" Cut="5.4941210937500000e+02" cType="1" res="3.7966326344758272e-03" rms="2.0638480782508850e-01" purity="4.1105520725250244e-01" nType="0">
          <Node pos="l" depth="2" NCoef="0" IVar="5" Cut="1.8366909790039062e+02" cType="1" res="1.3049320317804813e-02" rms="2.0109258592128754e-01" purity="7.8177109360694885e-02" nType="0">
            <Node pos="l" depth="3" NCoef="0" IVar="-1" Cut="0.0000000000000000e+00" cType="1" res="2.1268267184495926e-02" rms="1.2865211069583893e-01" purity="1.7672374844551086e-02" nType="-99"/>
            <Node pos="r" depth="3" NCoef="0" IVar="-1" Cut="0.0000000000000000e+00" cType="1" res="4.4648714363574982e-02" rms="2.6808819174766541e-01" purity="1.5862008929252625e-01" nType="-99"/>
          </Node>
          <Node pos="r" depth="2" NCoef="0" IVar="10" Cut="-1.1999144554138184e+00" cType="1" res="-2.7069987263530493e-03" rms="2.0978076756000519e-01" purity="6.4503216743469238e-01" nType="0">
            <Node pos="l" depth="3" NCoef="0" IVar="-1" Cut="0.0000000000000000e+00" cType="1" res="-4.1955307126045227e-02" rms="2.1522273123264313e-01" purity="6.1161154508590698e-01" nType="-99"/>
            <Node pos="r" depth="3" NCoef="0" IVar="-1" Cut="0.0000000000000000e+00" cType="1" res="1.5103535261005163e-03" rms="2.0862241089344025e-01" purity="6.5096735954284668e-01" nType="-99"/>
          </Node>
        </Node>
      </Node>
    </BinaryTree>
    <BinaryTree type="DecisionTree" boostWeight="1.0000000000000000e+00" itree="321">
      <Node pos="s" depth="0" NCoef="0" IVar="8" Cut="6.6673296689987183e-01" cType="1" res="2.8053819551132619e-04" rms="1.8790164589881897e-01" purity="5.0295305252075195e-01" nType="0">
        <Node pos="l" depth="1" NCoef="0" IVar="4" Cut="2.4227108764648438e+02" cType="1" res="-1.6219048993662000e-03" rms="1.8234302103519440e-01" purity="5.2993762493133545e-01" nType="0">
          <Node pos="l" depth="2" NCoef="0" IVar="5" Cut="1.5048687744140625e+02" cType="1" res="2.7547643985599279e-03" rms="1.3848666846752167e-01" purity="3.5447318106889725e-02" nType="0">
            <Node pos="l" depth="3" NCoef="0" IVar="-1" Cut="0.0000000000000000e+00" cType="1" res="-4.7729469835758209e-02" rms="7.9855479300022125e-02" purity="1.0587126947939396e-02" nType="-99"/>
            <Node pos="r" depth="3" NCoef="0" IVar="-1" Cut="0.0000000000000000e+00" cType="1" res="5.4088249802589417e-02" rms="2.0669278502464294e-01" purity="8.1776484847068787e-02" nType="-99"/>
          </Node>
          <Node pos="r" depth="2" NCoef="0" IVar="0" Cut="8.5537170410156250e+02" cType="1" res="-2.5333326775580645e-03" rms="1.9019536674022675e-01" purity="6.3291364908218384e-01" nType="0">
            <Node pos="l" depth="3" NCoef="0" IVar="-1" Cut="0.0000000000000000e+00" cType="1" res="-1.0560263879597187e-02" rms="2.2327116131782532e-01" purity="3.5648307204246521e-01" nType="-99"/>
            <Node pos="r" depth="3" NCoef="0" IVar="-1" Cut="0.0000000000000000e+00" cType="1" res="4.5618405565619469e-03" rms="1.4065761864185333e-01" purity="9.6376532316207886e-01" nType="-99"/>
          </Node>
        </Node>
        <Node pos="r" depth="1" NCoef="0" IVar="1" Cut="1.9511943359375000e+03" cType="1" res="5.8074723929166794e-03" rms="2.0308858156204224e-01" purity="4.2455813288688660e-01" nType="0">
          <Node pos="l" depth="2" NCoef="0" IVar="0" Cut="4.6796990966796875e+02" cType="1" res="5.3992116590961814e-04" rms="1.6292759776115417e-01" purity="3.0928432941436768e-02" nType="0">
            <Node pos="l" depth="3" NCoef="0" IVar="-1" Cut="0.0000000000000000e+00" cType="1" res="4.1616894304752350e-02" rms="1.6420039534568787e-01" purity="3.2159045338630676e-02" nType="-99"/>
            <Node pos="r" depth="3" NCoef="0" IVar="-1" Cut="0.0000000000000000e+00" cType="1" res="-2.7096513658761978e-02" rms="1.6105724871158600e-01" purity="2.9558347538113594e-02" nType="-99"/>
          </Node>
          <Node pos="r" depth="2" NCoef="0" IVar="1" Cut="2.4498991699218750e+03" cType="1" res="1.1409270577132702e-02" rms="2.3836190998554230e-01" purity="8.4316521883010864e-01" nType="0">
            <Node pos="l" depth="3" NCoef="0" IVar="-1" Cut="0.0000000000000000e+00" cType="1" res="2.8133096173405647e-02" rms="3.8997557759284973e-01" purity="4.7385543584823608e-01" nType="-99"/>
            <Node pos="r" depth="3" NCoef="0" IVar="-1" Cut="0.0000000000000000e+00" cType="1" res="5.8099972084164619e-03" rms="1.6319745779037476e-01" purity="9.5863616466522217e-01" nType="-99"/>
          </Node>
        </Node>
      </Node>
    </BinaryTree>
    <BinaryTree type="DecisionTree" boostWeight="1.0000000000000000e+00" itree="322">
      <Node pos="s" depth="0" NCoef="0" IVar="10" Cut="9.3335747718811035e-01" cType="1" res="-1.6188978916034102e-03" rms="1.8627350032329559e-01" purity="4.9959817528724670e-01" nType="0">
        <Node pos="l" depth="1" NCoef="0" IVar="10" Cut="-8.4436774253845215e-01" cType="1" res="1.5079078730195761e-04" rms="1.8460850417613983e-01" purity="5.1167577505111694e-01" nType="0">
          <Node pos="l" depth="2" NCoef="0" IVar="0" Cut="5.8410919189453125e+02" cType="1" res="-4.8519195988774300e-03" rms="1.9458802044391632e-01" purity="4.6403738856315613e-01" nType="0">
            <Node pos="l" depth="3" NCoef="0" IVar="-1" Cut="0.0000000000000000e+00" cType="1" res="-3.0650231987237930e-02" rms="1.8470013141632080e-01" purity="8.5203222930431366e-02" nType="-99"/>
            <Node pos="r" depth="3" NCoef="0" IVar="-1" Cut="0.0000000000000000e+00" cType="1" res="9.6787366783246398e-04" rms="2.0100270211696625e-01" purity="7.2712731361389160e-01" nType="-99"/>
          </Node>
          <Node pos="r" depth="2" NCoef="0" IVar="7" Cut="-1.1193054914474487e+00" cType="1" res="2.5677857920527458e-03" rms="1.7953850328922272e-01" purity="5.3469157218933105e-01" nType="0">
            <Node pos="l" depth="3" NCoef="0" IVar="-1" Cut="0.0000000000000000e+00" cType="1" res="5.4665971547365189e-02" rms="2.1271270513534546e-01" purity="2.3068228363990784e-01" nType="-99"/>
            <Node pos="r" depth="3" NCoef="0" IVar="-1" Cut="0.0000000000000000e+00" cType="1" res="3.4354571253061295e-03" rms="1.7615951597690582e-01" purity="5.6211870908737183e-01" nType="-99"/>
          </Node>
        </Node>
        <Node pos="r" depth="1" NCoef="0" IVar="4" Cut="5.0427990722656250e+02" cType="1" res="-7.5272135436534882e-03" rms="1.9160929322242737e-01" purity="4.5927584171295166e-01" nType="0">
          <Node pos="l" depth="2" NCoef="0" IVar="1" Cut="1.6011651611328125e+03" cType="1" res="-1.1934103444218636e-02" rms="2.0118708908557892e-01" purity="2.5713077187538147e-01" nType="0">
            <Node pos="l" depth="3" NCoef="0" IVar="-1" Cut="0.0000000000000000e+00" cType="1" res="1.7820736393332481e-02" rms="1.0055472701787949e-01" purity="1.1530098505318165e-02" nType="-99"/>
            <Node pos="r" depth="3" NCoef="0" IVar="-1" Cut="0.0000000000000000e+00" cType="1" res="-3.0206233263015747e-02" rms="2.4829994142055511e-01" purity="4.3021458387374878e-01" nType="-99"/>
          </Node>
          <Node pos="r" depth="2" NCoef="0" IVar="-1" Cut="0.0000000000000000e+00" cType="1" res="9.0724593028426170e-03" rms="1.6723108291625977e-01" purity="9.2147320508956909e-01" nType="-99"/>
        </Node>
      </Node>
    </BinaryTree>
    <BinaryTree type="DecisionTree" boostWeight="1.0000000000000000e+00" itree="323">
      <Node pos="s" depth="0" NCoef="0" IVar="7" Cut="-1.6129537820816040e+00" cType="1" res="-5.4926157463341951e-04" rms="1.8850368261337280e-01" purity="4.9818196892738342e-01" nType="0">
        <Node pos="l" depth="1" NCoef="0" IVar="-1" Cut="0.0000000000000000e+00" cType="1" res="-7.3087885975837708e-02" rms="1.3923242688179016e-01" purity="5.8790259063243866e-02" nType="-99"/>
        <Node pos="r" depth="1" NCoef="0" IVar="8" Cut="1.7333439588546753e+00" cType="1" res="1.2375373444228899e-05" rms="1.8976052105426788e-01" purity="5.1141196489334106e-01" nType="0">
          <Node pos="l" depth="2" NCoef="0" IVar="8" Cut="-1.7205866575241089e+00" cType="1" res="-5.2354019135236740e-04" rms="1.8741407990455627e-01" purity="5.2420824766159058e-01" nType="0">
            <Node pos="l" depth="3" NCoef="0" IVar="-1" Cut="0.0000000000000000e+00" cType="1" res="-2.9879346489906311e-02" rms="2.0163585245609283e-01" purity="1.5785935521125793e-01" nType="-99"/>
            <Node pos="r" depth="3" NCoef="0" IVar="-1" Cut="0.0000000000000000e+00" cType="1" res="-1.9981611330877058e-05" rms="1.8671923875808716e-01" purity="5.4101848602294922e-01" nType="-99"/>
          </Node>
          <Node pos="r" depth="2" NCoef="0" IVar="-1" Cut="0.0000000000000000e+00" cType="1" res="2.9180506244301796e-02" rms="2.4104508757591248e-01" purity="1.8922637403011322e-01" nType="-99"/>
        </Node>
      </Node>
    </BinaryTree>
    <BinaryTree type="DecisionTree" boostWeight="1.0000000000000000e+00" itree="324">
      <Node pos="s" depth="0" NCoef="0" IVar="5" Cut="3.3377859497070312e+02" cType="1" res="2.8971338178962469e-03" rms="1.9211138784885406e-01" purity="5.0470829010009766e-01" nType="0">
        <Node pos="l" depth="1" NCoef="0" IVar="8" Cut="1.1995042562484741e+00" cType="1" res="5.0413114950060844e-03" rms="2.1554695069789886e-01" purity="2.8759944438934326e-01" nType="0">
          <Node pos="l" depth="2" NCoef="0" IVar="5" Cut="2.5272117614746094e+02" cType="1" res="3.3655310980975628e-03" rms="2.1078933775424957e-01" purity="2.9997155070304871e-01" nType="0">
            <Node pos="l" depth="3" NCoef="0" IVar="-1" Cut="0.0000000000000000e+00" cType="1" res="5.8034603716805577e-04" rms="1.9698432087898254e-01" purity="1.8508517742156982e-01" nType="-99"/>
            <Node pos="r" depth="3" NCoef="0" IVar="-1" Cut="0.0000000000000000e+00" cType="1" res="2.3308463394641876e-02" rms="2.5445696711540222e-01" purity="7.1799862384796143e-01" nType="-99"/>
          </Node>
          <Node pos="r" depth="2" NCoef="0" IVar="0" Cut="4.4442587280273438e+02" cType="1" res="1.4854983426630497e-02" rms="2.4130082130432129e-01" purity="2.1514615416526794e-01" nType="0">
            <Node pos="l" depth="3" NCoef="0" IVar="-1" Cut="0.0000000000000000e+00" cType="1" res="-1.5295037068426609e-02" rms="1.5264336764812469e-01" purity="2.6048909872770309e-02" nType="-99"/>
            <Node pos="r" depth="3" NCoef="0" IVar="-1" Cut="0.0000000000000000e+00" cType="1" res="3.8672525435686111e-02" rms="2.7468258142471313e-01" purity="3.0978766083717346e-01" nType="-99"/>
          </Node>
        </Node>
        <Node pos="r" depth="1" NCoef="0" IVar="0" Cut="8.8927563476562500e+02" cType="1" res="-1.6650535399094224e-03" rms="1.2864166498184204e-01" purity="9.6665292978286743e-01" nType="0">
          <Node pos="l" depth="2" NCoef="0" IVar="-1" Cut="0.0000000000000000e+00" cType="1" res="-1.7580097541213036e-02" rms="1.9898147881031036e-01" purity="9.1236066818237305e-01" nType="-99"/>
          <Node pos="r" depth="2" NCoef="0" IVar="-1" Cut="0.0000000000000000e+00" cType="1" res="1.8813939765095711e-02" rms="6.4570084214210510e-02" purity="9.9577242136001587e-01" nType="-99"/>
        </Node>
      </Node>
    </BinaryTree>
    <BinaryTree type="DecisionTree" boostWeight="1.0000000000000000e+00" itree="325">
      <Node pos="s" depth="0" NCoef="0" IVar="10" Cut="-1.4666280746459961e+00" cType="1" res="6.4477080013602972e-04" rms="1.9098904728889465e-01" purity="5.0059241056442261e-01" nType="0">
        <Node pos="l" depth="1" NCoef="0" IVar="1" Cut="1.8661109619140625e+03" cType="1" res="-7.0562330074608326e-03" rms="2.1041429042816162e-01" purity="4.2798805236816406e-01" nType="0">
          <Node pos="l" depth="2" NCoef="0" IVar="10" Cut="-1.9745470285415649e+00" cType="1" res="8.3251734031364322e-04" rms="1.6955526173114777e-01" purity="3.6247849464416504e-02" nType="0">
            <Node pos="l" depth="3" NCoef="0" IVar="-1" Cut="0.0000000000000000e+00" cType="1" res="4.0666401386260986e-02" rms="2.0544706284999847e-01" purity="5.7355511933565140e-02" nType="-99"/>
            <Node pos="r" depth="3" NCoef="0" IVar="-1" Cut="0.0000000000000000e+00" cType="1" res="-5.0965182483196259e-02" rms="1.2525919079780579e-01" purity="1.6271602362394333e-02" nType="-99"/>
          </Node>
          <Node pos="r" depth="2" NCoef="0" IVar="9" Cut="1.3366070389747620e-01" cType="1" res="-1.4350842684507370e-02" rms="2.4190767109394073e-01" purity="7.9022425413131714e-01" nType="0">
            <Node pos="l" depth="3" NCoef="0" IVar="-1" Cut="0.0000000000000000e+00" cType="1" res="-4.3405931442975998e-02" rms="2.2787660360336304e-01" purity="7.6799529790878296e-01" nType="-99"/>
            <Node pos="r" depth="3" NCoef="0" IVar="-1" Cut="0.0000000000000000e+00" cType="1" res="-1.7709990497678518e-03" rms="2.5758820772171021e-01" purity="8.1770348548889160e-01" nType="-99"/>
          </Node>
        </Node>
        <Node pos="r" depth="1" NCoef="0" IVar="8" Cut="1.7333148717880249e+00" cType="1" res="1.6771613154560328e-03" rms="1.8820863962173462e-01" purity="5.1032567024230957e-01" nType="0">
          <Node pos="l" depth="2" NCoef="0" IVar="5" Cut="2.2034091186523438e+02" cType="1" res="9.5084781059995294e-04" rms="1.8457008898258209e-01" purity="5.2540075778961182e-01" nType="0">
            <Node pos="l" depth="3" NCoef="0" IVar="-1" Cut="0.0000000000000000e+00" cType="1" res="1.1413264088332653e-02" rms="1.8507696688175201e-01" purity="1.4925718307495117e-01" nType="-99"/>
            <Node pos="r" depth="3" NCoef="0" IVar="-1" Cut="0.0000000000000000e+00" cType="1" res="-4.4116759672760963e-03" rms="1.8412235379219055e-01" purity="8.3022320270538330e-01" nType="-99"/>
          </Node>
          <Node pos="r" depth="2" NCoef="0" IVar="-1" Cut="0.0000000000000000e+00" cType="1" res="4.0894046425819397e-02" rms="2.5707980990409851e-01" purity="1.6629274189472198e-01" nType="-99"/>
        </Node>
      </Node>
    </BinaryTree>
    <BinaryTree type="DecisionTree" boostWeight="1.0000000000000000e+00" itree="326">
      <Node pos="s" depth="0" NCoef="0" IVar="9" Cut="1.7330653667449951e+00" cType="1" res="7.7754602534696460e-04" rms="1.8857134878635406e-01" purity="5.0216537714004517e-01" nType="0">
        <Node pos="l" depth="1" NCoef="0" IVar="9" Cut="-1.9364883899688721e+00" cType="1" res="1.3794730875815731e-05" rms="1.8477219343185425e-01" purity="5.1455587148666382e-01" nType="0">
          <Node pos="l" depth="2" NCoef="0" IVar="-1" Cut="0.0000000000000000e+00" cType="1" res="-2.0054504275321960e-02" rms="2.1310754120349884e-01" purity="2.2448925673961639e-01" nType="-99"/>
          <Node pos="r" depth="2" NCoef="0" IVar="10" Cut="1.9999042749404907e+00" cType="1" res="3.7992908619344234e-04" rms="1.8357074260711670e-01" purity="5.2584993839263916e-01" nType="0">
            <Node pos="l" depth="3" NCoef="0" IVar="-1" Cut="0.0000000000000000e+00" cType="1" res="-3.2622038270346820e-04" rms="1.8052831292152405e-01" purity="5.3157615661621094e-01" nType="-99"/>
            <Node pos="r" depth="3" NCoef="0" IVar="-1" Cut="0.0000000000000000e+00" cType="1" res="1.9158713519573212e-02" rms="2.3382046818733215e-01" purity="4.1695886850357056e-01" nType="-99"/>
          </Node>
        </Node>
        <Node pos="r" depth="1" NCoef="0" IVar="8" Cut="-1.3224422931671143e-01" cType="1" res="1.2935591861605644e-02" rms="2.4079293012619019e-01" purity="3.0492243170738220e-01" nType="0">
          <Node pos="l" depth="2" NCoef="0" IVar="-1" Cut="0.0000000000000000e+00" cType="1" res="-3.9135026745498180e-03" rms="2.3600147664546967e-01" purity="3.0513462424278259e-01" nType="-99"/>
          <Node pos="r" depth="2" NCoef="0" IVar="-1" Cut="0.0000000000000000e+00" cType="1" res="4.2740732431411743e-02" rms="2.4370288848876953e-01" purity="3.0476358532905579e-01" nType="-99"/>
        </Node>
      </Node>
    </BinaryTree>
    <BinaryTree type="DecisionTree" boostWeight="1.0000000000000000e+00" itree="327">
      <Node pos="s" depth="0" NCoef="0" IVar="9" Cut="1.9996324777603149e+00" cType="1" res="6.2673911452293396e-04" rms="1.8866153061389923e-01" purity="5.0158768892288208e-01" nType="0">
        <Node pos="l" depth="1" NCoef="0" IVar="8" Cut="-1.1999695301055908e+00" cType="1" res="1.1758860200643539e-03" rms="1.8748986721038818e-01" purity="5.1210761070251465e-01" nType="0">
          <Node pos="l" depth="2" NCoef="0" IVar="2" Cut="1.4053630642592907e-02" cType="1" res="8.6470637470483780e-03" rms="2.1817930042743683e-01" purity="3.1408804655075073e-01" nType="0">
            <Node pos="l" depth="3" NCoef="0" IVar="-1" Cut="0.0000000000000000e+00" cType="1" res="-1.9716380164027214e-02" rms="1.7195446789264679e-01" purity="1.3129824399948120e-01" nType="-99"/>
            <Node pos="r" depth="3" NCoef="0" IVar="-1" Cut="0.0000000000000000e+00" cType="1" res="3.8987804204225540e-02" rms="2.4758489429950714e-01" purity="4.5632719993591309e-01" nType="-99"/>
          </Node>
          <Node pos="r" depth="2" NCoef="0" IVar="8" Cut="-6.2854564189910889e-01" cType="1" res="2.3553399660158902e-04" rms="1.8324181437492371e-01" purity="5.3703117370605469e-01" nType="0">
            <Node pos="l" depth="3" NCoef="0" IVar="-1" Cut="0.0000000000000000e+00" cType="1" res="-1.9630009308457375e-02" rms="1.7489501833915710e-01" purity="5.1815962791442871e-01" nType="-99"/>
            <Node pos="r" depth="3" NCoef="0" IVar="-1" Cut="0.0000000000000000e+00" cType="1" res="5.0465427339076996e-03" rms="1.8487046658992767e-01" purity="5.4089725017547607e-01" nType="-99"/>
          </Node>
        </Node>
        <Node pos="r" depth="1" NCoef="0" IVar="-1" Cut="0.0000000000000000e+00" cType="1" res="-2.7912998571991920e-02" rms="2.2037245333194733e-01" purity="1.8525014817714691e-01" nType="-99"/>
      </Node>
    </BinaryTree>
    <BinaryTree type="DecisionTree" boostWeight="1.0000000000000000e+00" itree="328">
      <Node pos="s" depth="0" NCoef="0" IVar="8" Cut="-6.6658836603164673e-01" cType="1" res="9.4950676430016756e-04" rms="1.9093331694602966e-01" purity="4.9159279465675354e-01" nType="0">
        <Node pos="l" depth="1" NCoef="0" IVar="7" Cut="4.6534317731857300e-01" cType="1" res="6.6898316144943237e-03" rms="2.0703233778476715e-01" purity="4.0740203857421875e-01" nType="0">
          <Node pos="l" depth="2" NCoef="0" IVar="7" Cut="1.6918545961380005e-01" cType="1" res="1.0342128574848175e-02" rms="2.0684863626956940e-01" purity="4.5302262902259827e-01" nType="0">
            <Node pos="l" depth="3" NCoef="0" IVar="-1" Cut="0.0000000000000000e+00" cType="1" res="1.6485515981912613e-02" rms="2.0204249024391174e-01" purity="4.3693983554840088e-01" nType="-99"/>
            <Node pos="r" depth="3" NCoef="0" IVar="-1" Cut="0.0000000000000000e+00" cType="1" res="5.7713363319635391e-02" rms="2.2605600953102112e-01" purity="5.2360993623733521e-01" nType="-99"/>
          </Node>
          <Node pos="r" depth="2" NCoef="0" IVar="8" Cut="-1.3774898052215576e+00" cType="1" res="-2.1336963400244713e-03" rms="2.0721001923084259e-01" purity="2.9718792438507080e-01" nType="0">
            <Node pos="l" depth="3" NCoef="0" IVar="-1" Cut="0.0000000000000000e+00" cType="1" res="1.2351534329354763e-02" rms="2.2048698365688324e-01" purity="2.0205433666706085e-01" nType="-99"/>
            <Node pos="r" depth="3" NCoef="0" IVar="-1" Cut="0.0000000000000000e+00" cType="1" res="-1.7058633267879486e-02" rms="1.9798229634761810e-01" purity="3.5876783728599548e-01" nType="-99"/>
          </Node>
        </Node>
        <Node pos="r" depth="1" NCoef="0" IVar="8" Cut="1.3142879009246826e+00" cType="1" res="-1.0493987938389182e-03" rms="1.8495689332485199e-01" purity="5.2090978622436523e-01" nType="0">
          <Node pos="l" depth="2" NCoef="0" IVar="9" Cut="1.4665815830230713e+00" cType="1" res="3.3080670982599258e-04" rms="1.8112909793853760e-01" purity="5.5954021215438843e-01" nType="0">
            <Node pos="l" depth="3" NCoef="0" IVar="-1" Cut="0.0000000000000000e+00" cType="1" res="-2.7082457672804594e-03" rms="1.7625990509986877e-01" purity="5.7202291488647461e-01" nType="-99"/>
            <Node pos="r" depth="3" NCoef="0" IVar="-1" Cut="0.0000000000000000e+00" cType="1" res="2.3797620087862015e-02" rms="2.2261343896389008e-01" purity="4.3834483623504639e-01" nType="-99"/>
          </Node>
          <Node pos="r" depth="2" NCoef="0" IVar="5" Cut="1.6757292175292969e+02" cType="1" res="-1.0584083385765553e-02" rms="2.0924960076808929e-01" purity="2.5404509902000427e-01" nType="0">
            <Node pos="l" depth="3" NCoef="0" IVar="-1" Cut="0.0000000000000000e+00" cType="1" res="3.4826360642910004e-03" rms="1.6054758429527283e-01" purity="6.7935161292552948e-02" nType="-99"/>
            <Node pos="r" depth="3" NCoef="0" IVar="-1" Cut="0.0000000000000000e+00" cType="1" res="-3.4217402338981628e-02" rms="2.4592685699462891e-01" purity="4.2911106348037720e-01" nType="-99"/>
          </Node>
        </Node>
      </Node>
    </BinaryTree>
    <BinaryTree type="DecisionTree" boostWeight="1.0000000000000000e+00" itree="329">
      <Node pos="s" depth="0" NCoef="0" IVar="9" Cut="-3.9995628595352173e-01" cType="1" res="-1.4276854926720262e-03" rms="1.8356296420097351e-01" purity="5.0382572412490845e-01" nType="0">
        <Node pos="l" depth="1" NCoef="0" IVar="7" Cut="2.1740457415580750e-01" cType="1" res="-5.5936519056558609e-03" rms="1.8544717133045197e-01" purity="4.6733647584915161e-01" nType="0">
          <Node pos="l" depth="2" NCoef="0" IVar="8" Cut="1.3399504125118256e-01" cType="1" res="-1.8468787893652916e-03" rms="1.8437068164348602e-01" purity="4.8785570263862610e-01" nType="0">
            <Node pos="l" depth="3" NCoef="0" IVar="-1" Cut="0.0000000000000000e+00" cType="1" res="-2.4897091090679169e-02" rms="1.7119067907333374e-01" purity="4.7063514590263367e-01" nType="-99"/>
            <Node pos="r" depth="3" NCoef="0" IVar="-1" Cut="0.0000000000000000e+00" cType="1" res="1.3592534698545933e-02" rms="1.9941586256027222e-01" purity="5.0939363241195679e-01" nType="-99"/>
          </Node>
          <Node pos="r" depth="2" NCoef="0" IVar="10" Cut="9.3219274282455444e-01" cType="1" res="-1.1778779327869415e-02" rms="1.8704655766487122e-01" purity="4.3346360325813293e-01" nType="0">
            <Node pos="l" depth="3" NCoef="0" IVar="-1" Cut="0.0000000000000000e+00" cType="1" res="-2.1080676466226578e-02" rms="1.8569126725196838e-01" purity="4.4226253032684326e-01" nType="-99"/>
            <Node pos="r" depth="3" NCoef="0" IVar="-1" Cut="0.0000000000000000e+00" cType="1" res="-5.7458810508251190e-02" rms="1.9070349633693695e-01" purity="4.0575653314590454e-01" nType="-99"/>
          </Node>
        </Node>
        <Node pos="r" depth="1" NCoef="0" IVar="9" Cut="2.0379805564880371e+00" cType="1" res="8.9471862884238362e-04" rms="1.8246282637119293e-01" purity="5.2416741847991943e-01" nType="0">
          <Node pos="l" depth="2" NCoef="0" IVar="10" Cut="-1.7331840991973877e+00" cType="1" res="2.3103420971892774e-05" rms="1.7848239839076996e-01" purity="5.3937065601348877e-01" nType="0">
            <Node pos="l" depth="3" NCoef="0" IVar="-1" Cut="0.0000000000000000e+00" cType="1" res="-3.1063091009855270e-02" rms="2.0911945402622223e-01" purity="4.6133270859718323e-01" nType="-99"/>
            <Node pos="r" depth="3" NCoef="0" IVar="-1" Cut="0.0000000000000000e+00" cType="1" res="3.5772318951785564e-03" rms="1.7591360211372375e-01" purity="5.4523223638534546e-01" nType="-99"/>
          </Node>
          <Node pos="r" depth="2" NCoef="0" IVar="-1" Cut="0.0000000000000000e+00" cType="1" res="2.8343863785266876e-02" rms="2.4551147222518921e-01" purity="2.3558466136455536e-01" nType="-99"/>
        </Node>
      </Node>
    </BinaryTree>
    <BinaryTree type="DecisionTree" boostWeight="1.0000000000000000e+00" itree="330">
      <Node pos="s" depth="0" NCoef="0" IVar="8" Cut="-6.6658926010131836e-01" cType="1" res="-2.8202068642713130e-04" rms="1.8770588934421539e-01" purity="5.0273531675338745e-01" nType="0">
        <Node pos="l" depth="1" NCoef="0" IVar="10" Cut="1.3284890353679657e-01" cType="1" res="5.3534549660980701e-03" rms="2.0729775726795197e-01" purity="4.3019342422485352e-01" nType="0">
          <Node pos="l" depth="2" NCoef="0" IVar="8" Cut="-1.6824266910552979e+00" cType="1" res="-4.3657192145474255e-04" rms="1.9447247684001923e-01" purity="3.8345158100128174e-01" nType="0">
            <Node pos="l" depth="3" NCoef="0" IVar="-1" Cut="0.0000000000000000e+00" cType="1" res="2.0257143303751945e-02" rms="2.0067711174488068e-01" purity="2.0321913063526154e-01" nType="-99"/>
            <Node pos="r" depth="3" NCoef="0" IVar="-1" Cut="0.0000000000000000e+00" cType="1" res="-6.8525550886988640e-03" rms="1.9290101528167725e-01" purity="4.2640411853790283e-01" nType="-99"/>
          </Node>
          <Node pos="r" depth="2" NCoef="0" IVar="9" Cut="6.6624623537063599e-01" cType="1" res="1.2639978900551796e-02" rms="2.2217494249343872e-01" purity="4.8901623487472534e-01" nType="0">
            <Node pos="l" depth="3" NCoef="0" IVar="-1" Cut="0.0000000000000000e+00" cType="1" res="1.8424803391098976e-02" rms="2.0432372391223907e-01" purity="4.9994194507598877e-01" nType="-99"/>
            <Node pos="r" depth="3" NCoef="0" IVar="-1" Cut="0.0000000000000000e+00" cType="1" res="4.6324562281370163e-02" rms="2.6308533549308777e-01" purity="4.6012121438980103e-01" nType="-99"/>
          </Node>
        </Node>
        <Node pos="r" depth="1" NCoef="0" IVar="10" Cut="-1.9999798536300659e+00" cType="1" res="-2.1761667449027300e-03" rms="1.8060488998889923e-01" purity="5.2711743116378784e-01" nType="0">
          <Node pos="l" depth="2" NCoef="0" IVar="-1" Cut="0.0000000000000000e+00" cType="1" res="1.8840953707695007e-02" rms="2.4241878092288971e-01" purity="4.1328793764114380e-01" nType="-99"/>
          <Node pos="r" depth="2" NCoef="0" IVar="8" Cut="1.8095105886459351e+00" cType="1" res="-2.8101687785238028e-03" rms="1.7722125351428986e-01" purity="5.3234821557998657e-01" nType="0">
            <Node pos="l" depth="3" NCoef="0" IVar="-1" Cut="0.0000000000000000e+00" cType="1" res="-6.8311481736600399e-03" rms="1.7498217523097992e-01" purity="5.5184179544448853e-01" nType="-99"/>
            <Node pos="r" depth="3" NCoef="0" IVar="-1" Cut="0.0000000000000000e+00" cType="1" res="-3.8475763052701950e-02" rms="2.1857403218746185e-01" purity="1.2382940948009491e-01" nType="-99"/>
          </Node>
        </Node>
      </Node>
    </BinaryTree>
    <BinaryTree type="DecisionTree" boostWeight="1.0000000000000000e+00" itree="331">
      <Node pos="s" depth="0" NCoef="0" IVar="7" Cut="-3.9087656140327454e-01" cType="1" res="1.6800033627077937e-03" rms="1.9023965299129486e-01" purity="5.0025242567062378e-01" nType="0">
        <Node pos="l" depth="1" NCoef="0" IVar="8" Cut="-9.3320941925048828e-01" cType="1" res="6.0138604603707790e-03" rms="1.9673869013786316e-01" purity="4.2818644642829895e-01" nType="0">
          <Node pos="l" depth="2" NCoef="0" IVar="1" Cut="1.7532261962890625e+03" cType="1" res="1.8082493916153908e-02" rms="2.1776162087917328e-01" purity="3.5755056142807007e-01" nType="0">
            <Node pos="l" depth="3" NCoef="0" IVar="-1" Cut="0.0000000000000000e+00" cType="1" res="3.1715881079435349e-02" rms="1.2912322580814362e-01" purity="2.3570543155074120e-02" nType="-99"/>
            <Node pos="r" depth="3" NCoef="0" IVar="-1" Cut="0.0000000000000000e+00" cType="1" res="4.3848153203725815e-02" rms="2.8024950623512268e-01" purity="6.9933301210403442e-01" nType="-99"/>
          </Node>
          <Node pos="r" depth="2" NCoef="0" IVar="9" Cut="-1.3283954560756683e-01" cType="1" res="3.2932844478636980e-03" rms="1.9157640635967255e-01" purity="4.4410955905914307e-01" nType="0">
            <Node pos="l" depth="3" NCoef="0" IVar="-1" Cut="0.0000000000000000e+00" cType="1" res="-1.1449054814875126e-02" rms="1.8358744680881500e-01" purity="4.2114594578742981e-01" nType="-99"/>
            <Node pos="r" depth="3" NCoef="0" IVar="-1" Cut="0.0000000000000000e+00" cType="1" res="2.5135919451713562e-02" rms="1.9816026091575623e-01" purity="4.6442753076553345e-01" nType="-99"/>
          </Node>
        </Node>
        <Node pos="r" depth="1" NCoef="0" IVar="8" Cut="1.1996570825576782e+00" cType="1" res="-3.3809931483119726e-04" rms="1.8710206449031830e-01" purity="5.3381061553955078e-01" nType="0">
          <Node pos="l" depth="2" NCoef="0" IVar="9" Cut="-1.1995675563812256e+00" cType="1" res="-1.6653201309964061e-03" rms="1.8156971037387848e-01" purity="5.5754899978637695e-01" nType="0">
            <Node pos="l" depth="3" NCoef="0" IVar="-1" Cut="0.0000000000000000e+00" cType="1" res="1.9374378025531769e-02" rms="2.1464890241622925e-01" purity="4.4154042005538940e-01" nType="-99"/>
            <Node pos="r" depth="3" NCoef="0" IVar="-1" Cut="0.0000000000000000e+00" cType="1" res="-1.0170825757086277e-02" rms="1.7563821375370026e-01" purity="5.7614403963088989e-01" nType="-99"/>
          </Node>
          <Node pos="r" depth="2" NCoef="0" IVar="8" Cut="1.5044261217117310e+00" cType="1" res="1.0305110365152359e-02" rms="2.2635337710380554e-01" purity="3.4344834089279175e-01" nType="0">
            <Node pos="l" depth="3" NCoef="0" IVar="-1" Cut="0.0000000000000000e+00" cType="1" res="5.1706578582525253e-02" rms="2.3598062992095947e-01" purity="4.5467427372932434e-01" nType="-99"/>
            <Node pos="r" depth="3" NCoef="0" IVar="-1" Cut="0.0000000000000000e+00" cType="1" res="-4.5164404436945915e-03" rms="2.1695718169212341e-01" purity="2.4757419526576996e-01" nType="-99"/>
          </Node>
        </Node>
      </Node>
    </BinaryTree>
    <BinaryTree type="DecisionTree" boostWeight="1.0000000000000000e+00" itree="332">
      <Node pos="s" depth="0" NCoef="0" IVar="8" Cut="1.7334018945693970e+00" cType="1" res="6.2149332370609045e-04" rms="1.8989197909832001e-01" purity="5.0364995002746582e-01" nType="0">
        <Node pos="l" depth="1" NCoef="0" IVar="4" Cut="3.3674563598632812e+02" cType="1" res="1.4083524001762271e-03" rms="1.8941627442836761e-01" purity="5.1884686946868896e-01" nType="0">
          <Node pos="l" depth="2" NCoef="0" IVar="1" Cut="1.9525826416015625e+03" cType="1" res="6.6674295812845230e-03" rms="1.8866387009620667e-01" purity="1.0290046781301498e-01" nType="0">
            <Node pos="l" depth="3" NCoef="0" IVar="-1" Cut="0.0000000000000000e+00" cType="1" res="1.6623932868242264e-02" rms="1.4609546959400177e-01" purity="2.5720635429024696e-02" nType="-99"/>
            <Node pos="r" depth="3" NCoef="0" IVar="-1" Cut="0.0000000000000000e+00" cType="1" res="2.2417334839701653e-02" rms="3.3938893675804138e-01" purity="5.3654783964157104e-01" nType="-99"/>
          </Node>
          <Node pos="r" depth="2" NCoef="0" IVar="10" Cut="1.7333174943923950e+00" cType="1" res="-1.6763641033321619e-03" rms="1.8978840112686157e-01" purity="7.6282066106796265e-01" nType="0">
            <Node pos="l" depth="3" NCoef="0" IVar="-1" Cut="0.0000000000000000e+00" cType="1" res="-8.0540444469079375e-04" rms="1.8593961000442505e-01" purity="7.6968973875045776e-01" nType="-99"/>
            <Node pos="r" depth="3" NCoef="0" IVar="-1" Cut="0.0000000000000000e+00" cType="1" res="-4.3269690126180649e-02" rms="2.3985978960990906e-01" purity="6.5835231542587280e-01" nType="-99"/>
          </Node>
        </Node>
        <Node pos="r" depth="1" NCoef="0" IVar="-1" Cut="0.0000000000000000e+00" cType="1" res="-3.7785090506076813e-02" rms="1.9942544400691986e-01" purity="1.6382370889186859e-01" nType="-99"/>
      </Node>
    </BinaryTree>
    <BinaryTree type="DecisionTree" boostWeight="1.0000000000000000e+00" itree="333">
      <Node pos="s" depth="0" NCoef="0" IVar="9" Cut="-1.4662672281265259e+00" cType="1" res="6.1393051873892546e-04" rms="1.8986283242702484e-01" purity="5.0062608718872070e-01" nType="0">
        <Node pos="l" depth="1" NCoef="0" IVar="6" Cut="1.0235591125488281e+02" cType="1" res="8.8147763162851334e-03" rms="2.3272030055522919e-01" purity="3.5050269961357117e-01" nType="0">
          <Node pos="l" depth="2" NCoef="0" IVar="-1" Cut="0.0000000000000000e+00" cType="1" res="5.2831165492534637e-02" rms="2.3329839110374451e-01" purity="1.6656811535358429e-01" nType="-99"/>
          <Node pos="r" depth="2" NCoef="0" IVar="-1" Cut="0.0000000000000000e+00" cType="1" res="-5.2809389308094978e-03" rms="2.3156435787677765e-01" purity="5.3042703866958618e-01" nType="-99"/>
        </Node>
        <Node pos="r" depth="1" NCoef="0" IVar="10" Cut="-1.4666280746459961e+00" cType="1" res="-2.1771159663330764e-04" rms="1.8494261801242828e-01" purity="5.1585006713867188e-01" nType="0">
          <Node pos="l" depth="2" NCoef="0" IVar="4" Cut="3.3426541137695312e+02" cType="1" res="7.3840278200805187e-03" rms="2.1592810750007629e-01" purity="4.6472820639610291e-01" nType="0">
            <Node pos="l" depth="3" NCoef="0" IVar="-1" Cut="0.0000000000000000e+00" cType="1" res="-7.9461755231022835e-03" rms="1.9243456423282623e-01" purity="1.2055702507495880e-01" nType="-99"/>
            <Node pos="r" depth="3" NCoef="0" IVar="-1" Cut="0.0000000000000000e+00" cType="1" res="2.8587326407432556e-02" rms="2.3070092499256134e-01" purity="7.0647746324539185e-01" nType="-99"/>
          </Node>
          <Node pos="r" depth="2" NCoef="0" IVar="3" Cut="4.5202050781250000e+02" cType="1" res="-1.2308653676882386e-03" rms="1.8038725852966309e-01" purity="5.2266353368759155e-01" nType="0">
            <Node pos="l" depth="3" NCoef="0" IVar="-1" Cut="0.0000000000000000e+00" cType="1" res="1.5962019562721252e-02" rms="1.9960771501064301e-01" purity="8.2926101982593536e-02" nType="-99"/>
            <Node pos="r" depth="3" NCoef="0" IVar="-1" Cut="0.0000000000000000e+00" cType="1" res="-7.8288288787007332e-03" rms="1.7653113603591919e-01" purity="6.0487079620361328e-01" nType="-99"/>
          </Node>
        </Node>
      </Node>
    </BinaryTree>
    <BinaryTree type="DecisionTree" boostWeight="1.0000000000000000e+00" itree="334">
      <Node pos="s" depth="0" NCoef="0" IVar="7" Cut="-5.9815162420272827e-01" cType="1" res="3.3528113272041082e-04" rms="1.8550485372543335e-01" purity="5.0568234920501709e-01" nType="0">
        <Node pos="l" depth="1" NCoef="0" IVar="1" Cut="1.8685190429687500e+03" cType="1" res="-5.5232020094990730e-03" rms="1.8908789753913879e-01" purity="3.6429139971733093e-01" nType="0">
          <Node pos="l" depth="2" NCoef="0" IVar="9" Cut="-3.9970564842224121e-01" cType="1" res="-1.7476038774475455e-03" rms="1.2250853329896927e-01" purity="1.8640078604221344e-02" nType="0">
            <Node pos="l" depth="3" NCoef="0" IVar="-1" Cut="0.0000000000000000e+00" cType="1" res="-6.0896676033735275e-02" rms="9.0604990720748901e-02" purity="8.1848045811057091e-03" nType="-99"/>
            <Node pos="r" depth="3" NCoef="0" IVar="-1" Cut="0.0000000000000000e+00" cType="1" res="2.2177377715706825e-02" rms="1.4088849723339081e-01" purity="2.6207285001873970e-02" nType="-99"/>
          </Node>
          <Node pos="r" depth="2" NCoef="0" IVar="0" Cut="7.5592346191406250e+02" cType="1" res="-9.7937975078821182e-03" rms="2.4328097701072693e-01" purity="7.5525909662246704e-01" nType="0">
            <Node pos="l" depth="3" NCoef="0" IVar="-1" Cut="0.0000000000000000e+00" cType="1" res="-2.2993355989456177e-02" rms="3.1389826536178589e-01" purity="5.0680792331695557e-01" nType="-99"/>
            <Node pos="r" depth="3" NCoef="0" IVar="-1" Cut="0.0000000000000000e+00" cType="1" res="-7.0068961940705776e-03" rms="1.9510732591152191e-01" purity="8.8767749071121216e-01" nType="-99"/>
          </Node>
        </Node>
        <Node pos="r" depth="1" NCoef="0" IVar="8" Cut="6.6620355844497681e-01" cType="1" res="2.0851308945566416e-03" rms="1.8438504636287689e-01" purity="5.4791390895843506e-01" nType="0">
          <Node pos="l" depth="2" NCoef="0" IVar="1" Cut="2.2412966308593750e+03" cType="1" res="6.0552725335583091e-04" rms="1.7649817466735840e-01" purity="5.7651674747467041e-01" nType="0">
            <Node pos="l" depth="3" NCoef="0" IVar="-1" Cut="0.0000000000000000e+00" cType="1" res="-9.9257268011569977e-03" rms="1.9020792841911316e-01" purity="6.3621036708354950e-02" nType="-99"/>
            <Node pos="r" depth="3" NCoef="0" IVar="-1" Cut="0.0000000000000000e+00" cType="1" res="1.2558512389659882e-02" rms="1.6568578779697418e-01" purity="9.5149058103561401e-01" nType="-99"/>
          </Node>
          <Node pos="r" depth="2" NCoef="0" IVar="9" Cut="-6.6590517759323120e-01" cType="1" res="6.6827512346208096e-03" rms="2.0691572129726410e-01" purity="4.5903524756431580e-01" nType="0">
            <Node pos="l" depth="3" NCoef="0" IVar="-1" Cut="0.0000000000000000e+00" cType="1" res="3.5658221691846848e-02" rms="2.3961724340915680e-01" purity="4.8997664451599121e-01" nType="-99"/>
            <Node pos="r" depth="3" NCoef="0" IVar="-1" Cut="0.0000000000000000e+00" cType="1" res="7.1449493989348412e-03" rms="1.9391746819019318e-01" purity="4.4811642169952393e-01" nType="-99"/>
          </Node>
        </Node>
      </Node>
    </BinaryTree>
    <BinaryTree type="DecisionTree" boostWeight="1.0000000000000000e+00" itree="335">
      <Node pos="s" depth="0" NCoef="0" IVar="8" Cut="1.7331217527389526e+00" cType="1" res="-4.6877877321094275e-04" rms="1.8916267156600952e-01" purity="4.9824371933937073e-01" nType="0">
        <Node pos="l" depth="1" NCoef="0" IVar="8" Cut="-8.5719740390777588e-01" cType="1" res="-1.1234610574319959e-03" rms="1.8634402751922607e-01" purity="5.1174581050872803e-01" nType="0">
          <Node pos="l" depth="2" NCoef="0" IVar="8" Cut="-1.6898140907287598e+00" cType="1" res="-6.1284266412258148e-03" rms="1.9785772264003754e-01" purity="3.6720913648605347e-01" nType="0">
            <Node pos="l" depth="3" NCoef="0" IVar="-1" Cut="0.0000000000000000e+00" cType="1" res="1.6443794593214989e-02" rms="2.2131347656250000e-01" purity="2.0092606544494629e-01" nType="-99"/>
            <Node pos="r" depth="3" NCoef="0" IVar="-1" Cut="0.0000000000000000e+00" cType="1" res="-2.6288831606507301e-02" rms="1.8963325023651123e-01" purity="4.1980302333831787e-01" nType="-99"/>
          </Node>
          <Node pos="r" depth="2" NCoef="0" IVar="7" Cut="1.4701749086380005e+00" cType="1" res="1.7448958533350378e-04" rms="1.8321773409843445e-01" purity="5.4922890663146973e-01" nType="0">
            <Node pos="l" depth="3" NCoef="0" IVar="-1" Cut="0.0000000000000000e+00" cType="1" res="-6.7931262310594320e-04" rms="1.8137545883655548e-01" purity="5.6572353839874268e-01" nType="-99"/>
            <Node pos="r" depth="3" NCoef="0" IVar="-1" Cut="0.0000000000000000e+00" cType="1" res="2.7097633108496666e-02" rms="2.2425909340381622e-01" purity="1.3591572642326355e-01" nType="-99"/>
          </Node>
        </Node>
        <Node pos="r" depth="1" NCoef="0" IVar="-1" Cut="0.0000000000000000e+00" cType="1" res="2.9709689319133759e-02" rms="2.4361155927181244e-01" purity="1.9475632905960083e-01" nType="-99"/>
      </Node>
    </BinaryTree>
    <BinaryTree type="DecisionTree" boostWeight="1.0000000000000000e+00" itree="336">
      <Node pos="s" depth="0" NCoef="0" IVar="6" Cut="9.4900230407714844e+01" cType="1" res="-1.0065379319712520e-03" rms="1.8578724563121796e-01" purity="4.9771681427955627e-01" nType="0">
        <Node pos="l" depth="1" NCoef="0" IVar="0" Cut="7.4113311767578125e+02" cType="1" res="-5.7819313369691372e-03" rms="1.7259478569030762e-01" purity="1.5755845606327057e-01" nType="0">
          <Node pos="l" depth="2" NCoef="0" IVar="7" Cut="1.8585440516471863e-01" cType="1" res="-2.5825377088040113e-03" rms="1.3990843296051025e-01" purity="3.8237504661083221e-02" nType="0">
            <Node pos="l" depth="3" NCoef="0" IVar="-1" Cut="0.0000000000000000e+00" cType="1" res="-3.1714119017124176e-02" rms="1.2906280159950256e-01" purity="3.1504623591899872e-02" nType="-99"/>
            <Node pos="r" depth="3" NCoef="0" IVar="-1" Cut="0.0000000000000000e+00" cType="1" res="1.2757380492985249e-02" rms="1.5280352532863617e-01" purity="4.7075454145669937e-02" nType="-99"/>
          </Node>
          <Node pos="r" depth="2" NCoef="0" IVar="4" Cut="3.3674563598632812e+02" cType="1" res="-1.5936369076371193e-02" rms="2.4914467334747314e-01" purity="5.3626680374145508e-01" nType="0">
            <Node pos="l" depth="3" NCoef="0" IVar="-1" Cut="0.0000000000000000e+00" cType="1" res="-4.6765990555286407e-02" rms="2.2525832056999207e-01" purity="1.1451692879199982e-01" nType="-99"/>
            <Node pos="r" depth="3" NCoef="0" IVar="-1" Cut="0.0000000000000000e+00" cType="1" res="-9.5491623505949974e-03" rms="2.6382133364677429e-01" purity="8.2500189542770386e-01" nType="-99"/>
          </Node>
        </Node>
        <Node pos="r" depth="1" NCoef="0" IVar="3" Cut="4.5192800903320312e+02" cType="1" res="1.3277088291943073e-03" rms="1.9186286628246307e-01" purity="6.6398870944976807e-01" nType="0">
          <Node pos="l" depth="2" NCoef="0" IVar="1" Cut="1.6011215820312500e+03" cType="1" res="-9.5157707110047340e-03" rms="1.9665013253688812e-01" purity="9.1282173991203308e-02" nType="0">
            <Node pos="l" depth="3" NCoef="0" IVar="-1" Cut="0.0000000000000000e+00" cType="1" res="9.1874394565820694e-03" rms="1.1322701722383499e-01" purity="1.3333212584257126e-02" nType="-99"/>
            <Node pos="r" depth="3" NCoef="0" IVar="-1" Cut="0.0000000000000000e+00" cType="1" res="-2.9496230185031891e-02" rms="2.8828820586204529e-01" purity="2.2689354419708252e-01" nType="-99"/>
          </Node>
          <Node pos="r" depth="2" NCoef="0" IVar="1" Cut="2.7119165039062500e+03" cType="1" res="3.4723212011158466e-03" rms="1.9082885980606079e-01" purity="7.7725803852081299e-01" nType="0">
            <Node pos="l" depth="3" NCoef="0" IVar="-1" Cut="0.0000000000000000e+00" cType="1" res="1.3063338585197926e-02" rms="2.8924217820167542e-01" purity="3.9251840114593506e-01" nType="-99"/>
            <Node pos="r" depth="3" NCoef="0" IVar="-1" Cut="0.0000000000000000e+00" cType="1" res="-5.1310439594089985e-03" rms="1.0237614810466766e-01" purity="9.8808866739273071e-01" nType="-99"/>
          </Node>
        </Node>
      </Node>
    </BinaryTree>
    <BinaryTree type="DecisionTree" boostWeight="1.0000000000000000e+00" itree="337">
      <Node pos="s" depth="0" NCoef="0" IVar="8" Cut="1.2000490427017212e+00" cType="1" res="-4.1175066144205630e-04" rms="1.8842153251171112e-01" purity="4.9819433689117432e-01" nType="0">
        <Node pos="l" depth="1" NCoef="0" IVar="4" Cut="2.3666227722167969e+02" cType="1" res="5.3910200949758291e-04" rms="1.8479366600513458e-01" purity="5.2499318122863770e-01" nType="0">
          <Node pos="l" depth="2" NCoef="0" IVar="7" Cut="9.6718877553939819e-01" cType="1" res="-4.7659706324338913e-03" rms="1.1026323586702347e-01" purity="2.7092235162854195e-02" nType="0">
            <Node pos="l" depth="3" NCoef="0" IVar="-1" Cut="0.0000000000000000e+00" cType="1" res="-4.3630633503198624e-02" rms="1.0364165157079697e-01" purity="2.5299115106463432e-02" nType="-99"/>
            <Node pos="r" depth="3" NCoef="0" IVar="-1" Cut="0.0000000000000000e+00" cType="1" res="5.0419375300407410e-02" rms="1.3525928556919098e-01" purity="3.5157602280378342e-02" nType="-99"/>
          </Node>
          <Node pos="r" depth="2" NCoef="0" IVar="3" Cut="3.8516168212890625e+02" cType="1" res="1.5538674779236317e-03" rms="1.9582828879356384e-01" purity="6.2023276090621948e-01" nType="0">
            <Node pos="l" depth="3" NCoef="0" IVar="-1" Cut="0.0000000000000000e+00" cType="1" res="4.7340061515569687e-02" rms="2.2325083613395691e-01" purity="8.3769120275974274e-02" nType="-99"/>
            <Node pos="r" depth="3" NCoef="0" IVar="-1" Cut="0.0000000000000000e+00" cType="1" res="1.1614762479439378e-03" rms="1.9383661448955536e-01" purity="6.5552282333374023e-01" nType="-99"/>
          </Node>
        </Node>
        <Node pos="r" depth="1" NCoef="0" IVar="10" Cut="9.3331485986709595e-01" cType="1" res="-7.8509468585252762e-03" rms="2.1455392241477966e-01" purity="2.8852817416191101e-01" nType="0">
          <Node pos="l" depth="2" NCoef="0" IVar="5" Cut="2.0631898498535156e+02" cType="1" res="-1.3212534599006176e-02" rms="2.0540603995323181e-01" purity="3.0470809340476990e-01" nType="0">
            <Node pos="l" depth="3" NCoef="0" IVar="-1" Cut="0.0000000000000000e+00" cType="1" res="-1.8431244418025017e-02" rms="1.7641402781009674e-01" purity="8.6848296225070953e-02" nType="-99"/>
            <Node pos="r" depth="3" NCoef="0" IVar="-1" Cut="0.0000000000000000e+00" cType="1" res="-3.9871759712696075e-02" rms="2.4174024164676666e-01" purity="6.2756341695785522e-01" nType="-99"/>
          </Node>
          <Node pos="r" depth="2" NCoef="0" IVar="-1" Cut="0.0000000000000000e+00" cType="1" res="1.0622070170938969e-02" rms="2.3437206447124481e-01" purity="2.5008690357208252e-01" nType="-99"/>
        </Node>
      </Node>
    </BinaryTree>
    <BinaryTree type="DecisionTree" boostWeight="1.0000000000000000e+00" itree="338">
      <Node pos="s" depth="0" NCoef="0" IVar="2" Cut="1.4334557950496674e-01" cType="1" res="5.2519544260576367e-04" rms="1.8947732448577881e-01" purity="4.9971616268157959e-01" nType="0">
        <Node pos="l" depth="1" NCoef="0" IVar="5" Cut="2.0250227355957031e+02" cType="1" res="-2.5882534100674093e-04" rms="1.9313696026802063e-01" purity="4.6101486682891846e-01" nType="0">
          <Node pos="l" depth="2" NCoef="0" IVar="5" Cut="1.8798158264160156e+02" cType="1" res="2.4604185018688440e-03" rms="1.8382550776004791e-01" purity="1.1292905360460281e-01" nType="0">
            <Node pos="l" depth="3" NCoef="0" IVar="-1" Cut="0.0000000000000000e+00" cType="1" res="2.4510829243808985e-03" rms="1.7415955662727356e-01" purity="9.5427490770816803e-02" nType="-99"/>
            <Node pos="r" depth="3" NCoef="0" IVar="-1" Cut="0.0000000000000000e+00" cType="1" res="3.3524632453918457e-02" rms="2.5603550672531128e-01" purity="2.7503776550292969e-01" nType="-99"/>
          </Node>
          <Node pos="r" depth="2" NCoef="0" IVar="10" Cut="1.4666703939437866e+00" cType="1" res="-2.5222145486623049e-03" rms="2.0052991807460785e-01" purity="7.5074750185012817e-01" nType="0">
            <Node pos="l" depth="3" NCoef="0" IVar="-1" Cut="0.0000000000000000e+00" cType="1" res="-3.4641257952898741e-03" rms="1.9736084342002869e-01" purity="7.5670194625854492e-01" nType="-99"/>
            <Node pos="r" depth="3" NCoef="0" IVar="-1" Cut="0.0000000000000000e+00" cType="1" res="-2.4716947227716446e-02" rms="2.2686028480529785e-01" purity="6.9702774286270142e-01" nType="-99"/>
          </Node>
        </Node>
        <Node pos="r" depth="1" NCoef="0" IVar="-1" Cut="0.0000000000000000e+00" cType="1" res="3.1884804368019104e-02" rms="1.5170617401599884e-01" purity="8.5431849956512451e-01" nType="-99"/>
      </Node>
    </BinaryTree>
    <BinaryTree type="DecisionTree" boostWeight="1.0000000000000000e+00" itree="339">
      <Node pos="s" depth="0" NCoef="0" IVar="10" Cut="-1.9999672174453735e+00" cType="1" res="7.9223966167774051e-05" rms="1.9091767072677612e-01" purity="5.0143682956695557e-01" nType="0">
        <Node pos="l" depth="1" NCoef="0" IVar="-1" Cut="0.0000000000000000e+00" cType="1" res="-3.1286794692277908e-02" rms="2.2251947224140167e-01" purity="3.4339249134063721e-01" nType="-99"/>
        <Node pos="r" depth="1" NCoef="0" IVar="8" Cut="-1.7332901954650879e+00" cType="1" res="9.3593756901100278e-04" rms="1.8913899362087250e-01" purity="5.0942945480346680e-01" nType="0">
          <Node pos="l" depth="2" NCoef="0" IVar="-1" Cut="0.0000000000000000e+00" cType="1" res="-3.3825486898422241e-02" rms="2.0507512986660004e-01" purity="1.8188953399658203e-01" nType="-99"/>
          <Node pos="r" depth="2" NCoef="0" IVar="8" Cut="-8.6978113651275635e-01" cType="1" res="1.6045704251155257e-03" rms="1.8842551112174988e-01" purity="5.2288395166397095e-01" nType="0">
            <Node pos="l" depth="3" NCoef="0" IVar="-1" Cut="0.0000000000000000e+00" cType="1" res="2.1293697878718376e-02" rms="2.1176585555076599e-01" purity="4.4525107741355896e-01" nType="-99"/>
            <Node pos="r" depth="3" NCoef="0" IVar="-1" Cut="0.0000000000000000e+00" cType="1" res="6.2945112586021423e-04" rms="1.8366710841655731e-01" purity="5.3749847412109375e-01" nType="-99"/>
          </Node>
        </Node>
      </Node>
    </BinaryTree>
    <BinaryTree type="DecisionTree" boostWeight="1.0000000000000000e+00" itree="340">
      <Node pos="s" depth="0" NCoef="0" IVar="3" Cut="4.9896038818359375e+02" cType="1" res="8.6353346705436707e-04" rms="1.9001434743404388e-01" purity="4.9935084581375122e-01" nType="0">
        <Node pos="l" depth="1" NCoef="0" IVar="1" Cut="1.7862905273437500e+03" cType="1" res="-4.0667415596544743e-03" rms="1.8953526020050049e-01" purity="9.4706289470195770e-02" nType="0">
          <Node pos="l" depth="2" NCoef="0" IVar="7" Cut="9.5578271150588989e-01" cType="1" res="3.2904485124163330e-04" rms="1.4295051991939545e-01" purity="2.3676795884966850e-02" nType="0">
            <Node pos="l" depth="3" NCoef="0" IVar="-1" Cut="0.0000000000000000e+00" cType="1" res="1.7176393419504166e-02" rms="1.4821296930313110e-01" purity="2.5799615308642387e-02" nType="-99"/>
            <Node pos="r" depth="3" NCoef="0" IVar="-1" Cut="0.0000000000000000e+00" cType="1" res="-4.8817325383424759e-02" rms="1.1915421485900879e-01" purity="1.5286722220480442e-02" nType="-99"/>
          </Node>
          <Node pos="r" depth="2" NCoef="0" IVar="-1" Cut="0.0000000000000000e+00" cType="1" res="-2.1857459098100662e-02" rms="3.4675115346908569e-01" purity="4.8450878262519836e-01" nType="-99"/>
        </Node>
        <Node pos="r" depth="1" NCoef="0" IVar="10" Cut="-1.1999129056930542e+00" cType="1" res="2.3290785029530525e-03" rms="1.9013187289237976e-01" purity="6.1963313817977905e-01" nType="0">
          <Node pos="l" depth="2" NCoef="0" IVar="1" Cut="2.2222351074218750e+03" cType="1" res="1.0411862283945084e-02" rms="2.1691611409187317e-01" purity="5.6523799896240234e-01" nType="0">
            <Node pos="l" depth="3" NCoef="0" IVar="-1" Cut="0.0000000000000000e+00" cType="1" res="4.9708455801010132e-02" rms="2.3307175934314728e-01" purity="1.0472711920738220e-01" nType="-99"/>
            <Node pos="r" depth="3" NCoef="0" IVar="-1" Cut="0.0000000000000000e+00" cType="1" res="3.1616801861673594e-03" rms="2.0306950807571411e-01" purity="9.2164254188537598e-01" nType="-99"/>
          </Node>
          <Node pos="r" depth="2" NCoef="0" IVar="9" Cut="-1.7334749698638916e+00" cType="1" res="7.6658237958326936e-04" rms="1.8446540832519531e-01" purity="6.3014829158782959e-01" nType="0">
            <Node pos="l" depth="3" NCoef="0" IVar="-1" Cut="0.0000000000000000e+00" cType="1" res="3.0111385509371758e-02" rms="2.5414076447486877e-01" purity="4.2651650309562683e-01" nType="-99"/>
            <Node pos="r" depth="3" NCoef="0" IVar="-1" Cut="0.0000000000000000e+00" cType="1" res="2.3062044056132436e-04" rms="1.8027620017528534e-01" purity="6.4026278257369995e-01" nType="-99"/>
          </Node>
        </Node>
      </Node>
    </BinaryTree>
    <BinaryTree type="DecisionTree" boostWeight="1.0000000000000000e+00" itree="341">
      <Node pos="s" depth="0" NCoef="0" IVar="7" Cut="9.6634012460708618e-01" cType="1" res="-1.0491900320630521e-04" rms="1.8849723041057587e-01" purity="5.0035792589187622e-01" nType="0">
        <Node pos="l" depth="1" NCoef="0" IVar="0" Cut="5.9408441162109375e+02" cType="1" res="1.0073854355141521e-03" rms="1.8721516430377960e-01" purity="5.3602981567382812e-01" nType="0">
          <Node pos="l" depth="2" NCoef="0" IVar="2" Cut="7.6526738703250885e-02" cType="1" res="4.5944871380925179e-03" rms="2.0044098794460297e-01" purity="1.1092120409011841e-01" nType="0">
            <Node pos="l" depth="3" NCoef="0" IVar="-1" Cut="0.0000000000000000e+00" cType="1" res="1.9891876727342606e-02" rms="1.9383640587329865e-01" purity="9.0875215828418732e-02" nType="-99"/>
            <Node pos="r" depth="3" NCoef="0" IVar="-1" Cut="0.0000000000000000e+00" cType="1" res="-1.4727388508617878e-02" rms="2.3294518887996674e-01" purity="2.2095124423503876e-01" nType="-99"/>
          </Node>
          <Node pos="r" depth="2" NCoef="0" IVar="9" Cut="1.2000730037689209e+00" cType="1" res="-1.0966981062665582e-03" rms="1.7896971106529236e-01" purity="7.8538548946380615e-01" nType="0">
            <Node pos="l" depth="3" NCoef="0" IVar="-1" Cut="0.0000000000000000e+00" cType="1" res="1.2650415301322937e-03" rms="1.7396982014179230e-01" purity="7.9596686363220215e-01" nType="-99"/>
            <Node pos="r" depth="3" NCoef="0" IVar="-1" Cut="0.0000000000000000e+00" cType="1" res="-2.6174673810601234e-02" rms="2.1169956028461456e-01" purity="7.0790964365005493e-01" nType="-99"/>
          </Node>
        </Node>
        <Node pos="r" depth="1" NCoef="0" IVar="1" Cut="1.7912286376953125e+03" cType="1" res="-7.9190563410520554e-03" rms="1.9709244370460510e-01" purity="2.4975709617137909e-01" nType="0">
          <Node pos="l" depth="2" NCoef="0" IVar="9" Cut="1.2965777516365051e-01" cType="1" res="8.7655331299174577e-05" rms="1.2363262474536896e-01" purity="1.9341100007295609e-02" nType="0">
            <Node pos="l" depth="3" NCoef="0" IVar="-1" Cut="0.0000000000000000e+00" cType="1" res="-5.4829318076372147e-02" rms="9.0964876115322113e-02" purity="9.2318421229720116e-03" nType="-99"/>
            <Node pos="r" depth="3" NCoef="0" IVar="-1" Cut="0.0000000000000000e+00" cType="1" res="5.5018287152051926e-02" rms="1.4819012582302094e-01" purity="2.9215326532721519e-02" nType="-99"/>
          </Node>
          <Node pos="r" depth="2" NCoef="0" IVar="-1" Cut="0.0000000000000000e+00" cType="1" res="-2.6006491854786873e-02" rms="2.7148845791816711e-01" purity="5.9301149845123291e-01" nType="-99"/>
        </Node>
      </Node>
    </BinaryTree>
    <BinaryTree type="DecisionTree" boostWeight="1.0000000000000000e+00" itree="342">
      <Node pos="s" depth="0" NCoef="0" IVar="10" Cut="-1.9999730587005615e+00" cType="1" res="-3.6694417940452695e-04" rms="1.8699614703655243e-01" purity="4.9768447875976562e-01" nType="0">
        <Node pos="l" depth="1" NCoef="0" IVar="-1" Cut="0.0000000000000000e+00" cType="1" res="-2.9974892735481262e-02" rms="2.2742730379104614e-01" purity="3.4036710858345032e-01" nType="-99"/>
        <Node pos="r" depth="1" NCoef="0" IVar="9" Cut="-1.9999409914016724e+00" cType="1" res="4.5877322554588318e-04" rms="1.8470051884651184e-01" purity="5.0556159019470215e-01" nType="0">
          <Node pos="l" depth="2" NCoef="0" IVar="-1" Cut="0.0000000000000000e+00" cType="1" res="-2.8857462108135223e-02" rms="2.0980562269687653e-01" purity="1.9924329221248627e-01" nType="-99"/>
          <Node pos="r" depth="2" NCoef="0" IVar="9" Cut="-1.5428104400634766e+00" cType="1" res="8.7156047811731696e-04" rms="1.8383982777595520e-01" purity="5.1519930362701416e-01" nType="0">
            <Node pos="l" depth="3" NCoef="0" IVar="-1" Cut="0.0000000000000000e+00" cType="1" res="3.0025629326701164e-02" rms="2.3519559204578400e-01" purity="3.9118900895118713e-01" nType="-99"/>
            <Node pos="r" depth="3" NCoef="0" IVar="-1" Cut="0.0000000000000000e+00" cType="1" res="4.5376049820333719e-04" rms="1.8064384162425995e-01" purity="5.2185380458831787e-01" nType="-99"/>
          </Node>
        </Node>
      </Node>
    </BinaryTree>
    <BinaryTree type="DecisionTree" boostWeight="1.0000000000000000e+00" itree="343">
      <Node pos="s" depth="0" NCoef="0" IVar="9" Cut="1.4665815830230713e+00" cType="1" res="-7.1851030224934220e-04" rms="1.8859493732452393e-01" purity="4.9723592400550842e-01" nType="0">
        <Node pos="l" depth="1" NCoef="0" IVar="0" Cut="5.7768719482421875e+02" cType="1" res="2.6663826429285109e-04" rms="1.8557515740394592e-01" purity="5.1485103368759155e-01" nType="0">
          <Node pos="l" depth="2" NCoef="0" IVar="0" Cut="4.3223211669921875e+02" cType="1" res="4.0621650405228138e-03" rms="1.9564674794673920e-01" purity="9.8632968962192535e-02" nType="0">
            <Node pos="l" depth="3" NCoef="0" IVar="-1" Cut="0.0000000000000000e+00" cType="1" res="-1.4189428649842739e-02" rms="1.3409206271171570e-01" purity="2.2970352321863174e-02" nType="-99"/>
            <Node pos="r" depth="3" NCoef="0" IVar="-1" Cut="0.0000000000000000e+00" cType="1" res="2.0528722554445267e-02" rms="2.4540396034717560e-01" purity="1.8085011839866638e-01" nType="-99"/>
          </Node>
          <Node pos="r" depth="2" NCoef="0" IVar="5" Cut="2.6115927124023438e+02" cType="1" res="-1.9855774007737637e-03" rms="1.7929361760616302e-01" purity="7.6182925701141357e-01" nType="0">
            <Node pos="l" depth="3" NCoef="0" IVar="-1" Cut="0.0000000000000000e+00" cType="1" res="-1.2441240251064301e-02" rms="2.3833344876766205e-01" purity="3.7432309985160828e-01" nType="-99"/>
            <Node pos="r" depth="3" NCoef="0" IVar="-1" Cut="0.0000000000000000e+00" cType="1" res="4.7681303694844246e-03" rms="1.3677746057510376e-01" purity="9.7265660762786865e-01" nType="-99"/>
          </Node>
        </Node>
        <Node pos="r" depth="1" NCoef="0" IVar="4" Cut="3.6907833862304688e+02" cType="1" res="-1.0122618637979031e-02" rms="2.1507285535335541e-01" purity="3.2908517122268677e-01" nType="0">
          <Node pos="l" depth="2" NCoef="0" IVar="5" Cut="1.5579409790039062e+02" cType="1" res="-2.3557661916129291e-04" rms="2.0013906061649323e-01" purity="1.2785685062408447e-01" nType="0">
            <Node pos="l" depth="3" NCoef="0" IVar="-1" Cut="0.0000000000000000e+00" cType="1" res="-4.5179691165685654e-02" rms="1.1468286067247391e-01" purity="2.9012802988290787e-02" nType="-99"/>
            <Node pos="r" depth="3" NCoef="0" IVar="-1" Cut="0.0000000000000000e+00" cType="1" res="1.5783855691552162e-02" rms="2.6155322790145874e-01" purity="2.3287001252174377e-01" nType="-99"/>
          </Node>
          <Node pos="r" depth="2" NCoef="0" IVar="-1" Cut="0.0000000000000000e+00" cType="1" res="-4.2084820568561554e-02" rms="2.3456619679927826e-01" purity="6.2505990266799927e-01" nType="-99"/>
        </Node>
      </Node>
    </BinaryTree>
    <BinaryTree type="DecisionTree" boostWeight="1.0000000000000000e+00" itree="344">
      <Node pos="s" depth="0" NCoef="0" IVar="10" Cut="2.2665853500366211e+00" cType="1" res="1.5938408905640244e-03" rms="1.9063501060009003e-01" purity="5.0317770242691040e-01" nType="0">
        <Node pos="l" depth="1" NCoef="0" IVar="3" Cut="3.5062823486328125e+02" cType="1" res="1.0009454563260078e-03" rms="1.8742428719997406e-01" purity="5.0729644298553467e-01" nType="0">
          <Node pos="l" depth="2" NCoef="0" IVar="-1" Cut="0.0000000000000000e+00" cType="1" res="-4.1238877922296524e-02" rms="1.3826070725917816e-01" purity="2.9117293655872345e-02" nType="-99"/>
          <Node pos="r" depth="2" NCoef="0" IVar="7" Cut="-8.5492974519729614e-01" cType="1" res="1.6334677347913384e-03" rms="1.8954631686210632e-01" purity="5.3143465518951416e-01" nType="0">
            <Node pos="l" depth="3" NCoef="0" IVar="-1" Cut="0.0000000000000000e+00" cType="1" res="-1.2286024168133736e-02" rms="1.9805453717708588e-01" purity="3.0737811326980591e-01" nType="-99"/>
            <Node pos="r" depth="3" NCoef="0" IVar="-1" Cut="0.0000000000000000e+00" cType="1" res="7.6410747133195400e-03" rms="1.8804007768630981e-01" purity="5.6949573755264282e-01" nType="-99"/>
          </Node>
        </Node>
        <Node pos="r" depth="1" NCoef="0" IVar="-1" Cut="0.0000000000000000e+00" cType="1" res="3.9221566170454025e-02" rms="2.8707918524742126e-01" purity="3.4504127502441406e-01" nType="-99"/>
      </Node>
    </BinaryTree>
    <BinaryTree type="DecisionTree" boostWeight="1.0000000000000000e+00" itree="345">
      <Node pos="s" depth="0" NCoef="0" IVar="10" Cut="-1.4666512012481689e+00" cType="1" res="3.0735289328731596e-04" rms="1.8663096427917480e-01" purity="5.0147914886474609e-01" nType="0">
        <Node pos="l" depth="1" NCoef="0" IVar="6" Cut="7.8112411499023438e+01" cType="1" res="8.7607037276029587e-03" rms="2.2069910168647766e-01" purity="4.2700308561325073e-01" nType="0">
          <Node pos="l" depth="2" NCoef="0" IVar="-1" Cut="0.0000000000000000e+00" cType="1" res="-2.9411250725388527e-02" rms="1.7012985050678253e-01" purity="1.3499966263771057e-01" nType="-99"/>
          <Node pos="r" depth="2" NCoef="0" IVar="6" Cut="1.3165611267089844e+02" cType="1" res="1.6156390309333801e-02" rms="2.3701477050781250e-01" purity="5.4023027420043945e-01" nType="0">
            <Node pos="l" depth="3" NCoef="0" IVar="-1" Cut="0.0000000000000000e+00" cType="1" res="4.8901885747909546e-02" rms="2.5450244545936584e-01" purity="3.3096370100975037e-01" nType="-99"/>
            <Node pos="r" depth="3" NCoef="0" IVar="-1" Cut="0.0000000000000000e+00" cType="1" res="1.0913749225437641e-02" rms="2.1970528364181519e-01" purity="7.2743356227874756e-01" nType="-99"/>
          </Node>
        </Node>
        <Node pos="r" depth="1" NCoef="0" IVar="8" Cut="-1.1997393369674683e+00" cType="1" res="-8.0046179937198758e-04" rms="1.8166437745094299e-01" purity="5.1123923063278198e-01" nType="0">
          <Node pos="l" depth="2" NCoef="0" IVar="10" Cut="5.6496822834014893e-01" cType="1" res="-9.8075103014707565e-03" rms="1.9489209353923798e-01" purity="3.0423149466514587e-01" nType="0">
            <Node pos="l" depth="3" NCoef="0" IVar="-1" Cut="0.0000000000000000e+00" cType="1" res="-8.8451020419597626e-03" rms="1.8441593647003174e-01" purity="3.0568572878837585e-01" nType="-99"/>
            <Node pos="r" depth="3" NCoef="0" IVar="-1" Cut="0.0000000000000000e+00" cType="1" res="-4.7623265534639359e-02" rms="2.1352270245552063e-01" purity="3.0135273933410645e-01" nType="-99"/>
          </Node>
          <Node pos="r" depth="2" NCoef="0" IVar="7" Cut="1.4923205375671387e+00" cType="1" res="3.1075379229150712e-04" rms="1.7993384599685669e-01" purity="5.3677815198898315e-01" nType="0">
            <Node pos="l" depth="3" NCoef="0" IVar="-1" Cut="0.0000000000000000e+00" cType="1" res="-1.4059671666473150e-03" rms="1.7735895514488220e-01" purity="5.5344247817993164e-01" nType="-99"/>
            <Node pos="r" depth="3" NCoef="0" IVar="-1" Cut="0.0000000000000000e+00" cType="1" res="5.4292399436235428e-02" rms="2.3367972671985626e-01" purity="1.2735943496227264e-01" nType="-99"/>
          </Node>
        </Node>
      </Node>
    </BinaryTree>
    <BinaryTree type="DecisionTree" boostWeight="1.0000000000000000e+00" itree="346">
      <Node pos="s" depth="0" NCoef="0" IVar="7" Cut="-1.3489035367965698e+00" cType="1" res="-7.6522625749930739e-04" rms="1.8891882896423340e-01" purity="4.9921971559524536e-01" nType="0">
        <Node pos="l" depth="1" NCoef="0" IVar="1" Cut="1.5817476806640625e+03" cType="1" res="1.3355553150177002e-02" rms="1.9828742742538452e-01" purity="1.3537053763866425e-01" nType="0">
          <Node pos="l" depth="2" NCoef="0" IVar="-1" Cut="0.0000000000000000e+00" cType="1" res="4.5349296182394028e-02" rms="8.4707155823707581e-02" purity="7.6317451894283295e-03" nType="-99"/>
          <Node pos="r" depth="2" NCoef="0" IVar="-1" Cut="0.0000000000000000e+00" cType="1" res="4.2835477739572525e-02" rms="2.6448825001716614e-01" purity="2.5803038477897644e-01" nType="-99"/>
        </Node>
        <Node pos="r" depth="1" NCoef="0" IVar="7" Cut="8.2209086418151855e-01" cType="1" res="-1.6402292530983686e-03" rms="1.8828812241554260e-01" purity="5.2176588773727417e-01" nType="0">
          <Node pos="l" depth="2" NCoef="0" IVar="9" Cut="-1.4666333198547363e+00" cType="1" res="-3.2251130323857069e-03" rms="1.8292745947837830e-01" purity="5.6638336181640625e-01" nType="0">
            <Node pos="l" depth="3" NCoef="0" IVar="-1" Cut="0.0000000000000000e+00" cType="1" res="-2.7923723682761192e-02" rms="2.0537501573562622e-01" purity="3.8686183094978333e-01" nType="-99"/>
            <Node pos="r" depth="3" NCoef="0" IVar="-1" Cut="0.0000000000000000e+00" cType="1" res="-6.9020921364426613e-03" rms="1.8068400025367737e-01" purity="5.8299028873443604e-01" nType="-99"/>
          </Node>
          <Node pos="r" depth="2" NCoef="0" IVar="0" Cut="5.4379321289062500e+02" cType="1" res="5.9983343817293644e-03" rms="2.1206802129745483e-01" purity="3.0672582983970642e-01" nType="0">
            <Node pos="l" depth="3" NCoef="0" IVar="-1" Cut="0.0000000000000000e+00" cType="1" res="-3.5588135942816734e-03" rms="1.7287182807922363e-01" purity="5.6035950779914856e-02" nType="-99"/>
            <Node pos="r" depth="3" NCoef="0" IVar="-1" Cut="0.0000000000000000e+00" cType="1" res="2.3752378299832344e-02" rms="2.4306954443454742e-01" purity="5.4270714521408081e-01" nType="-99"/>
          </Node>
        </Node>
      </Node>
    </BinaryTree>
    <BinaryTree type="DecisionTree" boostWeight="1.0000000000000000e+00" itree="347">
      <Node pos="s" depth="0" NCoef="0" IVar="9" Cut="1.9997645616531372e+00" cType="1" res="-1.2977124424651265e-03" rms="1.8565756082534790e-01" purity="5.0141227245330811e-01" nType="0">
        <Node pos="l" depth="1" NCoef="0" IVar="10" Cut="2.2666020393371582e+00" cType="1" res="-1.7948994645848870e-03" rms="1.8375054001808167e-01" purity="5.1024210453033447e-01" nType="0">
          <Node pos="l" depth="2" NCoef="0" IVar="9" Cut="-5.7255301624536514e-02" cType="1" res="-1.2772659538313746e-03" rms="1.8281783163547516e-01" purity="5.1425713300704956e-01" nType="0">
            <Node pos="l" depth="3" NCoef="0" IVar="-1" Cut="0.0000000000000000e+00" cType="1" res="3.1334075611084700e-03" rms="1.8408823013305664e-01" purity="5.0759136676788330e-01" nType="-99"/>
            <Node pos="r" depth="3" NCoef="0" IVar="-1" Cut="0.0000000000000000e+00" cType="1" res="-1.0804633609950542e-02" rms="1.8150700628757477e-01" purity="5.2092325687408447e-01" nType="-99"/>
          </Node>
          <Node pos="r" depth="2" NCoef="0" IVar="-1" Cut="0.0000000000000000e+00" cType="1" res="-4.0603786706924438e-02" rms="2.1465305984020233e-01" purity="3.6121079325675964e-01" nType="-99"/>
        </Node>
        <Node pos="r" depth="1" NCoef="0" IVar="-1" Cut="0.0000000000000000e+00" cType="1" res="2.1470317617058754e-02" rms="2.3312665522098541e-01" purity="2.4963948130607605e-01" nType="-99"/>
      </Node>
    </BinaryTree>
    <BinaryTree type="DecisionTree" boostWeight="1.0000000000000000e+00" itree="348">
      <Node pos="s" depth="0" NCoef="0" IVar="10" Cut="1.9999800920486450e+00" cType="1" res="7.4510939884930849e-04" rms="1.8824212253093719e-01" purity="4.9510797858238220e-01" nType="0">
        <Node pos="l" depth="1" NCoef="0" IVar="10" Cut="-5.1429742574691772e-01" cType="1" res="2.0138817490078509e-05" rms="1.8504652380943298e-01" purity="5.0109195709228516e-01" nType="0">
          <Node pos="l" depth="2" NCoef="0" IVar="8" Cut="-1.4665434360504150e+00" cType="1" res="3.1848901417106390e-03" rms="1.9836366176605225e-01" purity="4.7853669524192810e-01" nType="0">
            <Node pos="l" depth="3" NCoef="0" IVar="-1" Cut="0.0000000000000000e+00" cType="1" res="-3.9232350885868073e-02" rms="1.8079422414302826e-01" purity="1.7603749036788940e-01" nType="-99"/>
            <Node pos="r" depth="3" NCoef="0" IVar="-1" Cut="0.0000000000000000e+00" cType="1" res="1.3287136331200600e-02" rms="1.9970947504043579e-01" purity="5.0449174642562866e-01" nType="-99"/>
          </Node>
          <Node pos="r" depth="2" NCoef="0" IVar="9" Cut="-6.6696065664291382e-01" cType="1" res="-1.7669870285317302e-03" rms="1.7705948650836945e-01" purity="5.1382881402969360e-01" nType="0">
            <Node pos="l" depth="3" NCoef="0" IVar="-1" Cut="0.0000000000000000e+00" cType="1" res="-1.7961289733648300e-02" rms="1.7803603410720825e-01" purity="4.7663307189941406e-01" nType="-99"/>
            <Node pos="r" depth="3" NCoef="0" IVar="-1" Cut="0.0000000000000000e+00" cType="1" res="-7.5967393058817834e-05" rms="1.7667283117771149e-01" purity="5.2727335691452026e-01" nType="-99"/>
          </Node>
        </Node>
        <Node pos="r" depth="1" NCoef="0" IVar="-1" Cut="0.0000000000000000e+00" cType="1" res="2.6232352480292320e-02" rms="2.4107258021831512e-01" purity="3.8031131029129028e-01" nType="-99"/>
      </Node>
    </BinaryTree>
    <BinaryTree type="DecisionTree" boostWeight="1.0000000000000000e+00" itree="349">
      <Node pos="s" depth="0" NCoef="0" IVar="2" Cut="4.2731411755084991e-02" cType="1" res="-2.1916980040259659e-04" rms="1.8750484287738800e-01" purity="5.0517594814300537e-01" nType="0">
        <Node pos="l" depth="1" NCoef="0" IVar="5" Cut="3.5496859741210938e+02" cType="1" res="-2.3956391960382462e-03" rms="1.9212035834789276e-01" purity="3.2826864719390869e-01" nType="0">
          <Node pos="l" depth="2" NCoef="0" IVar="6" Cut="1.7914024353027344e+02" cType="1" res="-3.6520955618470907e-03" rms="1.9760395586490631e-01" purity="2.1321463584899902e-01" nType="0">
            <Node pos="l" depth="3" NCoef="0" IVar="-1" Cut="0.0000000000000000e+00" cType="1" res="-6.1376569792628288e-03" rms="1.9113975763320923e-01" purity="1.6021569073200226e-01" nType="-99"/>
            <Node pos="r" depth="3" NCoef="0" IVar="-1" Cut="0.0000000000000000e+00" cType="1" res="-2.5437733158469200e-02" rms="2.4879683554172516e-01" purity="6.9862169027328491e-01" nType="-99"/>
          </Node>
          <Node pos="r" depth="2" NCoef="0" IVar="-1" Cut="0.0000000000000000e+00" cType="1" res="1.6423795372247696e-02" rms="1.5889801084995270e-01" purity="9.5312672853469849e-01" nType="-99"/>
        </Node>
        <Node pos="r" depth="1" NCoef="0" IVar="9" Cut="6.6753846406936646e-01" cType="1" res="2.4466095492243767e-03" rms="1.8165645003318787e-01" purity="7.2185522317886353e-01" nType="0">
          <Node pos="l" depth="2" NCoef="0" IVar="1" Cut="2.5217614746093750e+03" cType="1" res="5.2039688453078270e-03" rms="1.7529146373271942e-01" purity="7.4020498991012573e-01" nType="0">
            <Node pos="l" depth="3" NCoef="0" IVar="-1" Cut="0.0000000000000000e+00" cType="1" res="2.1452670916914940e-02" rms="2.6741132140159607e-01" purity="2.4670903384685516e-01" nType="-99"/>
            <Node pos="r" depth="3" NCoef="0" IVar="-1" Cut="0.0000000000000000e+00" cType="1" res="3.5956406500190496e-03" rms="1.0044264793395996e-01" purity="9.8910337686538696e-01" nType="-99"/>
          </Node>
          <Node pos="r" depth="2" NCoef="0" IVar="3" Cut="4.8708148193359375e+02" cType="1" res="-5.3450991399586201e-03" rms="1.9833549857139587e-01" purity="6.7000269889831543e-01" nType="0">
            <Node pos="l" depth="3" NCoef="0" IVar="-1" Cut="0.0000000000000000e+00" cType="1" res="3.2631959766149521e-02" rms="2.6665338873863220e-01" purity="1.8711653351783752e-01" nType="-99"/>
            <Node pos="r" depth="3" NCoef="0" IVar="-1" Cut="0.0000000000000000e+00" cType="1" res="-3.4127943217754364e-02" rms="1.7370574176311493e-01" purity="8.0624687671661377e-01" nType="-99"/>
          </Node>
        </Node>
      </Node>
    </BinaryTree>
    <BinaryTree type="DecisionTree" boostWeight="1.0000000000000000e+00" itree="350">
      <Node pos="s" depth="0" NCoef="0" IVar="10" Cut="2.2665908336639404e+00" cType="1" res="-1.4320424525067210e-03" rms="1.8405342102050781e-01" purity="4.9839809536933899e-01" nType="0">
        <Node pos="l" depth="1" NCoef="0" IVar="3" Cut="9.2862121582031250e+02" cType="1" res="-1.0071714641526341e-03" rms="1.8219241499900818e-01" purity="5.0272184610366821e-01" nType="0">
          <Node pos="l" depth="2" NCoef="0" IVar="5" Cut="2.8172915649414062e+02" cType="1" res="-2.2276963572949171e-03" rms="1.8738724291324615e-01" purity="3.8033020496368408e-01" nType="0">
            <Node pos="l" depth="3" NCoef="0" IVar="-1" Cut="0.0000000000000000e+00" cType="1" res="-1.2485275045037270e-02" rms="1.8657198548316956e-01" purity="1.3667929172515869e-01" nType="-99"/>
            <Node pos="r" depth="3" NCoef="0" IVar="-1" Cut="0.0000000000000000e+00" cType="1" res="8.6127491667866707e-03" rms="1.8896469473838806e-01" purity="8.8789147138595581e-01" nType="-99"/>
          </Node>
          <Node pos="r" depth="2" NCoef="0" IVar="4" Cut="4.3154251098632812e+02" cType="1" res="3.2396852038800716e-03" rms="1.6275903582572937e-01" purity="9.2858761548995972e-01" nType="0">
            <Node pos="l" depth="3" NCoef="0" IVar="-1" Cut="0.0000000000000000e+00" cType="1" res="2.9989661648869514e-02" rms="2.6712179183959961e-01" purity="7.6034456491470337e-01" nType="-99"/>
            <Node pos="r" depth="3" NCoef="0" IVar="-1" Cut="0.0000000000000000e+00" cType="1" res="-3.9135343395173550e-03" rms="1.2940084934234619e-01" purity="9.6481281518936157e-01" nType="-99"/>
          </Node>
        </Node>
        <Node pos="r" depth="1" NCoef="0" IVar="-1" Cut="0.0000000000000000e+00" cType="1" res="-3.2776530832052231e-02" rms="2.4167013168334961e-01" purity="3.4124135971069336e-01" nType="-99"/>
      </Node>
    </BinaryTree>
    <BinaryTree type="DecisionTree" boostWeight="1.0000000000000000e+00" itree="351">
      <Node pos="s" depth="0" NCoef="0" IVar="8" Cut="1.7330965995788574e+00" cType="1" res="1.0841127950698137e-03" rms="1.8653911352157593e-01" purity="5.0579434633255005e-01" nType="0">
        <Node pos="l" depth="1" NCoef="0" IVar="7" Cut="-1.1203227043151855e+00" cType="1" res="1.8813549540936947e-03" rms="1.8615704774856567e-01" purity="5.2153187990188599e-01" nType="0">
          <Node pos="l" depth="2" NCoef="0" IVar="4" Cut="3.6032736206054688e+02" cType="1" res="-7.9185543581843376e-03" rms="1.7753429710865021e-01" purity="1.9053003191947937e-01" nType="0">
            <Node pos="l" depth="3" NCoef="0" IVar="-1" Cut="0.0000000000000000e+00" cType="1" res="1.6287285834550858e-03" rms="1.5692225098609924e-01" purity="5.4588731378316879e-02" nType="-99"/>
            <Node pos="r" depth="3" NCoef="0" IVar="-1" Cut="0.0000000000000000e+00" cType="1" res="-4.6046651899814606e-02" rms="2.0974290370941162e-01" purity="4.4383147358894348e-01" nType="-99"/>
          </Node>
          <Node pos="r" depth="2" NCoef="0" IVar="8" Cut="1.3013844490051270e+00" cType="1" res="2.8170314617455006e-03" rms="1.8693266808986664e-01" purity="5.5313533544540405e-01" nType="0">
            <Node pos="l" depth="3" NCoef="0" IVar="-1" Cut="0.0000000000000000e+00" cType="1" res="9.5003722235560417e-03" rms="1.8485023081302643e-01" purity="5.6354874372482300e-01" nType="-99"/>
            <Node pos="r" depth="3" NCoef="0" IVar="-1" Cut="0.0000000000000000e+00" cType="1" res="-1.4227132312953472e-02" rms="2.2121749818325043e-01" purity="3.6361208558082581e-01" nType="-99"/>
          </Node>
        </Node>
        <Node pos="r" depth="1" NCoef="0" IVar="-1" Cut="0.0000000000000000e+00" cType="1" res="-4.0912538766860962e-02" rms="1.9397006928920746e-01" purity="1.5728580951690674e-01" nType="-99"/>
      </Node>
    </BinaryTree>
    <BinaryTree type="DecisionTree" boostWeight="1.0000000000000000e+00" itree="352">
      <Node pos="s" depth="0" NCoef="0" IVar="10" Cut="3.9999443292617798e-01" cType="1" res="2.5133783929049969e-03" rms="1.9053506851196289e-01" purity="5.0115031003952026e-01" nType="0">
        <Node pos="l" depth="1" NCoef="0" IVar="5" Cut="2.5665164184570312e+02" cType="1" res="-8.4321753820404410e-04" rms="1.8411916494369507e-01" purity="5.0120085477828979e-01" nType="0">
          <Node pos="l" depth="2" NCoef="0" IVar="6" Cut="1.5774172973632812e+02" cType="1" res="1.8780961399897933e-03" rms="1.9566832482814789e-01" purity="1.7291972041130066e-01" nType="0">
            <Node pos="l" depth="3" NCoef="0" IVar="-1" Cut="0.0000000000000000e+00" cType="1" res="-2.0915112691000104e-04" rms="1.8334190547466278e-01" purity="1.2766331434249878e-01" nType="-99"/>
            <Node pos="r" depth="3" NCoef="0" IVar="-1" Cut="0.0000000000000000e+00" cType="1" res="2.3824313655495644e-02" rms="2.6532530784606934e-01" purity="4.8600485920906067e-01" nType="-99"/>
          </Node>
          <Node pos="r" depth="2" NCoef="0" IVar="1" Cut="2.2940852050781250e+03" cType="1" res="-4.0606898255646229e-03" rms="1.6939546167850494e-01" purity="8.8933527469635010e-01" nType="0">
            <Node pos="l" depth="3" NCoef="0" IVar="-1" Cut="0.0000000000000000e+00" cType="1" res="-1.9055034965276718e-02" rms="3.1944015622138977e-01" purity="2.4258658289909363e-01" nType="-99"/>
            <Node pos="r" depth="3" NCoef="0" IVar="-1" Cut="0.0000000000000000e+00" cType="1" res="-9.6610132604837418e-03" rms="1.3701383769512177e-01" purity="9.7640991210937500e-01" nType="-99"/>
          </Node>
        </Node>
        <Node pos="r" depth="1" NCoef="0" IVar="9" Cut="-9.3269205093383789e-01" cType="1" res="7.8929914161562920e-03" rms="2.0027254521846771e-01" purity="5.0106918811798096e-01" nType="0">
          <Node pos="l" depth="2" NCoef="0" IVar="3" Cut="6.4204071044921875e+02" cType="1" res="2.1280042827129364e-02" rms="2.2850354015827179e-01" purity="4.6064573526382446e-01" nType="0">
            <Node pos="l" depth="3" NCoef="0" IVar="-1" Cut="0.0000000000000000e+00" cType="1" res="6.3044406473636627e-02" rms="2.4952775239944458e-01" purity="2.1476759016513824e-01" nType="-99"/>
            <Node pos="r" depth="3" NCoef="0" IVar="-1" Cut="0.0000000000000000e+00" cType="1" res="2.6618694886565208e-02" rms="2.0317848026752472e-01" purity="7.2337794303894043e-01" nType="-99"/>
          </Node>
          <Node pos="r" depth="2" NCoef="0" IVar="8" Cut="-1.1994909048080444e+00" cType="1" res="4.8509943298995495e-03" rms="1.9315408170223236e-01" purity="5.1025485992431641e-01" nType="0">
            <Node pos="l" depth="3" NCoef="0" IVar="-1" Cut="0.0000000000000000e+00" cType="1" res="-3.0658872798085213e-02" rms="2.1688592433929443e-01" purity="3.0703115463256836e-01" nType="-99"/>
            <Node pos="r" depth="3" NCoef="0" IVar="-1" Cut="0.0000000000000000e+00" cType="1" res="1.9540250301361084e-02" rms="1.9034360349178314e-01" purity="5.3185933828353882e-01" nType="-99"/>
          </Node>
        </Node>
      </Node>
    </BinaryTree>
    <BinaryTree type="DecisionTree" boostWeight="1.0000000000000000e+00" itree="353">
      <Node pos="s" depth="0" NCoef="0" IVar="10" Cut="1.9998499155044556e+00" cType="1" res="2.3852250888012350e-04" rms="1.8789695203304291e-01" purity="4.9818420410156250e-01" nType="0">
        <Node pos="l" depth="1" NCoef="0" IVar="9" Cut="-3.9957997202873230e-01" cType="1" res="1.0544484248384833e-03" rms="1.8585810065269470e-01" purity="5.0611615180969238e-01" nType="0">
          <Node pos="l" depth="2" NCoef="0" IVar="1" Cut="2.8021562500000000e+03" cType="1" res="5.4480563849210739e-03" rms="1.9479767978191376e-01" purity="4.8515608906745911e-01" nType="0">
            <Node pos="l" depth="3" NCoef="0" IVar="-1" Cut="0.0000000000000000e+00" cType="1" res="1.7703058198094368e-02" rms="2.2489981353282928e-01" purity="2.1878451108932495e-01" nType="-99"/>
            <Node pos="r" depth="3" NCoef="0" IVar="-1" Cut="0.0000000000000000e+00" cType="1" res="-1.0946777649223804e-02" rms="1.1939618736505508e-01" purity="9.8315894603729248e-01" nType="-99"/>
          </Node>
          <Node pos="r" depth="2" NCoef="0" IVar="0" Cut="5.5411322021484375e+02" cType="1" res="-1.5655505703762174e-03" rms="1.8026547133922577e-01" purity="5.1861506700515747e-01" nType="0">
            <Node pos="l" depth="3" NCoef="0" IVar="-1" Cut="0.0000000000000000e+00" cType="1" res="-1.6873089596629143e-02" rms="1.7580915987491608e-01" purity="6.8853378295898438e-02" nType="-99"/>
            <Node pos="r" depth="3" NCoef="0" IVar="-1" Cut="0.0000000000000000e+00" cType="1" res="1.5326294815167785e-03" rms="1.8244503438472748e-01" purity="7.4641162157058716e-01" nType="-99"/>
          </Node>
        </Node>
        <Node pos="r" depth="1" NCoef="0" IVar="-1" Cut="0.0000000000000000e+00" cType="1" res="-3.1046681106090546e-02" rms="2.2429834306240082e-01" purity="3.3907681703567505e-01" nType="-99"/>
      </Node>
    </BinaryTree>
    <BinaryTree type="DecisionTree" boostWeight="1.0000000000000000e+00" itree="354">
      <Node pos="s" depth="0" NCoef="0" IVar="0" Cut="5.9424951171875000e+02" cType="1" res="-9.0410647680982947e-04" rms="1.8577054142951965e-01" purity="4.9621364474296570e-01" nType="0">
        <Node pos="l" depth="1" NCoef="0" IVar="1" Cut="1.8457258300781250e+03" cType="1" res="-4.8079667612910271e-03" rms="1.8343819677829742e-01" purity="9.0925931930541992e-02" nType="0">
          <Node pos="l" depth="2" NCoef="0" IVar="4" Cut="2.8163137817382812e+02" cType="1" res="-1.2555682042147964e-04" rms="1.2922616302967072e-01" purity="1.9472857937216759e-02" nType="0">
            <Node pos="l" depth="3" NCoef="0" IVar="-1" Cut="0.0000000000000000e+00" cType="1" res="-4.4692106544971466e-02" rms="8.3298958837985992e-02" purity="7.1500483900308609e-03" nType="-99"/>
            <Node pos="r" depth="3" NCoef="0" IVar="-1" Cut="0.0000000000000000e+00" cType="1" res="2.0753281190991402e-02" rms="1.6240976750850677e-01" purity="3.1751893460750580e-02" nType="-99"/>
          </Node>
          <Node pos="r" depth="2" NCoef="0" IVar="10" Cut="1.3280490040779114e-01" cType="1" res="-2.4151124060153961e-02" rms="3.2125756144523621e-01" purity="3.8610047101974487e-01" nType="0">
            <Node pos="l" depth="3" NCoef="0" IVar="-1" Cut="0.0000000000000000e+00" cType="1" res="-7.4837389402091503e-03" rms="3.3294948935508728e-01" purity="3.7709793448448181e-01" nType="-99"/>
            <Node pos="r" depth="3" NCoef="0" IVar="-1" Cut="0.0000000000000000e+00" cType="1" res="-3.6565605551004410e-02" rms="3.0617964267730713e-01" purity="3.9654898643493652e-01" nType="-99"/>
          </Node>
        </Node>
        <Node pos="r" depth="1" NCoef="0" IVar="3" Cut="6.3732116699218750e+02" cType="1" res="1.6965692630037665e-03" rms="1.8726302683353424e-01" purity="7.6620846986770630e-01" nType="0">
          <Node pos="l" depth="2" NCoef="0" IVar="8" Cut="9.2990714311599731e-01" cType="1" res="9.8473783582448959e-03" rms="2.4229244887828827e-01" purity="4.2570555210113525e-01" nType="0">
            <Node pos="l" depth="3" NCoef="0" IVar="-1" Cut="0.0000000000000000e+00" cType="1" res="6.1853872612118721e-03" rms="2.3171240091323853e-01" purity="4.4062724709510803e-01" nType="-99"/>
            <Node pos="r" depth="3" NCoef="0" IVar="-1" Cut="0.0000000000000000e+00" cType="1" res="5.9628885239362717e-02" rms="2.7676975727081299e-01" purity="3.7020644545555115e-01" nType="-99"/>
          </Node>
          <Node pos="r" depth="2" NCoef="0" IVar="8" Cut="1.1986626386642456e+00" cType="1" res="-1.1434191837906837e-03" rms="1.6370694339275360e-01" purity="8.8484996557235718e-01" nType="0">
            <Node pos="l" depth="3" NCoef="0" IVar="-1" Cut="0.0000000000000000e+00" cType="1" res="-2.7871775091625750e-04" rms="1.5809039771556854e-01" purity="8.9568668603897095e-01" nType="-99"/>
            <Node pos="r" depth="3" NCoef="0" IVar="-1" Cut="0.0000000000000000e+00" cType="1" res="-3.2400954514741898e-02" rms="2.3130738735198975e-01" purity="7.2310972213745117e-01" nType="-99"/>
          </Node>
        </Node>
      </Node>
    </BinaryTree>
    <BinaryTree type="DecisionTree" boostWeight="1.0000000000000000e+00" itree="355">
      <Node pos="s" depth="0" NCoef="0" IVar="1" Cut="1.6979556884765625e+03" cType="1" res="-8.9146487880498171e-04" rms="1.8620365858078003e-01" purity="5.0180953741073608e-01" nType="0">
        <Node pos="l" depth="1" NCoef="0" IVar="6" Cut="1.4890841674804688e+02" cType="1" res="2.3626834154129028e-03" rms="1.1146342754364014e-01" purity="1.4411724172532558e-02" nType="0">
          <Node pos="l" depth="2" NCoef="0" IVar="1" Cut="1.6270145263671875e+03" cType="1" res="7.3493743548169732e-04" rms="9.9246874451637268e-02" purity="1.1064718477427959e-02" nType="0">
            <Node pos="l" depth="3" NCoef="0" IVar="-1" Cut="0.0000000000000000e+00" cType="1" res="-1.2343173846602440e-02" rms="8.0212943255901337e-02" purity="6.6213151440024376e-03" nType="-99"/>
            <Node pos="r" depth="3" NCoef="0" IVar="-1" Cut="0.0000000000000000e+00" cType="1" res="4.3490920215845108e-02" rms="1.7372252047061920e-01" purity="3.7654679268598557e-02" nType="-99"/>
          </Node>
          <Node pos="r" depth="2" NCoef="0" IVar="-1" Cut="0.0000000000000000e+00" cType="1" res="6.9383941590785980e-02" rms="1.8950177729129791e-01" purity="4.5274816453456879e-02" nType="-99"/>
        </Node>
        <Node pos="r" depth="1" NCoef="0" IVar="3" Cut="6.0003680419921875e+02" cType="1" res="-2.5243109557777643e-03" rms="2.1407273411750793e-01" purity="7.4637287855148315e-01" nType="0">
          <Node pos="l" depth="2" NCoef="0" IVar="5" Cut="2.5190405273437500e+02" cType="1" res="-1.0754882358014584e-02" rms="2.9900142550468445e-01" purity="4.7269281744956970e-01" nType="0">
            <Node pos="l" depth="3" NCoef="0" IVar="-1" Cut="0.0000000000000000e+00" cType="1" res="-2.4632396176457405e-02" rms="2.9846322536468506e-01" purity="2.0918737351894379e-01" nType="-99"/>
            <Node pos="r" depth="3" NCoef="0" IVar="-1" Cut="0.0000000000000000e+00" cType="1" res="7.9588434891775250e-04" rms="2.9900056123733521e-01" purity="7.0342719554901123e-01" nType="-99"/>
          </Node>
          <Node pos="r" depth="2" NCoef="0" IVar="7" Cut="7.5178527832031250e-01" cType="1" res="-5.8956246357411146e-04" rms="1.8858532607555389e-01" purity="8.1070643663406372e-01" nType="0">
            <Node pos="l" depth="3" NCoef="0" IVar="-1" Cut="0.0000000000000000e+00" cType="1" res="-5.6269229389727116e-03" rms="1.7980016767978668e-01" purity="8.3066564798355103e-01" nType="-99"/>
            <Node pos="r" depth="3" NCoef="0" IVar="-1" Cut="0.0000000000000000e+00" cType="1" res="1.6836294904351234e-02" rms="2.4063251912593842e-01" purity="6.7233180999755859e-01" nType="-99"/>
          </Node>
        </Node>
      </Node>
    </BinaryTree>
    <BinaryTree type="DecisionTree" boostWeight="1.0000000000000000e+00" itree="356">
      <Node pos="s" depth="0" NCoef="0" IVar="10" Cut="1.4666264057159424e+00" cType="1" res="2.2994060418568552e-04" rms="1.8742042779922485e-01" purity="4.9494257569313049e-01" nType="0">
        <Node pos="l" depth="1" NCoef="0" IVar="5" Cut="1.0692066192626953e+02" cType="1" res="-7.5161777203902602e-04" rms="1.8220330774784088e-01" purity="5.0283056497573853e-01" nType="0">
          <Node pos="l" depth="2" NCoef="0" IVar="0" Cut="7.0401641845703125e+02" cType="1" res="6.3866553828120232e-03" rms="1.3647006452083588e-01" purity="4.3498545885086060e-02" nType="0">
            <Node pos="l" depth="3" NCoef="0" IVar="-1" Cut="0.0000000000000000e+00" cType="1" res="-2.7401708066463470e-02" rms="6.6237710416316986e-02" purity="4.7892415896058083e-03" nType="-99"/>
            <Node pos="r" depth="3" NCoef="0" IVar="-1" Cut="0.0000000000000000e+00" cType="1" res="5.8633539825677872e-02" rms="2.4664722383022308e-01" purity="1.6037257015705109e-01" nType="-99"/>
          </Node>
          <Node pos="r" depth="2" NCoef="0" IVar="8" Cut="-1.7330332994461060e+00" cType="1" res="-1.7779739573597908e-03" rms="1.8784339725971222e-01" purity="5.6887435913085938e-01" nType="0">
            <Node pos="l" depth="3" NCoef="0" IVar="-1" Cut="0.0000000000000000e+00" cType="1" res="2.4657243862748146e-02" rms="2.3709218204021454e-01" purity="2.1031598746776581e-01" nType="-99"/>
            <Node pos="r" depth="3" NCoef="0" IVar="-1" Cut="0.0000000000000000e+00" cType="1" res="-6.1824782751500607e-03" rms="1.8572746217250824e-01" purity="5.8230078220367432e-01" nType="-99"/>
          </Node>
        </Node>
        <Node pos="r" depth="1" NCoef="0" IVar="7" Cut="1.8345411121845245e-01" cType="1" res="7.5987880118191242e-03" rms="2.2257971763610840e-01" purity="4.3572482466697693e-01" nType="0">
          <Node pos="l" depth="2" NCoef="0" IVar="0" Cut="7.4121630859375000e+02" cType="1" res="1.7354937270283699e-02" rms="2.3017637431621552e-01" purity="4.8024359345436096e-01" nType="0">
            <Node pos="l" depth="3" NCoef="0" IVar="-1" Cut="0.0000000000000000e+00" cType="1" res="5.4729465395212173e-02" rms="2.4860924482345581e-01" purity="2.1583235263824463e-01" nType="-99"/>
            <Node pos="r" depth="3" NCoef="0" IVar="-1" Cut="0.0000000000000000e+00" cType="1" res="2.8247404843568802e-03" rms="1.9851031899452209e-01" purity="8.7357336282730103e-01" nType="-99"/>
          </Node>
          <Node pos="r" depth="2" NCoef="0" IVar="-1" Cut="0.0000000000000000e+00" cType="1" res="-1.2656463310122490e-02" rms="2.1094913780689240e-01" purity="3.7448644638061523e-01" nType="-99"/>
        </Node>
      </Node>
    </BinaryTree>
    <BinaryTree type="DecisionTree" boostWeight="1.0000000000000000e+00" itree="357">
      <Node pos="s" depth="0" NCoef="0" IVar="2" Cut="6.1433725059032440e-02" cType="1" res="-1.5951171517372131e-03" rms="1.8641509115695953e-01" purity="4.9345287680625916e-01" nType="0">
        <Node pos="l" depth="1" NCoef="0" IVar="6" Cut="1.9345739746093750e+02" cType="1" res="4.5772254816256464e-04" rms="1.9566805660724640e-01" purity="3.6657157540321350e-01" nType="0">
          <Node pos="l" depth="2" NCoef="0" IVar="9" Cut="-9.3328350782394409e-01" cType="1" res="1.8520896555855870e-03" rms="2.0009939372539520e-01" purity="2.4591730535030365e-01" nType="0">
            <Node pos="l" depth="3" NCoef="0" IVar="-1" Cut="0.0000000000000000e+00" cType="1" res="-1.1585167609155178e-02" rms="1.9977320730686188e-01" purity="1.9816507399082184e-01" nType="-99"/>
            <Node pos="r" depth="3" NCoef="0" IVar="-1" Cut="0.0000000000000000e+00" cType="1" res="9.2279342934489250e-03" rms="2.0015357434749603e-01" purity="2.5988879799842834e-01" nType="-99"/>
          </Node>
          <Node pos="r" depth="2" NCoef="0" IVar="-1" Cut="0.0000000000000000e+00" cType="1" res="-1.8908999860286713e-02" rms="1.7454625666141510e-01" purity="9.0131223201751709e-01" nType="-99"/>
        </Node>
        <Node pos="r" depth="1" NCoef="0" IVar="1" Cut="2.5217414550781250e+03" cType="1" res="-5.7610617950558662e-03" rms="1.6598218679428101e-01" purity="7.5094026327133179e-01" nType="0">
          <Node pos="l" depth="2" NCoef="0" IVar="7" Cut="-3.3733034133911133e-01" cType="1" res="-1.7549084499478340e-02" rms="2.5937521457672119e-01" purity="2.4758557975292206e-01" nType="0">
            <Node pos="l" depth="3" NCoef="0" IVar="-1" Cut="0.0000000000000000e+00" cType="1" res="7.8643057495355606e-03" rms="2.7168589830398560e-01" purity="2.6315379142761230e-01" nType="-99"/>
            <Node pos="r" depth="3" NCoef="0" IVar="-1" Cut="0.0000000000000000e+00" cType="1" res="-4.1756320744752884e-02" rms="2.5190085172653198e-01" purity="2.3950481414794922e-01" nType="-99"/>
          </Node>
          <Node pos="r" depth="2" NCoef="0" IVar="6" Cut="2.1884312438964844e+02" cType="1" res="-1.4392858429346234e-04" rms="9.2318385839462280e-02" purity="9.9079471826553345e-01" nType="0">
            <Node pos="l" depth="3" NCoef="0" IVar="-1" Cut="0.0000000000000000e+00" cType="1" res="-7.1374410763382912e-03" rms="1.2735140323638916e-01" purity="9.8209035396575928e-01" nType="-99"/>
            <Node pos="r" depth="3" NCoef="0" IVar="-1" Cut="0.0000000000000000e+00" cType="1" res="9.3988385051488876e-03" rms="6.3311420381069183e-02" purity="9.9589979648590088e-01" nType="-99"/>
          </Node>
        </Node>
      </Node>
    </BinaryTree>
    <BinaryTree type="DecisionTree" boostWeight="1.0000000000000000e+00" itree="358">
      <Node pos="s" depth="0" NCoef="0" IVar="9" Cut="1.2000454664230347e+00" cType="1" res="1.3778079301118851e-03" rms="1.9084168970584869e-01" purity="5.0044471025466919e-01" nType="0">
        <Node pos="l" depth="1" NCoef="0" IVar="4" Cut="4.3174960327148438e+02" cType="1" res="2.7225008234381676e-03" rms="1.8872036039829254e-01" purity="5.2009212970733643e-01" nType="0">
          <Node pos="l" depth="2" NCoef="0" IVar="1" Cut="1.9007031250000000e+03" cType="1" res="6.0656578280031681e-03" rms="2.0854218304157257e-01" purity="2.0089468359947205e-01" nType="0">
            <Node pos="l" depth="3" NCoef="0" IVar="-1" Cut="0.0000000000000000e+00" cType="1" res="1.1209593154489994e-02" rms="1.4377757906913757e-01" purity="2.4284811690449715e-02" nType="-99"/>
            <Node pos="r" depth="3" NCoef="0" IVar="-1" Cut="0.0000000000000000e+00" cType="1" res="1.6413098201155663e-02" rms="3.1683030724525452e-01" purity="6.4227807521820068e-01" nType="-99"/>
          </Node>
          <Node pos="r" depth="2" NCoef="0" IVar="5" Cut="2.2052125549316406e+02" cType="1" res="-1.0917217005044222e-03" rms="1.6310752928256989e-01" purity="8.8426578044891357e-01" nType="0">
            <Node pos="l" depth="3" NCoef="0" IVar="-1" Cut="0.0000000000000000e+00" cType="1" res="-2.0297335460782051e-02" rms="2.4393697082996368e-01" purity="4.5201840996742249e-01" nType="-99"/>
            <Node pos="r" depth="3" NCoef="0" IVar="-1" Cut="0.0000000000000000e+00" cType="1" res="4.6761799603700638e-03" rms="1.4387413859367371e-01" purity="9.6145868301391602e-01" nType="-99"/>
          </Node>
        </Node>
        <Node pos="r" depth="1" NCoef="0" IVar="7" Cut="7.2268152236938477e-01" cType="1" res="-6.5827886573970318e-03" rms="2.0276370644569397e-01" purity="3.8413211703300476e-01" nType="0">
          <Node pos="l" depth="2" NCoef="0" IVar="7" Cut="-3.9760246872901917e-01" cType="1" res="-2.1824587602168322e-03" rms="2.0592263340950012e-01" purity="4.2755189538002014e-01" nType="0">
            <Node pos="l" depth="3" NCoef="0" IVar="-1" Cut="0.0000000000000000e+00" cType="1" res="-2.8899328783154488e-02" rms="2.0530660450458527e-01" purity="3.1347316503524780e-01" nType="-99"/>
            <Node pos="r" depth="3" NCoef="0" IVar="-1" Cut="0.0000000000000000e+00" cType="1" res="1.0007161647081375e-02" rms="2.0604249835014343e-01" purity="5.0107818841934204e-01" nType="-99"/>
          </Node>
          <Node pos="r" depth="2" NCoef="0" IVar="-1" Cut="0.0000000000000000e+00" cType="1" res="-4.8297062516212463e-02" rms="1.9010353088378906e-01" purity="2.2765736281871796e-01" nType="-99"/>
        </Node>
      </Node>
    </BinaryTree>
    <BinaryTree type="DecisionTree" boostWeight="1.0000000000000000e+00" itree="359">
      <Node pos="s" depth="0" NCoef="0" IVar="8" Cut="1.3319201767444611e-01" cType="1" res="1.6910679405555129e-03" rms="1.8921791017055511e-01" purity="5.0510221719741821e-01" nType="0">
        <Node pos="l" depth="1" NCoef="0" IVar="1" Cut="2.1743913574218750e+03" cType="1" res="-1.0961609659716487e-03" rms="1.8301697075366974e-01" purity="5.1435935497283936e-01" nType="0">
          <Node pos="l" depth="2" NCoef="0" IVar="6" Cut="1.5185986328125000e+02" cType="1" res="-5.1689757965505123e-03" rms="1.7890387773513794e-01" purity="4.9555584788322449e-02" nType="0">
            <Node pos="l" depth="3" NCoef="0" IVar="-1" Cut="0.0000000000000000e+00" cType="1" res="2.5196731439791620e-04" rms="1.6014970839023590e-01" purity="3.7267584353685379e-02" nType="-99"/>
            <Node pos="r" depth="3" NCoef="0" IVar="-1" Cut="0.0000000000000000e+00" cType="1" res="-4.4156972318887711e-02" rms="2.7007025480270386e-01" purity="1.3135498762130737e-01" nType="-99"/>
          </Node>
          <Node pos="r" depth="2" NCoef="0" IVar="2" Cut="2.1366165950894356e-02" cType="1" res="2.5730109773576260e-03" rms="1.8656873703002930e-01" purity="9.3309807777404785e-01" nType="0">
            <Node pos="l" depth="3" NCoef="0" IVar="-1" Cut="0.0000000000000000e+00" cType="1" res="2.3545939475297928e-02" rms="2.7443939447402954e-01" purity="8.1826460361480713e-01" nType="-99"/>
            <Node pos="r" depth="3" NCoef="0" IVar="-1" Cut="0.0000000000000000e+00" cType="1" res="-4.8621790483593941e-03" rms="1.5648701786994934e-01" purity="9.6215069293975830e-01" nType="-99"/>
          </Node>
        </Node>
        <Node pos="r" depth="1" NCoef="0" IVar="10" Cut="-6.6664958000183105e-01" cType="1" res="5.0524068064987659e-03" rms="1.9638328254222870e-01" purity="4.9393820762634277e-01" nType="0">
          <Node pos="l" depth="2" NCoef="0" IVar="0" Cut="5.4024920654296875e+02" cType="1" res="1.3877245597541332e-02" rms="2.2102744877338409e-01" purity="5.0530993938446045e-01" nType="0">
            <Node pos="l" depth="3" NCoef="0" IVar="-1" Cut="0.0000000000000000e+00" cType="1" res="6.5872207283973694e-02" rms="2.4697588384151459e-01" purity="1.1779575049877167e-01" nType="-99"/>
            <Node pos="r" depth="3" NCoef="0" IVar="-1" Cut="0.0000000000000000e+00" cType="1" res="1.3175292871892452e-02" rms="2.0503208041191101e-01" purity="7.1682041883468628e-01" nType="-99"/>
          </Node>
          <Node pos="r" depth="2" NCoef="0" IVar="10" Cut="1.9745543003082275e+00" cType="1" res="1.6284069279208779e-03" rms="1.8583121895790100e-01" purity="4.8952606320381165e-01" nType="0">
            <Node pos="l" depth="3" NCoef="0" IVar="-1" Cut="0.0000000000000000e+00" cType="1" res="-3.5854685120284557e-04" rms="1.7900778353214264e-01" purity="5.0086981058120728e-01" nType="-99"/>
            <Node pos="r" depth="3" NCoef="0" IVar="-1" Cut="0.0000000000000000e+00" cType="1" res="3.9642367511987686e-02" rms="2.5076520442962646e-01" purity="3.5830682516098022e-01" nType="-99"/>
          </Node>
        </Node>
      </Node>
    </BinaryTree>
    <BinaryTree type="DecisionTree" boostWeight="1.0000000000000000e+00" itree="360">
      <Node pos="s" depth="0" NCoef="0" IVar="9" Cut="-9.3328350782394409e-01" cType="1" res="7.2572822682559490e-04" rms="1.8810477852821350e-01" purity="4.9408063292503357e-01" nType="0">
        <Node pos="l" depth="1" NCoef="0" IVar="8" Cut="9.3338578939437866e-01" cType="1" res="-5.4936339147388935e-03" rms="1.9696299731731415e-01" purity="4.0339159965515137e-01" nType="0">
          <Node pos="l" depth="2" NCoef="0" IVar="0" Cut="6.4673217773437500e+02" cType="1" res="-7.7414902625605464e-04" rms="1.9448697566986084e-01" purity="4.2680275440216064e-01" nType="0">
            <Node pos="l" depth="3" NCoef="0" IVar="-1" Cut="0.0000000000000000e+00" cType="1" res="-2.1312415599822998e-02" rms="1.7407160997390747e-01" purity="1.1158277839422226e-01" nType="-99"/>
            <Node pos="r" depth="3" NCoef="0" IVar="-1" Cut="0.0000000000000000e+00" cType="1" res="1.7095545306801796e-02" rms="2.1365648508071899e-01" purity="7.5916010141372681e-01" nType="-99"/>
          </Node>
          <Node pos="r" depth="2" NCoef="0" IVar="-1" Cut="0.0000000000000000e+00" cType="1" res="-5.9070482850074768e-02" rms="2.0724241435527802e-01" purity="2.8707775473594666e-01" nType="-99"/>
        </Node>
        <Node pos="r" depth="1" NCoef="0" IVar="7" Cut="6.7039906978607178e-01" cType="1" res="2.3035930935293436e-03" rms="1.8575716018676758e-01" purity="5.1708859205245972e-01" nType="0">
          <Node pos="l" depth="2" NCoef="0" IVar="7" Cut="3.4152472019195557e-01" cType="1" res="9.6668145852163434e-04" rms="1.7915467917919159e-01" purity="5.5416661500930786e-01" nType="0">
            <Node pos="l" depth="3" NCoef="0" IVar="-1" Cut="0.0000000000000000e+00" cType="1" res="7.4881925247609615e-03" rms="1.8135781586170197e-01" purity="5.4907566308975220e-01" nType="-99"/>
            <Node pos="r" depth="3" NCoef="0" IVar="-1" Cut="0.0000000000000000e+00" cType="1" res="-2.1768243983387947e-02" rms="1.6720458865165710e-01" purity="5.8021891117095947e-01" nType="-99"/>
          </Node>
          <Node pos="r" depth="2" NCoef="0" IVar="7" Cut="1.5811079740524292e+00" cType="1" res="7.3114973492920399e-03" rms="2.0856408774852753e-01" purity="3.7819898128509521e-01" nType="0">
            <Node pos="l" depth="3" NCoef="0" IVar="-1" Cut="0.0000000000000000e+00" cType="1" res="2.4445911869406700e-02" rms="2.1458582580089569e-01" purity="4.3224728107452393e-01" nType="-99"/>
            <Node pos="r" depth="3" NCoef="0" IVar="-1" Cut="0.0000000000000000e+00" cType="1" res="-2.8518132865428925e-02" rms="1.7174501717090607e-01" purity="8.8150478899478912e-02" nType="-99"/>
          </Node>
        </Node>
      </Node>
    </BinaryTree>
    <BinaryTree type="DecisionTree" boostWeight="1.0000000000000000e+00" itree="361">
      <Node pos="s" depth="0" NCoef="0" IVar="10" Cut="-1.4666554927825928e+00" cType="1" res="-3.8738199509680271e-04" rms="1.8566195666790009e-01" purity="5.0064778327941895e-01" nType="0">
        <Node pos="l" depth="1" NCoef="0" IVar="3" Cut="6.4893988037109375e+02" cType="1" res="6.9051743485033512e-03" rms="2.1720325946807861e-01" purity="4.4219806790351868e-01" nType="0">
          <Node pos="l" depth="2" NCoef="0" IVar="1" Cut="1.6219278564453125e+03" cType="1" res="1.2561514973640442e-02" rms="2.3168064653873444e-01" purity="2.1610784530639648e-01" nType="0">
            <Node pos="l" depth="3" NCoef="0" IVar="-1" Cut="0.0000000000000000e+00" cType="1" res="1.4901562826707959e-03" rms="1.1061795055866241e-01" purity="1.3904718682169914e-02" nType="-99"/>
            <Node pos="r" depth="3" NCoef="0" IVar="-1" Cut="0.0000000000000000e+00" cType="1" res="2.7702940627932549e-02" rms="3.1762984395027161e-01" purity="4.4832304120063782e-01" nType="-99"/>
          </Node>
          <Node pos="r" depth="2" NCoef="0" IVar="10" Cut="-1.9111148118972778e+00" cType="1" res="4.0516446460969746e-04" rms="1.9907352328300476e-01" purity="7.0201069116592407e-01" nType="0">
            <Node pos="l" depth="3" NCoef="0" IVar="-1" Cut="0.0000000000000000e+00" cType="1" res="1.7580006271600723e-02" rms="2.2536626458168030e-01" purity="6.5997076034545898e-01" nType="-99"/>
            <Node pos="r" depth="3" NCoef="0" IVar="-1" Cut="0.0000000000000000e+00" cType="1" res="-2.3546038195490837e-02" rms="1.7328509688377380e-01" purity="7.3764002323150635e-01" nType="-99"/>
          </Node>
        </Node>
        <Node pos="r" depth="1" NCoef="0" IVar="7" Cut="7.0711475610733032e-01" cType="1" res="-1.3854579301550984e-03" rms="1.8089498579502106e-01" purity="5.0864732265472412e-01" nType="0">
          <Node pos="l" depth="2" NCoef="0" IVar="9" Cut="6.6685545444488525e-01" cType="1" res="-1.1346902465447783e-04" rms="1.7658877372741699e-01" purity="5.5157411098480225e-01" nType="0">
            <Node pos="l" depth="3" NCoef="0" IVar="-1" Cut="0.0000000000000000e+00" cType="1" res="-7.7065611258149147e-03" rms="1.6682045161724091e-01" purity="5.6539368629455566e-01" nType="-99"/>
            <Node pos="r" depth="3" NCoef="0" IVar="-1" Cut="0.0000000000000000e+00" cType="1" res="1.4150926843285561e-02" rms="2.0009434223175049e-01" purity="5.1490390300750732e-01" nType="-99"/>
          </Node>
          <Node pos="r" depth="2" NCoef="0" IVar="3" Cut="5.5342987060546875e+02" cType="1" res="-6.7514022812247276e-03" rms="1.9794294238090515e-01" purity="3.2755890488624573e-01" nType="0">
            <Node pos="l" depth="3" NCoef="0" IVar="-1" Cut="0.0000000000000000e+00" cType="1" res="2.1110766101628542e-03" rms="2.0437771081924438e-01" purity="1.1844031512737274e-01" nType="-99"/>
            <Node pos="r" depth="3" NCoef="0" IVar="-1" Cut="0.0000000000000000e+00" cType="1" res="-3.3285941928625107e-02" rms="1.9257356226444244e-01" purity="4.9040636420249939e-01" nType="-99"/>
          </Node>
        </Node>
      </Node>
    </BinaryTree>
    <BinaryTree type="DecisionTree" boostWeight="1.0000000000000000e+00" itree="362">
      <Node pos="s" depth="0" NCoef="0" IVar="6" Cut="1.3980041503906250e+02" cType="1" res="1.5611615963280201e-03" rms="1.9020706415176392e-01" purity="5.0010335445404053e-01" nType="0">
        <Node pos="l" depth="1" NCoef="0" IVar="6" Cut="1.1841883850097656e+02" cType="1" res="4.1690296493470669e-03" rms="2.0137774944305420e-01" purity="2.3112744092941284e-01" nType="0">
          <Node pos="l" depth="2" NCoef="0" IVar="10" Cut="-1.7333960533142090e+00" cType="1" res="1.9174893386662006e-03" rms="1.9225257635116577e-01" purity="1.9738602638244629e-01" nType="0">
            <Node pos="l" depth="3" NCoef="0" IVar="-1" Cut="0.0000000000000000e+00" cType="1" res="3.1049909070134163e-02" rms="2.3891793191432953e-01" purity="2.3454999923706055e-01" nType="-99"/>
            <Node pos="r" depth="3" NCoef="0" IVar="-1" Cut="0.0000000000000000e+00" cType="1" res="9.7808672580868006e-04" rms="1.8621022999286652e-01" purity="1.9320701062679291e-01" nType="-99"/>
          </Node>
          <Node pos="r" depth="2" NCoef="0" IVar="6" Cut="1.2860020446777344e+02" cType="1" res="1.5611234121024609e-02" rms="2.4217841029167175e-01" purity="4.0259933471679688e-01" nType="0">
            <Node pos="l" depth="3" NCoef="0" IVar="-1" Cut="0.0000000000000000e+00" cType="1" res="6.0392338782548904e-02" rms="2.5797557830810547e-01" purity="3.8423740863800049e-01" nType="-99"/>
            <Node pos="r" depth="3" NCoef="0" IVar="-1" Cut="0.0000000000000000e+00" cType="1" res="-2.2018607705831528e-03" rms="2.2351448237895966e-01" purity="4.2151534557342529e-01" nType="-99"/>
          </Node>
        </Node>
        <Node pos="r" depth="1" NCoef="0" IVar="4" Cut="3.1439303588867188e+02" cType="1" res="-1.4402972301468253e-03" rms="1.7642968893051147e-01" purity="8.0967438220977783e-01" nType="0">
          <Node pos="l" depth="2" NCoef="0" IVar="0" Cut="4.1908654785156250e+02" cType="1" res="-1.1171050369739532e-02" rms="2.2898299992084503e-01" purity="1.9587272405624390e-01" nType="0">
            <Node pos="l" depth="3" NCoef="0" IVar="-1" Cut="0.0000000000000000e+00" cType="1" res="8.7140053510665894e-03" rms="1.5559364855289459e-01" purity="2.4411426857113838e-02" nType="-99"/>
            <Node pos="r" depth="3" NCoef="0" IVar="-1" Cut="0.0000000000000000e+00" cType="1" res="-2.3839125409722328e-02" rms="2.6854735612869263e-01" purity="3.1668069958686829e-01" nType="-99"/>
          </Node>
          <Node pos="r" depth="2" NCoef="0" IVar="3" Cut="5.7573199462890625e+02" cType="1" res="2.1723129611928016e-04" rms="1.6576896607875824e-01" purity="9.1422885656356812e-01" nType="0">
            <Node pos="l" depth="3" NCoef="0" IVar="-1" Cut="0.0000000000000000e+00" cType="1" res="1.2934614904224873e-02" rms="2.8058180212974548e-01" purity="6.1015522480010986e-01" nType="-99"/>
            <Node pos="r" depth="3" NCoef="0" IVar="-1" Cut="0.0000000000000000e+00" cType="1" res="-9.3493862077593803e-03" rms="1.3613073527812958e-01" purity="9.6717804670333862e-01" nType="-99"/>
          </Node>
        </Node>
      </Node>
    </BinaryTree>
    <BinaryTree type="DecisionTree" boostWeight="1.0000000000000000e+00" itree="363">
      <Node pos="s" depth="0" NCoef="0" IVar="7" Cut="-1.4545791149139404e+00" cType="1" res="-1.6067068791016936e-03" rms="1.8646435439586639e-01" purity="4.9337649345397949e-01" nType="0">
        <Node pos="l" depth="1" NCoef="0" IVar="-1" Cut="0.0000000000000000e+00" cType="1" res="4.0685024112462997e-02" rms="1.9502109289169312e-01" purity="1.2299013882875443e-01" nType="-99"/>
        <Node pos="r" depth="1" NCoef="0" IVar="10" Cut="1.9999493360519409e+00" cType="1" res="-2.3218370042741299e-03" rms="1.8600296974182129e-01" purity="5.1164108514785767e-01" nType="0">
          <Node pos="l" depth="2" NCoef="0" IVar="5" Cut="3.1403833007812500e+02" cType="1" res="-2.9522704426199198e-03" rms="1.8181553483009338e-01" purity="5.1816266775131226e-01" nType="0">
            <Node pos="l" depth="3" NCoef="0" IVar="-1" Cut="0.0000000000000000e+00" cType="1" res="-1.2054529041051865e-02" rms="2.0006509125232697e-01" purity="2.7131721377372742e-01" nType="-99"/>
            <Node pos="r" depth="3" NCoef="0" IVar="-1" Cut="0.0000000000000000e+00" cType="1" res="6.0714404098689556e-03" rms="1.4366149902343750e-01" purity="9.5705854892730713e-01" nType="-99"/>
          </Node>
          <Node pos="r" depth="2" NCoef="0" IVar="-1" Cut="0.0000000000000000e+00" cType="1" res="1.7161473631858826e-02" rms="2.5107148289680481e-01" purity="3.9061048626899719e-01" nType="-99"/>
        </Node>
      </Node>
    </BinaryTree>
    <BinaryTree type="DecisionTree" boostWeight="1.0000000000000000e+00" itree="364">
      <Node pos="s" depth="0" NCoef="0" IVar="10" Cut="-2.2666065692901611e+00" cType="1" res="-8.3510589320212603e-04" rms="1.8902336061000824e-01" purity="4.9475947022438049e-01" nType="0">
        <Node pos="l" depth="1" NCoef="0" IVar="-1" Cut="0.0000000000000000e+00" cType="1" res="-3.4752473235130310e-02" rms="2.3818410933017731e-01" purity="3.0966603755950928e-01" nType="-99"/>
        <Node pos="r" depth="1" NCoef="0" IVar="2" Cut="2.1365730091929436e-02" cType="1" res="-3.2730060047470033e-04" rms="1.8753102421760559e-01" purity="4.9962329864501953e-01" nType="0">
          <Node pos="l" depth="2" NCoef="0" IVar="10" Cut="-1.3014049530029297e+00" cType="1" res="3.4532411955296993e-03" rms="1.9502827525138855e-01" purity="2.5434264540672302e-01" nType="0">
            <Node pos="l" depth="3" NCoef="0" IVar="-1" Cut="0.0000000000000000e+00" cType="1" res="3.8728840649127960e-02" rms="2.2168998420238495e-01" purity="2.3737138509750366e-01" nType="-99"/>
            <Node pos="r" depth="3" NCoef="0" IVar="-1" Cut="0.0000000000000000e+00" cType="1" res="3.7542902864515781e-03" rms="1.9085642695426941e-01" purity="2.5674903392791748e-01" nType="-99"/>
          </Node>
          <Node pos="r" depth="2" NCoef="0" IVar="9" Cut="1.1994267702102661e+00" cType="1" res="-2.5124989915639162e-03" rms="1.8302193284034729e-01" purity="6.4139837026596069e-01" nType="0">
            <Node pos="l" depth="3" NCoef="0" IVar="-1" Cut="0.0000000000000000e+00" cType="1" res="-1.2122571468353271e-02" rms="1.7493174970149994e-01" purity="6.5643751621246338e-01" nType="-99"/>
            <Node pos="r" depth="3" NCoef="0" IVar="-1" Cut="0.0000000000000000e+00" cType="1" res="1.2977696955204010e-02" rms="2.2966201603412628e-01" purity="5.4098290205001831e-01" nType="-99"/>
          </Node>
        </Node>
      </Node>
    </BinaryTree>
    <BinaryTree type="DecisionTree" boostWeight="1.0000000000000000e+00" itree="365">
      <Node pos="s" depth="0" NCoef="0" IVar="10" Cut="-2.2666082382202148e+00" cType="1" res="4.8997125122696161e-04" rms="1.8548995256423950e-01" purity="5.0285565853118896e-01" nType="0">
        <Node pos="l" depth="1" NCoef="0" IVar="-1" Cut="0.0000000000000000e+00" cType="1" res="-4.2046725749969482e-02" rms="2.1831914782524109e-01" purity="2.7598017454147339e-01" nType="-99"/>
        <Node pos="r" depth="1" NCoef="0" IVar="7" Cut="4.3354409933090210e-01" cType="1" res="1.0913721052929759e-03" rms="1.8451166152954102e-01" purity="5.0880831480026245e-01" nType="0">
          <Node pos="l" depth="2" NCoef="0" IVar="8" Cut="-1.4655727148056030e+00" cType="1" res="2.9779376927763224e-03" rms="1.8314498662948608e-01" purity="5.4686212539672852e-01" nType="0">
            <Node pos="l" depth="3" NCoef="0" IVar="-1" Cut="0.0000000000000000e+00" cType="1" res="4.1253149509429932e-02" rms="2.3251780867576599e-01" purity="2.9127210378646851e-01" nType="-99"/>
            <Node pos="r" depth="3" NCoef="0" IVar="-1" Cut="0.0000000000000000e+00" cType="1" res="5.5719506926834583e-03" rms="1.7900258302688599e-01" purity="5.6531959772109985e-01" nType="-99"/>
          </Node>
          <Node pos="r" depth="2" NCoef="0" IVar="3" Cut="1.0400163574218750e+03" cType="1" res="-3.3515866380184889e-03" rms="1.8761599063873291e-01" purity="4.1918984055519104e-01" nType="0">
            <Node pos="l" depth="3" NCoef="0" IVar="-1" Cut="0.0000000000000000e+00" cType="1" res="-4.7277100384235382e-03" rms="1.8886147439479828e-01" purity="3.6832576990127563e-01" nType="-99"/>
            <Node pos="r" depth="3" NCoef="0" IVar="-1" Cut="0.0000000000000000e+00" cType="1" res="-6.2907017767429352e-02" rms="1.7451170086860657e-01" purity="9.0885186195373535e-01" nType="-99"/>
          </Node>
        </Node>
      </Node>
    </BinaryTree>
    <BinaryTree type="DecisionTree" boostWeight="1.0000000000000000e+00" itree="366">
      <Node pos="s" depth="0" NCoef="0" IVar="9" Cut="1.7332166433334351e+00" cType="1" res="-1.2714222975773737e-05" rms="1.8510258197784424e-01" purity="5.0173914432525635e-01" nType="0">
        <Node pos="l" depth="1" NCoef="0" IVar="7" Cut="4.0639474987983704e-01" cType="1" res="6.6511979093775153e-04" rms="1.8369995057582855e-01" purity="5.1581418514251709e-01" nType="0">
          <Node pos="l" depth="2" NCoef="0" IVar="8" Cut="-1.4664846658706665e+00" cType="1" res="-7.7842059545218945e-04" rms="1.7994311451911926e-01" purity="5.5144685506820679e-01" nType="0">
            <Node pos="l" depth="3" NCoef="0" IVar="-1" Cut="0.0000000000000000e+00" cType="1" res="-2.8157426044344902e-02" rms="2.0130987465381622e-01" purity="2.6644742488861084e-01" nType="-99"/>
            <Node pos="r" depth="3" NCoef="0" IVar="-1" Cut="0.0000000000000000e+00" cType="1" res="8.9788145487545989e-06" rms="1.7844848334789276e-01" purity="5.6983518600463867e-01" nType="-99"/>
          </Node>
          <Node pos="r" depth="2" NCoef="0" IVar="1" Cut="2.1785434570312500e+03" cType="1" res="3.8310333620756865e-03" rms="1.9164355099201202e-01" purity="4.3766605854034424e-01" nType="0">
            <Node pos="l" depth="3" NCoef="0" IVar="-1" Cut="0.0000000000000000e+00" cType="1" res="-1.6130073927342892e-03" rms="1.8211923539638519e-01" purity="4.8378869891166687e-02" nType="-99"/>
            <Node pos="r" depth="3" NCoef="0" IVar="-1" Cut="0.0000000000000000e+00" cType="1" res="2.0847056061029434e-02" rms="2.0274750888347626e-01" purity="9.2242896556854248e-01" nType="-99"/>
          </Node>
        </Node>
        <Node pos="r" depth="1" NCoef="0" IVar="6" Cut="8.7605232238769531e+01" cType="1" res="-1.0451921261847019e-02" rms="2.0521633327007294e-01" purity="2.8497207164764404e-01" nType="0">
          <Node pos="l" depth="2" NCoef="0" IVar="-1" Cut="0.0000000000000000e+00" cType="1" res="-4.6332135796546936e-02" rms="1.5323038399219513e-01" purity="1.2661121785640717e-01" nType="-99"/>
          <Node pos="r" depth="2" NCoef="0" IVar="-1" Cut="0.0000000000000000e+00" cType="1" res="-9.1351745650172234e-03" rms="2.3469579219818115e-01" purity="3.9569303393363953e-01" nType="-99"/>
        </Node>
      </Node>
    </BinaryTree>
    <BinaryTree type="DecisionTree" boostWeight="1.0000000000000000e+00" itree="367">
      <Node pos="s" depth="0" NCoef="0" IVar="2" Cut="4.1792735457420349e-02" cType="1" res="-6.0304923681542277e-04" rms="1.8632096052169800e-01" purity="4.9944180250167847e-01" nType="0">
        <Node pos="l" depth="1" NCoef="0" IVar="10" Cut="-1.7333223819732666e+00" cType="1" res="-3.5621004644781351e-03" rms="1.9216938316822052e-01" purity="3.2544621825218201e-01" nType="0">
          <Node pos="l" depth="2" NCoef="0" IVar="-1" Cut="0.0000000000000000e+00" cType="1" res="-2.5079095736145973e-02" rms="2.0920017361640930e-01" purity="2.1510294079780579e-01" nType="-99"/>
          <Node pos="r" depth="2" NCoef="0" IVar="10" Cut="1.7202007770538330e+00" cType="1" res="-2.7587288059294224e-03" rms="1.9063116610050201e-01" purity="3.3481821417808533e-01" nType="0">
            <Node pos="l" depth="3" NCoef="0" IVar="-1" Cut="0.0000000000000000e+00" cType="1" res="-4.9941199831664562e-03" rms="1.8814773857593536e-01" purity="3.4530687332153320e-01" nType="-99"/>
            <Node pos="r" depth="3" NCoef="0" IVar="-1" Cut="0.0000000000000000e+00" cType="1" res="-2.4495143443346024e-02" rms="2.1447642147541046e-01" purity="2.2587934136390686e-01" nType="-99"/>
          </Node>
        </Node>
        <Node pos="r" depth="1" NCoef="0" IVar="9" Cut="1.4667032957077026e+00" cType="1" res="3.0410392209887505e-03" rms="1.7878875136375427e-01" purity="7.1371835470199585e-01" nType="0">
          <Node pos="l" depth="2" NCoef="0" IVar="2" Cut="9.8511181771755219e-02" cType="1" res="1.6450855182483792e-03" rms="1.7246501147747040e-01" purity="7.2483742237091064e-01" nType="0">
            <Node pos="l" depth="3" NCoef="0" IVar="-1" Cut="0.0000000000000000e+00" cType="1" res="-2.3989074397832155e-03" rms="1.8127869069576263e-01" purity="6.6047960519790649e-01" nType="-99"/>
            <Node pos="r" depth="3" NCoef="0" IVar="-1" Cut="0.0000000000000000e+00" cType="1" res="2.0360790193080902e-02" rms="1.6009396314620972e-01" purity="8.0937433242797852e-01" nType="-99"/>
          </Node>
          <Node pos="r" depth="2" NCoef="0" IVar="-1" Cut="0.0000000000000000e+00" cType="1" res="3.5129904747009277e-02" rms="2.4372689425945282e-01" purity="5.7472616434097290e-01" nType="-99"/>
        </Node>
      </Node>
    </BinaryTree>
    <BinaryTree type="DecisionTree" boostWeight="1.0000000000000000e+00" itree="368">
      <Node pos="s" depth="0" NCoef="0" IVar="7" Cut="6.7040169239044189e-01" cType="1" res="2.3806694662198424e-04" rms="1.8921223282814026e-01" purity="4.9508383870124817e-01" nType="0">
        <Node pos="l" depth="1" NCoef="0" IVar="9" Cut="1.9997645616531372e+00" cType="1" res="-1.6006631776690483e-03" rms="1.8147473037242889e-01" purity="5.3325670957565308e-01" nType="0">
          <Node pos="l" depth="2" NCoef="0" IVar="1" Cut="1.6979556884765625e+03" cType="1" res="-9.4066793099045753e-04" rms="1.8023051321506500e-01" purity="5.4363161325454712e-01" nType="0">
            <Node pos="l" depth="3" NCoef="0" IVar="-1" Cut="0.0000000000000000e+00" cType="1" res="2.1943112835288048e-02" rms="1.1062362790107727e-01" purity="1.3840926811099052e-02" nType="-99"/>
            <Node pos="r" depth="3" NCoef="0" IVar="-1" Cut="0.0000000000000000e+00" cType="1" res="-5.5986531078815460e-03" rms="2.0320908725261688e-01" purity="7.7437430620193481e-01" nType="-99"/>
          </Node>
          <Node pos="r" depth="2" NCoef="0" IVar="-1" Cut="0.0000000000000000e+00" cType="1" res="-3.8788240402936935e-02" rms="2.1478149294853210e-01" purity="2.1951444447040558e-01" nType="-99"/>
        </Node>
        <Node pos="r" depth="1" NCoef="0" IVar="1" Cut="2.3001855468750000e+03" cType="1" res="7.2405403479933739e-03" rms="2.1601471304893494e-01" purity="3.4970915317535400e-01" nType="0">
          <Node pos="l" depth="2" NCoef="0" IVar="2" Cut="1.6742367297410965e-02" cType="1" res="1.3010472990572453e-02" rms="2.1521228551864624e-01" purity="8.5671290755271912e-02" nType="0">
            <Node pos="l" depth="3" NCoef="0" IVar="-1" Cut="0.0000000000000000e+00" cType="1" res="-1.0782458120957017e-03" rms="1.5606276690959930e-01" purity="3.2167542725801468e-02" nType="-99"/>
            <Node pos="r" depth="3" NCoef="0" IVar="-1" Cut="0.0000000000000000e+00" cType="1" res="4.7129575163125992e-02" rms="2.7114719152450562e-01" purity="1.5317484736442566e-01" nType="-99"/>
          </Node>
          <Node pos="r" depth="2" NCoef="0" IVar="9" Cut="1.3384510576725006e-01" cType="1" res="-5.1748715341091156e-03" rms="2.1721220016479492e-01" purity="9.1785079240798950e-01" nType="0">
            <Node pos="l" depth="3" NCoef="0" IVar="-1" Cut="0.0000000000000000e+00" cType="1" res="-2.8637982904911041e-02" rms="2.0531594753265381e-01" purity="9.2283451557159424e-01" nType="-99"/>
            <Node pos="r" depth="3" NCoef="0" IVar="-1" Cut="0.0000000000000000e+00" cType="1" res="4.5222383923828602e-03" rms="2.3132388293743134e-01" purity="9.1148406267166138e-01" nType="-99"/>
          </Node>
        </Node>
      </Node>
    </BinaryTree>
    <BinaryTree type="DecisionTree" boostWeight="1.0000000000000000e+00" itree="369">
      <Node pos="s" depth="0" NCoef="0" IVar="3" Cut="3.5072561645507812e+02" cType="1" res="6.3080276595428586e-04" rms="1.8993531167507172e-01" purity="5.0223708152770996e-01" nType="0">
        <Node pos="l" depth="1" NCoef="0" IVar="-1" Cut="0.0000000000000000e+00" cType="1" res="-4.2173165827989578e-02" rms="1.3981883227825165e-01" purity="2.5397486984729767e-02" nType="-99"/>
        <Node pos="r" depth="1" NCoef="0" IVar="8" Cut="-4.0023240447044373e-01" cType="1" res="1.2614933075383306e-03" rms="1.9216586649417877e-01" purity="5.2706098556518555e-01" nType="0">
          <Node pos="l" depth="2" NCoef="0" IVar="1" Cut="1.9525860595703125e+03" cType="1" res="4.9892123788595200e-03" rms="1.9645987451076508e-01" purity="4.8769792914390564e-01" nType="0">
            <Node pos="l" depth="3" NCoef="0" IVar="-1" Cut="0.0000000000000000e+00" cType="1" res="-2.2332598455250263e-03" rms="1.4953958988189697e-01" purity="3.2042779028415680e-02" nType="-99"/>
            <Node pos="r" depth="3" NCoef="0" IVar="-1" Cut="0.0000000000000000e+00" cType="1" res="1.8410064280033112e-02" rms="2.2775232791900635e-01" purity="8.6156696081161499e-01" nType="-99"/>
          </Node>
          <Node pos="r" depth="2" NCoef="0" IVar="0" Cut="4.4703970336914062e+02" cType="1" res="-6.8714120425283909e-04" rms="1.8985344469547272e-01" purity="5.4763782024383545e-01" nType="0">
            <Node pos="l" depth="3" NCoef="0" IVar="-1" Cut="0.0000000000000000e+00" cType="1" res="2.1067261695861816e-02" rms="1.7394348978996277e-01" purity="3.8819793611764908e-02" nType="-99"/>
            <Node pos="r" depth="3" NCoef="0" IVar="-1" Cut="0.0000000000000000e+00" cType="1" res="-5.8584385551512241e-03" rms="1.9362998008728027e-01" purity="6.7597192525863647e-01" nType="-99"/>
          </Node>
        </Node>
      </Node>
    </BinaryTree>
    <BinaryTree type="DecisionTree" boostWeight="1.0000000000000000e+00" itree="370">
      <Node pos="s" depth="0" NCoef="0" IVar="9" Cut="-1.9994484186172485e+00" cType="1" res="-2.4988633231259882e-04" rms="1.8709692358970642e-01" purity="4.9628660082817078e-01" nType="0">
        <Node pos="l" depth="1" NCoef="0" IVar="-1" Cut="0.0000000000000000e+00" cType="1" res="3.7011556327342987e-02" rms="2.5486057996749878e-01" purity="2.2248151898384094e-01" nType="-99"/>
        <Node pos="r" depth="1" NCoef="0" IVar="9" Cut="1.8856873512268066e+00" cType="1" res="-8.7580375839024782e-04" rms="1.8440012633800507e-01" purity="5.0533401966094971e-01" nType="0">
          <Node pos="l" depth="2" NCoef="0" IVar="9" Cut="1.5156688690185547e+00" cType="1" res="-1.5219964552670717e-03" rms="1.8171289563179016e-01" purity="5.1690495014190674e-01" nType="0">
            <Node pos="l" depth="3" NCoef="0" IVar="-1" Cut="0.0000000000000000e+00" cType="1" res="-2.7672066353261471e-03" rms="1.8098127841949463e-01" purity="5.2202612161636353e-01" nType="-99"/>
            <Node pos="r" depth="3" NCoef="0" IVar="-1" Cut="0.0000000000000000e+00" cType="1" res="-3.0960239470005035e-02" rms="1.9584298133850098e-01" purity="4.1089153289794922e-01" nType="-99"/>
          </Node>
          <Node pos="r" depth="2" NCoef="0" IVar="-1" Cut="0.0000000000000000e+00" cType="1" res="2.2208202630281448e-02" rms="2.3309874534606934e-01" purity="2.6397266983985901e-01" nType="-99"/>
        </Node>
      </Node>
    </BinaryTree>
    <BinaryTree type="DecisionTree" boostWeight="1.0000000000000000e+00" itree="371">
      <Node pos="s" depth="0" NCoef="0" IVar="9" Cut="1.1999083757400513e+00" cType="1" res="2.1847866009920835e-03" rms="1.8853840231895447e-01" purity="5.0312536954879761e-01" nType="0">
        <Node pos="l" depth="1" NCoef="0" IVar="1" Cut="2.5918110351562500e+03" cType="1" res="3.4575755707919598e-03" rms="1.8553110957145691e-01" purity="5.2260798215866089e-01" nType="0">
          <Node pos="l" depth="2" NCoef="0" IVar="1" Cut="2.1377822265625000e+03" cType="1" res="6.4141154289245605e-03" rms="2.1913586556911469e-01" purity="1.4948651194572449e-01" nType="0">
            <Node pos="l" depth="3" NCoef="0" IVar="-1" Cut="0.0000000000000000e+00" cType="1" res="8.7687280029058456e-03" rms="1.7995589971542358e-01" purity="4.9495670944452286e-02" nType="-99"/>
            <Node pos="r" depth="3" NCoef="0" IVar="-1" Cut="0.0000000000000000e+00" cType="1" res="1.8751131370663643e-02" rms="3.6153841018676758e-01" purity="6.8105912208557129e-01" nType="-99"/>
          </Node>
          <Node pos="r" depth="2" NCoef="0" IVar="10" Cut="-1.2001161575317383e+00" cType="1" res="-1.3344699982553720e-04" rms="1.3372065126895905e-01" purity="9.7580254077911377e-01" nType="0">
            <Node pos="l" depth="3" NCoef="0" IVar="-1" Cut="0.0000000000000000e+00" cType="1" res="2.7505377307534218e-02" rms="1.3895915448665619e-01" purity="9.7444295883178711e-01" nType="-99"/>
            <Node pos="r" depth="3" NCoef="0" IVar="-1" Cut="0.0000000000000000e+00" cType="1" res="-7.2121787816286087e-03" rms="1.3280427455902100e-01" purity="9.7602719068527222e-01" nType="-99"/>
          </Node>
        </Node>
        <Node pos="r" depth="1" NCoef="0" IVar="1" Cut="1.8887930908203125e+03" cType="1" res="-5.6474357843399048e-03" rms="2.0590730011463165e-01" purity="3.8323742151260376e-01" nType="0">
          <Node pos="l" depth="2" NCoef="0" IVar="1" Cut="1.6094678955078125e+03" cType="1" res="-1.3384578749537468e-02" rms="1.3082294166088104e-01" purity="2.0152205601334572e-02" nType="0">
            <Node pos="l" depth="3" NCoef="0" IVar="-1" Cut="0.0000000000000000e+00" cType="1" res="-3.3855944871902466e-02" rms="8.4148749709129333e-02" purity="7.4079041369259357e-03" nType="-99"/>
            <Node pos="r" depth="3" NCoef="0" IVar="-1" Cut="0.0000000000000000e+00" cType="1" res="-5.4374434053897858e-02" rms="1.8741793930530548e-01" purity="4.3674524873495102e-02" nType="-99"/>
          </Node>
          <Node pos="r" depth="2" NCoef="0" IVar="7" Cut="1.9529518485069275e-01" cType="1" res="2.9863901436328888e-03" rms="2.6546147465705872e-01" purity="7.8840172290802002e-01" nType="0">
            <Node pos="l" depth="3" NCoef="0" IVar="-1" Cut="0.0000000000000000e+00" cType="1" res="1.5298967249691486e-02" rms="2.6441782712936401e-01" purity="8.0118650197982788e-01" nType="-99"/>
            <Node pos="r" depth="3" NCoef="0" IVar="-1" Cut="0.0000000000000000e+00" cType="1" res="-1.0283933952450752e-02" rms="2.6660743355751038e-01" purity="7.7008289098739624e-01" nType="-99"/>
          </Node>
        </Node>
      </Node>
    </BinaryTree>
    <BinaryTree type="DecisionTree" boostWeight="1.0000000000000000e+00" itree="372">
      <Node pos="s" depth="0" NCoef="0" IVar="9" Cut="1.9999434947967529e+00" cType="1" res="8.3529099356383085e-04" rms="1.8876902759075165e-01" purity="5.0032311677932739e-01" nType="0">
        <Node pos="l" depth="1" NCoef="0" IVar="10" Cut="1.3333673775196075e-01" cType="1" res="1.4407528797164559e-03" rms="1.8760140240192413e-01" purity="5.1056331396102905e-01" nType="0">
          <Node pos="l" depth="2" NCoef="0" IVar="8" Cut="1.3336385786533356e-01" cType="1" res="-8.9840561849996448e-04" rms="1.8297782540321350e-01" purity="5.0606691837310791e-01" nType="0">
            <Node pos="l" depth="3" NCoef="0" IVar="-1" Cut="0.0000000000000000e+00" cType="1" res="6.4304345287382603e-03" rms="1.8232330679893494e-01" purity="5.0739133358001709e-01" nType="-99"/>
            <Node pos="r" depth="3" NCoef="0" IVar="-1" Cut="0.0000000000000000e+00" cType="1" res="-1.3619100674986839e-02" rms="1.8380238115787506e-01" purity="5.0422608852386475e-01" nType="-99"/>
          </Node>
          <Node pos="r" depth="2" NCoef="0" IVar="1" Cut="1.6662749023437500e+03" cType="1" res="4.1902991943061352e-03" rms="1.9285824894905090e-01" purity="5.1584857702255249e-01" nType="0">
            <Node pos="l" depth="3" NCoef="0" IVar="-1" Cut="0.0000000000000000e+00" cType="1" res="-1.2425623834133148e-02" rms="9.4564378261566162e-02" purity="1.0908219031989574e-02" nType="-99"/>
            <Node pos="r" depth="3" NCoef="0" IVar="-1" Cut="0.0000000000000000e+00" cType="1" res="1.3872164301574230e-02" rms="2.2240567207336426e-01" purity="7.3549741506576538e-01" nType="-99"/>
          </Node>
        </Node>
        <Node pos="r" depth="1" NCoef="0" IVar="-1" Cut="0.0000000000000000e+00" cType="1" res="-2.8626954182982445e-02" rms="2.1900540590286255e-01" purity="2.0570515096187592e-01" nType="-99"/>
      </Node>
    </BinaryTree>
    <BinaryTree type="DecisionTree" boostWeight="1.0000000000000000e+00" itree="373">
      <Node pos="s" depth="0" NCoef="0" IVar="8" Cut="1.4664436578750610e+00" cType="1" res="9.3410117551684380e-04" rms="1.8893690407276154e-01" purity="5.0005823373794556e-01" nType="0">
        <Node pos="l" depth="1" NCoef="0" IVar="10" Cut="-2.2664453983306885e+00" cType="1" res="-5.6744847825029865e-05" rms="1.8439738452434540e-01" purity="5.1866209506988525e-01" nType="0">
          <Node pos="l" depth="2" NCoef="0" IVar="-1" Cut="0.0000000000000000e+00" cType="1" res="4.0964897722005844e-02" rms="2.6091915369033813e-01" purity="3.8328900933265686e-01" nType="-99"/>
          <Node pos="r" depth="2" NCoef="0" IVar="7" Cut="-7.1438513696193695e-02" cType="1" res="-6.9629249628633261e-04" rms="1.8179942667484283e-01" purity="5.2238065004348755e-01" nType="0">
            <Node pos="l" depth="3" NCoef="0" IVar="-1" Cut="0.0000000000000000e+00" cType="1" res="-1.0499889962375164e-02" rms="1.7860443890094757e-01" purity="5.1180529594421387e-01" nType="-99"/>
            <Node pos="r" depth="3" NCoef="0" IVar="-1" Cut="0.0000000000000000e+00" cType="1" res="5.0623593851923943e-03" rms="1.8449649214744568e-01" purity="5.3157424926757812e-01" nType="-99"/>
          </Node>
        </Node>
        <Node pos="r" depth="1" NCoef="0" IVar="9" Cut="-1.3317498564720154e-01" cType="1" res="1.4085270464420319e-02" rms="2.4084250628948212e-01" purity="2.5313559174537659e-01" nType="0">
          <Node pos="l" depth="2" NCoef="0" IVar="-1" Cut="0.0000000000000000e+00" cType="1" res="-1.1448238510638475e-03" rms="2.3281985521316528e-01" purity="2.4059601128101349e-01" nType="-99"/>
          <Node pos="r" depth="2" NCoef="0" IVar="-1" Cut="0.0000000000000000e+00" cType="1" res="5.3890410810709000e-02" rms="2.4578429758548737e-01" purity="2.6191356778144836e-01" nType="-99"/>
        </Node>
      </Node>
    </BinaryTree>
    <BinaryTree type="DecisionTree" boostWeight="1.0000000000000000e+00" itree="374">
      <Node pos="s" depth="0" NCoef="0" IVar="6" Cut="8.9509536743164062e+01" cType="1" res="-3.6244528018869460e-04" rms="1.8813705444335938e-01" purity="4.9495562911033630e-01" nType="0">
        <Node pos="l" depth="1" NCoef="0" IVar="1" Cut="2.2222070312500000e+03" cType="1" res="4.6293213963508606e-03" rms="1.8228204548358917e-01" purity="1.6192868351936340e-01" nType="0">
          <Node pos="l" depth="2" NCoef="0" IVar="6" Cut="6.3169853210449219e+01" cType="1" res="1.1999560520052910e-03" rms="1.3969619572162628e-01" purity="2.6649516075849533e-02" nType="0">
            <Node pos="l" depth="3" NCoef="0" IVar="-1" Cut="0.0000000000000000e+00" cType="1" res="-4.3575067073106766e-02" rms="9.8981365561485291e-02" purity="1.1556754820048809e-02" nType="-99"/>
            <Node pos="r" depth="3" NCoef="0" IVar="-1" Cut="0.0000000000000000e+00" cType="1" res="2.6776051148772240e-02" rms="1.6051054000854492e-01" purity="3.6451891064643860e-02" nType="-99"/>
          </Node>
          <Node pos="r" depth="2" NCoef="0" IVar="1" Cut="2.9269709472656250e+03" cType="1" res="1.9860489293932915e-02" rms="3.0633586645126343e-01" purity="7.6275700330734253e-01" nType="0">
            <Node pos="l" depth="3" NCoef="0" IVar="-1" Cut="0.0000000000000000e+00" cType="1" res="2.2337213158607483e-02" rms="3.8665968179702759e-01" purity="5.6191486120223999e-01" nType="-99"/>
            <Node pos="r" depth="3" NCoef="0" IVar="-1" Cut="0.0000000000000000e+00" cType="1" res="1.7398493364453316e-02" rms="2.0827955007553101e-01" purity="9.4375693798065186e-01" nType="-99"/>
          </Node>
        </Node>
        <Node pos="r" depth="1" NCoef="0" IVar="10" Cut="-3.9999008178710938e-01" cType="1" res="-2.5663326960057020e-03" rms="1.9062326848506927e-01" purity="6.4198857545852661e-01" nType="0">
          <Node pos="l" depth="2" NCoef="0" IVar="0" Cut="7.9936389160156250e+02" cType="1" res="-5.8649224229156971e-03" rms="1.9350996613502502e-01" purity="6.2458914518356323e-01" nType="0">
            <Node pos="l" depth="3" NCoef="0" IVar="-1" Cut="0.0000000000000000e+00" cType="1" res="-2.3330021649599075e-02" rms="2.2770775854587555e-01" purity="3.1669613718986511e-01" nType="-99"/>
            <Node pos="r" depth="3" NCoef="0" IVar="-1" Cut="0.0000000000000000e+00" cType="1" res="1.0377353988587856e-02" rms="1.4674389362335205e-01" purity="9.6206235885620117e-01" nType="-99"/>
          </Node>
          <Node pos="r" depth="2" NCoef="0" IVar="8" Cut="4.0071082115173340e-01" cType="1" res="-5.8704143157228827e-04" rms="1.8884229660034180e-01" purity="6.5242892503738403e-01" nType="0">
            <Node pos="l" depth="3" NCoef="0" IVar="-1" Cut="0.0000000000000000e+00" cType="1" res="6.9721997715532780e-03" rms="1.8673069775104523e-01" purity="6.8357938528060913e-01" nType="-99"/>
            <Node pos="r" depth="3" NCoef="0" IVar="-1" Cut="0.0000000000000000e+00" cType="1" res="-1.5911987051367760e-02" rms="1.9265747070312500e-01" purity="5.9336030483245850e-01" nType="-99"/>
          </Node>
        </Node>
      </Node>
    </BinaryTree>
    <BinaryTree type="DecisionTree" boostWeight="1.0000000000000000e+00" itree="375">
      <Node pos="s" depth="0" NCoef="0" IVar="10" Cut="1.7333186864852905e+00" cType="1" res="-1.1890779715031385e-03" rms="1.8399889767169952e-01" purity="4.9645537137985229e-01" nType="0">
        <Node pos="l" depth="1" NCoef="0" IVar="8" Cut="1.7329576015472412e+00" cType="1" res="-1.5901307051535696e-04" rms="1.8156084418296814e-01" purity="5.0435149669647217e-01" nType="0">
          <Node pos="l" depth="2" NCoef="0" IVar="9" Cut="-1.1999806165695190e+00" cType="1" res="4.9197586486116052e-04" rms="1.8144489824771881e-01" purity="5.1932960748672485e-01" nType="0">
            <Node pos="l" depth="3" NCoef="0" IVar="-1" Cut="0.0000000000000000e+00" cType="1" res="-1.7657171934843063e-02" rms="1.8672882020473480e-01" purity="3.9200586080551147e-01" nType="-99"/>
            <Node pos="r" depth="3" NCoef="0" IVar="-1" Cut="0.0000000000000000e+00" cType="1" res="5.2055902779102325e-03" rms="1.8051181733608246e-01" purity="5.4073464870452881e-01" nType="-99"/>
          </Node>
          <Node pos="r" depth="2" NCoef="0" IVar="-1" Cut="0.0000000000000000e+00" cType="1" res="-4.1633754968643188e-02" rms="1.8367616832256317e-01" purity="1.3293030858039856e-01" nType="-99"/>
        </Node>
        <Node pos="r" depth="1" NCoef="0" IVar="0" Cut="6.4379095458984375e+02" cType="1" res="-1.3274087570607662e-02" rms="2.1012745797634125e-01" purity="4.0381640195846558e-01" nType="0">
          <Node pos="l" depth="2" NCoef="0" IVar="-1" Cut="0.0000000000000000e+00" cType="1" res="-5.4999236017465591e-02" rms="2.0168568193912506e-01" purity="1.0333268344402313e-01" nType="-99"/>
          <Node pos="r" depth="2" NCoef="0" IVar="-1" Cut="0.0000000000000000e+00" cType="1" res="2.7322266250848770e-03" rms="2.1822097897529602e-01" purity="7.3854631185531616e-01" nType="-99"/>
        </Node>
      </Node>
    </BinaryTree>
    <BinaryTree type="DecisionTree" boostWeight="1.0000000000000000e+00" itree="376">
      <Node pos="s" depth="0" NCoef="0" IVar="8" Cut="-1.4666162729263306e+00" cType="1" res="4.2782619129866362e-04" rms="1.8933987617492676e-01" purity="4.9754673242568970e-01" nType="0">
        <Node pos="l" depth="1" NCoef="0" IVar="0" Cut="5.6940179443359375e+02" cType="1" res="1.1501494795084000e-02" rms="2.3622813820838928e-01" purity="2.4276030063629150e-01" nType="0">
          <Node pos="l" depth="2" NCoef="0" IVar="-1" Cut="0.0000000000000000e+00" cType="1" res="9.0691968798637390e-02" rms="2.2603844106197357e-01" purity="9.5192991197109222e-02" nType="-99"/>
          <Node pos="r" depth="2" NCoef="0" IVar="-1" Cut="0.0000000000000000e+00" cType="1" res="-2.3973561823368073e-02" rms="2.4616217613220215e-01" purity="4.2931008338928223e-01" nType="-99"/>
        </Node>
        <Node pos="r" depth="1" NCoef="0" IVar="9" Cut="-1.9999424219131470e+00" cType="1" res="-4.1191733907908201e-04" rms="1.8527388572692871e-01" purity="5.1686775684356689e-01" nType="0">
          <Node pos="l" depth="2" NCoef="0" IVar="-1" Cut="0.0000000000000000e+00" cType="1" res="-3.5235706716775894e-02" rms="1.9833710789680481e-01" purity="2.1115112304687500e-01" nType="-99"/>
          <Node pos="r" depth="2" NCoef="0" IVar="10" Cut="-1.7332798242568970e+00" cType="1" res="3.1564522942062467e-05" rms="1.8484632670879364e-01" purity="5.2611321210861206e-01" nType="0">
            <Node pos="l" depth="3" NCoef="0" IVar="-1" Cut="0.0000000000000000e+00" cType="1" res="1.7215542495250702e-02" rms="2.2822813689708710e-01" purity="4.5617529749870300e-01" nType="-99"/>
            <Node pos="r" depth="3" NCoef="0" IVar="-1" Cut="0.0000000000000000e+00" cType="1" res="-2.1735276095569134e-03" rms="1.8060977756977081e-01" purity="5.3212708234786987e-01" nType="-99"/>
          </Node>
        </Node>
      </Node>
    </BinaryTree>
    <BinaryTree type="DecisionTree" boostWeight="1.0000000000000000e+00" itree="377">
      <Node pos="s" depth="0" NCoef="0" IVar="6" Cut="1.3980029296875000e+02" cType="1" res="-2.1683971863240004e-03" rms="1.8343466520309448e-01" purity="4.9643582105636597e-01" nType="0">
        <Node pos="l" depth="1" NCoef="0" IVar="9" Cut="-1.1999328136444092e+00" cType="1" res="-5.2801705896854401e-03" rms="1.8869078159332275e-01" purity="2.1810573339462280e-01" nType="0">
          <Node pos="l" depth="2" NCoef="0" IVar="9" Cut="-1.6570506095886230e+00" cType="1" res="3.0332515016198158e-03" rms="2.0635564625263214e-01" purity="2.0388431847095490e-01" nType="0">
            <Node pos="l" depth="3" NCoef="0" IVar="-1" Cut="0.0000000000000000e+00" cType="1" res="-1.8856409937143326e-02" rms="1.9922117888927460e-01" purity="1.5737712383270264e-01" nType="-99"/>
            <Node pos="r" depth="3" NCoef="0" IVar="-1" Cut="0.0000000000000000e+00" cType="1" res="3.5889592021703720e-02" rms="2.1408528089523315e-01" purity="2.6074740290641785e-01" nType="-99"/>
          </Node>
          <Node pos="r" depth="2" NCoef="0" IVar="7" Cut="1.2043707370758057e+00" cType="1" res="-7.0405257865786552e-03" rms="1.8468569219112396e-01" purity="2.2111710906028748e-01" nType="0">
            <Node pos="l" depth="3" NCoef="0" IVar="-1" Cut="0.0000000000000000e+00" cType="1" res="-2.2884743288159370e-02" rms="1.8384687602519989e-01" purity="2.3855952918529510e-01" nType="-99"/>
            <Node pos="r" depth="3" NCoef="0" IVar="-1" Cut="0.0000000000000000e+00" cType="1" res="1.4853525906801224e-02" rms="1.9098119437694550e-01" purity="7.8895874321460724e-02" nType="-99"/>
          </Node>
        </Node>
        <Node pos="r" depth="1" NCoef="0" IVar="0" Cut="5.9425665283203125e+02" cType="1" res="1.4240875607356429e-03" rms="1.7710478603839874e-01" purity="8.1776273250579834e-01" nType="0">
          <Node pos="l" depth="2" NCoef="0" IVar="3" Cut="5.3181903076171875e+02" cType="1" res="7.1135843172669411e-03" rms="2.7497258782386780e-01" purity="2.8573802113533020e-01" nType="0">
            <Node pos="l" depth="3" NCoef="0" IVar="-1" Cut="0.0000000000000000e+00" cType="1" res="-5.3501566872000694e-03" rms="2.4318470060825348e-01" purity="1.2076544016599655e-01" nType="-99"/>
            <Node pos="r" depth="3" NCoef="0" IVar="-1" Cut="0.0000000000000000e+00" cType="1" res="2.2110795602202415e-02" rms="3.1749850511550903e-01" purity="5.4240232706069946e-01" nType="-99"/>
          </Node>
          <Node pos="r" depth="2" NCoef="0" IVar="5" Cut="2.4047381591796875e+02" cType="1" res="-9.9135686468798667e-05" rms="1.3967791199684143e-01" purity="9.6019917726516724e-01" nType="0">
            <Node pos="l" depth="3" NCoef="0" IVar="-1" Cut="0.0000000000000000e+00" cType="1" res="8.2164546474814415e-03" rms="2.6172271370887756e-01" purity="7.7879959344863892e-01" nType="-99"/>
            <Node pos="r" depth="3" NCoef="0" IVar="-1" Cut="0.0000000000000000e+00" cType="1" res="-6.7244675010442734e-03" rms="1.1592179536819458e-01" purity="9.8266285657882690e-01" nType="-99"/>
          </Node>
        </Node>
      </Node>
    </BinaryTree>
    <BinaryTree type="DecisionTree" boostWeight="1.0000000000000000e+00" itree="378">
      <Node pos="s" depth="0" NCoef="0" IVar="10" Cut="1.3338306546211243e-01" cType="1" res="1.6599323134869337e-04" rms="1.8874016404151917e-01" purity="4.9904191493988037e-01" nType="0">
        <Node pos="l" depth="1" NCoef="0" IVar="4" Cut="5.0787686157226562e+02" cType="1" res="-2.3429419379681349e-03" rms="1.8270155787467957e-01" purity="4.9554246664047241e-01" nType="0">
          <Node pos="l" depth="2" NCoef="0" IVar="5" Cut="2.0248129272460938e+02" cType="1" res="-4.8785619437694550e-03" rms="1.9881956279277802e-01" purity="2.5968396663665771e-01" nType="0">
            <Node pos="l" depth="3" NCoef="0" IVar="-1" Cut="0.0000000000000000e+00" cType="1" res="-2.5126030668616295e-03" rms="1.6859678924083710e-01" purity="6.0879934579133987e-02" nType="-99"/>
            <Node pos="r" depth="3" NCoef="0" IVar="-1" Cut="0.0000000000000000e+00" cType="1" res="-1.8135067075490952e-02" rms="2.3556123673915863e-01" purity="5.4653227329254150e-01" nType="-99"/>
          </Node>
          <Node pos="r" depth="2" NCoef="0" IVar="1" Cut="3.1264707031250000e+03" cType="1" res="2.4069799110293388e-03" rms="1.4773558080196381e-01" purity="9.3737113475799561e-01" nType="0">
            <Node pos="l" depth="3" NCoef="0" IVar="-1" Cut="0.0000000000000000e+00" cType="1" res="1.7471339553594589e-02" rms="2.4662011861801147e-01" purity="7.9337912797927856e-01" nType="-99"/>
            <Node pos="r" depth="3" NCoef="0" IVar="-1" Cut="0.0000000000000000e+00" cType="1" res="-1.6846908256411552e-02" rms="8.2504145801067352e-02" purity="9.9267339706420898e-01" nType="-99"/>
          </Node>
        </Node>
        <Node pos="r" depth="1" NCoef="0" IVar="4" Cut="3.8441378784179688e+02" cType="1" res="3.0947383493185043e-03" rms="1.9551271200180054e-01" purity="5.0312685966491699e-01" nType="0">
          <Node pos="l" depth="2" NCoef="0" IVar="2" Cut="3.8766711950302124e-02" cType="1" res="9.6038393676280975e-03" rms="2.1392776072025299e-01" purity="1.4850889146327972e-01" nType="0">
            <Node pos="l" depth="3" NCoef="0" IVar="-1" Cut="0.0000000000000000e+00" cType="1" res="7.5563318096101284e-03" rms="1.9105225801467896e-01" purity="9.3532346189022064e-02" nType="-99"/>
            <Node pos="r" depth="3" NCoef="0" IVar="-1" Cut="0.0000000000000000e+00" cType="1" res="4.5756664127111435e-02" rms="2.5464284420013428e-01" purity="2.6368668675422668e-01" nType="-99"/>
          </Node>
          <Node pos="r" depth="2" NCoef="0" IVar="0" Cut="5.4295782470703125e+02" cType="1" res="-2.7704066596925259e-03" rms="1.7708390951156616e-01" purity="8.2266187667846680e-01" nType="0">
            <Node pos="l" depth="3" NCoef="0" IVar="-1" Cut="0.0000000000000000e+00" cType="1" res="-3.9775572717189789e-02" rms="2.3296461999416351e-01" purity="1.6821059584617615e-01" nType="-99"/>
            <Node pos="r" depth="3" NCoef="0" IVar="-1" Cut="0.0000000000000000e+00" cType="1" res="5.2312999032437801e-03" rms="1.6450405120849609e-01" purity="9.4203817844390869e-01" nType="-99"/>
          </Node>
        </Node>
      </Node>
    </BinaryTree>
    <BinaryTree type="DecisionTree" boostWeight="1.0000000000000000e+00" itree="379">
      <Node pos="s" depth="0" NCoef="0" IVar="8" Cut="1.2000172138214111e+00" cType="1" res="1.1034825583919883e-03" rms="1.8760815262794495e-01" purity="5.0300210714340210e-01" nType="0">
        <Node pos="l" depth="1" NCoef="0" IVar="10" Cut="-1.7332245111465454e+00" cType="1" res="-1.4205445768311620e-04" rms="1.8214854598045349e-01" purity="5.2869015932083130e-01" nType="0">
          <Node pos="l" depth="2" NCoef="0" IVar="7" Cut="-5.3695246577262878e-02" cType="1" res="-1.1048104614019394e-02" rms="2.1626313030719757e-01" purity="4.2573708295822144e-01" nType="0">
            <Node pos="l" depth="3" NCoef="0" IVar="-1" Cut="0.0000000000000000e+00" cType="1" res="-4.4486492872238159e-02" rms="2.0763856172561646e-01" purity="3.8563054800033569e-01" nType="-99"/>
            <Node pos="r" depth="3" NCoef="0" IVar="-1" Cut="0.0000000000000000e+00" cType="1" res="3.3375553321093321e-03" rms="2.2397172451019287e-01" purity="4.6645590662956238e-01" nType="-99"/>
          </Node>
          <Node pos="r" depth="2" NCoef="0" IVar="9" Cut="9.3325066566467285e-01" cType="1" res="8.3887367509305477e-04" rms="1.7872871458530426e-01" purity="5.3795015811920166e-01" nType="0">
            <Node pos="l" depth="3" NCoef="0" IVar="-1" Cut="0.0000000000000000e+00" cType="1" res="-3.8962012622505426e-03" rms="1.6815695166587830e-01" purity="5.5629622936248779e-01" nType="-99"/>
            <Node pos="r" depth="3" NCoef="0" IVar="-1" Cut="0.0000000000000000e+00" cType="1" res="2.1924521774053574e-02" rms="2.1713821589946747e-01" purity="4.6144333481788635e-01" nType="-99"/>
          </Node>
        </Node>
        <Node pos="r" depth="1" NCoef="0" IVar="5" Cut="1.7011560058593750e+02" cType="1" res="1.0631580837070942e-02" rms="2.2480435669422150e-01" purity="3.0649378895759583e-01" nType="0">
          <Node pos="l" depth="2" NCoef="0" IVar="7" Cut="-2.0746923983097076e-02" cType="1" res="-1.5697933267802000e-03" rms="1.5668883919715881e-01" purity="6.0173537582159042e-02" nType="0">
            <Node pos="l" depth="3" NCoef="0" IVar="-1" Cut="0.0000000000000000e+00" cType="1" res="-2.8879519551992416e-02" rms="1.3419184088706970e-01" purity="4.4342137873172760e-02" nType="-99"/>
            <Node pos="r" depth="3" NCoef="0" IVar="-1" Cut="0.0000000000000000e+00" cType="1" res="1.2622622773051262e-02" rms="1.7703114449977875e-01" purity="7.6746664941310883e-02" nType="-99"/>
          </Node>
          <Node pos="r" depth="2" NCoef="0" IVar="7" Cut="-4.4314689934253693e-02" cType="1" res="2.0809417590498924e-02" rms="2.6830068230628967e-01" purity="5.1196306943893433e-01" nType="0">
            <Node pos="l" depth="3" NCoef="0" IVar="-1" Cut="0.0000000000000000e+00" cType="1" res="6.1153933405876160e-02" rms="2.9065743088722229e-01" purity="4.9849855899810791e-01" nType="-99"/>
            <Node pos="r" depth="3" NCoef="0" IVar="-1" Cut="0.0000000000000000e+00" cType="1" res="7.2954674251377583e-03" rms="2.4186132848262787e-01" purity="5.2593660354614258e-01" nType="-99"/>
          </Node>
        </Node>
      </Node>
    </BinaryTree>
    <BinaryTree type="DecisionTree" boostWeight="1.0000000000000000e+00" itree="380">
      <Node pos="s" depth="0" NCoef="0" IVar="10" Cut="-1.3331718742847443e-01" cType="1" res="-8.4709766088053584e-04" rms="1.8426489830017090e-01" purity="4.9782204627990723e-01" nType="0">
        <Node pos="l" depth="1" NCoef="0" IVar="10" Cut="-1.4031004905700684e+00" cType="1" res="2.4589716922491789e-03" rms="1.8859267234802246e-01" purity="4.9334162473678589e-01" nType="0">
          <Node pos="l" depth="2" NCoef="0" IVar="0" Cut="5.3664111328125000e+02" cType="1" res="-4.4257612898945808e-03" rms="1.9873461127281189e-01" purity="4.3090757727622986e-01" nType="0">
            <Node pos="l" depth="3" NCoef="0" IVar="-1" Cut="0.0000000000000000e+00" cType="1" res="-4.5249454677104950e-02" rms="1.6819672286510468e-01" purity="5.9183724224567413e-02" nType="-99"/>
            <Node pos="r" depth="3" NCoef="0" IVar="-1" Cut="0.0000000000000000e+00" cType="1" res="8.3213355392217636e-03" rms="2.1442060172557831e-01" purity="6.5202873945236206e-01" nType="-99"/>
          </Node>
          <Node pos="r" depth="2" NCoef="0" IVar="6" Cut="1.9132395935058594e+02" cType="1" res="5.2518239244818687e-03" rms="1.8424613773822784e-01" purity="5.1866859197616577e-01" nType="0">
            <Node pos="l" depth="3" NCoef="0" IVar="-1" Cut="0.0000000000000000e+00" cType="1" res="2.1232165396213531e-02" rms="2.0574910938739777e-01" purity="3.0120447278022766e-01" nType="-99"/>
            <Node pos="r" depth="3" NCoef="0" IVar="-1" Cut="0.0000000000000000e+00" cType="1" res="-6.0661975294351578e-03" rms="1.3308905065059662e-01" purity="9.3800675868988037e-01" nType="-99"/>
          </Node>
        </Node>
        <Node pos="r" depth="1" NCoef="0" IVar="9" Cut="1.4663642644882202e+00" cType="1" res="-3.5839998163282871e-03" rms="1.8055795133113861e-01" purity="5.0153106451034546e-01" nType="0">
          <Node pos="l" depth="2" NCoef="0" IVar="1" Cut="2.5918161621093750e+03" cType="1" res="-4.6638646163046360e-03" rms="1.7580674588680267e-01" purity="5.1766848564147949e-01" nType="0">
            <Node pos="l" depth="3" NCoef="0" IVar="-1" Cut="0.0000000000000000e+00" cType="1" res="-1.6443233937025070e-02" rms="2.0501032471656799e-01" purity="1.3141006231307983e-01" nType="-99"/>
            <Node pos="r" depth="3" NCoef="0" IVar="-1" Cut="0.0000000000000000e+00" cType="1" res="-6.2350695952773094e-03" rms="1.3297642767429352e-01" purity="9.7617632150650024e-01" nType="-99"/>
          </Node>
          <Node pos="r" depth="2" NCoef="0" IVar="8" Cut="1.3430659472942352e-01" cType="1" res="6.2436666339635849e-03" rms="2.1886789798736572e-01" purity="3.5466751456260681e-01" nType="0">
            <Node pos="l" depth="3" NCoef="0" IVar="-1" Cut="0.0000000000000000e+00" cType="1" res="3.1456638127565384e-02" rms="2.4662108719348907e-01" purity="3.9995262026786804e-01" nType="-99"/>
            <Node pos="r" depth="3" NCoef="0" IVar="-1" Cut="0.0000000000000000e+00" cType="1" res="-1.2521012686192989e-02" rms="1.8438455462455750e-01" purity="3.0684152245521545e-01" nType="-99"/>
          </Node>
        </Node>
      </Node>
    </BinaryTree>
    <BinaryTree type="DecisionTree" boostWeight="1.0000000000000000e+00" itree="381">
      <Node pos="s" depth="0" NCoef="0" IVar="8" Cut="-1.7332906723022461e+00" cType="1" res="1.5012721996754408e-03" rms="1.8692542612552643e-01" purity="4.9898639321327209e-01" nType="0">
        <Node pos="l" depth="1" NCoef="0" IVar="-1" Cut="0.0000000000000000e+00" cType="1" res="-2.7352197095751762e-02" rms="1.8384626507759094e-01" purity="1.5357838571071625e-01" nType="-99"/>
        <Node pos="r" depth="1" NCoef="0" IVar="7" Cut="-6.5761995315551758e-01" cType="1" res="2.0403419621288776e-03" rms="1.8704460561275482e-01" purity="5.1451534032821655e-01" nType="0">
          <Node pos="l" depth="2" NCoef="0" IVar="7" Cut="-8.6002069711685181e-01" cType="1" res="6.9754743017256260e-03" rms="1.9487923383712769e-01" purity="3.6231011152267456e-01" nType="0">
            <Node pos="l" depth="3" NCoef="0" IVar="-1" Cut="0.0000000000000000e+00" cType="1" res="4.9408348277211189e-03" rms="1.8671098351478577e-01" purity="2.9513204097747803e-01" nType="-99"/>
            <Node pos="r" depth="3" NCoef="0" IVar="-1" Cut="0.0000000000000000e+00" cType="1" res="4.8004608601331711e-02" rms="2.1256141364574432e-01" purity="5.2223062515258789e-01" nType="-99"/>
          </Node>
          <Node pos="r" depth="2" NCoef="0" IVar="6" Cut="1.7662828063964844e+02" cType="1" res="7.0033402880653739e-04" rms="1.8483726680278778e-01" purity="5.5584275722503662e-01" nType="0">
            <Node pos="l" depth="3" NCoef="0" IVar="-1" Cut="0.0000000000000000e+00" cType="1" res="-4.6181241050362587e-03" rms="2.0625460147857666e-01" purity="3.2176694273948669e-01" nType="-99"/>
            <Node pos="r" depth="3" NCoef="0" IVar="-1" Cut="0.0000000000000000e+00" cType="1" res="2.1368980407714844e-02" rms="1.4415274560451508e-01" purity="9.2907679080963135e-01" nType="-99"/>
          </Node>
        </Node>
      </Node>
    </BinaryTree>
    <BinaryTree type="DecisionTree" boostWeight="1.0000000000000000e+00" itree="382">
      <Node pos="s" depth="0" NCoef="0" IVar="9" Cut="1.7330975532531738e+00" cType="1" res="4.5467657037079334e-04" rms="1.8852715194225311e-01" purity="5.0156879425048828e-01" nType="0">
        <Node pos="l" depth="1" NCoef="0" IVar="8" Cut="1.3302060961723328e-01" cType="1" res="-4.0804097079671919e-04" rms="1.8471445143222809e-01" purity="5.1413804292678833e-01" nType="0">
          <Node pos="l" depth="2" NCoef="0" IVar="10" Cut="-1.4667677879333496e+00" cType="1" res="-3.0776222702115774e-03" rms="1.7758736014366150e-01" purity="5.2479577064514160e-01" nType="0">
            <Node pos="l" depth="3" NCoef="0" IVar="-1" Cut="0.0000000000000000e+00" cType="1" res="1.3945518992841244e-02" rms="2.1083141863346100e-01" purity="4.3171656131744385e-01" nType="-99"/>
            <Node pos="r" depth="3" NCoef="0" IVar="-1" Cut="0.0000000000000000e+00" cType="1" res="-1.4066625386476517e-02" rms="1.7231948673725128e-01" purity="5.3798639774322510e-01" nType="-99"/>
          </Node>
          <Node pos="r" depth="2" NCoef="0" IVar="9" Cut="-1.2883533239364624e+00" cType="1" res="2.9710391536355019e-03" rms="1.9330653548240662e-01" purity="5.0064796209335327e-01" nType="0">
            <Node pos="l" depth="3" NCoef="0" IVar="-1" Cut="0.0000000000000000e+00" cType="1" res="3.3184934407472610e-02" rms="2.3582853376865387e-01" purity="3.8666591048240662e-01" nType="-99"/>
            <Node pos="r" depth="3" NCoef="0" IVar="-1" Cut="0.0000000000000000e+00" cType="1" res="2.8400591108947992e-03" rms="1.8602520227432251e-01" purity="5.1771026849746704e-01" nType="-99"/>
          </Node>
        </Node>
        <Node pos="r" depth="1" NCoef="0" IVar="10" Cut="1.3419143855571747e-01" cType="1" res="1.4678246341645718e-02" rms="2.4246603250503540e-01" purity="2.9433915019035339e-01" nType="0">
          <Node pos="l" depth="2" NCoef="0" IVar="-1" Cut="0.0000000000000000e+00" cType="1" res="5.4146628826856613e-02" rms="2.6440194249153137e-01" purity="2.9863935708999634e-01" nType="-99"/>
          <Node pos="r" depth="2" NCoef="0" IVar="-1" Cut="0.0000000000000000e+00" cType="1" res="3.7933485582470894e-03" rms="2.1973286569118500e-01" purity="2.9040586948394775e-01" nType="-99"/>
        </Node>
      </Node>
    </BinaryTree>
    <BinaryTree type="DecisionTree" boostWeight="1.0000000000000000e+00" itree="383">
      <Node pos="s" depth="0" NCoef="0" IVar="10" Cut="2.2666049003601074e+00" cType="1" res="1.9043892389163375e-03" rms="1.8912704288959503e-01" purity="5.0044494867324829e-01" nType="0">
        <Node pos="l" depth="1" NCoef="0" IVar="9" Cut="-1.9999409914016724e+00" cType="1" res="1.4917375519871712e-03" rms="1.8673658370971680e-01" purity="5.0452387332916260e-01" nType="0">
          <Node pos="l" depth="2" NCoef="0" IVar="-1" Cut="0.0000000000000000e+00" cType="1" res="3.6157567054033279e-02" rms="2.4988296627998352e-01" purity="2.3959651589393616e-01" nType="-99"/>
          <Node pos="r" depth="2" NCoef="0" IVar="7" Cut="6.7276257276535034e-01" cType="1" res="9.8150048870593309e-04" rms="1.8428421020507812e-01" purity="5.1318788528442383e-01" nType="0">
            <Node pos="l" depth="3" NCoef="0" IVar="-1" Cut="0.0000000000000000e+00" cType="1" res="6.5015824511647224e-03" rms="1.8242199718952179e-01" purity="5.5039817094802856e-01" nType="-99"/>
            <Node pos="r" depth="3" NCoef="0" IVar="-1" Cut="0.0000000000000000e+00" cType="1" res="-9.5773003995418549e-03" rms="1.9145187735557556e-01" purity="3.6492389440536499e-01" nType="-99"/>
          </Node>
        </Node>
        <Node pos="r" depth="1" NCoef="0" IVar="-1" Cut="0.0000000000000000e+00" cType="1" res="2.9269300401210785e-02" rms="2.5917300581932068e-01" purity="3.5690414905548096e-01" nType="-99"/>
      </Node>
    </BinaryTree>
    <BinaryTree type="DecisionTree" boostWeight="1.0000000000000000e+00" itree="384">
      <Node pos="s" depth="0" NCoef="0" IVar="3" Cut="5.0089886474609375e+02" cType="1" res="3.7046303623355925e-04" rms="1.8417721986770630e-01" purity="5.0291836261749268e-01" nType="0">
        <Node pos="l" depth="1" NCoef="0" IVar="10" Cut="-1.4664632081985474e+00" cType="1" res="-5.0418544560670853e-03" rms="1.8445673584938049e-01" purity="9.6855290234088898e-02" nType="0">
          <Node pos="l" depth="2" NCoef="0" IVar="-1" Cut="0.0000000000000000e+00" cType="1" res="1.7777293920516968e-02" rms="2.4465355277061462e-01" purity="1.3988341391086578e-01" nType="-99"/>
          <Node pos="r" depth="2" NCoef="0" IVar="4" Cut="3.5713562011718750e+02" cType="1" res="-7.4713607318699360e-03" rms="1.7226363718509674e-01" purity="8.9678853750228882e-02" nType="0">
            <Node pos="l" depth="3" NCoef="0" IVar="-1" Cut="0.0000000000000000e+00" cType="1" res="-3.2593533396720886e-02" rms="1.4868943393230438e-01" purity="4.2509816586971283e-02" nType="-99"/>
            <Node pos="r" depth="3" NCoef="0" IVar="-1" Cut="0.0000000000000000e+00" cType="1" res="3.2511611934751272e-03" rms="2.4230453372001648e-01" purity="2.7141547203063965e-01" nType="-99"/>
          </Node>
        </Node>
        <Node pos="r" depth="1" NCoef="0" IVar="8" Cut="-1.4662860631942749e+00" cType="1" res="1.9911462441086769e-03" rms="1.8406248092651367e-01" purity="6.2451130151748657e-01" nType="0">
          <Node pos="l" depth="2" NCoef="0" IVar="-1" Cut="0.0000000000000000e+00" cType="1" res="3.2699909061193466e-02" rms="2.1876452863216400e-01" purity="3.4743288159370422e-01" nType="-99"/>
          <Node pos="r" depth="2" NCoef="0" IVar="9" Cut="1.4666805267333984e+00" cType="1" res="1.1854628100991249e-03" rms="1.8161584436893463e-01" purity="6.4202862977981567e-01" nType="0">
            <Node pos="l" depth="3" NCoef="0" IVar="-1" Cut="0.0000000000000000e+00" cType="1" res="6.0655996203422546e-03" rms="1.7789086699485779e-01" purity="6.5803456306457520e-01" nType="-99"/>
            <Node pos="r" depth="3" NCoef="0" IVar="-1" Cut="0.0000000000000000e+00" cType="1" res="-1.5106931328773499e-02" rms="2.1884360909461975e-01" purity="4.6282953023910522e-01" nType="-99"/>
          </Node>
        </Node>
      </Node>
    </BinaryTree>
    <BinaryTree type="DecisionTree" boostWeight="1.0000000000000000e+00" itree="385">
      <Node pos="s" depth="0" NCoef="0" IVar="5" Cut="2.2025521850585938e+02" cType="1" res="2.2737476974725723e-03" rms="1.8792042136192322e-01" purity="5.0367611646652222e-01" nType="0">
        <Node pos="l" depth="1" NCoef="0" IVar="1" Cut="2.1510537109375000e+03" cType="1" res="5.1625473424792290e-03" rms="1.9060675799846649e-01" purity="1.4579476416110992e-01" nType="0">
          <Node pos="l" depth="2" NCoef="0" IVar="6" Cut="1.5497503662109375e+02" cType="1" res="1.4342899667099118e-03" rms="1.4857596158981323e-01" purity="3.2227434217929840e-02" nType="0">
            <Node pos="l" depth="3" NCoef="0" IVar="-1" Cut="0.0000000000000000e+00" cType="1" res="-9.4467867165803909e-04" rms="1.3690207898616791e-01" purity="2.5053055956959724e-02" nType="-99"/>
            <Node pos="r" depth="3" NCoef="0" IVar="-1" Cut="0.0000000000000000e+00" cType="1" res="3.9012283086776733e-02" rms="2.5327795743942261e-01" purity="1.2379677593708038e-01" nType="-99"/>
          </Node>
          <Node pos="r" depth="2" NCoef="0" IVar="6" Cut="1.0594618988037109e+02" cType="1" res="2.3990422487258911e-02" rms="3.2848185300827026e-01" purity="7.1931499242782593e-01" nType="0">
            <Node pos="l" depth="3" NCoef="0" IVar="-1" Cut="0.0000000000000000e+00" cType="1" res="3.9725463837385178e-02" rms="3.6154767870903015e-01" purity="6.0503852367401123e-01" nType="-99"/>
            <Node pos="r" depth="3" NCoef="0" IVar="-1" Cut="0.0000000000000000e+00" cType="1" res="1.0487998224562034e-04" rms="2.9037690162658691e-01" purity="8.3165460824966431e-01" nType="-99"/>
          </Node>
        </Node>
        <Node pos="r" depth="1" NCoef="0" IVar="0" Cut="4.3445034790039062e+02" cType="1" res="-3.0150753445923328e-04" rms="1.8545491993427277e-01" purity="8.2271373271942139e-01" nType="0">
          <Node pos="l" depth="2" NCoef="0" IVar="7" Cut="-4.1384514421224594e-02" cType="1" res="9.3937916681170464e-03" rms="2.2427505254745483e-01" purity="8.0031923949718475e-02" nType="0">
            <Node pos="l" depth="3" NCoef="0" IVar="-1" Cut="0.0000000000000000e+00" cType="1" res="-1.7981876153498888e-03" rms="2.1597266197204590e-01" purity="6.7659817636013031e-02" nType="-99"/>
            <Node pos="r" depth="3" NCoef="0" IVar="-1" Cut="0.0000000000000000e+00" cType="1" res="3.9997663348913193e-02" rms="2.3188768327236176e-01" purity="9.2507675290107727e-02" nType="-99"/>
          </Node>
          <Node pos="r" depth="2" NCoef="0" IVar="1" Cut="2.2413613281250000e+03" cType="1" res="-1.3196761719882488e-03" rms="1.8086525797843933e-01" purity="9.0070784091949463e-01" nType="0">
            <Node pos="l" depth="3" NCoef="0" IVar="-1" Cut="0.0000000000000000e+00" cType="1" res="-9.3016270548105240e-03" rms="3.5325205326080322e-01" purity="2.9145702719688416e-01" nType="-99"/>
            <Node pos="r" depth="3" NCoef="0" IVar="-1" Cut="0.0000000000000000e+00" cType="1" res="-2.9796201852150261e-04" rms="1.4864347875118256e-01" purity="9.7086125612258911e-01" nType="-99"/>
          </Node>
        </Node>
      </Node>
    </BinaryTree>
    <BinaryTree type="DecisionTree" boostWeight="1.0000000000000000e+00" itree="386">
      <Node pos="s" depth="0" NCoef="0" IVar="8" Cut="-9.3328952789306641e-01" cType="1" res="-1.4627448981627822e-03" rms="1.8811607360839844e-01" purity="5.0377345085144043e-01" nType="0">
        <Node pos="l" depth="1" NCoef="0" IVar="10" Cut="1.1993871927261353e+00" cType="1" res="-8.5973478853702545e-03" rms="2.0017178356647491e-01" purity="3.5751530528068542e-01" nType="0">
          <Node pos="l" depth="2" NCoef="0" IVar="10" Cut="-8.9505189657211304e-01" cType="1" res="-5.4044984281063080e-03" rms="1.9572006165981293e-01" purity="3.5815209150314331e-01" nType="0">
            <Node pos="l" depth="3" NCoef="0" IVar="-1" Cut="0.0000000000000000e+00" cType="1" res="-4.3256770819425583e-02" rms="1.8276888132095337e-01" purity="2.8486484289169312e-01" nType="-99"/>
            <Node pos="r" depth="3" NCoef="0" IVar="-1" Cut="0.0000000000000000e+00" cType="1" res="1.3143303804099560e-03" rms="2.0168586075305939e-01" purity="3.9514383673667908e-01" nType="-99"/>
          </Node>
          <Node pos="r" depth="2" NCoef="0" IVar="-1" Cut="0.0000000000000000e+00" cType="1" res="-4.6637650579214096e-02" rms="2.2072522342205048e-01" purity="3.5427555441856384e-01" nType="-99"/>
        </Node>
        <Node pos="r" depth="1" NCoef="0" IVar="1" Cut="2.2938605957031250e+03" cType="1" res="4.6376758291444276e-06" rms="1.8550543487071991e-01" purity="5.3385460376739502e-01" nType="0">
          <Node pos="l" depth="2" NCoef="0" IVar="5" Cut="1.9019865417480469e+02" cType="1" res="3.0802141409367323e-03" rms="2.0264504849910736e-01" purity="7.6804451644420624e-02" nType="0">
            <Node pos="l" depth="3" NCoef="0" IVar="-1" Cut="0.0000000000000000e+00" cType="1" res="-9.3984566628932953e-03" rms="1.3909208774566650e-01" purity="2.6831477880477905e-02" nType="-99"/>
            <Node pos="r" depth="3" NCoef="0" IVar="-1" Cut="0.0000000000000000e+00" cType="1" res="1.6885491088032722e-02" rms="2.9341304302215576e-01" purity="1.8078136444091797e-01" nType="-99"/>
          </Node>
          <Node pos="r" depth="2" NCoef="0" IVar="6" Cut="1.2901945495605469e+02" cType="1" res="-2.7944939211010933e-03" rms="1.6834801435470581e-01" purity="9.4982326030731201e-01" nType="0">
            <Node pos="l" depth="3" NCoef="0" IVar="-1" Cut="0.0000000000000000e+00" cType="1" res="-1.7419455572962761e-02" rms="2.6329562067985535e-01" purity="8.4509038925170898e-01" nType="-99"/>
            <Node pos="r" depth="3" NCoef="0" IVar="-1" Cut="0.0000000000000000e+00" cType="1" res="-2.3063172120600939e-03" rms="1.3226184248924255e-01" purity="9.7747516632080078e-01" nType="-99"/>
          </Node>
        </Node>
      </Node>
    </BinaryTree>
    <BinaryTree type="DecisionTree" boostWeight="1.0000000000000000e+00" itree="387">
      <Node pos="s" depth="0" NCoef="0" IVar="10" Cut="2.2662510871887207e+00" cType="1" res="-1.4265415957197547e-03" rms="1.8533468246459961e-01" purity="5.0175386667251587e-01" nType="0">
        <Node pos="l" depth="1" NCoef="0" IVar="7" Cut="9.5925283432006836e-01" cType="1" res="-1.9623104017227888e-03" rms="1.8259459733963013e-01" purity="5.0550812482833862e-01" nType="0">
          <Node pos="l" depth="2" NCoef="0" IVar="9" Cut="9.3325734138488770e-01" cType="1" res="-8.5263507207855582e-04" rms="1.8138079345226288e-01" purity="5.4234600067138672e-01" nType="0">
            <Node pos="l" depth="3" NCoef="0" IVar="-1" Cut="0.0000000000000000e+00" cType="1" res="-6.7159770987927914e-03" rms="1.7247818410396576e-01" purity="5.5902606248855591e-01" nType="-99"/>
            <Node pos="r" depth="3" NCoef="0" IVar="-1" Cut="0.0000000000000000e+00" cType="1" res="1.0691454634070396e-02" rms="2.1390712261199951e-01" purity="4.7407954931259155e-01" nType="-99"/>
          </Node>
          <Node pos="r" depth="2" NCoef="0" IVar="1" Cut="2.0247268066406250e+03" cType="1" res="-1.0128064081072807e-02" rms="1.9109179079532623e-01" purity="2.3443028330802917e-01" nType="0">
            <Node pos="l" depth="3" NCoef="0" IVar="-1" Cut="0.0000000000000000e+00" cType="1" res="-1.2514786794781685e-02" rms="1.5614916384220123e-01" purity="2.7286900207400322e-02" nType="-99"/>
            <Node pos="r" depth="3" NCoef="0" IVar="-1" Cut="0.0000000000000000e+00" cType="1" res="-4.2025562375783920e-02" rms="2.5920608639717102e-01" purity="7.6581507921218872e-01" nType="-99"/>
          </Node>
        </Node>
        <Node pos="r" depth="1" NCoef="0" IVar="-1" Cut="0.0000000000000000e+00" cType="1" res="3.1364552676677704e-02" rms="2.6580053567886353e-01" purity="3.6511799693107605e-01" nType="-99"/>
      </Node>
    </BinaryTree>
    <BinaryTree type="DecisionTree" boostWeight="1.0000000000000000e+00" itree="388">
      <Node pos="s" depth="0" NCoef="0" IVar="9" Cut="-1.1999315023422241e+00" cType="1" res="2.2432106197811663e-04" rms="1.9003474712371826e-01" purity="4.9980193376541138e-01" nType="0">
        <Node pos="l" depth="1" NCoef="0" IVar="3" Cut="4.9211529541015625e+02" cType="1" res="-6.2203225679695606e-03" rms="2.0995059609413147e-01" purity="3.7208446860313416e-01" nType="0">
          <Node pos="l" depth="2" NCoef="0" IVar="-1" Cut="0.0000000000000000e+00" cType="1" res="2.5413870811462402e-02" rms="2.0784720778465271e-01" purity="1.0912120342254639e-01" nType="-99"/>
          <Node pos="r" depth="2" NCoef="0" IVar="1" Cut="1.6756042480468750e+03" cType="1" res="-1.2563489377498627e-02" rms="2.1042349934577942e-01" purity="4.7451987862586975e-01" nType="0">
            <Node pos="l" depth="3" NCoef="0" IVar="-1" Cut="0.0000000000000000e+00" cType="1" res="1.1588789522647858e-02" rms="9.7039073705673218e-02" purity="9.4256522133946419e-03" nType="-99"/>
            <Node pos="r" depth="3" NCoef="0" IVar="-1" Cut="0.0000000000000000e+00" cType="1" res="-3.0205642804503441e-02" rms="2.3958498239517212e-01" purity="6.5086752176284790e-01" nType="-99"/>
          </Node>
        </Node>
        <Node pos="r" depth="1" NCoef="0" IVar="5" Cut="2.0834680175781250e+02" cType="1" res="1.2730658054351807e-03" rms="1.8657176196575165e-01" purity="5.2058559656143188e-01" nType="0">
          <Node pos="l" depth="2" NCoef="0" IVar="10" Cut="-9.3326896429061890e-01" cType="1" res="-2.0900764502584934e-03" rms="1.7878621816635132e-01" purity="1.2170477956533432e-01" nType="0">
            <Node pos="l" depth="3" NCoef="0" IVar="-1" Cut="0.0000000000000000e+00" cType="1" res="-2.4918222799897194e-02" rms="1.7551624774932861e-01" purity="1.3299843668937683e-01" nType="-99"/>
            <Node pos="r" depth="3" NCoef="0" IVar="-1" Cut="0.0000000000000000e+00" cType="1" res="4.4292220263741910e-04" rms="1.7973078787326813e-01" purity="1.1819875985383987e-01" nType="-99"/>
          </Node>
          <Node pos="r" depth="2" NCoef="0" IVar="1" Cut="2.1988830566406250e+03" cType="1" res="3.6988437641412020e-03" rms="1.9195488095283508e-01" purity="8.0829155445098877e-01" nType="0">
            <Node pos="l" depth="3" NCoef="0" IVar="-1" Cut="0.0000000000000000e+00" cType="1" res="1.8891228362917900e-02" rms="2.9651784896850586e-01" purity="1.7355781793594360e-01" nType="-99"/>
            <Node pos="r" depth="3" NCoef="0" IVar="-1" Cut="0.0000000000000000e+00" cType="1" res="2.8297016397118568e-03" rms="1.5523989498615265e-01" purity="9.6614295244216919e-01" nType="-99"/>
          </Node>
        </Node>
      </Node>
    </BinaryTree>
    <BinaryTree type="DecisionTree" boostWeight="1.0000000000000000e+00" itree="389">
      <Node pos="s" depth="0" NCoef="0" IVar="9" Cut="-6.6637188196182251e-01" cType="1" res="7.3489785427227616e-04" rms="1.8888530135154724e-01" purity="4.9553769826889038e-01" nType="0">
        <Node pos="l" depth="1" NCoef="0" IVar="7" Cut="1.8770249187946320e-01" cType="1" res="4.9693826586008072e-03" rms="2.0275785028934479e-01" purity="4.5940425992012024e-01" nType="0">
          <Node pos="l" depth="2" NCoef="0" IVar="9" Cut="-1.1742165088653564e+00" cType="1" res="-6.2503182562068105e-04" rms="1.8777675926685333e-01" purity="4.5969715714454651e-01" nType="0">
            <Node pos="l" depth="3" NCoef="0" IVar="-1" Cut="0.0000000000000000e+00" cType="1" res="-1.6526702791452408e-02" rms="1.8670001626014709e-01" purity="3.8831353187561035e-01" nType="-99"/>
            <Node pos="r" depth="3" NCoef="0" IVar="-1" Cut="0.0000000000000000e+00" cType="1" res="1.6615038737654686e-02" rms="1.8875342607498169e-01" purity="5.3754764795303345e-01" nType="-99"/>
          </Node>
          <Node pos="r" depth="2" NCoef="0" IVar="10" Cut="3.9988175034523010e-01" cType="1" res="1.3461604714393616e-02" rms="2.2332103550434113e-01" purity="4.5895966887474060e-01" nType="0">
            <Node pos="l" depth="3" NCoef="0" IVar="-1" Cut="0.0000000000000000e+00" cType="1" res="1.8895069137215614e-02" rms="2.0458868145942688e-01" purity="4.6074894070625305e-01" nType="-99"/>
            <Node pos="r" depth="3" NCoef="0" IVar="-1" Cut="0.0000000000000000e+00" cType="1" res="4.6067070215940475e-02" rms="2.5177988409996033e-01" purity="4.5590749382972717e-01" nType="-99"/>
          </Node>
        </Node>
        <Node pos="r" depth="1" NCoef="0" IVar="8" Cut="-3.9998787641525269e-01" cType="1" res="-8.9840916916728020e-04" rms="1.8322785198688507e-01" purity="5.0947499275207520e-01" nType="0">
          <Node pos="l" depth="2" NCoef="0" IVar="3" Cut="5.0158590698242188e+02" cType="1" res="3.8725701160728931e-03" rms="1.9297215342521667e-01" purity="4.9488577246665955e-01" nType="0">
            <Node pos="l" depth="3" NCoef="0" IVar="-1" Cut="0.0000000000000000e+00" cType="1" res="3.8706392049789429e-02" rms="2.2868372499942780e-01" purity="1.3888825476169586e-01" nType="-99"/>
            <Node pos="r" depth="3" NCoef="0" IVar="-1" Cut="0.0000000000000000e+00" cType="1" res="-8.0477079609408975e-04" rms="1.7955657839775085e-01" purity="6.1138826608657837e-01" nType="-99"/>
          </Node>
          <Node pos="r" depth="2" NCoef="0" IVar="3" Cut="6.4828887939453125e+02" cType="1" res="-3.2998854294419289e-03" rms="1.7807310819625854e-01" purity="5.1681852340698242e-01" nType="0">
            <Node pos="l" depth="3" NCoef="0" IVar="-1" Cut="0.0000000000000000e+00" cType="1" res="-2.5267139077186584e-02" rms="1.8255583941936493e-01" purity="1.7590785026550293e-01" nType="-99"/>
            <Node pos="r" depth="3" NCoef="0" IVar="-1" Cut="0.0000000000000000e+00" cType="1" res="4.1951523162424564e-03" rms="1.7434419691562653e-01" purity="7.8363943099975586e-01" nType="-99"/>
          </Node>
        </Node>
      </Node>
    </BinaryTree>
    <BinaryTree type="DecisionTree" boostWeight="1.0000000000000000e+00" itree="390">
      <Node pos="s" depth="0" NCoef="0" IVar="9" Cut="-1.1999777555465698e+00" cType="1" res="3.6412599729374051e-04" rms="1.8777307868003845e-01" purity="5.0146001577377319e-01" nType="0">
        <Node pos="l" depth="1" NCoef="0" IVar="3" Cut="7.6231280517578125e+02" cType="1" res="7.3224571533501148e-03" rms="2.1499337255954742e-01" purity="3.8926833868026733e-01" nType="0">
          <Node pos="l" depth="2" NCoef="0" IVar="4" Cut="3.1357534790039062e+02" cType="1" res="1.1644775979220867e-02" rms="2.1774938702583313e-01" purity="2.3809507489204407e-01" nType="0">
            <Node pos="l" depth="3" NCoef="0" IVar="-1" Cut="0.0000000000000000e+00" cType="1" res="6.6658211871981621e-03" rms="1.7210404574871063e-01" purity="4.9150705337524414e-02" nType="-99"/>
            <Node pos="r" depth="3" NCoef="0" IVar="-1" Cut="0.0000000000000000e+00" cType="1" res="3.7255696952342987e-02" rms="2.5655341148376465e-01" purity="4.3577039241790771e-01" nType="-99"/>
          </Node>
          <Node pos="r" depth="2" NCoef="0" IVar="-1" Cut="0.0000000000000000e+00" cType="1" res="-9.1563584282994270e-03" rms="2.0724768936634064e-01" purity="7.8171837329864502e-01" nType="-99"/>
        </Node>
        <Node pos="r" depth="1" NCoef="0" IVar="8" Cut="3.9999383687973022e-01" cType="1" res="-8.0538174370303750e-04" rms="1.8277463316917419e-01" purity="5.2031636238098145e-01" nType="0">
          <Node pos="l" depth="2" NCoef="0" IVar="5" Cut="2.7699496459960938e+02" cType="1" res="-2.6740673929452896e-03" rms="1.7560879886150360e-01" purity="5.4719644784927368e-01" nType="0">
            <Node pos="l" depth="3" NCoef="0" IVar="-1" Cut="0.0000000000000000e+00" cType="1" res="-1.3991094194352627e-02" rms="1.9284300506114960e-01" purity="2.2334246337413788e-01" nType="-99"/>
            <Node pos="r" depth="3" NCoef="0" IVar="-1" Cut="0.0000000000000000e+00" cType="1" res="3.3596414141356945e-03" rms="1.5274873375892639e-01" purity="9.2886489629745483e-01" nType="-99"/>
          </Node>
          <Node pos="r" depth="2" NCoef="0" IVar="5" Cut="2.6121514892578125e+02" cType="1" res="2.6628002524375916e-03" rms="1.9533137977123260e-01" purity="4.7042840719223022e-01" nType="0">
            <Node pos="l" depth="3" NCoef="0" IVar="-1" Cut="0.0000000000000000e+00" cType="1" res="1.7749104648828506e-02" rms="2.0713500678539276e-01" purity="1.7997598648071289e-01" nType="-99"/>
            <Node pos="r" depth="3" NCoef="0" IVar="-1" Cut="0.0000000000000000e+00" cType="1" res="-1.2682150118052959e-02" rms="1.7729292809963226e-01" purity="8.7673765420913696e-01" nType="-99"/>
          </Node>
        </Node>
      </Node>
    </BinaryTree>
    <BinaryTree type="DecisionTree" boostWeight="1.0000000000000000e+00" itree="391">
      <Node pos="s" depth="0" NCoef="0" IVar="8" Cut="1.3340938091278076e-01" cType="1" res="-9.9152594339102507e-04" rms="1.8497720360755920e-01" purity="4.9765342473983765e-01" nType="0">
        <Node pos="l" depth="1" NCoef="0" IVar="0" Cut="5.6934857177734375e+02" cType="1" res="1.9583841785788536e-03" rms="1.8687894940376282e-01" purity="5.1222103834152222e-01" nType="0">
          <Node pos="l" depth="2" NCoef="0" IVar="1" Cut="1.7834658203125000e+03" cType="1" res="7.6558077707886696e-03" rms="1.9767944514751434e-01" purity="9.1868996620178223e-02" nType="0">
            <Node pos="l" depth="3" NCoef="0" IVar="-1" Cut="0.0000000000000000e+00" cType="1" res="1.5140921808779240e-02" rms="1.2124418467283249e-01" purity="1.7437787726521492e-02" nType="-99"/>
            <Node pos="r" depth="3" NCoef="0" IVar="-1" Cut="0.0000000000000000e+00" cType="1" res="2.4484513327479362e-02" rms="3.4463959932327271e-01" purity="3.3655261993408203e-01" nType="-99"/>
          </Node>
          <Node pos="r" depth="2" NCoef="0" IVar="1" Cut="2.4495234375000000e+03" cType="1" res="-1.2639432679861784e-03" rms="1.8040488660335541e-01" purity="7.4996215105056763e-01" nType="0">
            <Node pos="l" depth="3" NCoef="0" IVar="-1" Cut="0.0000000000000000e+00" cType="1" res="-1.0842683725059032e-02" rms="2.4866555631160736e-01" purity="1.9935497641563416e-01" nType="-99"/>
            <Node pos="r" depth="3" NCoef="0" IVar="-1" Cut="0.0000000000000000e+00" cType="1" res="4.8765637911856174e-03" rms="1.4438124001026154e-01" purity="9.6956449747085571e-01" nType="-99"/>
          </Node>
        </Node>
        <Node pos="r" depth="1" NCoef="0" IVar="0" Cut="7.4137329101562500e+02" cType="1" res="-4.6968734823167324e-03" rms="1.8249280750751495e-01" purity="4.7935524582862854e-01" nType="0">
          <Node pos="l" depth="2" NCoef="0" IVar="1" Cut="1.7913902587890625e+03" cType="1" res="-9.0385973453521729e-03" rms="1.8680846691131592e-01" purity="1.6070531308650970e-01" nType="0">
            <Node pos="l" depth="3" NCoef="0" IVar="-1" Cut="0.0000000000000000e+00" cType="1" res="-2.8579203411936760e-02" rms="1.0702314972877502e-01" purity="1.3722961768507957e-02" nType="-99"/>
            <Node pos="r" depth="3" NCoef="0" IVar="-1" Cut="0.0000000000000000e+00" cType="1" res="-1.9813610240817070e-02" rms="2.9771673679351807e-01" purity="4.9853080511093140e-01" nType="-99"/>
          </Node>
          <Node pos="r" depth="2" NCoef="0" IVar="6" Cut="8.4340232849121094e+01" cType="1" res="7.1085069794207811e-04" rms="1.7682142555713654e-01" purity="8.7624150514602661e-01" nType="0">
            <Node pos="l" depth="3" NCoef="0" IVar="-1" Cut="0.0000000000000000e+00" cType="1" res="2.0696291700005531e-02" rms="2.7559545636177063e-01" purity="5.1149404048919678e-01" nType="-99"/>
            <Node pos="r" depth="3" NCoef="0" IVar="-1" Cut="0.0000000000000000e+00" cType="1" res="-7.0976521819829941e-03" rms="1.5292437374591827e-01" purity="9.4024616479873657e-01" nType="-99"/>
          </Node>
        </Node>
      </Node>
    </BinaryTree>
    <BinaryTree type="DecisionTree" boostWeight="1.0000000000000000e+00" itree="392">
      <Node pos="s" depth="0" NCoef="0" IVar="8" Cut="6.6680443286895752e-01" cType="1" res="1.3301058206707239e-03" rms="1.8874849379062653e-01" purity="5.0055778026580811e-01" nType="0">
        <Node pos="l" depth="1" NCoef="0" IVar="9" Cut="-1.1996377706527710e+00" cType="1" res="9.8811950010713190e-05" rms="1.8296760320663452e-01" purity="5.3251039981842041e-01" nType="0">
          <Node pos="l" depth="2" NCoef="0" IVar="7" Cut="2.1633580327033997e-01" cType="1" res="-5.5187330581247807e-03" rms="1.8981696665287018e-01" purity="3.8892155885696411e-01" nType="0">
            <Node pos="l" depth="3" NCoef="0" IVar="-1" Cut="0.0000000000000000e+00" cType="1" res="4.1897036135196686e-03" rms="1.9413107633590698e-01" purity="4.1428208351135254e-01" nType="-99"/>
            <Node pos="r" depth="3" NCoef="0" IVar="-1" Cut="0.0000000000000000e+00" cType="1" res="-4.0600568056106567e-02" rms="1.8216793239116669e-01" purity="3.4854635596275330e-01" nType="-99"/>
          </Node>
          <Node pos="r" depth="2" NCoef="0" IVar="10" Cut="-1.9999470710754395e+00" cType="1" res="1.0232755448669195e-03" rms="1.8179906904697418e-01" purity="5.5614048242568970e-01" nType="0">
            <Node pos="l" depth="3" NCoef="0" IVar="-1" Cut="0.0000000000000000e+00" cType="1" res="2.4848800152540207e-02" rms="2.4951989948749542e-01" purity="4.0704640746116638e-01" nType="-99"/>
            <Node pos="r" depth="3" NCoef="0" IVar="-1" Cut="0.0000000000000000e+00" cType="1" res="1.1937043163925409e-03" rms="1.7779681086540222e-01" purity="5.6344199180603027e-01" nType="-99"/>
          </Node>
        </Node>
        <Node pos="r" depth="1" NCoef="0" IVar="7" Cut="-9.9690437316894531e-02" cType="1" res="5.0117396749556065e-03" rms="2.0501972734928131e-01" purity="4.0501755475997925e-01" nType="0">
          <Node pos="l" depth="2" NCoef="0" IVar="9" Cut="4.0032428503036499e-01" cType="1" res="-5.9258023975417018e-04" rms="1.9075587391853333e-01" purity="3.8003379106521606e-01" nType="0">
            <Node pos="l" depth="3" NCoef="0" IVar="-1" Cut="0.0000000000000000e+00" cType="1" res="8.8659338653087616e-03" rms="1.9567222893238068e-01" purity="4.0935480594635010e-01" nType="-99"/>
            <Node pos="r" depth="3" NCoef="0" IVar="-1" Cut="0.0000000000000000e+00" cType="1" res="-1.8461182713508606e-02" rms="1.8207436800003052e-01" purity="3.3123186230659485e-01" nType="-99"/>
          </Node>
          <Node pos="r" depth="2" NCoef="0" IVar="7" Cut="9.9712765216827393e-01" cType="1" res="9.7556384280323982e-03" rms="2.1624654531478882e-01" purity="4.2616558074951172e-01" nType="0">
            <Node pos="l" depth="3" NCoef="0" IVar="-1" Cut="0.0000000000000000e+00" cType="1" res="3.0882708728313446e-02" rms="2.1904857456684113e-01" purity="4.9304249882698059e-01" nType="-99"/>
            <Node pos="r" depth="3" NCoef="0" IVar="-1" Cut="0.0000000000000000e+00" cType="1" res="-4.6486849896609783e-03" rms="2.0574426651000977e-01" purity="1.9318729639053345e-01" nType="-99"/>
          </Node>
        </Node>
      </Node>
    </BinaryTree>
    <BinaryTree type="DecisionTree" boostWeight="1.0000000000000000e+00" itree="393">
      <Node pos="s" depth="0" NCoef="0" IVar="2" Cut="6.4097017049789429e-02" cType="1" res="5.5235967010958120e-05" rms="1.8841062486171722e-01" purity="4.9645692110061646e-01" nType="0">
        <Node pos="l" depth="1" NCoef="0" IVar="10" Cut="-1.9998946189880371e+00" cType="1" res="1.7794382292777300e-03" rms="1.9626925885677338e-01" purity="3.7763318419456482e-01" nType="0">
          <Node pos="l" depth="2" NCoef="0" IVar="-1" Cut="0.0000000000000000e+00" cType="1" res="-3.0342627316713333e-02" rms="2.0259299874305725e-01" purity="2.4734592437744141e-01" nType="-99"/>
          <Node pos="r" depth="2" NCoef="0" IVar="9" Cut="-1.1999343633651733e+00" cType="1" res="2.6981427799910307e-03" rms="1.9588485360145569e-01" purity="3.8455596566200256e-01" nType="0">
            <Node pos="l" depth="3" NCoef="0" IVar="-1" Cut="0.0000000000000000e+00" cType="1" res="2.2574475035071373e-02" rms="2.2506909072399139e-01" purity="2.8278720378875732e-01" nType="-99"/>
            <Node pos="r" depth="3" NCoef="0" IVar="-1" Cut="0.0000000000000000e+00" cType="1" res="3.9387056604027748e-03" rms="1.9012182950973511e-01" purity="4.0290564298629761e-01" nType="-99"/>
          </Node>
        </Node>
        <Node pos="r" depth="1" NCoef="0" IVar="4" Cut="3.2079104614257812e+02" cType="1" res="-3.7237065844237804e-03" rms="1.6985908150672913e-01" purity="7.5688332319259644e-01" nType="0">
          <Node pos="l" depth="2" NCoef="0" IVar="4" Cut="2.5744320678710938e+02" cType="1" res="6.0609490610659122e-03" rms="2.1324819326400757e-01" purity="1.4878158271312714e-01" nType="0">
            <Node pos="l" depth="3" NCoef="0" IVar="-1" Cut="0.0000000000000000e+00" cType="1" res="-3.4745220094919205e-02" rms="1.3130620121955872e-01" purity="3.4721825271844864e-02" nType="-99"/>
            <Node pos="r" depth="3" NCoef="0" IVar="-1" Cut="0.0000000000000000e+00" cType="1" res="3.1585302203893661e-02" rms="2.7106907963752747e-01" purity="2.6359385251998901e-01" nType="-99"/>
          </Node>
          <Node pos="r" depth="2" NCoef="0" IVar="1" Cut="2.6063339843750000e+03" cType="1" res="-5.8952486142516136e-03" rms="1.5854656696319580e-01" purity="8.9184147119522095e-01" nType="0">
            <Node pos="l" depth="3" NCoef="0" IVar="-1" Cut="0.0000000000000000e+00" cType="1" res="-2.8317010030150414e-02" rms="3.1420907378196716e-01" purity="4.8151138424873352e-01" nType="-99"/>
            <Node pos="r" depth="3" NCoef="0" IVar="-1" Cut="0.0000000000000000e+00" cType="1" res="-8.7621454149484634e-03" rms="8.2980431616306305e-02" purity="9.9280428886413574e-01" nType="-99"/>
          </Node>
        </Node>
      </Node>
    </BinaryTree>
    <BinaryTree type="DecisionTree" boostWeight="1.0000000000000000e+00" itree="394">
      <Node pos="s" depth="0" NCoef="0" IVar="9" Cut="6.6660296916961670e-01" cType="1" res="-1.5438660047948360e-03" rms="1.8378798663616180e-01" purity="4.9603840708732605e-01" nType="0">
        <Node pos="l" depth="1" NCoef="0" IVar="4" Cut="3.2241723632812500e+02" cType="1" res="-4.3991978600388393e-05" rms="1.7860479652881622e-01" purity="5.1481908559799194e-01" nType="0">
          <Node pos="l" depth="2" NCoef="0" IVar="10" Cut="6.6656452417373657e-01" cType="1" res="-4.5081046409904957e-03" rms="1.5881870687007904e-01" purity="7.4654206633567810e-02" nType="0">
            <Node pos="l" depth="3" NCoef="0" IVar="-1" Cut="0.0000000000000000e+00" cType="1" res="-3.4012012183666229e-02" rms="1.4260300993919373e-01" purity="6.1990272253751755e-02" nType="-99"/>
            <Node pos="r" depth="3" NCoef="0" IVar="-1" Cut="0.0000000000000000e+00" cType="1" res="1.5247566625475883e-02" rms="1.9144818186759949e-01" purity="1.0462938249111176e-01" nType="-99"/>
          </Node>
          <Node pos="r" depth="2" NCoef="0" IVar="6" Cut="8.5653480529785156e+01" cType="1" res="2.2637441288679838e-03" rms="1.8797704577445984e-01" purity="7.4236363172531128e-01" nType="0">
            <Node pos="l" depth="3" NCoef="0" IVar="-1" Cut="0.0000000000000000e+00" cType="1" res="1.9765933975577354e-02" rms="2.2887101769447327e-01" purity="3.1445595622062683e-01" nType="-99"/>
            <Node pos="r" depth="3" NCoef="0" IVar="-1" Cut="0.0000000000000000e+00" cType="1" res="2.0258903969079256e-03" rms="1.7781934142112732e-01" purity="8.3528125286102295e-01" nType="-99"/>
          </Node>
        </Node>
        <Node pos="r" depth="1" NCoef="0" IVar="8" Cut="6.6646468639373779e-01" cType="1" res="-5.5691432207822800e-03" rms="1.9696900248527527e-01" purity="4.4563594460487366e-01" nType="0">
          <Node pos="l" depth="2" NCoef="0" IVar="2" Cut="4.2733523994684219e-02" cType="1" res="-1.8029914936050773e-03" rms="2.0109978318214417e-01" purity="4.9529266357421875e-01" nType="0">
            <Node pos="l" depth="3" NCoef="0" IVar="-1" Cut="0.0000000000000000e+00" cType="1" res="6.6373641602694988e-03" rms="2.0652602612972260e-01" purity="3.3355659246444702e-01" nType="-99"/>
            <Node pos="r" depth="3" NCoef="0" IVar="-1" Cut="0.0000000000000000e+00" cType="1" res="-1.9865849986672401e-02" rms="1.9445441663265228e-01" purity="6.8301248550415039e-01" nType="-99"/>
          </Node>
          <Node pos="r" depth="2" NCoef="0" IVar="1" Cut="1.8186563720703125e+03" cType="1" res="-1.5306554734706879e-02" rms="1.8550975620746613e-01" purity="3.1724807620048523e-01" nType="0">
            <Node pos="l" depth="3" NCoef="0" IVar="-1" Cut="0.0000000000000000e+00" cType="1" res="-3.6140944808721542e-02" rms="1.0379020869731903e-01" purity="1.3398083858191967e-02" nType="-99"/>
            <Node pos="r" depth="3" NCoef="0" IVar="-1" Cut="0.0000000000000000e+00" cType="1" res="-4.1243642568588257e-02" rms="2.5058913230895996e-01" purity="6.8489760160446167e-01" nType="-99"/>
          </Node>
        </Node>
      </Node>
    </BinaryTree>
    <BinaryTree type="DecisionTree" boostWeight="1.0000000000000000e+00" itree="395">
      <Node pos="s" depth="0" NCoef="0" IVar="7" Cut="-9.2322373390197754e-01" cType="1" res="1.4619431458413601e-03" rms="1.9118678569793701e-01" purity="4.9909463524818420e-01" nType="0">
        <Node pos="l" depth="1" NCoef="0" IVar="3" Cut="5.2298535156250000e+02" cType="1" res="8.4151029586791992e-03" rms="2.0391269028186798e-01" purity="2.6094940304756165e-01" nType="0">
          <Node pos="l" depth="2" NCoef="0" IVar="5" Cut="1.7836904907226562e+02" cType="1" res="1.9239798188209534e-02" rms="2.1982081234455109e-01" purity="1.1235807836055756e-01" nType="0">
            <Node pos="l" depth="3" NCoef="0" IVar="-1" Cut="0.0000000000000000e+00" cType="1" res="3.5017874091863632e-02" rms="1.2815079092979431e-01" purity="2.0562311634421349e-02" nType="-99"/>
            <Node pos="r" depth="3" NCoef="0" IVar="-1" Cut="0.0000000000000000e+00" cType="1" res="5.5764734745025635e-02" rms="2.7916470170021057e-01" purity="1.9868320226669312e-01" nType="-99"/>
          </Node>
          <Node pos="r" depth="2" NCoef="0" IVar="7" Cut="-1.3433791399002075e+00" cType="1" res="3.4252015757374465e-04" rms="1.9079002737998962e-01" purity="3.7176230549812317e-01" nType="0">
            <Node pos="l" depth="3" NCoef="0" IVar="-1" Cut="0.0000000000000000e+00" cType="1" res="-3.1172573566436768e-02" rms="1.7260530591011047e-01" purity="1.5223142504692078e-01" nType="-99"/>
            <Node pos="r" depth="3" NCoef="0" IVar="-1" Cut="0.0000000000000000e+00" cType="1" res="1.4506313018500805e-02" rms="2.0020842552185059e-01" purity="4.9731931090354919e-01" nType="-99"/>
          </Node>
        </Node>
        <Node pos="r" depth="1" NCoef="0" IVar="8" Cut="1.7323578596115112e+00" cType="1" res="3.9447814924642444e-04" rms="1.8913465738296509e-01" purity="5.3565526008605957e-01" nType="0">
          <Node pos="l" depth="2" NCoef="0" IVar="9" Cut="-1.9998853206634521e+00" cType="1" res="-2.4196990125346929e-04" rms="1.8673908710479736e-01" purity="5.4810059070587158e-01" nType="0">
            <Node pos="l" depth="3" NCoef="0" IVar="-1" Cut="0.0000000000000000e+00" cType="1" res="3.7556834518909454e-02" rms="2.5816804170608521e-01" purity="2.8813782334327698e-01" nType="-99"/>
            <Node pos="r" depth="3" NCoef="0" IVar="-1" Cut="0.0000000000000000e+00" cType="1" res="-2.4252706207334995e-03" rms="1.8393237888813019e-01" purity="5.5652058124542236e-01" nType="-99"/>
          </Node>
          <Node pos="r" depth="2" NCoef="0" IVar="-1" Cut="0.0000000000000000e+00" cType="1" res="3.3981055021286011e-02" rms="2.4144947528839111e-01" purity="2.2058245539665222e-01" nType="-99"/>
        </Node>
      </Node>
    </BinaryTree>
    <BinaryTree type="DecisionTree" boostWeight="1.0000000000000000e+00" itree="396">
      <Node pos="s" depth="0" NCoef="0" IVar="7" Cut="-6.5625780820846558e-01" cType="1" res="-1.1212350800633430e-03" rms="1.8486967682838440e-01" purity="4.9774703383445740e-01" nType="0">
        <Node pos="l" depth="1" NCoef="0" IVar="9" Cut="6.6692638397216797e-01" cType="1" res="-9.0721584856510162e-03" rms="1.8136589229106903e-01" purity="3.4262517094612122e-01" nType="0">
          <Node pos="l" depth="2" NCoef="0" IVar="9" Cut="-3.2338461279869080e-01" cType="1" res="-4.5127724297344685e-03" rms="1.8347851932048798e-01" purity="3.6078393459320068e-01" nType="0">
            <Node pos="l" depth="3" NCoef="0" IVar="-1" Cut="0.0000000000000000e+00" cType="1" res="-2.9950739815831184e-02" rms="1.7040143907070160e-01" purity="3.1006720662117004e-01" nType="-99"/>
            <Node pos="r" depth="3" NCoef="0" IVar="-1" Cut="0.0000000000000000e+00" cType="1" res="9.5174815505743027e-03" rms="1.9980226457118988e-01" purity="4.3060237169265747e-01" nType="-99"/>
          </Node>
          <Node pos="r" depth="2" NCoef="0" IVar="1" Cut="1.6687244873046875e+03" cType="1" res="-2.1185053512454033e-02" rms="1.7505401372909546e-01" purity="2.9438289999961853e-01" nType="0">
            <Node pos="l" depth="3" NCoef="0" IVar="-1" Cut="0.0000000000000000e+00" cType="1" res="-7.3985874652862549e-02" rms="6.0979586094617844e-02" purity="3.5236133262515068e-03" nType="-99"/>
            <Node pos="r" depth="3" NCoef="0" IVar="-1" Cut="0.0000000000000000e+00" cType="1" res="-5.0309456884860992e-02" rms="2.2931696474552155e-01" purity="5.3427428007125854e-01" nType="-99"/>
          </Node>
        </Node>
        <Node pos="r" depth="1" NCoef="0" IVar="10" Cut="-1.9999470710754395e+00" cType="1" res="9.9109113216400146e-04" rms="1.8573221564292908e-01" purity="5.3895837068557739e-01" nType="0">
          <Node pos="l" depth="2" NCoef="0" IVar="-1" Cut="0.0000000000000000e+00" cType="1" res="3.2588094472885132e-02" rms="2.4054570496082306e-01" purity="4.3867260217666626e-01" nType="-99"/>
          <Node pos="r" depth="2" NCoef="0" IVar="10" Cut="1.6571158170700073e+00" cType="1" res="6.9604837335646152e-05" rms="1.8241488933563232e-01" purity="5.4412567615509033e-01" nType="0">
            <Node pos="l" depth="3" NCoef="0" IVar="-1" Cut="0.0000000000000000e+00" cType="1" res="-3.8897541817277670e-03" rms="1.7603901028633118e-01" purity="5.5313253402709961e-01" nType="-99"/>
            <Node pos="r" depth="3" NCoef="0" IVar="-1" Cut="0.0000000000000000e+00" cType="1" res="2.4368667975068092e-02" rms="2.3413954675197601e-01" purity="4.5850965380668640e-01" nType="-99"/>
          </Node>
        </Node>
      </Node>
    </BinaryTree>
    <BinaryTree type="DecisionTree" boostWeight="1.0000000000000000e+00" itree="397">
      <Node pos="s" depth="0" NCoef="0" IVar="8" Cut="6.6669052839279175e-01" cType="1" res="-3.1958895851857960e-04" rms="1.8715795874595642e-01" purity="5.0134479999542236e-01" nType="0">
        <Node pos="l" depth="1" NCoef="0" IVar="1" Cut="2.7814484863281250e+03" cType="1" res="2.6051162276417017e-03" rms="1.8597340583801270e-01" purity="5.3497010469436646e-01" nType="0">
          <Node pos="l" depth="2" NCoef="0" IVar="3" Cut="8.6408062744140625e+02" cType="1" res="5.6805866770446301e-03" rms="2.2364951670169830e-01" purity="2.0845122635364532e-01" nType="0">
            <Node pos="l" depth="3" NCoef="0" IVar="-1" Cut="0.0000000000000000e+00" cType="1" res="9.0378904715180397e-03" rms="2.1527354419231415e-01" purity="1.9324852526187897e-01" nType="-99"/>
            <Node pos="r" depth="3" NCoef="0" IVar="-1" Cut="0.0000000000000000e+00" cType="1" res="2.5527941063046455e-02" rms="3.2849174737930298e-01" purity="4.5016026496887207e-01" nType="-99"/>
          </Node>
          <Node pos="r" depth="2" NCoef="0" IVar="5" Cut="2.6814059448242188e+02" cType="1" res="-1.6159436199814081e-03" rms="1.1564443260431290e-01" purity="9.8311465978622437e-01" nType="0">
            <Node pos="l" depth="3" NCoef="0" IVar="-1" Cut="0.0000000000000000e+00" cType="1" res="-3.2238535583019257e-02" rms="2.1057949960231781e-01" purity="9.3489795923233032e-01" nType="-99"/>
            <Node pos="r" depth="3" NCoef="0" IVar="-1" Cut="0.0000000000000000e+00" cType="1" res="5.5499994195997715e-03" rms="8.6301378905773163e-02" purity="9.9229997396469116e-01" nType="-99"/>
          </Node>
        </Node>
        <Node pos="r" depth="1" NCoef="0" IVar="9" Cut="-9.3300312757492065e-01" cType="1" res="-9.1715967282652855e-03" rms="1.9042479991912842e-01" purity="3.9957362413406372e-01" nType="0">
          <Node pos="l" depth="2" NCoef="0" IVar="-1" Cut="0.0000000000000000e+00" cType="1" res="-4.4224590063095093e-02" rms="2.1378684043884277e-01" purity="3.2549536228179932e-01" nType="-99"/>
          <Node pos="r" depth="2" NCoef="0" IVar="10" Cut="9.3256360292434692e-01" cType="1" res="-6.1728809960186481e-03" rms="1.8391899764537811e-01" purity="4.1832932829856873e-01" nType="0">
            <Node pos="l" depth="3" NCoef="0" IVar="-1" Cut="0.0000000000000000e+00" cType="1" res="-9.3205273151397705e-03" rms="1.8434596061706543e-01" purity="4.4573131203651428e-01" nType="-99"/>
            <Node pos="r" depth="3" NCoef="0" IVar="-1" Cut="0.0000000000000000e+00" cType="1" res="-3.4864436835050583e-02" rms="1.8252666294574738e-01" purity="3.4347710013389587e-01" nType="-99"/>
          </Node>
        </Node>
      </Node>
    </BinaryTree>
    <BinaryTree type="DecisionTree" boostWeight="1.0000000000000000e+00" itree="398">
      <Node pos="s" depth="0" NCoef="0" IVar="0" Cut="5.9425018310546875e+02" cType="1" res="5.3445971570909023e-04" rms="1.8845868110656738e-01" purity="4.9810189008712769e-01" nType="0">
        <Node pos="l" depth="1" NCoef="0" IVar="3" Cut="3.6174560546875000e+02" cType="1" res="4.7932085581123829e-03" rms="1.9778016209602356e-01" purity="1.0349600762128830e-01" nType="0">
          <Node pos="l" depth="2" NCoef="0" IVar="-1" Cut="0.0000000000000000e+00" cType="1" res="-5.0809651613235474e-02" rms="1.1669004708528519e-01" purity="1.3253744691610336e-02" nType="-99"/>
          <Node pos="r" depth="2" NCoef="0" IVar="4" Cut="2.3920532226562500e+02" cType="1" res="6.4558596350252628e-03" rms="2.0466485619544983e-01" purity="1.1340006440877914e-01" nType="0">
            <Node pos="l" depth="3" NCoef="0" IVar="-1" Cut="0.0000000000000000e+00" cType="1" res="-2.3441795259714127e-02" rms="8.1853024661540985e-02" purity="6.5929228439927101e-03" nType="-99"/>
            <Node pos="r" depth="3" NCoef="0" IVar="-1" Cut="0.0000000000000000e+00" cType="1" res="1.8848955631256104e-02" rms="2.3106761276721954e-01" purity="1.4841012656688690e-01" nType="-99"/>
          </Node>
        </Node>
        <Node pos="r" depth="1" NCoef="0" IVar="8" Cut="-1.1998893022537231e+00" cType="1" res="-2.3341642227023840e-03" rms="1.8185465037822723e-01" purity="7.6390200853347778e-01" nType="0">
          <Node pos="l" depth="2" NCoef="0" IVar="-1" Cut="0.0000000000000000e+00" cType="1" res="-3.3094819635152817e-02" rms="2.3252598941326141e-01" purity="5.5080097913742065e-01" nType="-99"/>
          <Node pos="r" depth="2" NCoef="0" IVar="9" Cut="-1.1996349096298218e+00" cType="1" res="-1.0119939688593149e-03" rms="1.7652967572212219e-01" purity="7.8305506706237793e-01" nType="0">
            <Node pos="l" depth="3" NCoef="0" IVar="-1" Cut="0.0000000000000000e+00" cType="1" res="1.8774123862385750e-02" rms="2.1570494771003723e-01" purity="7.1071112155914307e-01" nType="-99"/>
            <Node pos="r" depth="3" NCoef="0" IVar="-1" Cut="0.0000000000000000e+00" cType="1" res="-7.3945019394159317e-03" rms="1.7042636871337891e-01" purity="7.9295945167541504e-01" nType="-99"/>
          </Node>
        </Node>
      </Node>
    </BinaryTree>
    <BinaryTree type="DecisionTree" boostWeight="1.0000000000000000e+00" itree="399">
      <Node pos="s" depth="0" NCoef="0" IVar="7" Cut="9.3856668472290039e-01" cType="1" res="1.5529911033809185e-03" rms="1.8913443386554718e-01" purity="5.0114953517913818e-01" nType="0">
        <Node pos="l" depth="1" NCoef="0" IVar="10" Cut="1.7332413196563721e+00" cType="1" res="3.7641284870915115e-04" rms="1.8494826555252075e-01" purity="5.3370296955108643e-01" nType="0">
          <Node pos="l" depth="2" NCoef="0" IVar="10" Cut="-2.1523571014404297e+00" cType="1" res="1.1657534632831812e-03" rms="1.8126282095909119e-01" purity="5.4256308078765869e-01" nType="0">
            <Node pos="l" depth="3" NCoef="0" IVar="-1" Cut="0.0000000000000000e+00" cType="1" res="-1.9582463428378105e-02" rms="2.2280010581016541e-01" purity="3.6108827590942383e-01" nType="-99"/>
            <Node pos="r" depth="3" NCoef="0" IVar="-1" Cut="0.0000000000000000e+00" cType="1" res="4.9688904546201229e-03" rms="1.7943026125431061e-01" purity="5.4964822530746460e-01" nType="-99"/>
          </Node>
          <Node pos="r" depth="2" NCoef="0" IVar="9" Cut="1.3090273737907410e-01" cType="1" res="-9.0909451246261597e-03" rms="2.2426874935626984e-01" purity="4.2743530869483948e-01" nType="0">
            <Node pos="l" depth="3" NCoef="0" IVar="-1" Cut="0.0000000000000000e+00" cType="1" res="-7.3680100031197071e-03" rms="2.2634887695312500e-01" purity="4.8938596248626709e-01" nType="-99"/>
            <Node pos="r" depth="3" NCoef="0" IVar="-1" Cut="0.0000000000000000e+00" cType="1" res="-2.7155585587024689e-02" rms="2.2188834846019745e-01" purity="3.6149361729621887e-01" nType="-99"/>
          </Node>
        </Node>
        <Node pos="r" depth="1" NCoef="0" IVar="2" Cut="1.3548258692026138e-02" cType="1" res="9.3124574050307274e-03" rms="2.1454598009586334e-01" purity="2.8646144270896912e-01" nType="0">
          <Node pos="l" depth="2" NCoef="0" IVar="2" Cut="4.5166057534515858e-03" cType="1" res="1.0030763223767281e-04" rms="1.7628154158592224e-01" purity="1.2827721238136292e-01" nType="0">
            <Node pos="l" depth="3" NCoef="0" IVar="-1" Cut="0.0000000000000000e+00" cType="1" res="-3.2895088195800781e-02" rms="1.5567524731159210e-01" purity="6.8536639213562012e-02" nType="-99"/>
            <Node pos="r" depth="3" NCoef="0" IVar="-1" Cut="0.0000000000000000e+00" cType="1" res="2.1573288366198540e-02" rms="1.9137263298034668e-01" purity="1.7780803143978119e-01" nType="-99"/>
          </Node>
          <Node pos="r" depth="2" NCoef="0" IVar="6" Cut="1.3232841491699219e+02" cType="1" res="1.7593152821063995e-02" rms="2.4357302486896515e-01" purity="4.2865139245986938e-01" nType="0">
            <Node pos="l" depth="3" NCoef="0" IVar="-1" Cut="0.0000000000000000e+00" cType="1" res="5.8023978024721146e-02" rms="2.4214141070842743e-01" purity="2.0396411418914795e-01" nType="-99"/>
            <Node pos="r" depth="3" NCoef="0" IVar="-1" Cut="0.0000000000000000e+00" cType="1" res="1.1755392886698246e-02" rms="2.4438688158988953e-01" purity="6.3716840744018555e-01" nType="-99"/>
          </Node>
        </Node>
      </Node>
    </BinaryTree>
    <BinaryTree type="DecisionTree" boostWeight="1.0000000000000000e+00" itree="400">
      <Node pos="s" depth="0" NCoef="0" IVar="8" Cut="-6.6662615537643433e-01" cType="1" res="2.2109108977019787e-04" rms="1.8798606097698212e-01" purity="5.0033533573150635e-01" nType="0">
        <Node pos="l" depth="1" NCoef="0" IVar="1" Cut="2.5397485351562500e+03" cType="1" res="-6.7172837443649769e-03" rms="1.8781426548957825e-01" purity="4.1150707006454468e-01" nType="0">
          <Node pos="l" depth="2" NCoef="0" IVar="5" Cut="1.8180410766601562e+02" cType="1" res="-1.0724836960434914e-02" rms="2.0258724689483643e-01" purity="1.1161618679761887e-01" nType="0">
            <Node pos="l" depth="3" NCoef="0" IVar="-1" Cut="0.0000000000000000e+00" cType="1" res="-2.0066094584763050e-03" rms="1.4754897356033325e-01" purity="3.3754844218492508e-02" nType="-99"/>
            <Node pos="r" depth="3" NCoef="0" IVar="-1" Cut="0.0000000000000000e+00" cType="1" res="-3.3361714333295822e-02" rms="2.6612454652786255e-01" purity="2.3365516960620880e-01" nType="-99"/>
          </Node>
          <Node pos="r" depth="2" NCoef="0" IVar="7" Cut="-6.3377333572134376e-04" cType="1" res="7.0465030148625374e-04" rms="1.5655103325843811e-01" purity="9.6690082550048828e-01" nType="0">
            <Node pos="l" depth="3" NCoef="0" IVar="-1" Cut="0.0000000000000000e+00" cType="1" res="2.2840769961476326e-02" rms="1.4740560948848724e-01" purity="9.7141146659851074e-01" nType="-99"/>
            <Node pos="r" depth="3" NCoef="0" IVar="-1" Cut="0.0000000000000000e+00" cType="1" res="-2.0046513527631760e-02" rms="1.6560563445091248e-01" purity="9.6208250522613525e-01" nType="-99"/>
          </Node>
        </Node>
        <Node pos="r" depth="1" NCoef="0" IVar="0" Cut="5.9425677490234375e+02" cType="1" res="2.5616800412535667e-03" rms="1.8798623979091644e-01" purity="5.3030067682266235e-01" nType="0">
          <Node pos="l" depth="2" NCoef="0" IVar="1" Cut="1.9012196044921875e+03" cType="1" res="9.1196997091174126e-03" rms="2.0545373857021332e-01" purity="1.1243523657321930e-01" nType="0">
            <Node pos="l" depth="3" NCoef="0" IVar="-1" Cut="0.0000000000000000e+00" cType="1" res="1.9643321633338928e-02" rms="1.4990676939487457e-01" purity="2.7797140181064606e-02" nType="-99"/>
            <Node pos="r" depth="3" NCoef="0" IVar="-1" Cut="0.0000000000000000e+00" cType="1" res="2.5877362117171288e-02" rms="3.6266571283340454e-01" purity="4.9830883741378784e-01" nType="-99"/>
          </Node>
          <Node pos="r" depth="2" NCoef="0" IVar="8" Cut="8.1889986991882324e-01" cType="1" res="-1.3579226797446609e-03" rms="1.7660759389400482e-01" purity="7.8005081415176392e-01" nType="0">
            <Node pos="l" depth="3" NCoef="0" IVar="-1" Cut="0.0000000000000000e+00" cType="1" res="-1.1420096270740032e-02" rms="1.6280108690261841e-01" purity="8.1594830751419067e-01" nType="-99"/>
            <Node pos="r" depth="3" NCoef="0" IVar="-1" Cut="0.0000000000000000e+00" cType="1" res="9.8879914730787277e-03" rms="2.1692816913127899e-01" purity="6.5813988447189331e-01" nType="-99"/>
          </Node>
        </Node>
      </Node>
    </BinaryTree>
    <BinaryTree type="DecisionTree" boostWeight="1.0000000000000000e+00" itree="401">
      <Node pos="s" depth="0" NCoef="0" IVar="9" Cut="-1.4666321277618408e+00" cType="1" res="8.4680388681590557e-04" rms="1.8744091689586639e-01" purity="4.9654895067214966e-01" nType="0">
        <Node pos="l" depth="1" NCoef="0" IVar="1" Cut="1.6082918701171875e+03" cType="1" res="-9.7818104550242424e-03" rms="2.1692642569541931e-01" purity="3.2525694370269775e-01" nType="0">
          <Node pos="l" depth="2" NCoef="0" IVar="-1" Cut="0.0000000000000000e+00" cType="1" res="7.5543694198131561e-02" rms="1.3792936503887177e-01" purity="2.0845182240009308e-02" nType="-99"/>
          <Node pos="r" depth="2" NCoef="0" IVar="8" Cut="-1.3177870213985443e-01" cType="1" res="-2.0412478595972061e-02" rms="2.5075164437294006e-01" purity="5.0040251016616821e-01" nType="0">
            <Node pos="l" depth="3" NCoef="0" IVar="-1" Cut="0.0000000000000000e+00" cType="1" res="-2.0865416154265404e-02" rms="2.3975053429603577e-01" purity="4.9304312467575073e-01" nType="-99"/>
            <Node pos="r" depth="3" NCoef="0" IVar="-1" Cut="0.0000000000000000e+00" cType="1" res="-4.2036145925521851e-02" rms="2.6098430156707764e-01" purity="5.0769692659378052e-01" nType="-99"/>
          </Node>
        </Node>
        <Node pos="r" depth="1" NCoef="0" IVar="3" Cut="3.4607904052734375e+02" cType="1" res="1.8929449142888188e-03" rms="1.8425077199935913e-01" purity="5.1340872049331665e-01" nType="0">
          <Node pos="l" depth="2" NCoef="0" IVar="-1" Cut="0.0000000000000000e+00" cType="1" res="5.5121369659900665e-02" rms="1.8676790595054626e-01" purity="5.0238281488418579e-02" nType="-99"/>
          <Node pos="r" depth="2" NCoef="0" IVar="9" Cut="1.5869678556919098e-01" cType="1" res="1.2999051250517368e-03" rms="1.8410803377628326e-01" purity="5.3568214178085327e-01" nType="0">
            <Node pos="l" depth="3" NCoef="0" IVar="-1" Cut="0.0000000000000000e+00" cType="1" res="1.1441230773925781e-02" rms="1.8299469351768494e-01" purity="5.6311392784118652e-01" nType="-99"/>
            <Node pos="r" depth="3" NCoef="0" IVar="-1" Cut="0.0000000000000000e+00" cType="1" res="-3.5512836184352636e-03" rms="1.8522566556930542e-01" purity="5.0705128908157349e-01" nType="-99"/>
          </Node>
        </Node>
      </Node>
    </BinaryTree>
    <BinaryTree type="DecisionTree" boostWeight="1.0000000000000000e+00" itree="402">
      <Node pos="s" depth="0" NCoef="0" IVar="9" Cut="1.7331199645996094e+00" cType="1" res="1.6794260591268539e-03" rms="1.9142986834049225e-01" purity="4.9617007374763489e-01" nType="0">
        <Node pos="l" depth="1" NCoef="0" IVar="8" Cut="1.7333178520202637e+00" cType="1" res="6.6679302835837007e-04" rms="1.8799796700477600e-01" purity="5.0853472948074341e-01" nType="0">
          <Node pos="l" depth="2" NCoef="0" IVar="8" Cut="-1.2887781858444214e+00" cType="1" res="-2.0037200010847300e-04" rms="1.8478794395923615e-01" purity="5.2004003524780273e-01" nType="0">
            <Node pos="l" depth="3" NCoef="0" IVar="-1" Cut="0.0000000000000000e+00" cType="1" res="1.9677879288792610e-02" rms="2.1224726736545563e-01" purity="2.8016611933708191e-01" nType="-99"/>
            <Node pos="r" depth="3" NCoef="0" IVar="-1" Cut="0.0000000000000000e+00" cType="1" res="-3.6514881066977978e-03" rms="1.8137773871421814e-01" purity="5.4728424549102783e-01" nType="-99"/>
          </Node>
          <Node pos="r" depth="2" NCoef="0" IVar="-1" Cut="0.0000000000000000e+00" cType="1" res="4.3959893286228180e-02" rms="2.5366351008415222e-01" purity="2.2512808442115784e-01" nType="-99"/>
        </Node>
        <Node pos="r" depth="1" NCoef="0" IVar="2" Cut="1.6605397686362267e-02" cType="1" res="1.7562178894877434e-02" rms="2.3832952976226807e-01" purity="3.0223542451858521e-01" nType="0">
          <Node pos="l" depth="2" NCoef="0" IVar="-1" Cut="0.0000000000000000e+00" cType="1" res="4.0350803174078465e-03" rms="2.0315420627593994e-01" purity="1.3178153336048126e-01" nType="-99"/>
          <Node pos="r" depth="2" NCoef="0" IVar="-1" Cut="0.0000000000000000e+00" cType="1" res="4.8863146454095840e-02" rms="2.6054954528808594e-01" purity="4.2731812596321106e-01" nType="-99"/>
        </Node>
      </Node>
    </BinaryTree>
    <BinaryTree type="DecisionTree" boostWeight="1.0000000000000000e+00" itree="403">
      <Node pos="s" depth="0" NCoef="0" IVar="10" Cut="-1.7332684993743896e+00" cType="1" res="-1.2950773452757858e-05" rms="1.8957445025444031e-01" purity="4.9563744664192200e-01" nType="0">
        <Node pos="l" depth="1" NCoef="0" IVar="1" Cut="2.1040476074218750e+03" cType="1" res="1.5910830348730087e-02" rms="2.5151184201240540e-01" purity="4.0714597702026367e-01" nType="0">
          <Node pos="l" depth="2" NCoef="0" IVar="4" Cut="2.7235650634765625e+02" cType="1" res="3.2876987010240555e-02" rms="2.6244947314262390e-01" purity="1.0352782905101776e-01" nType="0">
            <Node pos="l" depth="3" NCoef="0" IVar="-1" Cut="0.0000000000000000e+00" cType="1" res="3.4539207816123962e-02" rms="1.6943804919719696e-01" purity="3.8021489977836609e-02" nType="-99"/>
            <Node pos="r" depth="3" NCoef="0" IVar="-1" Cut="0.0000000000000000e+00" cType="1" res="8.6613245308399200e-02" rms="3.2756051421165466e-01" purity="1.6812971234321594e-01" nType="-99"/>
          </Node>
          <Node pos="r" depth="2" NCoef="0" IVar="-1" Cut="0.0000000000000000e+00" cType="1" res="-1.8657244741916656e-02" rms="2.3145042359828949e-01" purity="8.7050747871398926e-01" nType="-99"/>
        </Node>
        <Node pos="r" depth="1" NCoef="0" IVar="6" Cut="1.8470046997070312e+02" cType="1" res="-1.4905364951118827e-03" rms="1.8269573152065277e-01" purity="5.0384867191314697e-01" nType="0">
          <Node pos="l" depth="2" NCoef="0" IVar="7" Cut="-1.3486800193786621e+00" cType="1" res="-3.3859719987958670e-03" rms="1.9819724559783936e-01" purity="2.8847667574882507e-01" nType="0">
            <Node pos="l" depth="3" NCoef="0" IVar="-1" Cut="0.0000000000000000e+00" cType="1" res="3.8999997079372406e-02" rms="1.9360846281051636e-01" purity="8.4059700369834900e-02" nType="-99"/>
            <Node pos="r" depth="3" NCoef="0" IVar="-1" Cut="0.0000000000000000e+00" cType="1" res="-1.0785772465169430e-02" rms="1.9850942492485046e-01" purity="3.0454993247985840e-01" nType="-99"/>
          </Node>
          <Node pos="r" depth="2" NCoef="0" IVar="1" Cut="2.8898393554687500e+03" cType="1" res="2.2098922636359930e-03" rms="1.4774954319000244e-01" purity="9.2431604862213135e-01" nType="0">
            <Node pos="l" depth="3" NCoef="0" IVar="-1" Cut="0.0000000000000000e+00" cType="1" res="1.1107864789664745e-02" rms="2.6690599322319031e-01" purity="7.2379851341247559e-01" nType="-99"/>
            <Node pos="r" depth="3" NCoef="0" IVar="-1" Cut="0.0000000000000000e+00" cType="1" res="-2.4488195776939392e-03" rms="6.5023370087146759e-02" purity="9.9566775560379028e-01" nType="-99"/>
          </Node>
        </Node>
      </Node>
    </BinaryTree>
    <BinaryTree type="DecisionTree" boostWeight="1.0000000000000000e+00" itree="404">
      <Node pos="s" depth="0" NCoef="0" IVar="2" Cut="4.2731497436761856e-02" cType="1" res="-2.0660142763517797e-04" rms="1.8717733025550842e-01" purity="5.0180745124816895e-01" nType="0">
        <Node pos="l" depth="1" NCoef="0" IVar="7" Cut="-9.2239075899124146e-01" cType="1" res="-2.5952451396733522e-03" rms="1.9038596749305725e-01" purity="3.2364183664321899e-01" nType="0">
          <Node pos="l" depth="2" NCoef="0" IVar="8" Cut="-6.6504508256912231e-01" cType="1" res="5.1431315951049328e-03" rms="1.9109286367893219e-01" purity="1.7076718807220459e-01" nType="0">
            <Node pos="l" depth="3" NCoef="0" IVar="-1" Cut="0.0000000000000000e+00" cType="1" res="-2.9857920482754707e-02" rms="1.7763374745845795e-01" purity="1.4553818106651306e-01" nType="-99"/>
            <Node pos="r" depth="3" NCoef="0" IVar="-1" Cut="0.0000000000000000e+00" cType="1" res="3.0819866806268692e-02" rms="1.9559682905673981e-01" purity="1.8029390275478363e-01" nType="-99"/>
          </Node>
          <Node pos="r" depth="2" NCoef="0" IVar="7" Cut="-7.4519503116607666e-01" cType="1" res="-4.3377722613513470e-03" rms="1.9018299877643585e-01" purity="3.5806614160537720e-01" nType="0">
            <Node pos="l" depth="3" NCoef="0" IVar="-1" Cut="0.0000000000000000e+00" cType="1" res="-6.5099053084850311e-02" rms="1.8659116327762604e-01" purity="2.9055851697921753e-01" nType="-99"/>
            <Node pos="r" depth="3" NCoef="0" IVar="-1" Cut="0.0000000000000000e+00" cType="1" res="-7.2647882625460625e-03" rms="1.9031740725040436e-01" purity="3.6243456602096558e-01" nType="-99"/>
          </Node>
        </Node>
        <Node pos="r" depth="1" NCoef="0" IVar="4" Cut="3.5209082031250000e+02" cType="1" res="2.7267017867416143e-03" rms="1.8311753869056702e-01" purity="7.2059851884841919e-01" nType="0">
          <Node pos="l" depth="2" NCoef="0" IVar="2" Cut="6.0155998915433884e-02" cType="1" res="1.1986166238784790e-02" rms="2.4029658734798431e-01" purity="2.0803959667682648e-01" nType="0">
            <Node pos="l" depth="3" NCoef="0" IVar="-1" Cut="0.0000000000000000e+00" cType="1" res="-1.2020137161016464e-02" rms="2.1041534841060638e-01" purity="1.5613144636154175e-01" nType="-99"/>
            <Node pos="r" depth="3" NCoef="0" IVar="-1" Cut="0.0000000000000000e+00" cType="1" res="3.5578373819589615e-02" rms="2.5331193208694458e-01" purity="2.3362281918525696e-01" nType="-99"/>
          </Node>
          <Node pos="r" depth="2" NCoef="0" IVar="1" Cut="2.2413117675781250e+03" cType="1" res="-6.7960657179355621e-04" rms="1.5678817033767700e-01" purity="9.0915524959564209e-01" nType="0">
            <Node pos="l" depth="3" NCoef="0" IVar="-1" Cut="0.0000000000000000e+00" cType="1" res="-1.9845193251967430e-02" rms="3.3058980107307434e-01" purity="2.4681416153907776e-01" nType="-99"/>
            <Node pos="r" depth="3" NCoef="0" IVar="-1" Cut="0.0000000000000000e+00" cType="1" res="1.0266867466270924e-02" rms="1.2340536713600159e-01" purity="9.8185461759567261e-01" nType="-99"/>
          </Node>
        </Node>
      </Node>
    </BinaryTree>
    <BinaryTree type="DecisionTree" boostWeight="1.0000000000000000e+00" itree="405">
      <Node pos="s" depth="0" NCoef="0" IVar="10" Cut="-1.9999412298202515e+00" cType="1" res="-2.2379170695785433e-04" rms="1.8697561323642731e-01" purity="4.9720007181167603e-01" nType="0">
        <Node pos="l" depth="1" NCoef="0" IVar="-1" Cut="0.0000000000000000e+00" cType="1" res="-2.0633094012737274e-02" rms="2.1735931932926178e-01" purity="3.3998319506645203e-01" nType="-99"/>
        <Node pos="r" depth="1" NCoef="0" IVar="10" Cut="2.1142678260803223e+00" cType="1" res="3.6762363743036985e-04" rms="1.8525555729866028e-01" purity="5.0530230998992920e-01" nType="0">
          <Node pos="l" depth="2" NCoef="0" IVar="10" Cut="-1.6080918312072754e+00" cType="1" res="8.0229691229760647e-04" rms="1.8281139433383942e-01" purity="5.1153767108917236e-01" nType="0">
            <Node pos="l" depth="3" NCoef="0" IVar="-1" Cut="0.0000000000000000e+00" cType="1" res="2.2206643596291542e-02" rms="2.1080656349658966e-01" purity="4.8335444927215576e-01" nType="-99"/>
            <Node pos="r" depth="3" NCoef="0" IVar="-1" Cut="0.0000000000000000e+00" cType="1" res="8.9643121464177966e-04" rms="1.8108528852462769e-01" purity="5.1313221454620361e-01" nType="-99"/>
          </Node>
          <Node pos="r" depth="2" NCoef="0" IVar="-1" Cut="0.0000000000000000e+00" cType="1" res="-1.9944524392485619e-02" rms="2.3746649920940399e-01" purity="3.5149815678596497e-01" nType="-99"/>
        </Node>
      </Node>
    </BinaryTree>
    <BinaryTree type="DecisionTree" boostWeight="1.0000000000000000e+00" itree="406">
      <Node pos="s" depth="0" NCoef="0" IVar="10" Cut="1.9999411106109619e+00" cType="1" res="-3.2706832280382514e-04" rms="1.8806216120719910e-01" purity="5.0218355655670166e-01" nType="0">
        <Node pos="l" depth="1" NCoef="0" IVar="10" Cut="-1.8856980800628662e+00" cType="1" res="-1.0584908304736018e-03" rms="1.8345256149768829e-01" purity="5.0641816854476929e-01" nType="0">
          <Node pos="l" depth="2" NCoef="0" IVar="3" Cut="6.6517187500000000e+02" cType="1" res="-1.3028406538069248e-02" rms="2.2266721725463867e-01" purity="3.7097999453544617e-01" nType="0">
            <Node pos="l" depth="3" NCoef="0" IVar="-1" Cut="0.0000000000000000e+00" cType="1" res="-3.6252401769161224e-02" rms="2.2466714680194855e-01" purity="1.7524808645248413e-01" nType="-99"/>
            <Node pos="r" depth="3" NCoef="0" IVar="-1" Cut="0.0000000000000000e+00" cType="1" res="-5.0358143635094166e-03" rms="2.1944355964660645e-01" purity="6.4137023687362671e-01" nType="-99"/>
          </Node>
          <Node pos="r" depth="2" NCoef="0" IVar="10" Cut="-1.5156372785568237e+00" cType="1" res="-2.6043140678666532e-04" rms="1.8050718307495117e-01" purity="5.1544809341430664e-01" nType="0">
            <Node pos="l" depth="3" NCoef="0" IVar="-1" Cut="0.0000000000000000e+00" cType="1" res="2.3899186402559280e-02" rms="2.2911755740642548e-01" purity="4.7233495116233826e-01" nType="-99"/>
            <Node pos="r" depth="3" NCoef="0" IVar="-1" Cut="0.0000000000000000e+00" cType="1" res="-2.9173230286687613e-03" rms="1.7707687616348267e-01" purity="5.1808488368988037e-01" nType="-99"/>
          </Node>
        </Node>
        <Node pos="r" depth="1" NCoef="0" IVar="-1" Cut="0.0000000000000000e+00" cType="1" res="2.4535076692700386e-02" rms="2.6119115948677063e-01" purity="4.2042681574821472e-01" nType="-99"/>
      </Node>
    </BinaryTree>
    <BinaryTree type="DecisionTree" boostWeight="1.0000000000000000e+00" itree="407">
      <Node pos="s" depth="0" NCoef="0" IVar="9" Cut="-1.7332884073257446e+00" cType="1" res="2.6085760327987373e-04" rms="1.8778119981288910e-01" purity="5.0503921508789062e-01" nType="0">
        <Node pos="l" depth="1" NCoef="0" IVar="1" Cut="1.6584841308593750e+03" cType="1" res="-1.5951229259371758e-02" rms="2.0221789181232452e-01" purity="2.8125053644180298e-01" nType="0">
          <Node pos="l" depth="2" NCoef="0" IVar="-1" Cut="0.0000000000000000e+00" cType="1" res="-2.6357170194387436e-02" rms="1.1212923377752304e-01" purity="1.3152959756553173e-02" nType="-99"/>
          <Node pos="r" depth="2" NCoef="0" IVar="-1" Cut="0.0000000000000000e+00" cType="1" res="-3.8382254540920258e-02" rms="2.5630533695220947e-01" purity="5.1818883419036865e-01" nType="-99"/>
        </Node>
        <Node pos="r" depth="1" NCoef="0" IVar="7" Cut="-1.4543080329895020e+00" cType="1" res="1.2270663864910603e-03" rms="1.8684118986129761e-01" purity="5.1837664842605591e-01" nType="0">
          <Node pos="l" depth="2" NCoef="0" IVar="-1" Cut="0.0000000000000000e+00" cType="1" res="-4.5300431549549103e-02" rms="1.4967624843120575e-01" purity="9.8245061933994293e-02" nType="-99"/>
          <Node pos="r" depth="2" NCoef="0" IVar="9" Cut="1.9363816976547241e+00" cType="1" res="1.8741153180599213e-03" rms="1.8824358284473419e-01" purity="5.3638905286788940e-01" nType="0">
            <Node pos="l" depth="3" NCoef="0" IVar="-1" Cut="0.0000000000000000e+00" cType="1" res="3.2784552313387394e-03" rms="1.8517254292964935e-01" purity="5.4788529872894287e-01" nType="-99"/>
            <Node pos="r" depth="3" NCoef="0" IVar="-1" Cut="0.0000000000000000e+00" cType="1" res="2.9735200107097626e-02" rms="2.4880154430866241e-01" purity="2.6817294955253601e-01" nType="-99"/>
          </Node>
        </Node>
      </Node>
    </BinaryTree>
    <BinaryTree type="DecisionTree" boostWeight="1.0000000000000000e+00" itree="408">
      <Node pos="s" depth="0" NCoef="0" IVar="9" Cut="1.7332328557968140e+00" cType="1" res="-4.2579075670801103e-04" rms="1.8883216381072998e-01" purity="5.0331777334213257e-01" nType="0">
        <Node pos="l" depth="1" NCoef="0" IVar="8" Cut="1.4666806459426880e+00" cType="1" res="3.6695823655463755e-04" rms="1.8701528012752533e-01" purity="5.1701545715332031e-01" nType="0">
          <Node pos="l" depth="2" NCoef="0" IVar="9" Cut="-1.7205376625061035e+00" cType="1" res="-4.5575542026199400e-04" rms="1.8112583458423615e-01" purity="5.3489732742309570e-01" nType="0">
            <Node pos="l" depth="3" NCoef="0" IVar="-1" Cut="0.0000000000000000e+00" cType="1" res="2.4946371093392372e-02" rms="2.3978130519390106e-01" purity="3.1585964560508728e-01" nType="-99"/>
            <Node pos="r" depth="3" NCoef="0" IVar="-1" Cut="0.0000000000000000e+00" cType="1" res="-3.8026587571948767e-03" rms="1.7653056979179382e-01" purity="5.4938513040542603e-01" nType="-99"/>
          </Node>
          <Node pos="r" depth="2" NCoef="0" IVar="9" Cut="-2.0982326567173004e-01" cType="1" res="1.1626629158854485e-02" rms="2.5399208068847656e-01" purity="2.7228364348411560e-01" nType="0">
            <Node pos="l" depth="3" NCoef="0" IVar="-1" Cut="0.0000000000000000e+00" cType="1" res="-2.6204837486147881e-02" rms="2.2980162501335144e-01" purity="2.4796877801418304e-01" nType="-99"/>
            <Node pos="r" depth="3" NCoef="0" IVar="-1" Cut="0.0000000000000000e+00" cType="1" res="5.9763427823781967e-02" rms="2.7091589570045471e-01" purity="2.9273065924644470e-01" nType="-99"/>
          </Node>
        </Node>
        <Node pos="r" depth="1" NCoef="0" IVar="2" Cut="1.6605792567133904e-02" cType="1" res="-1.2986561283469200e-02" rms="2.1519690752029419e-01" purity="2.8628376126289368e-01" nType="0">
          <Node pos="l" depth="2" NCoef="0" IVar="-1" Cut="0.0000000000000000e+00" cType="1" res="-5.2534746937453747e-03" rms="1.9938336312770844e-01" purity="1.4400300383567810e-01" nType="-99"/>
          <Node pos="r" depth="2" NCoef="0" IVar="-1" Cut="0.0000000000000000e+00" cType="1" res="-3.9524581283330917e-02" rms="2.2580698132514954e-01" purity="3.9084371924400330e-01" nType="-99"/>
        </Node>
      </Node>
    </BinaryTree>
    <BinaryTree type="DecisionTree" boostWeight="1.0000000000000000e+00" itree="409">
      <Node pos="s" depth="0" NCoef="0" IVar="7" Cut="1.2231150865554810e+00" cType="1" res="1.5120093303266913e-04" rms="1.8866695463657379e-01" purity="4.9957749247550964e-01" nType="0">
        <Node pos="l" depth="1" NCoef="0" IVar="8" Cut="-1.3329948484897614e-01" cType="1" res="1.0357062565162778e-03" rms="1.8900871276855469e-01" purity="5.2597200870513916e-01" nType="0">
          <Node pos="l" depth="2" NCoef="0" IVar="6" Cut="1.2492407226562500e+02" cType="1" res="5.3701680153608322e-03" rms="1.9464653730392456e-01" purity="5.2266305685043335e-01" nType="0">
            <Node pos="l" depth="3" NCoef="0" IVar="-1" Cut="0.0000000000000000e+00" cType="1" res="2.9229942709207535e-02" rms="2.0799012482166290e-01" purity="2.2549222409725189e-01" nType="-99"/>
            <Node pos="r" depth="3" NCoef="0" IVar="-1" Cut="0.0000000000000000e+00" cType="1" res="-1.5832502394914627e-03" rms="1.8183729052543640e-01" purity="7.8528547286987305e-01" nType="-99"/>
          </Node>
          <Node pos="r" depth="2" NCoef="0" IVar="1" Cut="2.5023830566406250e+03" cType="1" res="-2.4325367994606495e-03" rms="1.8430003523826599e-01" purity="5.2861970663070679e-01" nType="0">
            <Node pos="l" depth="3" NCoef="0" IVar="-1" Cut="0.0000000000000000e+00" cType="1" res="-1.2427628971636295e-02" rms="2.1391859650611877e-01" purity="1.1294725537300110e-01" nType="-99"/>
            <Node pos="r" depth="3" NCoef="0" IVar="-1" Cut="0.0000000000000000e+00" cType="1" res="5.8605582453310490e-03" rms="1.4639846980571747e-01" purity="9.6940577030181885e-01" nType="-99"/>
          </Node>
        </Node>
        <Node pos="r" depth="1" NCoef="0" IVar="8" Cut="-4.0186446905136108e-01" cType="1" res="-1.0992528870701790e-02" rms="1.8394310772418976e-01" purity="1.6703777015209198e-01" nType="0">
          <Node pos="l" depth="2" NCoef="0" IVar="-1" Cut="0.0000000000000000e+00" cType="1" res="-6.5499275922775269e-02" rms="1.7308618128299713e-01" purity="1.1833270639181137e-01" nType="-99"/>
          <Node pos="r" depth="2" NCoef="0" IVar="-1" Cut="0.0000000000000000e+00" cType="1" res="-8.1876711919903755e-03" rms="1.8993838131427765e-01" purity="1.9707500934600830e-01" nType="-99"/>
        </Node>
      </Node>
    </BinaryTree>
    <BinaryTree type="DecisionTree" boostWeight="1.0000000000000000e+00" itree="410">
      <Node pos="s" depth="0" NCoef="0" IVar="8" Cut="1.4664943218231201e+00" cType="1" res="6.7708210553973913e-04" rms="1.8819010257720947e-01" purity="5.0394833087921143e-01" nType="0">
        <Node pos="l" depth="1" NCoef="0" IVar="6" Cut="2.2960089111328125e+02" cType="1" res="1.7489221645519137e-03" rms="1.8627420067787170e-01" purity="5.2598661184310913e-01" nType="0">
          <Node pos="l" depth="2" NCoef="0" IVar="1" Cut="1.6762941894531250e+03" cType="1" res="3.2553176861256361e-03" rms="2.0371259748935699e-01" purity="3.8141030073165894e-01" nType="0">
            <Node pos="l" depth="3" NCoef="0" IVar="-1" Cut="0.0000000000000000e+00" cType="1" res="-1.9581080414354801e-03" rms="9.9029861390590668e-02" purity="1.0685180313885212e-02" nType="-99"/>
            <Node pos="r" depth="3" NCoef="0" IVar="-1" Cut="0.0000000000000000e+00" cType="1" res="8.5598900914192200e-03" rms="2.4895042181015015e-01" purity="6.2110018730163574e-01" nType="-99"/>
          </Node>
          <Node pos="r" depth="2" NCoef="0" IVar="5" Cut="3.9325070190429688e+02" cType="1" res="-2.8688898310065269e-03" rms="1.1756829917430878e-01" purity="9.6918106079101562e-01" nType="0">
            <Node pos="l" depth="3" NCoef="0" IVar="-1" Cut="0.0000000000000000e+00" cType="1" res="-2.6836076751351357e-02" rms="1.7529474198818207e-01" purity="9.2398369312286377e-01" nType="-99"/>
            <Node pos="r" depth="3" NCoef="0" IVar="-1" Cut="0.0000000000000000e+00" cType="1" res="1.4153302647173405e-02" rms="6.0781348496675491e-02" purity="9.9617159366607666e-01" nType="-99"/>
          </Node>
        </Node>
        <Node pos="r" depth="1" NCoef="0" IVar="1" Cut="1.6098590087890625e+03" cType="1" res="-1.3056488707661629e-02" rms="2.1072450280189514e-01" purity="2.2157000005245209e-01" nType="0">
          <Node pos="l" depth="2" NCoef="0" IVar="-1" Cut="0.0000000000000000e+00" cType="1" res="-9.8249306902289391e-03" rms="9.3492493033409119e-02" purity="9.3841534107923508e-03" nType="-99"/>
          <Node pos="r" depth="2" NCoef="0" IVar="-1" Cut="0.0000000000000000e+00" cType="1" res="-3.2952282577753067e-02" rms="2.7968102693557739e-01" purity="4.2438611388206482e-01" nType="-99"/>
        </Node>
      </Node>
    </BinaryTree>
    <BinaryTree type="DecisionTree" boostWeight="1.0000000000000000e+00" itree="411">
      <Node pos="s" depth="0" NCoef="0" IVar="10" Cut="2.2666387557983398e+00" cType="1" res="-1.2569886166602373e-04" rms="1.8748730421066284e-01" purity="5.0006663799285889e-01" nType="0">
        <Node pos="l" depth="1" NCoef="0" IVar="8" Cut="1.4666789770126343e+00" cType="1" res="3.0309724388644099e-04" rms="1.8591023981571198e-01" purity="5.0488406419754028e-01" nType="0">
          <Node pos="l" depth="2" NCoef="0" IVar="8" Cut="-1.5807934999465942e+00" cType="1" res="9.2867319472134113e-04" rms="1.8346467614173889e-01" purity="5.2488374710083008e-01" nType="0">
            <Node pos="l" depth="3" NCoef="0" IVar="-1" Cut="0.0000000000000000e+00" cType="1" res="-2.2802613675594330e-02" rms="1.9281429052352905e-01" purity="2.0149312913417816e-01" nType="-99"/>
            <Node pos="r" depth="3" NCoef="0" IVar="-1" Cut="0.0000000000000000e+00" cType="1" res="4.8005809076130390e-03" rms="1.8279300630092621e-01" purity="5.4671597480773926e-01" nType="-99"/>
          </Node>
          <Node pos="r" depth="2" NCoef="0" IVar="4" Cut="2.5485287475585938e+02" cType="1" res="-7.9147247597575188e-03" rms="2.1530547738075256e-01" purity="2.4215954542160034e-01" nType="0">
            <Node pos="l" depth="3" NCoef="0" IVar="-1" Cut="0.0000000000000000e+00" cType="1" res="2.7558973059058189e-02" rms="1.8367245793342590e-01" purity="8.2630455493927002e-02" nType="-99"/>
            <Node pos="r" depth="3" NCoef="0" IVar="-1" Cut="0.0000000000000000e+00" cType="1" res="-3.2540641725063324e-02" rms="2.3145623505115509e-01" purity="3.3699709177017212e-01" nType="-99"/>
          </Node>
        </Node>
        <Node pos="r" depth="1" NCoef="0" IVar="-1" Cut="0.0000000000000000e+00" cType="1" res="-2.9192119836807251e-02" rms="2.3741643130779266e-01" purity="3.2445785403251648e-01" nType="-99"/>
      </Node>
    </BinaryTree>
    <BinaryTree type="DecisionTree" boostWeight="1.0000000000000000e+00" itree="412">
      <Node pos="s" depth="0" NCoef="0" IVar="9" Cut="-3.9995425939559937e-01" cType="1" res="1.5320300590246916e-03" rms="1.9046702980995178e-01" purity="5.0058913230895996e-01" nType="0">
        <Node pos="l" depth="1" NCoef="0" IVar="8" Cut="-1.4663839340209961e+00" cType="1" res="5.1956959068775177e-03" rms="2.0156691968441010e-01" purity="4.7891458868980408e-01" nType="0">
          <Node pos="l" depth="2" NCoef="0" IVar="-1" Cut="0.0000000000000000e+00" cType="1" res="5.2342317998409271e-02" rms="2.3834098875522614e-01" purity="2.4150951206684113e-01" nType="-99"/>
          <Node pos="r" depth="2" NCoef="0" IVar="8" Cut="-2.4726314842700958e-01" cType="1" res="3.5828512627631426e-03" rms="1.9796669483184814e-01" purity="4.9954628944396973e-01" nType="0">
            <Node pos="l" depth="3" NCoef="0" IVar="-1" Cut="0.0000000000000000e+00" cType="1" res="-9.6908025443553925e-03" rms="1.8464925885200500e-01" purity="4.6756872534751892e-01" nType="-99"/>
            <Node pos="r" depth="3" NCoef="0" IVar="-1" Cut="0.0000000000000000e+00" cType="1" res="1.8880235031247139e-02" rms="2.0500257611274719e-01" purity="5.1761323213577271e-01" nType="-99"/>
          </Node>
        </Node>
        <Node pos="r" depth="1" NCoef="0" IVar="10" Cut="3.9986109733581543e-01" cType="1" res="-5.7368300622329116e-04" rms="1.8375110626220703e-01" purity="5.1304674148559570e-01" nType="0">
          <Node pos="l" depth="2" NCoef="0" IVar="6" Cut="8.5454612731933594e+01" cType="1" res="2.4795073550194502e-03" rms="1.8463584780693054e-01" purity="5.3208607435226440e-01" nType="0">
            <Node pos="l" depth="3" NCoef="0" IVar="-1" Cut="0.0000000000000000e+00" cType="1" res="-2.4226173758506775e-02" rms="1.6292427480220795e-01" purity="1.4324705302715302e-01" nType="-99"/>
            <Node pos="r" depth="3" NCoef="0" IVar="-1" Cut="0.0000000000000000e+00" cType="1" res="1.5731574967503548e-02" rms="1.9114007055759430e-01" purity="6.6017544269561768e-01" nType="-99"/>
          </Node>
          <Node pos="r" depth="2" NCoef="0" IVar="4" Cut="4.6810531616210938e+02" cType="1" res="-5.3174686618149281e-03" rms="1.8226651847362518e-01" purity="4.8346501588821411e-01" nType="0">
            <Node pos="l" depth="3" NCoef="0" IVar="-1" Cut="0.0000000000000000e+00" cType="1" res="-2.3066053166985512e-02" rms="1.9296775758266449e-01" purity="2.0889720320701599e-01" nType="-99"/>
            <Node pos="r" depth="3" NCoef="0" IVar="-1" Cut="0.0000000000000000e+00" cType="1" res="4.6991310082376003e-03" rms="1.6442263126373291e-01" purity="9.0149247646331787e-01" nType="-99"/>
          </Node>
        </Node>
      </Node>
    </BinaryTree>
    <BinaryTree type="DecisionTree" boostWeight="1.0000000000000000e+00" itree="413">
      <Node pos="s" depth="0" NCoef="0" IVar="7" Cut="-8.3268737792968750e-01" cType="1" res="-3.5992352059110999e-04" rms="1.8799154460430145e-01" purity="5.0037306547164917e-01" nType="0">
        <Node pos="l" depth="1" NCoef="0" IVar="7" Cut="-1.1785886287689209e+00" cType="1" res="7.5859678909182549e-03" rms="2.0167593657970428e-01" purity="3.0521348118782043e-01" nType="0">
          <Node pos="l" depth="2" NCoef="0" IVar="1" Cut="1.7604958496093750e+03" cType="1" res="-5.1565249450504780e-03" rms="1.7713607847690582e-01" purity="1.7963203787803650e-01" nType="0">
            <Node pos="l" depth="3" NCoef="0" IVar="-1" Cut="0.0000000000000000e+00" cType="1" res="3.2363913953304291e-02" rms="1.2329293042421341e-01" purity="1.6309898346662521e-02" nType="-99"/>
            <Node pos="r" depth="3" NCoef="0" IVar="-1" Cut="0.0000000000000000e+00" cType="1" res="-2.8907833620905876e-02" rms="2.4653659760951996e-01" purity="4.8070415854454041e-01" nType="-99"/>
          </Node>
          <Node pos="r" depth="2" NCoef="0" IVar="8" Cut="4.0256446599960327e-01" cType="1" res="2.1436292678117752e-02" rms="2.2451959550380707e-01" purity="4.4171300530433655e-01" nType="0">
            <Node pos="l" depth="3" NCoef="0" IVar="-1" Cut="0.0000000000000000e+00" cType="1" res="2.3372553288936615e-02" rms="1.9304950535297394e-01" purity="4.4816973805427551e-01" nType="-99"/>
            <Node pos="r" depth="3" NCoef="0" IVar="-1" Cut="0.0000000000000000e+00" cType="1" res="8.2972630858421326e-02" rms="2.7353349328041077e-01" purity="4.2927619814872742e-01" nType="-99"/>
          </Node>
        </Node>
        <Node pos="r" depth="1" NCoef="0" IVar="7" Cut="-1.4089784026145935e-01" cType="1" res="-1.8644253723323345e-03" rms="1.8524836003780365e-01" purity="5.3732526302337646e-01" nType="0">
          <Node pos="l" depth="2" NCoef="0" IVar="1" Cut="2.7814619140625000e+03" cType="1" res="-6.0228812508285046e-03" rms="1.7866472899913788e-01" purity="5.8410340547561646e-01" nType="0">
            <Node pos="l" depth="3" NCoef="0" IVar="-1" Cut="0.0000000000000000e+00" cType="1" res="-2.4469751864671707e-02" rms="2.2438855469226837e-01" purity="2.2345849871635437e-01" nType="-99"/>
            <Node pos="r" depth="3" NCoef="0" IVar="-1" Cut="0.0000000000000000e+00" cType="1" res="1.1477234773337841e-02" rms="1.0600240528583527e-01" purity="9.8686230182647705e-01" nType="-99"/>
          </Node>
          <Node pos="r" depth="2" NCoef="0" IVar="9" Cut="1.7321882247924805e+00" cType="1" res="9.9983044492546469e-05" rms="1.8824639916419983e-01" purity="5.1522779464721680e-01" nType="0">
            <Node pos="l" depth="3" NCoef="0" IVar="-1" Cut="0.0000000000000000e+00" cType="1" res="2.7121347375214100e-03" rms="1.8683433532714844e-01" purity="5.2881395816802979e-01" nType="-99"/>
            <Node pos="r" depth="3" NCoef="0" IVar="-1" Cut="0.0000000000000000e+00" cType="1" res="-2.7838269248604774e-02" rms="2.1054632961750031e-01" purity="2.8114166855812073e-01" nType="-99"/>
          </Node>
        </Node>
      </Node>
    </BinaryTree>
    <BinaryTree type="DecisionTree" boostWeight="1.0000000000000000e+00" itree="414">
      <Node pos="s" depth="0" NCoef="0" IVar="0" Cut="5.9424890136718750e+02" cType="1" res="-2.2470487747341394e-03" rms="1.8143719434738159e-01" purity="5.0062328577041626e-01" nType="0">
        <Node pos="l" depth="1" NCoef="0" IVar="1" Cut="1.6111329345703125e+03" cType="1" res="-7.0536429993808270e-03" rms="1.7831408977508545e-01" purity="9.3362674117088318e-02" nType="0">
          <Node pos="l" depth="2" NCoef="0" IVar="2" Cut="5.2313689142465591e-02" cType="1" res="-2.2349478676915169e-03" rms="7.9733401536941528e-02" purity="6.7946841008961201e-03" nType="0">
            <Node pos="l" depth="3" NCoef="0" IVar="-1" Cut="0.0000000000000000e+00" cType="1" res="-5.1867660135030746e-02" rms="6.1271179467439651e-02" purity="3.9928420446813107e-03" nType="-99"/>
            <Node pos="r" depth="3" NCoef="0" IVar="-1" Cut="0.0000000000000000e+00" cType="1" res="3.6968078464269638e-02" rms="1.2924551963806152e-01" purity="1.7995430156588554e-02" nType="-99"/>
          </Node>
          <Node pos="r" depth="2" NCoef="0" IVar="8" Cut="-6.6493999958038330e-01" cType="1" res="-1.3471006415784359e-02" rms="2.5612863898277283e-01" purity="2.0865076780319214e-01" nType="0">
            <Node pos="l" depth="3" NCoef="0" IVar="-1" Cut="0.0000000000000000e+00" cType="1" res="2.2610065061599016e-03" rms="2.6959338784217834e-01" purity="2.0412479341030121e-01" nType="-99"/>
            <Node pos="r" depth="3" NCoef="0" IVar="-1" Cut="0.0000000000000000e+00" cType="1" res="-2.5796558707952499e-02" rms="2.5005137920379639e-01" purity="2.1053084731101990e-01" nType="-99"/>
          </Node>
        </Node>
        <Node pos="r" depth="1" NCoef="0" IVar="8" Cut="6.6669827699661255e-01" cType="1" res="9.1328553389757872e-04" rms="1.8339303135871887e-01" purity="7.6839703321456909e-01" nType="0">
          <Node pos="l" depth="2" NCoef="0" IVar="6" Cut="1.5695979309082031e+02" cType="1" res="-1.0293545201420784e-03" rms="1.7510710656642914e-01" purity="7.8519725799560547e-01" nType="0">
            <Node pos="l" depth="3" NCoef="0" IVar="-1" Cut="0.0000000000000000e+00" cType="1" res="-1.1582287959754467e-02" rms="2.2672511637210846e-01" purity="5.3276747465133667e-01" nType="-99"/>
            <Node pos="r" depth="3" NCoef="0" IVar="-1" Cut="0.0000000000000000e+00" cType="1" res="1.5679668635129929e-02" rms="1.2307445704936981e-01" purity="9.7364372014999390e-01" nType="-99"/>
          </Node>
          <Node pos="r" depth="2" NCoef="0" IVar="5" Cut="1.4811340332031250e+02" cType="1" res="7.3429546318948269e-03" rms="2.0835262537002563e-01" purity="7.1279221773147583e-01" nType="0">
            <Node pos="l" depth="3" NCoef="0" IVar="-1" Cut="0.0000000000000000e+00" cType="1" res="4.9753289669752121e-02" rms="2.2337597608566284e-01" purity="1.7499506473541260e-01" nType="-99"/>
            <Node pos="r" depth="3" NCoef="0" IVar="-1" Cut="0.0000000000000000e+00" cType="1" res="6.4160996116697788e-03" rms="2.0381358265876770e-01" purity="8.5927993059158325e-01" nType="-99"/>
          </Node>
        </Node>
      </Node>
    </BinaryTree>
    <BinaryTree type="DecisionTree" boostWeight="1.0000000000000000e+00" itree="415">
      <Node pos="s" depth="0" NCoef="0" IVar="10" Cut="6.6666144132614136e-01" cType="1" res="1.2302388204261661e-03" rms="1.8859788775444031e-01" purity="4.9750456213951111e-01" nType="0">
        <Node pos="l" depth="1" NCoef="0" IVar="0" Cut="6.7968536376953125e+02" cType="1" res="-1.5810382319614291e-03" rms="1.8055237829685211e-01" purity="4.9827304482460022e-01" nType="0">
          <Node pos="l" depth="2" NCoef="0" IVar="1" Cut="2.1240400390625000e+03" cType="1" res="-5.5953324772417545e-03" rms="1.8848909437656403e-01" purity="1.2962102890014648e-01" nType="0">
            <Node pos="l" depth="3" NCoef="0" IVar="-1" Cut="0.0000000000000000e+00" cType="1" res="-1.1890939436852932e-02" rms="1.5879191458225250e-01" purity="3.6102071404457092e-02" nType="-99"/>
            <Node pos="r" depth="3" NCoef="0" IVar="-1" Cut="0.0000000000000000e+00" cType="1" res="-1.9627260044217110e-02" rms="3.1802526116371155e-01" purity="7.2680467367172241e-01" nType="-99"/>
          </Node>
          <Node pos="r" depth="2" NCoef="0" IVar="0" Cut="7.8818078613281250e+02" cType="1" res="2.1756882779300213e-03" rms="1.7271052300930023e-01" purity="8.4327137470245361e-01" nType="0">
            <Node pos="l" depth="3" NCoef="0" IVar="-1" Cut="0.0000000000000000e+00" cType="1" res="2.8098506852984428e-02" rms="2.3235413432121277e-01" purity="5.4535615444183350e-01" nType="-99"/>
            <Node pos="r" depth="3" NCoef="0" IVar="-1" Cut="0.0000000000000000e+00" cType="1" res="-2.1564832422882318e-03" rms="1.5559376776218414e-01" purity="9.1207295656204224e-01" nType="-99"/>
          </Node>
        </Node>
        <Node pos="r" depth="1" NCoef="0" IVar="9" Cut="9.3308073282241821e-01" cType="1" res="7.6407105661928654e-03" rms="2.0562697947025299e-01" purity="4.9575215578079224e-01" nType="0">
          <Node pos="l" depth="2" NCoef="0" IVar="7" Cut="2.1859157085418701e-01" cType="1" res="3.6535905674099922e-03" rms="1.9485732913017273e-01" purity="5.2845150232315063e-01" nType="0">
            <Node pos="l" depth="3" NCoef="0" IVar="-1" Cut="0.0000000000000000e+00" cType="1" res="3.0061099678277969e-02" rms="2.0732052624225616e-01" purity="5.7720714807510376e-01" nType="-99"/>
            <Node pos="r" depth="3" NCoef="0" IVar="-1" Cut="0.0000000000000000e+00" cType="1" res="-1.9910331815481186e-02" rms="1.7493639886379242e-01" purity="4.5877605676651001e-01" nType="-99"/>
          </Node>
          <Node pos="r" depth="2" NCoef="0" IVar="7" Cut="-4.7014180570840836e-02" cType="1" res="2.0567160099744797e-02" rms="2.3674252629280090e-01" purity="3.8973927497863770e-01" nType="0">
            <Node pos="l" depth="3" NCoef="0" IVar="-1" Cut="0.0000000000000000e+00" cType="1" res="1.1836085468530655e-02" rms="2.2154861688613892e-01" purity="3.8917455077171326e-01" nType="-99"/>
            <Node pos="r" depth="3" NCoef="0" IVar="-1" Cut="0.0000000000000000e+00" cType="1" res="6.2805220484733582e-02" rms="2.4641761183738708e-01" purity="3.9013993740081787e-01" nType="-99"/>
          </Node>
        </Node>
      </Node>
    </BinaryTree>
    <BinaryTree type="DecisionTree" boostWeight="1.0000000000000000e+00" itree="416">
      <Node pos="s" depth="0" NCoef="0" IVar="0" Cut="5.8411047363281250e+02" cType="1" res="-1.4551699860021472e-03" rms="1.8552045524120331e-01" purity="4.9609902501106262e-01" nType="0">
        <Node pos="l" depth="1" NCoef="0" IVar="5" Cut="2.7632348632812500e+02" cType="1" res="-5.3493143059313297e-03" rms="1.8301278352737427e-01" purity="8.6797207593917847e-02" nType="0">
          <Node pos="l" depth="2" NCoef="0" IVar="3" Cut="7.5608422851562500e+02" cType="1" res="-2.0671624224632978e-03" rms="1.6017417609691620e-01" purity="4.0994372218847275e-02" nType="0">
            <Node pos="l" depth="3" NCoef="0" IVar="-1" Cut="0.0000000000000000e+00" cType="1" res="-3.6416281363926828e-04" rms="1.5471091866493225e-01" purity="3.6270450800657272e-02" nType="-99"/>
            <Node pos="r" depth="3" NCoef="0" IVar="-1" Cut="0.0000000000000000e+00" cType="1" res="-4.2829025536775589e-02" rms="2.1454778313636780e-01" purity="9.8671622574329376e-02" nType="-99"/>
          </Node>
          <Node pos="r" depth="2" NCoef="0" IVar="-1" Cut="0.0000000000000000e+00" cType="1" res="-2.8967244550585747e-02" rms="3.0079829692840576e-01" purity="4.2367750406265259e-01" nType="-99"/>
        </Node>
        <Node pos="r" depth="1" NCoef="0" IVar="8" Cut="-1.3343371450901031e-01" cType="1" res="1.0325611801818013e-03" rms="1.8706244230270386e-01" purity="7.5757694244384766e-01" nType="0">
          <Node pos="l" depth="2" NCoef="0" IVar="3" Cut="4.6270584106445312e+02" cType="1" res="4.7324807383120060e-03" rms="1.8956358730792999e-01" purity="7.5403088331222534e-01" nType="0">
            <Node pos="l" depth="3" NCoef="0" IVar="-1" Cut="0.0000000000000000e+00" cType="1" res="3.8996674120426178e-02" rms="2.6081123948097229e-01" purity="2.1938602626323700e-01" nType="-99"/>
            <Node pos="r" depth="3" NCoef="0" IVar="-1" Cut="0.0000000000000000e+00" cType="1" res="8.0787688493728638e-03" rms="1.7993469536304474e-01" purity="8.1264841556549072e-01" nType="-99"/>
          </Node>
          <Node pos="r" depth="2" NCoef="0" IVar="10" Cut="-1.3314494490623474e-01" cType="1" res="-1.9141994416713715e-03" rms="1.8499331176280975e-01" purity="7.6040124893188477e-01" nType="0">
            <Node pos="l" depth="3" NCoef="0" IVar="-1" Cut="0.0000000000000000e+00" cType="1" res="-2.2778617218136787e-02" rms="1.8269345164299011e-01" purity="7.7171623706817627e-01" nType="-99"/>
            <Node pos="r" depth="3" NCoef="0" IVar="-1" Cut="0.0000000000000000e+00" cType="1" res="6.3459500670433044e-03" rms="1.8663309514522552e-01" purity="7.5170683860778809e-01" nType="-99"/>
          </Node>
        </Node>
      </Node>
    </BinaryTree>
    <BinaryTree type="DecisionTree" boostWeight="1.0000000000000000e+00" itree="417">
      <Node pos="s" depth="0" NCoef="0" IVar="10" Cut="1.9998557567596436e+00" cType="1" res="-1.3772236416116357e-03" rms="1.8309053778648376e-01" purity="4.9795106053352356e-01" nType="0">
        <Node pos="l" depth="1" NCoef="0" IVar="10" Cut="1.7712599039077759e+00" cType="1" res="-7.4880459578707814e-04" rms="1.8182037770748138e-01" purity="5.0459712743759155e-01" nType="0">
          <Node pos="l" depth="2" NCoef="0" IVar="8" Cut="-1.7331336736679077e+00" cType="1" res="-1.2745402054861188e-03" rms="1.7968894541263580e-01" purity="5.0569468736648560e-01" nType="0">
            <Node pos="l" depth="3" NCoef="0" IVar="-1" Cut="0.0000000000000000e+00" cType="1" res="2.8966102749109268e-02" rms="2.2518968582153320e-01" purity="1.9693219661712646e-01" nType="-99"/>
            <Node pos="r" depth="3" NCoef="0" IVar="-1" Cut="0.0000000000000000e+00" cType="1" res="-5.5727744475007057e-03" rms="1.7749437689781189e-01" purity="5.1868635416030884e-01" nType="-99"/>
          </Node>
          <Node pos="r" depth="2" NCoef="0" IVar="-1" Cut="0.0000000000000000e+00" cType="1" res="3.4967940300703049e-02" rms="2.4697610735893250e-01" purity="4.6425214409828186e-01" nType="-99"/>
        </Node>
        <Node pos="r" depth="1" NCoef="0" IVar="-1" Cut="0.0000000000000000e+00" cType="1" res="-2.7373554185032845e-02" rms="2.0603044331073761e-01" purity="3.6766934394836426e-01" nType="-99"/>
      </Node>
    </BinaryTree>
    <BinaryTree type="DecisionTree" boostWeight="1.0000000000000000e+00" itree="418">
      <Node pos="s" depth="0" NCoef="0" IVar="10" Cut="-2.2666356563568115e+00" cType="1" res="2.8725455049425364e-03" rms="1.9033940136432648e-01" purity="4.9777168035507202e-01" nType="0">
        <Node pos="l" depth="1" NCoef="0" IVar="-1" Cut="0.0000000000000000e+00" cType="1" res="4.2533431202173233e-02" rms="2.6148638129234314e-01" purity="3.4967124462127686e-01" nType="-99"/>
        <Node pos="r" depth="1" NCoef="0" IVar="3" Cut="3.4951495361328125e+02" cType="1" res="2.2424464114010334e-03" rms="1.8811120092868805e-01" purity="5.0158387422561646e-01" nType="0">
          <Node pos="l" depth="2" NCoef="0" IVar="-1" Cut="0.0000000000000000e+00" cType="1" res="6.4108155667781830e-02" rms="1.9847194850444794e-01" purity="5.3950324654579163e-02" nType="-99"/>
          <Node pos="r" depth="2" NCoef="0" IVar="10" Cut="1.3523283004760742e+00" cType="1" res="1.4892908511683345e-03" rms="1.8752382695674896e-01" purity="5.2496534585952759e-01" nType="0">
            <Node pos="l" depth="3" NCoef="0" IVar="-1" Cut="0.0000000000000000e+00" cType="1" res="7.1290303021669388e-03" rms="1.8417461216449738e-01" purity="5.3534197807312012e-01" nType="-99"/>
            <Node pos="r" depth="3" NCoef="0" IVar="-1" Cut="0.0000000000000000e+00" cType="1" res="-8.8928835466504097e-03" rms="2.0589491724967957e-01" purity="4.6442797780036926e-01" nType="-99"/>
          </Node>
        </Node>
      </Node>
    </BinaryTree>
    <BinaryTree type="DecisionTree" boostWeight="1.0000000000000000e+00" itree="419">
      <Node pos="s" depth="0" NCoef="0" IVar="3" Cut="6.5128973388671875e+02" cType="1" res="-1.0359871666878462e-03" rms="1.8322674930095673e-01" purity="5.0027310848236084e-01" nType="0">
        <Node pos="l" depth="1" NCoef="0" IVar="1" Cut="1.8300894775390625e+03" cType="1" res="-3.9186710491776466e-03" rms="1.9553221762180328e-01" purity="1.9377659261226654e-01" nType="0">
          <Node pos="l" depth="2" NCoef="0" IVar="2" Cut="7.7116236090660095e-02" cType="1" res="-2.2567878477275372e-04" rms="1.3568595051765442e-01" purity="2.2680707275867462e-02" nType="0">
            <Node pos="l" depth="3" NCoef="0" IVar="-1" Cut="0.0000000000000000e+00" cType="1" res="-1.6107562929391861e-02" rms="1.2077174335718155e-01" purity="1.7195312306284904e-02" nType="-99"/>
            <Node pos="r" depth="3" NCoef="0" IVar="-1" Cut="0.0000000000000000e+00" cType="1" res="4.7836046665906906e-02" rms="2.0475527644157410e-01" purity="5.6831948459148407e-02" nType="-99"/>
          </Node>
          <Node pos="r" depth="2" NCoef="0" IVar="1" Cut="2.0758508300781250e+03" cType="1" res="-1.3960334472358227e-02" rms="3.0330455303192139e-01" purity="6.5900564193725586e-01" nType="0">
            <Node pos="l" depth="3" NCoef="0" IVar="-1" Cut="0.0000000000000000e+00" cType="1" res="-2.6271715760231018e-02" rms="3.5638698935508728e-01" purity="1.9384258985519409e-01" nType="-99"/>
            <Node pos="r" depth="3" NCoef="0" IVar="-1" Cut="0.0000000000000000e+00" cType="1" res="-5.9033879078924656e-03" rms="2.7612736821174622e-01" purity="8.6409544944763184e-01" nType="-99"/>
          </Node>
        </Node>
        <Node pos="r" depth="1" NCoef="0" IVar="8" Cut="6.6652989387512207e-01" cType="1" res="1.5249379212036729e-03" rms="1.7151536047458649e-01" purity="7.7255904674530029e-01" nType="0">
          <Node pos="l" depth="2" NCoef="0" IVar="1" Cut="2.5054738769531250e+03" cType="1" res="-6.0775654856115580e-04" rms="1.6063392162322998e-01" purity="7.9067832231521606e-01" nType="0">
            <Node pos="l" depth="3" NCoef="0" IVar="-1" Cut="0.0000000000000000e+00" cType="1" res="-1.5523538924753666e-02" rms="2.2496677935123444e-01" purity="1.5088899433612823e-01" nType="-99"/>
            <Node pos="r" depth="3" NCoef="0" IVar="-1" Cut="0.0000000000000000e+00" cType="1" res="8.9357560500502586e-03" rms="1.3686962425708771e-01" purity="9.7234284877777100e-01" nType="-99"/>
          </Node>
          <Node pos="r" depth="2" NCoef="0" IVar="1" Cut="2.7010134277343750e+03" cType="1" res="8.9842835441231728e-03" rms="2.0490795373916626e-01" purity="7.0918494462966919e-01" nType="0">
            <Node pos="l" depth="3" NCoef="0" IVar="-1" Cut="0.0000000000000000e+00" cType="1" res="2.8247997164726257e-02" rms="2.7780103683471680e-01" purity="3.0151483416557312e-01" nType="-99"/>
            <Node pos="r" depth="3" NCoef="0" IVar="-1" Cut="0.0000000000000000e+00" cType="1" res="2.0297798328101635e-03" rms="1.3699850440025330e-01" purity="9.7603470087051392e-01" nType="-99"/>
          </Node>
        </Node>
      </Node>
    </BinaryTree>
    <BinaryTree type="DecisionTree" boostWeight="1.0000000000000000e+00" itree="420">
      <Node pos="s" depth="0" NCoef="0" IVar="6" Cut="1.2901866149902344e+02" cType="1" res="6.9796753814443946e-04" rms="1.8711873888969421e-01" purity="5.0102400779724121e-01" nType="0">
        <Node pos="l" depth="1" NCoef="0" IVar="5" Cut="1.9832226562500000e+02" cType="1" res="3.4846372436732054e-03" rms="1.9611413776874542e-01" purity="2.1478590369224548e-01" nType="0">
          <Node pos="l" depth="2" NCoef="0" IVar="5" Cut="1.7713954162597656e+02" cType="1" res="6.3954404322430491e-04" rms="1.6563276946544647e-01" purity="8.3969742059707642e-02" nType="0">
            <Node pos="l" depth="3" NCoef="0" IVar="-1" Cut="0.0000000000000000e+00" cType="1" res="9.0415421873331070e-03" rms="1.5901823341846466e-01" purity="7.6867841184139252e-02" nType="-99"/>
            <Node pos="r" depth="3" NCoef="0" IVar="-1" Cut="0.0000000000000000e+00" cType="1" res="-3.1088553369045258e-02" rms="2.1571072936058044e-01" purity="1.4796967804431915e-01" nType="-99"/>
          </Node>
          <Node pos="r" depth="2" NCoef="0" IVar="0" Cut="8.5537316894531250e+02" cType="1" res="9.9805407226085663e-03" rms="2.5214245915412903e-01" purity="5.1346480846405029e-01" nType="0">
            <Node pos="l" depth="3" NCoef="0" IVar="-1" Cut="0.0000000000000000e+00" cType="1" res="2.0855331793427467e-02" rms="2.8155571222305298e-01" purity="2.7288603782653809e-01" nType="-99"/>
            <Node pos="r" depth="3" NCoef="0" IVar="-1" Cut="0.0000000000000000e+00" cType="1" res="-2.1156591828912497e-03" rms="1.8785636126995087e-01" purity="9.4419109821319580e-01" nType="-99"/>
          </Node>
        </Node>
        <Node pos="r" depth="1" NCoef="0" IVar="3" Cut="6.0003680419921875e+02" cType="1" res="-2.0519152749329805e-03" rms="1.7775368690490723e-01" purity="7.8348356485366821e-01" nType="0">
          <Node pos="l" depth="2" NCoef="0" IVar="4" Cut="3.7806768798828125e+02" cType="1" res="-9.5134833827614784e-03" rms="2.3828597366809845e-01" purity="3.6817651987075806e-01" nType="0">
            <Node pos="l" depth="3" NCoef="0" IVar="-1" Cut="0.0000000000000000e+00" cType="1" res="-3.2356962561607361e-02" rms="2.2301900386810303e-01" purity="1.3853727281093597e-01" nType="-99"/>
            <Node pos="r" depth="3" NCoef="0" IVar="-1" Cut="0.0000000000000000e+00" cType="1" res="8.9031597599387169e-03" rms="2.6206386089324951e-01" purity="7.6889270544052124e-01" nType="-99"/>
          </Node>
          <Node pos="r" depth="2" NCoef="0" IVar="1" Cut="2.5283798828125000e+03" cType="1" res="8.6283462587743998e-04" rms="1.4740571379661560e-01" purity="9.4571703672409058e-01" nType="0">
            <Node pos="l" depth="3" NCoef="0" IVar="-1" Cut="0.0000000000000000e+00" cType="1" res="1.1701052077114582e-02" rms="3.4767961502075195e-01" purity="5.4250633716583252e-01" nType="-99"/>
            <Node pos="r" depth="3" NCoef="0" IVar="-1" Cut="0.0000000000000000e+00" cType="1" res="-4.8685246147215366e-03" rms="1.0768731683492661e-01" purity="9.8683202266693115e-01" nType="-99"/>
          </Node>
        </Node>
      </Node>
    </BinaryTree>
    <BinaryTree type="DecisionTree" boostWeight="1.0000000000000000e+00" itree="421">
      <Node pos="s" depth="0" NCoef="0" IVar="1" Cut="2.5918151855468750e+03" cType="1" res="2.5003692135214806e-03" rms="1.8870702385902405e-01" purity="4.9790382385253906e-01" nType="0">
        <Node pos="l" depth="1" NCoef="0" IVar="5" Cut="2.3435398864746094e+02" cType="1" res="5.1356861367821693e-03" rms="2.1883524954319000e-01" purity="1.4749686419963837e-01" nType="0">
          <Node pos="l" depth="2" NCoef="0" IVar="5" Cut="1.9924929809570312e+02" cType="1" res="3.4578138729557395e-04" rms="1.7822270095348358e-01" purity="6.3115172088146210e-02" nType="0">
            <Node pos="l" depth="3" NCoef="0" IVar="-1" Cut="0.0000000000000000e+00" cType="1" res="1.2210806831717491e-02" rms="1.6800041496753693e-01" purity="4.9714084714651108e-02" nType="-99"/>
            <Node pos="r" depth="3" NCoef="0" IVar="-1" Cut="0.0000000000000000e+00" cType="1" res="-2.5907227769494057e-02" rms="2.2584348917007446e-01" purity="1.3720910251140594e-01" nType="-99"/>
          </Node>
          <Node pos="r" depth="2" NCoef="0" IVar="4" Cut="3.6418057250976562e+02" cType="1" res="2.2551989182829857e-02" rms="3.2578411698341370e-01" purity="4.5431241393089294e-01" nType="0">
            <Node pos="l" depth="3" NCoef="0" IVar="-1" Cut="0.0000000000000000e+00" cType="1" res="6.2092123553156853e-03" rms="2.8796744346618652e-01" purity="2.4398577213287354e-01" nType="-99"/>
            <Node pos="r" depth="3" NCoef="0" IVar="-1" Cut="0.0000000000000000e+00" cType="1" res="3.0728492885828018e-02" rms="3.5485711693763733e-01" purity="6.3806629180908203e-01" nType="-99"/>
          </Node>
        </Node>
        <Node pos="r" depth="1" NCoef="0" IVar="6" Cut="8.7465530395507812e+01" cType="1" res="-1.0803356999531388e-03" rms="1.3749465346336365e-01" purity="9.7401499748229980e-01" nType="0">
          <Node pos="l" depth="2" NCoef="0" IVar="-1" Cut="0.0000000000000000e+00" cType="1" res="-1.3641143217682838e-02" rms="2.5853711366653442e-01" purity="8.7640857696533203e-01" nType="-99"/>
          <Node pos="r" depth="2" NCoef="0" IVar="0" Cut="9.2795709228515625e+02" cType="1" res="-4.2217283044010401e-04" rms="1.2106085568666458e-01" purity="9.8265588283538818e-01" nType="0">
            <Node pos="l" depth="3" NCoef="0" IVar="-1" Cut="0.0000000000000000e+00" cType="1" res="-1.1940948665142059e-02" rms="1.5734881162643433e-01" purity="9.7001212835311890e-01" nType="-99"/>
            <Node pos="r" depth="3" NCoef="0" IVar="-1" Cut="0.0000000000000000e+00" cType="1" res="6.6638691350817680e-03" rms="9.8260201513767242e-02" purity="9.8890960216522217e-01" nType="-99"/>
          </Node>
        </Node>
      </Node>
    </BinaryTree>
    <BinaryTree type="DecisionTree" boostWeight="1.0000000000000000e+00" itree="422">
      <Node pos="s" depth="0" NCoef="0" IVar="10" Cut="1.7332801818847656e+00" cType="1" res="-3.1813295208849013e-04" rms="1.8641747534275055e-01" purity="4.9896496534347534e-01" nType="0">
        <Node pos="l" depth="1" NCoef="0" IVar="7" Cut="-6.1564511060714722e-01" cType="1" res="8.0458418233320117e-04" rms="1.8366056680679321e-01" purity="5.0918436050415039e-01" nType="0">
          <Node pos="l" depth="2" NCoef="0" IVar="4" Cut="4.1404714965820312e+02" cType="1" res="6.0795657336711884e-03" rms="1.9567699730396271e-01" purity="3.7551346421241760e-01" nType="0">
            <Node pos="l" depth="3" NCoef="0" IVar="-1" Cut="0.0000000000000000e+00" cType="1" res="-6.2225887086242437e-04" rms="1.8011803925037384e-01" purity="1.1928978562355042e-01" nType="-99"/>
            <Node pos="r" depth="3" NCoef="0" IVar="-1" Cut="0.0000000000000000e+00" cType="1" res="3.7072222679853439e-02" rms="2.1839654445648193e-01" purity="7.9527395963668823e-01" nType="-99"/>
          </Node>
          <Node pos="r" depth="2" NCoef="0" IVar="7" Cut="3.6003217101097107e-01" cType="1" res="-7.8023172682151198e-04" rms="1.7986337840557098e-01" purity="5.4934448003768921e-01" nType="0">
            <Node pos="l" depth="3" NCoef="0" IVar="-1" Cut="0.0000000000000000e+00" cType="1" res="-9.9313100799918175e-03" rms="1.6913616657257080e-01" purity="6.2417250871658325e-01" nType="-99"/>
            <Node pos="r" depth="3" NCoef="0" IVar="-1" Cut="0.0000000000000000e+00" cType="1" res="6.0463715344667435e-03" rms="1.9345432519912720e-01" purity="4.4760128855705261e-01" nType="-99"/>
          </Node>
        </Node>
        <Node pos="r" depth="1" NCoef="0" IVar="9" Cut="-1.3259594142436981e-01" cType="1" res="-1.3446518220007420e-02" rms="2.1562656760215759e-01" purity="3.7946507334709167e-01" nType="0">
          <Node pos="l" depth="2" NCoef="0" IVar="-1" Cut="0.0000000000000000e+00" cType="1" res="-5.4673079401254654e-02" rms="2.1504366397857666e-01" purity="3.7981653213500977e-01" nType="-99"/>
          <Node pos="r" depth="2" NCoef="0" IVar="-1" Cut="0.0000000000000000e+00" cType="1" res="-8.1879710778594017e-03" rms="2.1557049453258514e-01" purity="3.7920218706130981e-01" nType="-99"/>
        </Node>
      </Node>
    </BinaryTree>
    <BinaryTree type="DecisionTree" boostWeight="1.0000000000000000e+00" itree="423">
      <Node pos="s" depth="0" NCoef="0" IVar="9" Cut="-1.4666333198547363e+00" cType="1" res="-1.4305413060355932e-04" rms="1.8693746626377106e-01" purity="4.9694192409515381e-01" nType="0">
        <Node pos="l" depth="1" NCoef="0" IVar="1" Cut="1.9169542236328125e+03" cType="1" res="8.2647195085883141e-03" rms="2.1807561814785004e-01" purity="3.5658124089241028e-01" nType="0">
          <Node pos="l" depth="2" NCoef="0" IVar="8" Cut="-1.3320507109165192e-01" cType="1" res="-2.0733622368425131e-03" rms="1.5250641107559204e-01" purity="2.4549880996346474e-02" nType="0">
            <Node pos="l" depth="3" NCoef="0" IVar="-1" Cut="0.0000000000000000e+00" cType="1" res="-4.3231986463069916e-02" rms="1.1122997105121613e-01" purity="1.3489624485373497e-02" nType="-99"/>
            <Node pos="r" depth="3" NCoef="0" IVar="-1" Cut="0.0000000000000000e+00" cType="1" res="1.4785111881792545e-02" rms="1.8399739265441895e-01" purity="3.5392366349697113e-02" nType="-99"/>
          </Node>
          <Node pos="r" depth="2" NCoef="0" IVar="-1" Cut="0.0000000000000000e+00" cType="1" res="2.9256183654069901e-02" rms="2.8170269727706909e-01" purity="7.9558962583541870e-01" nType="-99"/>
        </Node>
        <Node pos="r" depth="1" NCoef="0" IVar="9" Cut="1.1745173931121826e+00" cType="1" res="-1.0148481233045459e-03" rms="1.8338447809219360e-01" purity="5.1149576902389526e-01" nType="0">
          <Node pos="l" depth="2" NCoef="0" IVar="4" Cut="5.1165286254882812e+02" cType="1" res="-2.3854405153542757e-03" rms="1.7496664822101593e-01" purity="5.3376531600952148e-01" nType="0">
            <Node pos="l" depth="3" NCoef="0" IVar="-1" Cut="0.0000000000000000e+00" cType="1" res="-1.0582913644611835e-02" rms="1.9341020286083221e-01" purity="2.7854430675506592e-01" nType="-99"/>
            <Node pos="r" depth="3" NCoef="0" IVar="-1" Cut="0.0000000000000000e+00" cType="1" res="2.3799506016075611e-03" rms="1.4021924138069153e-01" purity="9.4467264413833618e-01" nType="-99"/>
          </Node>
          <Node pos="r" depth="2" NCoef="0" IVar="7" Cut="-3.1031554937362671e-01" cType="1" res="6.1102695763111115e-03" rms="2.2192572057247162e-01" purity="3.9572590589523315e-01" nType="0">
            <Node pos="l" depth="3" NCoef="0" IVar="-1" Cut="0.0000000000000000e+00" cType="1" res="3.3994890749454498e-02" rms="2.3316024243831635e-01" purity="3.6837264895439148e-01" nType="-99"/>
            <Node pos="r" depth="3" NCoef="0" IVar="-1" Cut="0.0000000000000000e+00" cType="1" res="6.8749440833926201e-04" rms="2.1532279253005981e-01" purity="4.1066771745681763e-01" nType="-99"/>
          </Node>
        </Node>
      </Node>
    </BinaryTree>
    <BinaryTree type="DecisionTree" boostWeight="1.0000000000000000e+00" itree="424">
      <Node pos="s" depth="0" NCoef="0" IVar="5" Cut="9.9481040954589844e+01" cType="1" res="3.2851760624907911e-04" rms="1.8779075145721436e-01" purity="5.0397193431854248e-01" nType="0">
        <Node pos="l" depth="1" NCoef="0" IVar="1" Cut="1.6503626708984375e+03" cType="1" res="-8.9091304689645767e-03" rms="9.3520767986774445e-02" purity="2.1207647398114204e-02" nType="0">
          <Node pos="l" depth="2" NCoef="0" IVar="1" Cut="1.5192233886718750e+03" cType="1" res="-1.8661068752408028e-03" rms="2.0954817533493042e-02" purity="4.2253037099726498e-04" nType="0">
            <Node pos="l" depth="3" NCoef="0" IVar="-1" Cut="0.0000000000000000e+00" cType="1" res="-6.2954731285572052e-02" rms="2.6675799861550331e-02" purity="7.0165598299354315e-04" nType="-99"/>
            <Node pos="r" depth="3" NCoef="0" IVar="-1" Cut="0.0000000000000000e+00" cType="1" res="-1.0115353018045425e-01" rms="4.9769515171647072e-03" purity="0.0000000000000000e+00" nType="-99"/>
          </Node>
          <Node pos="r" depth="2" NCoef="0" IVar="-1" Cut="0.0000000000000000e+00" cType="1" res="-6.1038371175527573e-02" rms="1.5532301366329193e-01" purity="6.0362141579389572e-02" nType="-99"/>
        </Node>
        <Node pos="r" depth="1" NCoef="0" IVar="9" Cut="1.4664077758789062e+00" cType="1" res="1.3685098383575678e-03" rms="1.9555118680000305e-01" purity="5.5832254886627197e-01" nType="0">
          <Node pos="l" depth="2" NCoef="0" IVar="9" Cut="-9.7121417522430420e-01" cType="1" res="2.6977475499734282e-04" rms="1.9033950567245483e-01" purity="5.7162153720855713e-01" nType="0">
            <Node pos="l" depth="3" NCoef="0" IVar="-1" Cut="0.0000000000000000e+00" cType="1" res="-1.0748950764536858e-02" rms="2.0306128263473511e-01" purity="4.7168609499931335e-01" nType="-99"/>
            <Node pos="r" depth="3" NCoef="0" IVar="-1" Cut="0.0000000000000000e+00" cType="1" res="4.5347497798502445e-03" rms="1.8688890337944031e-01" purity="5.9744781255722046e-01" nType="-99"/>
          </Node>
          <Node pos="r" depth="2" NCoef="0" IVar="10" Cut="-4.0022009611129761e-01" cType="1" res="1.2479911558330059e-02" rms="2.4174992740154266e-01" purity="4.2383086681365967e-01" nType="0">
            <Node pos="l" depth="3" NCoef="0" IVar="-1" Cut="0.0000000000000000e+00" cType="1" res="5.4502289742231369e-02" rms="2.7296382188796997e-01" purity="4.6623703837394714e-01" nType="-99"/>
            <Node pos="r" depth="3" NCoef="0" IVar="-1" Cut="0.0000000000000000e+00" cType="1" res="-1.6174936899915338e-03" rms="2.2014735639095306e-01" purity="3.9875316619873047e-01" nType="-99"/>
          </Node>
        </Node>
      </Node>
    </BinaryTree>
    <BinaryTree type="DecisionTree" boostWeight="1.0000000000000000e+00" itree="425">
      <Node pos="s" depth="0" NCoef="0" IVar="2" Cut="2.0896466448903084e-02" cType="1" res="1.8047855701297522e-03" rms="1.9148042798042297e-01" purity="5.0341218709945679e-01" nType="0">
        <Node pos="l" depth="1" NCoef="0" IVar="4" Cut="3.2795935058593750e+02" cType="1" res="8.2445554435253143e-03" rms="2.0062272250652313e-01" purity="2.6001134514808655e-01" nType="0">
          <Node pos="l" depth="2" NCoef="0" IVar="8" Cut="-1.1998401880264282e+00" cType="1" res="8.8060063717421144e-05" rms="1.4898052811622620e-01" purity="4.7135688364505768e-02" nType="0">
            <Node pos="l" depth="3" NCoef="0" IVar="-1" Cut="0.0000000000000000e+00" cType="1" res="3.9161723107099533e-02" rms="1.6806060075759888e-01" purity="6.3219703733921051e-02" nType="-99"/>
            <Node pos="r" depth="3" NCoef="0" IVar="-1" Cut="0.0000000000000000e+00" cType="1" res="-1.2721999548375607e-02" rms="1.4323028922080994e-01" purity="4.2773962020874023e-02" nType="-99"/>
          </Node>
          <Node pos="r" depth="2" NCoef="0" IVar="1" Cut="3.0444123535156250e+03" cType="1" res="1.6718830913305283e-02" rms="2.4262362718582153e-01" purity="4.8118075728416443e-01" nType="0">
            <Node pos="l" depth="3" NCoef="0" IVar="-1" Cut="0.0000000000000000e+00" cType="1" res="3.8451682776212692e-02" rms="2.7310368418693542e-01" purity="2.6913166046142578e-01" nType="-99"/>
            <Node pos="r" depth="3" NCoef="0" IVar="-1" Cut="0.0000000000000000e+00" cType="1" res="-2.5730872526764870e-02" rms="1.4702177047729492e-01" purity="9.7485280036926270e-01" nType="-99"/>
          </Node>
        </Node>
        <Node pos="r" depth="1" NCoef="0" IVar="8" Cut="9.1730934381484985e-01" cType="1" res="-1.8893429078161716e-03" rms="1.8593268096446991e-01" purity="6.4303737878799438e-01" nType="0">
          <Node pos="l" depth="2" NCoef="0" IVar="5" Cut="2.7744900512695312e+02" cType="1" res="-2.2383371833711863e-04" rms="1.8477059900760651e-01" purity="6.6468524932861328e-01" nType="0">
            <Node pos="l" depth="3" NCoef="0" IVar="-1" Cut="0.0000000000000000e+00" cType="1" res="9.0859932824969292e-03" rms="2.2471866011619568e-01" purity="3.1347963213920593e-01" nType="-99"/>
            <Node pos="r" depth="3" NCoef="0" IVar="-1" Cut="0.0000000000000000e+00" cType="1" res="-1.9302569329738617e-02" rms="1.4589001238346100e-01" purity="9.4001972675323486e-01" nType="-99"/>
          </Node>
          <Node pos="r" depth="2" NCoef="0" IVar="0" Cut="6.2874645996093750e+02" cType="1" res="-1.2136748060584068e-02" rms="1.9261203706264496e-01" purity="5.0984412431716919e-01" nType="0">
            <Node pos="l" depth="3" NCoef="0" IVar="-1" Cut="0.0000000000000000e+00" cType="1" res="-4.4466529041528702e-02" rms="1.9217929244041443e-01" purity="1.2004335969686508e-01" nType="-99"/>
            <Node pos="r" depth="3" NCoef="0" IVar="-1" Cut="0.0000000000000000e+00" cType="1" res="-8.4196384996175766e-03" rms="1.9248448312282562e-01" purity="8.2701063156127930e-01" nType="-99"/>
          </Node>
        </Node>
      </Node>
    </BinaryTree>
    <BinaryTree type="DecisionTree" boostWeight="1.0000000000000000e+00" itree="426">
      <Node pos="s" depth="0" NCoef="0" IVar="10" Cut="1.9999644756317139e+00" cType="1" res="-5.5779307149350643e-04" rms="1.8251259624958038e-01" purity="5.0431847572326660e-01" nType="0">
        <Node pos="l" depth="1" NCoef="0" IVar="10" Cut="-1.8854770660400391e+00" cType="1" res="-1.1189600918442011e-03" rms="1.7932327091693878e-01" purity="5.0995200872421265e-01" nType="0">
          <Node pos="l" depth="2" NCoef="0" IVar="4" Cut="3.1871139526367188e+02" cType="1" res="9.6519514918327332e-03" rms="2.3069547116756439e-01" purity="4.0622159838676453e-01" nType="0">
            <Node pos="l" depth="3" NCoef="0" IVar="-1" Cut="0.0000000000000000e+00" cType="1" res="-4.9967314116656780e-03" rms="1.7586152255535126e-01" purity="9.3643978238105774e-02" nType="-99"/>
            <Node pos="r" depth="3" NCoef="0" IVar="-1" Cut="0.0000000000000000e+00" cType="1" res="2.9295591637492180e-02" rms="2.6372402906417847e-01" purity="6.3766771554946899e-01" nType="-99"/>
          </Node>
          <Node pos="r" depth="2" NCoef="0" IVar="1" Cut="2.5918195800781250e+03" cType="1" res="-1.8593884306028485e-03" rms="1.7521509528160095e-01" purity="5.1708281040191650e-01" nType="0">
            <Node pos="l" depth="3" NCoef="0" IVar="-1" Cut="0.0000000000000000e+00" cType="1" res="-9.6996733918786049e-03" rms="2.0512193441390991e-01" purity="1.3354021310806274e-01" nType="-99"/>
            <Node pos="r" depth="3" NCoef="0" IVar="-1" Cut="0.0000000000000000e+00" cType="1" res="6.8089170381426811e-03" rms="1.3056734204292297e-01" purity="9.7684967517852783e-01" nType="-99"/>
          </Node>
        </Node>
        <Node pos="r" depth="1" NCoef="0" IVar="-1" Cut="0.0000000000000000e+00" cType="1" res="2.0066339522600174e-02" rms="2.3960599303245544e-01" purity="3.8595780730247498e-01" nType="-99"/>
      </Node>
    </BinaryTree>
    <BinaryTree type="DecisionTree" boostWeight="1.0000000000000000e+00" itree="427">
      <Node pos="s" depth="0" NCoef="0" IVar="2" Cut="2.0477987825870514e-02" cType="1" res="-1.5562266344204545e-03" rms="1.8380546569824219e-01" purity="4.9926719069480896e-01" nType="0">
        <Node pos="l" depth="1" NCoef="0" IVar="6" Cut="1.2130661010742188e+02" cType="1" res="-4.6274303458631039e-03" rms="1.8426577746868134e-01" purity="2.4063664674758911e-01" nType="0">
          <Node pos="l" depth="2" NCoef="0" IVar="10" Cut="-4.0005713701248169e-01" cType="1" res="-1.8920947331935167e-03" rms="1.7186051607131958e-01" purity="1.2718020379543304e-01" nType="0">
            <Node pos="l" depth="3" NCoef="0" IVar="-1" Cut="0.0000000000000000e+00" cType="1" res="-2.5188559666275978e-02" rms="1.5870691835880280e-01" purity="1.1855771392583847e-01" nType="-99"/>
            <Node pos="r" depth="3" NCoef="0" IVar="-1" Cut="0.0000000000000000e+00" cType="1" res="5.8956719003617764e-03" rms="1.7944903671741486e-01" purity="1.3253724575042725e-01" nType="-99"/>
          </Node>
          <Node pos="r" depth="2" NCoef="0" IVar="1" Cut="2.4975334472656250e+03" cType="1" res="-1.2034160085022449e-02" rms="2.1410594880580902e-01" purity="5.4785352945327759e-01" nType="0">
            <Node pos="l" depth="3" NCoef="0" IVar="-1" Cut="0.0000000000000000e+00" cType="1" res="-3.3722441643476486e-02" rms="2.4074494838714600e-01" purity="1.1196357011795044e-01" nType="-99"/>
            <Node pos="r" depth="3" NCoef="0" IVar="-1" Cut="0.0000000000000000e+00" cType="1" res="-4.2626312933862209e-03" rms="1.8501546978950500e-01" purity="9.5713776350021362e-01" nType="-99"/>
          </Node>
        </Node>
        <Node pos="r" depth="1" NCoef="0" IVar="10" Cut="-1.9999412298202515e+00" cType="1" res="1.2549583334475756e-04" rms="1.8353115022182465e-01" purity="6.4088743925094604e-01" nType="0">
          <Node pos="l" depth="2" NCoef="0" IVar="-1" Cut="0.0000000000000000e+00" cType="1" res="2.0086383447051048e-02" rms="2.3643602430820465e-01" purity="5.2046543359756470e-01" nType="-99"/>
          <Node pos="r" depth="2" NCoef="0" IVar="9" Cut="-1.7329859733581543e+00" cType="1" res="-5.1556719699874520e-04" rms="1.8038809299468994e-01" purity="6.4704108238220215e-01" nType="0">
            <Node pos="l" depth="3" NCoef="0" IVar="-1" Cut="0.0000000000000000e+00" cType="1" res="-2.5110755115747452e-02" rms="2.1449901163578033e-01" purity="4.0757438540458679e-01" nType="-99"/>
            <Node pos="r" depth="3" NCoef="0" IVar="-1" Cut="0.0000000000000000e+00" cType="1" res="1.0895427112700418e-04" rms="1.7839919030666351e-01" purity="6.5961885452270508e-01" nType="-99"/>
          </Node>
        </Node>
      </Node>
    </BinaryTree>
    <BinaryTree type="DecisionTree" boostWeight="1.0000000000000000e+00" itree="428">
      <Node pos="s" depth="0" NCoef="0" IVar="7" Cut="4.3507501482963562e-01" cType="1" res="6.7482778104022145e-04" rms="1.8634226918220520e-01" purity="5.0143665075302124e-01" nType="0">
        <Node pos="l" depth="1" NCoef="0" IVar="9" Cut="-1.7333403825759888e+00" cType="1" res="-8.8243256323039532e-04" rms="1.8005293607711792e-01" purity="5.3438836336135864e-01" nType="0">
          <Node pos="l" depth="2" NCoef="0" IVar="-1" Cut="0.0000000000000000e+00" cType="1" res="2.8812382370233536e-02" rms="2.2181162238121033e-01" purity="3.1649780273437500e-01" nType="-99"/>
          <Node pos="r" depth="2" NCoef="0" IVar="4" Cut="3.2862872314453125e+02" cType="1" res="-1.7477970104664564e-03" rms="1.7719818651676178e-01" purity="5.4745858907699585e-01" nType="0">
            <Node pos="l" depth="3" NCoef="0" IVar="-1" Cut="0.0000000000000000e+00" cType="1" res="-2.2316409274935722e-02" rms="1.6299523413181305e-01" purity="7.8128233551979065e-02" nType="-99"/>
            <Node pos="r" depth="3" NCoef="0" IVar="-1" Cut="0.0000000000000000e+00" cType="1" res="1.6826910432428122e-03" rms="1.8350102007389069e-01" purity="7.6993596553802490e-01" nType="-99"/>
          </Node>
        </Node>
        <Node pos="r" depth="1" NCoef="0" IVar="3" Cut="4.3939086914062500e+02" cType="1" res="4.4118505902588367e-03" rms="2.0058307051658630e-01" purity="4.2236104607582092e-01" nType="0">
          <Node pos="l" depth="2" NCoef="0" IVar="4" Cut="2.7428009033203125e+02" cType="1" res="1.9169110804796219e-02" rms="2.2500748932361603e-01" purity="9.6683241426944733e-02" nType="0">
            <Node pos="l" depth="3" NCoef="0" IVar="-1" Cut="0.0000000000000000e+00" cType="1" res="3.5537250339984894e-02" rms="1.8300898373126984e-01" purity="4.4695485383272171e-02" nType="-99"/>
            <Node pos="r" depth="3" NCoef="0" IVar="-1" Cut="0.0000000000000000e+00" cType="1" res="5.2124209702014923e-02" rms="2.5780808925628662e-01" purity="1.4521867036819458e-01" nType="-99"/>
          </Node>
          <Node pos="r" depth="2" NCoef="0" IVar="10" Cut="1.4662261009216309e+00" cType="1" res="1.1083874851465225e-03" rms="1.9454303383827209e-01" purity="4.9526512622833252e-01" nType="0">
            <Node pos="l" depth="3" NCoef="0" IVar="-1" Cut="0.0000000000000000e+00" cType="1" res="-2.6046759448945522e-03" rms="1.8801814317703247e-01" purity="5.0676202774047852e-01" nType="-99"/>
            <Node pos="r" depth="3" NCoef="0" IVar="-1" Cut="0.0000000000000000e+00" cType="1" res="3.0710324645042419e-02" rms="2.3546940088272095e-01" purity="4.1304588317871094e-01" nType="-99"/>
          </Node>
        </Node>
      </Node>
    </BinaryTree>
    <BinaryTree type="DecisionTree" boostWeight="1.0000000000000000e+00" itree="429">
      <Node pos="s" depth="0" NCoef="0" IVar="9" Cut="1.7332328557968140e+00" cType="1" res="-4.6848430065438151e-04" rms="1.8513692915439606e-01" purity="5.0299811363220215e-01" nType="0">
        <Node pos="l" depth="1" NCoef="0" IVar="7" Cut="-1.4039200544357300e+00" cType="1" res="4.8478849930688739e-04" rms="1.8340446054935455e-01" purity="5.1700937747955322e-01" nType="0">
          <Node pos="l" depth="2" NCoef="0" IVar="-1" Cut="0.0000000000000000e+00" cType="1" res="3.5122498869895935e-02" rms="2.0302386581897736e-01" purity="1.2994399666786194e-01" nType="-99"/>
          <Node pos="r" depth="2" NCoef="0" IVar="10" Cut="-1.9999636411666870e+00" cType="1" res="-8.2248981925658882e-05" rms="1.8230867385864258e-01" purity="5.3713703155517578e-01" nType="0">
            <Node pos="l" depth="3" NCoef="0" IVar="-1" Cut="0.0000000000000000e+00" cType="1" res="1.7721058800816536e-02" rms="2.3736988008022308e-01" purity="4.0291658043861389e-01" nType="-99"/>
            <Node pos="r" depth="3" NCoef="0" IVar="-1" Cut="0.0000000000000000e+00" cType="1" res="-1.7794958548620343e-03" rms="1.7899051308631897e-01" purity="5.4406929016113281e-01" nType="-99"/>
          </Node>
        </Node>
        <Node pos="r" depth="1" NCoef="0" IVar="5" Cut="1.5769184875488281e+02" cType="1" res="-1.6399929299950600e-02" rms="2.1137002110481262e-01" purity="2.6883694529533386e-01" nType="0">
          <Node pos="l" depth="2" NCoef="0" IVar="-1" Cut="0.0000000000000000e+00" cType="1" res="-1.0515729896724224e-02" rms="1.7150111496448517e-01" purity="1.0325689613819122e-01" nType="-99"/>
          <Node pos="r" depth="2" NCoef="0" IVar="-1" Cut="0.0000000000000000e+00" cType="1" res="-4.2515456676483154e-02" rms="2.4126593768596649e-01" purity="4.1859072446823120e-01" nType="-99"/>
        </Node>
      </Node>
    </BinaryTree>
    <BinaryTree type="DecisionTree" boostWeight="1.0000000000000000e+00" itree="430">
      <Node pos="s" depth="0" NCoef="0" IVar="8" Cut="1.4667235612869263e+00" cType="1" res="1.1838538739539217e-05" rms="1.8599261343479156e-01" purity="5.0309205055236816e-01" nType="0">
        <Node pos="l" depth="1" NCoef="0" IVar="10" Cut="1.2000038623809814e+00" cType="1" res="-9.2095596482977271e-04" rms="1.8301504850387573e-01" purity="5.2362883090972900e-01" nType="0">
          <Node pos="l" depth="2" NCoef="0" IVar="1" Cut="3.3630183105468750e+03" cType="1" res="-2.1608839742839336e-03" rms="1.7697244882583618e-01" purity="5.2785432338714600e-01" nType="0">
            <Node pos="l" depth="3" NCoef="0" IVar="-1" Cut="0.0000000000000000e+00" cType="1" res="-8.8209435343742371e-03" rms="2.0185673236846924e-01" purity="3.5980847477912903e-01" nType="-99"/>
            <Node pos="r" depth="3" NCoef="0" IVar="-1" Cut="0.0000000000000000e+00" cType="1" res="3.2030809670686722e-02" rms="7.1460902690887451e-02" purity="9.9467813968658447e-01" nType="-99"/>
          </Node>
          <Node pos="r" depth="2" NCoef="0" IVar="3" Cut="8.6502221679687500e+02" cType="1" res="5.1943692378699780e-03" rms="2.1018548309803009e-01" purity="5.0278848409652710e-01" nType="0">
            <Node pos="l" depth="3" NCoef="0" IVar="-1" Cut="0.0000000000000000e+00" cType="1" res="2.0066905766725540e-02" rms="2.2026456892490387e-01" purity="3.7590593099594116e-01" nType="-99"/>
            <Node pos="r" depth="3" NCoef="0" IVar="-1" Cut="0.0000000000000000e+00" cType="1" res="-2.5241041556000710e-02" rms="1.7464958131313324e-01" purity="8.9598059654235840e-01" nType="-99"/>
          </Node>
        </Node>
        <Node pos="r" depth="1" NCoef="0" IVar="1" Cut="1.8404014892578125e+03" cType="1" res="1.1514718644320965e-02" rms="2.1908780932426453e-01" purity="2.4984048306941986e-01" nType="0">
          <Node pos="l" depth="2" NCoef="0" IVar="-1" Cut="0.0000000000000000e+00" cType="1" res="-2.9704829212278128e-03" rms="1.4129692316055298e-01" purity="2.1254422143101692e-02" nType="-99"/>
          <Node pos="r" depth="2" NCoef="0" IVar="-1" Cut="0.0000000000000000e+00" cType="1" res="3.6041159182786942e-02" rms="3.1438887119293213e-01" purity="6.7063099145889282e-01" nType="-99"/>
        </Node>
      </Node>
    </BinaryTree>
    <BinaryTree type="DecisionTree" boostWeight="1.0000000000000000e+00" itree="431">
      <Node pos="s" depth="0" NCoef="0" IVar="7" Cut="1.4927831888198853e+00" cType="1" res="-3.7937698652967811e-04" rms="1.8151184916496277e-01" purity="4.9160933494567871e-01" nType="0">
        <Node pos="l" depth="1" NCoef="0" IVar="8" Cut="1.2000089883804321e+00" cType="1" res="3.0735408654436469e-04" rms="1.8276813626289368e-01" purity="5.0839889049530029e-01" nType="0">
          <Node pos="l" depth="2" NCoef="0" IVar="8" Cut="-3.2374161481857300e-01" cType="1" res="1.3566985726356506e-03" rms="1.8069528043270111e-01" purity="5.3625899553298950e-01" nType="0">
            <Node pos="l" depth="3" NCoef="0" IVar="-1" Cut="0.0000000000000000e+00" cType="1" res="-5.0105326808989048e-03" rms="1.8934385478496552e-01" purity="4.7231599688529968e-01" nType="-99"/>
            <Node pos="r" depth="3" NCoef="0" IVar="-1" Cut="0.0000000000000000e+00" cType="1" res="1.1173428967595100e-02" rms="1.7424713075160980e-01" purity="5.8174228668212891e-01" nType="-99"/>
          </Node>
          <Node pos="r" depth="2" NCoef="0" IVar="10" Cut="-6.6681987047195435e-01" cType="1" res="-7.9002669081091881e-03" rms="1.9804315268993378e-01" purity="2.9048618674278259e-01" nType="0">
            <Node pos="l" depth="3" NCoef="0" IVar="-1" Cut="0.0000000000000000e+00" cType="1" res="-5.1232829689979553e-02" rms="1.8918234109878540e-01" purity="3.0597865581512451e-01" nType="-99"/>
            <Node pos="r" depth="3" NCoef="0" IVar="-1" Cut="0.0000000000000000e+00" cType="1" res="-5.8109611272811890e-03" rms="2.0079788565635681e-01" purity="2.8498330712318420e-01" nType="-99"/>
          </Node>
        </Node>
        <Node pos="r" depth="1" NCoef="0" IVar="-1" Cut="0.0000000000000000e+00" cType="1" res="-5.3224258124828339e-02" rms="1.4731533825397491e-01" purity="8.9410595595836639e-02" nType="-99"/>
      </Node>
    </BinaryTree>
    <BinaryTree type="DecisionTree" boostWeight="1.0000000000000000e+00" itree="432">
      <Node pos="s" depth="0" NCoef="0" IVar="9" Cut="-1.1995997428894043e+00" cType="1" res="-3.5465258406475186e-04" rms="1.8307186663150787e-01" purity="4.9958297610282898e-01" nType="0">
        <Node pos="l" depth="1" NCoef="0" IVar="9" Cut="-1.7328757047653198e+00" cType="1" res="7.1069444529712200e-03" rms="2.1021494269371033e-01" purity="3.9614248275756836e-01" nType="0">
          <Node pos="l" depth="2" NCoef="0" IVar="6" Cut="9.4668983459472656e+01" cType="1" res="-2.2653201594948769e-03" rms="2.2003413736820221e-01" purity="2.9017332196235657e-01" nType="0">
            <Node pos="l" depth="3" NCoef="0" IVar="-1" Cut="0.0000000000000000e+00" cType="1" res="2.0264077931642532e-02" rms="2.1349669992923737e-01" purity="1.5794549882411957e-01" nType="-99"/>
            <Node pos="r" depth="3" NCoef="0" IVar="-1" Cut="0.0000000000000000e+00" cType="1" res="-2.3944674059748650e-02" rms="2.2565621137619019e-01" purity="4.1568589210510254e-01" nType="-99"/>
          </Node>
          <Node pos="r" depth="2" NCoef="0" IVar="8" Cut="3.9996489882469177e-01" cType="1" res="1.3368779793381691e-02" rms="2.0314970612525940e-01" purity="4.6694302558898926e-01" nType="0">
            <Node pos="l" depth="3" NCoef="0" IVar="-1" Cut="0.0000000000000000e+00" cType="1" res="1.8766002729535103e-02" rms="1.8003152310848236e-01" purity="4.8365929722785950e-01" nType="-99"/>
            <Node pos="r" depth="3" NCoef="0" IVar="-1" Cut="0.0000000000000000e+00" cType="1" res="5.1383942365646362e-02" rms="2.4617619812488556e-01" purity="4.2991867661476135e-01" nType="-99"/>
          </Node>
        </Node>
        <Node pos="r" depth="1" NCoef="0" IVar="0" Cut="7.3323767089843750e+02" cType="1" res="-1.6134821344166994e-03" rms="1.7805440723896027e-01" purity="5.1703417301177979e-01" nType="0">
          <Node pos="l" depth="2" NCoef="0" IVar="9" Cut="8.9521324634552002e-01" cType="1" res="-4.0777069516479969e-03" rms="1.9091670215129852e-01" purity="1.7845784127712250e-01" nType="0">
            <Node pos="l" depth="3" NCoef="0" IVar="-1" Cut="0.0000000000000000e+00" cType="1" res="-1.9575035199522972e-02" rms="1.8200059235095978e-01" purity="1.8218782544136047e-01" nType="-99"/>
            <Node pos="r" depth="3" NCoef="0" IVar="-1" Cut="0.0000000000000000e+00" cType="1" res="7.7547114342451096e-03" rms="2.1057194471359253e-01" purity="1.6951425373554230e-01" nType="-99"/>
          </Node>
          <Node pos="r" depth="2" NCoef="0" IVar="7" Cut="9.9883335828781128e-01" cType="1" res="1.0912602301687002e-03" rms="1.6272790729999542e-01" purity="8.8865685462951660e-01" nType="0">
            <Node pos="l" depth="3" NCoef="0" IVar="-1" Cut="0.0000000000000000e+00" cType="1" res="8.7118631927296519e-04" rms="1.5626576542854309e-01" purity="8.9867210388183594e-01" nType="-99"/>
            <Node pos="r" depth="3" NCoef="0" IVar="-1" Cut="0.0000000000000000e+00" cType="1" res="2.6001598685979843e-02" rms="2.3994487524032593e-01" purity="7.3669630289077759e-01" nType="-99"/>
          </Node>
        </Node>
      </Node>
    </BinaryTree>
    <BinaryTree type="DecisionTree" boostWeight="1.0000000000000000e+00" itree="433">
      <Node pos="s" depth="0" NCoef="0" IVar="7" Cut="1.7146608233451843e-01" cType="1" res="5.7731242850422859e-04" rms="1.8610906600952148e-01" purity="5.0097703933715820e-01" nType="0">
        <Node pos="l" depth="1" NCoef="0" IVar="10" Cut="1.7330577373504639e+00" cType="1" res="2.4828680325299501e-03" rms="1.8298818171024323e-01" purity="5.2526390552520752e-01" nType="0">
          <Node pos="l" depth="2" NCoef="0" IVar="1" Cut="1.6804360351562500e+03" cType="1" res="1.1382343946024776e-03" rms="1.7700344324111938e-01" purity="5.3086698055267334e-01" nType="0">
            <Node pos="l" depth="3" NCoef="0" IVar="-1" Cut="0.0000000000000000e+00" cType="1" res="-5.6840416043996811e-02" rms="6.2185738235712051e-02" purity="4.0320125408470631e-03" nType="-99"/>
            <Node pos="r" depth="3" NCoef="0" IVar="-1" Cut="0.0000000000000000e+00" cType="1" res="8.3484388887882233e-03" rms="2.0731173455715179e-01" purity="7.5469923019409180e-01" nType="-99"/>
          </Node>
          <Node pos="r" depth="2" NCoef="0" IVar="-1" Cut="0.0000000000000000e+00" cType="1" res="3.4178540110588074e-02" rms="2.4046558141708374e-01" purity="4.6129938960075378e-01" nType="-99"/>
        </Node>
        <Node pos="r" depth="1" NCoef="0" IVar="7" Cut="1.1718343496322632e+00" cType="1" res="-2.1415394730865955e-03" rms="1.9044044613838196e-01" purity="4.6632450819015503e-01" nType="0">
          <Node pos="l" depth="2" NCoef="0" IVar="9" Cut="1.4656735658645630e+00" cType="1" res="-3.8343730848282576e-03" rms="1.8868580460548401e-01" purity="5.3557044267654419e-01" nType="0">
            <Node pos="l" depth="3" NCoef="0" IVar="-1" Cut="0.0000000000000000e+00" cType="1" res="-6.0519957914948463e-03" rms="1.8699015676975250e-01" purity="5.5170673131942749e-01" nType="-99"/>
            <Node pos="r" depth="3" NCoef="0" IVar="-1" Cut="0.0000000000000000e+00" cType="1" res="-4.2880542576313019e-02" rms="2.0516534149646759e-01" purity="3.6205652356147766e-01" nType="-99"/>
          </Node>
          <Node pos="r" depth="2" NCoef="0" IVar="5" Cut="2.0301335144042969e+02" cType="1" res="4.3926411308348179e-03" rms="1.9693028926849365e-01" purity="1.9904181361198425e-01" nType="0">
            <Node pos="l" depth="3" NCoef="0" IVar="-1" Cut="0.0000000000000000e+00" cType="1" res="-2.5200840085744858e-02" rms="1.3183826208114624e-01" purity="3.5961415618658066e-02" nType="-99"/>
            <Node pos="r" depth="3" NCoef="0" IVar="-1" Cut="0.0000000000000000e+00" cType="1" res="2.9616396874189377e-02" rms="2.6629754900932312e-01" purity="4.4659116864204407e-01" nType="-99"/>
          </Node>
        </Node>
      </Node>
    </BinaryTree>
    <BinaryTree type="DecisionTree" boostWeight="1.0000000000000000e+00" itree="434">
      <Node pos="s" depth="0" NCoef="0" IVar="10" Cut="2.2666020393371582e+00" cType="1" res="-8.2722405204549432e-04" rms="1.8422622978687286e-01" purity="4.9668911099433899e-01" nType="0">
        <Node pos="l" depth="1" NCoef="0" IVar="7" Cut="-8.7832516431808472e-01" cType="1" res="-1.4461837708950043e-03" rms="1.8132586777210236e-01" purity="4.9909022450447083e-01" nType="0">
          <Node pos="l" depth="2" NCoef="0" IVar="9" Cut="1.3505026698112488e-01" cType="1" res="-8.5552996024489403e-03" rms="1.7569850385189056e-01" purity="2.8830853104591370e-01" nType="0">
            <Node pos="l" depth="3" NCoef="0" IVar="-1" Cut="0.0000000000000000e+00" cType="1" res="-1.0737217031419277e-02" rms="1.7156682908535004e-01" purity="3.1049597263336182e-01" nType="-99"/>
            <Node pos="r" depth="3" NCoef="0" IVar="-1" Cut="0.0000000000000000e+00" cType="1" res="-4.1400436311960220e-02" rms="1.8095761537551880e-01" purity="2.5812536478042603e-01" nType="-99"/>
          </Node>
          <Node pos="r" depth="2" NCoef="0" IVar="6" Cut="9.4901046752929688e+01" cType="1" res="-2.1387991728261113e-04" rms="1.8225546181201935e-01" purity="5.3562736511230469e-01" nType="0">
            <Node pos="l" depth="3" NCoef="0" IVar="-1" Cut="0.0000000000000000e+00" cType="1" res="-1.3516725972294807e-02" rms="1.7628692090511322e-01" purity="1.7065626382827759e-01" nType="-99"/>
            <Node pos="r" depth="3" NCoef="0" IVar="-1" Cut="0.0000000000000000e+00" cType="1" res="5.1636691205203533e-03" rms="1.8485857546329498e-01" purity="7.0074295997619629e-01" nType="-99"/>
          </Node>
        </Node>
        <Node pos="r" depth="1" NCoef="0" IVar="-1" Cut="0.0000000000000000e+00" cType="1" res="3.5760410130023956e-02" rms="2.6714727282524109e-01" purity="4.1078415513038635e-01" nType="-99"/>
      </Node>
    </BinaryTree>
    <BinaryTree type="DecisionTree" boostWeight="1.0000000000000000e+00" itree="435">
      <Node pos="s" depth="0" NCoef="0" IVar="7" Cut="9.3856668472290039e-01" cType="1" res="1.2795641086995602e-03" rms="1.8886193633079529e-01" purity="4.9866223335266113e-01" nType="0">
        <Node pos="l" depth="1" NCoef="0" IVar="4" Cut="3.2832165527343750e+02" cType="1" res="-1.1364670353941619e-04" rms="1.8456612527370453e-01" purity="5.3113788366317749e-01" nType="0">
          <Node pos="l" depth="2" NCoef="0" IVar="6" Cut="1.5094689941406250e+02" cType="1" res="3.5844587255269289e-03" rms="1.7802599072456360e-01" purity="1.0031758248806000e-01" nType="0">
            <Node pos="l" depth="3" NCoef="0" IVar="-1" Cut="0.0000000000000000e+00" cType="1" res="2.5470594409853220e-03" rms="1.5627944469451904e-01" purity="5.5402144789695740e-02" nType="-99"/>
            <Node pos="r" depth="3" NCoef="0" IVar="-1" Cut="0.0000000000000000e+00" cType="1" res="2.8071580454707146e-02" rms="2.6279261708259583e-01" purity="3.3291235566139221e-01" nType="-99"/>
          </Node>
          <Node pos="r" depth="2" NCoef="0" IVar="9" Cut="-1.1989146471023560e+00" cType="1" res="-2.0438747014850378e-03" rms="1.8786042928695679e-01" purity="7.5600475072860718e-01" nType="0">
            <Node pos="l" depth="3" NCoef="0" IVar="-1" Cut="0.0000000000000000e+00" cType="1" res="-3.0797041952610016e-02" rms="2.0670908689498901e-01" purity="6.5520721673965454e-01" nType="-99"/>
            <Node pos="r" depth="3" NCoef="0" IVar="-1" Cut="0.0000000000000000e+00" cType="1" res="-1.3419185997918248e-03" rms="1.8503381311893463e-01" purity="7.7000981569290161e-01" nType="-99"/>
          </Node>
        </Node>
        <Node pos="r" depth="1" NCoef="0" IVar="5" Cut="1.3090237426757812e+02" cType="1" res="1.0367193259298801e-02" rms="2.1456307172775269e-01" purity="2.8683024644851685e-01" nType="0">
          <Node pos="l" depth="2" NCoef="0" IVar="-1" Cut="0.0000000000000000e+00" cType="1" res="-1.8612550571560860e-02" rms="1.0363662987947464e-01" purity="2.0895330235362053e-02" nType="-99"/>
          <Node pos="r" depth="2" NCoef="0" IVar="4" Cut="3.2607757568359375e+02" cType="1" res="1.4889279380440712e-02" rms="2.4163492023944855e-01" purity="3.8047090172767639e-01" nType="0">
            <Node pos="l" depth="3" NCoef="0" IVar="-1" Cut="0.0000000000000000e+00" cType="1" res="6.6172510385513306e-02" rms="2.3244015872478485e-01" purity="1.0050554573535919e-01" nType="-99"/>
            <Node pos="r" depth="3" NCoef="0" IVar="-1" Cut="0.0000000000000000e+00" cType="1" res="9.0318880975246429e-03" rms="2.4853311479091644e-01" purity="6.1030250787734985e-01" nType="-99"/>
          </Node>
        </Node>
      </Node>
    </BinaryTree>
    <BinaryTree type="DecisionTree" boostWeight="1.0000000000000000e+00" itree="436">
      <Node pos="s" depth="0" NCoef="0" IVar="10" Cut="2.2664608955383301e+00" cType="1" res="8.0889643868431449e-05" rms="1.8733631074428558e-01" purity="4.9812847375869751e-01" nType="0">
        <Node pos="l" depth="1" NCoef="0" IVar="3" Cut="6.4822729492187500e+02" cType="1" res="8.2078139530494809e-04" rms="1.8688918650150299e-01" purity="5.0250256061553955e-01" nType="0">
          <Node pos="l" depth="2" NCoef="0" IVar="0" Cut="7.0573205566406250e+02" cType="1" res="4.1547082364559174e-03" rms="2.0121575891971588e-01" purity="1.9746725261211395e-01" nType="0">
            <Node pos="l" depth="3" NCoef="0" IVar="-1" Cut="0.0000000000000000e+00" cType="1" res="1.9648436456918716e-02" rms="1.9060267508029938e-01" purity="9.8284550011157990e-02" nType="-99"/>
            <Node pos="r" depth="3" NCoef="0" IVar="-1" Cut="0.0000000000000000e+00" cType="1" res="-1.1458302848041058e-02" rms="2.3845271766185760e-01" purity="5.9121358394622803e-01" nType="-99"/>
          </Node>
          <Node pos="r" depth="2" NCoef="0" IVar="8" Cut="1.2001370191574097e+00" cType="1" res="-2.0785066299140453e-03" rms="1.7341904342174530e-01" purity="7.6777082681655884e-01" nType="0">
            <Node pos="l" depth="3" NCoef="0" IVar="-1" Cut="0.0000000000000000e+00" cType="1" res="-3.6296679172664881e-03" rms="1.6943812370300293e-01" purity="7.8598344326019287e-01" nType="-99"/>
            <Node pos="r" depth="3" NCoef="0" IVar="-1" Cut="0.0000000000000000e+00" cType="1" res="-2.9617222025990486e-02" rms="2.1643973886966705e-01" purity="5.4167681932449341e-01" nType="-99"/>
          </Node>
        </Node>
        <Node pos="r" depth="1" NCoef="0" IVar="-1" Cut="0.0000000000000000e+00" cType="1" res="-5.1545236259698868e-02" rms="2.0136435329914093e-01" purity="3.3519977331161499e-01" nType="-99"/>
      </Node>
    </BinaryTree>
    <BinaryTree type="DecisionTree" boostWeight="1.0000000000000000e+00" itree="437">
      <Node pos="s" depth="0" NCoef="0" IVar="10" Cut="-1.7332239151000977e+00" cType="1" res="-5.7076168013736606e-04" rms="1.8520516157150269e-01" purity="4.9607852101325989e-01" nType="0">
        <Node pos="l" depth="1" NCoef="0" IVar="7" Cut="-4.9205734394490719e-03" cType="1" res="-1.0016417130827904e-02" rms="2.1424323320388794e-01" purity="4.0088549256324768e-01" nType="0">
          <Node pos="l" depth="2" NCoef="0" IVar="-1" Cut="0.0000000000000000e+00" cType="1" res="1.0689660906791687e-02" rms="2.2362631559371948e-01" purity="4.0154081583023071e-01" nType="-99"/>
          <Node pos="r" depth="2" NCoef="0" IVar="-1" Cut="0.0000000000000000e+00" cType="1" res="-5.1216132938861847e-02" rms="2.0240695774555206e-01" purity="4.0018200874328613e-01" nType="-99"/>
        </Node>
        <Node pos="r" depth="1" NCoef="0" IVar="9" Cut="1.7332123517990112e+00" cType="1" res="2.3359467741101980e-04" rms="1.8249647319316864e-01" purity="5.0418478250503540e-01" nType="0">
          <Node pos="l" depth="2" NCoef="0" IVar="4" Cut="3.2241723632812500e+02" cType="1" res="-4.6059701708145440e-04" rms="1.7855149507522583e-01" purity="5.1674556732177734e-01" nType="0">
            <Node pos="l" depth="3" NCoef="0" IVar="-1" Cut="0.0000000000000000e+00" cType="1" res="-1.3588725589215755e-02" rms="1.5916132926940918e-01" purity="7.5997531414031982e-02" nType="-99"/>
            <Node pos="r" depth="3" NCoef="0" IVar="-1" Cut="0.0000000000000000e+00" cType="1" res="3.5813995636999607e-03" rms="1.8775695562362671e-01" purity="7.4430710077285767e-01" nType="-99"/>
          </Node>
          <Node pos="r" depth="2" NCoef="0" IVar="6" Cut="9.9812118530273438e+01" cType="1" res="1.1722788214683533e-02" rms="2.3819778859615326e-01" purity="2.9629808664321899e-01" nType="0">
            <Node pos="l" depth="3" NCoef="0" IVar="-1" Cut="0.0000000000000000e+00" cType="1" res="4.0992837399244308e-02" rms="2.0853677392005920e-01" purity="1.4794158935546875e-01" nType="-99"/>
            <Node pos="r" depth="3" NCoef="0" IVar="-1" Cut="0.0000000000000000e+00" cType="1" res="1.0211136192083359e-02" rms="2.6553127169609070e-01" purity="4.5105835795402527e-01" nType="-99"/>
          </Node>
        </Node>
      </Node>
    </BinaryTree>
    <BinaryTree type="DecisionTree" boostWeight="1.0000000000000000e+00" itree="438">
      <Node pos="s" depth="0" NCoef="0" IVar="8" Cut="1.4664735794067383e+00" cType="1" res="2.3644806351512671e-03" rms="1.9091469049453735e-01" purity="4.9727928638458252e-01" nType="0">
        <Node pos="l" depth="1" NCoef="0" IVar="10" Cut="-1.9999730587005615e+00" cType="1" res="1.6113080782815814e-03" rms="1.8711069226264954e-01" purity="5.1846653223037720e-01" nType="0">
          <Node pos="l" depth="2" NCoef="0" IVar="-1" Cut="0.0000000000000000e+00" cType="1" res="-2.2506162524223328e-02" rms="2.2375534474849701e-01" purity="3.6324962973594666e-01" nType="-99"/>
          <Node pos="r" depth="2" NCoef="0" IVar="9" Cut="3.9997363090515137e-01" cType="1" res="2.2569166030734777e-03" rms="1.8516185879707336e-01" purity="5.2585130929946899e-01" nType="0">
            <Node pos="l" depth="3" NCoef="0" IVar="-1" Cut="0.0000000000000000e+00" cType="1" res="1.3785925693809986e-02" rms="1.8459118902683258e-01" purity="5.4364079236984253e-01" nType="-99"/>
            <Node pos="r" depth="3" NCoef="0" IVar="-1" Cut="0.0000000000000000e+00" cType="1" res="-5.2332687191665173e-03" rms="1.8612502515316010e-01" purity="4.9351966381072998e-01" nType="-99"/>
          </Node>
        </Node>
        <Node pos="r" depth="1" NCoef="0" IVar="10" Cut="-3.9997109770774841e-01" cType="1" res="1.1774400249123573e-02" rms="2.3306392133235931e-01" purity="2.3257169127464294e-01" nType="0">
          <Node pos="l" depth="2" NCoef="0" IVar="-1" Cut="0.0000000000000000e+00" cType="1" res="6.8298831582069397e-02" rms="2.6791504025459290e-01" purity="2.6849988102912903e-01" nType="-99"/>
          <Node pos="r" depth="2" NCoef="0" IVar="-1" Cut="0.0000000000000000e+00" cType="1" res="1.6574442852288485e-03" rms="2.1118205785751343e-01" purity="2.1329744160175323e-01" nType="-99"/>
        </Node>
      </Node>
    </BinaryTree>
    <BinaryTree type="DecisionTree" boostWeight="1.0000000000000000e+00" itree="439">
      <Node pos="s" depth="0" NCoef="0" IVar="8" Cut="-9.3333512544631958e-01" cType="1" res="-6.5840961178764701e-04" rms="1.8530713021755219e-01" purity="5.0147181749343872e-01" nType="0">
        <Node pos="l" depth="1" NCoef="0" IVar="6" Cut="1.0908560180664062e+02" cType="1" res="6.2371878884732723e-03" rms="2.1021315455436707e-01" purity="3.7014624476432800e-01" nType="0">
          <Node pos="l" depth="2" NCoef="0" IVar="1" Cut="1.6382124023437500e+03" cType="1" res="1.3993876054883003e-02" rms="2.0351529121398926e-01" purity="1.5823704004287720e-01" nType="0">
            <Node pos="l" depth="3" NCoef="0" IVar="-1" Cut="0.0000000000000000e+00" cType="1" res="5.0247948616743088e-02" rms="9.4565495848655701e-02" purity="9.5379445701837540e-03" nType="-99"/>
            <Node pos="r" depth="3" NCoef="0" IVar="-1" Cut="0.0000000000000000e+00" cType="1" res="3.8706712424755096e-02" rms="2.8107124567031860e-01" purity="3.3169353008270264e-01" nType="-99"/>
          </Node>
          <Node pos="r" depth="2" NCoef="0" IVar="10" Cut="1.3621002435684204e-01" cType="1" res="-1.1810569558292627e-03" rms="2.1616470813751221e-01" purity="5.7280933856964111e-01" nType="0">
            <Node pos="l" depth="3" NCoef="0" IVar="-1" Cut="0.0000000000000000e+00" cType="1" res="1.0029546916484833e-02" rms="2.1576341986656189e-01" purity="5.4826337099075317e-01" nType="-99"/>
            <Node pos="r" depth="3" NCoef="0" IVar="-1" Cut="0.0000000000000000e+00" cType="1" res="-1.8243331462144852e-02" rms="2.1643280982971191e-01" purity="6.0268658399581909e-01" nType="-99"/>
          </Node>
        </Node>
        <Node pos="r" depth="1" NCoef="0" IVar="6" Cut="2.0803721618652344e+02" cType="1" res="-2.1531388629227877e-03" rms="1.7941814661026001e-01" purity="5.2993869781494141e-01" nType="0">
          <Node pos="l" depth="2" NCoef="0" IVar="10" Cut="-1.7333043813705444e+00" cType="1" res="-4.4201342388987541e-03" rms="1.9457703828811646e-01" purity="3.5117098689079285e-01" nType="0">
            <Node pos="l" depth="3" NCoef="0" IVar="-1" Cut="0.0000000000000000e+00" cType="1" res="1.5402127057313919e-02" rms="2.4597340822219849e-01" purity="3.7152108550071716e-01" nType="-99"/>
            <Node pos="r" depth="3" NCoef="0" IVar="-1" Cut="0.0000000000000000e+00" cType="1" res="-1.4594689011573792e-02" rms="1.8873777985572815e-01" purity="3.4917545318603516e-01" nType="-99"/>
          </Node>
          <Node pos="r" depth="2" NCoef="0" IVar="5" Cut="3.5606469726562500e+02" cType="1" res="3.3025979064404964e-03" rms="1.3603271543979645e-01" purity="9.6016013622283936e-01" nType="0">
            <Node pos="l" depth="3" NCoef="0" IVar="-1" Cut="0.0000000000000000e+00" cType="1" res="2.0834226161241531e-02" rms="2.2588202357292175e-01" purity="8.7684988975524902e-01" nType="-99"/>
            <Node pos="r" depth="3" NCoef="0" IVar="-1" Cut="0.0000000000000000e+00" cType="1" res="1.2590546160936356e-02" rms="7.2989009320735931e-02" purity="9.9386394023895264e-01" nType="-99"/>
          </Node>
        </Node>
      </Node>
    </BinaryTree>
    <BinaryTree type="DecisionTree" boostWeight="1.0000000000000000e+00" itree="440">
      <Node pos="s" depth="0" NCoef="0" IVar="10" Cut="-1.7332875728607178e+00" cType="1" res="2.0030280575156212e-04" rms="1.8684963881969452e-01" purity="4.9916100502014160e-01" nType="0">
        <Node pos="l" depth="1" NCoef="0" IVar="0" Cut="6.1664343261718750e+02" cType="1" res="-1.2430874630808830e-02" rms="2.0798757672309875e-01" purity="3.9715802669525146e-01" nType="0">
          <Node pos="l" depth="2" NCoef="0" IVar="-1" Cut="0.0000000000000000e+00" cType="1" res="-5.2448388189077377e-02" rms="1.8813674151897430e-01" purity="9.1684639453887939e-02" nType="-99"/>
          <Node pos="r" depth="2" NCoef="0" IVar="-1" Cut="0.0000000000000000e+00" cType="1" res="1.4386661350727081e-03" rms="2.2493232786655426e-01" purity="6.9566637277603149e-01" nType="-99"/>
        </Node>
        <Node pos="r" depth="1" NCoef="0" IVar="8" Cut="1.3322012126445770e-01" cType="1" res="1.2672015000134706e-03" rms="1.8491408228874207e-01" purity="5.0777673721313477e-01" nType="0">
          <Node pos="l" depth="2" NCoef="0" IVar="4" Cut="3.2338348388671875e+02" cType="1" res="-1.7722346819937229e-03" rms="1.8152670562267303e-01" purity="5.1489526033401489e-01" nType="0">
            <Node pos="l" depth="3" NCoef="0" IVar="-1" Cut="0.0000000000000000e+00" cType="1" res="8.9452126994729042e-03" rms="1.7375157773494720e-01" purity="8.1848114728927612e-02" nType="-99"/>
            <Node pos="r" depth="3" NCoef="0" IVar="-1" Cut="0.0000000000000000e+00" cType="1" res="-1.1766072362661362e-02" rms="1.8535529077053070e-01" purity="7.3760443925857544e-01" nType="-99"/>
          </Node>
          <Node pos="r" depth="2" NCoef="0" IVar="7" Cut="1.9764363765716553e-01" cType="1" res="4.9582105129957199e-03" rms="1.8888023495674133e-01" purity="4.9913224577903748e-01" nType="0">
            <Node pos="l" depth="3" NCoef="0" IVar="-1" Cut="0.0000000000000000e+00" cType="1" res="2.4786507710814476e-02" rms="1.9338694214820862e-01" purity="5.1274007558822632e-01" nType="-99"/>
            <Node pos="r" depth="3" NCoef="0" IVar="-1" Cut="0.0000000000000000e+00" cType="1" res="-5.3883675718680024e-04" rms="1.8213137984275818e-01" purity="4.7971138358116150e-01" nType="-99"/>
          </Node>
        </Node>
      </Node>
    </BinaryTree>
    <BinaryTree type="DecisionTree" boostWeight="1.0000000000000000e+00" itree="441">
      <Node pos="s" depth="0" NCoef="0" IVar="8" Cut="1.7332985401153564e+00" cType="1" res="-4.6598011977039278e-04" rms="1.8638765811920166e-01" purity="4.9677383899688721e-01" nType="0">
        <Node pos="l" depth="1" NCoef="0" IVar="9" Cut="-1.1999315023422241e+00" cType="1" res="3.3381546381860971e-04" rms="1.8495203554630280e-01" purity="5.1164275407791138e-01" nType="0">
          <Node pos="l" depth="2" NCoef="0" IVar="8" Cut="6.5381062030792236e-01" cType="1" res="-6.4360997639596462e-03" rms="2.0207023620605469e-01" purity="3.8139113783836365e-01" nType="0">
            <Node pos="l" depth="3" NCoef="0" IVar="-1" Cut="0.0000000000000000e+00" cType="1" res="-8.1293024122714996e-03" rms="1.9596558809280396e-01" purity="3.9643251895904541e-01" nType="-99"/>
            <Node pos="r" depth="3" NCoef="0" IVar="-1" Cut="0.0000000000000000e+00" cType="1" res="-4.0723230689764023e-02" rms="2.2429808974266052e-01" purity="3.2141876220703125e-01" nType="-99"/>
          </Node>
          <Node pos="r" depth="2" NCoef="0" IVar="7" Cut="-9.2325377464294434e-01" cType="1" res="1.4202782185748219e-03" rms="1.8203157186508179e-01" purity="5.3254598379135132e-01" nType="0">
            <Node pos="l" depth="3" NCoef="0" IVar="-1" Cut="0.0000000000000000e+00" cType="1" res="2.9402365908026695e-02" rms="2.0309580862522125e-01" purity="3.1493365764617920e-01" nType="-99"/>
            <Node pos="r" depth="3" NCoef="0" IVar="-1" Cut="0.0000000000000000e+00" cType="1" res="-1.4259121962822974e-04" rms="1.7868581414222717e-01" purity="5.6446820497512817e-01" nType="-99"/>
          </Node>
        </Node>
        <Node pos="r" depth="1" NCoef="0" IVar="-1" Cut="0.0000000000000000e+00" cType="1" res="-4.6791829168796539e-02" rms="2.1649405360221863e-01" purity="1.4825218915939331e-01" nType="-99"/>
      </Node>
    </BinaryTree>
    <BinaryTree type="DecisionTree" boostWeight="1.0000000000000000e+00" itree="442">
      <Node pos="s" depth="0" NCoef="0" IVar="8" Cut="-1.1997355222702026e+00" cType="1" res="-5.2325130673125386e-04" rms="1.8569841980934143e-01" purity="4.9745175242424011e-01" nType="0">
        <Node pos="l" depth="1" NCoef="0" IVar="1" Cut="2.0838623046875000e+03" cType="1" res="-8.5405912250280380e-03" rms="2.0740959048271179e-01" purity="2.8465253114700317e-01" nType="0">
          <Node pos="l" depth="2" NCoef="0" IVar="5" Cut="1.7863502502441406e+02" cType="1" res="-1.6031645936891437e-03" rms="1.6932114958763123e-01" purity="4.8312705010175705e-02" nType="0">
            <Node pos="l" depth="3" NCoef="0" IVar="-1" Cut="0.0000000000000000e+00" cType="1" res="-3.0430890619754791e-02" rms="9.7231462597846985e-02" purity="1.3486639596521854e-02" nType="-99"/>
            <Node pos="r" depth="3" NCoef="0" IVar="-1" Cut="0.0000000000000000e+00" cType="1" res="5.7386332191526890e-03" rms="2.5618693232536316e-01" purity="1.1538572609424591e-01" nType="-99"/>
          </Node>
          <Node pos="r" depth="2" NCoef="0" IVar="-1" Cut="0.0000000000000000e+00" cType="1" res="-3.5733893513679504e-02" rms="2.7271375060081482e-01" purity="8.0669510364532471e-01" nType="-99"/>
        </Node>
        <Node pos="r" depth="1" NCoef="0" IVar="10" Cut="4.0004119277000427e-01" cType="1" res="4.8535378300584853e-04" rms="1.8275964260101318e-01" purity="5.2422255277633667e-01" nType="0">
          <Node pos="l" depth="2" NCoef="0" IVar="8" Cut="1.2763036489486694e+00" cType="1" res="2.8575288597494364e-03" rms="1.8253098428249359e-01" purity="5.3118097782135010e-01" nType="0">
            <Node pos="l" depth="3" NCoef="0" IVar="-1" Cut="0.0000000000000000e+00" cType="1" res="4.8337690532207489e-03" rms="1.7631095647811890e-01" purity="5.5832684040069580e-01" nType="-99"/>
            <Node pos="r" depth="3" NCoef="0" IVar="-1" Cut="0.0000000000000000e+00" cType="1" res="2.9863249510526657e-02" rms="2.2849045693874359e-01" purity="2.9983660578727722e-01" nType="-99"/>
          </Node>
          <Node pos="r" depth="2" NCoef="0" IVar="9" Cut="-1.4661954641342163e+00" cType="1" res="-3.2486354466527700e-03" rms="1.8305674195289612e-01" purity="5.1326948404312134e-01" nType="0">
            <Node pos="l" depth="3" NCoef="0" IVar="-1" Cut="0.0000000000000000e+00" cType="1" res="-4.8076003789901733e-02" rms="2.1143752336502075e-01" purity="3.2153543829917908e-01" nType="-99"/>
            <Node pos="r" depth="3" NCoef="0" IVar="-1" Cut="0.0000000000000000e+00" cType="1" res="-4.8694740980863571e-03" rms="1.8028354644775391e-01" purity="5.2994221448898315e-01" nType="-99"/>
          </Node>
        </Node>
      </Node>
    </BinaryTree>
    <BinaryTree type="DecisionTree" boostWeight="1.0000000000000000e+00" itree="443">
      <Node pos="s" depth="0" NCoef="0" IVar="10" Cut="-1.7332870960235596e+00" cType="1" res="-2.0145878661423922e-03" rms="1.8541574478149414e-01" purity="4.9144393205642700e-01" nType="0">
        <Node pos="l" depth="1" NCoef="0" IVar="2" Cut="3.7666190415620804e-02" cType="1" res="6.9397715851664543e-03" rms="2.3628984391689301e-01" purity="4.0031972527503967e-01" nType="0">
          <Node pos="l" depth="2" NCoef="0" IVar="-1" Cut="0.0000000000000000e+00" cType="1" res="3.5704363137483597e-02" rms="2.3656198382377625e-01" purity="2.3312501609325409e-01" nType="-99"/>
          <Node pos="r" depth="2" NCoef="0" IVar="-1" Cut="0.0000000000000000e+00" cType="1" res="-1.0907162912189960e-02" rms="2.3534391820430756e-01" purity="5.9059661626815796e-01" nType="-99"/>
        </Node>
        <Node pos="r" depth="1" NCoef="0" IVar="0" Cut="1.3292807617187500e+03" cType="1" res="-2.7966247871518135e-03" rms="1.8027114868164062e-01" purity="4.9940237402915955e-01" nType="0">
          <Node pos="l" depth="2" NCoef="0" IVar="1" Cut="1.8612537841796875e+03" cType="1" res="-3.6015231162309647e-03" rms="1.8866208195686340e-01" purity="4.3499436974525452e-01" nType="0">
            <Node pos="l" depth="3" NCoef="0" IVar="-1" Cut="0.0000000000000000e+00" cType="1" res="-2.6263168547302485e-04" rms="1.2521281838417053e-01" purity="2.0743422210216522e-02" nType="-99"/>
            <Node pos="r" depth="3" NCoef="0" IVar="-1" Cut="0.0000000000000000e+00" cType="1" res="-1.2509703636169434e-02" rms="2.2978366911411285e-01" purity="7.9334139823913574e-01" nType="-99"/>
          </Node>
          <Node pos="r" depth="2" NCoef="0" IVar="7" Cut="1.8846614286303520e-02" cType="1" res="3.3194385468959808e-03" rms="9.4512224197387695e-02" purity="9.8881000280380249e-01" nType="0">
            <Node pos="l" depth="3" NCoef="0" IVar="-1" Cut="0.0000000000000000e+00" cType="1" res="1.2366645038127899e-02" rms="9.2901013791561127e-02" purity="9.8751354217529297e-01" nType="-99"/>
            <Node pos="r" depth="3" NCoef="0" IVar="-1" Cut="0.0000000000000000e+00" cType="1" res="4.8097230494022369e-02" rms="9.5984518527984619e-02" purity="9.9004888534545898e-01" nType="-99"/>
          </Node>
        </Node>
      </Node>
    </BinaryTree>
    <BinaryTree type="DecisionTree" boostWeight="1.0000000000000000e+00" itree="444">
      <Node pos="s" depth="0" NCoef="0" IVar="10" Cut="-2.2666065692901611e+00" cType="1" res="2.3366997484117746e-03" rms="1.9027119874954224e-01" purity="5.0103312730789185e-01" nType="0">
        <Node pos="l" depth="1" NCoef="0" IVar="-1" Cut="0.0000000000000000e+00" cType="1" res="3.3648185431957245e-02" rms="2.6647713780403137e-01" purity="3.4627428650856018e-01" nType="-99"/>
        <Node pos="r" depth="1" NCoef="0" IVar="5" Cut="2.2028425598144531e+02" cType="1" res="1.8353152554482222e-03" rms="1.8776941299438477e-01" purity="5.0519555807113647e-01" nType="0">
          <Node pos="l" depth="2" NCoef="0" IVar="8" Cut="-1.7330332994461060e+00" cType="1" res="4.5041497796773911e-03" rms="1.9167762994766235e-01" purity="1.3667735457420349e-01" nType="0">
            <Node pos="l" depth="3" NCoef="0" IVar="-1" Cut="0.0000000000000000e+00" cType="1" res="7.2046734392642975e-02" rms="2.0225033164024353e-01" purity="9.9072836339473724e-02" nType="-99"/>
            <Node pos="r" depth="3" NCoef="0" IVar="-1" Cut="0.0000000000000000e+00" cType="1" res="8.4148077294230461e-03" rms="1.9074754416942596e-01" purity="1.3957607746124268e-01" nType="-99"/>
          </Node>
          <Node pos="r" depth="2" NCoef="0" IVar="7" Cut="9.7765821218490601e-01" cType="1" res="-4.5342234079726040e-04" rms="1.8432104587554932e-01" purity="8.2122927904129028e-01" nType="0">
            <Node pos="l" depth="3" NCoef="0" IVar="-1" Cut="0.0000000000000000e+00" cType="1" res="-5.4706535302102566e-03" rms="1.7533628642559052e-01" purity="8.4177124500274658e-01" nType="-99"/>
            <Node pos="r" depth="3" NCoef="0" IVar="-1" Cut="0.0000000000000000e+00" cType="1" res="2.3908196017146111e-02" rms="2.6463899016380310e-01" purity="5.9043020009994507e-01" nType="-99"/>
          </Node>
        </Node>
      </Node>
    </BinaryTree>
    <BinaryTree type="DecisionTree" boostWeight="1.0000000000000000e+00" itree="445">
      <Node pos="s" depth="0" NCoef="0" IVar="7" Cut="-7.4911221861839294e-02" cType="1" res="1.4359954511746764e-03" rms="1.8722243607044220e-01" purity="5.0092661380767822e-01" nType="0">
        <Node pos="l" depth="1" NCoef="0" IVar="9" Cut="6.6659998893737793e-01" cType="1" res="-2.6780848857015371e-03" rms="1.8111766874790192e-01" purity="4.8241481184959412e-01" nType="0">
          <Node pos="l" depth="2" NCoef="0" IVar="9" Cut="-1.1492172479629517e+00" cType="1" res="-6.0347514227032661e-04" rms="1.7732627689838409e-01" purity="4.9890455603599548e-01" nType="0">
            <Node pos="l" depth="3" NCoef="0" IVar="-1" Cut="0.0000000000000000e+00" cType="1" res="-2.1065976470708847e-02" rms="1.8435733020305634e-01" purity="3.7754410505294800e-01" nType="-99"/>
            <Node pos="r" depth="3" NCoef="0" IVar="-1" Cut="0.0000000000000000e+00" cType="1" res="4.4849514961242676e-03" rms="1.7524926364421844e-01" purity="5.3297859430313110e-01" nType="-99"/>
          </Node>
          <Node pos="r" depth="2" NCoef="0" IVar="9" Cut="1.7840114831924438e+00" cType="1" res="-8.4619801491498947e-03" rms="1.9117262959480286e-01" purity="4.3644231557846069e-01" nType="0">
            <Node pos="l" depth="3" NCoef="0" IVar="-1" Cut="0.0000000000000000e+00" cType="1" res="-3.1892564147710800e-02" rms="1.8244780600070953e-01" purity="4.8071563243865967e-01" nType="-99"/>
            <Node pos="r" depth="3" NCoef="0" IVar="-1" Cut="0.0000000000000000e+00" cType="1" res="4.2927577160298824e-03" rms="2.2038477659225464e-01" purity="2.7122589945793152e-01" nType="-99"/>
          </Node>
        </Node>
        <Node pos="r" depth="1" NCoef="0" IVar="8" Cut="6.6616111993789673e-01" cType="1" res="4.9387440085411072e-03" rms="1.9219797849655151e-01" purity="5.1668775081634521e-01" nType="0">
          <Node pos="l" depth="2" NCoef="0" IVar="7" Cut="6.0942012071609497e-01" cType="1" res="2.8126242104917765e-03" rms="1.8499161303043365e-01" purity="5.4220318794250488e-01" nType="0">
            <Node pos="l" depth="3" NCoef="0" IVar="-1" Cut="0.0000000000000000e+00" cType="1" res="-3.4754595253616571e-03" rms="1.6260844469070435e-01" purity="6.4426696300506592e-01" nType="-99"/>
            <Node pos="r" depth="3" NCoef="0" IVar="-1" Cut="0.0000000000000000e+00" cType="1" res="2.0547989755868912e-02" rms="2.1295489370822906e-01" purity="3.9552971720695496e-01" nType="-99"/>
          </Node>
          <Node pos="r" depth="2" NCoef="0" IVar="7" Cut="1.9712346792221069e-01" cType="1" res="1.1313008144497871e-02" rms="2.1221485733985901e-01" purity="4.4019058346748352e-01" nType="0">
            <Node pos="l" depth="3" NCoef="0" IVar="-1" Cut="0.0000000000000000e+00" cType="1" res="6.5768256783485413e-02" rms="2.3324619233608246e-01" purity="5.5916589498519897e-01" nType="-99"/>
            <Node pos="r" depth="3" NCoef="0" IVar="-1" Cut="0.0000000000000000e+00" cType="1" res="1.5184413641691208e-02" rms="2.0479640364646912e-01" purity="4.0230488777160645e-01" nType="-99"/>
          </Node>
        </Node>
      </Node>
    </BinaryTree>
    <BinaryTree type="DecisionTree" boostWeight="1.0000000000000000e+00" itree="446">
      <Node pos="s" depth="0" NCoef="0" IVar="6" Cut="1.2901866149902344e+02" cType="1" res="1.6098049236461520e-03" rms="1.8802286684513092e-01" purity="5.0778365135192871e-01" nType="0">
        <Node pos="l" depth="1" NCoef="0" IVar="6" Cut="1.2149262237548828e+02" cType="1" res="4.6818903647363186e-03" rms="1.9615596532821655e-01" purity="2.1738494932651520e-01" nType="0">
          <Node pos="l" depth="2" NCoef="0" IVar="10" Cut="-1.7332215309143066e+00" cType="1" res="3.0422706622630358e-03" rms="1.9074259698390961e-01" purity="2.0264852046966553e-01" nType="0">
            <Node pos="l" depth="3" NCoef="0" IVar="-1" Cut="0.0000000000000000e+00" cType="1" res="3.7594273686408997e-02" rms="2.3032732307910919e-01" purity="2.5336936116218567e-01" nType="-99"/>
            <Node pos="r" depth="3" NCoef="0" IVar="-1" Cut="0.0000000000000000e+00" cType="1" res="3.2636094838380814e-03" rms="1.8542978167533875e-01" purity="1.9667364656925201e-01" nType="-99"/>
          </Node>
          <Node pos="r" depth="2" NCoef="0" IVar="-1" Cut="0.0000000000000000e+00" cType="1" res="4.7746155411005020e-02" rms="2.6024475693702698e-01" purity="4.2729780077934265e-01" nType="-99"/>
        </Node>
        <Node pos="r" depth="1" NCoef="0" IVar="9" Cut="-6.6635334491729736e-01" cType="1" res="-1.3600602978840470e-03" rms="1.7976112663745880e-01" purity="7.8851962089538574e-01" nType="0">
          <Node pos="l" depth="2" NCoef="0" IVar="1" Cut="2.2244907226562500e+03" cType="1" res="-9.0077221393585205e-03" rms="1.9396361708641052e-01" purity="7.4136215448379517e-01" nType="0">
            <Node pos="l" depth="3" NCoef="0" IVar="-1" Cut="0.0000000000000000e+00" cType="1" res="-3.2486937940120697e-02" rms="2.7517983317375183e-01" purity="1.1955124884843826e-01" nType="-99"/>
            <Node pos="r" depth="3" NCoef="0" IVar="-1" Cut="0.0000000000000000e+00" cType="1" res="-1.2991867959499359e-02" rms="1.5369445085525513e-01" purity="9.6759885549545288e-01" nType="-99"/>
          </Node>
          <Node pos="r" depth="2" NCoef="0" IVar="0" Cut="5.5411822509765625e+02" cType="1" res="1.2682977830991149e-03" rms="1.7453612387180328e-01" purity="8.0472683906555176e-01" nType="0">
            <Node pos="l" depth="3" NCoef="0" IVar="-1" Cut="0.0000000000000000e+00" cType="1" res="1.6374925151467323e-02" rms="2.5232964754104614e-01" purity="2.0403368771076202e-01" nType="-99"/>
            <Node pos="r" depth="3" NCoef="0" IVar="-1" Cut="0.0000000000000000e+00" cType="1" res="-4.5562107115983963e-03" rms="1.5084876120090485e-01" purity="9.4364750385284424e-01" nType="-99"/>
          </Node>
        </Node>
      </Node>
    </BinaryTree>
    <BinaryTree type="DecisionTree" boostWeight="1.0000000000000000e+00" itree="447">
      <Node pos="s" depth="0" NCoef="0" IVar="8" Cut="1.4670108556747437e+00" cType="1" res="-8.0971978604793549e-04" rms="1.8624731898307800e-01" purity="4.9601969122886658e-01" nType="0">
        <Node pos="l" depth="1" NCoef="0" IVar="9" Cut="-1.7328979969024658e+00" cType="1" res="-1.6740488354116678e-03" rms="1.8249954283237457e-01" purity="5.1587533950805664e-01" nType="0">
          <Node pos="l" depth="2" NCoef="0" IVar="6" Cut="9.4665954589843750e+01" cType="1" res="1.0965840891003609e-02" rms="2.3314301669597626e-01" purity="3.2596361637115479e-01" nType="0">
            <Node pos="l" depth="3" NCoef="0" IVar="-1" Cut="0.0000000000000000e+00" cType="1" res="4.1031107306480408e-02" rms="2.2023345530033112e-01" purity="1.8620450794696808e-01" nType="-99"/>
            <Node pos="r" depth="3" NCoef="0" IVar="-1" Cut="0.0000000000000000e+00" cType="1" res="1.3147535733878613e-02" rms="2.4473063647747040e-01" purity="4.5909377932548523e-01" nType="-99"/>
          </Node>
          <Node pos="r" depth="2" NCoef="0" IVar="5" Cut="3.2121713256835938e+02" cType="1" res="-2.4344720877707005e-03" rms="1.7896798253059387e-01" purity="5.2730053663253784e-01" nType="0">
            <Node pos="l" depth="3" NCoef="0" IVar="-1" Cut="0.0000000000000000e+00" cType="1" res="-1.0461669415235519e-02" rms="2.0124024152755737e-01" purity="2.7163487672805786e-01" nType="-99"/>
            <Node pos="r" depth="3" NCoef="0" IVar="-1" Cut="0.0000000000000000e+00" cType="1" res="5.2885971963405609e-03" rms="1.3298390805721283e-01" purity="9.5982879400253296e-01" nType="-99"/>
          </Node>
        </Node>
        <Node pos="r" depth="1" NCoef="0" IVar="7" Cut="-9.8923638463020325e-02" cType="1" res="1.0198809206485748e-02" rms="2.2838339209556580e-01" purity="2.4312829971313477e-01" nType="0">
          <Node pos="l" depth="2" NCoef="0" IVar="-1" Cut="0.0000000000000000e+00" cType="1" res="4.1628880426287651e-03" rms="2.2049281001091003e-01" purity="2.1122404932975769e-01" nType="-99"/>
          <Node pos="r" depth="2" NCoef="0" IVar="-1" Cut="0.0000000000000000e+00" cType="1" res="3.7356149405241013e-02" rms="2.3510603606700897e-01" purity="2.7230072021484375e-01" nType="-99"/>
        </Node>
      </Node>
    </BinaryTree>
    <BinaryTree type="DecisionTree" boostWeight="1.0000000000000000e+00" itree="448">
      <Node pos="s" depth="0" NCoef="0" IVar="8" Cut="-6.6655725240707397e-01" cType="1" res="2.7167983353137970e-04" rms="1.8514369428157806e-01" purity="4.9810460209846497e-01" nType="0">
        <Node pos="l" depth="1" NCoef="0" IVar="9" Cut="9.3326896429061890e-01" cType="1" res="-3.8218263071030378e-03" rms="1.9323574006557465e-01" purity="4.0791326761245728e-01" nType="0">
          <Node pos="l" depth="2" NCoef="0" IVar="9" Cut="4.0010315179824829e-01" cType="1" res="-6.8874104181304574e-04" rms="1.9144481420516968e-01" purity="4.2151716351509094e-01" nType="0">
            <Node pos="l" depth="3" NCoef="0" IVar="-1" Cut="0.0000000000000000e+00" cType="1" res="-8.2750674337148666e-03" rms="1.9305367767810822e-01" purity="4.0203016996383667e-01" nType="-99"/>
            <Node pos="r" depth="3" NCoef="0" IVar="-1" Cut="0.0000000000000000e+00" cType="1" res="2.2678963840007782e-02" rms="1.8443234264850616e-01" purity="5.0093305110931396e-01" nType="-99"/>
          </Node>
          <Node pos="r" depth="2" NCoef="0" IVar="-1" Cut="0.0000000000000000e+00" cType="1" res="-3.5293437540531158e-02" rms="2.0008350908756256e-01" purity="3.5045260190963745e-01" nType="-99"/>
        </Node>
        <Node pos="r" depth="1" NCoef="0" IVar="0" Cut="8.8850231933593750e+02" cType="1" res="1.6506436513736844e-03" rms="1.8231621384620667e-01" purity="5.2848708629608154e-01" nType="0">
          <Node pos="l" depth="2" NCoef="0" IVar="6" Cut="1.4925814819335938e+02" cType="1" res="3.3572874963283539e-03" rms="2.0137988030910492e-01" purity="2.9282739758491516e-01" nType="0">
            <Node pos="l" depth="3" NCoef="0" IVar="-1" Cut="0.0000000000000000e+00" cType="1" res="1.5998462913557887e-03" rms="1.8436646461486816e-01" purity="1.0898870229721069e-01" nType="-99"/>
            <Node pos="r" depth="3" NCoef="0" IVar="-1" Cut="0.0000000000000000e+00" cType="1" res="1.7470842227339745e-02" rms="2.3471823334693909e-01" purity="7.0166152715682983e-01" nType="-99"/>
          </Node>
          <Node pos="r" depth="2" NCoef="0" IVar="5" Cut="2.5665069580078125e+02" cType="1" res="-1.3878542231395841e-03" rms="1.4213310182094574e-01" purity="9.4805395603179932e-01" nType="0">
            <Node pos="l" depth="3" NCoef="0" IVar="-1" Cut="0.0000000000000000e+00" cType="1" res="-1.2299111112952232e-02" rms="2.6121830940246582e-01" purity="7.8586012125015259e-01" nType="-99"/>
            <Node pos="r" depth="3" NCoef="0" IVar="-1" Cut="0.0000000000000000e+00" cType="1" res="6.3980803824961185e-03" rms="8.4401011466979980e-02" purity="9.9216204881668091e-01" nType="-99"/>
          </Node>
        </Node>
      </Node>
    </BinaryTree>
    <BinaryTree type="DecisionTree" boostWeight="1.0000000000000000e+00" itree="449">
      <Node pos="s" depth="0" NCoef="0" IVar="8" Cut="4.0003615617752075e-01" cType="1" res="1.3651634799316525e-03" rms="1.8967480957508087e-01" purity="5.0131392478942871e-01" nType="0">
        <Node pos="l" depth="1" NCoef="0" IVar="9" Cut="-1.4665540456771851e+00" cType="1" res="3.7669059820473194e-03" rms="1.8856705725193024e-01" purity="5.2597749233245850e-01" nType="0">
          <Node pos="l" depth="2" NCoef="0" IVar="1" Cut="1.9169542236328125e+03" cType="1" res="1.6974464058876038e-02" rms="2.1876884996891022e-01" purity="3.6657384037971497e-01" nType="0">
            <Node pos="l" depth="3" NCoef="0" IVar="-1" Cut="0.0000000000000000e+00" cType="1" res="3.7696361541748047e-02" rms="1.6400876641273499e-01" purity="3.4827165305614471e-02" nType="-99"/>
            <Node pos="r" depth="3" NCoef="0" IVar="-1" Cut="0.0000000000000000e+00" cType="1" res="3.8605570793151855e-02" rms="2.7364620566368103e-01" purity="7.9777860641479492e-01" nType="-99"/>
          </Node>
          <Node pos="r" depth="2" NCoef="0" IVar="9" Cut="5.6505960226058960e-01" cType="1" res="2.3139109835028648e-03" rms="1.8488599359989166e-01" purity="5.4351389408111572e-01" nType="0">
            <Node pos="l" depth="3" NCoef="0" IVar="-1" Cut="0.0000000000000000e+00" cType="1" res="4.6544976066797972e-04" rms="1.7403575778007507e-01" purity="5.5688887834548950e-01" nType="-99"/>
            <Node pos="r" depth="3" NCoef="0" IVar="-1" Cut="0.0000000000000000e+00" cType="1" res="1.6187064349651337e-02" rms="2.0469769835472107e-01" purity="5.1690888404846191e-01" nType="-99"/>
          </Node>
        </Node>
        <Node pos="r" depth="1" NCoef="0" IVar="10" Cut="-1.7333045005798340e+00" cType="1" res="-3.2092961482703686e-03" rms="1.9168376922607422e-01" purity="4.5433872938156128e-01" nType="0">
          <Node pos="l" depth="2" NCoef="0" IVar="-1" Cut="0.0000000000000000e+00" cType="1" res="-3.6672055721282959e-02" rms="2.1452386677265167e-01" purity="3.7831845879554749e-01" nType="-99"/>
          <Node pos="r" depth="2" NCoef="0" IVar="9" Cut="-9.3336844444274902e-01" cType="1" res="-1.8515429692342877e-03" rms="1.8960152566432953e-01" purity="4.6064680814743042e-01" nType="0">
            <Node pos="l" depth="3" NCoef="0" IVar="-1" Cut="0.0000000000000000e+00" cType="1" res="-2.6564069092273712e-02" rms="1.9780603051185608e-01" purity="4.2822149395942688e-01" nType="-99"/>
            <Node pos="r" depth="3" NCoef="0" IVar="-1" Cut="0.0000000000000000e+00" cType="1" res="1.2691605370491743e-03" rms="1.8751591444015503e-01" purity="4.6839219331741333e-01" nType="-99"/>
          </Node>
        </Node>
      </Node>
    </BinaryTree>
    <BinaryTree type="DecisionTree" boostWeight="1.0000000000000000e+00" itree="450">
      <Node pos="s" depth="0" NCoef="0" IVar="10" Cut="-1.7332239151000977e+00" cType="1" res="-1.4003632823005319e-03" rms="1.8431605398654938e-01" purity="4.9951195716857910e-01" nType="0">
        <Node pos="l" depth="1" NCoef="0" IVar="0" Cut="7.2210150146484375e+02" cType="1" res="-1.7637217417359352e-02" rms="2.0111514627933502e-01" purity="4.0419548749923706e-01" nType="0">
          <Node pos="l" depth="2" NCoef="0" IVar="-1" Cut="0.0000000000000000e+00" cType="1" res="-4.9500014632940292e-02" rms="1.9995535910129547e-01" purity="1.5104149281978607e-01" nType="-99"/>
          <Node pos="r" depth="2" NCoef="0" IVar="-1" Cut="0.0000000000000000e+00" cType="1" res="-9.2898160219192505e-03" rms="2.0221722126007080e-01" purity="8.0552613735198975e-01" nType="-99"/>
        </Node>
        <Node pos="r" depth="1" NCoef="0" IVar="8" Cut="-3.9998787641525269e-01" cType="1" res="-1.9494817024678923e-05" rms="1.8274959921836853e-01" purity="5.0761812925338745e-01" nType="0">
          <Node pos="l" depth="2" NCoef="0" IVar="10" Cut="-8.6977881193161011e-01" cType="1" res="4.6097687445580959e-03" rms="1.9362425804138184e-01" purity="4.7197464108467102e-01" nType="0">
            <Node pos="l" depth="3" NCoef="0" IVar="-1" Cut="0.0000000000000000e+00" cType="1" res="3.5121422260999680e-02" rms="2.1178066730499268e-01" purity="4.2252361774444580e-01" nType="-99"/>
            <Node pos="r" depth="3" NCoef="0" IVar="-1" Cut="0.0000000000000000e+00" cType="1" res="6.4327544532716274e-03" rms="1.8863283097743988e-01" purity="4.8462533950805664e-01" nType="-99"/>
          </Node>
          <Node pos="r" depth="2" NCoef="0" IVar="4" Cut="2.4197009277343750e+02" cType="1" res="-2.4894813541322947e-03" rms="1.7662405967712402e-01" purity="5.2663606405258179e-01" nType="0">
            <Node pos="l" depth="3" NCoef="0" IVar="-1" Cut="0.0000000000000000e+00" cType="1" res="2.2153487429022789e-02" rms="1.3786248862743378e-01" purity="3.6445409059524536e-02" nType="-99"/>
            <Node pos="r" depth="3" NCoef="0" IVar="-1" Cut="0.0000000000000000e+00" cType="1" res="-1.0607297532260418e-02" rms="1.8391929566860199e-01" purity="6.3279366493225098e-01" nType="-99"/>
          </Node>
        </Node>
      </Node>
    </BinaryTree>
    <BinaryTree type="DecisionTree" boostWeight="1.0000000000000000e+00" itree="451">
      <Node pos="s" depth="0" NCoef="0" IVar="9" Cut="-1.7332874536514282e+00" cType="1" res="-3.5076323547400534e-04" rms="1.8480052053928375e-01" purity="5.0548797845840454e-01" nType="0">
        <Node pos="l" depth="1" NCoef="0" IVar="1" Cut="1.6241208496093750e+03" cType="1" res="-1.4889318495988846e-02" rms="2.1423709392547607e-01" purity="2.6443353295326233e-01" nType="0">
          <Node pos="l" depth="2" NCoef="0" IVar="-1" Cut="0.0000000000000000e+00" cType="1" res="7.5735873542726040e-04" rms="1.1703398823738098e-01" purity="1.4335551299154758e-02" nType="-99"/>
          <Node pos="r" depth="2" NCoef="0" IVar="-1" Cut="0.0000000000000000e+00" cType="1" res="-3.9801374077796936e-02" rms="2.6761403679847717e-01" purity="4.6674972772598267e-01" nType="-99"/>
        </Node>
        <Node pos="r" depth="1" NCoef="0" IVar="9" Cut="1.9363909959793091e+00" cType="1" res="5.0231232307851315e-04" rms="1.8289032578468323e-01" purity="5.1963227987289429e-01" nType="0">
          <Node pos="l" depth="2" NCoef="0" IVar="7" Cut="9.3856668472290039e-01" cType="1" res="-2.9036856722086668e-04" rms="1.8004097044467926e-01" purity="5.3026878833770752e-01" nType="0">
            <Node pos="l" depth="3" NCoef="0" IVar="-1" Cut="0.0000000000000000e+00" cType="1" res="2.7095295954495668e-03" rms="1.7797392606735229e-01" purity="5.6853097677230835e-01" nType="-99"/>
            <Node pos="r" depth="3" NCoef="0" IVar="-1" Cut="0.0000000000000000e+00" cType="1" res="-2.1551255136728287e-02" rms="1.9374370574951172e-01" purity="2.6138803362846375e-01" nType="-99"/>
          </Node>
          <Node pos="r" depth="2" NCoef="0" IVar="-1" Cut="0.0000000000000000e+00" cType="1" res="2.9182050377130508e-02" rms="2.3556968569755554e-01" purity="2.8973680734634399e-01" nType="-99"/>
        </Node>
      </Node>
    </BinaryTree>
    <BinaryTree type="DecisionTree" boostWeight="1.0000000000000000e+00" itree="452">
      <Node pos="s" depth="0" NCoef="0" IVar="8" Cut="1.4666806459426880e+00" cType="1" res="-7.3750899173319340e-04" rms="1.8080995976924896e-01" purity="5.0455272197723389e-01" nType="0">
        <Node pos="l" depth="1" NCoef="0" IVar="8" Cut="6.5399163961410522e-01" cType="1" res="1.3249425683170557e-04" rms="1.7932671308517456e-01" purity="5.2452474832534790e-01" nType="0">
          <Node pos="l" depth="2" NCoef="0" IVar="0" Cut="5.5141705322265625e+02" cType="1" res="-1.8175374716520309e-03" rms="1.7521099746227264e-01" purity="5.3082966804504395e-01" nType="0">
            <Node pos="l" depth="3" NCoef="0" IVar="-1" Cut="0.0000000000000000e+00" cType="1" res="-2.1739132702350616e-02" rms="1.6850137710571289e-01" purity="7.0933721959590912e-02" nType="-99"/>
            <Node pos="r" depth="3" NCoef="0" IVar="-1" Cut="0.0000000000000000e+00" cType="1" res="2.5791972875595093e-03" rms="1.7830808460712433e-01" purity="7.5350719690322876e-01" nType="-99"/>
          </Node>
          <Node pos="r" depth="2" NCoef="0" IVar="0" Cut="6.6040386962890625e+02" cType="1" res="7.8189522027969360e-03" rms="1.9451391696929932e-01" purity="4.9967244267463684e-01" nType="0">
            <Node pos="l" depth="3" NCoef="0" IVar="-1" Cut="0.0000000000000000e+00" cType="1" res="3.4476432949304581e-02" rms="2.1424096822738647e-01" purity="1.5316843986511230e-01" nType="-99"/>
            <Node pos="r" depth="3" NCoef="0" IVar="-1" Cut="0.0000000000000000e+00" cType="1" res="3.1363826710730791e-03" rms="1.7412041127681732e-01" purity="8.1861251592636108e-01" nType="-99"/>
          </Node>
        </Node>
        <Node pos="r" depth="1" NCoef="0" IVar="1" Cut="1.6025803222656250e+03" cType="1" res="-1.2739042751491070e-02" rms="1.9976621866226196e-01" purity="2.2904317080974579e-01" nType="0">
          <Node pos="l" depth="2" NCoef="0" IVar="-1" Cut="0.0000000000000000e+00" cType="1" res="1.3036461547017097e-02" rms="9.9729575216770172e-02" purity="9.8432004451751709e-03" nType="-99"/>
          <Node pos="r" depth="2" NCoef="0" IVar="-1" Cut="0.0000000000000000e+00" cType="1" res="-3.5156957805156708e-02" rms="2.5398951768875122e-01" purity="4.1118741035461426e-01" nType="-99"/>
        </Node>
      </Node>
    </BinaryTree>
    <BinaryTree type="DecisionTree" boostWeight="1.0000000000000000e+00" itree="453">
      <Node pos="s" depth="0" NCoef="0" IVar="8" Cut="-1.1998845338821411e+00" cType="1" res="5.5724507546983659e-05" rms="1.8562301993370056e-01" purity="4.9910873174667358e-01" nType="0">
        <Node pos="l" depth="1" NCoef="0" IVar="7" Cut="2.0516416430473328e-01" cType="1" res="8.2759466022253036e-03" rms="2.1707095205783844e-01" purity="3.0707427859306335e-01" nType="0">
          <Node pos="l" depth="2" NCoef="0" IVar="5" Cut="1.5978875732421875e+02" cType="1" res="1.2153730494901538e-03" rms="2.0779663324356079e-01" purity="3.2127177715301514e-01" nType="0">
            <Node pos="l" depth="3" NCoef="0" IVar="-1" Cut="0.0000000000000000e+00" cType="1" res="-4.7038830816745758e-02" rms="1.1485436558723450e-01" purity="3.2797917723655701e-02" nType="-99"/>
            <Node pos="r" depth="3" NCoef="0" IVar="-1" Cut="0.0000000000000000e+00" cType="1" res="1.3570011593401432e-02" rms="2.4994996190071106e-01" purity="5.0792580842971802e-01" nType="-99"/>
          </Node>
          <Node pos="r" depth="2" NCoef="0" IVar="8" Cut="-1.5804531574249268e+00" cType="1" res="1.6935136169195175e-02" rms="2.2763170301914215e-01" purity="2.8966224193572998e-01" nType="0">
            <Node pos="l" depth="3" NCoef="0" IVar="-1" Cut="0.0000000000000000e+00" cType="1" res="1.0980712249875069e-02" rms="2.2193019092082977e-01" purity="1.8732477724552155e-01" nType="-99"/>
            <Node pos="r" depth="3" NCoef="0" IVar="-1" Cut="0.0000000000000000e+00" cType="1" res="5.7323660701513290e-02" rms="2.3269167542457581e-01" purity="3.9374679327011108e-01" nType="-99"/>
          </Node>
        </Node>
        <Node pos="r" depth="1" NCoef="0" IVar="9" Cut="1.1997282505035400e+00" cType="1" res="-1.0543433018028736e-03" rms="1.8092927336692810e-01" purity="5.2504128217697144e-01" nType="0">
          <Node pos="l" depth="2" NCoef="0" IVar="10" Cut="-6.6659462451934814e-01" cType="1" res="2.1590938558802009e-04" rms="1.7762739956378937e-01" purity="5.4544067382812500e-01" nType="0">
            <Node pos="l" depth="3" NCoef="0" IVar="-1" Cut="0.0000000000000000e+00" cType="1" res="-1.0087692178785801e-02" rms="1.7902691662311554e-01" purity="5.0614076852798462e-01" nType="-99"/>
            <Node pos="r" depth="3" NCoef="0" IVar="-1" Cut="0.0000000000000000e+00" cType="1" res="5.5267415009438992e-03" rms="1.7701712250709534e-01" purity="5.6186127662658691e-01" nType="-99"/>
          </Node>
          <Node pos="r" depth="2" NCoef="0" IVar="7" Cut="-3.1031554937362671e-01" cType="1" res="-9.1107739135622978e-03" rms="2.0042225718498230e-01" purity="3.9566045999526978e-01" nType="0">
            <Node pos="l" depth="3" NCoef="0" IVar="-1" Cut="0.0000000000000000e+00" cType="1" res="3.6795651540160179e-03" rms="2.1622817218303680e-01" purity="3.5446059703826904e-01" nType="-99"/>
            <Node pos="r" depth="3" NCoef="0" IVar="-1" Cut="0.0000000000000000e+00" cType="1" res="-3.5526711493730545e-02" rms="1.9087703526020050e-01" purity="4.1842177510261536e-01" nType="-99"/>
          </Node>
        </Node>
      </Node>
    </BinaryTree>
    <BinaryTree type="DecisionTree" boostWeight="1.0000000000000000e+00" itree="454">
      <Node pos="s" depth="0" NCoef="0" IVar="3" Cut="1.3183596191406250e+03" cType="1" res="1.5921963495202363e-04" rms="1.8333818018436432e-01" purity="4.9752506613731384e-01" nType="0">
        <Node pos="l" depth="1" NCoef="0" IVar="0" Cut="6.4032415771484375e+02" cType="1" res="5.7604431640356779e-04" rms="1.8451359868049622e-01" purity="4.7635471820831299e-01" nType="0">
          <Node pos="l" depth="2" NCoef="0" IVar="6" Cut="1.7253057861328125e+02" cType="1" res="-1.5322379767894745e-03" rms="1.9050905108451843e-01" purity="1.1892750859260559e-01" nType="0">
            <Node pos="l" depth="3" NCoef="0" IVar="-1" Cut="0.0000000000000000e+00" cType="1" res="2.1650851704180241e-03" rms="1.7236636579036713e-01" purity="6.0398124158382416e-02" nType="-99"/>
            <Node pos="r" depth="3" NCoef="0" IVar="-1" Cut="0.0000000000000000e+00" cType="1" res="-1.8447265028953552e-02" rms="2.8069767355918884e-01" purity="4.9882206320762634e-01" nType="-99"/>
          </Node>
          <Node pos="r" depth="2" NCoef="0" IVar="3" Cut="4.6655484008789062e+02" cType="1" res="2.4463096633553505e-03" rms="1.7900623381137848e-01" purity="7.9342973232269287e-01" nType="0">
            <Node pos="l" depth="3" NCoef="0" IVar="-1" Cut="0.0000000000000000e+00" cType="1" res="2.9732152819633484e-02" rms="2.8075954318046570e-01" purity="2.4959482252597809e-01" nType="-99"/>
            <Node pos="r" depth="3" NCoef="0" IVar="-1" Cut="0.0000000000000000e+00" cType="1" res="3.0367283616214991e-03" rms="1.6726149618625641e-01" purity="8.4036403894424438e-01" nType="-99"/>
          </Node>
        </Node>
        <Node pos="r" depth="1" NCoef="0" IVar="-1" Cut="0.0000000000000000e+00" cType="1" res="-4.6199534088373184e-02" rms="1.5492051839828491e-01" purity="9.6386629343032837e-01" nType="-99"/>
      </Node>
    </BinaryTree>
    <BinaryTree type="DecisionTree" boostWeight="1.0000000000000000e+00" itree="455">
      <Node pos="s" depth="0" NCoef="0" IVar="9" Cut="-1.2000175714492798e+00" cType="1" res="7.5128785101696849e-04" rms="1.8397885560989380e-01" purity="5.0803464651107788e-01" nType="0">
        <Node pos="l" depth="1" NCoef="0" IVar="1" Cut="1.6756478271484375e+03" cType="1" res="8.5873985663056374e-03" rms="2.0847474038600922e-01" purity="3.9567726850509644e-01" nType="0">
          <Node pos="l" depth="2" NCoef="0" IVar="8" Cut="-1.3195545971393585e-01" cType="1" res="-1.5714464243501425e-03" rms="1.0274901986122131e-01" purity="1.2939089909195900e-02" nType="0">
            <Node pos="l" depth="3" NCoef="0" IVar="-1" Cut="0.0000000000000000e+00" cType="1" res="-6.3620343804359436e-02" rms="7.0769175887107849e-02" purity="4.9066822975873947e-03" nType="-99"/>
            <Node pos="r" depth="3" NCoef="0" IVar="-1" Cut="0.0000000000000000e+00" cType="1" res="2.7463944628834724e-02" rms="1.2682582437992096e-01" purity="2.1035710349678993e-02" nType="-99"/>
          </Node>
          <Node pos="r" depth="2" NCoef="0" IVar="1" Cut="2.4630920410156250e+03" cType="1" res="1.5421078540384769e-02" rms="2.5589019060134888e-01" purity="6.5313869714736938e-01" nType="0">
            <Node pos="l" depth="3" NCoef="0" IVar="-1" Cut="0.0000000000000000e+00" cType="1" res="3.1652417033910751e-02" rms="3.1879913806915283e-01" purity="2.9404804110527039e-01" nType="-99"/>
            <Node pos="r" depth="3" NCoef="0" IVar="-1" Cut="0.0000000000000000e+00" cType="1" res="6.3069043681025505e-03" rms="1.8696181476116180e-01" purity="9.5244783163070679e-01" nType="-99"/>
          </Node>
        </Node>
        <Node pos="r" depth="1" NCoef="0" IVar="10" Cut="-9.3329554796218872e-01" cType="1" res="-5.2875105757266283e-04" rms="1.7962788045406342e-01" purity="5.2638834714889526e-01" nType="0">
          <Node pos="l" depth="2" NCoef="0" IVar="6" Cut="7.9542373657226562e+01" cType="1" res="5.1620616577565670e-03" rms="1.9876320660114288e-01" purity="5.0806736946105957e-01" nType="0">
            <Node pos="l" depth="3" NCoef="0" IVar="-1" Cut="0.0000000000000000e+00" cType="1" res="4.0100216865539551e-02" rms="1.9994069635868073e-01" purity="1.8080642819404602e-01" nType="-99"/>
            <Node pos="r" depth="3" NCoef="0" IVar="-1" Cut="0.0000000000000000e+00" cType="1" res="4.7505628317594528e-03" rms="1.9826292991638184e-01" purity="6.1804121732711792e-01" nType="-99"/>
          </Node>
          <Node pos="r" depth="2" NCoef="0" IVar="9" Cut="1.6568453311920166e+00" cType="1" res="-2.1705101244151592e-03" rms="1.7368149757385254e-01" purity="5.3167384862899780e-01" nType="0">
            <Node pos="l" depth="3" NCoef="0" IVar="-1" Cut="0.0000000000000000e+00" cType="1" res="-3.2645734027028084e-03" rms="1.7274898290634155e-01" purity="5.5223512649536133e-01" nType="-99"/>
            <Node pos="r" depth="3" NCoef="0" IVar="-1" Cut="0.0000000000000000e+00" cType="1" res="-3.8273938000202179e-02" rms="1.8430469930171967e-01" purity="2.7484247088432312e-01" nType="-99"/>
          </Node>
        </Node>
      </Node>
    </BinaryTree>
    <BinaryTree type="DecisionTree" boostWeight="1.0000000000000000e+00" itree="456">
      <Node pos="s" depth="0" NCoef="0" IVar="8" Cut="-1.1999006271362305e+00" cType="1" res="2.6182713918387890e-04" rms="1.8446706235408783e-01" purity="5.0240081548690796e-01" nType="0">
        <Node pos="l" depth="1" NCoef="0" IVar="9" Cut="6.6596490144729614e-01" cType="1" res="-6.1889551579952240e-03" rms="1.9892106950283051e-01" purity="2.8995791077613831e-01" nType="0">
          <Node pos="l" depth="2" NCoef="0" IVar="0" Cut="4.9705673217773438e+02" cType="1" res="-8.8649819372221828e-04" rms="1.9840064644813538e-01" purity="3.0361327528953552e-01" nType="0">
            <Node pos="l" depth="3" NCoef="0" IVar="-1" Cut="0.0000000000000000e+00" cType="1" res="3.4375067800283432e-02" rms="1.7201171815395355e-01" purity="5.0929971039295197e-02" nType="-99"/>
            <Node pos="r" depth="3" NCoef="0" IVar="-1" Cut="0.0000000000000000e+00" cType="1" res="-1.4695712365210056e-02" rms="2.1322084963321686e-01" purity="4.6402490139007568e-01" nType="-99"/>
          </Node>
          <Node pos="r" depth="2" NCoef="0" IVar="-1" Cut="0.0000000000000000e+00" cType="1" res="-4.3333731591701508e-02" rms="1.9962225854396820e-01" purity="2.5195190310478210e-01" nType="-99"/>
        </Node>
        <Node pos="r" depth="1" NCoef="0" IVar="9" Cut="6.6662472486495972e-01" cType="1" res="1.0635440703481436e-03" rms="1.8257485330104828e-01" purity="5.2880364656448364e-01" nType="0">
          <Node pos="l" depth="2" NCoef="0" IVar="8" Cut="-1.0093569755554199e+00" cType="1" res="-9.6889899577945471e-04" rms="1.7349816858768463e-01" purity="5.4982268810272217e-01" nType="0">
            <Node pos="l" depth="3" NCoef="0" IVar="-1" Cut="0.0000000000000000e+00" cType="1" res="4.3188795447349548e-02" rms="2.0738293230533600e-01" purity="4.8126533627510071e-01" nType="-99"/>
            <Node pos="r" depth="3" NCoef="0" IVar="-1" Cut="0.0000000000000000e+00" cType="1" res="-6.0980217531323433e-03" rms="1.7144392430782318e-01" purity="5.5349934101104736e-01" nType="-99"/>
          </Node>
          <Node pos="r" depth="2" NCoef="0" IVar="0" Cut="8.9170294189453125e+02" cType="1" res="6.3963606953620911e-03" rms="2.0438802242279053e-01" purity="4.7365286946296692e-01" nType="0">
            <Node pos="l" depth="3" NCoef="0" IVar="-1" Cut="0.0000000000000000e+00" cType="1" res="2.2903505712747574e-02" rms="2.2061204910278320e-01" purity="2.8167125582695007e-01" nType="-99"/>
            <Node pos="r" depth="3" NCoef="0" IVar="-1" Cut="0.0000000000000000e+00" cType="1" res="-1.2713709846138954e-02" rms="1.5868186950683594e-01" purity="9.3205052614212036e-01" nType="-99"/>
          </Node>
        </Node>
      </Node>
    </BinaryTree>
    <BinaryTree type="DecisionTree" boostWeight="1.0000000000000000e+00" itree="457">
      <Node pos="s" depth="0" NCoef="0" IVar="9" Cut="-1.9999409914016724e+00" cType="1" res="5.5759516544640064e-04" rms="1.8482397496700287e-01" purity="4.9318566918373108e-01" nType="0">
        <Node pos="l" depth="1" NCoef="0" IVar="-1" Cut="0.0000000000000000e+00" cType="1" res="-4.6506598591804504e-02" rms="1.9744250178337097e-01" purity="1.6186709702014923e-01" nType="-99"/>
        <Node pos="r" depth="1" NCoef="0" IVar="1" Cut="1.9959074707031250e+03" cType="1" res="1.2128241360187531e-03" rms="1.8436837196350098e-01" purity="5.0378799438476562e-01" nType="0">
          <Node pos="l" depth="2" NCoef="0" IVar="5" Cut="2.6306225585937500e+02" cType="1" res="-1.7895438941195607e-03" rms="1.5088744461536407e-01" purity="3.0305555090308189e-02" nType="0">
            <Node pos="l" depth="3" NCoef="0" IVar="-1" Cut="0.0000000000000000e+00" cType="1" res="-1.5008914051577449e-03" rms="1.4024969935417175e-01" purity="2.5205077603459358e-02" nType="-99"/>
            <Node pos="r" depth="3" NCoef="0" IVar="-1" Cut="0.0000000000000000e+00" cType="1" res="-2.7313917875289917e-02" rms="2.5406450033187866e-01" purity="9.9836029112339020e-02" nType="-99"/>
          </Node>
          <Node pos="r" depth="2" NCoef="0" IVar="1" Cut="2.5350771484375000e+03" cType="1" res="3.6277782637625933e-03" rms="2.0738174021244049e-01" purity="8.8463348150253296e-01" nType="0">
            <Node pos="l" depth="3" NCoef="0" IVar="-1" Cut="0.0000000000000000e+00" cType="1" res="1.1414671316742897e-02" rms="3.6984929442405701e-01" purity="5.3180086612701416e-01" nType="-99"/>
            <Node pos="r" depth="3" NCoef="0" IVar="-1" Cut="0.0000000000000000e+00" cType="1" res="2.5825418997555971e-03" rms="1.4044988155364990e-01" purity="9.7203952074050903e-01" nType="-99"/>
          </Node>
        </Node>
      </Node>
    </BinaryTree>
    <BinaryTree type="DecisionTree" boostWeight="1.0000000000000000e+00" itree="458">
      <Node pos="s" depth="0" NCoef="0" IVar="10" Cut="2.2666020393371582e+00" cType="1" res="2.2880113683640957e-03" rms="1.8719291687011719e-01" purity="5.0102370977401733e-01" nType="0">
        <Node pos="l" depth="1" NCoef="0" IVar="9" Cut="-1.3341753184795380e-01" cType="1" res="1.7278718296438456e-03" rms="1.8446949124336243e-01" purity="5.0475507974624634e-01" nType="0">
          <Node pos="l" depth="2" NCoef="0" IVar="5" Cut="1.5165582275390625e+02" cType="1" res="-1.5545384958386421e-03" rms="1.8380238115787506e-01" purity="4.9135780334472656e-01" nType="0">
            <Node pos="l" depth="3" NCoef="0" IVar="-1" Cut="0.0000000000000000e+00" cType="1" res="2.2333469241857529e-02" rms="1.5419995784759521e-01" purity="6.4784444868564606e-02" nType="-99"/>
            <Node pos="r" depth="3" NCoef="0" IVar="-1" Cut="0.0000000000000000e+00" cType="1" res="-9.9879698827862740e-03" rms="1.9358460605144501e-01" purity="6.4965534210205078e-01" nType="-99"/>
          </Node>
          <Node pos="r" depth="2" NCoef="0" IVar="0" Cut="4.3885153198242188e+02" cType="1" res="4.4177849777042866e-03" rms="1.8497096002101898e-01" purity="5.1573407649993896e-01" nType="0">
            <Node pos="l" depth="3" NCoef="0" IVar="-1" Cut="0.0000000000000000e+00" cType="1" res="-2.4860206991434097e-02" rms="1.2419825047254562e-01" purity="1.9308224320411682e-02" nType="-99"/>
            <Node pos="r" depth="3" NCoef="0" IVar="-1" Cut="0.0000000000000000e+00" cType="1" res="1.6733262687921524e-02" rms="1.9760663807392120e-01" purity="6.4415407180786133e-01" nType="-99"/>
          </Node>
        </Node>
        <Node pos="r" depth="1" NCoef="0" IVar="-1" Cut="0.0000000000000000e+00" cType="1" res="3.7819486111402512e-02" rms="2.6453289389610291e-01" purity="3.7078478932380676e-01" nType="-99"/>
      </Node>
    </BinaryTree>
    <BinaryTree type="DecisionTree" boostWeight="1.0000000000000000e+00" itree="459">
      <Node pos="s" depth="0" NCoef="0" IVar="7" Cut="-9.2206192016601562e-01" cType="1" res="2.1320611704140902e-03" rms="1.8645772337913513e-01" purity="5.0675439834594727e-01" nType="0">
        <Node pos="l" depth="1" NCoef="0" IVar="4" Cut="4.1691824340820312e+02" cType="1" res="-6.5012504346668720e-03" rms="1.8725728988647461e-01" purity="2.5604274868965149e-01" nType="0">
          <Node pos="l" depth="2" NCoef="0" IVar="0" Cut="3.9060824584960938e+02" cType="1" res="-4.1676827822811902e-04" rms="1.7247898876667023e-01" purity="9.4812907278537750e-02" nType="0">
            <Node pos="l" depth="3" NCoef="0" IVar="-1" Cut="0.0000000000000000e+00" cType="1" res="-7.1556434035301208e-02" rms="6.9487966597080231e-02" purity="4.2492924258112907e-03" nType="-99"/>
            <Node pos="r" depth="3" NCoef="0" IVar="-1" Cut="0.0000000000000000e+00" cType="1" res="6.3122669234871864e-03" rms="1.9837579131126404e-01" purity="1.2983413040637970e-01" nType="-99"/>
          </Node>
          <Node pos="r" depth="2" NCoef="0" IVar="-1" Cut="0.0000000000000000e+00" cType="1" res="-5.1343142986297607e-02" rms="2.2355557978153229e-01" purity="7.2084891796112061e-01" nType="-99"/>
        </Node>
        <Node pos="r" depth="1" NCoef="0" IVar="7" Cut="-7.4484694004058838e-01" cType="1" res="3.3903592266142368e-03" rms="1.8630748987197876e-01" purity="5.4329544305801392e-01" nType="0">
          <Node pos="l" depth="2" NCoef="0" IVar="-1" Cut="0.0000000000000000e+00" cType="1" res="4.2367301881313324e-02" rms="2.3391611874103546e-01" purity="4.9363458156585693e-01" nType="-99"/>
          <Node pos="r" depth="2" NCoef="0" IVar="2" Cut="6.4097344875335693e-02" cType="1" res="2.5458792224526405e-03" rms="1.8303190171718597e-01" purity="5.4626709222793579e-01" nType="0">
            <Node pos="l" depth="3" NCoef="0" IVar="-1" Cut="0.0000000000000000e+00" cType="1" res="1.0957306250929832e-02" rms="1.9349311292171478e-01" purity="4.2741909623146057e-01" nType="-99"/>
            <Node pos="r" depth="3" NCoef="0" IVar="-1" Cut="0.0000000000000000e+00" cType="1" res="-2.5607179850339890e-03" rms="1.6166256368160248e-01" purity="7.6802843809127808e-01" nType="-99"/>
          </Node>
        </Node>
      </Node>
    </BinaryTree>
    <BinaryTree type="DecisionTree" boostWeight="1.0000000000000000e+00" itree="460">
      <Node pos="s" depth="0" NCoef="0" IVar="9" Cut="-1.4666321277618408e+00" cType="1" res="-4.4885415263706818e-05" rms="1.8858538568019867e-01" purity="4.9289432168006897e-01" nType="0">
        <Node pos="l" depth="1" NCoef="0" IVar="7" Cut="-5.5765628814697266e-01" cType="1" res="1.2281064875423908e-02" rms="2.2391675412654877e-01" purity="3.4482523798942566e-01" nType="0">
          <Node pos="l" depth="2" NCoef="0" IVar="-1" Cut="0.0000000000000000e+00" cType="1" res="5.9994034469127655e-02" rms="2.3800741136074066e-01" purity="2.8088924288749695e-01" nType="-99"/>
          <Node pos="r" depth="2" NCoef="0" IVar="9" Cut="-1.9110879898071289e+00" cType="1" res="6.4655719324946404e-03" rms="2.1727459132671356e-01" purity="3.7251174449920654e-01" nType="0">
            <Node pos="l" depth="3" NCoef="0" IVar="-1" Cut="0.0000000000000000e+00" cType="1" res="-9.5571186393499374e-03" rms="2.1966435015201569e-01" purity="2.4162735044956207e-01" nType="-99"/>
            <Node pos="r" depth="3" NCoef="0" IVar="-1" Cut="0.0000000000000000e+00" cType="1" res="2.9259297996759415e-02" rms="2.1519164741039276e-01" purity="4.6697056293487549e-01" nType="-99"/>
          </Node>
        </Node>
        <Node pos="r" depth="1" NCoef="0" IVar="10" Cut="-1.1998664140701294e+00" cType="1" res="-1.3603947591036558e-03" rms="1.8436658382415771e-01" purity="5.0869727134704590e-01" nType="0">
          <Node pos="l" depth="2" NCoef="0" IVar="4" Cut="2.3449758911132812e+02" cType="1" res="-8.6576836183667183e-03" rms="2.0182308554649353e-01" purity="4.6408623456954956e-01" nType="0">
            <Node pos="l" depth="3" NCoef="0" IVar="-1" Cut="0.0000000000000000e+00" cType="1" res="4.1644662618637085e-02" rms="1.5881736576557159e-01" purity="4.8896495252847672e-02" nType="-99"/>
            <Node pos="r" depth="3" NCoef="0" IVar="-1" Cut="0.0000000000000000e+00" cType="1" res="-2.7494914829730988e-02" rms="2.1025262773036957e-01" purity="5.5958300828933716e-01" nType="-99"/>
          </Node>
          <Node pos="r" depth="2" NCoef="0" IVar="10" Cut="-6.2846666574478149e-01" cType="1" res="7.5941759860143065e-05" rms="1.8069739639759064e-01" purity="5.1747816801071167e-01" nType="0">
            <Node pos="l" depth="3" NCoef="0" IVar="-1" Cut="0.0000000000000000e+00" cType="1" res="2.2026447579264641e-02" rms="1.8585981428623199e-01" purity="5.3094667196273804e-01" nType="-99"/>
            <Node pos="r" depth="3" NCoef="0" IVar="-1" Cut="0.0000000000000000e+00" cType="1" res="-3.9730169810354710e-03" rms="1.7961153388023376e-01" purity="5.1477742195129395e-01" nType="-99"/>
          </Node>
        </Node>
      </Node>
    </BinaryTree>
    <BinaryTree type="DecisionTree" boostWeight="1.0000000000000000e+00" itree="461">
      <Node pos="s" depth="0" NCoef="0" IVar="1" Cut="1.9525826416015625e+03" cType="1" res="7.5998762622475624e-04" rms="1.8755225837230682e-01" purity="5.0301498174667358e-01" nType="0">
        <Node pos="l" depth="1" NCoef="0" IVar="1" Cut="1.8473227539062500e+03" cType="1" res="5.2641103975474834e-03" rms="1.6431772708892822e-01" purity="3.7121362984180450e-02" nType="0">
          <Node pos="l" depth="2" NCoef="0" IVar="5" Cut="1.6038235473632812e+02" cType="1" res="3.3272595610469580e-03" rms="1.4276497066020966e-01" purity="2.5284152477979660e-02" nType="0">
            <Node pos="l" depth="3" NCoef="0" IVar="-1" Cut="0.0000000000000000e+00" cType="1" res="-1.4165436848998070e-02" rms="8.0382496118545532e-02" purity="7.5044529512524605e-03" nType="-99"/>
            <Node pos="r" depth="3" NCoef="0" IVar="-1" Cut="0.0000000000000000e+00" cType="1" res="2.8410729020833969e-02" rms="1.9790697097778320e-01" purity="4.9357879906892776e-02" nType="-99"/>
          </Node>
          <Node pos="r" depth="2" NCoef="0" IVar="-1" Cut="0.0000000000000000e+00" cType="1" res="2.8999842703342438e-02" rms="3.1910189986228943e-01" purity="1.7189396917819977e-01" nType="-99"/>
        </Node>
        <Node pos="r" depth="1" NCoef="0" IVar="8" Cut="-9.3339824676513672e-01" cType="1" res="-2.7983451727777719e-03" rms="2.0397540926933289e-01" purity="8.7107872962951660e-01" nType="0">
          <Node pos="l" depth="2" NCoef="0" IVar="8" Cut="-1.3778048753738403e+00" cType="1" res="-1.8580785021185875e-02" rms="2.4309588968753815e-01" purity="8.0309212207794189e-01" nType="0">
            <Node pos="l" depth="3" NCoef="0" IVar="-1" Cut="0.0000000000000000e+00" cType="1" res="-5.0152640789747238e-02" rms="2.7766215801239014e-01" purity="7.0717275142669678e-01" nType="-99"/>
            <Node pos="r" depth="3" NCoef="0" IVar="-1" Cut="0.0000000000000000e+00" cType="1" res="-1.6939917579293251e-02" rms="2.2175794839859009e-01" purity="8.5428750514984131e-01" nType="-99"/>
          </Node>
          <Node pos="r" depth="2" NCoef="0" IVar="0" Cut="5.9199517822265625e+02" cType="1" res="-4.6189638669602573e-04" rms="1.9741947948932648e-01" purity="8.8114362955093384e-01" nType="0">
            <Node pos="l" depth="3" NCoef="0" IVar="-1" Cut="0.0000000000000000e+00" cType="1" res="1.1019446887075901e-02" rms="3.4681293368339539e-01" purity="5.3326243162155151e-01" nType="-99"/>
            <Node pos="r" depth="3" NCoef="0" IVar="-1" Cut="0.0000000000000000e+00" cType="1" res="-6.2139439396560192e-03" rms="1.7408655583858490e-01" purity="9.1813397407531738e-01" nType="-99"/>
          </Node>
        </Node>
      </Node>
    </BinaryTree>
    <BinaryTree type="DecisionTree" boostWeight="1.0000000000000000e+00" itree="462">
      <Node pos="s" depth="0" NCoef="0" IVar="8" Cut="1.1999754905700684e+00" cType="1" res="9.2585029779002070e-04" rms="1.8993377685546875e-01" purity="5.0463110208511353e-01" nType="0">
        <Node pos="l" depth="1" NCoef="0" IVar="9" Cut="-1.9999409914016724e+00" cType="1" res="-3.8362748455256224e-04" rms="1.8427778780460358e-01" purity="5.2980476617813110e-01" nType="0">
          <Node pos="l" depth="2" NCoef="0" IVar="-1" Cut="0.0000000000000000e+00" cType="1" res="3.8100451231002808e-02" rms="2.5826025009155273e-01" purity="2.5950804352760315e-01" nType="-99"/>
          <Node pos="r" depth="2" NCoef="0" IVar="10" Cut="1.9999407529830933e+00" cType="1" res="-1.0024697985500097e-03" rms="1.8139882385730743e-01" purity="5.3839361667633057e-01" nType="0">
            <Node pos="l" depth="3" NCoef="0" IVar="-1" Cut="0.0000000000000000e+00" cType="1" res="-5.0187911838293076e-03" rms="1.7805276811122894e-01" purity="5.4340028762817383e-01" nType="-99"/>
            <Node pos="r" depth="3" NCoef="0" IVar="-1" Cut="0.0000000000000000e+00" cType="1" res="2.2421266883611679e-02" rms="2.3879137635231018e-01" purity="4.3726959824562073e-01" nType="-99"/>
          </Node>
        </Node>
        <Node pos="r" depth="1" NCoef="0" IVar="7" Cut="-2.8194668889045715e-01" cType="1" res="1.0935783386230469e-02" rms="2.2834356129169464e-01" purity="3.1219822168350220e-01" nType="0">
          <Node pos="l" depth="2" NCoef="0" IVar="-1" Cut="0.0000000000000000e+00" cType="1" res="-9.0194512158632278e-03" rms="1.9958506524562836e-01" purity="2.2465586662292480e-01" nType="-99"/>
          <Node pos="r" depth="2" NCoef="0" IVar="8" Cut="1.6571832895278931e+00" cType="1" res="2.0001724362373352e-02" rms="2.4420492351055145e-01" purity="3.6703351140022278e-01" nType="0">
            <Node pos="l" depth="3" NCoef="0" IVar="-1" Cut="0.0000000000000000e+00" cType="1" res="1.8829930573701859e-02" rms="2.2116181254386902e-01" purity="4.2808651924133301e-01" nType="-99"/>
            <Node pos="r" depth="3" NCoef="0" IVar="-1" Cut="0.0000000000000000e+00" cType="1" res="6.6993467509746552e-02" rms="2.7553156018257141e-01" purity="2.7177122235298157e-01" nType="-99"/>
          </Node>
        </Node>
      </Node>
    </BinaryTree>
    <BinaryTree type="DecisionTree" boostWeight="1.0000000000000000e+00" itree="463">
      <Node pos="s" depth="0" NCoef="0" IVar="6" Cut="9.4900764465332031e+01" cType="1" res="-1.0365868220105767e-03" rms="1.8411254882812500e-01" purity="5.0713235139846802e-01" nType="0">
        <Node pos="l" depth="1" NCoef="0" IVar="5" Cut="2.3933302307128906e+02" cType="1" res="-4.6473308466374874e-03" rms="1.7489451169967651e-01" purity="1.5864786505699158e-01" nType="0">
          <Node pos="l" depth="2" NCoef="0" IVar="5" Cut="1.4020628356933594e+02" cType="1" res="-1.4442868996411562e-03" rms="1.5846912562847137e-01" purity="8.2367666065692902e-02" nType="0">
            <Node pos="l" depth="3" NCoef="0" IVar="-1" Cut="0.0000000000000000e+00" cType="1" res="-2.7505571022629738e-02" rms="1.2226458638906479e-01" purity="4.0816836059093475e-02" nType="-99"/>
            <Node pos="r" depth="3" NCoef="0" IVar="-1" Cut="0.0000000000000000e+00" cType="1" res="1.3433459214866161e-02" rms="2.1175085008144379e-01" purity="1.6335277259349823e-01" nType="-99"/>
          </Node>
          <Node pos="r" depth="2" NCoef="0" IVar="-1" Cut="0.0000000000000000e+00" cType="1" res="-3.2885909080505371e-02" rms="2.4185368418693542e-01" purity="5.5192643404006958e-01" nType="-99"/>
        </Node>
        <Node pos="r" depth="1" NCoef="0" IVar="8" Cut="9.3337661027908325e-01" cType="1" res="6.8096013274043798e-04" rms="1.8831479549407959e-01" purity="6.7289835214614868e-01" nType="0">
          <Node pos="l" depth="2" NCoef="0" IVar="3" Cut="6.1948785400390625e+02" cType="1" res="2.2532220464199781e-03" rms="1.8332993984222412e-01" purity="7.0350390672683716e-01" nType="0">
            <Node pos="l" depth="3" NCoef="0" IVar="-1" Cut="0.0000000000000000e+00" cType="1" res="1.5987992286682129e-02" rms="2.3656137287616730e-01" purity="3.1219398975372314e-01" nType="-99"/>
            <Node pos="r" depth="3" NCoef="0" IVar="-1" Cut="0.0000000000000000e+00" cType="1" res="-4.5074727386236191e-03" rms="1.4857891201972961e-01" purity="9.0485632419586182e-01" nType="-99"/>
          </Node>
          <Node pos="r" depth="2" NCoef="0" IVar="0" Cut="6.5846148681640625e+02" cType="1" res="-7.6537309214472771e-03" rms="2.1260443329811096e-01" purity="5.1065564155578613e-01" nType="0">
            <Node pos="l" depth="3" NCoef="0" IVar="-1" Cut="0.0000000000000000e+00" cType="1" res="-3.1504251062870026e-02" rms="2.1753066778182983e-01" purity="1.4780734479427338e-01" nType="-99"/>
            <Node pos="r" depth="3" NCoef="0" IVar="-1" Cut="0.0000000000000000e+00" cType="1" res="4.4889086857438087e-03" rms="2.0704464614391327e-01" purity="8.7929862737655640e-01" nType="-99"/>
          </Node>
        </Node>
      </Node>
    </BinaryTree>
    <BinaryTree type="DecisionTree" boostWeight="1.0000000000000000e+00" itree="464">
      <Node pos="s" depth="0" NCoef="0" IVar="5" Cut="1.5556632995605469e+02" cType="1" res="-6.5152993192896247e-04" rms="1.8741653859615326e-01" purity="4.9512812495231628e-01" nType="0">
        <Node pos="l" depth="1" NCoef="0" IVar="1" Cut="1.6740700683593750e+03" cType="1" res="2.8224387206137180e-03" rms="1.5307664871215820e-01" purity="7.3065035045146942e-02" nType="0">
          <Node pos="l" depth="2" NCoef="0" IVar="9" Cut="1.1996942758560181e+00" cType="1" res="-1.1430955491960049e-03" rms="5.8728031814098358e-02" purity="3.6695080343633890e-03" nType="0">
            <Node pos="l" depth="3" NCoef="0" IVar="-1" Cut="0.0000000000000000e+00" cType="1" res="-5.5872295051813126e-02" rms="4.1955567896366119e-02" purity="1.7782535869628191e-03" nType="-99"/>
            <Node pos="r" depth="3" NCoef="0" IVar="-1" Cut="0.0000000000000000e+00" cType="1" res="3.8668710738420486e-02" rms="1.0304951667785645e-01" purity="1.1725065298378468e-02" nType="-99"/>
          </Node>
          <Node pos="r" depth="2" NCoef="0" IVar="5" Cut="9.5261009216308594e+01" cType="1" res="9.9705317988991737e-03" rms="2.4366848170757294e-01" purity="1.9815428555011749e-01" nType="0">
            <Node pos="l" depth="3" NCoef="0" IVar="-1" Cut="0.0000000000000000e+00" cType="1" res="-3.3906064927577972e-02" rms="1.7644925415515900e-01" purity="6.2479849904775620e-02" nType="-99"/>
            <Node pos="r" depth="3" NCoef="0" IVar="-1" Cut="0.0000000000000000e+00" cType="1" res="2.7779754251241684e-02" rms="2.6581674814224243e-01" purity="2.5377282500267029e-01" nType="-99"/>
          </Node>
        </Node>
        <Node pos="r" depth="1" NCoef="0" IVar="10" Cut="-1.7331992387771606e+00" cType="1" res="-2.0266838837414980e-03" rms="1.9936577975749969e-01" purity="6.6219979524612427e-01" nType="0">
          <Node pos="l" depth="2" NCoef="0" IVar="-1" Cut="0.0000000000000000e+00" cType="1" res="-2.3040419444441795e-02" rms="2.3013012111186981e-01" purity="5.6466984748840332e-01" nType="-99"/>
          <Node pos="r" depth="2" NCoef="0" IVar="8" Cut="6.6665440797805786e-01" cType="1" res="-1.0718649718910456e-03" rms="1.9675004482269287e-01" purity="6.6975414752960205e-01" nType="0">
            <Node pos="l" depth="3" NCoef="0" IVar="-1" Cut="0.0000000000000000e+00" cType="1" res="2.2710368502885103e-03" rms="1.9127939641475677e-01" purity="7.0128554105758667e-01" nType="-99"/>
            <Node pos="r" depth="3" NCoef="0" IVar="-1" Cut="0.0000000000000000e+00" cType="1" res="-1.6372621059417725e-02" rms="2.1437731385231018e-01" purity="5.6128901243209839e-01" nType="-99"/>
          </Node>
        </Node>
      </Node>
    </BinaryTree>
    <BinaryTree type="DecisionTree" boostWeight="1.0000000000000000e+00" itree="465">
      <Node pos="s" depth="0" NCoef="0" IVar="8" Cut="1.4666360616683960e+00" cType="1" res="-3.2369457767345011e-04" rms="1.8880671262741089e-01" purity="4.9804869294166565e-01" nType="0">
        <Node pos="l" depth="1" NCoef="0" IVar="5" Cut="2.7711343383789062e+02" cType="1" res="-1.4615081017836928e-03" rms="1.8444029986858368e-01" purity="5.1710712909698486e-01" nType="0">
          <Node pos="l" depth="2" NCoef="0" IVar="5" Cut="1.7985655212402344e+02" cType="1" res="-3.7895054556429386e-03" rms="1.9836673140525818e-01" purity="2.1457122266292572e-01" nType="0">
            <Node pos="l" depth="3" NCoef="0" IVar="-1" Cut="0.0000000000000000e+00" cType="1" res="1.0632987832650542e-03" rms="1.6852860152721405e-01" purity="9.4961263239383698e-02" nType="-99"/>
            <Node pos="r" depth="3" NCoef="0" IVar="-1" Cut="0.0000000000000000e+00" cType="1" res="-1.6387330368161201e-02" rms="2.3593120276927948e-01" purity="3.9350065588951111e-01" nType="-99"/>
          </Node>
          <Node pos="r" depth="2" NCoef="0" IVar="10" Cut="9.3313616514205933e-01" cType="1" res="1.6174435149878263e-03" rms="1.6416682302951813e-01" purity="9.1723358631134033e-01" nType="0">
            <Node pos="l" depth="3" NCoef="0" IVar="-1" Cut="0.0000000000000000e+00" cType="1" res="-1.9066568929702044e-03" rms="1.5673716366291046e-01" purity="9.1959369182586670e-01" nType="-99"/>
            <Node pos="r" depth="3" NCoef="0" IVar="-1" Cut="0.0000000000000000e+00" cType="1" res="2.7918523177504539e-02" rms="1.8922048807144165e-01" purity="9.0839141607284546e-01" nType="-99"/>
          </Node>
        </Node>
        <Node pos="r" depth="1" NCoef="0" IVar="10" Cut="4.0009784698486328e-01" cType="1" res="1.4057081192731857e-02" rms="2.3669216036796570e-01" purity="2.5717058777809143e-01" nType="0">
          <Node pos="l" depth="2" NCoef="0" IVar="-1" Cut="0.0000000000000000e+00" cType="1" res="5.1058102399110794e-02" rms="2.5154235959053040e-01" purity="2.8530362248420715e-01" nType="-99"/>
          <Node pos="r" depth="2" NCoef="0" IVar="-1" Cut="0.0000000000000000e+00" cType="1" res="3.8129481254145503e-04" rms="2.1431386470794678e-01" purity="2.1931385993957520e-01" nType="-99"/>
        </Node>
      </Node>
    </BinaryTree>
    <BinaryTree type="DecisionTree" boostWeight="1.0000000000000000e+00" itree="466">
      <Node pos="s" depth="0" NCoef="0" IVar="3" Cut="4.5869937133789062e+02" cType="1" res="-2.1863193251192570e-04" rms="1.8657504022121429e-01" purity="5.0196444988250732e-01" nType="0">
        <Node pos="l" depth="1" NCoef="0" IVar="0" Cut="5.0475851440429688e+02" cType="1" res="-7.5671863742172718e-03" rms="1.8010269105434418e-01" purity="8.2301780581474304e-02" nType="0">
          <Node pos="l" depth="2" NCoef="0" IVar="5" Cut="2.3733895874023438e+02" cType="1" res="8.0074247671291232e-04" rms="1.5532088279724121e-01" purity="3.8170676678419113e-02" nType="0">
            <Node pos="l" depth="3" NCoef="0" IVar="-1" Cut="0.0000000000000000e+00" cType="1" res="-3.9050649851560593e-02" rms="1.0778634995222092e-01" purity="1.1960969306528568e-02" nType="-99"/>
            <Node pos="r" depth="3" NCoef="0" IVar="-1" Cut="0.0000000000000000e+00" cType="1" res="3.6122590303421021e-02" rms="2.3665343225002289e-01" purity="1.0603716224431992e-01" nType="-99"/>
          </Node>
          <Node pos="r" depth="2" NCoef="0" IVar="5" Cut="1.6068191528320312e+02" cType="1" res="-1.7376681789755821e-02" rms="2.0494650304317474e-01" purity="1.3403546810150146e-01" nType="0">
            <Node pos="l" depth="3" NCoef="0" IVar="-1" Cut="0.0000000000000000e+00" cType="1" res="-3.3496581017971039e-02" rms="1.0910215973854065e-01" purity="1.6646277159452438e-02" nType="-99"/>
            <Node pos="r" depth="3" NCoef="0" IVar="-1" Cut="0.0000000000000000e+00" cType="1" res="-3.2690834254026413e-02" rms="2.6376006007194519e-01" purity="2.4243675172328949e-01" nType="-99"/>
          </Node>
        </Node>
        <Node pos="r" depth="1" NCoef="0" IVar="7" Cut="1.2043707370758057e+00" cType="1" res="1.2800573604181409e-03" rms="1.8783237040042877e-01" purity="5.8755189180374146e-01" nType="0">
          <Node pos="l" depth="2" NCoef="0" IVar="4" Cut="2.3449758911132812e+02" cType="1" res="2.1321580279618502e-03" rms="1.8775862455368042e-01" purity="6.1078953742980957e-01" nType="0">
            <Node pos="l" depth="3" NCoef="0" IVar="-1" Cut="0.0000000000000000e+00" cType="1" res="-2.2680860012769699e-02" rms="1.2057191878557205e-01" purity="3.8024693727493286e-02" nType="-99"/>
            <Node pos="r" depth="3" NCoef="0" IVar="-1" Cut="0.0000000000000000e+00" cType="1" res="8.2557303830981255e-03" rms="1.9671708345413208e-01" purity="7.0623600482940674e-01" nType="-99"/>
          </Node>
          <Node pos="r" depth="2" NCoef="0" IVar="5" Cut="1.6155870056152344e+02" cType="1" res="-1.2009738944470882e-02" rms="1.8848086893558502e-01" purity="2.2512562572956085e-01" nType="0">
            <Node pos="l" depth="3" NCoef="0" IVar="-1" Cut="0.0000000000000000e+00" cType="1" res="-6.0374097665771842e-04" rms="1.2179343402385712e-01" purity="2.8143832460045815e-02" nType="-99"/>
            <Node pos="r" depth="3" NCoef="0" IVar="-1" Cut="0.0000000000000000e+00" cType="1" res="-4.3135855346918106e-02" rms="2.3663732409477234e-01" purity="4.2273539304733276e-01" nType="-99"/>
          </Node>
        </Node>
      </Node>
    </BinaryTree>
    <BinaryTree type="DecisionTree" boostWeight="1.0000000000000000e+00" itree="467">
      <Node pos="s" depth="0" NCoef="0" IVar="5" Cut="2.7702239990234375e+02" cType="1" res="9.8348408937454224e-04" rms="1.8844315409660339e-01" purity="5.0671303272247314e-01" nType="0">
        <Node pos="l" depth="1" NCoef="0" IVar="5" Cut="2.0137127685546875e+02" cType="1" res="3.2955240458250046e-03" rms="2.0427843928337097e-01" purity="2.2129318118095398e-01" nType="0">
          <Node pos="l" depth="2" NCoef="0" IVar="5" Cut="1.7975643920898438e+02" cType="1" res="-1.6114988829940557e-04" rms="1.7838254570960999e-01" purity="1.1974816024303436e-01" nType="0">
            <Node pos="l" depth="3" NCoef="0" IVar="-1" Cut="0.0000000000000000e+00" cType="1" res="6.4140795730054379e-03" rms="1.7163500189781189e-01" purity="9.7183704376220703e-02" nType="-99"/>
            <Node pos="r" depth="3" NCoef="0" IVar="-1" Cut="0.0000000000000000e+00" cType="1" res="-2.2901194170117378e-02" rms="2.1272262930870056e-01" purity="2.4962924420833588e-01" nType="-99"/>
          </Node>
          <Node pos="r" depth="2" NCoef="0" IVar="9" Cut="-1.3261809945106506e-01" cType="1" res="1.1704385280609131e-02" rms="2.5639000535011292e-01" purity="4.6831622719764709e-01" nType="0">
            <Node pos="l" depth="3" NCoef="0" IVar="-1" Cut="0.0000000000000000e+00" cType="1" res="3.2171230763196945e-02" rms="2.6980790495872498e-01" purity="4.8680761456489563e-01" nType="-99"/>
            <Node pos="r" depth="3" NCoef="0" IVar="-1" Cut="0.0000000000000000e+00" cType="1" res="4.0458296425640583e-03" rms="2.4301046133041382e-01" purity="4.5125874876976013e-01" nType="-99"/>
          </Node>
        </Node>
        <Node pos="r" depth="1" NCoef="0" IVar="3" Cut="6.7177191162109375e+02" cType="1" res="-2.3470930755138397e-03" rms="1.6289119422435760e-01" purity="9.1787070035934448e-01" nType="0">
          <Node pos="l" depth="2" NCoef="0" IVar="6" Cut="1.5642587280273438e+02" cType="1" res="-1.0385942645370960e-02" rms="2.4855802953243256e-01" purity="7.4022263288497925e-01" nType="0">
            <Node pos="l" depth="3" NCoef="0" IVar="-1" Cut="0.0000000000000000e+00" cType="1" res="-2.4583337828516960e-02" rms="2.9778066277503967e-01" purity="4.2112991213798523e-01" nType="-99"/>
            <Node pos="r" depth="3" NCoef="0" IVar="-1" Cut="0.0000000000000000e+00" cType="1" res="-1.0483840480446815e-02" rms="2.2599965333938599e-01" purity="8.6618447303771973e-01" nType="-99"/>
          </Node>
          <Node pos="r" depth="2" NCoef="0" IVar="4" Cut="5.3051611328125000e+02" cType="1" res="2.8573261806741357e-04" rms="1.2231689691543579e-01" purity="9.7605264186859131e-01" nType="0">
            <Node pos="l" depth="3" NCoef="0" IVar="-1" Cut="0.0000000000000000e+00" cType="1" res="1.4600444585084915e-02" rms="1.6763818264007568e-01" purity="9.4511038064956665e-01" nType="-99"/>
            <Node pos="r" depth="3" NCoef="0" IVar="-1" Cut="0.0000000000000000e+00" cType="1" res="-1.4582008123397827e-02" rms="1.0097526758909225e-01" purity="9.8725038766860962e-01" nType="-99"/>
          </Node>
        </Node>
      </Node>
    </BinaryTree>
    <BinaryTree type="DecisionTree" boostWeight="1.0000000000000000e+00" itree="468">
      <Node pos="s" depth="0" NCoef="0" IVar="7" Cut="9.7056156396865845e-01" cType="1" res="3.1652303732698783e-05" rms="1.8497602641582489e-01" purity="4.9992656707763672e-01" nType="0">
        <Node pos="l" depth="1" NCoef="0" IVar="1" Cut="1.9525826416015625e+03" cType="1" res="1.1352538131177425e-03" rms="1.8393124639987946e-01" purity="5.3710299730300903e-01" nType="0">
          <Node pos="l" depth="2" NCoef="0" IVar="1" Cut="1.6368211669921875e+03" cType="1" res="-2.5731080677360296e-03" rms="1.4560151100158691e-01" purity="2.8668906539678574e-02" nType="0">
            <Node pos="l" depth="3" NCoef="0" IVar="-1" Cut="0.0000000000000000e+00" cType="1" res="4.4166571460664272e-03" rms="9.0371176600456238e-02" purity="9.1057373210787773e-03" nType="-99"/>
            <Node pos="r" depth="3" NCoef="0" IVar="-1" Cut="0.0000000000000000e+00" cType="1" res="-1.4753635041415691e-02" rms="2.1239160001277924e-01" purity="6.4627557992935181e-02" nType="-99"/>
          </Node>
          <Node pos="r" depth="2" NCoef="0" IVar="4" Cut="3.3674563598632812e+02" cType="1" res="3.6451860796660185e-03" rms="2.0582534372806549e-01" purity="8.8122665882110596e-01" nType="0">
            <Node pos="l" depth="3" NCoef="0" IVar="-1" Cut="0.0000000000000000e+00" cType="1" res="2.0722769200801849e-02" rms="3.4504121541976929e-01" purity="5.4189890623092651e-01" nType="-99"/>
            <Node pos="r" depth="3" NCoef="0" IVar="-1" Cut="0.0000000000000000e+00" cType="1" res="3.6648327950388193e-03" rms="1.8379524350166321e-01" purity="9.1896092891693115e-01" nType="-99"/>
          </Node>
        </Node>
        <Node pos="r" depth="1" NCoef="0" IVar="5" Cut="2.0338598632812500e+02" cType="1" res="-7.9780146479606628e-03" rms="1.9219903647899628e-01" purity="2.3010897636413574e-01" nType="0">
          <Node pos="l" depth="2" NCoef="0" IVar="9" Cut="4.0006667375564575e-01" cType="1" res="-9.5965637592598796e-04" rms="1.5776616334915161e-01" purity="5.0125133246183395e-02" nType="0">
            <Node pos="l" depth="3" NCoef="0" IVar="-1" Cut="0.0000000000000000e+00" cType="1" res="1.8206786364316940e-02" rms="1.6392475366592407e-01" purity="5.8853767812252045e-02" nType="-99"/>
            <Node pos="r" depth="3" NCoef="0" IVar="-1" Cut="0.0000000000000000e+00" cType="1" res="-3.6340251564979553e-02" rms="1.4793528616428375e-01" purity="3.7391766905784607e-02" nType="-99"/>
          </Node>
          <Node pos="r" depth="2" NCoef="0" IVar="-1" Cut="0.0000000000000000e+00" cType="1" res="-3.1429983675479889e-02" rms="2.3461535573005676e-01" purity="5.0332134962081909e-01" nType="-99"/>
        </Node>
      </Node>
    </BinaryTree>
    <BinaryTree type="DecisionTree" boostWeight="1.0000000000000000e+00" itree="469">
      <Node pos="s" depth="0" NCoef="0" IVar="3" Cut="5.0089886474609375e+02" cType="1" res="-8.4309041267260909e-04" rms="1.8645210564136505e-01" purity="5.0021475553512573e-01" nType="0">
        <Node pos="l" depth="1" NCoef="0" IVar="1" Cut="1.8687421875000000e+03" cType="1" res="-6.0209026560187340e-03" rms="1.8530037999153137e-01" purity="9.9845364689826965e-02" nType="0">
          <Node pos="l" depth="2" NCoef="0" IVar="3" Cut="4.1499017333984375e+02" cType="1" res="-2.3054308257997036e-03" rms="1.5088571608066559e-01" purity="3.0216395854949951e-02" nType="0">
            <Node pos="l" depth="3" NCoef="0" IVar="-1" Cut="0.0000000000000000e+00" cType="1" res="-3.9831016212701797e-02" rms="1.2936824560165405e-01" purity="2.1946474909782410e-02" nType="-99"/>
            <Node pos="r" depth="3" NCoef="0" IVar="-1" Cut="0.0000000000000000e+00" cType="1" res="2.5917835533618927e-02" rms="1.7123511433601379e-01" purity="3.9418295025825500e-02" nType="-99"/>
          </Node>
          <Node pos="r" depth="2" NCoef="0" IVar="-1" Cut="0.0000000000000000e+00" cType="1" res="-2.4263311177492142e-02" rms="3.3792921900749207e-01" purity="5.8507186174392700e-01" nType="-99"/>
        </Node>
        <Node pos="r" depth="1" NCoef="0" IVar="3" Cut="6.3692480468750000e+02" cType="1" res="7.3990301461890340e-04" rms="1.8677414953708649e-01" purity="6.2261831760406494e-01" nType="0">
          <Node pos="l" depth="2" NCoef="0" IVar="1" Cut="1.6924233398437500e+03" cType="1" res="8.2933930680155754e-03" rms="2.1250736713409424e-01" purity="2.8623691201210022e-01" nType="0">
            <Node pos="l" depth="3" NCoef="0" IVar="-1" Cut="0.0000000000000000e+00" cType="1" res="-1.6666067764163017e-02" rms="7.4107907712459564e-02" purity="5.4737855680286884e-03" nType="-99"/>
            <Node pos="r" depth="3" NCoef="0" IVar="-1" Cut="0.0000000000000000e+00" cType="1" res="2.2555330768227577e-02" rms="2.9076692461967468e-01" purity="5.6623733043670654e-01" nType="-99"/>
          </Node>
          <Node pos="r" depth="2" NCoef="0" IVar="8" Cut="-9.3260878324508667e-01" cType="1" res="-2.2407013457268476e-03" rms="1.7549574375152588e-01" purity="7.5535428524017334e-01" nType="0">
            <Node pos="l" depth="3" NCoef="0" IVar="-1" Cut="0.0000000000000000e+00" cType="1" res="-2.7483867481350899e-02" rms="1.9423344731330872e-01" purity="6.0307866334915161e-01" nType="-99"/>
            <Node pos="r" depth="3" NCoef="0" IVar="-1" Cut="0.0000000000000000e+00" cType="1" res="-2.6739090681076050e-03" rms="1.7229257524013519e-01" purity="7.7951729297637939e-01" nType="-99"/>
          </Node>
        </Node>
      </Node>
    </BinaryTree>
    <BinaryTree type="DecisionTree" boostWeight="1.0000000000000000e+00" itree="470">
      <Node pos="s" depth="0" NCoef="0" IVar="7" Cut="-5.2052099257707596e-02" cType="1" res="-3.3879000693559647e-04" rms="1.8469767272472382e-01" purity="4.9901816248893738e-01" nType="0">
        <Node pos="l" depth="1" NCoef="0" IVar="5" Cut="2.1291224670410156e+02" cType="1" res="-3.0938964337110519e-03" rms="1.7765018343925476e-01" purity="4.8983275890350342e-01" nType="0">
          <Node pos="l" depth="2" NCoef="0" IVar="5" Cut="1.5869203186035156e+02" cType="1" res="-8.7055312469601631e-03" rms="1.6470012068748474e-01" purity="1.0108106583356857e-01" nType="0">
            <Node pos="l" depth="3" NCoef="0" IVar="-1" Cut="0.0000000000000000e+00" cType="1" res="-1.0988053865730762e-02" rms="1.4476077258586884e-01" purity="6.0114402323961258e-02" nType="-99"/>
            <Node pos="r" depth="3" NCoef="0" IVar="-1" Cut="0.0000000000000000e+00" cType="1" res="-4.2234785854816437e-02" rms="1.9633248448371887e-01" purity="1.7832948267459869e-01" nType="-99"/>
          </Node>
          <Node pos="r" depth="2" NCoef="0" IVar="6" Cut="8.6829582214355469e+01" cType="1" res="1.5060204314067960e-03" rms="1.8747471272945404e-01" purity="8.0849659442901611e-01" nType="0">
            <Node pos="l" depth="3" NCoef="0" IVar="-1" Cut="0.0000000000000000e+00" cType="1" res="2.8002647683024406e-02" rms="2.5637391209602356e-01" purity="5.1608455181121826e-01" nType="-99"/>
            <Node pos="r" depth="3" NCoef="0" IVar="-1" Cut="0.0000000000000000e+00" cType="1" res="-9.6815993310883641e-04" rms="1.7762690782546997e-01" purity="8.4257155656814575e-01" nType="-99"/>
          </Node>
        </Node>
        <Node pos="r" depth="1" NCoef="0" IVar="5" Cut="1.0294049835205078e+02" cType="1" res="2.1242825314402580e-03" rms="1.9074417650699615e-01" purity="5.0722998380661011e-01" nType="0">
          <Node pos="l" depth="2" NCoef="0" IVar="7" Cut="6.2590777873992920e-01" cType="1" res="1.2106775306165218e-02" rms="1.5750819444656372e-01" purity="5.5059712380170822e-02" nType="0">
            <Node pos="l" depth="3" NCoef="0" IVar="-1" Cut="0.0000000000000000e+00" cType="1" res="-2.4538455531001091e-02" rms="1.1779914796352386e-01" purity="5.4377175867557526e-02" nType="-99"/>
            <Node pos="r" depth="3" NCoef="0" IVar="-1" Cut="0.0000000000000000e+00" cType="1" res="1.6782149672508240e-01" rms="1.8724296987056732e-01" purity="5.5736772716045380e-02" nType="-99"/>
          </Node>
          <Node pos="r" depth="2" NCoef="0" IVar="10" Cut="1.7331861257553101e+00" cType="1" res="8.0734689254313707e-04" rms="1.9466745853424072e-01" purity="5.6688231229782104e-01" nType="0">
            <Node pos="l" depth="3" NCoef="0" IVar="-1" Cut="0.0000000000000000e+00" cType="1" res="5.0968839786946774e-03" rms="1.9142478704452515e-01" purity="5.7607507705688477e-01" nType="-99"/>
            <Node pos="r" depth="3" NCoef="0" IVar="-1" Cut="0.0000000000000000e+00" cType="1" res="-2.2526660934090614e-02" rms="2.3197719454765320e-01" purity="4.4839647412300110e-01" nType="-99"/>
          </Node>
        </Node>
      </Node>
    </BinaryTree>
    <BinaryTree type="DecisionTree" boostWeight="1.0000000000000000e+00" itree="471">
      <Node pos="s" depth="0" NCoef="0" IVar="6" Cut="1.3441894531250000e+02" cType="1" res="6.4526411006227136e-04" rms="1.8408082425594330e-01" purity="5.0296050310134888e-01" nType="0">
        <Node pos="l" depth="1" NCoef="0" IVar="10" Cut="-1.9998819828033447e+00" cType="1" res="-3.0246826354414225e-03" rms="1.8575011193752289e-01" purity="2.1568638086318970e-01" nType="0">
          <Node pos="l" depth="2" NCoef="0" IVar="-1" Cut="0.0000000000000000e+00" cType="1" res="2.9047293588519096e-02" rms="2.2698345780372620e-01" purity="2.5493806600570679e-01" nType="-99"/>
          <Node pos="r" depth="2" NCoef="0" IVar="5" Cut="2.0836054992675781e+02" cType="1" res="-4.3822424486279488e-03" rms="1.8231803178787231e-01" purity="2.1283558011054993e-01" nType="0">
            <Node pos="l" depth="3" NCoef="0" IVar="-1" Cut="0.0000000000000000e+00" cType="1" res="-5.1990374922752380e-03" rms="1.6091898083686829e-01" purity="9.3767315149307251e-02" nType="-99"/>
            <Node pos="r" depth="3" NCoef="0" IVar="-1" Cut="0.0000000000000000e+00" cType="1" res="-2.0869037136435509e-02" rms="2.2816792130470276e-01" purity="5.1918083429336548e-01" nType="-99"/>
          </Node>
        </Node>
        <Node pos="r" depth="1" NCoef="0" IVar="4" Cut="3.9603240966796875e+02" cType="1" res="4.4862073846161366e-03" rms="1.8223826587200165e-01" purity="8.0361986160278320e-01" nType="0">
          <Node pos="l" depth="2" NCoef="0" IVar="1" Cut="1.8194174804687500e+03" cType="1" res="1.4799783937633038e-02" rms="2.6323544979095459e-01" purity="3.9578026533126831e-01" nType="0">
            <Node pos="l" depth="3" NCoef="0" IVar="-1" Cut="0.0000000000000000e+00" cType="1" res="8.1816278398036957e-03" rms="1.8311870098114014e-01" purity="4.1934017091989517e-02" nType="-99"/>
            <Node pos="r" depth="3" NCoef="0" IVar="-1" Cut="0.0000000000000000e+00" cType="1" res="2.5940660387277603e-02" rms="3.1940472126007080e-01" purity="7.2217911481857300e-01" nType="-99"/>
          </Node>
          <Node pos="r" depth="2" NCoef="0" IVar="7" Cut="-1.8153825774788857e-02" cType="1" res="5.2310439059510827e-04" rms="1.3888579607009888e-01" purity="9.6033656597137451e-01" nType="0">
            <Node pos="l" depth="3" NCoef="0" IVar="-1" Cut="0.0000000000000000e+00" cType="1" res="-1.1300837621092796e-02" rms="1.3695226609706879e-01" purity="9.5754319429397583e-01" nType="-99"/>
            <Node pos="r" depth="3" NCoef="0" IVar="-1" Cut="0.0000000000000000e+00" cType="1" res="1.4969850890338421e-02" rms="1.4062464237213135e-01" purity="9.6295070648193359e-01" nType="-99"/>
          </Node>
        </Node>
      </Node>
    </BinaryTree>
    <BinaryTree type="DecisionTree" boostWeight="1.0000000000000000e+00" itree="472">
      <Node pos="s" depth="0" NCoef="0" IVar="4" Cut="2.3611256408691406e+02" cType="1" res="-8.3545548841357231e-04" rms="1.8676485121250153e-01" purity="4.9670827388763428e-01" nType="0">
        <Node pos="l" depth="1" NCoef="0" IVar="6" Cut="1.0915280151367188e+02" cType="1" res="5.9349476359784603e-03" rms="1.4652529358863831e-01" purity="4.1285656392574310e-02" nType="0">
          <Node pos="l" depth="2" NCoef="0" IVar="6" Cut="8.6612937927246094e+01" cType="1" res="-1.8079465953633189e-03" rms="9.9454775452613831e-02" purity="1.8778294324874878e-02" nType="0">
            <Node pos="l" depth="3" NCoef="0" IVar="-1" Cut="0.0000000000000000e+00" cType="1" res="5.0103757530450821e-03" rms="9.8142489790916443e-02" purity="1.9780255854129791e-02" nType="-99"/>
            <Node pos="r" depth="3" NCoef="0" IVar="-1" Cut="0.0000000000000000e+00" cType="1" res="-5.3001035004854202e-02" rms="1.0259302705526352e-01" purity="1.6115488484501839e-02" nType="-99"/>
          </Node>
          <Node pos="r" depth="2" NCoef="0" IVar="8" Cut="1.3646019995212555e-01" cType="1" res="2.4187410250306129e-02" rms="2.1974797546863556e-01" purity="9.4342656433582306e-02" nType="0">
            <Node pos="l" depth="3" NCoef="0" IVar="-1" Cut="0.0000000000000000e+00" cType="1" res="8.8646419346332550e-02" rms="2.2320102155208588e-01" purity="7.7789723873138428e-02" nType="-99"/>
            <Node pos="r" depth="3" NCoef="0" IVar="-1" Cut="0.0000000000000000e+00" cType="1" res="6.8674251437187195e-02" rms="2.1608917415142059e-01" purity="1.1160029470920563e-01" nType="-99"/>
          </Node>
        </Node>
        <Node pos="r" depth="1" NCoef="0" IVar="7" Cut="-5.9683871269226074e-01" cType="1" res="-2.2507773246616125e-03" rms="1.9409567117691040e-01" purity="5.9191232919692993e-01" nType="0">
          <Node pos="l" depth="2" NCoef="0" IVar="9" Cut="9.3336915969848633e-01" cType="1" res="-8.1169558688998222e-03" rms="2.0069690048694611e-01" purity="4.4486069679260254e-01" nType="0">
            <Node pos="l" depth="3" NCoef="0" IVar="-1" Cut="0.0000000000000000e+00" cType="1" res="-9.6152154728770256e-03" rms="1.9462165236473083e-01" purity="4.6387717127799988e-01" nType="-99"/>
            <Node pos="r" depth="3" NCoef="0" IVar="-1" Cut="0.0000000000000000e+00" cType="1" res="-5.1691342145204544e-02" rms="2.2365997731685638e-01" purity="3.6461448669433594e-01" nType="-99"/>
          </Node>
          <Node pos="r" depth="2" NCoef="0" IVar="7" Cut="8.5861164331436157e-01" cType="1" res="-6.0902402037754655e-04" rms="1.9217553734779358e-01" purity="6.3306725025177002e-01" nType="0">
            <Node pos="l" depth="3" NCoef="0" IVar="-1" Cut="0.0000000000000000e+00" cType="1" res="4.7742011956870556e-03" rms="1.8759755790233612e-01" purity="6.8834453821182251e-01" nType="-99"/>
            <Node pos="r" depth="3" NCoef="0" IVar="-1" Cut="0.0000000000000000e+00" cType="1" res="-2.4034038186073303e-02" rms="2.1192331612110138e-01" purity="3.7479045987129211e-01" nType="-99"/>
          </Node>
        </Node>
      </Node>
    </BinaryTree>
    <BinaryTree type="DecisionTree" boostWeight="1.0000000000000000e+00" itree="473">
      <Node pos="s" depth="0" NCoef="0" IVar="9" Cut="-1.2000585794448853e+00" cType="1" res="3.3339214860461652e-04" rms="1.8636646866798401e-01" purity="4.9896758794784546e-01" nType="0">
        <Node pos="l" depth="1" NCoef="0" IVar="9" Cut="-1.5810043811798096e+00" cType="1" res="-8.2826958969235420e-03" rms="2.0150788128376007e-01" purity="3.7401682138442993e-01" nType="0">
          <Node pos="l" depth="2" NCoef="0" IVar="2" Cut="3.5724651068449020e-02" cType="1" res="-1.9313568482175469e-03" rms="2.1521693468093872e-01" purity="3.0846062302589417e-01" nType="0">
            <Node pos="l" depth="3" NCoef="0" IVar="-1" Cut="0.0000000000000000e+00" cType="1" res="9.8472964018583298e-03" rms="2.2018603980541229e-01" purity="1.9210824370384216e-01" nType="-99"/>
            <Node pos="r" depth="3" NCoef="0" IVar="-1" Cut="0.0000000000000000e+00" cType="1" res="-2.8117163106799126e-02" rms="2.0676153898239136e-01" purity="4.9141871929168701e-01" nType="-99"/>
          </Node>
          <Node pos="r" depth="2" NCoef="0" IVar="8" Cut="1.3351123034954071e-01" cType="1" res="-1.5759764239192009e-02" rms="1.8378399312496185e-01" purity="4.5119240880012512e-01" nType="0">
            <Node pos="l" depth="3" NCoef="0" IVar="-1" Cut="0.0000000000000000e+00" cType="1" res="-1.8025733530521393e-02" rms="1.7368529736995697e-01" purity="4.4954118132591248e-01" nType="-99"/>
            <Node pos="r" depth="3" NCoef="0" IVar="-1" Cut="0.0000000000000000e+00" cType="1" res="-7.3732517659664154e-02" rms="1.9586485624313354e-01" purity="4.5342075824737549e-01" nType="-99"/>
          </Node>
        </Node>
        <Node pos="r" depth="1" NCoef="0" IVar="3" Cut="5.0095898437500000e+02" cType="1" res="1.7360110068693757e-03" rms="1.8374532461166382e-01" purity="5.1930838823318481e-01" nType="0">
          <Node pos="l" depth="2" NCoef="0" IVar="9" Cut="-6.2876313924789429e-01" cType="1" res="8.1875538453459740e-03" rms="2.0729461312294006e-01" purity="1.1765374243259430e-01" nType="0">
            <Node pos="l" depth="3" NCoef="0" IVar="-1" Cut="0.0000000000000000e+00" cType="1" res="5.8152791112661362e-02" rms="2.3150300979614258e-01" purity="1.4485158026218414e-01" nType="-99"/>
            <Node pos="r" depth="3" NCoef="0" IVar="-1" Cut="0.0000000000000000e+00" cType="1" res="1.2220225296914577e-02" rms="2.0155167579650879e-01" purity="1.1182332038879395e-01" nType="-99"/>
          </Node>
          <Node pos="r" depth="2" NCoef="0" IVar="7" Cut="7.5799781084060669e-01" cType="1" res="-1.4017728972248733e-04" rms="1.7626318335533142e-01" purity="6.3611453771591187e-01" nType="0">
            <Node pos="l" depth="3" NCoef="0" IVar="-1" Cut="0.0000000000000000e+00" cType="1" res="4.5697637833654881e-03" rms="1.7345803976058960e-01" purity="6.7054629325866699e-01" nType="-99"/>
            <Node pos="r" depth="3" NCoef="0" IVar="-1" Cut="0.0000000000000000e+00" cType="1" res="-2.4327926337718964e-02" rms="1.9088505208492279e-01" purity="4.4441595673561096e-01" nType="-99"/>
          </Node>
        </Node>
      </Node>
    </BinaryTree>
    <BinaryTree type="DecisionTree" boostWeight="1.0000000000000000e+00" itree="474">
      <Node pos="s" depth="0" NCoef="0" IVar="9" Cut="-1.4666321277618408e+00" cType="1" res="1.2379689142107964e-03" rms="1.8883219361305237e-01" purity="5.0141870975494385e-01" nType="0">
        <Node pos="l" depth="1" NCoef="0" IVar="9" Cut="-2.1015319824218750e+00" cType="1" res="9.4808870926499367e-03" rms="2.2568556666374207e-01" purity="3.5055816173553467e-01" nType="0">
          <Node pos="l" depth="2" NCoef="0" IVar="-1" Cut="0.0000000000000000e+00" cType="1" res="4.8822756856679916e-02" rms="2.4573406577110291e-01" purity="2.5119280815124512e-01" nType="-99"/>
          <Node pos="r" depth="2" NCoef="0" IVar="9" Cut="-1.6479903459548950e+00" cType="1" res="4.0913252159953117e-03" rms="2.1724699437618256e-01" purity="3.8875463604927063e-01" nType="0">
            <Node pos="l" depth="3" NCoef="0" IVar="-1" Cut="0.0000000000000000e+00" cType="1" res="-1.4545731246471405e-02" rms="2.1095755696296692e-01" purity="3.4757471084594727e-01" nType="-99"/>
            <Node pos="r" depth="3" NCoef="0" IVar="-1" Cut="0.0000000000000000e+00" cType="1" res="4.8604186624288559e-02" rms="2.2622147202491760e-01" purity="4.5742446184158325e-01" nType="-99"/>
          </Node>
        </Node>
        <Node pos="r" depth="1" NCoef="0" IVar="8" Cut="-6.6654562950134277e-01" cType="1" res="3.6837445804849267e-04" rms="1.8449410796165466e-01" purity="5.1733386516571045e-01" nType="0">
          <Node pos="l" depth="2" NCoef="0" IVar="9" Cut="1.5831322968006134e-01" cType="1" res="5.0762272439897060e-03" rms="1.9850416481494904e-01" purity="4.4325193762779236e-01" nType="0">
            <Node pos="l" depth="3" NCoef="0" IVar="-1" Cut="0.0000000000000000e+00" cType="1" res="-7.9203821951523423e-04" rms="1.8676117062568665e-01" purity="4.3976467847824097e-01" nType="-99"/>
            <Node pos="r" depth="3" NCoef="0" IVar="-1" Cut="0.0000000000000000e+00" cType="1" res="2.3794017732143402e-02" rms="2.1067272126674652e-01" purity="4.4714227318763733e-01" nType="-99"/>
          </Node>
          <Node pos="r" depth="2" NCoef="0" IVar="10" Cut="4.0006226301193237e-01" cType="1" res="-1.1672180844470859e-03" rms="1.7966157197952271e-01" purity="5.4149770736694336e-01" nType="0">
            <Node pos="l" depth="3" NCoef="0" IVar="-1" Cut="0.0000000000000000e+00" cType="1" res="3.7201808299869299e-03" rms="1.8126204609870911e-01" purity="5.6077671051025391e-01" nType="-99"/>
            <Node pos="r" depth="3" NCoef="0" IVar="-1" Cut="0.0000000000000000e+00" cType="1" res="-1.4913586899638176e-02" rms="1.7705862224102020e-01" purity="5.1126527786254883e-01" nType="-99"/>
          </Node>
        </Node>
      </Node>
    </BinaryTree>
    <BinaryTree type="DecisionTree" boostWeight="1.0000000000000000e+00" itree="475">
      <Node pos="s" depth="0" NCoef="0" IVar="7" Cut="1.4907419681549072e+00" cType="1" res="-5.4251653637038544e-05" rms="1.8393956124782562e-01" purity="5.0161647796630859e-01" nType="0">
        <Node pos="l" depth="1" NCoef="0" IVar="2" Cut="2.0896391943097115e-02" cType="1" res="-6.1546830693259835e-04" rms="1.8238738179206848e-01" purity="5.1818299293518066e-01" nType="0">
          <Node pos="l" depth="2" NCoef="0" IVar="10" Cut="1.1996647119522095e+00" cType="1" res="2.8182277455925941e-03" rms="1.8996748328208923e-01" purity="2.8121757507324219e-01" nType="0">
            <Node pos="l" depth="3" NCoef="0" IVar="-1" Cut="0.0000000000000000e+00" cType="1" res="2.3777713067829609e-03" rms="1.8291507661342621e-01" purity="2.8760263323783875e-01" nType="-99"/>
            <Node pos="r" depth="3" NCoef="0" IVar="-1" Cut="0.0000000000000000e+00" cType="1" res="2.8031682595610619e-02" rms="2.2264672815799713e-01" purity="2.4818104505538940e-01" nType="-99"/>
          </Node>
          <Node pos="r" depth="2" NCoef="0" IVar="0" Cut="5.3298260498046875e+02" cType="1" res="-2.4958110880106688e-03" rms="1.7807167768478394e-01" purity="6.4794868230819702e-01" nType="0">
            <Node pos="l" depth="3" NCoef="0" IVar="-1" Cut="0.0000000000000000e+00" cType="1" res="-1.8574755638837814e-02" rms="1.9740717113018036e-01" purity="9.3864947557449341e-02" nType="-99"/>
            <Node pos="r" depth="3" NCoef="0" IVar="-1" Cut="0.0000000000000000e+00" cType="1" res="-2.0641898736357689e-03" rms="1.7129552364349365e-01" purity="8.2753384113311768e-01" nType="-99"/>
          </Node>
        </Node>
        <Node pos="r" depth="1" NCoef="0" IVar="-1" Cut="0.0000000000000000e+00" cType="1" res="3.7898499518632889e-02" rms="2.1679365634918213e-01" purity="1.1276002228260040e-01" nType="-99"/>
      </Node>
    </BinaryTree>
    <BinaryTree type="DecisionTree" boostWeight="1.0000000000000000e+00" itree="476">
      <Node pos="s" depth="0" NCoef="0" IVar="8" Cut="-1.7333317995071411e+00" cType="1" res="-6.4167089294642210e-04" rms="1.8616814911365509e-01" purity="4.9513059854507446e-01" nType="0">
        <Node pos="l" depth="1" NCoef="0" IVar="-1" Cut="0.0000000000000000e+00" cType="1" res="-2.9231354594230652e-02" rms="1.9323532283306122e-01" purity="1.6429153084754944e-01" nType="-99"/>
        <Node pos="r" depth="1" NCoef="0" IVar="7" Cut="-8.5840100049972534e-01" cType="1" res="-1.3138494978193194e-04" rms="1.8584446609020233e-01" purity="5.0920051336288452e-01" nType="0">
          <Node pos="l" depth="2" NCoef="0" IVar="10" Cut="4.0088540315628052e-01" cType="1" res="5.6195855140686035e-03" rms="1.9721236824989319e-01" purity="2.8867512941360474e-01" nType="0">
            <Node pos="l" depth="3" NCoef="0" IVar="-1" Cut="0.0000000000000000e+00" cType="1" res="3.7773055955767632e-03" rms="1.8661569058895111e-01" purity="2.7991598844528198e-01" nType="-99"/>
            <Node pos="r" depth="3" NCoef="0" IVar="-1" Cut="0.0000000000000000e+00" cType="1" res="3.2956246286630630e-02" rms="2.1558202803134918e-01" purity="3.0522280931472778e-01" nType="-99"/>
          </Node>
          <Node pos="r" depth="2" NCoef="0" IVar="3" Cut="6.4808270263671875e+02" cType="1" res="-1.1561043793335557e-03" rms="1.8372620642185211e-01" purity="5.4849416017532349e-01" nType="0">
            <Node pos="l" depth="3" NCoef="0" IVar="-1" Cut="0.0000000000000000e+00" cType="1" res="-1.0814868845045567e-02" rms="1.9645203649997711e-01" purity="2.1067568659782410e-01" nType="-99"/>
            <Node pos="r" depth="3" NCoef="0" IVar="-1" Cut="0.0000000000000000e+00" cType="1" res="3.5782270133495331e-03" rms="1.7378862202167511e-01" purity="7.9571276903152466e-01" nType="-99"/>
          </Node>
        </Node>
      </Node>
    </BinaryTree>
    <BinaryTree type="DecisionTree" boostWeight="1.0000000000000000e+00" itree="477">
      <Node pos="s" depth="0" NCoef="0" IVar="9" Cut="-1.4665838479995728e+00" cType="1" res="-6.3732959097251296e-04" rms="1.8493913114070892e-01" purity="5.0144129991531372e-01" nType="0">
        <Node pos="l" depth="1" NCoef="0" IVar="8" Cut="-3.9840683341026306e-01" cType="1" res="-9.2734517529606819e-03" rms="1.9543883204460144e-01" purity="3.2935640215873718e-01" nType="0">
          <Node pos="l" depth="2" NCoef="0" IVar="-1" Cut="0.0000000000000000e+00" cType="1" res="-2.7931625954806805e-03" rms="1.9805738329887390e-01" purity="3.0022281408309937e-01" nType="-99"/>
          <Node pos="r" depth="2" NCoef="0" IVar="1" Cut="1.8482884521484375e+03" cType="1" res="-1.4346591196954250e-02" rms="1.9360527396202087e-01" purity="3.4763827919960022e-01" nType="0">
            <Node pos="l" depth="3" NCoef="0" IVar="-1" Cut="0.0000000000000000e+00" cType="1" res="-3.7227161228656769e-02" rms="1.2043555825948715e-01" purity="1.7008593305945396e-02" nType="-99"/>
            <Node pos="r" depth="3" NCoef="0" IVar="-1" Cut="0.0000000000000000e+00" cType="1" res="-3.3004395663738251e-02" rms="2.5460615754127502e-01" purity="7.4243426322937012e-01" nType="-99"/>
          </Node>
        </Node>
        <Node pos="r" depth="1" NCoef="0" IVar="1" Cut="1.9959119873046875e+03" cType="1" res="2.3100530961528420e-04" rms="1.8382780253887177e-01" purity="5.1874387264251709e-01" nType="0">
          <Node pos="l" depth="2" NCoef="0" IVar="1" Cut="1.7688918457031250e+03" cType="1" res="2.2541375365108252e-03" rms="1.6138331592082977e-01" purity="3.7699673324823380e-02" nType="0">
            <Node pos="l" depth="3" NCoef="0" IVar="-1" Cut="0.0000000000000000e+00" cType="1" res="-6.4960368908941746e-03" rms="1.1002570390701294e-01" purity="1.4104850590229034e-02" nType="-99"/>
            <Node pos="r" depth="3" NCoef="0" IVar="-1" Cut="0.0000000000000000e+00" cType="1" res="1.9213812425732613e-02" rms="2.9491686820983887e-01" purity="1.4123018085956573e-01" nType="-99"/>
          </Node>
          <Node pos="r" depth="2" NCoef="0" IVar="0" Cut="5.9750860595703125e+02" cType="1" res="-1.3299075653776526e-03" rms="1.9941155612468719e-01" purity="8.8988524675369263e-01" nType="0">
            <Node pos="l" depth="3" NCoef="0" IVar="-1" Cut="0.0000000000000000e+00" cType="1" res="-1.5858422964811325e-02" rms="3.5039681196212769e-01" purity="5.3335350751876831e-01" nType="-99"/>
            <Node pos="r" depth="3" NCoef="0" IVar="-1" Cut="0.0000000000000000e+00" cType="1" res="1.3168801087886095e-03" rms="1.7862349748611450e-01" purity="9.2348217964172363e-01" nType="-99"/>
          </Node>
        </Node>
      </Node>
    </BinaryTree>
    <BinaryTree type="DecisionTree" boostWeight="1.0000000000000000e+00" itree="478">
      <Node pos="s" depth="0" NCoef="0" IVar="10" Cut="-2.2663860321044922e+00" cType="1" res="-1.4573021326214075e-04" rms="1.8497700989246368e-01" purity="5.0504207611083984e-01" nType="0">
        <Node pos="l" depth="1" NCoef="0" IVar="-1" Cut="0.0000000000000000e+00" cType="1" res="-4.8809345811605453e-02" rms="2.1017646789550781e-01" purity="3.0734831094741821e-01" nType="-99"/>
        <Node pos="r" depth="1" NCoef="0" IVar="10" Cut="8.6989217996597290e-01" cType="1" res="5.0097389612346888e-04" rms="1.8423192203044891e-01" purity="5.1017558574676514e-01" nType="0">
          <Node pos="l" depth="2" NCoef="0" IVar="8" Cut="1.3401548564434052e-01" cType="1" res="-1.0510359425097704e-03" rms="1.7731323838233948e-01" purity="5.1936662197113037e-01" nType="0">
            <Node pos="l" depth="3" NCoef="0" IVar="-1" Cut="0.0000000000000000e+00" cType="1" res="-1.0156283155083656e-02" rms="1.7401859164237976e-01" purity="5.1714134216308594e-01" nType="-99"/>
            <Node pos="r" depth="3" NCoef="0" IVar="-1" Cut="0.0000000000000000e+00" cType="1" res="5.0932290032505989e-03" rms="1.8140661716461182e-01" purity="5.2221584320068359e-01" nType="-99"/>
          </Node>
          <Node pos="r" depth="2" NCoef="0" IVar="8" Cut="-1.2001178264617920e+00" cType="1" res="5.0987908616662025e-03" rms="2.0328196883201599e-01" purity="4.8294720053672791e-01" nType="0">
            <Node pos="l" depth="3" NCoef="0" IVar="-1" Cut="0.0000000000000000e+00" cType="1" res="4.6311479061841965e-02" rms="2.4686126410961151e-01" purity="3.3865544199943542e-01" nType="-99"/>
            <Node pos="r" depth="3" NCoef="0" IVar="-1" Cut="0.0000000000000000e+00" cType="1" res="6.5474966540932655e-03" rms="1.9707356393337250e-01" purity="5.0080609321594238e-01" nType="-99"/>
          </Node>
        </Node>
      </Node>
    </BinaryTree>
    <BinaryTree type="DecisionTree" boostWeight="1.0000000000000000e+00" itree="479">
      <Node pos="s" depth="0" NCoef="0" IVar="10" Cut="-2.2662429809570312e+00" cType="1" res="8.6968485265970230e-04" rms="1.8681971728801727e-01" purity="5.0304424762725830e-01" nType="0">
        <Node pos="l" depth="1" NCoef="0" IVar="-1" Cut="0.0000000000000000e+00" cType="1" res="-3.8730118423700333e-02" rms="2.1577213704586029e-01" purity="2.9984042048454285e-01" nType="-99"/>
        <Node pos="r" depth="1" NCoef="0" IVar="0" Cut="7.4137487792968750e+02" cType="1" res="1.4229480875656009e-03" rms="1.8596652150154114e-01" purity="5.0838053226470947e-01" nType="0">
          <Node pos="l" depth="2" NCoef="0" IVar="1" Cut="1.9548607177734375e+03" cType="1" res="4.1173682548105717e-03" rms="1.9951251149177551e-01" purity="1.9045850634574890e-01" nType="0">
            <Node pos="l" depth="3" NCoef="0" IVar="-1" Cut="0.0000000000000000e+00" cType="1" res="-2.0270095774321817e-05" rms="1.4407271146774292e-01" purity="2.7568653225898743e-02" nType="-99"/>
            <Node pos="r" depth="3" NCoef="0" IVar="-1" Cut="0.0000000000000000e+00" cType="1" res="1.6559479758143425e-02" rms="3.1212741136550903e-01" purity="6.8495607376098633e-01" nType="-99"/>
          </Node>
          <Node pos="r" depth="2" NCoef="0" IVar="7" Cut="-3.2259044051170349e-01" cType="1" res="-1.7815296305343509e-03" rms="1.6838787496089935e-01" purity="8.8648569583892822e-01" nType="0">
            <Node pos="l" depth="3" NCoef="0" IVar="-1" Cut="0.0000000000000000e+00" cType="1" res="-2.1720120683312416e-02" rms="1.7373347282409668e-01" purity="8.6025220155715942e-01" nType="-99"/>
            <Node pos="r" depth="3" NCoef="0" IVar="-1" Cut="0.0000000000000000e+00" cType="1" res="7.0000742562115192e-04" rms="1.6608121991157532e-01" purity="8.9736247062683105e-01" nType="-99"/>
          </Node>
        </Node>
      </Node>
    </BinaryTree>
    <BinaryTree type="DecisionTree" boostWeight="1.0000000000000000e+00" itree="480">
      <Node pos="s" depth="0" NCoef="0" IVar="0" Cut="5.9425408935546875e+02" cType="1" res="1.0182337136939168e-03" rms="1.8569217622280121e-01" purity="5.0043243169784546e-01" nType="0">
        <Node pos="l" depth="1" NCoef="0" IVar="5" Cut="2.1828971862792969e+02" cType="1" res="-2.2881487384438515e-03" rms="1.8483155965805054e-01" purity="9.2464029788970947e-02" nType="0">
          <Node pos="l" depth="2" NCoef="0" IVar="8" Cut="1.4666806459426880e+00" cType="1" res="5.0206773448735476e-04" rms="1.3538055121898651e-01" purity="2.5868238881230354e-02" nType="0">
            <Node pos="l" depth="3" NCoef="0" IVar="-1" Cut="0.0000000000000000e+00" cType="1" res="-6.1492212116718292e-03" rms="1.2944492697715759e-01" purity="2.4156257510185242e-02" nType="-99"/>
            <Node pos="r" depth="3" NCoef="0" IVar="-1" Cut="0.0000000000000000e+00" cType="1" res="6.4351715147495270e-02" rms="1.7435498535633087e-01" purity="3.9217788726091385e-02" nType="-99"/>
          </Node>
          <Node pos="r" depth="2" NCoef="0" IVar="2" Cut="5.7837478816509247e-02" cType="1" res="-9.6949851140379906e-03" rms="2.7590188384056091e-01" purity="2.6924747228622437e-01" nType="0">
            <Node pos="l" depth="3" NCoef="0" IVar="-1" Cut="0.0000000000000000e+00" cType="1" res="-4.2693498544394970e-03" rms="2.6610255241394043e-01" purity="2.1027834713459015e-01" nType="-99"/>
            <Node pos="r" depth="3" NCoef="0" IVar="-1" Cut="0.0000000000000000e+00" cType="1" res="-2.6258641853928566e-02" rms="2.9474735260009766e-01" purity="3.9151671528816223e-01" nType="-99"/>
          </Node>
        </Node>
        <Node pos="r" depth="1" NCoef="0" IVar="4" Cut="4.3152114868164062e+02" cType="1" res="3.1729992479085922e-03" rms="1.8621930480003357e-01" purity="7.6630496978759766e-01" nType="0">
          <Node pos="l" depth="2" NCoef="0" IVar="8" Cut="9.3272942304611206e-01" cType="1" res="8.4199933335185051e-03" rms="2.5191998481750488e-01" purity="4.0354514122009277e-01" nType="0">
            <Node pos="l" depth="3" NCoef="0" IVar="-1" Cut="0.0000000000000000e+00" cType="1" res="7.6009915210306644e-03" rms="2.4617154896259308e-01" purity="4.0202966332435608e-01" nType="-99"/>
            <Node pos="r" depth="3" NCoef="0" IVar="-1" Cut="0.0000000000000000e+00" cType="1" res="3.0629819259047508e-02" rms="2.7031072974205017e-01" purity="4.0874561667442322e-01" nType="-99"/>
          </Node>
          <Node pos="r" depth="2" NCoef="0" IVar="5" Cut="2.0311993408203125e+02" cType="1" res="2.7919144486077130e-04" rms="1.3703310489654541e-01" purity="9.6637326478958130e-01" nType="0">
            <Node pos="l" depth="3" NCoef="0" IVar="-1" Cut="0.0000000000000000e+00" cType="1" res="-2.3109585046768188e-02" rms="2.9134771227836609e-01" purity="7.6456439495086670e-01" nType="-99"/>
            <Node pos="r" depth="3" NCoef="0" IVar="-1" Cut="0.0000000000000000e+00" cType="1" res="1.3154304586350918e-02" rms="1.1469110101461411e-01" purity="9.8343479633331299e-01" nType="-99"/>
          </Node>
        </Node>
      </Node>
    </BinaryTree>
    <BinaryTree type="DecisionTree" boostWeight="1.0000000000000000e+00" itree="481">
      <Node pos="s" depth="0" NCoef="0" IVar="8" Cut="1.7333439588546753e+00" cType="1" res="1.1521932901814580e-04" rms="1.8693274259567261e-01" purity="5.0174611806869507e-01" nType="0">
        <Node pos="l" depth="1" NCoef="0" IVar="9" Cut="-3.9974036812782288e-01" cType="1" res="6.5997510682791471e-04" rms="1.8618969619274139e-01" purity="5.1657330989837646e-01" nType="0">
          <Node pos="l" depth="2" NCoef="0" IVar="1" Cut="2.2412932128906250e+03" cType="1" res="4.2939605191349983e-03" rms="1.9607980549335480e-01" purity="4.9694481492042542e-01" nType="0">
            <Node pos="l" depth="3" NCoef="0" IVar="-1" Cut="0.0000000000000000e+00" cType="1" res="2.2514745593070984e-02" rms="2.0604458451271057e-01" purity="7.3374196887016296e-02" nType="-99"/>
            <Node pos="r" depth="3" NCoef="0" IVar="-1" Cut="0.0000000000000000e+00" cType="1" res="-9.0700353030115366e-04" rms="1.8498048186302185e-01" purity="9.3965083360671997e-01" nType="-99"/>
          </Node>
          <Node pos="r" depth="2" NCoef="0" IVar="8" Cut="6.5390557050704956e-01" cType="1" res="-1.4200799632817507e-03" rms="1.8025174736976624e-01" purity="5.2780854701995850e-01" nType="0">
            <Node pos="l" depth="3" NCoef="0" IVar="-1" Cut="0.0000000000000000e+00" cType="1" res="-9.6279727295041084e-03" rms="1.7451192438602448e-01" purity="5.5013209581375122e-01" nType="-99"/>
            <Node pos="r" depth="3" NCoef="0" IVar="-1" Cut="0.0000000000000000e+00" cType="1" res="1.1602026410400867e-02" rms="1.9724105298519135e-01" purity="4.5703315734863281e-01" nType="-99"/>
          </Node>
        </Node>
        <Node pos="r" depth="1" NCoef="0" IVar="-1" Cut="0.0000000000000000e+00" cType="1" res="-2.8767833486199379e-02" rms="2.0289291441440582e-01" purity="1.6022695600986481e-01" nType="-99"/>
      </Node>
    </BinaryTree>
    <BinaryTree type="DecisionTree" boostWeight="1.0000000000000000e+00" itree="482">
      <Node pos="s" depth="0" NCoef="0" IVar="8" Cut="4.0002721548080444e-01" cType="1" res="7.0656256866641343e-05" rms="1.8578696250915527e-01" purity="4.9793389439582825e-01" nType="0">
        <Node pos="l" depth="1" NCoef="0" IVar="9" Cut="6.6648429632186890e-01" cType="1" res="2.1975587587803602e-03" rms="1.8235786259174347e-01" purity="5.2392017841339111e-01" nType="0">
          <Node pos="l" depth="2" NCoef="0" IVar="4" Cut="2.2838360595703125e+02" cType="1" res="-5.3208710596663877e-05" rms="1.7003549635410309e-01" purity="5.3323471546173096e-01" nType="0">
            <Node pos="l" depth="3" NCoef="0" IVar="-1" Cut="0.0000000000000000e+00" cType="1" res="5.0481781363487244e-02" rms="1.3510918617248535e-01" purity="3.2303769141435623e-02" nType="-99"/>
            <Node pos="r" depth="3" NCoef="0" IVar="-1" Cut="0.0000000000000000e+00" cType="1" res="-3.9009244646877050e-03" rms="1.7530971765518188e-01" purity="6.1934590339660645e-01" nType="-99"/>
          </Node>
          <Node pos="r" depth="2" NCoef="0" IVar="10" Cut="1.2005246877670288e+00" cType="1" res="8.5429605096578598e-03" rms="2.1317081153392792e-01" purity="4.9766060709953308e-01" nType="0">
            <Node pos="l" depth="3" NCoef="0" IVar="-1" Cut="0.0000000000000000e+00" cType="1" res="2.8711799532175064e-02" rms="2.0804053544998169e-01" purity="5.1455700397491455e-01" nType="-99"/>
            <Node pos="r" depth="3" NCoef="0" IVar="-1" Cut="0.0000000000000000e+00" cType="1" res="-1.4828130602836609e-02" rms="2.3409557342529297e-01" purity="4.2188423871994019e-01" nType="-99"/>
          </Node>
        </Node>
        <Node pos="r" depth="1" NCoef="0" IVar="9" Cut="1.4664752483367920e+00" cType="1" res="-3.8541345857083797e-03" rms="1.9189208745956421e-01" purity="4.4998112320899963e-01" nType="0">
          <Node pos="l" depth="2" NCoef="0" IVar="10" Cut="-4.0051460266113281e-01" cType="1" res="-2.1115574054419994e-03" rms="1.9410915672779083e-01" purity="4.7494584321975708e-01" nType="0">
            <Node pos="l" depth="3" NCoef="0" IVar="-1" Cut="0.0000000000000000e+00" cType="1" res="-1.8084380775690079e-02" rms="2.0230311155319214e-01" purity="4.9056965112686157e-01" nType="-99"/>
            <Node pos="r" depth="3" NCoef="0" IVar="-1" Cut="0.0000000000000000e+00" cType="1" res="1.6363884788006544e-03" rms="1.8971474468708038e-01" purity="4.6693676710128784e-01" nType="-99"/>
          </Node>
          <Node pos="r" depth="2" NCoef="0" IVar="-1" Cut="0.0000000000000000e+00" cType="1" res="-4.7265253961086273e-02" rms="1.7197152972221375e-01" purity="2.4522052705287933e-01" nType="-99"/>
        </Node>
      </Node>
    </BinaryTree>
    <BinaryTree type="DecisionTree" boostWeight="1.0000000000000000e+00" itree="483">
      <Node pos="s" depth="0" NCoef="0" IVar="7" Cut="-9.2239075899124146e-01" cType="1" res="4.1535292984917760e-04" rms="1.8244923651218414e-01" purity="4.9683550000190735e-01" nType="0">
        <Node pos="l" depth="1" NCoef="0" IVar="0" Cut="5.2785760498046875e+02" cType="1" res="-7.8879566863179207e-03" rms="1.7220267653465271e-01" purity="2.4785520136356354e-01" nType="0">
          <Node pos="l" depth="2" NCoef="0" IVar="9" Cut="1.3374479115009308e-01" cType="1" res="-2.5526422541588545e-03" rms="1.3430294394493103e-01" purity="2.9450872913002968e-02" nType="0">
            <Node pos="l" depth="3" NCoef="0" IVar="-1" Cut="0.0000000000000000e+00" cType="1" res="-4.4443666934967041e-02" rms="1.2013472616672516e-01" purity="2.0451217889785767e-02" nType="-99"/>
            <Node pos="r" depth="3" NCoef="0" IVar="-1" Cut="0.0000000000000000e+00" cType="1" res="2.4985447525978088e-02" rms="1.4980255067348480e-01" purity="4.0755391120910645e-02" nType="-99"/>
          </Node>
          <Node pos="r" depth="2" NCoef="0" IVar="1" Cut="2.0255574951171875e+03" cType="1" res="-1.2911469675600529e-02" rms="2.0134380459785461e-01" purity="4.5349574089050293e-01" nType="0">
            <Node pos="l" depth="3" NCoef="0" IVar="-1" Cut="0.0000000000000000e+00" cType="1" res="-8.3708450198173523e-02" rms="1.2094166129827499e-01" purity="1.3272398151457310e-02" nType="-99"/>
            <Node pos="r" depth="3" NCoef="0" IVar="-1" Cut="0.0000000000000000e+00" cType="1" res="-6.3343113288283348e-03" rms="2.4872817099094391e-01" purity="8.1881225109100342e-01" nType="-99"/>
          </Node>
        </Node>
        <Node pos="r" depth="1" NCoef="0" IVar="10" Cut="-1.9998180866241455e+00" cType="1" res="1.6815619310364127e-03" rms="1.8392869830131531e-01" purity="5.3480368852615356e-01" nType="0">
          <Node pos="l" depth="2" NCoef="0" IVar="-1" Cut="0.0000000000000000e+00" cType="1" res="2.9593214392662048e-02" rms="2.4198055267333984e-01" purity="4.2841172218322754e-01" nType="-99"/>
          <Node pos="r" depth="2" NCoef="0" IVar="4" Cut="2.2857092285156250e+02" cType="1" res="9.1823225375264883e-04" rms="1.8036454916000366e-01" purity="5.4034000635147095e-01" nType="0">
            <Node pos="l" depth="3" NCoef="0" IVar="-1" Cut="0.0000000000000000e+00" cType="1" res="-3.6144196987152100e-02" rms="1.1080301553010941e-01" purity="2.3765968158841133e-02" nType="-99"/>
            <Node pos="r" depth="3" NCoef="0" IVar="-1" Cut="0.0000000000000000e+00" cType="1" res="5.6887357495725155e-03" rms="1.8977017700672150e-01" purity="6.2938159704208374e-01" nType="-99"/>
          </Node>
        </Node>
      </Node>
    </BinaryTree>
    <BinaryTree type="DecisionTree" boostWeight="1.0000000000000000e+00" itree="484">
      <Node pos="s" depth="0" NCoef="0" IVar="9" Cut="-1.4665973186492920e+00" cType="1" res="-1.1548049515113235e-03" rms="1.8301044404506683e-01" purity="5.0281637907028198e-01" nType="0">
        <Node pos="l" depth="1" NCoef="0" IVar="4" Cut="2.6645825195312500e+02" cType="1" res="-9.6272183582186699e-03" rms="2.0358009636402130e-01" purity="3.3575868606567383e-01" nType="0">
          <Node pos="l" depth="2" NCoef="0" IVar="-1" Cut="0.0000000000000000e+00" cType="1" res="1.2797832023352385e-03" rms="1.6154474020004272e-01" purity="5.7092741131782532e-02" nType="-99"/>
          <Node pos="r" depth="2" NCoef="0" IVar="9" Cut="-1.7839304208755493e+00" cType="1" res="-1.4906279742717743e-02" rms="2.2249561548233032e-01" purity="4.8354849219322205e-01" nType="0">
            <Node pos="l" depth="3" NCoef="0" IVar="-1" Cut="0.0000000000000000e+00" cType="1" res="-9.2742433771491051e-03" rms="2.3818571865558624e-01" purity="4.1310307383537292e-01" nType="-99"/>
            <Node pos="r" depth="3" NCoef="0" IVar="-1" Cut="0.0000000000000000e+00" cType="1" res="-5.8678347617387772e-02" rms="2.0237734913825989e-01" purity="5.6480926275253296e-01" nType="-99"/>
          </Node>
        </Node>
        <Node pos="r" depth="1" NCoef="0" IVar="9" Cut="-1.2634297609329224e+00" cType="1" res="-2.7634567231871188e-04" rms="1.8072107434272766e-01" purity="5.2013772726058960e-01" nType="0">
          <Node pos="l" depth="2" NCoef="0" IVar="-1" Cut="0.0000000000000000e+00" cType="1" res="3.6681119352579117e-02" rms="2.0727081596851349e-01" purity="4.7295972704887390e-01" nType="-99"/>
          <Node pos="r" depth="2" NCoef="0" IVar="9" Cut="1.8322502374649048e+00" cType="1" res="-8.8740914361551404e-04" rms="1.7953576147556305e-01" purity="5.2204948663711548e-01" nType="0">
            <Node pos="l" depth="3" NCoef="0" IVar="-1" Cut="0.0000000000000000e+00" cType="1" res="-8.4987143054604530e-04" rms="1.7715463042259216e-01" purity="5.3724116086959839e-01" nType="-99"/>
            <Node pos="r" depth="3" NCoef="0" IVar="-1" Cut="0.0000000000000000e+00" cType="1" res="-2.3417150601744652e-02" rms="2.1709269285202026e-01" purity="2.5341740250587463e-01" nType="-99"/>
          </Node>
        </Node>
      </Node>
    </BinaryTree>
    <BinaryTree type="DecisionTree" boostWeight="1.0000000000000000e+00" itree="485">
      <Node pos="s" depth="0" NCoef="0" IVar="9" Cut="-1.7329245805740356e+00" cType="1" res="9.3339884188026190e-04" rms="1.8655551970005035e-01" purity="5.0514316558837891e-01" nType="0">
        <Node pos="l" depth="1" NCoef="0" IVar="8" Cut="1.3340938091278076e-01" cType="1" res="1.3880824670195580e-02" rms="2.3534530401229858e-01" purity="3.3012640476226807e-01" nType="0">
          <Node pos="l" depth="2" NCoef="0" IVar="-1" Cut="0.0000000000000000e+00" cType="1" res="5.2793677896261215e-03" rms="2.1218085289001465e-01" purity="3.3262428641319275e-01" nType="-99"/>
          <Node pos="r" depth="2" NCoef="0" IVar="-1" Cut="0.0000000000000000e+00" cType="1" res="4.8700004816055298e-02" rms="2.6177772879600525e-01" purity="3.2686588168144226e-01" nType="-99"/>
        </Node>
        <Node pos="r" depth="1" NCoef="0" IVar="7" Cut="-1.4536701440811157e+00" cType="1" res="1.0671152267605066e-04" rms="1.8296794593334198e-01" purity="5.1631796360015869e-01" nType="0">
          <Node pos="l" depth="2" NCoef="0" IVar="-1" Cut="0.0000000000000000e+00" cType="1" res="4.9774553626775742e-02" rms="2.0497633516788483e-01" purity="1.1407191306352615e-01" nType="-99"/>
          <Node pos="r" depth="2" NCoef="0" IVar="10" Cut="1.4666428565979004e+00" cType="1" res="-5.6140782544389367e-04" rms="1.8189829587936401e-01" purity="5.3421109914779663e-01" nType="0">
            <Node pos="l" depth="3" NCoef="0" IVar="-1" Cut="0.0000000000000000e+00" cType="1" res="-5.2984114736318588e-03" rms="1.7663517594337463e-01" purity="5.4244297742843628e-01" nType="-99"/>
            <Node pos="r" depth="3" NCoef="0" IVar="-1" Cut="0.0000000000000000e+00" cType="1" res="1.7322294414043427e-02" rms="2.1668498218059540e-01" purity="4.7334095835685730e-01" nType="-99"/>
          </Node>
        </Node>
      </Node>
    </BinaryTree>
    <BinaryTree type="DecisionTree" boostWeight="1.0000000000000000e+00" itree="486">
      <Node pos="s" depth="0" NCoef="0" IVar="8" Cut="1.7333439588546753e+00" cType="1" res="-2.3957863450050354e-03" rms="1.8366065621376038e-01" purity="4.9403417110443115e-01" nType="0">
        <Node pos="l" depth="1" NCoef="0" IVar="10" Cut="1.7333129644393921e+00" cType="1" res="-1.6453904099762440e-03" rms="1.8350744247436523e-01" purity="5.0947016477584839e-01" nType="0">
          <Node pos="l" depth="2" NCoef="0" IVar="10" Cut="-2.1523506641387939e+00" cType="1" res="-9.2355604283511639e-04" rms="1.8031229078769684e-01" purity="5.1903873682022095e-01" nType="0">
            <Node pos="l" depth="3" NCoef="0" IVar="-1" Cut="0.0000000000000000e+00" cType="1" res="-4.1502024978399277e-02" rms="2.1151176095008850e-01" purity="3.2656478881835938e-01" nType="-99"/>
            <Node pos="r" depth="3" NCoef="0" IVar="-1" Cut="0.0000000000000000e+00" cType="1" res="-4.4850507401861250e-04" rms="1.7899446189403534e-01" purity="5.2623057365417480e-01" nType="-99"/>
          </Node>
          <Node pos="r" depth="2" NCoef="0" IVar="0" Cut="7.4112640380859375e+02" cType="1" res="-1.0217544622719288e-02" rms="2.1771568059921265e-01" purity="3.9583852887153625e-01" nType="0">
            <Node pos="l" depth="3" NCoef="0" IVar="-1" Cut="0.0000000000000000e+00" cType="1" res="-4.2032320052385330e-02" rms="2.1636277437210083e-01" purity="1.4558431506156921e-01" nType="-99"/>
            <Node pos="r" depth="3" NCoef="0" IVar="-1" Cut="0.0000000000000000e+00" cType="1" res="1.9640048965811729e-02" rms="2.1867346763610840e-01" purity="8.3882951736450195e-01" nType="-99"/>
          </Node>
        </Node>
        <Node pos="r" depth="1" NCoef="0" IVar="-1" Cut="0.0000000000000000e+00" cType="1" res="-5.1565565168857574e-02" rms="1.8634453415870667e-01" purity="1.3375766575336456e-01" nType="-99"/>
      </Node>
    </BinaryTree>
    <BinaryTree type="DecisionTree" boostWeight="1.0000000000000000e+00" itree="487">
      <Node pos="s" depth="0" NCoef="0" IVar="3" Cut="3.5056497192382812e+02" cType="1" res="9.6574047347530723e-04" rms="1.8523810803890228e-01" purity="5.0197470188140869e-01" nType="0">
        <Node pos="l" depth="1" NCoef="0" IVar="-1" Cut="0.0000000000000000e+00" cType="1" res="-6.4288996160030365e-02" rms="1.1638481914997101e-01" purity="1.8548542633652687e-02" nType="-99"/>
        <Node pos="r" depth="1" NCoef="0" IVar="5" Cut="2.5313899230957031e+02" cType="1" res="1.8231425201520324e-03" rms="1.8812911212444305e-01" purity="5.2744275331497192e-01" nType="0">
          <Node pos="l" depth="2" NCoef="0" IVar="1" Cut="1.6755999755859375e+03" cType="1" res="4.3743425048887730e-03" rms="2.0141850411891937e-01" purity="1.9676755368709564e-01" nType="0">
            <Node pos="l" depth="3" NCoef="0" IVar="-1" Cut="0.0000000000000000e+00" cType="1" res="-7.5179082341492176e-03" rms="7.9884313046932220e-02" purity="7.7741569839417934e-03" nType="-99"/>
            <Node pos="r" depth="3" NCoef="0" IVar="-1" Cut="0.0000000000000000e+00" cType="1" res="1.2581775896251202e-02" rms="2.7902469038963318e-01" purity="4.0319490432739258e-01" nType="-99"/>
          </Node>
          <Node pos="r" depth="2" NCoef="0" IVar="10" Cut="-1.1995065212249756e+00" cType="1" res="-9.9040474742650986e-04" rms="1.7224480211734772e-01" purity="8.9212232828140259e-01" nType="0">
            <Node pos="l" depth="3" NCoef="0" IVar="-1" Cut="0.0000000000000000e+00" cType="1" res="-2.9437739402055740e-02" rms="1.9214636087417603e-01" purity="8.5036402940750122e-01" nType="-99"/>
            <Node pos="r" depth="3" NCoef="0" IVar="-1" Cut="0.0000000000000000e+00" cType="1" res="2.6802432257682085e-03" rms="1.6883441805839539e-01" purity="8.9868903160095215e-01" nType="-99"/>
          </Node>
        </Node>
      </Node>
    </BinaryTree>
    <BinaryTree type="DecisionTree" boostWeight="1.0000000000000000e+00" itree="488">
      <Node pos="s" depth="0" NCoef="0" IVar="10" Cut="-1.7333043813705444e+00" cType="1" res="1.1422641109675169e-03" rms="1.8752011656761169e-01" purity="4.9773669242858887e-01" nType="0">
        <Node pos="l" depth="1" NCoef="0" IVar="1" Cut="1.6740903320312500e+03" cType="1" res="1.2050401419401169e-02" rms="2.3615977168083191e-01" purity="4.2103803157806396e-01" nType="0">
          <Node pos="l" depth="2" NCoef="0" IVar="-1" Cut="0.0000000000000000e+00" cType="1" res="-2.3968445137143135e-02" rms="9.7868241369724274e-02" purity="1.0148849338293076e-02" nType="-99"/>
          <Node pos="r" depth="2" NCoef="0" IVar="-1" Cut="0.0000000000000000e+00" cType="1" res="2.9093073680996895e-02" rms="2.8736135363578796e-01" purity="6.6133034229278564e-01" nType="-99"/>
        </Node>
        <Node pos="r" depth="1" NCoef="0" IVar="9" Cut="-1.3308197259902954e-01" cType="1" res="1.8651354184839875e-04" rms="1.8261119723320007e-01" purity="5.0445693731307983e-01" nType="0">
          <Node pos="l" depth="2" NCoef="0" IVar="0" Cut="5.9411322021484375e+02" cType="1" res="-2.8980015777051449e-03" rms="1.8130297958850861e-01" purity="4.9203768372535706e-01" nType="0">
            <Node pos="l" depth="3" NCoef="0" IVar="-1" Cut="0.0000000000000000e+00" cType="1" res="-2.1516947075724602e-02" rms="1.7428122460842133e-01" purity="7.9168684780597687e-02" nType="-99"/>
            <Node pos="r" depth="3" NCoef="0" IVar="-1" Cut="0.0000000000000000e+00" cType="1" res="7.0108904037624598e-04" rms="1.8576650321483612e-01" purity="7.6703023910522461e-01" nType="-99"/>
          </Node>
          <Node pos="r" depth="2" NCoef="0" IVar="2" Cut="5.9017840772867203e-02" cType="1" res="2.7510165236890316e-03" rms="1.8365234136581421e-01" purity="5.1478236913681030e-01" nType="0">
            <Node pos="l" depth="3" NCoef="0" IVar="-1" Cut="0.0000000000000000e+00" cType="1" res="1.0647273156791925e-03" rms="1.8945550918579102e-01" purity="3.8064011931419373e-01" nType="-99"/>
            <Node pos="r" depth="3" NCoef="0" IVar="-1" Cut="0.0000000000000000e+00" cType="1" res="2.4687865749001503e-02" rms="1.7206849157810211e-01" purity="7.6818192005157471e-01" nType="-99"/>
          </Node>
        </Node>
      </Node>
    </BinaryTree>
    <BinaryTree type="DecisionTree" boostWeight="1.0000000000000000e+00" itree="489">
      <Node pos="s" depth="0" NCoef="0" IVar="10" Cut="2.2666020393371582e+00" cType="1" res="8.8304886594414711e-04" rms="1.8886576592922211e-01" purity="4.9782410264015198e-01" nType="0">
        <Node pos="l" depth="1" NCoef="0" IVar="7" Cut="-3.1521707773208618e-01" cType="1" res="1.5608725370839238e-03" rms="1.8768624961376190e-01" purity="5.0196290016174316e-01" nType="0">
          <Node pos="l" depth="2" NCoef="0" IVar="1" Cut="2.9976376953125000e+03" cType="1" res="7.3859062977135181e-03" rms="1.9805839657783508e-01" purity="4.5221459865570068e-01" nType="0">
            <Node pos="l" depth="3" NCoef="0" IVar="-1" Cut="0.0000000000000000e+00" cType="1" res="2.3170834407210350e-02" rms="2.2327333688735962e-01" purity="2.4486039578914642e-01" nType="-99"/>
            <Node pos="r" depth="3" NCoef="0" IVar="-1" Cut="0.0000000000000000e+00" cType="1" res="-1.5272807329893112e-02" rms="1.0846988111734390e-01" purity="9.8601949214935303e-01" nType="-99"/>
          </Node>
          <Node pos="r" depth="2" NCoef="0" IVar="9" Cut="-1.4668695926666260e+00" cType="1" res="-1.5083902981132269e-03" rms="1.8190841376781464e-01" purity="5.2817577123641968e-01" nType="0">
            <Node pos="l" depth="3" NCoef="0" IVar="-1" Cut="0.0000000000000000e+00" cType="1" res="-2.0631074905395508e-02" rms="2.1047043800354004e-01" purity="3.5908636450767517e-01" nType="-99"/>
            <Node pos="r" depth="3" NCoef="0" IVar="-1" Cut="0.0000000000000000e+00" cType="1" res="-2.2110822610557079e-03" rms="1.7888459563255310e-01" purity="5.4453313350677490e-01" nType="-99"/>
          </Node>
        </Node>
        <Node pos="r" depth="1" NCoef="0" IVar="-1" Cut="0.0000000000000000e+00" cType="1" res="-4.5734945684671402e-02" rms="2.2742386162281036e-01" purity="3.4202066063880920e-01" nType="-99"/>
      </Node>
    </BinaryTree>
    <BinaryTree type="DecisionTree" boostWeight="1.0000000000000000e+00" itree="490">
      <Node pos="s" depth="0" NCoef="0" IVar="3" Cut="3.5062823486328125e+02" cType="1" res="4.0675411582924426e-04" rms="1.8635417520999908e-01" purity="4.9896103143692017e-01" nType="0">
        <Node pos="l" depth="1" NCoef="0" IVar="-1" Cut="0.0000000000000000e+00" cType="1" res="-4.3201528489589691e-02" rms="1.2959463894367218e-01" purity="2.2024381905794144e-02" nType="-99"/>
        <Node pos="r" depth="1" NCoef="0" IVar="8" Cut="1.4666606187820435e+00" cType="1" res="9.6799229504540563e-04" rms="1.8887287378311157e-01" purity="5.2426218986511230e-01" nType="0">
          <Node pos="l" depth="2" NCoef="0" IVar="8" Cut="1.2634593248367310e+00" cType="1" res="1.5721854288130999e-03" rms="1.8660967051982880e-01" purity="5.4520392417907715e-01" nType="0">
            <Node pos="l" depth="3" NCoef="0" IVar="-1" Cut="0.0000000000000000e+00" cType="1" res="3.2644858583807945e-03" rms="1.8513026833534241e-01" purity="5.4951637983322144e-01" nType="-99"/>
            <Node pos="r" depth="3" NCoef="0" IVar="-1" Cut="0.0000000000000000e+00" cType="1" res="2.9113275930285454e-02" rms="2.2689566016197205e-01" purity="4.1325974464416504e-01" nType="-99"/>
          </Node>
          <Node pos="r" depth="2" NCoef="0" IVar="7" Cut="-1.3758307322859764e-02" cType="1" res="-7.3352931067347527e-03" rms="2.1743385493755341e-01" purity="2.3646531999111176e-01" nType="0">
            <Node pos="l" depth="3" NCoef="0" IVar="-1" Cut="0.0000000000000000e+00" cType="1" res="-5.6171370670199394e-03" rms="2.1487587690353394e-01" purity="2.1394863724708557e-01" nType="-99"/>
            <Node pos="r" depth="3" NCoef="0" IVar="-1" Cut="0.0000000000000000e+00" cType="1" res="-2.4389076977968216e-02" rms="2.2016739845275879e-01" purity="2.6188600063323975e-01" nType="-99"/>
          </Node>
        </Node>
      </Node>
    </BinaryTree>
    <BinaryTree type="DecisionTree" boostWeight="1.0000000000000000e+00" itree="491">
      <Node pos="s" depth="0" NCoef="0" IVar="3" Cut="3.4023754882812500e+02" cType="1" res="5.9945578686892986e-04" rms="1.8811075389385223e-01" purity="5.0083708763122559e-01" nType="0">
        <Node pos="l" depth="1" NCoef="0" IVar="-1" Cut="0.0000000000000000e+00" cType="1" res="1.0281278192996979e-01" rms="2.0581395924091339e-01" purity="6.6478252410888672e-02" nType="-99"/>
        <Node pos="r" depth="1" NCoef="0" IVar="10" Cut="-1.3336926698684692e-01" cType="1" res="-5.0468783592805266e-04" rms="1.8721461296081543e-01" purity="5.1998841762542725e-01" nType="0">
          <Node pos="l" depth="2" NCoef="0" IVar="8" Cut="1.4664715528488159e+00" cType="1" res="-4.7917501069605350e-03" rms="1.8292334675788879e-01" purity="5.0526279211044312e-01" nType="0">
            <Node pos="l" depth="3" NCoef="0" IVar="-1" Cut="0.0000000000000000e+00" cType="1" res="-1.0584385134279728e-02" rms="1.8037354946136475e-01" purity="5.2363681793212891e-01" nType="-99"/>
            <Node pos="r" depth="3" NCoef="0" IVar="-1" Cut="0.0000000000000000e+00" cType="1" res="-4.6072032302618027e-02" rms="2.1686600148677826e-01" purity="2.3028901219367981e-01" nType="-99"/>
          </Node>
          <Node pos="r" depth="2" NCoef="0" IVar="0" Cut="7.0335034179687500e+02" cType="1" res="3.0802118126302958e-03" rms="1.9065491855144501e-01" purity="5.3230208158493042e-01" nType="0">
            <Node pos="l" depth="3" NCoef="0" IVar="-1" Cut="0.0000000000000000e+00" cType="1" res="2.2620582953095436e-02" rms="2.1023833751678467e-01" purity="1.9112135469913483e-01" nType="-99"/>
            <Node pos="r" depth="3" NCoef="0" IVar="-1" Cut="0.0000000000000000e+00" cType="1" res="-1.1602799408137798e-02" rms="1.6917967796325684e-01" purity="8.6444520950317383e-01" nType="-99"/>
          </Node>
        </Node>
      </Node>
    </BinaryTree>
    <BinaryTree type="DecisionTree" boostWeight="1.0000000000000000e+00" itree="492">
      <Node pos="s" depth="0" NCoef="0" IVar="8" Cut="-1.7332128286361694e+00" cType="1" res="3.6048286710865796e-04" rms="1.8482972681522369e-01" purity="5.0065755844116211e-01" nType="0">
        <Node pos="l" depth="1" NCoef="0" IVar="-1" Cut="0.0000000000000000e+00" cType="1" res="4.2416930198669434e-02" rms="2.2668796777725220e-01" purity="1.9627626240253448e-01" nType="-99"/>
        <Node pos="r" depth="1" NCoef="0" IVar="9" Cut="1.9998749494552612e+00" cType="1" res="-4.6644278336316347e-04" rms="1.8277533352375031e-01" purity="5.1370847225189209e-01" nType="0">
          <Node pos="l" depth="2" NCoef="0" IVar="9" Cut="8.5706335306167603e-01" cType="1" res="-1.0865851072594523e-03" rms="1.8048012256622314e-01" purity="5.2208125591278076e-01" nType="0">
            <Node pos="l" depth="3" NCoef="0" IVar="-1" Cut="0.0000000000000000e+00" cType="1" res="1.4197676209732890e-03" rms="1.7740455269813538e-01" purity="5.3219455480575562e-01" nType="-99"/>
            <Node pos="r" depth="3" NCoef="0" IVar="-1" Cut="0.0000000000000000e+00" cType="1" res="-1.9942684099078178e-02" rms="1.9245649874210358e-01" purity="4.8057526350021362e-01" nType="-99"/>
          </Node>
          <Node pos="r" depth="2" NCoef="0" IVar="-1" Cut="0.0000000000000000e+00" cType="1" res="2.9713990166783333e-02" rms="2.3813559114933014e-01" purity="2.7649438381195068e-01" nType="-99"/>
        </Node>
      </Node>
    </BinaryTree>
    <BinaryTree type="DecisionTree" boostWeight="1.0000000000000000e+00" itree="493">
      <Node pos="s" depth="0" NCoef="0" IVar="7" Cut="1.8545807898044586e-01" cType="1" res="-1.7825033864937723e-04" rms="1.8488761782646179e-01" purity="4.9764701724052429e-01" nType="0">
        <Node pos="l" depth="1" NCoef="0" IVar="7" Cut="-1.4557926654815674e+00" cType="1" res="1.5772515907883644e-03" rms="1.8215169012546539e-01" purity="5.2280199527740479e-01" nType="0">
          <Node pos="l" depth="2" NCoef="0" IVar="-1" Cut="0.0000000000000000e+00" cType="1" res="-4.4647552073001862e-02" rms="1.4726541936397552e-01" purity="8.0376259982585907e-02" nType="-99"/>
          <Node pos="r" depth="2" NCoef="0" IVar="0" Cut="4.3268130493164062e+02" cType="1" res="2.6957141235470772e-03" rms="1.8454712629318237e-01" purity="5.5728495121002197e-01" nType="0">
            <Node pos="l" depth="3" NCoef="0" IVar="-1" Cut="0.0000000000000000e+00" cType="1" res="4.1516758501529694e-02" rms="1.6259124875068665e-01" purity="3.6138419061899185e-02" nType="-99"/>
            <Node pos="r" depth="3" NCoef="0" IVar="-1" Cut="0.0000000000000000e+00" cType="1" res="3.7614856846630573e-03" rms="1.8877604603767395e-01" purity="6.6589635610580444e-01" nType="-99"/>
          </Node>
        </Node>
        <Node pos="r" depth="1" NCoef="0" IVar="9" Cut="-6.6708767414093018e-01" cType="1" res="-2.7332822792232037e-03" rms="1.8876959383487701e-01" purity="4.6103537082672119e-01" nType="0">
          <Node pos="l" depth="2" NCoef="0" IVar="8" Cut="4.0010446310043335e-01" cType="1" res="-8.4186876192688942e-03" rms="1.9338555634021759e-01" purity="4.4555723667144775e-01" nType="0">
            <Node pos="l" depth="3" NCoef="0" IVar="-1" Cut="0.0000000000000000e+00" cType="1" res="-1.0518259368836880e-02" rms="1.9135268032550812e-01" purity="4.5304769277572632e-01" nType="-99"/>
            <Node pos="r" depth="3" NCoef="0" IVar="-1" Cut="0.0000000000000000e+00" cType="1" res="-3.6205071955919266e-02" rms="1.9728696346282959e-01" purity="4.2979061603546143e-01" nType="-99"/>
          </Node>
          <Node pos="r" depth="2" NCoef="0" IVar="10" Cut="-9.3326324224472046e-01" cType="1" res="-7.1076035965234041e-04" rms="1.8705840408802032e-01" purity="4.6654155850410461e-01" nType="0">
            <Node pos="l" depth="3" NCoef="0" IVar="-1" Cut="0.0000000000000000e+00" cType="1" res="-2.2439813241362572e-02" rms="1.9392240047454834e-01" purity="4.6481963992118835e-01" nType="-99"/>
            <Node pos="r" depth="3" NCoef="0" IVar="-1" Cut="0.0000000000000000e+00" cType="1" res="4.1561089456081390e-03" rms="1.8526890873908997e-01" purity="4.6696525812149048e-01" nType="-99"/>
          </Node>
        </Node>
      </Node>
    </BinaryTree>
    <BinaryTree type="DecisionTree" boostWeight="1.0000000000000000e+00" itree="494">
      <Node pos="s" depth="0" NCoef="0" IVar="8" Cut="1.7332966327667236e+00" cType="1" res="-1.0103129316121340e-03" rms="1.8318599462509155e-01" purity="4.9957337975502014e-01" nType="0">
        <Node pos="l" depth="1" NCoef="0" IVar="10" Cut="-1.4666512012481689e+00" cType="1" res="-1.4844695106148720e-03" rms="1.8139819800853729e-01" purity="5.1491242647171021e-01" nType="0">
          <Node pos="l" depth="2" NCoef="0" IVar="3" Cut="7.4376678466796875e+02" cType="1" res="4.9728858284652233e-03" rms="2.1302746236324310e-01" purity="4.5170432329177856e-01" nType="0">
            <Node pos="l" depth="3" NCoef="0" IVar="-1" Cut="0.0000000000000000e+00" cType="1" res="2.2745873779058456e-02" rms="2.2123970091342926e-01" purity="2.6436388492584229e-01" nType="-99"/>
            <Node pos="r" depth="3" NCoef="0" IVar="-1" Cut="0.0000000000000000e+00" cType="1" res="-1.5882207080721855e-02" rms="1.9645550847053528e-01" purity="7.9767358303070068e-01" nType="-99"/>
          </Node>
          <Node pos="r" depth="2" NCoef="0" IVar="7" Cut="1.4927831888198853e+00" cType="1" res="-2.3782954085618258e-03" rms="1.7655564844608307e-01" purity="5.2366161346435547e-01" nType="0">
            <Node pos="l" depth="3" NCoef="0" IVar="-1" Cut="0.0000000000000000e+00" cType="1" res="-9.1001531109213829e-03" rms="1.7502084374427795e-01" purity="5.4095613956451416e-01" nType="-99"/>
            <Node pos="r" depth="3" NCoef="0" IVar="-1" Cut="0.0000000000000000e+00" cType="1" res="4.1695211082696915e-02" rms="2.0873898267745972e-01" purity="1.1803593486547470e-01" nType="-99"/>
          </Node>
        </Node>
        <Node pos="r" depth="1" NCoef="0" IVar="-1" Cut="0.0000000000000000e+00" cType="1" res="2.4446463212370872e-02" rms="2.1891251206398010e-01" purity="1.5877479314804077e-01" nType="-99"/>
      </Node>
    </BinaryTree>
    <BinaryTree type="DecisionTree" boostWeight="1.0000000000000000e+00" itree="495">
      <Node pos="s" depth="0" NCoef="0" IVar="10" Cut="1.7332801818847656e+00" cType="1" res="-6.0544471489265561e-04" rms="1.8333217501640320e-01" purity="4.9862229824066162e-01" nType="0">
        <Node pos="l" depth="1" NCoef="0" IVar="9" Cut="-3.9995628595352173e-01" cType="1" res="3.6192216794006526e-04" rms="1.8066695332527161e-01" purity="5.0844538211822510e-01" nType="0">
          <Node pos="l" depth="2" NCoef="0" IVar="2" Cut="1.0114412754774094e-01" cType="1" res="-2.7914477977901697e-03" rms="1.8342906236648560e-01" purity="4.8030737042427063e-01" nType="0">
            <Node pos="l" depth="3" NCoef="0" IVar="-1" Cut="0.0000000000000000e+00" cType="1" res="-1.8234733724966645e-03" rms="1.9047620892524719e-01" purity="4.0717136859893799e-01" nType="-99"/>
            <Node pos="r" depth="3" NCoef="0" IVar="-1" Cut="0.0000000000000000e+00" cType="1" res="-4.9020323902368546e-02" rms="1.4762111008167267e-01" purity="8.0635750293731689e-01" nType="-99"/>
          </Node>
          <Node pos="r" depth="2" NCoef="0" IVar="5" Cut="1.5561840820312500e+02" cType="1" res="2.1785544231534004e-03" rms="1.7903117835521698e-01" purity="5.2465546131134033e-01" nType="0">
            <Node pos="l" depth="3" NCoef="0" IVar="-1" Cut="0.0000000000000000e+00" cType="1" res="-1.9855447113513947e-02" rms="1.3933847844600677e-01" purity="5.6081868708133698e-02" nType="-99"/>
            <Node pos="r" depth="3" NCoef="0" IVar="-1" Cut="0.0000000000000000e+00" cType="1" res="1.1908786371350288e-02" rms="1.9096036255359650e-01" purity="6.8904560804367065e-01" nType="-99"/>
          </Node>
        </Node>
        <Node pos="r" depth="1" NCoef="0" IVar="2" Cut="3.7727814167737961e-02" cType="1" res="-1.1657461524009705e-02" rms="2.1109603345394135e-01" purity="3.8639539480209351e-01" nType="0">
          <Node pos="l" depth="2" NCoef="0" IVar="-1" Cut="0.0000000000000000e+00" cType="1" res="-4.4838371686637402e-03" rms="2.1894991397857666e-01" purity="2.1079659461975098e-01" nType="-99"/>
          <Node pos="r" depth="2" NCoef="0" IVar="-1" Cut="0.0000000000000000e+00" cType="1" res="-4.9315534532070160e-02" rms="2.0055089890956879e-01" purity="5.9966325759887695e-01" nType="-99"/>
        </Node>
      </Node>
    </BinaryTree>
    <BinaryTree type="DecisionTree" boostWeight="1.0000000000000000e+00" itree="496">
      <Node pos="s" depth="0" NCoef="0" IVar="8" Cut="-3.9992323517799377e-01" cType="1" res="4.9161940114572644e-04" rms="1.8304513394832611e-01" purity="4.9881434440612793e-01" nType="0">
        <Node pos="l" depth="1" NCoef="0" IVar="3" Cut="6.5188366699218750e+02" cType="1" res="-5.0831777043640614e-03" rms="1.8296995759010315e-01" purity="4.4767698645591736e-01" nType="0">
          <Node pos="l" depth="2" NCoef="0" IVar="1" Cut="1.6726872558593750e+03" cType="1" res="-1.0379030369222164e-02" rms="1.8210053443908691e-01" purity="1.7714908719062805e-01" nType="0">
            <Node pos="l" depth="3" NCoef="0" IVar="-1" Cut="0.0000000000000000e+00" cType="1" res="-1.4366434887051582e-02" rms="9.3358807265758514e-02" purity="1.0318147018551826e-02" nType="-99"/>
            <Node pos="r" depth="3" NCoef="0" IVar="-1" Cut="0.0000000000000000e+00" cType="1" res="-3.0317192897200584e-02" rms="2.6963138580322266e-01" purity="4.4927978515625000e-01" nType="-99"/>
          </Node>
          <Node pos="r" depth="2" NCoef="0" IVar="10" Cut="6.6632044315338135e-01" cType="1" res="4.1660285205580294e-04" rms="1.8370696902275085e-01" purity="7.2862213850021362e-01" nType="0">
            <Node pos="l" depth="3" NCoef="0" IVar="-1" Cut="0.0000000000000000e+00" cType="1" res="-9.6439430490136147e-03" rms="1.7463745176792145e-01" purity="7.1672606468200684e-01" nType="-99"/>
            <Node pos="r" depth="3" NCoef="0" IVar="-1" Cut="0.0000000000000000e+00" cType="1" res="2.3989727720618248e-02" rms="2.0437873899936676e-01" purity="7.5839066505432129e-01" nType="-99"/>
          </Node>
        </Node>
        <Node pos="r" depth="1" NCoef="0" IVar="9" Cut="-6.6663068532943726e-01" cType="1" res="3.3729844726622105e-03" rms="1.8301741778850555e-01" purity="5.2524507045745850e-01" nType="0">
          <Node pos="l" depth="2" NCoef="0" IVar="4" Cut="3.3555160522460938e+02" cType="1" res="8.7789762765169144e-03" rms="2.0303529500961304e-01" purity="5.0090837478637695e-01" nType="0">
            <Node pos="l" depth="3" NCoef="0" IVar="-1" Cut="0.0000000000000000e+00" cType="1" res="4.5264229178428650e-02" rms="2.1207609772682190e-01" purity="1.4166149497032166e-01" nType="-99"/>
            <Node pos="r" depth="3" NCoef="0" IVar="-1" Cut="0.0000000000000000e+00" cType="1" res="6.3509684987366199e-03" rms="1.9650648534297943e-01" purity="7.4149101972579956e-01" nType="-99"/>
          </Node>
          <Node pos="r" depth="2" NCoef="0" IVar="1" Cut="1.9373586425781250e+03" cType="1" res="1.4163298765197396e-03" rms="1.7516818642616272e-01" purity="5.3405344486236572e-01" nType="0">
            <Node pos="l" depth="3" NCoef="0" IVar="-1" Cut="0.0000000000000000e+00" cType="1" res="-1.6104353591799736e-02" rms="1.2525123357772827e-01" purity="2.0799368619918823e-02" nType="-99"/>
            <Node pos="r" depth="3" NCoef="0" IVar="-1" Cut="0.0000000000000000e+00" cType="1" res="1.0443346574902534e-02" rms="2.0171983540058136e-01" purity="8.7731629610061646e-01" nType="-99"/>
          </Node>
        </Node>
      </Node>
    </BinaryTree>
    <BinaryTree type="DecisionTree" boostWeight="1.0000000000000000e+00" itree="497">
      <Node pos="s" depth="0" NCoef="0" IVar="10" Cut="1.9999899864196777e+00" cType="1" res="-8.3351787179708481e-04" rms="1.8644447624683380e-01" purity="5.0195562839508057e-01" nType="0">
        <Node pos="l" depth="1" NCoef="0" IVar="10" Cut="1.3141497373580933e+00" cType="1" res="-1.5946484636515379e-03" rms="1.8284203112125397e-01" purity="5.0732463598251343e-01" nType="0">
          <Node pos="l" depth="2" NCoef="0" IVar="9" Cut="-1.9999127388000488e+00" cType="1" res="-7.1831897366791964e-04" rms="1.8116544187068939e-01" purity="5.1188564300537109e-01" nType="0">
            <Node pos="l" depth="3" NCoef="0" IVar="-1" Cut="0.0000000000000000e+00" cType="1" res="-2.8481211513280869e-02" rms="2.0536735653877258e-01" purity="2.2205176949501038e-01" nType="-99"/>
            <Node pos="r" depth="3" NCoef="0" IVar="-1" Cut="0.0000000000000000e+00" cType="1" res="-9.4449787866324186e-04" rms="1.8026390671730042e-01" purity="5.2182918787002563e-01" nType="-99"/>
          </Node>
          <Node pos="r" depth="2" NCoef="0" IVar="1" Cut="1.6598994140625000e+03" cType="1" res="-9.0861562639474869e-03" rms="1.9643253087997437e-01" purity="4.6833309531211853e-01" nType="0">
            <Node pos="l" depth="3" NCoef="0" IVar="-1" Cut="0.0000000000000000e+00" cType="1" res="7.4944704771041870e-02" rms="1.3574193418025970e-01" purity="2.0392328500747681e-02" nType="-99"/>
            <Node pos="r" depth="3" NCoef="0" IVar="-1" Cut="0.0000000000000000e+00" cType="1" res="-3.1406670808792114e-02" rms="2.1934816241264343e-01" purity="6.8488889932632446e-01" nType="-99"/>
          </Node>
        </Node>
        <Node pos="r" depth="1" NCoef="0" IVar="-1" Cut="0.0000000000000000e+00" cType="1" res="2.5253880769014359e-02" rms="2.4436534941196442e-01" purity="4.0036934614181519e-01" nType="-99"/>
      </Node>
    </BinaryTree>
    <BinaryTree type="DecisionTree" boostWeight="1.0000000000000000e+00" itree="498">
      <Node pos="s" depth="0" NCoef="0" IVar="9" Cut="1.1999303102493286e+00" cType="1" res="1.9976738258264959e-04" rms="1.8605175614356995e-01" purity="5.0103133916854858e-01" nType="0">
        <Node pos="l" depth="1" NCoef="0" IVar="10" Cut="-1.1999738216400146e+00" cType="1" res="1.5209976118057966e-03" rms="1.8288265168666840e-01" purity="5.2069061994552612e-01" nType="0">
          <Node pos="l" depth="2" NCoef="0" IVar="7" Cut="-5.7158172130584717e-01" cType="1" res="6.3955718651413918e-03" rms="2.0521064102649689e-01" purity="4.5558279752731323e-01" nType="0">
            <Node pos="l" depth="3" NCoef="0" IVar="-1" Cut="0.0000000000000000e+00" cType="1" res="4.5374669134616852e-02" rms="2.1892793476581573e-01" purity="3.4625852108001709e-01" nType="-99"/>
            <Node pos="r" depth="3" NCoef="0" IVar="-1" Cut="0.0000000000000000e+00" cType="1" res="4.3356111273169518e-03" rms="1.9985426962375641e-01" purity="4.9484467506408691e-01" nType="-99"/>
          </Node>
          <Node pos="r" depth="2" NCoef="0" IVar="9" Cut="1.0094509124755859e+00" cType="1" res="4.9286609282717109e-04" rms="1.7779855430126190e-01" purity="5.3442299365997314e-01" nType="0">
            <Node pos="l" depth="3" NCoef="0" IVar="-1" Cut="0.0000000000000000e+00" cType="1" res="-6.3849746948108077e-04" rms="1.7600783705711365e-01" purity="5.3624814748764038e-01" nType="-99"/>
            <Node pos="r" depth="3" NCoef="0" IVar="-1" Cut="0.0000000000000000e+00" cType="1" res="3.4108944237232208e-02" rms="2.0743297040462494e-01" purity="5.0104218721389771e-01" nType="-99"/>
          </Node>
        </Node>
        <Node pos="r" depth="1" NCoef="0" IVar="1" Cut="1.6392528076171875e+03" cType="1" res="-7.9743741080164909e-03" rms="2.0437988638877869e-01" purity="3.7940391898155212e-01" nType="0">
          <Node pos="l" depth="2" NCoef="0" IVar="1" Cut="1.5025339355468750e+03" cType="1" res="8.6703599663451314e-04" rms="1.1147583276033401e-01" purity="1.3112981803715229e-02" nType="0">
            <Node pos="l" depth="3" NCoef="0" IVar="-1" Cut="0.0000000000000000e+00" cType="1" res="-8.6229786276817322e-02" rms="3.7769917398691177e-02" purity="1.3124509714543819e-03" nType="-99"/>
            <Node pos="r" depth="3" NCoef="0" IVar="-1" Cut="0.0000000000000000e+00" cType="1" res="5.8386325836181641e-02" rms="1.5523059666156769e-01" purity="2.5767046958208084e-02" nType="-99"/>
          </Node>
          <Node pos="r" depth="2" NCoef="0" IVar="1" Cut="2.3228527832031250e+03" cType="1" res="-1.3368774205446243e-02" rms="2.4412728846073151e-01" purity="6.0288864374160767e-01" nType="0">
            <Node pos="l" depth="3" NCoef="0" IVar="-1" Cut="0.0000000000000000e+00" cType="1" res="-2.7494486421346664e-02" rms="2.8876984119415283e-01" purity="1.8226121366024017e-01" nType="-99"/>
            <Node pos="r" depth="3" NCoef="0" IVar="-1" Cut="0.0000000000000000e+00" cType="1" res="-1.1021112091839314e-02" rms="2.0224608480930328e-01" purity="9.3002420663833618e-01" nType="-99"/>
          </Node>
        </Node>
      </Node>
    </BinaryTree>
    <BinaryTree type="DecisionTree" boostWeight="1.0000000000000000e+00" itree="499">
      <Node pos="s" depth="0" NCoef="0" IVar="2" Cut="3.8766711950302124e-02" cType="1" res="1.0546478442847729e-03" rms="1.8660216033458710e-01" purity="4.9822950363159180e-01" nType="0">
        <Node pos="l" depth="1" NCoef="0" IVar="9" Cut="-1.4666333198547363e+00" cType="1" res="-1.2804168509319425e-03" rms="1.9151195883750916e-01" purity="3.0855998396873474e-01" nType="0">
          <Node pos="l" depth="2" NCoef="0" IVar="9" Cut="-1.9110668897628784e+00" cType="1" res="6.6621298901736736e-03" rms="2.2391650080680847e-01" purity="2.1184638142585754e-01" nType="0">
            <Node pos="l" depth="3" NCoef="0" IVar="-1" Cut="0.0000000000000000e+00" cType="1" res="3.4637045115232468e-02" rms="2.5286942720413208e-01" purity="1.7012749612331390e-01" nType="-99"/>
            <Node pos="r" depth="3" NCoef="0" IVar="-1" Cut="0.0000000000000000e+00" cType="1" res="-3.6278329789638519e-03" rms="1.9445289671421051e-01" purity="2.4866203963756561e-01" nType="-99"/>
          </Node>
          <Node pos="r" depth="2" NCoef="0" IVar="0" Cut="1.3292773437500000e+03" cType="1" res="-2.2716559469699860e-03" rms="1.8705061078071594e-01" purity="3.2062992453575134e-01" nType="0">
            <Node pos="l" depth="3" NCoef="0" IVar="-1" Cut="0.0000000000000000e+00" cType="1" res="-8.5897250100970268e-03" rms="1.9023503363132477e-01" purity="2.6085391640663147e-01" nType="-99"/>
            <Node pos="r" depth="3" NCoef="0" IVar="-1" Cut="0.0000000000000000e+00" cType="1" res="4.3054446578025818e-02" rms="1.4715233445167542e-01" purity="9.7683697938919067e-01" nType="-99"/>
          </Node>
        </Node>
        <Node pos="r" depth="1" NCoef="0" IVar="9" Cut="1.4667032957077026e+00" cType="1" res="3.6272723227739334e-03" rms="1.8100388348102570e-01" purity="7.0719528198242188e-01" nType="0">
          <Node pos="l" depth="2" NCoef="0" IVar="5" Cut="2.0879847717285156e+02" cType="1" res="2.4446614552289248e-03" rms="1.7573215067386627e-01" purity="7.1831941604614258e-01" nType="0">
            <Node pos="l" depth="3" NCoef="0" IVar="-1" Cut="0.0000000000000000e+00" cType="1" res="-1.1388767510652542e-02" rms="1.9662909209728241e-01" purity="1.6302716732025146e-01" nType="-99"/>
            <Node pos="r" depth="3" NCoef="0" IVar="-1" Cut="0.0000000000000000e+00" cType="1" res="1.4855110086500645e-02" rms="1.6937032341957092e-01" purity="8.7369251251220703e-01" nType="-99"/>
          </Node>
          <Node pos="r" depth="2" NCoef="0" IVar="-1" Cut="0.0000000000000000e+00" cType="1" res="3.4351445734500885e-02" rms="2.3448574542999268e-01" purity="5.7447725534439087e-01" nType="-99"/>
        </Node>
      </Node>
    </BinaryTree>
    <BinaryTree type="DecisionTree" boostWeight="1.0000000000000000e+00" itree="500">
      <Node pos="s" depth="0" NCoef="0" IVar="1" Cut="2.2413005371093750e+03" cType="1" res="1.6556910704821348e-03" rms="1.8718229234218597e-01" purity="4.9991220235824585e-01" nType="0">
        <Node pos="l" depth="1" NCoef="0" IVar="4" Cut="4.6192681884765625e+02" cType="1" res="4.3972516432404518e-03" rms="1.9509185850620270e-01" purity="6.9777116179466248e-02" nType="0">
          <Node pos="l" depth="2" NCoef="0" IVar="4" Cut="3.0602886962890625e+02" cType="1" res="2.5776468683034182e-03" rms="1.8496376276016235e-01" purity="6.2134899199008942e-02" nType="0">
            <Node pos="l" depth="3" NCoef="0" IVar="-1" Cut="0.0000000000000000e+00" cType="1" res="-6.6864453256130219e-03" rms="1.4085209369659424e-01" purity="3.1569503247737885e-02" nType="-99"/>
            <Node pos="r" depth="3" NCoef="0" IVar="-1" Cut="0.0000000000000000e+00" cType="1" res="1.7235267907381058e-02" rms="2.4274282157421112e-01" purity="1.1485598236322403e-01" nType="-99"/>
          </Node>
          <Node pos="r" depth="2" NCoef="0" IVar="-1" Cut="0.0000000000000000e+00" cType="1" res="4.1046634316444397e-02" rms="3.1277552247047424e-01" purity="1.9017399847507477e-01" nType="-99"/>
        </Node>
        <Node pos="r" depth="1" NCoef="0" IVar="1" Cut="2.4816833496093750e+03" cType="1" res="-1.1498751118779182e-03" rms="1.7868247628211975e-01" purity="9.4008952379226685e-01" nType="0">
          <Node pos="l" depth="2" NCoef="0" IVar="-1" Cut="0.0000000000000000e+00" cType="1" res="-9.2804478481411934e-03" rms="3.6779409646987915e-01" purity="6.5536856651306152e-01" nType="-99"/>
          <Node pos="r" depth="2" NCoef="0" IVar="10" Cut="1.3315564393997192e-01" cType="1" res="1.3565811059379485e-05" rms="1.4805720746517181e-01" purity="9.6761560440063477e-01" nType="0">
            <Node pos="l" depth="3" NCoef="0" IVar="-1" Cut="0.0000000000000000e+00" cType="1" res="9.8809152841567993e-03" rms="1.4381036162376404e-01" purity="9.6939152479171753e-01" nType="-99"/>
            <Node pos="r" depth="3" NCoef="0" IVar="-1" Cut="0.0000000000000000e+00" cType="1" res="-1.2155805714428425e-02" rms="1.5293282270431519e-01" purity="9.6549451351165771e-01" nType="-99"/>
          </Node>
        </Node>
      </Node>
    </BinaryTree>
    <BinaryTree type="DecisionTree" boostWeight="1.0000000000000000e+00" itree="501">
      <Node pos="s" depth="0" NCoef="0" IVar="0" Cut="5.9408428955078125e+02" cType="1" res="2.9951098840683699e-03" rms="1.8995244801044464e-01" purity="5.0381028652191162e-01" nType="0">
        <Node pos="l" depth="1" NCoef="0" IVar="5" Cut="2.4651031494140625e+02" cType="1" res="6.5843383781611919e-03" rms="1.9844280183315277e-01" purity="1.0402911901473999e-01" nType="0">
          <Node pos="l" depth="2" NCoef="0" IVar="6" Cut="1.2433509826660156e+02" cType="1" res="3.0907564796507359e-03" rms="1.5491715073585510e-01" purity="3.6572732031345367e-02" nType="0">
            <Node pos="l" depth="3" NCoef="0" IVar="-1" Cut="0.0000000000000000e+00" cType="1" res="4.5181699097156525e-02" rms="1.3853411376476288e-01" purity="2.6306422427296638e-02" nType="-99"/>
            <Node pos="r" depth="3" NCoef="0" IVar="-1" Cut="0.0000000000000000e+00" cType="1" res="-1.7369667068123817e-02" rms="1.9329597055912018e-01" purity="6.5437100827693939e-02" nType="-99"/>
          </Node>
          <Node pos="r" depth="2" NCoef="0" IVar="0" Cut="4.2602163696289062e+02" cType="1" res="2.1635988727211952e-02" rms="3.2459840178489685e-01" purity="3.9465633034706116e-01" nType="0">
            <Node pos="l" depth="3" NCoef="0" IVar="-1" Cut="0.0000000000000000e+00" cType="1" res="6.0196168720722198e-02" rms="2.7878960967063904e-01" purity="1.2865942716598511e-01" nType="-99"/>
            <Node pos="r" depth="3" NCoef="0" IVar="-1" Cut="0.0000000000000000e+00" cType="1" res="9.3410545960068703e-03" rms="3.5000219941139221e-01" purity="5.6208920478820801e-01" nType="-99"/>
          </Node>
        </Node>
        <Node pos="r" depth="1" NCoef="0" IVar="7" Cut="-5.7219994068145752e-01" cType="1" res="6.1123329214751720e-04" rms="1.8405842781066895e-01" purity="7.6933503150939941e-01" nType="0">
          <Node pos="l" depth="2" NCoef="0" IVar="5" Cut="2.3980236816406250e+02" cType="1" res="7.4820602312684059e-03" rms="2.0473116636276245e-01" purity="6.7364627122879028e-01" nType="0">
            <Node pos="l" depth="3" NCoef="0" IVar="-1" Cut="0.0000000000000000e+00" cType="1" res="3.1817603856325150e-02" rms="2.5683495402336121e-01" purity="2.6442769169807434e-01" nType="-99"/>
            <Node pos="r" depth="3" NCoef="0" IVar="-1" Cut="0.0000000000000000e+00" cType="1" res="2.0651803351938725e-03" rms="1.5914884209632874e-01" purity="9.5388245582580566e-01" nType="-99"/>
          </Node>
          <Node pos="r" depth="2" NCoef="0" IVar="8" Cut="-6.6621303558349609e-01" cType="1" res="-1.1975313536822796e-03" rms="1.7817392945289612e-01" purity="7.9452538490295410e-01" nType="0">
            <Node pos="l" depth="3" NCoef="0" IVar="-1" Cut="0.0000000000000000e+00" cType="1" res="9.5161786302924156e-03" rms="2.0244279503822327e-01" purity="7.4836653470993042e-01" nType="-99"/>
            <Node pos="r" depth="3" NCoef="0" IVar="-1" Cut="0.0000000000000000e+00" cType="1" res="-9.0683689340949059e-03" rms="1.7028585076332092e-01" purity="8.0821102857589722e-01" nType="-99"/>
          </Node>
        </Node>
      </Node>
    </BinaryTree>
    <BinaryTree type="DecisionTree" boostWeight="1.0000000000000000e+00" itree="502">
      <Node pos="s" depth="0" NCoef="0" IVar="10" Cut="2.2666115760803223e+00" cType="1" res="-9.8012108355760574e-04" rms="1.8644918501377106e-01" purity="5.0212419033050537e-01" nType="0">
        <Node pos="l" depth="1" NCoef="0" IVar="9" Cut="-1.4666345119476318e+00" cType="1" res="-1.5707520069554448e-03" rms="1.8415923416614532e-01" purity="5.0489521026611328e-01" nType="0">
          <Node pos="l" depth="2" NCoef="0" IVar="1" Cut="2.3936708984375000e+03" cType="1" res="8.1160506233572960e-03" rms="2.2009058296680450e-01" purity="3.4819445013999939e-01" nType="0">
            <Node pos="l" depth="3" NCoef="0" IVar="-1" Cut="0.0000000000000000e+00" cType="1" res="2.9462520033121109e-02" rms="2.2520738840103149e-01" purity="1.1916764080524445e-01" nType="-99"/>
            <Node pos="r" depth="3" NCoef="0" IVar="-1" Cut="0.0000000000000000e+00" cType="1" res="-2.0350856706500053e-02" rms="2.0555721223354340e-01" purity="9.3335652351379395e-01" nType="-99"/>
          </Node>
          <Node pos="r" depth="2" NCoef="0" IVar="7" Cut="1.4701749086380005e+00" cType="1" res="-2.5978183839470148e-03" rms="1.7989870905876160e-01" purity="5.2150976657867432e-01" nType="0">
            <Node pos="l" depth="3" NCoef="0" IVar="-1" Cut="0.0000000000000000e+00" cType="1" res="-9.6682338044047356e-03" rms="1.7812699079513550e-01" purity="5.3824234008789062e-01" nType="-99"/>
            <Node pos="r" depth="3" NCoef="0" IVar="-1" Cut="0.0000000000000000e+00" cType="1" res="3.5294756293296814e-02" rms="2.1610163152217865e-01" purity="1.3719004392623901e-01" nType="-99"/>
          </Node>
        </Node>
        <Node pos="r" depth="1" NCoef="0" IVar="-1" Cut="0.0000000000000000e+00" cType="1" res="3.2857697457075119e-02" rms="2.5068327784538269e-01" purity="4.0912348031997681e-01" nType="-99"/>
      </Node>
    </BinaryTree>
    <BinaryTree type="DecisionTree" boostWeight="1.0000000000000000e+00" itree="503">
      <Node pos="s" depth="0" NCoef="0" IVar="7" Cut="1.4850434064865112e+00" cType="1" res="-1.3317222474142909e-03" rms="1.8495847284793854e-01" purity="4.9693736433982849e-01" nType="0">
        <Node pos="l" depth="1" NCoef="0" IVar="5" Cut="2.1272801208496094e+02" cType="1" res="-7.3850370245054364e-04" rms="1.8550808727741241e-01" purity="5.1424002647399902e-01" nType="0">
          <Node pos="l" depth="2" NCoef="0" IVar="10" Cut="-9.3338125944137573e-01" cType="1" res="-3.5192857030779123e-03" rms="1.7941990494728088e-01" purity="1.2437917292118073e-01" nType="0">
            <Node pos="l" depth="3" NCoef="0" IVar="-1" Cut="0.0000000000000000e+00" cType="1" res="-2.6611411944031715e-02" rms="1.7803929746150970e-01" purity="1.3051128387451172e-01" nType="-99"/>
            <Node pos="r" depth="3" NCoef="0" IVar="-1" Cut="0.0000000000000000e+00" cType="1" res="-3.7731484044343233e-03" rms="1.7982925474643707e-01" purity="1.2230789661407471e-01" nType="-99"/>
          </Node>
          <Node pos="r" depth="2" NCoef="0" IVar="1" Cut="1.9959771728515625e+03" cType="1" res="1.4244681224226952e-03" rms="1.9008077681064606e-01" purity="8.1748497486114502e-01" nType="0">
            <Node pos="l" depth="3" NCoef="0" IVar="-1" Cut="0.0000000000000000e+00" cType="1" res="1.9076904281973839e-02" rms="2.6360175013542175e-01" purity="1.0751733183860779e-01" nType="-99"/>
            <Node pos="r" depth="3" NCoef="0" IVar="-1" Cut="0.0000000000000000e+00" cType="1" res="-1.8193183932453394e-03" rms="1.7344656586647034e-01" purity="9.4564908742904663e-01" nType="-99"/>
          </Node>
        </Node>
        <Node pos="r" depth="1" NCoef="0" IVar="-1" Cut="0.0000000000000000e+00" cType="1" res="-4.1997186839580536e-02" rms="1.7126236855983734e-01" purity="9.8861739039421082e-02" nType="-99"/>
      </Node>
    </BinaryTree>
    <BinaryTree type="DecisionTree" boostWeight="1.0000000000000000e+00" itree="504">
      <Node pos="s" depth="0" NCoef="0" IVar="10" Cut="-3.9993318915367126e-01" cType="1" res="-8.8940352725330740e-05" rms="1.8559783697128296e-01" purity="5.0584238767623901e-01" nType="0">
        <Node pos="l" depth="1" NCoef="0" IVar="2" Cut="1.9459811970591545e-02" cType="1" res="4.0252734906971455e-03" rms="1.9322562217712402e-01" purity="4.9229532480239868e-01" nType="0">
          <Node pos="l" depth="2" NCoef="0" IVar="10" Cut="-1.5427284240722656e+00" cType="1" res="-2.2798974532634020e-03" rms="1.8417020142078400e-01" purity="2.2249339520931244e-01" nType="0">
            <Node pos="l" depth="3" NCoef="0" IVar="-1" Cut="0.0000000000000000e+00" cType="1" res="1.5584603883326054e-02" rms="2.1551512181758881e-01" purity="1.9046384096145630e-01" nType="-99"/>
            <Node pos="r" depth="3" NCoef="0" IVar="-1" Cut="0.0000000000000000e+00" cType="1" res="-1.9183672964572906e-02" rms="1.6957429051399231e-01" purity="2.3556171357631683e-01" nType="-99"/>
          </Node>
          <Node pos="r" depth="2" NCoef="0" IVar="4" Cut="4.2224520874023438e+02" cType="1" res="7.3133637197315693e-03" rms="1.9770377874374390e-01" purity="6.3299453258514404e-01" nType="0">
            <Node pos="l" depth="3" NCoef="0" IVar="-1" Cut="0.0000000000000000e+00" cType="1" res="3.2677412033081055e-02" rms="2.4287624657154083e-01" purity="2.7387332916259766e-01" nType="-99"/>
            <Node pos="r" depth="3" NCoef="0" IVar="-1" Cut="0.0000000000000000e+00" cType="1" res="-5.1455842331051826e-03" rms="1.5041533112525940e-01" purity="9.2707997560501099e-01" nType="-99"/>
          </Node>
        </Node>
        <Node pos="r" depth="1" NCoef="0" IVar="10" Cut="1.5809621810913086e+00" cType="1" res="-2.5981164071708918e-03" rms="1.8074190616607666e-01" purity="5.1410442590713501e-01" nType="0">
          <Node pos="l" depth="2" NCoef="0" IVar="1" Cut="2.2938591308593750e+03" cType="1" res="-4.1587804444134235e-03" rms="1.6925203800201416e-01" purity="5.3244215250015259e-01" nType="0">
            <Node pos="l" depth="3" NCoef="0" IVar="-1" Cut="0.0000000000000000e+00" cType="1" res="-2.4977291002869606e-02" rms="1.7289189994335175e-01" purity="5.4394055157899857e-02" nType="-99"/>
            <Node pos="r" depth="3" NCoef="0" IVar="-1" Cut="0.0000000000000000e+00" cType="1" res="1.1034113413188607e-04" rms="1.6587011516094208e-01" purity="9.5310312509536743e-01" nType="-99"/>
          </Node>
          <Node pos="r" depth="2" NCoef="0" IVar="10" Cut="1.9873058795928955e+00" cType="1" res="5.3167520090937614e-03" rms="2.3018901050090790e-01" purity="4.2110544443130493e-01" nType="0">
            <Node pos="l" depth="3" NCoef="0" IVar="-1" Cut="0.0000000000000000e+00" cType="1" res="3.6947570741176605e-02" rms="2.3372945189476013e-01" purity="4.8754894733428955e-01" nType="-99"/>
            <Node pos="r" depth="3" NCoef="0" IVar="-1" Cut="0.0000000000000000e+00" cType="1" res="-1.6323080286383629e-02" rms="2.2564205527305603e-01" purity="3.5197874903678894e-01" nType="-99"/>
          </Node>
        </Node>
      </Node>
    </BinaryTree>
    <BinaryTree type="DecisionTree" boostWeight="1.0000000000000000e+00" itree="505">
      <Node pos="s" depth="0" NCoef="0" IVar="9" Cut="1.4665584564208984e+00" cType="1" res="1.4151592040434480e-03" rms="1.9075214862823486e-01" purity="5.0403589010238647e-01" nType="0">
        <Node pos="l" depth="1" NCoef="0" IVar="7" Cut="-5.9374779462814331e-01" cType="1" res="3.7074225838296115e-04" rms="1.8612751364707947e-01" purity="5.1950645446777344e-01" nType="0">
          <Node pos="l" depth="2" NCoef="0" IVar="10" Cut="3.9943304657936096e-01" cType="1" res="-5.4638576693832874e-03" rms="1.8850950896739960e-01" purity="3.8604864478111267e-01" nType="0">
            <Node pos="l" depth="3" NCoef="0" IVar="-1" Cut="0.0000000000000000e+00" cType="1" res="5.7461304822936654e-04" rms="1.8178968131542206e-01" purity="3.7718847393989563e-01" nType="-99"/>
            <Node pos="r" depth="3" NCoef="0" IVar="-1" Cut="0.0000000000000000e+00" cType="1" res="-4.0262196213006973e-02" rms="2.0031733810901642e-01" purity="4.0303540229797363e-01" nType="-99"/>
          </Node>
          <Node pos="r" depth="2" NCoef="0" IVar="3" Cut="4.6474661254882812e+02" cType="1" res="2.1155446302145720e-03" rms="1.8537358939647675e-01" purity="5.5941623449325562e-01" nType="0">
            <Node pos="l" depth="3" NCoef="0" IVar="-1" Cut="0.0000000000000000e+00" cType="1" res="2.6801699772477150e-02" rms="2.1747730672359467e-01" purity="9.9938444793224335e-02" nType="-99"/>
            <Node pos="r" depth="3" NCoef="0" IVar="-1" Cut="0.0000000000000000e+00" cType="1" res="1.6054861480370164e-03" rms="1.7881985008716583e-01" purity="6.4364117383956909e-01" nType="-99"/>
          </Node>
        </Node>
        <Node pos="r" depth="1" NCoef="0" IVar="9" Cut="2.1014504432678223e+00" cType="1" res="1.1766467243432999e-02" rms="2.3139300942420959e-01" purity="3.5070583224296570e-01" nType="0">
          <Node pos="l" depth="2" NCoef="0" IVar="0" Cut="6.5731030273437500e+02" cType="1" res="2.1953776478767395e-02" rms="2.4260039627552032e-01" purity="4.1551133990287781e-01" nType="0">
            <Node pos="l" depth="3" NCoef="0" IVar="-1" Cut="0.0000000000000000e+00" cType="1" res="8.0279670655727386e-02" rms="2.6101440191268921e-01" purity="1.7186373472213745e-01" nType="-99"/>
            <Node pos="r" depth="3" NCoef="0" IVar="-1" Cut="0.0000000000000000e+00" cType="1" res="4.0810578502714634e-03" rms="2.1403150260448456e-01" purity="7.4024653434753418e-01" nType="-99"/>
          </Node>
          <Node pos="r" depth="2" NCoef="0" IVar="-1" Cut="0.0000000000000000e+00" cType="1" res="-3.2459728419780731e-02" rms="1.9717969000339508e-01" purity="1.8352097272872925e-01" nType="-99"/>
        </Node>
      </Node>
    </BinaryTree>
    <BinaryTree type="DecisionTree" boostWeight="1.0000000000000000e+00" itree="506">
      <Node pos="s" depth="0" NCoef="0" IVar="9" Cut="1.1999117136001587e+00" cType="1" res="1.2171673588454723e-03" rms="1.8753157556056976e-01" purity="5.0215893983840942e-01" nType="0">
        <Node pos="l" depth="1" NCoef="0" IVar="4" Cut="5.1190634155273438e+02" cType="1" res="-3.8718903670087457e-04" rms="1.8062554299831390e-01" purity="5.2056115865707397e-01" nType="0">
          <Node pos="l" depth="2" NCoef="0" IVar="5" Cut="2.9101434326171875e+02" cType="1" res="-2.3966329172253609e-03" rms="1.9826076924800873e-01" purity="2.8027841448783875e-01" nType="0">
            <Node pos="l" depth="3" NCoef="0" IVar="-1" Cut="0.0000000000000000e+00" cType="1" res="-9.6790855750441551e-03" rms="1.9377614557743073e-01" purity="1.4299392700195312e-01" nType="-99"/>
            <Node pos="r" depth="3" NCoef="0" IVar="-1" Cut="0.0000000000000000e+00" cType="1" res="6.0303104110062122e-03" rms="2.1547101438045502e-01" purity="8.3928871154785156e-01" nType="-99"/>
          </Node>
          <Node pos="r" depth="2" NCoef="0" IVar="5" Cut="2.1314694213867188e+02" cType="1" res="3.1317200046032667e-03" rms="1.4458616077899933e-01" purity="9.4134080410003662e-01" nType="0">
            <Node pos="l" depth="3" NCoef="0" IVar="-1" Cut="0.0000000000000000e+00" cType="1" res="2.4672977626323700e-02" rms="2.7145296335220337e-01" purity="6.4587616920471191e-01" nType="-99"/>
            <Node pos="r" depth="3" NCoef="0" IVar="-1" Cut="0.0000000000000000e+00" cType="1" res="7.0915617980062962e-03" rms="1.2033683806657791e-01" purity="9.7708779573440552e-01" nType="-99"/>
          </Node>
        </Node>
        <Node pos="r" depth="1" NCoef="0" IVar="7" Cut="2.0410498976707458e-01" cType="1" res="1.0756811127066612e-02" rms="2.2400830686092377e-01" purity="3.9273798465728760e-01" nType="0">
          <Node pos="l" depth="2" NCoef="0" IVar="1" Cut="2.3012714843750000e+03" cType="1" res="1.9028339534997940e-02" rms="2.3620299994945526e-01" purity="4.2167273163795471e-01" nType="0">
            <Node pos="l" depth="3" NCoef="0" IVar="-1" Cut="0.0000000000000000e+00" cType="1" res="5.5525396019220352e-02" rms="2.5299859046936035e-01" purity="1.2608341872692108e-01" nType="-99"/>
            <Node pos="r" depth="3" NCoef="0" IVar="-1" Cut="0.0000000000000000e+00" cType="1" res="8.6472416296601295e-03" rms="2.0300464332103729e-01" purity="9.3244558572769165e-01" nType="-99"/>
          </Node>
          <Node pos="r" depth="2" NCoef="0" IVar="7" Cut="8.2062828540802002e-01" cType="1" res="-6.6114304354414344e-04" rms="2.0544573664665222e-01" purity="3.5279667377471924e-01" nType="0">
            <Node pos="l" depth="3" NCoef="0" IVar="-1" Cut="0.0000000000000000e+00" cType="1" res="1.4490718953311443e-02" rms="2.1656215190887451e-01" purity="4.7485232353210449e-01" nType="-99"/>
            <Node pos="r" depth="3" NCoef="0" IVar="-1" Cut="0.0000000000000000e+00" cType="1" res="-2.2484181448817253e-02" rms="1.9035412371158600e-01" purity="2.0240043103694916e-01" nType="-99"/>
          </Node>
        </Node>
      </Node>
    </BinaryTree>
    <BinaryTree type="DecisionTree" boostWeight="1.0000000000000000e+00" itree="507">
      <Node pos="s" depth="0" NCoef="0" IVar="10" Cut="2.2665064334869385e+00" cType="1" res="-6.1856996035203338e-04" rms="1.8668533861637115e-01" purity="4.9967214465141296e-01" nType="0">
        <Node pos="l" depth="1" NCoef="0" IVar="9" Cut="1.3354462385177612e-01" cType="1" res="-1.0923990048468113e-03" rms="1.8450991809368134e-01" purity="5.0279450416564941e-01" nType="0">
          <Node pos="l" depth="2" NCoef="0" IVar="7" Cut="-1.3817454576492310e+00" cType="1" res="1.2834201334044337e-03" rms="1.8535916507244110e-01" purity="5.0931078195571899e-01" nType="0">
            <Node pos="l" depth="3" NCoef="0" IVar="-1" Cut="0.0000000000000000e+00" cType="1" res="-5.1284819841384888e-02" rms="1.6257023811340332e-01" purity="8.9318282902240753e-02" nType="-99"/>
            <Node pos="r" depth="3" NCoef="0" IVar="-1" Cut="0.0000000000000000e+00" cType="1" res="6.3271252438426018e-03" rms="1.8657517433166504e-01" purity="5.3409147262573242e-01" nType="-99"/>
          </Node>
          <Node pos="r" depth="2" NCoef="0" IVar="0" Cut="8.5538702392578125e+02" cType="1" res="-3.9685429073870182e-03" rms="1.8343541026115417e-01" purity="4.9490594863891602e-01" nType="0">
            <Node pos="l" depth="3" NCoef="0" IVar="-1" Cut="0.0000000000000000e+00" cType="1" res="-1.7849491909146309e-02" rms="1.9819481670856476e-01" purity="2.4783258140087128e-01" nType="-99"/>
            <Node pos="r" depth="3" NCoef="0" IVar="-1" Cut="0.0000000000000000e+00" cType="1" res="8.4996176883578300e-03" rms="1.5359501540660858e-01" purity="9.3352431058883667e-01" nType="-99"/>
          </Node>
        </Node>
        <Node pos="r" depth="1" NCoef="0" IVar="-1" Cut="0.0000000000000000e+00" cType="1" res="2.9204277321696281e-02" rms="2.5225397944450378e-01" purity="3.8722881674766541e-01" nType="-99"/>
      </Node>
    </BinaryTree>
    <BinaryTree type="DecisionTree" boostWeight="1.0000000000000000e+00" itree="508">
      <Node pos="s" depth="0" NCoef="0" IVar="7" Cut="2.0115678012371063e-01" cType="1" res="-8.5074908565729856e-04" rms="1.8346470594406128e-01" purity="5.0239318609237671e-01" nType="0">
        <Node pos="l" depth="1" NCoef="0" IVar="2" Cut="4.0955856442451477e-02" cType="1" res="-3.7570847198367119e-03" rms="1.7640823125839233e-01" purity="5.2780640125274658e-01" nType="0">
          <Node pos="l" depth="2" NCoef="0" IVar="7" Cut="-6.1354190111160278e-01" cType="1" res="-7.9462537541985512e-03" rms="1.8281681835651398e-01" purity="3.3300286531448364e-01" nType="0">
            <Node pos="l" depth="3" NCoef="0" IVar="-1" Cut="0.0000000000000000e+00" cType="1" res="-3.7664420902729034e-02" rms="1.7261676490306854e-01" purity="2.0980997383594513e-01" nType="-99"/>
            <Node pos="r" depth="3" NCoef="0" IVar="-1" Cut="0.0000000000000000e+00" cType="1" res="-8.3797080442309380e-03" rms="1.9179344177246094e-01" purity="4.4889584183692932e-01" nType="-99"/>
          </Node>
          <Node pos="r" depth="2" NCoef="0" IVar="7" Cut="-7.7400630712509155e-01" cType="1" res="5.0138984806835651e-04" rms="1.6953960061073303e-01" purity="7.2583270072937012e-01" nType="0">
            <Node pos="l" depth="3" NCoef="0" IVar="-1" Cut="0.0000000000000000e+00" cType="1" res="3.3168647438287735e-02" rms="2.1632553637027740e-01" purity="6.2823176383972168e-01" nType="-99"/>
            <Node pos="r" depth="3" NCoef="0" IVar="-1" Cut="0.0000000000000000e+00" cType="1" res="-8.9608449488878250e-03" rms="1.5755264461040497e-01" purity="7.4675184488296509e-01" nType="-99"/>
          </Node>
        </Node>
        <Node pos="r" depth="1" NCoef="0" IVar="7" Cut="1.0652306079864502e+00" cType="1" res="3.3765498083084822e-03" rms="1.9319105148315430e-01" purity="4.6542942523956299e-01" nType="0">
          <Node pos="l" depth="2" NCoef="0" IVar="7" Cut="8.5949814319610596e-01" cType="1" res="6.6631739027798176e-03" rms="1.9697754085063934e-01" purity="5.5333131551742554e-01" nType="0">
            <Node pos="l" depth="3" NCoef="0" IVar="-1" Cut="0.0000000000000000e+00" cType="1" res="6.3003888353705406e-03" rms="1.8529179692268372e-01" purity="5.7356059551239014e-01" nType="-99"/>
            <Node pos="r" depth="3" NCoef="0" IVar="-1" Cut="0.0000000000000000e+00" cType="1" res="5.3664010018110275e-02" rms="2.4519741535186768e-01" purity="4.5430406928062439e-01" nType="-99"/>
          </Node>
          <Node pos="r" depth="2" NCoef="0" IVar="1" Cut="1.8059893798828125e+03" cType="1" res="-6.3172020018100739e-03" rms="1.8121677637100220e-01" purity="2.0616671442985535e-01" nType="0">
            <Node pos="l" depth="3" NCoef="0" IVar="-1" Cut="0.0000000000000000e+00" cType="1" res="-9.9032716825604439e-03" rms="1.1709568649530411e-01" purity="1.7899977043271065e-02" nType="-99"/>
            <Node pos="r" depth="3" NCoef="0" IVar="-1" Cut="0.0000000000000000e+00" cType="1" res="-1.9865723326802254e-02" rms="2.6472604274749756e-01" purity="5.7392203807830811e-01" nType="-99"/>
          </Node>
        </Node>
      </Node>
    </BinaryTree>
    <BinaryTree type="DecisionTree" boostWeight="1.0000000000000000e+00" itree="509">
      <Node pos="s" depth="0" NCoef="0" IVar="8" Cut="-1.4666301012039185e+00" cType="1" res="2.3507857986260206e-04" rms="1.8406659364700317e-01" purity="5.0368255376815796e-01" nType="0">
        <Node pos="l" depth="1" NCoef="0" IVar="1" Cut="1.6228161621093750e+03" cType="1" res="-1.1280616745352745e-02" rms="1.9674895703792572e-01" purity="2.1920841932296753e-01" nType="0">
          <Node pos="l" depth="2" NCoef="0" IVar="-1" Cut="0.0000000000000000e+00" cType="1" res="-1.5887139365077019e-02" rms="9.9026128649711609e-02" purity="1.2695084325969219e-02" nType="-99"/>
          <Node pos="r" depth="2" NCoef="0" IVar="-1" Cut="0.0000000000000000e+00" cType="1" res="-2.6623265817761421e-02" rms="2.5227257609367371e-01" purity="3.9830744266510010e-01" nType="-99"/>
        </Node>
        <Node pos="r" depth="1" NCoef="0" IVar="10" Cut="-3.9999008178710938e-01" cType="1" res="1.0872808052226901e-03" rms="1.8306435644626617e-01" purity="5.2473467588424683e-01" nType="0">
          <Node pos="l" depth="2" NCoef="0" IVar="10" Cut="-2.1142303943634033e+00" cType="1" res="-2.7978215366601944e-03" rms="1.8548004329204559e-01" purity="5.0795561075210571e-01" nType="0">
            <Node pos="l" depth="3" NCoef="0" IVar="-1" Cut="0.0000000000000000e+00" cType="1" res="1.9542986527085304e-02" rms="2.2064524888992310e-01" purity="4.1696980595588684e-01" nType="-99"/>
            <Node pos="r" depth="3" NCoef="0" IVar="-1" Cut="0.0000000000000000e+00" cType="1" res="-1.2788442894816399e-02" rms="1.8100543320178986e-01" purity="5.1825255155563354e-01" nType="-99"/>
          </Node>
          <Node pos="r" depth="2" NCoef="0" IVar="9" Cut="-1.4667211771011353e+00" cType="1" res="3.3247391693294048e-03" rms="1.8162085115909576e-01" purity="5.3439784049987793e-01" nType="0">
            <Node pos="l" depth="3" NCoef="0" IVar="-1" Cut="0.0000000000000000e+00" cType="1" res="3.0495198443531990e-02" rms="2.2187283635139465e-01" purity="4.2336028814315796e-01" nType="-99"/>
            <Node pos="r" depth="3" NCoef="0" IVar="-1" Cut="0.0000000000000000e+00" cType="1" res="7.1016838774085045e-03" rms="1.7763064801692963e-01" purity="5.4410624504089355e-01" nType="-99"/>
          </Node>
        </Node>
      </Node>
    </BinaryTree>
    <BinaryTree type="DecisionTree" boostWeight="1.0000000000000000e+00" itree="510">
      <Node pos="s" depth="0" NCoef="0" IVar="8" Cut="-3.9992323517799377e-01" cType="1" res="-1.4563548611477017e-03" rms="1.8398043513298035e-01" purity="4.9985751509666443e-01" nType="0">
        <Node pos="l" depth="1" NCoef="0" IVar="7" Cut="-1.0900378227233887e+00" cType="1" res="2.2203545086085796e-03" rms="1.9429863989353180e-01" purity="4.6143484115600586e-01" nType="0">
          <Node pos="l" depth="2" NCoef="0" IVar="-1" Cut="0.0000000000000000e+00" cType="1" res="3.9551217108964920e-02" rms="2.1645486354827881e-01" purity="2.0812542736530304e-01" nType="-99"/>
          <Node pos="r" depth="2" NCoef="0" IVar="9" Cut="6.6568458080291748e-01" cType="1" res="8.1143155694007874e-04" rms="1.9170387089252472e-01" purity="4.8874527215957642e-01" nType="0">
            <Node pos="l" depth="3" NCoef="0" IVar="-1" Cut="0.0000000000000000e+00" cType="1" res="8.3799716085195541e-03" rms="1.8678517639636993e-01" purity="4.9746739864349365e-01" nType="-99"/>
            <Node pos="r" depth="3" NCoef="0" IVar="-1" Cut="0.0000000000000000e+00" cType="1" res="-1.1554908007383347e-02" rms="2.0453573763370514e-01" purity="4.6469411253929138e-01" nType="-99"/>
          </Node>
        </Node>
        <Node pos="r" depth="1" NCoef="0" IVar="1" Cut="2.4975126953125000e+03" cType="1" res="-3.4172846935689449e-03" rms="1.7820224165916443e-01" purity="5.2034980058670044e-01" nType="0">
          <Node pos="l" depth="2" NCoef="0" IVar="1" Cut="1.8703597412109375e+03" cType="1" res="-6.7361709661781788e-03" rms="2.0502664148807526e-01" purity="1.0305698215961456e-01" nType="0">
            <Node pos="l" depth="3" NCoef="0" IVar="-1" Cut="0.0000000000000000e+00" cType="1" res="-2.7848074678331614e-03" rms="1.3207635283470154e-01" purity="2.4020817130804062e-02" nType="-99"/>
            <Node pos="r" depth="3" NCoef="0" IVar="-1" Cut="0.0000000000000000e+00" cType="1" res="-1.9981546327471733e-02" rms="3.4581556916236877e-01" purity="3.5393220186233521e-01" nType="-99"/>
          </Node>
          <Node pos="r" depth="2" NCoef="0" IVar="8" Cut="2.0951659977436066e-01" cType="1" res="1.5511082892771810e-04" rms="1.4375784993171692e-01" purity="9.6951705217361450e-01" nType="0">
            <Node pos="l" depth="3" NCoef="0" IVar="-1" Cut="0.0000000000000000e+00" cType="1" res="1.6587382182478905e-02" rms="1.3438121974468231e-01" purity="9.7462970018386841e-01" nType="-99"/>
            <Node pos="r" depth="3" NCoef="0" IVar="-1" Cut="0.0000000000000000e+00" cType="1" res="-9.2113474383950233e-03" rms="1.5022513270378113e-01" purity="9.6576684713363647e-01" nType="-99"/>
          </Node>
        </Node>
      </Node>
    </BinaryTree>
    <BinaryTree type="DecisionTree" boostWeight="1.0000000000000000e+00" itree="511">
      <Node pos="s" depth="0" NCoef="0" IVar="8" Cut="-1.4666815996170044e+00" cType="1" res="6.2856031581759453e-04" rms="1.8691636621952057e-01" purity="4.9868372082710266e-01" nType="0">
        <Node pos="l" depth="1" NCoef="0" IVar="2" Cut="9.4382194802165031e-03" cType="1" res="9.9360905587673187e-03" rms="2.2132635116577148e-01" purity="2.3696595430374146e-01" nType="0">
          <Node pos="l" depth="2" NCoef="0" IVar="-1" Cut="0.0000000000000000e+00" cType="1" res="-3.7257159128785133e-03" rms="1.7032605409622192e-01" purity="9.3810789287090302e-02" nType="-99"/>
          <Node pos="r" depth="2" NCoef="0" IVar="-1" Cut="0.0000000000000000e+00" cType="1" res="3.2301031053066254e-02" rms="2.5101298093795776e-01" purity="3.3856821060180664e-01" nType="-99"/>
        </Node>
        <Node pos="r" depth="1" NCoef="0" IVar="9" Cut="-1.9995298385620117e+00" cType="1" res="-1.1152720253448933e-04" rms="1.8388392031192780e-01" purity="5.1949423551559448e-01" nType="0">
          <Node pos="l" depth="2" NCoef="0" IVar="-1" Cut="0.0000000000000000e+00" cType="1" res="-2.9650107026100159e-02" rms="2.1075452864170074e-01" purity="2.1029667556285858e-01" nType="-99"/>
          <Node pos="r" depth="2" NCoef="0" IVar="7" Cut="4.3507501482963562e-01" cType="1" res="2.8780629509128630e-04" rms="1.8300460278987885e-01" purity="5.2874094247817993e-01" nType="0">
            <Node pos="l" depth="3" NCoef="0" IVar="-1" Cut="0.0000000000000000e+00" cType="1" res="5.0683016888797283e-03" rms="1.8117731809616089e-01" purity="5.6260144710540771e-01" nType="-99"/>
            <Node pos="r" depth="3" NCoef="0" IVar="-1" Cut="0.0000000000000000e+00" cType="1" res="-8.4597803652286530e-03" rms="1.8750925362110138e-01" purity="4.4293043017387390e-01" nType="-99"/>
          </Node>
        </Node>
      </Node>
    </BinaryTree>
    <BinaryTree type="DecisionTree" boostWeight="1.0000000000000000e+00" itree="512">
      <Node pos="s" depth="0" NCoef="0" IVar="8" Cut="1.2000445127487183e+00" cType="1" res="1.9132615998387337e-03" rms="1.8526886403560638e-01" purity="5.0634479522705078e-01" nType="0">
        <Node pos="l" depth="1" NCoef="0" IVar="0" Cut="4.3884368896484375e+02" cType="1" res="9.0658717090263963e-04" rms="1.7933395504951477e-01" purity="5.3245794773101807e-01" nType="0">
          <Node pos="l" depth="2" NCoef="0" IVar="1" Cut="1.7312253417968750e+03" cType="1" res="-4.2832884937524796e-03" rms="1.3261404633522034e-01" purity="2.3430876433849335e-02" nType="0">
            <Node pos="l" depth="3" NCoef="0" IVar="-1" Cut="0.0000000000000000e+00" cType="1" res="-1.1673822067677975e-02" rms="9.6743643283843994e-02" purity="1.0414413176476955e-02" nType="-99"/>
            <Node pos="r" depth="3" NCoef="0" IVar="-1" Cut="0.0000000000000000e+00" cType="1" res="-2.6733824983239174e-02" rms="2.3987281322479248e-01" purity="8.7055213749408722e-02" nType="-99"/>
          </Node>
          <Node pos="r" depth="2" NCoef="0" IVar="7" Cut="9.7056156396865845e-01" cType="1" res="2.1425012964755297e-03" rms="1.8874165415763855e-01" purity="6.5367740392684937e-01" nType="0">
            <Node pos="l" depth="3" NCoef="0" IVar="-1" Cut="0.0000000000000000e+00" cType="1" res="3.0365679413080215e-03" rms="1.8268109858036041e-01" purity="6.8020629882812500e-01" nType="-99"/>
            <Node pos="r" depth="3" NCoef="0" IVar="-1" Cut="0.0000000000000000e+00" cType="1" res="2.3093346506357193e-02" rms="2.3616996407508850e-01" purity="4.1496726870536804e-01" nType="-99"/>
          </Node>
        </Node>
        <Node pos="r" depth="1" NCoef="0" IVar="10" Cut="9.3294692039489746e-01" cType="1" res="9.6032125875353813e-03" rms="2.2536090016365051e-01" purity="3.0686756968498230e-01" nType="0">
          <Node pos="l" depth="2" NCoef="0" IVar="10" Cut="-4.8913288116455078e-01" cType="1" res="1.5557846054434776e-02" rms="2.3363715410232544e-01" purity="3.2664513587951660e-01" nType="0">
            <Node pos="l" depth="3" NCoef="0" IVar="-1" Cut="0.0000000000000000e+00" cType="1" res="-8.9177204063162208e-04" rms="2.2660501301288605e-01" purity="3.0851641297340393e-01" nType="-99"/>
            <Node pos="r" depth="3" NCoef="0" IVar="-1" Cut="0.0000000000000000e+00" cType="1" res="6.2774471938610077e-02" rms="2.3788185417652130e-01" purity="3.3961176872253418e-01" nType="-99"/>
          </Node>
          <Node pos="r" depth="2" NCoef="0" IVar="-1" Cut="0.0000000000000000e+00" cType="1" res="-1.0643589310348034e-02" rms="2.0341025292873383e-01" purity="2.5937476754188538e-01" nType="-99"/>
        </Node>
      </Node>
    </BinaryTree>
    <BinaryTree type="DecisionTree" boostWeight="1.0000000000000000e+00" itree="513">
      <Node pos="s" depth="0" NCoef="0" IVar="1" Cut="1.9525828857421875e+03" cType="1" res="6.8970560096204281e-04" rms="1.8400408327579498e-01" purity="5.0105148553848267e-01" nType="0">
        <Node pos="l" depth="1" NCoef="0" IVar="2" Cut="9.5658458769321442e-02" cType="1" res="-2.2073450963944197e-03" rms="1.4543123543262482e-01" purity="2.8220240026712418e-02" nType="0">
          <Node pos="l" depth="2" NCoef="0" IVar="8" Cut="6.6665589809417725e-01" cType="1" res="-6.9022047682665288e-05" rms="1.4206421375274658e-01" purity="2.7387661859393120e-02" nType="0">
            <Node pos="l" depth="3" NCoef="0" IVar="-1" Cut="0.0000000000000000e+00" cType="1" res="-1.3160530477762222e-02" rms="1.3254272937774658e-01" purity="2.3523891344666481e-02" nType="-99"/>
            <Node pos="r" depth="3" NCoef="0" IVar="-1" Cut="0.0000000000000000e+00" cType="1" res="2.2525172680616379e-02" rms="1.6014559566974640e-01" purity="3.5529188811779022e-02" nType="-99"/>
          </Node>
          <Node pos="r" depth="2" NCoef="0" IVar="-1" Cut="0.0000000000000000e+00" cType="1" res="-5.9821564704179764e-02" rms="1.7963485419750214e-01" purity="3.8421791046857834e-02" nType="-99"/>
        </Node>
        <Node pos="r" depth="1" NCoef="0" IVar="1" Cut="2.2025747070312500e+03" cType="1" res="2.9577161185443401e-03" rms="2.0926994085311890e-01" purity="8.7121623754501343e-01" nType="0">
          <Node pos="l" depth="2" NCoef="0" IVar="1" Cut="2.0478273925781250e+03" cType="1" res="1.3137854635715485e-02" rms="3.7080651521682739e-01" purity="3.0375814437866211e-01" nType="0">
            <Node pos="l" depth="3" NCoef="0" IVar="-1" Cut="0.0000000000000000e+00" cType="1" res="-1.2795898132026196e-02" rms="3.3045428991317749e-01" purity="1.9960059225559235e-01" nType="-99"/>
            <Node pos="r" depth="3" NCoef="0" IVar="-1" Cut="0.0000000000000000e+00" cType="1" res="2.4119580164551735e-02" rms="3.9963704347610474e-01" purity="3.9005395770072937e-01" nType="-99"/>
          </Node>
          <Node pos="r" depth="2" NCoef="0" IVar="9" Cut="-1.4662162065505981e+00" cType="1" res="1.7895639175549150e-03" rms="1.8173700571060181e-01" purity="9.3633109331130981e-01" nType="0">
            <Node pos="l" depth="3" NCoef="0" IVar="-1" Cut="0.0000000000000000e+00" cType="1" res="-1.4099953696131706e-02" rms="2.3089438676834106e-01" purity="8.9240533113479614e-01" nType="-99"/>
            <Node pos="r" depth="3" NCoef="0" IVar="-1" Cut="0.0000000000000000e+00" cType="1" res="7.2151860222220421e-03" rms="1.7804142832756042e-01" purity="9.3919694423675537e-01" nType="-99"/>
          </Node>
        </Node>
      </Node>
    </BinaryTree>
    <BinaryTree type="DecisionTree" boostWeight="1.0000000000000000e+00" itree="514">
      <Node pos="s" depth="0" NCoef="0" IVar="0" Cut="7.4137329101562500e+02" cType="1" res="-6.5789133077487350e-04" rms="1.8294204771518707e-01" purity="5.0298064947128296e-01" nType="0">
        <Node pos="l" depth="1" NCoef="0" IVar="1" Cut="1.8161414794921875e+03" cType="1" res="-3.0216362792998552e-03" rms="1.9440919160842896e-01" purity="1.7638641595840454e-01" nType="0">
          <Node pos="l" depth="2" NCoef="0" IVar="6" Cut="9.9198448181152344e+01" cType="1" res="1.0779961303342134e-04" rms="1.2589663267135620e-01" purity="1.8843116238713264e-02" nType="0">
            <Node pos="l" depth="3" NCoef="0" IVar="-1" Cut="0.0000000000000000e+00" cType="1" res="-3.3463321626186371e-02" rms="8.6059898138046265e-02" purity="7.8158872202038765e-03" nType="-99"/>
            <Node pos="r" depth="3" NCoef="0" IVar="-1" Cut="0.0000000000000000e+00" cType="1" res="2.0556898787617683e-02" rms="1.6778630018234253e-01" purity="3.4967076033353806e-02" nType="-99"/>
          </Node>
          <Node pos="r" depth="2" NCoef="0" IVar="1" Cut="2.0539479980468750e+03" cType="1" res="-1.0245722718536854e-02" rms="2.9728537797927856e-01" purity="5.4006421566009521e-01" nType="0">
            <Node pos="l" depth="3" NCoef="0" IVar="-1" Cut="0.0000000000000000e+00" cType="1" res="-2.8708236292004585e-02" rms="2.9119303822517395e-01" purity="1.3095490634441376e-01" nType="-99"/>
            <Node pos="r" depth="3" NCoef="0" IVar="-1" Cut="0.0000000000000000e+00" cType="1" res="-8.0415833508595824e-04" rms="2.9994270205497742e-01" purity="7.5127083063125610e-01" nType="-99"/>
          </Node>
        </Node>
        <Node pos="r" depth="1" NCoef="0" IVar="1" Cut="2.5993498535156250e+03" cType="1" res="2.1314404439181089e-03" rms="1.6836623847484589e-01" purity="8.8837736845016479e-01" nType="0">
          <Node pos="l" depth="2" NCoef="0" IVar="3" Cut="5.2661560058593750e+02" cType="1" res="1.4371864497661591e-02" rms="3.0983933806419373e-01" purity="4.3775326013565063e-01" nType="0">
            <Node pos="l" depth="3" NCoef="0" IVar="-1" Cut="0.0000000000000000e+00" cType="1" res="3.9423141628503799e-02" rms="3.1335213780403137e-01" purity="4.3541893362998962e-01" nType="-99"/>
            <Node pos="r" depth="3" NCoef="0" IVar="-1" Cut="0.0000000000000000e+00" cType="1" res="1.2368217576295137e-03" rms="3.0718666315078735e-01" purity="4.3895348906517029e-01" nType="-99"/>
          </Node>
          <Node pos="r" depth="2" NCoef="0" IVar="7" Cut="-7.2003817558288574e-01" cType="1" res="-3.6674761213362217e-04" rms="1.2042758613824844e-01" purity="9.8034667968750000e-01" nType="0">
            <Node pos="l" depth="3" NCoef="0" IVar="-1" Cut="0.0000000000000000e+00" cType="1" res="-3.5239703953266144e-02" rms="1.4870189130306244e-01" purity="9.6593052148818970e-01" nType="-99"/>
            <Node pos="r" depth="3" NCoef="0" IVar="-1" Cut="0.0000000000000000e+00" cType="1" res="2.4312199093401432e-03" rms="1.1669338494539261e-01" purity="9.8201513290405273e-01" nType="-99"/>
          </Node>
        </Node>
      </Node>
    </BinaryTree>
    <BinaryTree type="DecisionTree" boostWeight="1.0000000000000000e+00" itree="515">
      <Node pos="s" depth="0" NCoef="0" IVar="8" Cut="-1.7332005500793457e+00" cType="1" res="-4.6577531611546874e-04" rms="1.8459706008434296e-01" purity="4.9950811266899109e-01" nType="0">
        <Node pos="l" depth="1" NCoef="0" IVar="-1" Cut="0.0000000000000000e+00" cType="1" res="-3.3951770514249802e-02" rms="1.9572423398494720e-01" purity="1.2797246873378754e-01" nType="-99"/>
        <Node pos="r" depth="1" NCoef="0" IVar="3" Cut="4.9152239990234375e+02" cType="1" res="1.2183458602521569e-04" rms="1.8407393991947174e-01" purity="5.1571464538574219e-01" nType="0">
          <Node pos="l" depth="2" NCoef="0" IVar="1" Cut="1.6575418701171875e+03" cType="1" res="-4.1842004284262657e-03" rms="1.8783059716224670e-01" purity="9.5728315412998199e-02" nType="0">
            <Node pos="l" depth="3" NCoef="0" IVar="-1" Cut="0.0000000000000000e+00" cType="1" res="1.7410397529602051e-02" rms="1.2342596799135208e-01" purity="1.7351070418953896e-02" nType="-99"/>
            <Node pos="r" depth="3" NCoef="0" IVar="-1" Cut="0.0000000000000000e+00" cType="1" res="-2.1605137735605240e-02" rms="2.9951825737953186e-01" purity="3.1026691198348999e-01" nType="-99"/>
          </Node>
          <Node pos="r" depth="2" NCoef="0" IVar="7" Cut="-8.3379250764846802e-01" cType="1" res="1.2893317034468055e-03" rms="1.8302464485168457e-01" purity="6.2958568334579468e-01" nType="0">
            <Node pos="l" depth="3" NCoef="0" IVar="-1" Cut="0.0000000000000000e+00" cType="1" res="-1.8563812598586082e-02" rms="1.7955014109611511e-01" purity="4.1376885771751404e-01" nType="-99"/>
            <Node pos="r" depth="3" NCoef="0" IVar="-1" Cut="0.0000000000000000e+00" cType="1" res="7.4783200398087502e-03" rms="1.8352670967578888e-01" purity="6.6311126947402954e-01" nType="-99"/>
          </Node>
        </Node>
      </Node>
    </BinaryTree>
    <BinaryTree type="DecisionTree" boostWeight="1.0000000000000000e+00" itree="516">
      <Node pos="s" depth="0" NCoef="0" IVar="8" Cut="1.4661766290664673e+00" cType="1" res="1.3662587152794003e-03" rms="1.8806853890419006e-01" purity="5.0284439325332642e-01" nType="0">
        <Node pos="l" depth="1" NCoef="0" IVar="0" Cut="7.4111877441406250e+02" cType="1" res="2.5767562910914421e-03" rms="1.8751552700996399e-01" purity="5.2426713705062866e-01" nType="0">
          <Node pos="l" depth="2" NCoef="0" IVar="1" Cut="1.8161447753906250e+03" cType="1" res="5.3554968908429146e-03" rms="2.0401130616664886e-01" purity="2.0413906872272491e-01" nType="0">
            <Node pos="l" depth="3" NCoef="0" IVar="-1" Cut="0.0000000000000000e+00" cType="1" res="-1.9315084209665656e-03" rms="1.2341473251581192e-01" purity="1.9445566460490227e-02" nType="-99"/>
            <Node pos="r" depth="3" NCoef="0" IVar="-1" Cut="0.0000000000000000e+00" cType="1" res="1.7485743388533592e-02" rms="3.0784097313880920e-01" purity="5.7746899127960205e-01" nType="-99"/>
          </Node>
          <Node pos="r" depth="2" NCoef="0" IVar="7" Cut="9.6998208761215210e-01" cType="1" res="-6.0452317120507360e-04" rms="1.6658020019531250e-01" purity="8.9077013731002808e-01" nType="0">
            <Node pos="l" depth="3" NCoef="0" IVar="-1" Cut="0.0000000000000000e+00" cType="1" res="-7.1803624741733074e-03" rms="1.5879009664058685e-01" purity="8.9967954158782959e-01" nType="-99"/>
            <Node pos="r" depth="3" NCoef="0" IVar="-1" Cut="0.0000000000000000e+00" cType="1" res="3.1989190727472305e-02" rms="2.5848531723022461e-01" purity="7.5215399265289307e-01" nType="-99"/>
          </Node>
        </Node>
        <Node pos="r" depth="1" NCoef="0" IVar="1" Cut="1.6098555908203125e+03" cType="1" res="-1.4585291035473347e-02" rms="1.9450721144676208e-01" purity="2.2054287791252136e-01" nType="0">
          <Node pos="l" depth="2" NCoef="0" IVar="-1" Cut="0.0000000000000000e+00" cType="1" res="-3.3315651118755341e-02" rms="8.2221962511539459e-02" purity="6.9453152827918530e-03" nType="-99"/>
          <Node pos="r" depth="2" NCoef="0" IVar="-1" Cut="0.0000000000000000e+00" cType="1" res="-3.5850927233695984e-02" rms="2.5448200106620789e-01" purity="4.0708687901496887e-01" nType="-99"/>
        </Node>
      </Node>
    </BinaryTree>
    <BinaryTree type="DecisionTree" boostWeight="1.0000000000000000e+00" itree="517">
      <Node pos="s" depth="0" NCoef="0" IVar="10" Cut="1.7333129644393921e+00" cType="1" res="1.1673226254060864e-03" rms="1.8750394880771637e-01" purity="4.9993845820426941e-01" nType="0">
        <Node pos="l" depth="1" NCoef="0" IVar="3" Cut="4.9879882812500000e+02" cType="1" res="2.3377828765660524e-03" rms="1.8595790863037109e-01" purity="5.0920480489730835e-01" nType="0">
          <Node pos="l" depth="2" NCoef="0" IVar="10" Cut="-1.0729373693466187e+00" cType="1" res="9.2667723074555397e-03" rms="2.0496445894241333e-01" purity="1.1105982214212418e-01" nType="0">
            <Node pos="l" depth="3" NCoef="0" IVar="-1" Cut="0.0000000000000000e+00" cType="1" res="4.5633293688297272e-02" rms="2.4591398239135742e-01" purity="1.4261411130428314e-01" nType="-99"/>
            <Node pos="r" depth="3" NCoef="0" IVar="-1" Cut="0.0000000000000000e+00" cType="1" res="1.5983762219548225e-02" rms="1.9015178084373474e-01" purity="1.0116971284151077e-01" nType="-99"/>
          </Node>
          <Node pos="r" depth="2" NCoef="0" IVar="10" Cut="-1.7206139564514160e+00" cType="1" res="2.9954055207781494e-04" rms="1.7993450164794922e-01" purity="6.2632375955581665e-01" nType="0">
            <Node pos="l" depth="3" NCoef="0" IVar="-1" Cut="0.0000000000000000e+00" cType="1" res="-2.0790476351976395e-02" rms="2.2085957229137421e-01" purity="4.8014047741889954e-01" nType="-99"/>
            <Node pos="r" depth="3" NCoef="0" IVar="-1" Cut="0.0000000000000000e+00" cType="1" res="3.9068371988832951e-03" rms="1.7599023878574371e-01" purity="6.3873779773712158e-01" nType="-99"/>
          </Node>
        </Node>
        <Node pos="r" depth="1" NCoef="0" IVar="9" Cut="-3.9912414550781250e-01" cType="1" res="-1.2505822815001011e-02" rms="2.0420511066913605e-01" purity="3.9169093966484070e-01" nType="0">
          <Node pos="l" depth="2" NCoef="0" IVar="-1" Cut="0.0000000000000000e+00" cType="1" res="-4.8509232699871063e-02" rms="2.0632059872150421e-01" purity="3.8255012035369873e-01" nType="-99"/>
          <Node pos="r" depth="2" NCoef="0" IVar="1" Cut="1.8584118652343750e+03" cType="1" res="-6.7440252751111984e-03" rms="2.0288363099098206e-01" purity="3.9631256461143494e-01" nType="0">
            <Node pos="l" depth="3" NCoef="0" IVar="-1" Cut="0.0000000000000000e+00" cType="1" res="-7.2596053360030055e-04" rms="1.4769548177719116e-01" purity="3.8635738193988800e-02" nType="-99"/>
            <Node pos="r" depth="3" NCoef="0" IVar="-1" Cut="0.0000000000000000e+00" cType="1" res="-1.9016468897461891e-02" rms="2.4910110235214233e-01" purity="7.8427660465240479e-01" nType="-99"/>
          </Node>
        </Node>
      </Node>
    </BinaryTree>
    <BinaryTree type="DecisionTree" boostWeight="1.0000000000000000e+00" itree="518">
      <Node pos="s" depth="0" NCoef="0" IVar="10" Cut="1.3334093987941742e-01" cType="1" res="-3.8219187990762293e-04" rms="1.8351732194423676e-01" purity="4.9967929720878601e-01" nType="0">
        <Node pos="l" depth="1" NCoef="0" IVar="1" Cut="2.2288745117187500e+03" cType="1" res="-2.9024060349911451e-03" rms="1.7749787867069244e-01" purity="4.9318337440490723e-01" nType="0">
          <Node pos="l" depth="2" NCoef="0" IVar="1" Cut="1.8341679687500000e+03" cType="1" res="-6.6587408073246479e-03" rms="1.7935566604137421e-01" purity="5.4425626993179321e-02" nType="0">
            <Node pos="l" depth="3" NCoef="0" IVar="-1" Cut="0.0000000000000000e+00" cType="1" res="-5.2363891154527664e-03" rms="1.2384859472513199e-01" purity="1.8741039559245110e-02" nType="-99"/>
            <Node pos="r" depth="3" NCoef="0" IVar="-1" Cut="0.0000000000000000e+00" cType="1" res="-2.7101468294858932e-02" rms="3.1564137339591980e-01" purity="1.9891569018363953e-01" nType="-99"/>
          </Node>
          <Node pos="r" depth="2" NCoef="0" IVar="9" Cut="4.0053203701972961e-01" cType="1" res="9.2414871323853731e-04" rms="1.7550249397754669e-01" purity="9.4014310836791992e-01" nType="0">
            <Node pos="l" depth="3" NCoef="0" IVar="-1" Cut="0.0000000000000000e+00" cType="1" res="-7.7639864757657051e-03" rms="1.7436309158802032e-01" purity="9.3647241592407227e-01" nType="-99"/>
            <Node pos="r" depth="3" NCoef="0" IVar="-1" Cut="0.0000000000000000e+00" cType="1" res="2.1611455827951431e-02" rms="1.7741772532463074e-01" purity="9.4694280624389648e-01" nType="-99"/>
          </Node>
        </Node>
        <Node pos="r" depth="1" NCoef="0" IVar="6" Cut="1.1641340637207031e+02" cType="1" res="2.5201498065143824e-03" rms="1.9017222523689270e-01" purity="5.0716012716293335e-01" nType="0">
          <Node pos="l" depth="2" NCoef="0" IVar="4" Cut="2.1874899291992188e+02" cType="1" res="-3.8215673994272947e-03" rms="1.8545387685298920e-01" purity="1.8848834931850433e-01" nType="0">
            <Node pos="l" depth="3" NCoef="0" IVar="-1" Cut="0.0000000000000000e+00" cType="1" res="7.7374152839183807e-02" rms="1.4772076904773712e-01" purity="3.0299961566925049e-02" nType="-99"/>
            <Node pos="r" depth="3" NCoef="0" IVar="-1" Cut="0.0000000000000000e+00" cType="1" res="-1.9455425441265106e-02" rms="1.9622482359409332e-01" purity="2.4130454659461975e-01" nType="-99"/>
          </Node>
          <Node pos="r" depth="2" NCoef="0" IVar="3" Cut="5.9968127441406250e+02" cType="1" res="7.4366191402077675e-03" rms="1.9360820949077606e-01" purity="7.5421309471130371e-01" nType="0">
            <Node pos="l" depth="3" NCoef="0" IVar="-1" Cut="0.0000000000000000e+00" cType="1" res="3.5156242549419403e-02" rms="2.6632946729660034e-01" purity="3.6762717366218567e-01" nType="-99"/>
            <Node pos="r" depth="3" NCoef="0" IVar="-1" Cut="0.0000000000000000e+00" cType="1" res="1.6075108433142304e-03" rms="1.4956830441951752e-01" purity="9.2704874277114868e-01" nType="-99"/>
          </Node>
        </Node>
      </Node>
    </BinaryTree>
    <BinaryTree type="DecisionTree" boostWeight="1.0000000000000000e+00" itree="519">
      <Node pos="s" depth="0" NCoef="0" IVar="8" Cut="-9.3326085805892944e-01" cType="1" res="-1.0910113342106342e-03" rms="1.8281194567680359e-01" purity="4.9473416805267334e-01" nType="0">
        <Node pos="l" depth="1" NCoef="0" IVar="1" Cut="1.8310510253906250e+03" cType="1" res="4.8048631288111210e-03" rms="2.0956617593765259e-01" purity="3.6757615208625793e-01" nType="0">
          <Node pos="l" depth="2" NCoef="0" IVar="2" Cut="1.7437806352972984e-02" cType="1" res="-3.2923562685027719e-04" rms="1.3923537731170654e-01" purity="2.4399263784289360e-02" nType="0">
            <Node pos="l" depth="3" NCoef="0" IVar="-1" Cut="0.0000000000000000e+00" cType="1" res="-7.2502084076404572e-02" rms="6.9946192204952240e-02" purity="4.3619908392429352e-03" nType="-99"/>
            <Node pos="r" depth="3" NCoef="0" IVar="-1" Cut="0.0000000000000000e+00" cType="1" res="2.9890170320868492e-02" rms="1.9520150125026703e-01" purity="5.0528656691312790e-02" nType="-99"/>
          </Node>
          <Node pos="r" depth="2" NCoef="0" IVar="4" Cut="3.9684796142578125e+02" cType="1" res="1.0505117475986481e-02" rms="2.6663249731063843e-01" purity="7.4859642982482910e-01" nType="0">
            <Node pos="l" depth="3" NCoef="0" IVar="-1" Cut="0.0000000000000000e+00" cType="1" res="2.9691373929381371e-02" rms="3.4371349215507507e-01" purity="5.4447197914123535e-01" nType="-99"/>
            <Node pos="r" depth="3" NCoef="0" IVar="-1" Cut="0.0000000000000000e+00" cType="1" res="-3.3239903859794140e-03" rms="2.1340397000312805e-01" purity="8.5765230655670166e-01" nType="-99"/>
          </Node>
        </Node>
        <Node pos="r" depth="1" NCoef="0" IVar="1" Cut="2.5217238769531250e+03" cType="1" res="-2.3834488820284605e-03" rms="1.7637941241264343e-01" purity="5.2260851860046387e-01" nType="0">
          <Node pos="l" depth="2" NCoef="0" IVar="1" Cut="1.8273148193359375e+03" cType="1" res="-6.1335577629506588e-03" rms="2.0411980152130127e-01" purity="1.1457696557044983e-01" nType="0">
            <Node pos="l" depth="3" NCoef="0" IVar="-1" Cut="0.0000000000000000e+00" cType="1" res="-1.7255196347832680e-02" rms="1.1478887498378754e-01" purity="1.5552368946373463e-02" nType="-99"/>
            <Node pos="r" depth="3" NCoef="0" IVar="-1" Cut="0.0000000000000000e+00" cType="1" res="-1.2039154767990112e-02" rms="3.3652165532112122e-01" purity="3.6374306678771973e-01" nType="-99"/>
          </Node>
          <Node pos="r" depth="2" NCoef="0" IVar="5" Cut="2.4985417175292969e+02" cType="1" res="1.7535299994051456e-03" rms="1.3940219581127167e-01" purity="9.7273355722427368e-01" nType="0">
            <Node pos="l" depth="3" NCoef="0" IVar="-1" Cut="0.0000000000000000e+00" cType="1" res="1.6154710203409195e-02" rms="2.4914555251598358e-01" purity="8.9887756109237671e-01" nType="-99"/>
            <Node pos="r" depth="3" NCoef="0" IVar="-1" Cut="0.0000000000000000e+00" cType="1" res="8.6216878844425082e-04" rms="1.0766475647687912e-01" purity="9.8628473281860352e-01" nType="-99"/>
          </Node>
        </Node>
      </Node>
    </BinaryTree>
    <BinaryTree type="DecisionTree" boostWeight="1.0000000000000000e+00" itree="520">
      <Node pos="s" depth="0" NCoef="0" IVar="10" Cut="2.2666387557983398e+00" cType="1" res="1.4297248562797904e-03" rms="1.8737541139125824e-01" purity="4.9890649318695068e-01" nType="0">
        <Node pos="l" depth="1" NCoef="0" IVar="8" Cut="-9.3322581052780151e-01" cType="1" res="2.0384253002703190e-03" rms="1.8620641529560089e-01" purity="5.0318157672882080e-01" nType="0">
          <Node pos="l" depth="2" NCoef="0" IVar="0" Cut="5.1767016601562500e+02" cType="1" res="8.0228578299283981e-03" rms="2.2158604860305786e-01" purity="3.6262243986129761e-01" nType="0">
            <Node pos="l" depth="3" NCoef="0" IVar="-1" Cut="0.0000000000000000e+00" cType="1" res="6.0246396809816360e-02" rms="2.1118651330471039e-01" purity="8.0197602510452271e-02" nType="-99"/>
            <Node pos="r" depth="3" NCoef="0" IVar="-1" Cut="0.0000000000000000e+00" cType="1" res="-7.0415344089269638e-04" rms="2.2802120447158813e-01" purity="5.5502146482467651e-01" nType="-99"/>
          </Node>
          <Node pos="r" depth="2" NCoef="0" IVar="7" Cut="6.6916131973266602e-01" cType="1" res="7.6679838821291924e-04" rms="1.7775800824165344e-01" purity="5.3304880857467651e-01" nType="0">
            <Node pos="l" depth="3" NCoef="0" IVar="-1" Cut="0.0000000000000000e+00" cType="1" res="-2.5108940899372101e-03" rms="1.7085388302803040e-01" purity="5.6940621137619019e-01" nType="-99"/>
            <Node pos="r" depth="3" NCoef="0" IVar="-1" Cut="0.0000000000000000e+00" cType="1" res="1.6784351319074631e-02" rms="2.0281966030597687e-01" purity="3.8825470209121704e-01" nType="-99"/>
          </Node>
        </Node>
        <Node pos="r" depth="1" NCoef="0" IVar="-1" Cut="0.0000000000000000e+00" cType="1" res="-4.2699102312326431e-02" rms="2.2668038308620453e-01" purity="3.3406233787536621e-01" nType="-99"/>
      </Node>
    </BinaryTree>
    <BinaryTree type="DecisionTree" boostWeight="1.0000000000000000e+00" itree="521">
      <Node pos="s" depth="0" NCoef="0" IVar="8" Cut="-1.7332906723022461e+00" cType="1" res="-1.7226898344233632e-03" rms="1.8585702776908875e-01" purity="4.9934917688369751e-01" nType="0">
        <Node pos="l" depth="1" NCoef="0" IVar="-1" Cut="0.0000000000000000e+00" cType="1" res="-4.1325554251670837e-02" rms="1.9015717506408691e-01" purity="1.5462701022624969e-01" nType="-99"/>
        <Node pos="r" depth="1" NCoef="0" IVar="1" Cut="1.6762941894531250e+03" cType="1" res="-9.8998018074780703e-04" rms="1.8562328815460205e-01" purity="5.1526737213134766e-01" nType="0">
          <Node pos="l" depth="2" NCoef="0" IVar="2" Cut="3.8918897509574890e-02" cType="1" res="3.9402665570378304e-03" rms="1.1366389691829681e-01" purity="1.5847345814108849e-02" nType="0">
            <Node pos="l" depth="3" NCoef="0" IVar="-1" Cut="0.0000000000000000e+00" cType="1" res="-6.4995922148227692e-03" rms="8.4647394716739655e-02" purity="7.8200073912739754e-03" nType="-99"/>
            <Node pos="r" depth="3" NCoef="0" IVar="-1" Cut="0.0000000000000000e+00" cType="1" res="8.0528393387794495e-02" rms="1.6041424870491028e-01" purity="3.3924374729394913e-02" nType="-99"/>
          </Node>
          <Node pos="r" depth="2" NCoef="0" IVar="1" Cut="2.4656975097656250e+03" cType="1" res="-3.1807872001081705e-03" rms="2.0978653430938721e-01" purity="7.3718982934951782e-01" nType="0">
            <Node pos="l" depth="3" NCoef="0" IVar="-1" Cut="0.0000000000000000e+00" cType="1" res="-8.1502497196197510e-03" rms="3.0288919806480408e-01" purity="2.4097792804241180e-01" nType="-99"/>
            <Node pos="r" depth="3" NCoef="0" IVar="-1" Cut="0.0000000000000000e+00" cType="1" res="-4.9978219904005527e-03" rms="1.4793343842029572e-01" purity="9.6706491708755493e-01" nType="-99"/>
          </Node>
        </Node>
      </Node>
    </BinaryTree>
    <BinaryTree type="DecisionTree" boostWeight="1.0000000000000000e+00" itree="522">
      <Node pos="s" depth="0" NCoef="0" IVar="10" Cut="-1.2000347375869751e+00" cType="1" res="1.4800345525145531e-03" rms="1.8820454180240631e-01" purity="5.0046920776367188e-01" nType="0">
        <Node pos="l" depth="1" NCoef="0" IVar="0" Cut="7.6275927734375000e+02" cType="1" res="8.8483672589063644e-03" rms="2.1286936104297638e-01" purity="4.4847813248634338e-01" nType="0">
          <Node pos="l" depth="2" NCoef="0" IVar="5" Cut="1.9390484619140625e+02" cType="1" res="1.5364365652203560e-02" rms="2.2654992341995239e-01" purity="2.1987091004848480e-01" nType="0">
            <Node pos="l" depth="3" NCoef="0" IVar="-1" Cut="0.0000000000000000e+00" cType="1" res="2.0293256267905235e-02" rms="1.7083346843719482e-01" purity="4.3462671339511871e-02" nType="-99"/>
            <Node pos="r" depth="3" NCoef="0" IVar="-1" Cut="0.0000000000000000e+00" cType="1" res="3.5808850079774857e-02" rms="2.8755065798759460e-01" purity="4.7265166044235229e-01" nType="-99"/>
          </Node>
          <Node pos="r" depth="2" NCoef="0" IVar="9" Cut="1.3321922719478607e-01" cType="1" res="-2.7051600627601147e-03" rms="1.8559522926807404e-01" purity="8.5382205247879028e-01" nType="0">
            <Node pos="l" depth="3" NCoef="0" IVar="-1" Cut="0.0000000000000000e+00" cType="1" res="4.7322842292487621e-03" rms="1.7699533700942993e-01" purity="8.5082942247390747e-01" nType="-99"/>
            <Node pos="r" depth="3" NCoef="0" IVar="-1" Cut="0.0000000000000000e+00" cType="1" res="-2.3063458502292633e-02" rms="1.9600957632064819e-01" purity="8.5769230127334595e-01" nType="-99"/>
          </Node>
        </Node>
        <Node pos="r" depth="1" NCoef="0" IVar="8" Cut="1.7333148717880249e+00" cType="1" res="-3.6084020393900573e-05" rms="1.8268005549907684e-01" purity="5.1116693019866943e-01" nType="0">
          <Node pos="l" depth="2" NCoef="0" IVar="8" Cut="4.3810662627220154e-01" cType="1" res="-5.6377454893663526e-04" rms="1.8016955256462097e-01" purity="5.2571630477905273e-01" nType="0">
            <Node pos="l" depth="3" NCoef="0" IVar="-1" Cut="0.0000000000000000e+00" cType="1" res="2.8205516282469034e-03" rms="1.8022716045379639e-01" purity="5.4175627231597900e-01" nType="-99"/>
            <Node pos="r" depth="3" NCoef="0" IVar="-1" Cut="0.0000000000000000e+00" cType="1" res="-1.1363736353814602e-02" rms="1.7998984456062317e-01" purity="4.8864531517028809e-01" nType="-99"/>
          </Node>
          <Node pos="r" depth="2" NCoef="0" IVar="-1" Cut="0.0000000000000000e+00" cType="1" res="3.2048098742961884e-02" rms="2.3261421918869019e-01" purity="1.7751106619834900e-01" nType="-99"/>
        </Node>
      </Node>
    </BinaryTree>
    <BinaryTree type="DecisionTree" boostWeight="1.0000000000000000e+00" itree="523">
      <Node pos="s" depth="0" NCoef="0" IVar="4" Cut="3.2798193359375000e+02" cType="1" res="7.0541532477363944e-04" rms="1.8727628886699677e-01" purity="5.0282555818557739e-01" nType="0">
        <Node pos="l" depth="1" NCoef="0" IVar="2" Cut="8.8790774345397949e-02" cType="1" res="4.4377003796398640e-03" rms="1.8292856216430664e-01" purity="9.7436100244522095e-02" nType="0">
          <Node pos="l" depth="2" NCoef="0" IVar="6" Cut="1.1181816864013672e+02" cType="1" res="6.2411446124315262e-03" rms="1.8197466433048248e-01" purity="9.3697644770145416e-02" nType="0">
            <Node pos="l" depth="3" NCoef="0" IVar="-1" Cut="0.0000000000000000e+00" cType="1" res="6.9138887338340282e-03" rms="1.3807168602943420e-01" purity="3.8778014481067657e-02" nType="-99"/>
            <Node pos="r" depth="3" NCoef="0" IVar="-1" Cut="0.0000000000000000e+00" cType="1" res="2.8681289404630661e-02" rms="2.4507562816143036e-01" purity="1.9954842329025269e-01" nType="-99"/>
          </Node>
          <Node pos="r" depth="2" NCoef="0" IVar="-1" Cut="0.0000000000000000e+00" cType="1" res="-2.7442358434200287e-02" rms="1.9114381074905396e-01" purity="1.3415504992008209e-01" nType="-99"/>
        </Node>
        <Node pos="r" depth="1" NCoef="0" IVar="4" Cut="4.0670684814453125e+02" cType="1" res="-1.4658900909125805e-03" rms="1.8972602486610413e-01" purity="7.3866611719131470e-01" nType="0">
          <Node pos="l" depth="2" NCoef="0" IVar="2" Cut="3.8558483123779297e-02" cType="1" res="-8.4542268887162209e-03" rms="2.3693682253360748e-01" purity="3.4014651179313660e-01" nType="0">
            <Node pos="l" depth="3" NCoef="0" IVar="-1" Cut="0.0000000000000000e+00" cType="1" res="1.6669882461428642e-03" rms="2.2845791280269623e-01" purity="2.1589788794517517e-01" nType="-99"/>
            <Node pos="r" depth="3" NCoef="0" IVar="-1" Cut="0.0000000000000000e+00" cType="1" res="-3.3331722021102905e-02" rms="2.4824605882167816e-01" purity="5.2291947603225708e-01" nType="-99"/>
          </Node>
          <Node pos="r" depth="2" NCoef="0" IVar="1" Cut="2.2231440429687500e+03" cType="1" res="5.1369424909353256e-04" rms="1.7398932576179504e-01" purity="8.5155463218688965e-01" nType="0">
            <Node pos="l" depth="3" NCoef="0" IVar="-1" Cut="0.0000000000000000e+00" cType="1" res="1.1446403339505196e-02" rms="2.6607695221900940e-01" purity="1.5694040060043335e-01" nType="-99"/>
            <Node pos="r" depth="3" NCoef="0" IVar="-1" Cut="0.0000000000000000e+00" cType="1" res="-2.8840031009167433e-03" rms="1.5489950776100159e-01" purity="9.5898330211639404e-01" nType="-99"/>
          </Node>
        </Node>
      </Node>
    </BinaryTree>
    <BinaryTree type="DecisionTree" boostWeight="1.0000000000000000e+00" itree="524">
      <Node pos="s" depth="0" NCoef="0" IVar="6" Cut="8.9509414672851562e+01" cType="1" res="-1.1869817972183228e-03" rms="1.8575446307659149e-01" purity="4.9988165497779846e-01" nType="0">
        <Node pos="l" depth="1" NCoef="0" IVar="2" Cut="7.3811642825603485e-02" cType="1" res="4.8259962350130081e-03" rms="1.8246917426586151e-01" purity="1.6317346692085266e-01" nType="0">
          <Node pos="l" depth="2" NCoef="0" IVar="1" Cut="1.9511907958984375e+03" cType="1" res="2.5075192097574472e-03" rms="1.7292225360870361e-01" purity="1.4314849674701691e-01" nType="0">
            <Node pos="l" depth="3" NCoef="0" IVar="-1" Cut="0.0000000000000000e+00" cType="1" res="-1.5011868439614773e-02" rms="1.0006415098905563e-01" purity="1.1379254050552845e-02" nType="-99"/>
            <Node pos="r" depth="3" NCoef="0" IVar="-1" Cut="0.0000000000000000e+00" cType="1" res="1.6902279108762741e-02" rms="3.0510538816452026e-01" purity="5.6334811449050903e-01" nType="-99"/>
          </Node>
          <Node pos="r" depth="2" NCoef="0" IVar="-1" Cut="0.0000000000000000e+00" cType="1" res="5.1144272089004517e-02" rms="2.5901031494140625e-01" purity="3.6619380116462708e-01" nType="-99"/>
        </Node>
        <Node pos="r" depth="1" NCoef="0" IVar="4" Cut="4.4582574462890625e+02" cType="1" res="-3.8013863377273083e-03" rms="1.8710462749004364e-01" purity="6.4628022909164429e-01" nType="0">
          <Node pos="l" depth="2" NCoef="0" IVar="8" Cut="1.3630214333534241e-01" cType="1" res="-7.9483706504106522e-03" rms="2.2506165504455566e-01" purity="2.9841145873069763e-01" nType="0">
            <Node pos="l" depth="3" NCoef="0" IVar="-1" Cut="0.0000000000000000e+00" cType="1" res="-2.7175150811672211e-02" rms="2.1902281045913696e-01" purity="2.9257670044898987e-01" nType="-99"/>
            <Node pos="r" depth="3" NCoef="0" IVar="-1" Cut="0.0000000000000000e+00" cType="1" res="-5.6528527056798339e-04" rms="2.3164805769920349e-01" purity="3.0519255995750427e-01" nType="-99"/>
          </Node>
          <Node pos="r" depth="2" NCoef="0" IVar="8" Cut="3.9757746458053589e-01" cType="1" res="-2.0717990992125124e-04" rms="1.4635941386222839e-01" purity="9.4777935743331909e-01" nType="0">
            <Node pos="l" depth="3" NCoef="0" IVar="-1" Cut="0.0000000000000000e+00" cType="1" res="5.3278170526027679e-03" rms="1.4007654786109924e-01" purity="9.5289391279220581e-01" nType="-99"/>
            <Node pos="r" depth="3" NCoef="0" IVar="-1" Cut="0.0000000000000000e+00" cType="1" res="-1.2864227406680584e-02" rms="1.6009694337844849e-01" purity="9.3577873706817627e-01" nType="-99"/>
          </Node>
        </Node>
      </Node>
    </BinaryTree>
    <BinaryTree type="DecisionTree" boostWeight="1.0000000000000000e+00" itree="525">
      <Node pos="s" depth="0" NCoef="0" IVar="7" Cut="-3.9121374487876892e-01" cType="1" res="-1.0080110514536500e-03" rms="1.8362675607204437e-01" purity="4.9834823608398438e-01" nType="0">
        <Node pos="l" depth="1" NCoef="0" IVar="10" Cut="-1.4664859771728516e+00" cType="1" res="2.1166214719414711e-03" rms="1.9113530218601227e-01" purity="4.1679501533508301e-01" nType="0">
          <Node pos="l" depth="2" NCoef="0" IVar="-1" Cut="0.0000000000000000e+00" cType="1" res="-2.6827337220311165e-02" rms="1.9398310780525208e-01" purity="3.2333701848983765e-01" nType="-99"/>
          <Node pos="r" depth="2" NCoef="0" IVar="4" Cut="4.2003454589843750e+02" cType="1" res="4.2812768369913101e-03" rms="1.9061034917831421e-01" purity="4.3081030249595642e-01" nType="0">
            <Node pos="l" depth="3" NCoef="0" IVar="-1" Cut="0.0000000000000000e+00" cType="1" res="2.3233082145452499e-02" rms="1.9723036885261536e-01" purity="1.5233181416988373e-01" nType="-99"/>
            <Node pos="r" depth="3" NCoef="0" IVar="-1" Cut="0.0000000000000000e+00" cType="1" res="-5.6301713921129704e-03" rms="1.8045747280120850e-01" purity="8.3248811960220337e-01" nType="-99"/>
          </Node>
        </Node>
        <Node pos="r" depth="1" NCoef="0" IVar="6" Cut="9.4900352478027344e+01" cType="1" res="-2.4156330619007349e-03" rms="1.8012428283691406e-01" purity="5.3508728742599487e-01" nType="0">
          <Node pos="l" depth="2" NCoef="0" IVar="0" Cut="9.7344171142578125e+02" cType="1" res="-6.4873024821281433e-03" rms="1.7080067098140717e-01" purity="1.7007680237293243e-01" nType="0">
            <Node pos="l" depth="3" NCoef="0" IVar="-1" Cut="0.0000000000000000e+00" cType="1" res="-1.3044310733675957e-02" rms="1.5811912715435028e-01" purity="8.1127837300300598e-02" nType="-99"/>
            <Node pos="r" depth="3" NCoef="0" IVar="-1" Cut="0.0000000000000000e+00" cType="1" res="-3.9751507341861725e-02" rms="2.4193242192268372e-01" purity="8.0419695377349854e-01" nType="-99"/>
          </Node>
          <Node pos="r" depth="2" NCoef="0" IVar="2" Cut="1.9399140030145645e-02" cType="1" res="-5.4062070557847619e-04" rms="1.8422900140285492e-01" purity="7.0317542552947998e-01" nType="0">
            <Node pos="l" depth="3" NCoef="0" IVar="-1" Cut="0.0000000000000000e+00" cType="1" res="-2.0300839096307755e-02" rms="2.1421217918395996e-01" purity="4.6378365159034729e-01" nType="-99"/>
            <Node pos="r" depth="3" NCoef="0" IVar="-1" Cut="0.0000000000000000e+00" cType="1" res="4.9058189615607262e-03" rms="1.7631943523883820e-01" purity="7.5987416505813599e-01" nType="-99"/>
          </Node>
        </Node>
      </Node>
    </BinaryTree>
    <BinaryTree type="DecisionTree" boostWeight="1.0000000000000000e+00" itree="526">
      <Node pos="s" depth="0" NCoef="0" IVar="8" Cut="-6.6700541973114014e-01" cType="1" res="-5.6649500038474798e-04" rms="1.8289203941822052e-01" purity="4.9624437093734741e-01" nType="0">
        <Node pos="l" depth="1" NCoef="0" IVar="3" Cut="4.4044494628906250e+02" cType="1" res="-7.6493867672979832e-03" rms="1.8811662495136261e-01" purity="4.0115794539451599e-01" nType="0">
          <Node pos="l" depth="2" NCoef="0" IVar="-1" Cut="0.0000000000000000e+00" cType="1" res="-4.8218067735433578e-02" rms="1.7137929797172546e-01" purity="6.4606904983520508e-02" nType="-99"/>
          <Node pos="r" depth="2" NCoef="0" IVar="0" Cut="5.6934857177734375e+02" cType="1" res="-5.2882442250847816e-03" rms="1.9144481420516968e-01" purity="4.7357699275016785e-01" nType="0">
            <Node pos="l" depth="3" NCoef="0" IVar="-1" Cut="0.0000000000000000e+00" cType="1" res="-2.8914820402860641e-02" rms="1.8030141294002533e-01" purity="8.2926668226718903e-02" nType="-99"/>
            <Node pos="r" depth="3" NCoef="0" IVar="-1" Cut="0.0000000000000000e+00" cType="1" res="-4.4212630018591881e-03" rms="1.9819359481334686e-01" purity="7.2460693120956421e-01" nType="-99"/>
          </Node>
        </Node>
        <Node pos="r" depth="1" NCoef="0" IVar="9" Cut="1.7333216667175293e+00" cType="1" res="1.8238466000184417e-03" rms="1.8103228509426117e-01" purity="5.2833425998687744e-01" nType="0">
          <Node pos="l" depth="2" NCoef="0" IVar="3" Cut="6.4823577880859375e+02" cType="1" res="1.0245617013424635e-03" rms="1.7757025361061096e-01" purity="5.4219311475753784e-01" nType="0">
            <Node pos="l" depth="3" NCoef="0" IVar="-1" Cut="0.0000000000000000e+00" cType="1" res="1.0563487187027931e-02" rms="1.9481876492500305e-01" purity="2.0884200930595398e-01" nType="-99"/>
            <Node pos="r" depth="3" NCoef="0" IVar="-1" Cut="0.0000000000000000e+00" cType="1" res="-4.5907581225037575e-03" rms="1.6308061778545380e-01" purity="7.9771018028259277e-01" nType="-99"/>
          </Node>
          <Node pos="r" depth="2" NCoef="0" IVar="-1" Cut="0.0000000000000000e+00" cType="1" res="2.9900172725319862e-02" rms="2.2884212434291840e-01" purity="3.0766221880912781e-01" nType="-99"/>
        </Node>
      </Node>
    </BinaryTree>
    <BinaryTree type="DecisionTree" boostWeight="1.0000000000000000e+00" itree="527">
      <Node pos="s" depth="0" NCoef="0" IVar="10" Cut="1.2000038623809814e+00" cType="1" res="1.1250792304053903e-03" rms="1.8461418151855469e-01" purity="5.0560021400451660e-01" nType="0">
        <Node pos="l" depth="1" NCoef="0" IVar="9" Cut="-1.9998853206634521e+00" cType="1" res="-2.2784205793868750e-04" rms="1.7884050309658051e-01" purity="5.1455223560333252e-01" nType="0">
          <Node pos="l" depth="2" NCoef="0" IVar="-1" Cut="0.0000000000000000e+00" cType="1" res="-4.1715495288372040e-02" rms="1.9294835627079010e-01" purity="1.9018091261386871e-01" nType="-99"/>
          <Node pos="r" depth="2" NCoef="0" IVar="2" Cut="4.0955927222967148e-02" cType="1" res="3.6727773840539157e-04" rms="1.7833288013935089e-01" purity="5.2506732940673828e-01" nType="0">
            <Node pos="l" depth="3" NCoef="0" IVar="-1" Cut="0.0000000000000000e+00" cType="1" res="9.1950735077261925e-03" rms="1.8737058341503143e-01" purity="3.4639495611190796e-01" nType="-99"/>
            <Node pos="r" depth="3" NCoef="0" IVar="-1" Cut="0.0000000000000000e+00" cType="1" res="-1.0538500733673573e-02" rms="1.6741600632667542e-01" purity="7.2795200347900391e-01" nType="-99"/>
          </Node>
        </Node>
        <Node pos="r" depth="1" NCoef="0" IVar="1" Cut="1.6756065673828125e+03" cType="1" res="7.6741306111216545e-03" rms="2.1021093428134918e-01" purity="4.6226629614830017e-01" nType="0">
          <Node pos="l" depth="2" NCoef="0" IVar="1" Cut="1.4918692626953125e+03" cType="1" res="-2.1076742559671402e-03" rms="1.1611642688512802e-01" purity="1.5528654679656029e-02" nType="0">
            <Node pos="l" depth="3" NCoef="0" IVar="-1" Cut="0.0000000000000000e+00" cType="1" res="9.3687109649181366e-02" rms="1.2488660216331482e-01" purity="1.6364315524697304e-02" nType="-99"/>
            <Node pos="r" depth="3" NCoef="0" IVar="-1" Cut="0.0000000000000000e+00" cType="1" res="-4.4580470770597458e-02" rms="1.0850356519222260e-01" purity="1.4903050847351551e-02" nType="-99"/>
          </Node>
          <Node pos="r" depth="2" NCoef="0" IVar="1" Cut="2.4630744628906250e+03" cType="1" res="1.3083177618682384e-02" rms="2.4715533852577209e-01" purity="7.0929896831512451e-01" nType="0">
            <Node pos="l" depth="3" NCoef="0" IVar="-1" Cut="0.0000000000000000e+00" cType="1" res="3.0311264097690582e-02" rms="3.3266592025756836e-01" purity="3.4689646959304810e-01" nType="-99"/>
            <Node pos="r" depth="3" NCoef="0" IVar="-1" Cut="0.0000000000000000e+00" cType="1" res="-2.6317357551306486e-03" rms="1.6276302933692932e-01" purity="9.5873516798019409e-01" nType="-99"/>
          </Node>
        </Node>
      </Node>
    </BinaryTree>
    <BinaryTree type="DecisionTree" boostWeight="1.0000000000000000e+00" itree="528">
      <Node pos="s" depth="0" NCoef="0" IVar="0" Cut="5.9407922363281250e+02" cType="1" res="-1.9453575368970633e-03" rms="1.8269017338752747e-01" purity="4.9977326393127441e-01" nType="0">
        <Node pos="l" depth="1" NCoef="0" IVar="6" Cut="1.8505690002441406e+02" cType="1" res="-5.3993747569620609e-03" rms="1.8158131837844849e-01" purity="9.2175558209419250e-02" nType="0">
          <Node pos="l" depth="2" NCoef="0" IVar="4" Cut="4.1371536254882812e+02" cType="1" res="-3.4314356744289398e-03" rms="1.6223064064979553e-01" purity="5.0069924443960190e-02" nType="0">
            <Node pos="l" depth="3" NCoef="0" IVar="-1" Cut="0.0000000000000000e+00" cType="1" res="-7.1928384713828564e-03" rms="1.3810034096240997e-01" purity="2.6741789653897285e-02" nType="-99"/>
            <Node pos="r" depth="3" NCoef="0" IVar="-1" Cut="0.0000000000000000e+00" cType="1" res="-1.7466211691498756e-02" rms="2.4984554946422577e-01" purity="1.6663351655006409e-01" nType="-99"/>
          </Node>
          <Node pos="r" depth="2" NCoef="0" IVar="-1" Cut="0.0000000000000000e+00" cType="1" res="-2.3037025704979897e-02" rms="3.0402553081512451e-01" purity="4.7068685293197632e-01" nType="-99"/>
        </Node>
        <Node pos="r" depth="1" NCoef="0" IVar="9" Cut="-9.3274658918380737e-01" cType="1" res="2.9859269852750003e-04" rms="1.8337209522724152e-01" purity="7.6457476615905762e-01" nType="0">
          <Node pos="l" depth="2" NCoef="0" IVar="4" Cut="4.4071246337890625e+02" cType="1" res="6.7804837599396706e-03" rms="2.0883709192276001e-01" purity="7.0401728153228760e-01" nType="0">
            <Node pos="l" depth="3" NCoef="0" IVar="-1" Cut="0.0000000000000000e+00" cType="1" res="2.4116171523928642e-02" rms="2.5452253222465515e-01" purity="4.1781046986579895e-01" nType="-99"/>
            <Node pos="r" depth="3" NCoef="0" IVar="-1" Cut="0.0000000000000000e+00" cType="1" res="-5.5185542441904545e-03" rms="1.5728926658630371e-01" purity="9.5726513862609863e-01" nType="-99"/>
          </Node>
          <Node pos="r" depth="2" NCoef="0" IVar="3" Cut="4.9879882812500000e+02" cType="1" res="-1.1470598401501775e-03" rms="1.7716190218925476e-01" purity="7.7808094024658203e-01" nType="0">
            <Node pos="l" depth="3" NCoef="0" IVar="-1" Cut="0.0000000000000000e+00" cType="1" res="-1.8509799614548683e-02" rms="2.2928474843502045e-01" purity="2.2010338306427002e-01" nType="-99"/>
            <Node pos="r" depth="3" NCoef="0" IVar="-1" Cut="0.0000000000000000e+00" cType="1" res="-1.5542589244432747e-04" rms="1.6983541846275330e-01" purity="8.4474050998687744e-01" nType="-99"/>
          </Node>
        </Node>
      </Node>
    </BinaryTree>
    <BinaryTree type="DecisionTree" boostWeight="1.0000000000000000e+00" itree="529">
      <Node pos="s" depth="0" NCoef="0" IVar="10" Cut="-3.9993038773536682e-01" cType="1" res="-3.3123989123851061e-04" rms="1.8410366773605347e-01" purity="5.0045084953308105e-01" nType="0">
        <Node pos="l" depth="1" NCoef="0" IVar="7" Cut="-1.3478190898895264e+00" cType="1" res="3.4413558896631002e-03" rms="1.9163180887699127e-01" purity="4.8825317621231079e-01" nType="0">
          <Node pos="l" depth="2" NCoef="0" IVar="-1" Cut="0.0000000000000000e+00" cType="1" res="5.8766871690750122e-02" rms="1.9432795047760010e-01" purity="1.5840095281600952e-01" nType="-99"/>
          <Node pos="r" depth="2" NCoef="0" IVar="6" Cut="8.9509948730468750e+01" cType="1" res="2.3494518827646971e-03" rms="1.9138419628143311e-01" purity="5.1287299394607544e-01" nType="0">
            <Node pos="l" depth="3" NCoef="0" IVar="-1" Cut="0.0000000000000000e+00" cType="1" res="-8.1252167001366615e-03" rms="1.7373131215572357e-01" purity="1.5665124356746674e-01" nType="-99"/>
            <Node pos="r" depth="3" NCoef="0" IVar="-1" Cut="0.0000000000000000e+00" cType="1" res="1.1778515763580799e-02" rms="1.9845713675022125e-01" purity="6.6620194911956787e-01" nType="-99"/>
          </Node>
        </Node>
        <Node pos="r" depth="1" NCoef="0" IVar="0" Cut="5.9425018310546875e+02" cType="1" res="-2.5866229552775621e-03" rms="1.7941443622112274e-01" purity="5.0774300098419189e-01" nType="0">
          <Node pos="l" depth="2" NCoef="0" IVar="5" Cut="2.5523123168945312e+02" cType="1" res="-7.1647879667580128e-03" rms="1.7649772763252258e-01" purity="9.2394113540649414e-02" nType="0">
            <Node pos="l" depth="3" NCoef="0" IVar="-1" Cut="0.0000000000000000e+00" cType="1" res="-9.3302167952060699e-03" rms="1.4603327214717865e-01" purity="3.0765401199460030e-02" nType="-99"/>
            <Node pos="r" depth="3" NCoef="0" IVar="-1" Cut="0.0000000000000000e+00" cType="1" res="-3.4067131578922272e-02" rms="2.8110376000404358e-01" purity="3.9715185761451721e-01" nType="-99"/>
          </Node>
          <Node pos="r" depth="2" NCoef="0" IVar="8" Cut="-6.6574454307556152e-01" cType="1" res="3.1591166043654084e-04" rms="1.8117940425872803e-01" purity="7.7107220888137817e-01" nType="0">
            <Node pos="l" depth="3" NCoef="0" IVar="-1" Cut="0.0000000000000000e+00" cType="1" res="2.3524817079305649e-02" rms="2.0502150058746338e-01" purity="7.5487864017486572e-01" nType="-99"/>
            <Node pos="r" depth="3" NCoef="0" IVar="-1" Cut="0.0000000000000000e+00" cType="1" res="-8.2790339365601540e-03" rms="1.7335867881774902e-01" purity="7.7588486671447754e-01" nType="-99"/>
          </Node>
        </Node>
      </Node>
    </BinaryTree>
    <BinaryTree type="DecisionTree" boostWeight="1.0000000000000000e+00" itree="530">
      <Node pos="s" depth="0" NCoef="0" IVar="10" Cut="1.9997637271881104e+00" cType="1" res="2.2902577184140682e-03" rms="1.8629273772239685e-01" purity="4.9733400344848633e-01" nType="0">
        <Node pos="l" depth="1" NCoef="0" IVar="4" Cut="3.3674563598632812e+02" cType="1" res="1.0309069184586406e-03" rms="1.8162345886230469e-01" purity="5.0429594516754150e-01" nType="0">
          <Node pos="l" depth="2" NCoef="0" IVar="9" Cut="1.3283796608448029e-01" cType="1" res="-3.2770277466624975e-03" rms="1.6940656304359436e-01" purity="9.1298878192901611e-02" nType="0">
            <Node pos="l" depth="3" NCoef="0" IVar="-1" Cut="0.0000000000000000e+00" cType="1" res="-2.5562075898051262e-02" rms="1.6110353171825409e-01" purity="8.7111927568912506e-02" nType="-99"/>
            <Node pos="r" depth="3" NCoef="0" IVar="-1" Cut="0.0000000000000000e+00" cType="1" res="5.8209295384585857e-03" rms="1.7843239009380341e-01" purity="9.6166722476482391e-02" nType="-99"/>
          </Node>
          <Node pos="r" depth="2" NCoef="0" IVar="0" Cut="5.9425018310546875e+02" cType="1" res="3.6662193015217781e-03" rms="1.8865896761417389e-01" purity="7.5694054365158081e-01" nType="0">
            <Node pos="l" depth="3" NCoef="0" IVar="-1" Cut="0.0000000000000000e+00" cType="1" res="1.7824169248342514e-02" rms="2.4989514052867889e-01" purity="2.2134165465831757e-01" nType="-99"/>
            <Node pos="r" depth="3" NCoef="0" IVar="-1" Cut="0.0000000000000000e+00" cType="1" res="4.2521255090832710e-03" rms="1.6288025677204132e-01" purity="9.3717879056930542e-01" nType="-99"/>
          </Node>
        </Node>
        <Node pos="r" depth="1" NCoef="0" IVar="-1" Cut="0.0000000000000000e+00" cType="1" res="4.5991417020559311e-02" rms="2.5840091705322266e-01" purity="3.6493632197380066e-01" nType="-99"/>
      </Node>
    </BinaryTree>
    <BinaryTree type="DecisionTree" boostWeight="1.0000000000000000e+00" itree="531">
      <Node pos="s" depth="0" NCoef="0" IVar="2" Cut="4.1792742908000946e-02" cType="1" res="1.9367074128240347e-03" rms="1.8836471438407898e-01" purity="4.9832668900489807e-01" nType="0">
        <Node pos="l" depth="1" NCoef="0" IVar="1" Cut="1.6755681152343750e+03" cType="1" res="4.8455265350639820e-03" rms="1.9779326021671295e-01" purity="3.2419955730438232e-01" nType="0">
          <Node pos="l" depth="2" NCoef="0" IVar="7" Cut="6.7276257276535034e-01" cType="1" res="-1.1029125889763236e-03" rms="8.3725772798061371e-02" purity="7.7099590562283993e-03" nType="0">
            <Node pos="l" depth="3" NCoef="0" IVar="-1" Cut="0.0000000000000000e+00" cType="1" res="1.3000625185668468e-02" rms="8.8617511093616486e-02" purity="8.5354708135128021e-03" nType="-99"/>
            <Node pos="r" depth="3" NCoef="0" IVar="-1" Cut="0.0000000000000000e+00" cType="1" res="-5.2842896431684494e-02" rms="7.1593783795833588e-02" purity="5.8933109976351261e-03" nType="-99"/>
          </Node>
          <Node pos="r" depth="2" NCoef="0" IVar="3" Cut="6.5336151123046875e+02" cType="1" res="9.2929126694798470e-03" rms="2.5116685032844543e-01" purity="5.6082493066787720e-01" nType="0">
            <Node pos="l" depth="3" NCoef="0" IVar="-1" Cut="0.0000000000000000e+00" cType="1" res="2.9379434883594513e-02" rms="3.0993172526359558e-01" purity="3.2697302103042603e-01" nType="-99"/>
            <Node pos="r" depth="3" NCoef="0" IVar="-1" Cut="0.0000000000000000e+00" cType="1" res="5.3351293317973614e-03" rms="2.2214856743812561e-01" purity="6.5720295906066895e-01" nType="-99"/>
          </Node>
        </Node>
        <Node pos="r" depth="1" NCoef="0" IVar="9" Cut="-6.6414916515350342e-01" cType="1" res="-1.5636725584045053e-03" rms="1.7628803849220276e-01" purity="7.0786577463150024e-01" nType="0">
          <Node pos="l" depth="2" NCoef="0" IVar="3" Cut="5.9223974609375000e+02" cType="1" res="7.1261227130889893e-03" rms="1.9286923110485077e-01" purity="6.8305683135986328e-01" nType="0">
            <Node pos="l" depth="3" NCoef="0" IVar="-1" Cut="0.0000000000000000e+00" cType="1" res="3.6676537245512009e-02" rms="2.4454462528228760e-01" purity="2.8231823444366455e-01" nType="-99"/>
            <Node pos="r" depth="3" NCoef="0" IVar="-1" Cut="0.0000000000000000e+00" cType="1" res="1.9800181034952402e-03" rms="1.5720528364181519e-01" purity="9.0221577882766724e-01" nType="-99"/>
          </Node>
          <Node pos="r" depth="2" NCoef="0" IVar="1" Cut="2.9976474609375000e+03" cType="1" res="-4.8844986595213413e-03" rms="1.6940604150295258e-01" purity="7.1734654903411865e-01" nType="0">
            <Node pos="l" depth="3" NCoef="0" IVar="-1" Cut="0.0000000000000000e+00" cType="1" res="-1.7818564549088478e-02" rms="2.3375684022903442e-01" purity="4.3019360303878784e-01" nType="-99"/>
            <Node pos="r" depth="3" NCoef="0" IVar="-1" Cut="0.0000000000000000e+00" cType="1" res="2.1544599439948797e-03" rms="5.8585319668054581e-02" purity="9.9644589424133301e-01" nType="-99"/>
          </Node>
        </Node>
      </Node>
    </BinaryTree>
    <BinaryTree type="DecisionTree" boostWeight="1.0000000000000000e+00" itree="532">
      <Node pos="s" depth="0" NCoef="0" IVar="6" Cut="1.3441847229003906e+02" cType="1" res="-2.9629276832565665e-04" rms="1.8566927313804626e-01" purity="4.9603828787803650e-01" nType="0">
        <Node pos="l" depth="1" NCoef="0" IVar="6" Cut="7.4119316101074219e+01" cType="1" res="1.7863397952169180e-03" rms="1.9006708264350891e-01" purity="2.2355380654335022e-01" nType="0">
          <Node pos="l" depth="2" NCoef="0" IVar="1" Cut="1.6755983886718750e+03" cType="1" res="-3.9287400431931019e-03" rms="1.5520784258842468e-01" purity="1.3385599851608276e-01" nType="0">
            <Node pos="l" depth="3" NCoef="0" IVar="-1" Cut="0.0000000000000000e+00" cType="1" res="5.9749754145741463e-03" rms="7.2044387459754944e-02" purity="5.8216685429215431e-03" nType="-99"/>
            <Node pos="r" depth="3" NCoef="0" IVar="-1" Cut="0.0000000000000000e+00" cType="1" res="-1.6700152307748795e-02" rms="2.2473235428333282e-01" purity="3.1321886181831360e-01" nType="-99"/>
          </Node>
          <Node pos="r" depth="2" NCoef="0" IVar="1" Cut="1.6503701171875000e+03" cType="1" res="5.2499268203973770e-03" rms="2.0829801261425018e-01" purity="2.7791458368301392e-01" nType="0">
            <Node pos="l" depth="3" NCoef="0" IVar="-1" Cut="0.0000000000000000e+00" cType="1" res="-2.5152636226266623e-03" rms="9.4779849052429199e-02" purity="1.0089723393321037e-02" nType="-99"/>
            <Node pos="r" depth="3" NCoef="0" IVar="-1" Cut="0.0000000000000000e+00" cType="1" res="1.3509354554116726e-02" rms="2.6776164770126343e-01" purity="4.9863341450691223e-01" nType="-99"/>
          </Node>
        </Node>
        <Node pos="r" depth="1" NCoef="0" IVar="5" Cut="1.8749726867675781e+02" cType="1" res="-2.5981718208640814e-03" rms="1.8065606057643890e-01" purity="7.9720818996429443e-01" nType="0">
          <Node pos="l" depth="2" NCoef="0" IVar="-1" Cut="0.0000000000000000e+00" cType="1" res="-3.1602233648300171e-02" rms="2.0705455541610718e-01" purity="2.3148784041404724e-01" nType="-99"/>
          <Node pos="r" depth="2" NCoef="0" IVar="1" Cut="1.9512071533203125e+03" cType="1" res="-1.4173927484080195e-03" rms="1.7809674143791199e-01" purity="8.4700548648834229e-01" nType="0">
            <Node pos="l" depth="3" NCoef="0" IVar="-1" Cut="0.0000000000000000e+00" cType="1" res="1.8859902396798134e-02" rms="2.5903710722923279e-01" purity="1.0264262557029724e-01" nType="-99"/>
            <Node pos="r" depth="3" NCoef="0" IVar="-1" Cut="0.0000000000000000e+00" cType="1" res="-1.2460122816264629e-02" rms="1.6371938586235046e-01" purity="9.4979631900787354e-01" nType="-99"/>
          </Node>
        </Node>
      </Node>
    </BinaryTree>
    <BinaryTree type="DecisionTree" boostWeight="1.0000000000000000e+00" itree="533">
      <Node pos="s" depth="0" NCoef="0" IVar="9" Cut="1.9997105598449707e+00" cType="1" res="-7.9239765182137489e-04" rms="1.8650975823402405e-01" purity="4.9668011069297791e-01" nType="0">
        <Node pos="l" depth="1" NCoef="0" IVar="10" Cut="-1.9999693632125854e+00" cType="1" res="-2.4652626598253846e-04" rms="1.8584583699703217e-01" purity="5.0661945343017578e-01" nType="0">
          <Node pos="l" depth="2" NCoef="0" IVar="-1" Cut="0.0000000000000000e+00" cType="1" res="2.3693202063441277e-02" rms="2.3026543855667114e-01" purity="4.0210869908332825e-01" nType="-99"/>
          <Node pos="r" depth="2" NCoef="0" IVar="9" Cut="1.3138763904571533e+00" cType="1" res="-9.4455422367900610e-04" rms="1.8313737213611603e-01" purity="5.1221603155136108e-01" nType="0">
            <Node pos="l" depth="3" NCoef="0" IVar="-1" Cut="0.0000000000000000e+00" cType="1" res="-5.5697043426334858e-03" rms="1.7916338145732880e-01" purity="5.2146089076995850e-01" nType="-99"/>
            <Node pos="r" depth="3" NCoef="0" IVar="-1" Cut="0.0000000000000000e+00" cType="1" res="1.9057394936680794e-02" rms="2.1887144446372986e-01" purity="4.1937428712844849e-01" nType="-99"/>
          </Node>
        </Node>
        <Node pos="r" depth="1" NCoef="0" IVar="-1" Cut="0.0000000000000000e+00" cType="1" res="-3.7709720432758331e-02" rms="2.0546251535415649e-01" purity="1.8591286242008209e-01" nType="-99"/>
      </Node>
    </BinaryTree>
    <BinaryTree type="DecisionTree" boostWeight="1.0000000000000000e+00" itree="534">
      <Node pos="s" depth="0" NCoef="0" IVar="4" Cut="3.2578622436523438e+02" cType="1" res="-1.7003723187372088e-03" rms="1.8245354294776917e-01" purity="4.9373766779899597e-01" nType="0">
        <Node pos="l" depth="1" NCoef="0" IVar="5" Cut="2.0723873901367188e+02" cType="1" res="-5.1772906444966793e-03" rms="1.6408887505531311e-01" purity="8.3330169320106506e-02" nType="0">
          <Node pos="l" depth="2" NCoef="0" IVar="1" Cut="1.6355220947265625e+03" cType="1" res="-2.3635379038751125e-03" rms="1.4096418023109436e-01" purity="4.5610796660184860e-02" nType="0">
            <Node pos="l" depth="3" NCoef="0" IVar="-1" Cut="0.0000000000000000e+00" cType="1" res="1.0990881361067295e-02" rms="8.3206094801425934e-02" purity="7.6502324081957340e-03" nType="-99"/>
            <Node pos="r" depth="3" NCoef="0" IVar="-1" Cut="0.0000000000000000e+00" cType="1" res="-1.6064586117863655e-02" rms="2.1721068024635315e-01" purity="1.2586149573326111e-01" nType="-99"/>
          </Node>
          <Node pos="r" depth="2" NCoef="0" IVar="8" Cut="-4.0344959497451782e-01" cType="1" res="-1.5773296356201172e-02" rms="2.3097172379493713e-01" purity="2.2537346184253693e-01" nType="0">
            <Node pos="l" depth="3" NCoef="0" IVar="-1" Cut="0.0000000000000000e+00" cType="1" res="-5.5709485895931721e-03" rms="2.5412756204605103e-01" purity="2.4353575706481934e-01" nType="-99"/>
            <Node pos="r" depth="3" NCoef="0" IVar="-1" Cut="0.0000000000000000e+00" cType="1" res="-4.0202315896749496e-02" rms="2.1588364243507385e-01" purity="2.1469308435916901e-01" nType="-99"/>
          </Node>
        </Node>
        <Node pos="r" depth="1" NCoef="0" IVar="8" Cut="-1.1996667385101318e+00" cType="1" res="3.1006793142296374e-04" rms="1.9224508106708527e-01" purity="7.3104548454284668e-01" nType="0">
          <Node pos="l" depth="2" NCoef="0" IVar="-1" Cut="0.0000000000000000e+00" cType="1" res="-2.5755692273378372e-02" rms="2.2481268644332886e-01" purity="5.1831477880477905e-01" nType="-99"/>
          <Node pos="r" depth="2" NCoef="0" IVar="3" Cut="4.5594848632812500e+02" cType="1" res="1.5209538396447897e-03" rms="1.8901258707046509e-01" purity="7.5006777048110962e-01" nType="0">
            <Node pos="l" depth="3" NCoef="0" IVar="-1" Cut="0.0000000000000000e+00" cType="1" res="2.6762228459119797e-02" rms="2.5611448287963867e-01" purity="2.0453177392482758e-01" nType="-99"/>
            <Node pos="r" depth="3" NCoef="0" IVar="-1" Cut="0.0000000000000000e+00" cType="1" res="1.0296509135514498e-03" rms="1.8265926837921143e-01" purity="7.9285621643066406e-01" nType="-99"/>
          </Node>
        </Node>
      </Node>
    </BinaryTree>
    <BinaryTree type="DecisionTree" boostWeight="1.0000000000000000e+00" itree="535">
      <Node pos="s" depth="0" NCoef="0" IVar="3" Cut="6.3722503662109375e+02" cType="1" res="5.8585166698321700e-04" rms="1.8128006160259247e-01" purity="5.0183534622192383e-01" nType="0">
        <Node pos="l" depth="1" NCoef="0" IVar="4" Cut="3.8559814453125000e+02" cType="1" res="-2.7736159972846508e-03" rms="1.8997380137443542e-01" purity="1.8606002628803253e-01" nType="0">
          <Node pos="l" depth="2" NCoef="0" IVar="10" Cut="-1.7332650423049927e+00" cType="1" res="-3.7277300725691020e-04" rms="1.7686431109905243e-01" purity="7.8751109540462494e-02" nType="0">
            <Node pos="l" depth="3" NCoef="0" IVar="-1" Cut="0.0000000000000000e+00" cType="1" res="3.4477017819881439e-02" rms="2.3820123076438904e-01" purity="1.2013270705938339e-01" nType="-99"/>
            <Node pos="r" depth="3" NCoef="0" IVar="-1" Cut="0.0000000000000000e+00" cType="1" res="-6.8268245086073875e-03" rms="1.6875876486301422e-01" purity="7.4251294136047363e-02" nType="-99"/>
          </Node>
          <Node pos="r" depth="2" NCoef="0" IVar="6" Cut="9.9137313842773438e+01" cType="1" res="-9.9698696285486221e-03" rms="2.2457870841026306e-01" purity="5.0770634412765503e-01" nType="0">
            <Node pos="l" depth="3" NCoef="0" IVar="-1" Cut="0.0000000000000000e+00" cType="1" res="-5.9040896594524384e-02" rms="1.8658114969730377e-01" purity="8.6512252688407898e-02" nType="-99"/>
            <Node pos="r" depth="3" NCoef="0" IVar="-1" Cut="0.0000000000000000e+00" cType="1" res="-3.4499745815992355e-03" rms="2.4166257679462433e-01" purity="7.2719991207122803e-01" nType="-99"/>
          </Node>
        </Node>
        <Node pos="r" depth="1" NCoef="0" IVar="10" Cut="1.7330766916275024e+00" cType="1" res="3.3142408356070518e-03" rms="1.7385214567184448e-01" purity="7.5829201936721802e-01" nType="0">
          <Node pos="l" depth="2" NCoef="0" IVar="4" Cut="3.2550106811523438e+02" cType="1" res="2.2428175434470177e-03" rms="1.6941100358963013e-01" purity="7.6595395803451538e-01" nType="0">
            <Node pos="l" depth="3" NCoef="0" IVar="-1" Cut="0.0000000000000000e+00" cType="1" res="-1.3273226097226143e-02" rms="1.9036616384983063e-01" purity="1.8317833542823792e-01" nType="-99"/>
            <Node pos="r" depth="3" NCoef="0" IVar="-1" Cut="0.0000000000000000e+00" cType="1" res="1.3300812803208828e-02" rms="1.6481870412826538e-01" purity="8.8337767124176025e-01" nType="-99"/>
          </Node>
          <Node pos="r" depth="2" NCoef="0" IVar="-1" Cut="0.0000000000000000e+00" cType="1" res="3.2719213515520096e-02" rms="2.2390268743038177e-01" purity="6.5715396404266357e-01" nType="-99"/>
        </Node>
      </Node>
    </BinaryTree>
    <BinaryTree type="DecisionTree" boostWeight="1.0000000000000000e+00" itree="536">
      <Node pos="s" depth="0" NCoef="0" IVar="10" Cut="2.2665882110595703e+00" cType="1" res="6.0742080677300692e-04" rms="1.8345928192138672e-01" purity="4.9933373928070068e-01" nType="0">
        <Node pos="l" depth="1" NCoef="0" IVar="7" Cut="-1.1203227043151855e+00" cType="1" res="1.0605051647871733e-03" rms="1.8165430426597595e-01" purity="5.0435078144073486e-01" nType="0">
          <Node pos="l" depth="2" NCoef="0" IVar="2" Cut="1.1606398038566113e-02" cType="1" res="9.4166044145822525e-03" rms="1.9747032225131989e-01" purity="2.1710908412933350e-01" nType="0">
            <Node pos="l" depth="3" NCoef="0" IVar="-1" Cut="0.0000000000000000e+00" cType="1" res="-1.6232306137681007e-02" rms="1.4040583372116089e-01" purity="6.3571140170097351e-02" nType="-99"/>
            <Node pos="r" depth="3" NCoef="0" IVar="-1" Cut="0.0000000000000000e+00" cType="1" res="4.2756404727697372e-02" rms="2.3627358675003052e-01" purity="3.5334441065788269e-01" nType="-99"/>
          </Node>
          <Node pos="r" depth="2" NCoef="0" IVar="5" Cut="1.6365316772460938e+02" cType="1" res="1.7955387011170387e-04" rms="1.7988325655460358e-01" purity="5.3463357686996460e-01" nType="0">
            <Node pos="l" depth="3" NCoef="0" IVar="-1" Cut="0.0000000000000000e+00" cType="1" res="-1.5152063220739365e-02" rms="1.4853264391422272e-01" purity="7.6818458735942841e-02" nType="-99"/>
            <Node pos="r" depth="3" NCoef="0" IVar="-1" Cut="0.0000000000000000e+00" cType="1" res="4.5817149803042412e-03" rms="1.9077831506729126e-01" purity="7.1458864212036133e-01" nType="-99"/>
          </Node>
        </Node>
        <Node pos="r" depth="1" NCoef="0" IVar="-1" Cut="0.0000000000000000e+00" cType="1" res="-3.0423320829868317e-02" rms="2.4240154027938843e-01" purity="3.0585744976997375e-01" nType="-99"/>
      </Node>
    </BinaryTree>
    <BinaryTree type="DecisionTree" boostWeight="1.0000000000000000e+00" itree="537">
      <Node pos="s" depth="0" NCoef="0" IVar="8" Cut="4.0004292130470276e-01" cType="1" res="2.5072006974369287e-04" rms="1.8447202444076538e-01" purity="5.0092077255249023e-01" nType="0">
        <Node pos="l" depth="1" NCoef="0" IVar="5" Cut="2.9724734497070312e+02" cType="1" res="2.0843173842877150e-03" rms="1.8396741151809692e-01" purity="5.2882343530654907e-01" nType="0">
          <Node pos="l" depth="2" NCoef="0" IVar="6" Cut="1.7899063110351562e+02" cType="1" res="4.9035940319299698e-03" rms="2.0468729734420776e-01" purity="2.5180447101593018e-01" nType="0">
            <Node pos="l" depth="3" NCoef="0" IVar="-1" Cut="0.0000000000000000e+00" cType="1" res="8.1335529685020447e-03" rms="1.9777011871337891e-01" purity="1.8707761168479919e-01" nType="-99"/>
            <Node pos="r" depth="3" NCoef="0" IVar="-1" Cut="0.0000000000000000e+00" cType="1" res="2.8643924742937088e-02" rms="2.4837926030158997e-01" purity="7.1634906530380249e-01" nType="-99"/>
          </Node>
          <Node pos="r" depth="2" NCoef="0" IVar="2" Cut="8.1917904317378998e-02" cType="1" res="-2.1215588785707951e-03" rms="1.4765141904354095e-01" purity="9.4208812713623047e-01" nType="0">
            <Node pos="l" depth="3" NCoef="0" IVar="-1" Cut="0.0000000000000000e+00" cType="1" res="-1.9397027790546417e-02" rms="1.6801248490810394e-01" purity="9.1576683521270752e-01" nType="-99"/>
            <Node pos="r" depth="3" NCoef="0" IVar="-1" Cut="0.0000000000000000e+00" cType="1" res="1.4908432960510254e-02" rms="1.1640761047601700e-01" purity="9.7575354576110840e-01" nType="-99"/>
          </Node>
        </Node>
        <Node pos="r" depth="1" NCoef="0" IVar="7" Cut="-9.2810893058776855e-01" cType="1" res="-3.2621908467262983e-03" rms="1.8538433313369751e-01" purity="4.4746333360671997e-01" nType="0">
          <Node pos="l" depth="2" NCoef="0" IVar="-1" Cut="0.0000000000000000e+00" cType="1" res="-4.3294530361890793e-02" rms="1.7366661131381989e-01" purity="1.6512759029865265e-01" nType="-99"/>
          <Node pos="r" depth="2" NCoef="0" IVar="3" Cut="4.6480673217773438e+02" cType="1" res="-1.4469918096438050e-03" rms="1.8725034594535828e-01" purity="4.9564227461814880e-01" nType="0">
            <Node pos="l" depth="3" NCoef="0" IVar="-1" Cut="0.0000000000000000e+00" cType="1" res="-2.9097100719809532e-02" rms="1.7963100969791412e-01" purity="6.7253857851028442e-02" nType="-99"/>
            <Node pos="r" depth="3" NCoef="0" IVar="-1" Cut="0.0000000000000000e+00" cType="1" res="2.0428614225238562e-03" rms="1.8874399363994598e-01" purity="5.8599126338958740e-01" nType="-99"/>
          </Node>
        </Node>
      </Node>
    </BinaryTree>
    <BinaryTree type="DecisionTree" boostWeight="1.0000000000000000e+00" itree="538">
      <Node pos="s" depth="0" NCoef="0" IVar="8" Cut="1.4667034149169922e+00" cType="1" res="-9.4772415468469262e-04" rms="1.8535168468952179e-01" purity="5.0112903118133545e-01" nType="0">
        <Node pos="l" depth="1" NCoef="0" IVar="2" Cut="1.2286738306283951e-01" cType="1" res="-1.8104008631780744e-03" rms="1.8214300274848938e-01" purity="5.2111101150512695e-01" nType="0">
          <Node pos="l" depth="2" NCoef="0" IVar="3" Cut="5.0121987915039062e+02" cType="1" res="-3.0372447799891233e-03" rms="1.8626427650451660e-01" purity="4.6656742691993713e-01" nType="0">
            <Node pos="l" depth="3" NCoef="0" IVar="-1" Cut="0.0000000000000000e+00" cType="1" res="-2.2638749331235886e-02" rms="1.8162265419960022e-01" purity="7.7864982187747955e-02" nType="-99"/>
            <Node pos="r" depth="3" NCoef="0" IVar="-1" Cut="0.0000000000000000e+00" cType="1" res="-3.7805773317813873e-03" rms="1.8761333823204041e-01" purity="5.8412325382232666e-01" nType="-99"/>
          </Node>
          <Node pos="r" depth="2" NCoef="0" IVar="5" Cut="2.4769499206542969e+02" cType="1" res="5.3310394287109375e-03" rms="1.5581482648849487e-01" purity="8.3860844373703003e-01" nType="0">
            <Node pos="l" depth="3" NCoef="0" IVar="-1" Cut="0.0000000000000000e+00" cType="1" res="3.2995879650115967e-02" rms="2.4547441303730011e-01" purity="3.6770522594451904e-01" nType="-99"/>
            <Node pos="r" depth="3" NCoef="0" IVar="-1" Cut="0.0000000000000000e+00" cType="1" res="1.4594901353120804e-02" rms="1.2344738841056824e-01" purity="9.5625990629196167e-01" nType="-99"/>
          </Node>
        </Node>
        <Node pos="r" depth="1" NCoef="0" IVar="1" Cut="1.8403937988281250e+03" cType="1" res="9.9218524992465973e-03" rms="2.2155155241489410e-01" purity="2.4935886263847351e-01" nType="0">
          <Node pos="l" depth="2" NCoef="0" IVar="-1" Cut="0.0000000000000000e+00" cType="1" res="-1.0850386694073677e-02" rms="1.2857528030872345e-01" purity="1.9106287509202957e-02" nType="-99"/>
          <Node pos="r" depth="2" NCoef="0" IVar="-1" Cut="0.0000000000000000e+00" cType="1" res="3.3916495740413666e-02" rms="3.2925888895988464e-01" purity="6.7427819967269897e-01" nType="-99"/>
        </Node>
      </Node>
    </BinaryTree>
    <BinaryTree type="DecisionTree" boostWeight="1.0000000000000000e+00" itree="539">
      <Node pos="s" depth="0" NCoef="0" IVar="10" Cut="1.9999800920486450e+00" cType="1" res="3.1929515535011888e-04" rms="1.8585389852523804e-01" purity="5.0025767087936401e-01" nType="0">
        <Node pos="l" depth="1" NCoef="0" IVar="0" Cut="7.0334545898437500e+02" cType="1" res="1.0779431322589517e-03" rms="1.8443873524665833e-01" purity="5.0790309906005859e-01" nType="0">
          <Node pos="l" depth="2" NCoef="0" IVar="1" Cut="1.6574425048828125e+03" cType="1" res="4.1717095300555229e-03" rms="2.0056965947151184e-01" purity="1.6732208430767059e-01" nType="0">
            <Node pos="l" depth="3" NCoef="0" IVar="-1" Cut="0.0000000000000000e+00" cType="1" res="3.2332586124539375e-04" rms="9.4496197998523712e-02" purity="9.6536101773381233e-03" nType="-99"/>
            <Node pos="r" depth="3" NCoef="0" IVar="-1" Cut="0.0000000000000000e+00" cType="1" res="1.1902425438165665e-02" rms="2.8301289677619934e-01" purity="3.6841043829917908e-01" nType="-99"/>
          </Node>
          <Node pos="r" depth="2" NCoef="0" IVar="1" Cut="2.5217724609375000e+03" cType="1" res="-2.1427103783935308e-03" rms="1.6592785716056824e-01" purity="8.6245274543762207e-01" nType="0">
            <Node pos="l" depth="3" NCoef="0" IVar="-1" Cut="0.0000000000000000e+00" cType="1" res="-1.3969858177006245e-02" rms="2.8543147444725037e-01" purity="2.8582787513732910e-01" nType="-99"/>
            <Node pos="r" depth="3" NCoef="0" IVar="-1" Cut="0.0000000000000000e+00" cType="1" res="-1.3369353255257010e-03" rms="1.2969285249710083e-01" purity="9.7672772407531738e-01" nType="-99"/>
          </Node>
        </Node>
        <Node pos="r" depth="1" NCoef="0" IVar="-1" Cut="0.0000000000000000e+00" cType="1" res="-2.8604570776224136e-02" rms="2.1033221483230591e-01" purity="3.5559937357902527e-01" nType="-99"/>
      </Node>
    </BinaryTree>
    <BinaryTree type="DecisionTree" boostWeight="1.0000000000000000e+00" itree="540">
      <Node pos="s" depth="0" NCoef="0" IVar="5" Cut="2.0841720581054688e+02" cType="1" res="1.1437847279012203e-03" rms="1.8953199684619904e-01" purity="5.0516051054000854e-01" nType="0">
        <Node pos="l" depth="1" NCoef="0" IVar="5" Cut="1.9334217834472656e+02" cType="1" res="4.7970078885555267e-03" rms="1.8911410868167877e-01" purity="1.2487226724624634e-01" nType="0">
          <Node pos="l" depth="2" NCoef="0" IVar="7" Cut="1.4901276826858521e+00" cType="1" res="2.2239275276660919e-03" rms="1.7746204137802124e-01" purity="1.0731679946184158e-01" nType="0">
            <Node pos="l" depth="3" NCoef="0" IVar="-1" Cut="0.0000000000000000e+00" cType="1" res="1.8416799139231443e-03" rms="1.7592352628707886e-01" purity="1.1091906577348709e-01" nType="-99"/>
            <Node pos="r" depth="3" NCoef="0" IVar="-1" Cut="0.0000000000000000e+00" cType="1" res="1.3639840483665466e-01" rms="1.9626709818840027e-01" purity="5.6977141648530960e-02" nType="-99"/>
          </Node>
          <Node pos="r" depth="2" NCoef="0" IVar="-1" Cut="0.0000000000000000e+00" cType="1" res="4.7452107071876526e-02" rms="2.7098095417022705e-01" purity="2.8210970759391785e-01" nType="-99"/>
        </Node>
        <Node pos="r" depth="1" NCoef="0" IVar="10" Cut="-1.2000089883804321e+00" cType="1" res="-1.6823484329506755e-03" rms="1.8980641663074493e-01" purity="7.9935157299041748e-01" nType="0">
          <Node pos="l" depth="2" NCoef="0" IVar="-1" Cut="0.0000000000000000e+00" cType="1" res="-2.9370594769716263e-02" rms="2.1123665571212769e-01" purity="7.5529956817626953e-01" nType="-99"/>
          <Node pos="r" depth="2" NCoef="0" IVar="0" Cut="4.3886126708984375e+02" cType="1" res="4.4452215661294758e-04" rms="1.8559893965721130e-01" purity="8.0729579925537109e-01" nType="0">
            <Node pos="l" depth="3" NCoef="0" IVar="-1" Cut="0.0000000000000000e+00" cType="1" res="3.9101395756006241e-02" rms="2.2867821156978607e-01" purity="9.1363385319709778e-02" nType="-99"/>
            <Node pos="r" depth="3" NCoef="0" IVar="-1" Cut="0.0000000000000000e+00" cType="1" res="-4.8935068771243095e-03" rms="1.7981939017772675e-01" purity="8.9030873775482178e-01" nType="-99"/>
          </Node>
        </Node>
      </Node>
    </BinaryTree>
    <BinaryTree type="DecisionTree" boostWeight="1.0000000000000000e+00" itree="541">
      <Node pos="s" depth="0" NCoef="0" IVar="9" Cut="1.9998311996459961e+00" cType="1" res="-1.1500290129333735e-03" rms="1.8588812649250031e-01" purity="4.9812525510787964e-01" nType="0">
        <Node pos="l" depth="1" NCoef="0" IVar="9" Cut="-5.6972879916429520e-02" cType="1" res="-1.8182714702561498e-03" rms="1.8384476006031036e-01" purity="5.0674617290496826e-01" nType="0">
          <Node pos="l" depth="2" NCoef="0" IVar="10" Cut="9.3337708711624146e-01" cType="1" res="1.3414493296295404e-03" rms="1.8722091615200043e-01" purity="4.9977916479110718e-01" nType="0">
            <Node pos="l" depth="3" NCoef="0" IVar="-1" Cut="0.0000000000000000e+00" cType="1" res="8.0035058781504631e-03" rms="1.8385694921016693e-01" purity="5.0177729129791260e-01" nType="-99"/>
            <Node pos="r" depth="3" NCoef="0" IVar="-1" Cut="0.0000000000000000e+00" cType="1" res="-9.2451628297567368e-03" rms="1.9872404634952545e-01" purity="4.9262088537216187e-01" nType="-99"/>
          </Node>
          <Node pos="r" depth="2" NCoef="0" IVar="7" Cut="-6.1666572093963623e-01" cType="1" res="-4.9797627143561840e-03" rms="1.8034808337688446e-01" purity="5.1371705532073975e-01" nType="0">
            <Node pos="l" depth="3" NCoef="0" IVar="-1" Cut="0.0000000000000000e+00" cType="1" res="6.4720315858721733e-03" rms="2.0687288045883179e-01" purity="3.9042335748672485e-01" nType="-99"/>
            <Node pos="r" depth="3" NCoef="0" IVar="-1" Cut="0.0000000000000000e+00" cType="1" res="-2.1938245743513107e-02" rms="1.7246028780937195e-01" purity="5.4689121246337891e-01" nType="-99"/>
          </Node>
        </Node>
        <Node pos="r" depth="1" NCoef="0" IVar="-1" Cut="0.0000000000000000e+00" cType="1" res="3.1009951606392860e-02" rms="2.3562432825565338e-01" purity="2.5469738245010376e-01" nType="-99"/>
      </Node>
    </BinaryTree>
    <BinaryTree type="DecisionTree" boostWeight="1.0000000000000000e+00" itree="542">
      <Node pos="s" depth="0" NCoef="0" IVar="10" Cut="2.2666480541229248e+00" cType="1" res="-9.8519469611346722e-04" rms="1.8327100574970245e-01" purity="4.9775561690330505e-01" nType="0">
        <Node pos="l" depth="1" NCoef="0" IVar="8" Cut="-3.9996284246444702e-01" cType="1" res="-1.4896808424964547e-03" rms="1.8051993846893311e-01" purity="5.0217700004577637e-01" nType="0">
          <Node pos="l" depth="2" NCoef="0" IVar="10" Cut="-6.2847793102264404e-01" cType="1" res="-4.7459420748054981e-03" rms="1.8225897848606110e-01" purity="4.5506936311721802e-01" nType="0">
            <Node pos="l" depth="3" NCoef="0" IVar="-1" Cut="0.0000000000000000e+00" cType="1" res="1.1220423039048910e-03" rms="1.9271065294742584e-01" purity="3.8730266690254211e-01" nType="-99"/>
            <Node pos="r" depth="3" NCoef="0" IVar="-1" Cut="0.0000000000000000e+00" cType="1" res="-2.2689443081617355e-02" rms="1.7620876431465149e-01" purity="4.9217978119850159e-01" nType="-99"/>
          </Node>
          <Node pos="r" depth="2" NCoef="0" IVar="10" Cut="-3.8729733228683472e-01" cType="1" res="2.2969284327700734e-04" rms="1.7957109212875366e-01" purity="5.2705091238021851e-01" nType="0">
            <Node pos="l" depth="3" NCoef="0" IVar="-1" Cut="0.0000000000000000e+00" cType="1" res="-9.0475352481007576e-03" rms="1.8248404562473297e-01" purity="5.3130877017974854e-01" nType="-99"/>
            <Node pos="r" depth="3" NCoef="0" IVar="-1" Cut="0.0000000000000000e+00" cType="1" res="7.4134860187768936e-03" rms="1.7778259515762329e-01" purity="5.2452111244201660e-01" nType="-99"/>
          </Node>
        </Node>
        <Node pos="r" depth="1" NCoef="0" IVar="-1" Cut="0.0000000000000000e+00" cType="1" res="3.2743539661169052e-02" rms="2.6635134220123291e-01" purity="3.3108898997306824e-01" nType="-99"/>
      </Node>
    </BinaryTree>
    <BinaryTree type="DecisionTree" boostWeight="1.0000000000000000e+00" itree="543">
      <Node pos="s" depth="0" NCoef="0" IVar="8" Cut="1.7334861755371094e+00" cType="1" res="-7.3692412115633488e-05" rms="1.8430134654045105e-01" purity="4.9471452832221985e-01" nType="0">
        <Node pos="l" depth="1" NCoef="0" IVar="5" Cut="2.4726840209960938e+02" cType="1" res="-7.7572045847773552e-04" rms="1.8173189461231232e-01" purity="5.0898689031600952e-01" nType="0">
          <Node pos="l" depth="2" NCoef="0" IVar="7" Cut="-6.5663367509841919e-01" cType="1" res="-4.4657406397163868e-03" rms="1.8497197329998016e-01" purity="1.6444995999336243e-01" nType="0">
            <Node pos="l" depth="3" NCoef="0" IVar="-1" Cut="0.0000000000000000e+00" cType="1" res="-4.0876049548387527e-02" rms="1.5889699757099152e-01" purity="8.5642293095588684e-02" nType="-99"/>
            <Node pos="r" depth="3" NCoef="0" IVar="-1" Cut="0.0000000000000000e+00" cType="1" res="-4.7690887004137039e-03" rms="1.9266451895236969e-01" purity="1.9021742045879364e-01" nType="-99"/>
          </Node>
          <Node pos="r" depth="2" NCoef="0" IVar="0" Cut="5.7769378662109375e+02" cType="1" res="3.1954622827470303e-03" rms="1.7809373140335083e-01" purity="8.7977594137191772e-01" nType="0">
            <Node pos="l" depth="3" NCoef="0" IVar="-1" Cut="0.0000000000000000e+00" cType="1" res="2.0391963422298431e-02" rms="3.1595745682716370e-01" purity="3.6765652894973755e-01" nType="-99"/>
            <Node pos="r" depth="3" NCoef="0" IVar="-1" Cut="0.0000000000000000e+00" cType="1" res="1.2097596190869808e-03" rms="1.4147973060607910e-01" purity="9.6730470657348633e-01" nType="-99"/>
          </Node>
        </Node>
        <Node pos="r" depth="1" NCoef="0" IVar="-1" Cut="0.0000000000000000e+00" cType="1" res="3.7310920655727386e-02" rms="2.3425292968750000e-01" purity="1.7348395287990570e-01" nType="-99"/>
      </Node>
    </BinaryTree>
    <BinaryTree type="DecisionTree" boostWeight="1.0000000000000000e+00" itree="544">
      <Node pos="s" depth="0" NCoef="0" IVar="9" Cut="1.4663894176483154e+00" cType="1" res="-1.4818797353655100e-03" rms="1.8189340829849243e-01" purity="4.9391642212867737e-01" nType="0">
        <Node pos="l" depth="1" NCoef="0" IVar="10" Cut="1.9999411106109619e+00" cType="1" res="-5.8595091104507446e-04" rms="1.7906519770622253e-01" purity="5.1040673255920410e-01" nType="0">
          <Node pos="l" depth="2" NCoef="0" IVar="9" Cut="1.2632006406784058e+00" cType="1" res="7.7867734944447875e-06" rms="1.7748016119003296e-01" purity="5.1777976751327515e-01" nType="0">
            <Node pos="l" depth="3" NCoef="0" IVar="-1" Cut="0.0000000000000000e+00" cType="1" res="-1.7222216119989753e-03" rms="1.7614173889160156e-01" purity="5.1948994398117065e-01" nType="-99"/>
            <Node pos="r" depth="3" NCoef="0" IVar="-1" Cut="0.0000000000000000e+00" cType="1" res="3.2846171408891678e-02" rms="2.0650742948055267e-01" purity="4.7678953409194946e-01" nType="-99"/>
          </Node>
          <Node pos="r" depth="2" NCoef="0" IVar="-1" Cut="0.0000000000000000e+00" cType="1" res="-2.8977427631616592e-02" rms="2.0813307166099548e-01" purity="3.6160418391227722e-01" nType="-99"/>
        </Node>
        <Node pos="r" depth="1" NCoef="0" IVar="1" Cut="1.6270690917968750e+03" cType="1" res="-1.0143327526748180e-02" rms="2.0705476403236389e-01" purity="3.3449548482894897e-01" nType="0">
          <Node pos="l" depth="2" NCoef="0" IVar="-1" Cut="0.0000000000000000e+00" cType="1" res="1.4927399344742298e-02" rms="1.2287238985300064e-01" purity="1.7576534301042557e-02" nType="-99"/>
          <Node pos="r" depth="2" NCoef="0" IVar="1" Cut="2.2758352050781250e+03" cType="1" res="-1.8073584884405136e-02" rms="2.4628765881061554e-01" purity="5.3927212953567505e-01" nType="0">
            <Node pos="l" depth="3" NCoef="0" IVar="-1" Cut="0.0000000000000000e+00" cType="1" res="-3.3380765467882156e-02" rms="2.6667472720146179e-01" purity="1.7595776915550232e-01" nType="-99"/>
            <Node pos="r" depth="3" NCoef="0" IVar="-1" Cut="0.0000000000000000e+00" cType="1" res="-7.0271315053105354e-03" rms="2.2302874922752380e-01" purity="9.0409231185913086e-01" nType="-99"/>
          </Node>
        </Node>
      </Node>
    </BinaryTree>
    <BinaryTree type="DecisionTree" boostWeight="1.0000000000000000e+00" itree="545">
      <Node pos="s" depth="0" NCoef="0" IVar="8" Cut="1.4664943218231201e+00" cType="1" res="4.9723801203072071e-04" rms="1.8754459917545319e-01" purity="4.9894610047340393e-01" nType="0">
        <Node pos="l" depth="1" NCoef="0" IVar="1" Cut="2.5918125000000000e+03" cType="1" res="1.4434511540457606e-03" rms="1.8627014756202698e-01" purity="5.2223932743072510e-01" nType="0">
          <Node pos="l" depth="2" NCoef="0" IVar="5" Cut="2.9901898193359375e+02" cType="1" res="3.9823297411203384e-03" rms="2.2068837285041809e-01" purity="1.4857220649719238e-01" nType="0">
            <Node pos="l" depth="3" NCoef="0" IVar="-1" Cut="0.0000000000000000e+00" cType="1" res="3.7692738696932793e-03" rms="2.0315776765346527e-01" purity="1.0312268137931824e-01" nType="-99"/>
            <Node pos="r" depth="3" NCoef="0" IVar="-1" Cut="0.0000000000000000e+00" cType="1" res="2.4659303948283195e-02" rms="3.5538232326507568e-01" purity="6.2745159864425659e-01" nType="-99"/>
          </Node>
          <Node pos="r" depth="2" NCoef="0" IVar="5" Cut="2.1269895935058594e+02" cType="1" res="-1.6334668034687638e-03" rms="1.3305705785751343e-01" purity="9.7509390115737915e-01" nType="0">
            <Node pos="l" depth="3" NCoef="0" IVar="-1" Cut="0.0000000000000000e+00" cType="1" res="-2.2848049178719521e-02" rms="2.7971279621124268e-01" purity="8.5493427515029907e-01" nType="-99"/>
            <Node pos="r" depth="3" NCoef="0" IVar="-1" Cut="0.0000000000000000e+00" cType="1" res="-2.3595581296831369e-03" rms="1.1007552593946457e-01" purity="9.8614186048507690e-01" nType="-99"/>
          </Node>
        </Node>
        <Node pos="r" depth="1" NCoef="0" IVar="7" Cut="-3.6132723093032837e-01" cType="1" res="-1.1554811149835587e-02" rms="2.0269285142421722e-01" purity="2.0225790143013000e-01" nType="0">
          <Node pos="l" depth="2" NCoef="0" IVar="-1" Cut="0.0000000000000000e+00" cType="1" res="5.5524967610836029e-03" rms="2.0861575007438660e-01" purity="1.4952099323272705e-01" nType="-99"/>
          <Node pos="r" depth="2" NCoef="0" IVar="-1" Cut="0.0000000000000000e+00" cType="1" res="-4.4975765049457550e-02" rms="1.9835127890110016e-01" purity="2.3558762669563293e-01" nType="-99"/>
        </Node>
      </Node>
    </BinaryTree>
    <BinaryTree type="DecisionTree" boostWeight="1.0000000000000000e+00" itree="546">
      <Node pos="s" depth="0" NCoef="0" IVar="8" Cut="6.6652387380599976e-01" cType="1" res="1.5540497843176126e-03" rms="1.8597100675106049e-01" purity="5.0158733129501343e-01" nType="0">
        <Node pos="l" depth="1" NCoef="0" IVar="8" Cut="-6.5399557352066040e-01" cType="1" res="-8.3705439465120435e-05" rms="1.8001119792461395e-01" purity="5.2892953157424927e-01" nType="0">
          <Node pos="l" depth="2" NCoef="0" IVar="10" Cut="9.3302917480468750e-01" cType="1" res="5.5176406167447567e-03" rms="2.0075011253356934e-01" purity="4.1831433773040771e-01" nType="0">
            <Node pos="l" depth="3" NCoef="0" IVar="-1" Cut="0.0000000000000000e+00" cType="1" res="2.2340331226587296e-02" rms="1.9541810452938080e-01" purity="4.1672343015670776e-01" nType="-99"/>
            <Node pos="r" depth="3" NCoef="0" IVar="-1" Cut="0.0000000000000000e+00" cType="1" res="-1.1067833751440048e-02" rms="2.1934536099433899e-01" purity="4.2430707812309265e-01" nType="-99"/>
          </Node>
          <Node pos="r" depth="2" NCoef="0" IVar="5" Cut="2.2028425598144531e+02" cType="1" res="-3.0801820103079081e-03" rms="1.6779136657714844e-01" purity="5.8810377120971680e-01" nType="0">
            <Node pos="l" depth="3" NCoef="0" IVar="-1" Cut="0.0000000000000000e+00" cType="1" res="-2.3328276351094246e-02" rms="1.7069950699806213e-01" purity="1.3979707658290863e-01" nType="-99"/>
            <Node pos="r" depth="3" NCoef="0" IVar="-1" Cut="0.0000000000000000e+00" cType="1" res="-1.1967768659815192e-03" rms="1.6590520739555359e-01" purity="8.6584073305130005e-01" nType="-99"/>
          </Node>
        </Node>
        <Node pos="r" depth="1" NCoef="0" IVar="10" Cut="-6.6668659448623657e-01" cType="1" res="6.2904460355639458e-03" rms="2.0214600861072540e-01" purity="4.2251363396644592e-01" nType="0">
          <Node pos="l" depth="2" NCoef="0" IVar="7" Cut="2.1313039958477020e-01" cType="1" res="1.7746910452842712e-02" rms="2.2817996144294739e-01" purity="4.5715001225471497e-01" nType="0">
            <Node pos="l" depth="3" NCoef="0" IVar="-1" Cut="0.0000000000000000e+00" cType="1" res="5.8997552841901779e-02" rms="2.2943580150604248e-01" purity="4.6567153930664062e-01" nType="-99"/>
            <Node pos="r" depth="3" NCoef="0" IVar="-1" Cut="0.0000000000000000e+00" cType="1" res="3.3828408923000097e-03" rms="2.2519917786121368e-01" purity="4.4315889477729797e-01" nType="-99"/>
          </Node>
          <Node pos="r" depth="2" NCoef="0" IVar="1" Cut="1.9511943359375000e+03" cType="1" res="1.8564086640253663e-03" rms="1.9093605875968933e-01" purity="4.0910819172859192e-01" nType="0">
            <Node pos="l" depth="3" NCoef="0" IVar="-1" Cut="0.0000000000000000e+00" cType="1" res="-3.1194034963846207e-02" rms="1.2316609174013138e-01" purity="1.7856318503618240e-02" nType="-99"/>
            <Node pos="r" depth="3" NCoef="0" IVar="-1" Cut="0.0000000000000000e+00" cType="1" res="1.8791345879435539e-02" rms="2.4427902698516846e-01" purity="8.3870989084243774e-01" nType="-99"/>
          </Node>
        </Node>
      </Node>
    </BinaryTree>
    <BinaryTree type="DecisionTree" boostWeight="1.0000000000000000e+00" itree="547">
      <Node pos="s" depth="0" NCoef="0" IVar="8" Cut="1.7330348491668701e+00" cType="1" res="5.5970740504562855e-04" rms="1.8766283988952637e-01" purity="4.9413591623306274e-01" nType="0">
        <Node pos="l" depth="1" NCoef="0" IVar="10" Cut="-1.9999257326126099e+00" cType="1" res="1.3003362109884620e-03" rms="1.8701891601085663e-01" purity="5.0973427295684814e-01" nType="0">
          <Node pos="l" depth="2" NCoef="0" IVar="-1" Cut="0.0000000000000000e+00" cType="1" res="2.2556830197572708e-02" rms="2.4001845717430115e-01" purity="4.0565228462219238e-01" nType="-99"/>
          <Node pos="r" depth="2" NCoef="0" IVar="7" Cut="1.2043707370758057e+00" cType="1" res="7.0159498136490583e-04" rms="1.8375666439533234e-01" purity="5.1526403427124023e-01" nType="0">
            <Node pos="l" depth="3" NCoef="0" IVar="-1" Cut="0.0000000000000000e+00" cType="1" res="1.8016099056694657e-04" rms="1.8129400908946991e-01" purity="5.4328423738479614e-01" nType="-99"/>
            <Node pos="r" depth="3" NCoef="0" IVar="-1" Cut="0.0000000000000000e+00" cType="1" res="2.1727206185460091e-02" rms="2.1081241965293884e-01" purity="1.8054229021072388e-01" nType="-99"/>
          </Node>
        </Node>
        <Node pos="r" depth="1" NCoef="0" IVar="-1" Cut="0.0000000000000000e+00" cType="1" res="-4.0618680417537689e-02" rms="2.0074376463890076e-01" purity="1.4734165370464325e-01" nType="-99"/>
      </Node>
    </BinaryTree>
    <BinaryTree type="DecisionTree" boostWeight="1.0000000000000000e+00" itree="548">
      <Node pos="s" depth="0" NCoef="0" IVar="8" Cut="6.6672456264495850e-01" cType="1" res="-7.9321430530399084e-04" rms="1.8230162560939789e-01" purity="5.0005066394805908e-01" nType="0">
        <Node pos="l" depth="1" NCoef="0" IVar="10" Cut="-1.7331279516220093e+00" cType="1" res="1.1823765235021710e-03" rms="1.8041393160820007e-01" purity="5.3889328241348267e-01" nType="0">
          <Node pos="l" depth="2" NCoef="0" IVar="8" Cut="-4.8877397179603577e-01" cType="1" res="1.3019371777772903e-02" rms="2.3264481127262115e-01" purity="4.5656937360763550e-01" nType="0">
            <Node pos="l" depth="3" NCoef="0" IVar="-1" Cut="0.0000000000000000e+00" cType="1" res="-3.1593663152307272e-03" rms="2.1143166720867157e-01" purity="3.7402522563934326e-01" nType="-99"/>
            <Node pos="r" depth="3" NCoef="0" IVar="-1" Cut="0.0000000000000000e+00" cType="1" res="4.9135059118270874e-02" rms="2.4881906807422638e-01" purity="5.2782464027404785e-01" nType="-99"/>
          </Node>
          <Node pos="r" depth="2" NCoef="0" IVar="9" Cut="-1.7326414585113525e+00" cType="1" res="1.5383734717033803e-04" rms="1.7510370910167694e-01" purity="5.4604655504226685e-01" nType="0">
            <Node pos="l" depth="3" NCoef="0" IVar="-1" Cut="0.0000000000000000e+00" cType="1" res="2.8202379122376442e-02" rms="2.2789837419986725e-01" purity="3.3359399437904358e-01" nType="-99"/>
            <Node pos="r" depth="3" NCoef="0" IVar="-1" Cut="0.0000000000000000e+00" cType="1" res="-1.9877995364367962e-03" rms="1.7129264771938324e-01" purity="5.5912488698959351e-01" nType="-99"/>
          </Node>
        </Node>
        <Node pos="r" depth="1" NCoef="0" IVar="0" Cut="7.4138073730468750e+02" cType="1" res="-6.7926519550383091e-03" rms="1.8779063224792480e-01" purity="3.8209417462348938e-01" nType="0">
          <Node pos="l" depth="2" NCoef="0" IVar="1" Cut="1.7667932128906250e+03" cType="1" res="-1.0836320929229259e-02" rms="1.8014244735240936e-01" purity="1.2815769016742706e-01" nType="0">
            <Node pos="l" depth="3" NCoef="0" IVar="-1" Cut="0.0000000000000000e+00" cType="1" res="-3.1605817377567291e-02" rms="9.9807426333427429e-02" purity="1.0623106732964516e-02" nType="-99"/>
            <Node pos="r" depth="3" NCoef="0" IVar="-1" Cut="0.0000000000000000e+00" cType="1" res="-2.9254691675305367e-02" rms="2.9749098420143127e-01" purity="4.2302840948104858e-01" nType="-99"/>
          </Node>
          <Node pos="r" depth="2" NCoef="0" IVar="7" Cut="2.3383285105228424e-01" cType="1" res="3.4159142524003983e-04" rms="2.0037554204463959e-01" purity="8.3011424541473389e-01" nType="0">
            <Node pos="l" depth="3" NCoef="0" IVar="-1" Cut="0.0000000000000000e+00" cType="1" res="-1.4612834900617599e-02" rms="1.8894545733928680e-01" purity="8.4227114915847778e-01" nType="-99"/>
            <Node pos="r" depth="3" NCoef="0" IVar="-1" Cut="0.0000000000000000e+00" cType="1" res="1.6921883448958397e-02" rms="2.1576911211013794e-01" purity="8.1232523918151855e-01" nType="-99"/>
          </Node>
        </Node>
      </Node>
    </BinaryTree>
    <BinaryTree type="DecisionTree" boostWeight="1.0000000000000000e+00" itree="549">
      <Node pos="s" depth="0" NCoef="0" IVar="2" Cut="2.0630229264497757e-02" cType="1" res="1.1785957030951977e-03" rms="1.8425007164478302e-01" purity="5.0532287359237671e-01" nType="0">
        <Node pos="l" depth="1" NCoef="0" IVar="2" Cut="9.8239164799451828e-03" cType="1" res="5.7187560014426708e-03" rms="1.9192093610763550e-01" purity="2.5831001996994019e-01" nType="0">
          <Node pos="l" depth="2" NCoef="0" IVar="10" Cut="6.6634213924407959e-01" cType="1" res="1.7533878562971950e-03" rms="1.7611122131347656e-01" purity="1.9110032916069031e-01" nType="0">
            <Node pos="l" depth="3" NCoef="0" IVar="-1" Cut="0.0000000000000000e+00" cType="1" res="1.9670797511935234e-02" rms="1.8009851872920990e-01" purity="1.9755852222442627e-01" nType="-99"/>
            <Node pos="r" depth="3" NCoef="0" IVar="-1" Cut="0.0000000000000000e+00" cType="1" res="-2.6308020576834679e-02" rms="1.6603569686412811e-01" purity="1.7610061168670654e-01" nType="-99"/>
          </Node>
          <Node pos="r" depth="2" NCoef="0" IVar="2" Cut="1.2911586090922356e-02" cType="1" res="1.1255864053964615e-02" rms="2.1190981566905975e-01" purity="3.5215944051742554e-01" nType="0">
            <Node pos="l" depth="3" NCoef="0" IVar="-1" Cut="0.0000000000000000e+00" cType="1" res="5.6916799396276474e-02" rms="2.2141836583614349e-01" purity="3.2531219720840454e-01" nType="-99"/>
            <Node pos="r" depth="3" NCoef="0" IVar="-1" Cut="0.0000000000000000e+00" cType="1" res="1.3914675451815128e-02" rms="2.0674404501914978e-01" purity="3.6571705341339111e-01" nType="-99"/>
          </Node>
        </Node>
        <Node pos="r" depth="1" NCoef="0" IVar="10" Cut="-1.7332239151000977e+00" cType="1" res="-1.3551939046010375e-03" rms="1.7977704107761383e-01" purity="6.4317667484283447e-01" nType="0">
          <Node pos="l" depth="2" NCoef="0" IVar="-1" Cut="0.0000000000000000e+00" cType="1" res="-2.3665344342589378e-02" rms="2.0371580123901367e-01" purity="5.4067534208297729e-01" nType="-99"/>
          <Node pos="r" depth="2" NCoef="0" IVar="3" Cut="4.5670584106445312e+02" cType="1" res="-3.8656280958093703e-04" rms="1.7754866182804108e-01" purity="6.5193402767181396e-01" nType="0">
            <Node pos="l" depth="3" NCoef="0" IVar="-1" Cut="0.0000000000000000e+00" cType="1" res="1.9134093075990677e-02" rms="2.1115027368068695e-01" purity="1.1945880949497223e-01" nType="-99"/>
            <Node pos="r" depth="3" NCoef="0" IVar="-1" Cut="0.0000000000000000e+00" cType="1" res="-7.0690144784748554e-03" rms="1.6986367106437683e-01" purity="7.6005268096923828e-01" nType="-99"/>
          </Node>
        </Node>
      </Node>
    </BinaryTree>
    <BinaryTree type="DecisionTree" boostWeight="1.0000000000000000e+00" itree="550">
      <Node pos="s" depth="0" NCoef="0" IVar="10" Cut="9.3329519033432007e-01" cType="1" res="2.0259511657059193e-03" rms="1.8610513210296631e-01" purity="5.0260984897613525e-01" nType="0">
        <Node pos="l" depth="1" NCoef="0" IVar="6" Cut="9.2209289550781250e+01" cType="1" res="7.2837324114516377e-04" rms="1.8049900233745575e-01" purity="5.1121294498443604e-01" nType="0">
          <Node pos="l" depth="2" NCoef="0" IVar="2" Cut="2.1365951746702194e-02" cType="1" res="4.4406880624592304e-03" rms="1.7632000148296356e-01" purity="1.6251428425312042e-01" nType="0">
            <Node pos="l" depth="3" NCoef="0" IVar="-1" Cut="0.0000000000000000e+00" cType="1" res="1.5218446496874094e-03" rms="1.5165264904499054e-01" purity="1.0969179123640060e-01" nType="-99"/>
            <Node pos="r" depth="3" NCoef="0" IVar="-1" Cut="0.0000000000000000e+00" cType="1" res="2.8958102688193321e-02" rms="2.1269804239273071e-01" purity="2.5543233752250671e-01" nType="-99"/>
          </Node>
          <Node pos="r" depth="2" NCoef="0" IVar="7" Cut="-8.3071923255920410e-01" cType="1" res="-9.2393194790929556e-04" rms="1.8230392038822174e-01" purity="6.6641438007354736e-01" nType="0">
            <Node pos="l" depth="3" NCoef="0" IVar="-1" Cut="0.0000000000000000e+00" cType="1" res="2.0391901955008507e-02" rms="2.1671526134014130e-01" purity="4.2568033933639526e-01" nType="-99"/>
            <Node pos="r" depth="3" NCoef="0" IVar="-1" Cut="0.0000000000000000e+00" cType="1" res="-7.8181810677051544e-03" rms="1.7595241963863373e-01" purity="7.0596611499786377e-01" nType="-99"/>
          </Node>
        </Node>
        <Node pos="r" depth="1" NCoef="0" IVar="10" Cut="1.1999635696411133e+00" cType="1" res="6.3609089702367783e-03" rms="2.0365859568119049e-01" purity="4.7386848926544189e-01" nType="0">
          <Node pos="l" depth="2" NCoef="0" IVar="8" Cut="1.2137285619974136e-01" cType="1" res="1.8690826371312141e-02" rms="2.0273232460021973e-01" purity="5.2970284223556519e-01" nType="0">
            <Node pos="l" depth="3" NCoef="0" IVar="-1" Cut="0.0000000000000000e+00" cType="1" res="3.5142671316862106e-02" rms="1.9925950467586517e-01" purity="5.7137537002563477e-01" nType="-99"/>
            <Node pos="r" depth="3" NCoef="0" IVar="-1" Cut="0.0000000000000000e+00" cType="1" res="5.9626389294862747e-02" rms="2.0599022507667542e-01" purity="4.8826420307159424e-01" nType="-99"/>
          </Node>
          <Node pos="r" depth="2" NCoef="0" IVar="10" Cut="1.6571061611175537e+00" cType="1" res="1.7672223038971424e-03" rms="2.0381198823451996e-01" purity="4.5306658744812012e-01" nType="0">
            <Node pos="l" depth="3" NCoef="0" IVar="-1" Cut="0.0000000000000000e+00" cType="1" res="-1.2685835361480713e-02" rms="1.7844888567924500e-01" purity="4.8941385746002197e-01" nType="-99"/>
            <Node pos="r" depth="3" NCoef="0" IVar="-1" Cut="0.0000000000000000e+00" cType="1" res="1.4668450690805912e-02" rms="2.2422876954078674e-01" purity="4.2004978656768799e-01" nType="-99"/>
          </Node>
        </Node>
      </Node>
    </BinaryTree>
    <BinaryTree type="DecisionTree" boostWeight="1.0000000000000000e+00" itree="551">
      <Node pos="s" depth="0" NCoef="0" IVar="8" Cut="9.3338578939437866e-01" cType="1" res="2.0781634375452995e-03" rms="1.8593288958072662e-01" purity="5.0672310590744019e-01" nType="0">
        <Node pos="l" depth="1" NCoef="0" IVar="9" Cut="1.9998707771301270e+00" cType="1" res="3.6652688868343830e-04" rms="1.7973588407039642e-01" purity="5.3442710638046265e-01" nType="0">
          <Node pos="l" depth="2" NCoef="0" IVar="7" Cut="-3.1479427218437195e-01" cType="1" res="-2.7802845579572022e-04" rms="1.7728693783283234e-01" purity="5.4276287555694580e-01" nType="0">
            <Node pos="l" depth="3" NCoef="0" IVar="-1" Cut="0.0000000000000000e+00" cType="1" res="1.1434897780418396e-02" rms="1.8344569206237793e-01" purity="5.0100463628768921e-01" nType="-99"/>
            <Node pos="r" depth="3" NCoef="0" IVar="-1" Cut="0.0000000000000000e+00" cType="1" res="-7.9302759841084480e-03" rms="1.7387513816356659e-01" purity="5.6500935554504395e-01" nType="-99"/>
          </Node>
          <Node pos="r" depth="2" NCoef="0" IVar="-1" Cut="0.0000000000000000e+00" cType="1" res="3.5991795361042023e-02" rms="2.4473507702350616e-01" purity="2.6718607544898987e-01" nType="-99"/>
        </Node>
        <Node pos="r" depth="1" NCoef="0" IVar="1" Cut="1.6755961914062500e+03" cType="1" res="9.9036227911710739e-03" rms="2.1179376542568207e-01" purity="3.8006252050399780e-01" nType="0">
          <Node pos="l" depth="2" NCoef="0" IVar="6" Cut="1.0569494628906250e+02" cType="1" res="1.8880511634051800e-03" rms="1.1084793508052826e-01" purity="1.4227066189050674e-02" nType="0">
            <Node pos="l" depth="3" NCoef="0" IVar="-1" Cut="0.0000000000000000e+00" cType="1" res="-7.6509229838848114e-02" rms="4.5416336506605148e-02" purity="1.9461117917671800e-03" nType="-99"/>
            <Node pos="r" depth="3" NCoef="0" IVar="-1" Cut="0.0000000000000000e+00" cType="1" res="8.3353921771049500e-02" rms="1.8217840790748596e-01" purity="3.9736349135637283e-02" nType="-99"/>
          </Node>
          <Node pos="r" depth="2" NCoef="0" IVar="4" Cut="4.2205795288085938e+02" cType="1" res="1.5708098188042641e-02" rms="2.6146024465560913e-01" purity="6.4498221874237061e-01" nType="0">
            <Node pos="l" depth="3" NCoef="0" IVar="-1" Cut="0.0000000000000000e+00" cType="1" res="3.5370763391256332e-02" rms="3.0852550268173218e-01" purity="4.4902855157852173e-01" nType="-99"/>
            <Node pos="r" depth="3" NCoef="0" IVar="-1" Cut="0.0000000000000000e+00" cType="1" res="1.0080853244289756e-03" rms="2.0469538867473602e-01" purity="8.3479869365692139e-01" nType="-99"/>
          </Node>
        </Node>
      </Node>
    </BinaryTree>
    <BinaryTree type="DecisionTree" boostWeight="1.0000000000000000e+00" itree="552">
      <Node pos="s" depth="0" NCoef="0" IVar="6" Cut="9.2209289550781250e+01" cType="1" res="-8.3592295413836837e-04" rms="1.8534645438194275e-01" purity="5.0100314617156982e-01" nType="0">
        <Node pos="l" depth="1" NCoef="0" IVar="10" Cut="6.6668361425399780e-01" cType="1" res="3.1339770648628473e-03" rms="1.8080449104309082e-01" purity="1.6445136070251465e-01" nType="0">
          <Node pos="l" depth="2" NCoef="0" IVar="8" Cut="1.2000445127487183e+00" cType="1" res="-2.0715526770800352e-03" rms="1.6752062737941742e-01" purity="1.5163327753543854e-01" nType="0">
            <Node pos="l" depth="3" NCoef="0" IVar="-1" Cut="0.0000000000000000e+00" cType="1" res="-1.5069068409502506e-02" rms="1.6416461765766144e-01" purity="1.5853719413280487e-01" nType="-99"/>
            <Node pos="r" depth="3" NCoef="0" IVar="-1" Cut="0.0000000000000000e+00" cType="1" res="3.7129379808902740e-02" rms="1.8596246838569641e-01" purity="1.0952487587928772e-01" nType="-99"/>
          </Node>
          <Node pos="r" depth="2" NCoef="0" IVar="9" Cut="-6.6663265228271484e-01" cType="1" res="1.4269510284066200e-02" rms="2.0592831075191498e-01" purity="1.9187143445014954e-01" nType="0">
            <Node pos="l" depth="3" NCoef="0" IVar="-1" Cut="0.0000000000000000e+00" cType="1" res="5.8552347123622894e-02" rms="2.4166314303874969e-01" purity="2.2269721329212189e-01" nType="-99"/>
            <Node pos="r" depth="3" NCoef="0" IVar="-1" Cut="0.0000000000000000e+00" cType="1" res="2.5550771504640579e-02" rms="1.9092850387096405e-01" purity="1.8059770762920380e-01" nType="-99"/>
          </Node>
        </Node>
        <Node pos="r" depth="1" NCoef="0" IVar="10" Cut="1.7332710027694702e+00" cType="1" res="-2.6977278757840395e-03" rms="1.8740968406200409e-01" purity="6.5883934497833252e-01" nType="0">
          <Node pos="l" depth="2" NCoef="0" IVar="9" Cut="-9.3361371755599976e-01" cType="1" res="-1.4521609991788864e-03" rms="1.8495264649391174e-01" purity="6.6739875078201294e-01" nType="0">
            <Node pos="l" depth="3" NCoef="0" IVar="-1" Cut="0.0000000000000000e+00" cType="1" res="1.1009778827428818e-02" rms="2.0733714103698730e-01" purity="5.9211170673370361e-01" nType="-99"/>
            <Node pos="r" depth="3" NCoef="0" IVar="-1" Cut="0.0000000000000000e+00" cType="1" res="-8.6653959006071091e-03" rms="1.7932751774787903e-01" purity="6.8486917018890381e-01" nType="-99"/>
          </Node>
          <Node pos="r" depth="2" NCoef="0" IVar="-1" Cut="0.0000000000000000e+00" cType="1" res="-3.6689795553684235e-02" rms="2.1816797554492950e-01" purity="5.3908687829971313e-01" nType="-99"/>
        </Node>
      </Node>
    </BinaryTree>
    <BinaryTree type="DecisionTree" boostWeight="1.0000000000000000e+00" itree="553">
      <Node pos="s" depth="0" NCoef="0" IVar="10" Cut="-9.3320876359939575e-01" cType="1" res="6.2589190201833844e-04" rms="1.8625476956367493e-01" purity="4.9732011556625366e-01" nType="0">
        <Node pos="l" depth="1" NCoef="0" IVar="1" Cut="2.4325270996093750e+03" cType="1" res="-4.6080034226179123e-03" rms="1.9572508335113525e-01" purity="4.5763447880744934e-01" nType="0">
          <Node pos="l" depth="2" NCoef="0" IVar="1" Cut="1.9408377685546875e+03" cType="1" res="-1.0106278583407402e-02" rms="2.1473287045955658e-01" purity="1.0937622934579849e-01" nType="0">
            <Node pos="l" depth="3" NCoef="0" IVar="-1" Cut="0.0000000000000000e+00" cType="1" res="-9.1457422822713852e-03" rms="1.6531175374984741e-01" purity="4.0127575397491455e-02" nType="-99"/>
            <Node pos="r" depth="3" NCoef="0" IVar="-1" Cut="0.0000000000000000e+00" cType="1" res="-2.9198566451668739e-02" rms="3.5340476036071777e-01" purity="4.0420389175415039e-01" nType="-99"/>
          </Node>
          <Node pos="r" depth="2" NCoef="0" IVar="7" Cut="-6.3536167144775391e-03" cType="1" res="3.3131320960819721e-03" rms="1.6420154273509979e-01" purity="9.5935559272766113e-01" nType="0">
            <Node pos="l" depth="3" NCoef="0" IVar="-1" Cut="0.0000000000000000e+00" cType="1" res="-4.8917713575065136e-03" rms="1.7090563476085663e-01" purity="9.5412701368331909e-01" nType="-99"/>
            <Node pos="r" depth="3" NCoef="0" IVar="-1" Cut="0.0000000000000000e+00" cType="1" res="2.7062727138400078e-02" rms="1.5719644725322723e-01" purity="9.6449553966522217e-01" nType="-99"/>
          </Node>
        </Node>
        <Node pos="r" depth="1" NCoef="0" IVar="9" Cut="-9.3328016996383667e-01" cType="1" res="2.1794252097606659e-03" rms="1.8332089483737946e-01" purity="5.0909966230392456e-01" nType="0">
          <Node pos="l" depth="2" NCoef="0" IVar="7" Cut="7.1036380529403687e-01" cType="1" res="-4.1783340275287628e-03" rms="1.9172531366348267e-01" purity="4.4129711389541626e-01" nType="0">
            <Node pos="l" depth="3" NCoef="0" IVar="-1" Cut="0.0000000000000000e+00" cType="1" res="-3.2469944562762976e-03" rms="1.9036763906478882e-01" purity="4.8208317160606384e-01" nType="-99"/>
            <Node pos="r" depth="3" NCoef="0" IVar="-1" Cut="0.0000000000000000e+00" cType="1" res="-3.5302150994539261e-02" rms="1.9676031172275543e-01" purity="2.7331504225730896e-01" nType="-99"/>
          </Node>
          <Node pos="r" depth="2" NCoef="0" IVar="9" Cut="-3.9992973208427429e-01" cType="1" res="3.6612690892070532e-03" rms="1.8127401173114777e-01" purity="5.2490288019180298e-01" nType="0">
            <Node pos="l" depth="3" NCoef="0" IVar="-1" Cut="0.0000000000000000e+00" cType="1" res="3.4017588943243027e-02" rms="1.9234599173069000e-01" purity="5.6684672832489014e-01" nType="-99"/>
            <Node pos="r" depth="3" NCoef="0" IVar="-1" Cut="0.0000000000000000e+00" cType="1" res="5.5433744564652443e-03" rms="1.7830613255500793e-01" purity="5.1424837112426758e-01" nType="-99"/>
          </Node>
        </Node>
      </Node>
    </BinaryTree>
    <BinaryTree type="DecisionTree" boostWeight="1.0000000000000000e+00" itree="554">
      <Node pos="s" depth="0" NCoef="0" IVar="9" Cut="-1.7329245805740356e+00" cType="1" res="2.4036644026637077e-04" rms="1.8567715585231781e-01" purity="5.0378113985061646e-01" nType="0">
        <Node pos="l" depth="1" NCoef="0" IVar="9" Cut="-2.0377302169799805e+00" cType="1" res="-1.4923723414540291e-02" rms="2.0865263044834137e-01" purity="2.7163389325141907e-01" nType="0">
          <Node pos="l" depth="2" NCoef="0" IVar="-1" Cut="0.0000000000000000e+00" cType="1" res="-1.7807872965931892e-02" rms="2.3255839943885803e-01" purity="1.9663432240486145e-01" nType="-99"/>
          <Node pos="r" depth="2" NCoef="0" IVar="-1" Cut="0.0000000000000000e+00" cType="1" res="-5.0648342818021774e-02" rms="1.7973190546035767e-01" purity="3.5074251890182495e-01" nType="-99"/>
        </Node>
        <Node pos="r" depth="1" NCoef="0" IVar="10" Cut="-1.3325178623199463e-01" cType="1" res="1.1219682637602091e-03" rms="1.8421491980552673e-01" purity="5.1727753877639771e-01" nType="0">
          <Node pos="l" depth="2" NCoef="0" IVar="5" Cut="1.0710562896728516e+02" cType="1" res="-2.1698083728551865e-03" rms="1.8203958868980408e-01" purity="5.0992178916931152e-01" nType="0">
            <Node pos="l" depth="3" NCoef="0" IVar="-1" Cut="0.0000000000000000e+00" cType="1" res="8.1193067133426666e-02" rms="1.4971216022968292e-01" purity="4.6908501535654068e-02" nType="-99"/>
            <Node pos="r" depth="3" NCoef="0" IVar="-1" Cut="0.0000000000000000e+00" cType="1" res="-1.1825488880276680e-02" rms="1.8615677952766418e-01" purity="5.7694530487060547e-01" nType="-99"/>
          </Node>
          <Node pos="r" depth="2" NCoef="0" IVar="9" Cut="1.5037908554077148e+00" cType="1" res="3.7846686318516731e-03" rms="1.8591327965259552e-01" purity="5.2322763204574585e-01" nType="0">
            <Node pos="l" depth="3" NCoef="0" IVar="-1" Cut="0.0000000000000000e+00" cType="1" res="1.5683084726333618e-02" rms="1.8478617072105408e-01" purity="5.4665619134902954e-01" nType="-99"/>
            <Node pos="r" depth="3" NCoef="0" IVar="-1" Cut="0.0000000000000000e+00" cType="1" res="-1.9728496670722961e-02" rms="1.9542790949344635e-01" purity="3.0980169773101807e-01" nType="-99"/>
          </Node>
        </Node>
      </Node>
    </BinaryTree>
    <BinaryTree type="DecisionTree" boostWeight="1.0000000000000000e+00" itree="555">
      <Node pos="s" depth="0" NCoef="0" IVar="7" Cut="9.8468452692031860e-01" cType="1" res="9.8733464255928993e-04" rms="1.8603065609931946e-01" purity="5.0745266675949097e-01" nType="0">
        <Node pos="l" depth="1" NCoef="0" IVar="10" Cut="-1.4666725397109985e+00" cType="1" res="-2.3779754701536149e-04" rms="1.8162779510021210e-01" purity="5.4071456193923950e-01" nType="0">
          <Node pos="l" depth="2" NCoef="0" IVar="5" Cut="1.8505403137207031e+02" cType="1" res="5.4447022266685963e-03" rms="2.0902164280414581e-01" purity="4.8089846968650818e-01" nType="0">
            <Node pos="l" depth="3" NCoef="0" IVar="-1" Cut="0.0000000000000000e+00" cType="1" res="-2.1190907806158066e-02" rms="1.6965872049331665e-01" purity="1.0379011929035187e-01" nType="-99"/>
            <Node pos="r" depth="3" NCoef="0" IVar="-1" Cut="0.0000000000000000e+00" cType="1" res="2.6634160429239273e-02" rms="2.3082005977630615e-01" purity="7.2814863920211792e-01" nType="-99"/>
          </Node>
          <Node pos="r" depth="2" NCoef="0" IVar="8" Cut="-1.7332022190093994e+00" cType="1" res="-1.0391519172117114e-03" rms="1.7741008102893829e-01" purity="5.4914987087249756e-01" nType="0">
            <Node pos="l" depth="3" NCoef="0" IVar="-1" Cut="0.0000000000000000e+00" cType="1" res="-4.7181807458400726e-02" rms="1.9198320806026459e-01" purity="1.7517709732055664e-01" nType="-99"/>
            <Node pos="r" depth="3" NCoef="0" IVar="-1" Cut="0.0000000000000000e+00" cType="1" res="-1.1803827947005630e-03" rms="1.7682597041130066e-01" purity="5.6267881393432617e-01" nType="-99"/>
          </Node>
        </Node>
        <Node pos="r" depth="1" NCoef="0" IVar="9" Cut="-4.0044051408767700e-01" cType="1" res="1.0098611004650593e-02" rms="2.1575871109962463e-01" purity="2.6008522510528564e-01" nType="0">
          <Node pos="l" depth="2" NCoef="0" IVar="-1" Cut="0.0000000000000000e+00" cType="1" res="-8.0092018470168114e-03" rms="2.0566527545452118e-01" purity="2.5142160058021545e-01" nType="-99"/>
          <Node pos="r" depth="2" NCoef="0" IVar="8" Cut="-4.0441945195198059e-01" cType="1" res="1.7532141879200935e-02" rms="2.2070384025573730e-01" purity="2.6480060815811157e-01" nType="0">
            <Node pos="l" depth="3" NCoef="0" IVar="-1" Cut="0.0000000000000000e+00" cType="1" res="7.9347565770149231e-02" rms="2.4553115665912628e-01" purity="2.6658284664154053e-01" nType="-99"/>
            <Node pos="r" depth="3" NCoef="0" IVar="-1" Cut="0.0000000000000000e+00" cType="1" res="1.9728323444724083e-02" rms="2.0532114803791046e-01" purity="2.6383683085441589e-01" nType="-99"/>
          </Node>
        </Node>
      </Node>
    </BinaryTree>
    <BinaryTree type="DecisionTree" boostWeight="1.0000000000000000e+00" itree="556">
      <Node pos="s" depth="0" NCoef="0" IVar="10" Cut="-1.9999470710754395e+00" cType="1" res="-3.0138338916003704e-03" rms="1.8268325924873352e-01" purity="4.9368247389793396e-01" nType="0">
        <Node pos="l" depth="1" NCoef="0" IVar="-1" Cut="0.0000000000000000e+00" cType="1" res="-4.1648413985967636e-02" rms="2.1975012123584747e-01" purity="3.3757331967353821e-01" nType="-99"/>
        <Node pos="r" depth="1" NCoef="0" IVar="8" Cut="1.4666378498077393e+00" cType="1" res="-1.9522060174494982e-03" rms="1.8047772347927094e-01" purity="5.0182688236236572e-01" nType="0">
          <Node pos="l" depth="2" NCoef="0" IVar="3" Cut="6.5123278808593750e+02" cType="1" res="-2.9011734295636415e-03" rms="1.7554739117622375e-01" purity="5.2172476053237915e-01" nType="0">
            <Node pos="l" depth="3" NCoef="0" IVar="-1" Cut="0.0000000000000000e+00" cType="1" res="-1.7815768718719482e-02" rms="1.8398159742355347e-01" purity="2.0513938367366791e-01" nType="-99"/>
            <Node pos="r" depth="3" NCoef="0" IVar="-1" Cut="0.0000000000000000e+00" cType="1" res="6.4792169723659754e-04" rms="1.6818486154079437e-01" purity="7.8372651338577271e-01" nType="-99"/>
          </Node>
          <Node pos="r" depth="2" NCoef="0" IVar="10" Cut="5.6179728358983994e-02" cType="1" res="1.0013371706008911e-02" rms="2.3356081545352936e-01" purity="2.5093334913253784e-01" nType="0">
            <Node pos="l" depth="3" NCoef="0" IVar="-1" Cut="0.0000000000000000e+00" cType="1" res="-1.6573382541537285e-02" rms="2.2669804096221924e-01" purity="2.4732050299644470e-01" nType="-99"/>
            <Node pos="r" depth="3" NCoef="0" IVar="-1" Cut="0.0000000000000000e+00" cType="1" res="4.4497784227132797e-02" rms="2.3739191889762878e-01" purity="2.5338527560234070e-01" nType="-99"/>
          </Node>
        </Node>
      </Node>
    </BinaryTree>
    <BinaryTree type="DecisionTree" boostWeight="1.0000000000000000e+00" itree="557">
      <Node pos="s" depth="0" NCoef="0" IVar="10" Cut="-1.7332798242568970e+00" cType="1" res="3.3747765701264143e-04" rms="1.8310280144214630e-01" purity="5.0141090154647827e-01" nType="0">
        <Node pos="l" depth="1" NCoef="0" IVar="6" Cut="1.0624346923828125e+02" cType="1" res="1.1574435979127884e-02" rms="2.3258928954601288e-01" purity="4.2441195249557495e-01" nType="0">
          <Node pos="l" depth="2" NCoef="0" IVar="-1" Cut="0.0000000000000000e+00" cType="1" res="4.4978603720664978e-02" rms="2.3424959182739258e-01" purity="2.5115677714347839e-01" nType="-99"/>
          <Node pos="r" depth="2" NCoef="0" IVar="-1" Cut="0.0000000000000000e+00" cType="1" res="-2.5511945132166147e-03" rms="2.3002630472183228e-01" purity="6.1805361509323120e-01" nType="-99"/>
        </Node>
        <Node pos="r" depth="1" NCoef="0" IVar="0" Cut="7.4111999511718750e+02" cType="1" res="-6.1387300956994295e-04" rms="1.7825104296207428e-01" purity="5.0792980194091797e-01" nType="0">
          <Node pos="l" depth="2" NCoef="0" IVar="1" Cut="2.0752097167968750e+03" cType="1" res="-2.7448416221886873e-03" rms="1.9018529355525970e-01" purity="1.8201340734958649e-01" nType="0">
            <Node pos="l" depth="3" NCoef="0" IVar="-1" Cut="0.0000000000000000e+00" cType="1" res="-3.7792306393384933e-03" rms="1.5250058472156525e-01" purity="3.5576831549406052e-02" nType="-99"/>
            <Node pos="r" depth="3" NCoef="0" IVar="-1" Cut="0.0000000000000000e+00" cType="1" res="-1.1108537204563618e-02" rms="2.9663854837417603e-01" purity="7.7037131786346436e-01" nType="-99"/>
          </Node>
          <Node pos="r" depth="2" NCoef="0" IVar="5" Cut="2.0836709594726562e+02" cType="1" res="1.8741056555882096e-03" rms="1.6318173706531525e-01" purity="8.8844835758209229e-01" nType="0">
            <Node pos="l" depth="3" NCoef="0" IVar="-1" Cut="0.0000000000000000e+00" cType="1" res="1.1436594650149345e-02" rms="2.7418866753578186e-01" purity="5.0502443313598633e-01" nType="-99"/>
            <Node pos="r" depth="3" NCoef="0" IVar="-1" Cut="0.0000000000000000e+00" cType="1" res="1.1316400486975908e-03" rms="1.2491782754659653e-01" purity="9.7538506984710693e-01" nType="-99"/>
          </Node>
        </Node>
      </Node>
    </BinaryTree>
    <BinaryTree type="DecisionTree" boostWeight="1.0000000000000000e+00" itree="558">
      <Node pos="s" depth="0" NCoef="0" IVar="10" Cut="-1.7333341836929321e+00" cType="1" res="9.0958834334742278e-05" rms="1.8311046063899994e-01" purity="4.9998819828033447e-01" nType="0">
        <Node pos="l" depth="1" NCoef="0" IVar="4" Cut="2.9726904296875000e+02" cType="1" res="-1.1142959818243980e-02" rms="2.0925660431385040e-01" purity="3.9805153012275696e-01" nType="0">
          <Node pos="l" depth="2" NCoef="0" IVar="-1" Cut="0.0000000000000000e+00" cType="1" res="8.6282910779118538e-03" rms="1.8436928093433380e-01" purity="8.3645775914192200e-02" nType="-99"/>
          <Node pos="r" depth="2" NCoef="0" IVar="-1" Cut="0.0000000000000000e+00" cType="1" res="-3.5914696753025055e-02" rms="2.2253836691379547e-01" purity="5.8846151828765869e-01" nType="-99"/>
        </Node>
        <Node pos="r" depth="1" NCoef="0" IVar="10" Cut="-6.4157983288168907e-03" cType="1" res="1.0884909424930811e-03" rms="1.8057210743427277e-01" purity="5.0903981924057007e-01" nType="0">
          <Node pos="l" depth="2" NCoef="0" IVar="5" Cut="2.5312562561035156e+02" cType="1" res="4.5142290182411671e-03" rms="1.8135544657707214e-01" purity="5.1856404542922974e-01" nType="0">
            <Node pos="l" depth="3" NCoef="0" IVar="-1" Cut="0.0000000000000000e+00" cType="1" res="2.5137376040220261e-02" rms="1.9069409370422363e-01" purity="1.7984615266323090e-01" nType="-99"/>
            <Node pos="r" depth="3" NCoef="0" IVar="-1" Cut="0.0000000000000000e+00" cType="1" res="-1.1199984000995755e-03" rms="1.7047156393527985e-01" purity="8.8747918605804443e-01" nType="-99"/>
          </Node>
          <Node pos="r" depth="2" NCoef="0" IVar="6" Cut="1.2492501831054688e+02" cType="1" res="-1.7218178836628795e-03" rms="1.7987823486328125e-01" purity="5.0122666358947754e-01" nType="0">
            <Node pos="l" depth="3" NCoef="0" IVar="-1" Cut="0.0000000000000000e+00" cType="1" res="-1.6799667850136757e-02" rms="1.8044862151145935e-01" purity="2.0237746834754944e-01" nType="-99"/>
            <Node pos="r" depth="3" NCoef="0" IVar="-1" Cut="0.0000000000000000e+00" cType="1" res="6.3479938544332981e-03" rms="1.7926260828971863e-01" purity="7.7486115694046021e-01" nType="-99"/>
          </Node>
        </Node>
      </Node>
    </BinaryTree>
    <BinaryTree type="DecisionTree" boostWeight="1.0000000000000000e+00" itree="559">
      <Node pos="s" depth="0" NCoef="0" IVar="8" Cut="1.2000045776367188e+00" cType="1" res="1.4251461252570152e-03" rms="1.8510603904724121e-01" purity="4.9907109141349792e-01" nType="0">
        <Node pos="l" depth="1" NCoef="0" IVar="9" Cut="1.1998615264892578e+00" cType="1" res="2.4707941338419914e-03" rms="1.8189859390258789e-01" purity="5.2477842569351196e-01" nType="0">
          <Node pos="l" depth="2" NCoef="0" IVar="7" Cut="1.4927831888198853e+00" cType="1" res="3.5671016667038202e-03" rms="1.7771494388580322e-01" purity="5.4100561141967773e-01" nType="0">
            <Node pos="l" depth="3" NCoef="0" IVar="-1" Cut="0.0000000000000000e+00" cType="1" res="1.2842670083045959e-02" rms="1.7810140550136566e-01" purity="5.5789947509765625e-01" nType="-99"/>
            <Node pos="r" depth="3" NCoef="0" IVar="-1" Cut="0.0000000000000000e+00" cType="1" res="-3.8388893008232117e-02" rms="1.6682425141334534e-01" purity="1.0816635936498642e-01" nType="-99"/>
          </Node>
          <Node pos="r" depth="2" NCoef="0" IVar="0" Cut="8.9542022705078125e+02" cType="1" res="-4.5554935932159424e-03" rms="2.0657297968864441e-01" purity="4.2077818512916565e-01" nType="0">
            <Node pos="l" depth="3" NCoef="0" IVar="-1" Cut="0.0000000000000000e+00" cType="1" res="-1.9064240157604218e-02" rms="2.1427932381629944e-01" purity="2.3381780087947845e-01" nType="-99"/>
            <Node pos="r" depth="3" NCoef="0" IVar="-1" Cut="0.0000000000000000e+00" cType="1" res="2.3944586515426636e-02" rms="1.8358314037322998e-01" purity="9.2531675100326538e-01" nType="-99"/>
          </Node>
        </Node>
        <Node pos="r" depth="1" NCoef="0" IVar="4" Cut="3.8990338134765625e+02" cType="1" res="-6.6004274412989616e-03" rms="2.0790937542915344e-01" purity="3.0176192522048950e-01" nType="0">
          <Node pos="l" depth="2" NCoef="0" IVar="2" Cut="1.1931849643588066e-02" cType="1" res="-4.7049552085809410e-04" rms="1.9865140318870544e-01" purity="1.4949682354927063e-01" nType="0">
            <Node pos="l" depth="3" NCoef="0" IVar="-1" Cut="0.0000000000000000e+00" cType="1" res="-3.1595695763826370e-02" rms="1.4755818247795105e-01" purity="6.2955245375633240e-02" nType="-99"/>
            <Node pos="r" depth="3" NCoef="0" IVar="-1" Cut="0.0000000000000000e+00" cType="1" res="1.1949745006859303e-02" rms="2.2963203489780426e-01" purity="2.1497179567813873e-01" nType="-99"/>
          </Node>
          <Node pos="r" depth="2" NCoef="0" IVar="-1" Cut="0.0000000000000000e+00" cType="1" res="-4.5489426702260971e-02" rms="2.2747375071048737e-01" purity="6.5823733806610107e-01" nType="-99"/>
        </Node>
      </Node>
    </BinaryTree>
    <BinaryTree type="DecisionTree" boostWeight="1.0000000000000000e+00" itree="560">
      <Node pos="s" depth="0" NCoef="0" IVar="7" Cut="-7.4371963739395142e-02" cType="1" res="-3.3702064683893695e-05" rms="1.8455773591995239e-01" purity="5.0155472755432129e-01" nType="0">
        <Node pos="l" depth="1" NCoef="0" IVar="7" Cut="-1.4427397251129150e+00" cType="1" res="-3.1293793581426144e-03" rms="1.8230141699314117e-01" purity="4.8635643720626831e-01" nType="0">
          <Node pos="l" depth="2" NCoef="0" IVar="-1" Cut="0.0000000000000000e+00" cType="1" res="2.1121244877576828e-02" rms="1.9652539491653442e-01" purity="1.1624324321746826e-01" nType="-99"/>
          <Node pos="r" depth="2" NCoef="0" IVar="2" Cut="1.0238952934741974e-01" cType="1" res="-4.2101424187421799e-03" rms="1.8059016764163971e-01" purity="5.2822136878967285e-01" nType="0">
            <Node pos="l" depth="3" NCoef="0" IVar="-1" Cut="0.0000000000000000e+00" cType="1" res="-1.6446171328425407e-02" rms="1.8488785624504089e-01" purity="4.5980152487754822e-01" nType="-99"/>
            <Node pos="r" depth="3" NCoef="0" IVar="-1" Cut="0.0000000000000000e+00" cType="1" res="1.5916150063276291e-02" rms="1.6090756654739380e-01" purity="8.1748580932617188e-01" nType="-99"/>
          </Node>
        </Node>
        <Node pos="r" depth="1" NCoef="0" IVar="9" Cut="-1.4664798974990845e+00" cType="1" res="2.6029660366475582e-03" rms="1.8641743063926697e-01" purity="5.1449948549270630e-01" nType="0">
          <Node pos="l" depth="2" NCoef="0" IVar="-1" Cut="0.0000000000000000e+00" cType="1" res="2.5444397702813148e-02" rms="2.4196133017539978e-01" purity="3.7261211872100830e-01" nType="-99"/>
          <Node pos="r" depth="2" NCoef="0" IVar="6" Cut="1.3980107116699219e+02" cType="1" res="1.5585967339575291e-03" rms="1.7991605401039124e-01" purity="5.2862995862960815e-01" nType="0">
            <Node pos="l" depth="3" NCoef="0" IVar="-1" Cut="0.0000000000000000e+00" cType="1" res="1.3283255510032177e-02" rms="1.9432441890239716e-01" purity="2.4409829080104828e-01" nType="-99"/>
            <Node pos="r" depth="3" NCoef="0" IVar="-1" Cut="0.0000000000000000e+00" cType="1" res="-7.2267316281795502e-03" rms="1.6276454925537109e-01" purity="8.3735257387161255e-01" nType="-99"/>
          </Node>
        </Node>
      </Node>
    </BinaryTree>
    <BinaryTree type="DecisionTree" boostWeight="1.0000000000000000e+00" itree="561">
      <Node pos="s" depth="0" NCoef="0" IVar="7" Cut="9.3738442659378052e-01" cType="1" res="1.6912612773012370e-04" rms="1.8592315912246704e-01" purity="5.0355142354965210e-01" nType="0">
        <Node pos="l" depth="1" NCoef="0" IVar="9" Cut="3.9997062087059021e-01" cType="1" res="1.1464768322184682e-03" rms="1.8509525060653687e-01" purity="5.3970259428024292e-01" nType="0">
          <Node pos="l" depth="2" NCoef="0" IVar="9" Cut="-5.1427674293518066e-01" cType="1" res="-1.0547017445787787e-03" rms="1.7817294597625732e-01" purity="5.5321949720382690e-01" nType="0">
            <Node pos="l" depth="3" NCoef="0" IVar="-1" Cut="0.0000000000000000e+00" cType="1" res="3.8078655488789082e-03" rms="1.9484549760818481e-01" purity="5.0563567876815796e-01" nType="-99"/>
            <Node pos="r" depth="3" NCoef="0" IVar="-1" Cut="0.0000000000000000e+00" cType="1" res="-1.3043868355453014e-02" rms="1.5911729633808136e-01" purity="6.0229671001434326e-01" nType="-99"/>
          </Node>
          <Node pos="r" depth="2" NCoef="0" IVar="5" Cut="2.9511648559570312e+02" cType="1" res="5.0833499990403652e-03" rms="1.9680860638618469e-01" purity="5.1552730798721313e-01" nType="0">
            <Node pos="l" depth="3" NCoef="0" IVar="-1" Cut="0.0000000000000000e+00" cType="1" res="2.2240800783038139e-02" rms="2.1513859927654266e-01" purity="2.7283325791358948e-01" nType="-99"/>
            <Node pos="r" depth="3" NCoef="0" IVar="-1" Cut="0.0000000000000000e+00" cType="1" res="-1.9019139930605888e-02" rms="1.5966932475566864e-01" purity="9.3640512228012085e-01" nType="-99"/>
          </Node>
        </Node>
        <Node pos="r" depth="1" NCoef="0" IVar="10" Cut="1.1994889974594116e+00" cType="1" res="-6.3950167968869209e-03" rms="1.9126139581203461e-01" purity="2.6075056195259094e-01" nType="0">
          <Node pos="l" depth="2" NCoef="0" IVar="0" Cut="4.9293032836914062e+02" cType="1" res="-4.0119765326380730e-03" rms="1.9222438335418701e-01" purity="2.7882331609725952e-01" nType="0">
            <Node pos="l" depth="3" NCoef="0" IVar="-1" Cut="0.0000000000000000e+00" cType="1" res="1.3792541809380054e-02" rms="1.5296001732349396e-01" purity="3.5963080823421478e-02" nType="-99"/>
            <Node pos="r" depth="3" NCoef="0" IVar="-1" Cut="0.0000000000000000e+00" cType="1" res="-1.7751332372426987e-02" rms="2.1587736904621124e-01" purity="4.5292755961418152e-01" nType="-99"/>
          </Node>
          <Node pos="r" depth="2" NCoef="0" IVar="-1" Cut="0.0000000000000000e+00" cType="1" res="-3.6989171057939529e-02" rms="1.8731445074081421e-01" purity="1.9262155890464783e-01" nType="-99"/>
        </Node>
      </Node>
    </BinaryTree>
    <BinaryTree type="DecisionTree" boostWeight="1.0000000000000000e+00" itree="562">
      <Node pos="s" depth="0" NCoef="0" IVar="7" Cut="9.5925283432006836e-01" cType="1" res="2.3478777147829533e-03" rms="1.8556077778339386e-01" purity="5.0552129745483398e-01" nType="0">
        <Node pos="l" depth="1" NCoef="0" IVar="5" Cut="2.1282841491699219e+02" cType="1" res="3.3704792149364948e-03" rms="1.8543639779090881e-01" purity="5.3979784250259399e-01" nType="0">
          <Node pos="l" depth="2" NCoef="0" IVar="4" Cut="2.3649389648437500e+02" cType="1" res="6.5823523327708244e-03" rms="1.9345980882644653e-01" purity="1.4718076586723328e-01" nType="0">
            <Node pos="l" depth="3" NCoef="0" IVar="-1" Cut="0.0000000000000000e+00" cType="1" res="-1.1019852943718433e-02" rms="1.2217253446578979e-01" purity="3.7031814455986023e-02" nType="-99"/>
            <Node pos="r" depth="3" NCoef="0" IVar="-1" Cut="0.0000000000000000e+00" cType="1" res="2.4636492133140564e-02" rms="2.2446212172508240e-01" purity="2.1094101667404175e-01" nType="-99"/>
          </Node>
          <Node pos="r" depth="2" NCoef="0" IVar="7" Cut="4.3404766917228699e-01" cType="1" res="9.9596544168889523e-04" rms="1.7923702299594879e-01" purity="8.3005666732788086e-01" nType="0">
            <Node pos="l" depth="3" NCoef="0" IVar="-1" Cut="0.0000000000000000e+00" cType="1" res="-1.3034261064603925e-03" rms="1.7835806310176849e-01" purity="8.3000516891479492e-01" nType="-99"/>
            <Node pos="r" depth="3" NCoef="0" IVar="-1" Cut="0.0000000000000000e+00" cType="1" res="1.7922934144735336e-02" rms="1.8266481161117554e-01" purity="8.3026695251464844e-01" nType="-99"/>
          </Node>
        </Node>
        <Node pos="r" depth="1" NCoef="0" IVar="0" Cut="7.5269061279296875e+02" cType="1" res="-4.7743082977831364e-03" rms="1.8626916408538818e-01" purity="2.6679292321205139e-01" nType="0">
          <Node pos="l" depth="2" NCoef="0" IVar="2" Cut="1.3834666460752487e-02" cType="1" res="-8.4381680935621262e-03" rms="1.6704201698303223e-01" purity="1.0224882513284683e-01" nType="0">
            <Node pos="l" depth="3" NCoef="0" IVar="-1" Cut="0.0000000000000000e+00" cType="1" res="-7.0374272763729095e-03" rms="1.3380947709083557e-01" purity="3.3676125109195709e-02" nType="-99"/>
            <Node pos="r" depth="3" NCoef="0" IVar="-1" Cut="0.0000000000000000e+00" cType="1" res="-3.1025683507323265e-02" rms="1.9787016510963440e-01" purity="1.8022260069847107e-01" nType="-99"/>
          </Node>
          <Node pos="r" depth="2" NCoef="0" IVar="-1" Cut="0.0000000000000000e+00" cType="1" res="1.2573422864079475e-02" rms="2.3580448329448700e-01" purity="7.7735561132431030e-01" nType="-99"/>
        </Node>
      </Node>
    </BinaryTree>
    <BinaryTree type="DecisionTree" boostWeight="1.0000000000000000e+00" itree="563">
      <Node pos="s" depth="0" NCoef="0" IVar="3" Cut="3.5056497192382812e+02" cType="1" res="9.5091265393421054e-04" rms="1.8327488005161285e-01" purity="5.0130921602249146e-01" nType="0">
        <Node pos="l" depth="1" NCoef="0" IVar="-1" Cut="0.0000000000000000e+00" cType="1" res="-4.2980384081602097e-02" rms="1.3187697529792786e-01" purity="2.5304049253463745e-02" nType="-99"/>
        <Node pos="r" depth="1" NCoef="0" IVar="7" Cut="1.2432610988616943e+00" cType="1" res="1.5680445358157158e-03" rms="1.8559777736663818e-01" purity="5.2671003341674805e-01" nType="0">
          <Node pos="l" depth="2" NCoef="0" IVar="9" Cut="-1.9999608993530273e+00" cType="1" res="7.9406239092350006e-04" rms="1.8345099687576294e-01" purity="5.5002492666244507e-01" nType="0">
            <Node pos="l" depth="3" NCoef="0" IVar="-1" Cut="0.0000000000000000e+00" cType="1" res="-3.5765103995800018e-02" rms="2.0724657177925110e-01" purity="2.3902282118797302e-01" nType="-99"/>
            <Node pos="r" depth="3" NCoef="0" IVar="-1" Cut="0.0000000000000000e+00" cType="1" res="3.6133748944848776e-03" rms="1.8265254795551300e-01" purity="5.5953675508499146e-01" nType="-99"/>
          </Node>
          <Node pos="r" depth="2" NCoef="0" IVar="10" Cut="1.3246637582778931e-01" cType="1" res="1.2082405388355255e-02" rms="2.1234539151191711e-01" purity="2.0998243987560272e-01" nType="0">
            <Node pos="l" depth="3" NCoef="0" IVar="-1" Cut="0.0000000000000000e+00" cType="1" res="6.4259842038154602e-02" rms="2.4341700971126556e-01" purity="2.3201088607311249e-01" nType="-99"/>
            <Node pos="r" depth="3" NCoef="0" IVar="-1" Cut="0.0000000000000000e+00" cType="1" res="-1.1707415804266930e-02" rms="1.7429628968238831e-01" purity="1.8792842328548431e-01" nType="-99"/>
          </Node>
        </Node>
      </Node>
    </BinaryTree>
    <BinaryTree type="DecisionTree" boostWeight="1.0000000000000000e+00" itree="564">
      <Node pos="s" depth="0" NCoef="0" IVar="7" Cut="-7.4911221861839294e-02" cType="1" res="5.2491668611764908e-04" rms="1.8526197969913483e-01" purity="5.0127720832824707e-01" nType="0">
        <Node pos="l" depth="1" NCoef="0" IVar="8" Cut="9.3342399597167969e-01" cType="1" res="3.0812211334705353e-03" rms="1.8728643655776978e-01" purity="4.9158278107643127e-01" nType="0">
          <Node pos="l" depth="2" NCoef="0" IVar="0" Cut="4.3884851074218750e+02" cType="1" res="1.0821197647601366e-03" rms="1.7895467579364777e-01" purity="5.2677142620086670e-01" nType="0">
            <Node pos="l" depth="3" NCoef="0" IVar="-1" Cut="0.0000000000000000e+00" cType="1" res="-2.2710757330060005e-02" rms="1.3206002116203308e-01" purity="2.0411672070622444e-02" nType="-99"/>
            <Node pos="r" depth="3" NCoef="0" IVar="-1" Cut="0.0000000000000000e+00" cType="1" res="6.5774926915764809e-03" rms="1.8843035399913788e-01" purity="6.4795255661010742e-01" nType="-99"/>
          </Node>
          <Node pos="r" depth="2" NCoef="0" IVar="7" Cut="-6.9545441865921021e-01" cType="1" res="1.2211056426167488e-02" rms="2.2115699946880341e-01" purity="3.3087748289108276e-01" nType="0">
            <Node pos="l" depth="3" NCoef="0" IVar="-1" Cut="0.0000000000000000e+00" cType="1" res="5.6791886687278748e-02" rms="2.4021029472351074e-01" purity="2.2272960841655731e-01" nType="-99"/>
            <Node pos="r" depth="3" NCoef="0" IVar="-1" Cut="0.0000000000000000e+00" cType="1" res="5.1553310186136514e-05" rms="1.9979593157768250e-01" purity="4.3782654404640198e-01" nType="-99"/>
          </Node>
        </Node>
        <Node pos="r" depth="1" NCoef="0" IVar="5" Cut="2.0836709594726562e+02" cType="1" res="-1.6826998908072710e-03" rms="1.8346703052520752e-01" purity="5.0964933633804321e-01" nType="0">
          <Node pos="l" depth="2" NCoef="0" IVar="1" Cut="1.6740722656250000e+03" cType="1" res="-5.4775034077465534e-03" rms="1.7641815543174744e-01" purity="1.2750592827796936e-01" nType="0">
            <Node pos="l" depth="3" NCoef="0" IVar="-1" Cut="0.0000000000000000e+00" cType="1" res="1.3938112184405327e-02" rms="9.6854925155639648e-02" purity="1.0215328074991703e-02" nType="-99"/>
            <Node pos="r" depth="3" NCoef="0" IVar="-1" Cut="0.0000000000000000e+00" cType="1" res="-2.0643576979637146e-02" rms="2.5060144066810608e-01" purity="2.9925638437271118e-01" nType="-99"/>
          </Node>
          <Node pos="r" depth="2" NCoef="0" IVar="4" Cut="3.8363751220703125e+02" cType="1" res="1.1622691527009010e-03" rms="1.8852876126766205e-01" purity="7.9614269733428955e-01" nType="0">
            <Node pos="l" depth="3" NCoef="0" IVar="-1" Cut="0.0000000000000000e+00" cType="1" res="1.2338497675955296e-02" rms="2.6087674498558044e-01" purity="3.5260903835296631e-01" nType="-99"/>
            <Node pos="r" depth="3" NCoef="0" IVar="-1" Cut="0.0000000000000000e+00" cType="1" res="-4.5618778094649315e-03" rms="1.6007293760776520e-01" purity="9.3113744258880615e-01" nType="-99"/>
          </Node>
        </Node>
      </Node>
    </BinaryTree>
    <BinaryTree type="DecisionTree" boostWeight="1.0000000000000000e+00" itree="565">
      <Node pos="s" depth="0" NCoef="0" IVar="9" Cut="-1.9999409914016724e+00" cType="1" res="-1.2580390321090817e-03" rms="1.8260730803012848e-01" purity="5.0314378738403320e-01" nType="0">
        <Node pos="l" depth="1" NCoef="0" IVar="-1" Cut="0.0000000000000000e+00" cType="1" res="2.5299157947301865e-02" rms="2.3986993730068207e-01" purity="2.3231385648250580e-01" nType="-99"/>
        <Node pos="r" depth="1" NCoef="0" IVar="5" Cut="3.2114096069335938e+02" cType="1" res="-1.7488857265561819e-03" rms="1.8030279874801636e-01" purity="5.1242506504058838e-01" nType="0">
          <Node pos="l" depth="2" NCoef="0" IVar="6" Cut="1.9120097351074219e+02" cType="1" res="-3.5610562190413475e-03" rms="1.9997064769268036e-01" purity="2.6975250244140625e-01" nType="0">
            <Node pos="l" depth="3" NCoef="0" IVar="-1" Cut="0.0000000000000000e+00" cType="1" res="-6.0150302015244961e-03" rms="1.9451777637004852e-01" purity="2.0944958925247192e-01" nType="-99"/>
            <Node pos="r" depth="3" NCoef="0" IVar="-1" Cut="0.0000000000000000e+00" cType="1" res="-2.0499808713793755e-02" rms="2.3937532305717468e-01" purity="7.5734734535217285e-01" nType="-99"/>
          </Node>
          <Node pos="r" depth="2" NCoef="0" IVar="1" Cut="2.8937814941406250e+03" cType="1" res="1.5978438314050436e-03" rms="1.3667209446430206e-01" purity="9.6059465408325195e-01" nType="0">
            <Node pos="l" depth="3" NCoef="0" IVar="-1" Cut="0.0000000000000000e+00" cType="1" res="9.7897183150053024e-03" rms="2.6797804236412048e-01" purity="8.2827627658843994e-01" nType="-99"/>
            <Node pos="r" depth="3" NCoef="0" IVar="-1" Cut="0.0000000000000000e+00" cType="1" res="2.5088163092732430e-03" rms="6.9978788495063782e-02" purity="9.9489074945449829e-01" nType="-99"/>
          </Node>
        </Node>
      </Node>
    </BinaryTree>
    <BinaryTree type="DecisionTree" boostWeight="1.0000000000000000e+00" itree="566">
      <Node pos="s" depth="0" NCoef="0" IVar="7" Cut="-1.3766943216323853e+00" cType="1" res="-1.7931328620761633e-03" rms="1.8323521316051483e-01" purity="4.9455761909484863e-01" nType="0">
        <Node pos="l" depth="1" NCoef="0" IVar="2" Cut="8.7374951690435410e-03" cType="1" res="-1.0989003814756870e-02" rms="1.6115157306194305e-01" purity="1.0506725311279297e-01" nType="0">
          <Node pos="l" depth="2" NCoef="0" IVar="-1" Cut="0.0000000000000000e+00" cType="1" res="-5.7178128510713577e-02" rms="1.0619723796844482e-01" purity="2.2917574271559715e-02" nType="-99"/>
          <Node pos="r" depth="2" NCoef="0" IVar="-1" Cut="0.0000000000000000e+00" cType="1" res="-3.2925888895988464e-02" rms="2.0549094676971436e-01" purity="1.9605861604213715e-01" nType="-99"/>
        </Node>
        <Node pos="r" depth="1" NCoef="0" IVar="7" Cut="-1.8408729135990143e-01" cType="1" res="-1.2778248637914658e-03" rms="1.8438090384006500e-01" purity="5.1638352870941162e-01" nType="0">
          <Node pos="l" depth="2" NCoef="0" IVar="7" Cut="-6.3841754198074341e-01" cType="1" res="1.7860465450212359e-03" rms="1.8865253031253815e-01" purity="5.2975928783416748e-01" nType="0">
            <Node pos="l" depth="3" NCoef="0" IVar="-1" Cut="0.0000000000000000e+00" cType="1" res="-7.6511651277542114e-03" rms="1.8948487937450409e-01" purity="4.3998208642005920e-01" nType="-99"/>
            <Node pos="r" depth="3" NCoef="0" IVar="-1" Cut="0.0000000000000000e+00" cType="1" res="1.8075972795486450e-02" rms="1.8777896463871002e-01" purity="6.1213552951812744e-01" nType="-99"/>
          </Node>
          <Node pos="r" depth="2" NCoef="0" IVar="3" Cut="3.4594000244140625e+02" cType="1" res="-3.1436139252036810e-03" rms="1.8170513212680817e-01" purity="5.0823807716369629e-01" nType="0">
            <Node pos="l" depth="3" NCoef="0" IVar="-1" Cut="0.0000000000000000e+00" cType="1" res="4.9596149474382401e-02" rms="1.9455192983150482e-01" purity="5.3971495479345322e-02" nType="-99"/>
            <Node pos="r" depth="3" NCoef="0" IVar="-1" Cut="0.0000000000000000e+00" cType="1" res="-1.1439708061516285e-02" rms="1.8098658323287964e-01" purity="5.3117531538009644e-01" nType="-99"/>
          </Node>
        </Node>
      </Node>
    </BinaryTree>
    <BinaryTree type="DecisionTree" boostWeight="1.0000000000000000e+00" itree="567">
      <Node pos="s" depth="0" NCoef="0" IVar="10" Cut="3.9997544884681702e-01" cType="1" res="5.5943086044862866e-04" rms="1.8446448445320129e-01" purity="4.9981182813644409e-01" nType="0">
        <Node pos="l" depth="1" NCoef="0" IVar="3" Cut="3.5056497192382812e+02" cType="1" res="-1.3962119119241834e-03" rms="1.7984549701213837e-01" purity="4.9946722388267517e-01" nType="0">
          <Node pos="l" depth="2" NCoef="0" IVar="-1" Cut="0.0000000000000000e+00" cType="1" res="4.8735413700342178e-02" rms="1.8791228532791138e-01" purity="5.4934252053499222e-02" nType="-99"/>
          <Node pos="r" depth="2" NCoef="0" IVar="0" Cut="7.2616992187500000e+02" cType="1" res="-2.1849258337169886e-03" rms="1.7938546836376190e-01" purity="5.2232336997985840e-01" nType="0">
            <Node pos="l" depth="3" NCoef="0" IVar="-1" Cut="0.0000000000000000e+00" cType="1" res="-1.1996723711490631e-02" rms="1.8996961414813995e-01" purity="1.7366573214530945e-01" nType="-99"/>
            <Node pos="r" depth="3" NCoef="0" IVar="-1" Cut="0.0000000000000000e+00" cType="1" res="2.0503904670476913e-03" rms="1.6773203015327454e-01" purity="8.8174539804458618e-01" nType="-99"/>
          </Node>
        </Node>
        <Node pos="r" depth="1" NCoef="0" IVar="9" Cut="1.7329179048538208e+00" cType="1" res="3.7449498195201159e-03" rms="1.9170752167701721e-01" purity="5.0037306547164917e-01" nType="0">
          <Node pos="l" depth="2" NCoef="0" IVar="2" Cut="9.4745345413684845e-02" cType="1" res="2.1373592317104340e-03" rms="1.8822374939918518e-01" purity="5.1520347595214844e-01" nType="0">
            <Node pos="l" depth="3" NCoef="0" IVar="-1" Cut="0.0000000000000000e+00" cType="1" res="1.0643879882991314e-02" rms="1.9724753499031067e-01" purity="4.4352775812149048e-01" nType="-99"/>
            <Node pos="r" depth="3" NCoef="0" IVar="-1" Cut="0.0000000000000000e+00" cType="1" res="-2.9104618355631828e-02" rms="1.4655658602714539e-01" purity="8.0060178041458130e-01" nType="-99"/>
          </Node>
          <Node pos="r" depth="2" NCoef="0" IVar="-1" Cut="0.0000000000000000e+00" cType="1" res="4.5603867620229721e-02" rms="2.3221714794635773e-01" purity="3.0240917205810547e-01" nType="-99"/>
        </Node>
      </Node>
    </BinaryTree>
    <BinaryTree type="DecisionTree" boostWeight="1.0000000000000000e+00" itree="568">
      <Node pos="s" depth="0" NCoef="0" IVar="9" Cut="1.3329418003559113e-01" cType="1" res="1.0984538821503520e-03" rms="1.8584337830543518e-01" purity="5.0275635719299316e-01" nType="0">
        <Node pos="l" depth="1" NCoef="0" IVar="10" Cut="9.3328505754470825e-01" cType="1" res="-1.1797375045716763e-03" rms="1.8245790898799896e-01" purity="5.0554960966110229e-01" nType="0">
          <Node pos="l" depth="2" NCoef="0" IVar="10" Cut="-1.3777712583541870e+00" cType="1" res="2.3860252986196429e-04" rms="1.8115359544754028e-01" purity="5.0569421052932739e-01" nType="0">
            <Node pos="l" depth="3" NCoef="0" IVar="-1" Cut="0.0000000000000000e+00" cType="1" res="-1.6151903197169304e-02" rms="1.9650241732597351e-01" purity="4.2695686221122742e-01" nType="-99"/>
            <Node pos="r" depth="3" NCoef="0" IVar="-1" Cut="0.0000000000000000e+00" cType="1" res="6.0384143143892288e-03" rms="1.7732882499694824e-01" purity="5.2412331104278564e-01" nType="-99"/>
          </Node>
          <Node pos="r" depth="2" NCoef="0" IVar="3" Cut="6.3739685058593750e+02" cType="1" res="-6.3479659147560596e-03" rms="1.8704277276992798e-01" purity="5.0502300262451172e-01" nType="0">
            <Node pos="l" depth="3" NCoef="0" IVar="-1" Cut="0.0000000000000000e+00" cType="1" res="-2.8869668021798134e-02" rms="1.9705434143543243e-01" purity="1.8740162253379822e-01" nType="-99"/>
            <Node pos="r" depth="3" NCoef="0" IVar="-1" Cut="0.0000000000000000e+00" cType="1" res="-4.9489475786685944e-03" rms="1.7828957736492157e-01" purity="7.6514381170272827e-01" nType="-99"/>
          </Node>
        </Node>
        <Node pos="r" depth="1" NCoef="0" IVar="2" Cut="6.4097359776496887e-02" cType="1" res="3.7589794956147671e-03" rms="1.8968591094017029e-01" purity="4.9949440360069275e-01" nType="0">
          <Node pos="l" depth="2" NCoef="0" IVar="0" Cut="5.8882647705078125e+02" cType="1" res="2.9885279946029186e-04" rms="1.9010503590106964e-01" purity="3.6797752976417542e-01" nType="0">
            <Node pos="l" depth="3" NCoef="0" IVar="-1" Cut="0.0000000000000000e+00" cType="1" res="-1.7771385610103607e-02" rms="1.6036030650138855e-01" purity="5.6394793093204498e-02" nType="-99"/>
            <Node pos="r" depth="3" NCoef="0" IVar="-1" Cut="0.0000000000000000e+00" cType="1" res="1.1559547856450081e-02" rms="2.1351206302642822e-01" purity="6.5196782350540161e-01" nType="-99"/>
          </Node>
          <Node pos="r" depth="2" NCoef="0" IVar="0" Cut="6.1106262207031250e+02" cType="1" res="1.0885108262300491e-02" rms="1.8861994147300720e-01" purity="7.7035343647003174e-01" nType="0">
            <Node pos="l" depth="3" NCoef="0" IVar="-1" Cut="0.0000000000000000e+00" cType="1" res="6.1382479965686798e-02" rms="2.8405022621154785e-01" purity="2.9962173104286194e-01" nType="-99"/>
            <Node pos="r" depth="3" NCoef="0" IVar="-1" Cut="0.0000000000000000e+00" cType="1" res="4.8322123475372791e-03" rms="1.4156860113143921e-01" purity="9.2838549613952637e-01" nType="-99"/>
          </Node>
        </Node>
      </Node>
    </BinaryTree>
    <BinaryTree type="DecisionTree" boostWeight="1.0000000000000000e+00" itree="569">
      <Node pos="s" depth="0" NCoef="0" IVar="8" Cut="1.4667518138885498e+00" cType="1" res="-2.6059543597511947e-04" rms="1.8525843322277069e-01" purity="5.0174498558044434e-01" nType="0">
        <Node pos="l" depth="1" NCoef="0" IVar="10" Cut="-1.9999730587005615e+00" cType="1" res="5.6252762442454696e-04" rms="1.8301080167293549e-01" purity="5.2442729473114014e-01" nType="0">
          <Node pos="l" depth="2" NCoef="0" IVar="-1" Cut="0.0000000000000000e+00" cType="1" res="1.9702371209859848e-02" rms="2.2149018943309784e-01" purity="4.1489735245704651e-01" nType="-99"/>
          <Node pos="r" depth="2" NCoef="0" IVar="4" Cut="3.3710794067382812e+02" cType="1" res="5.4315401030180510e-06" rms="1.8078823387622833e-01" purity="5.3007262945175171e-01" nType="0">
            <Node pos="l" depth="3" NCoef="0" IVar="-1" Cut="0.0000000000000000e+00" cType="1" res="9.6352249383926392e-03" rms="1.7534777522087097e-01" purity="9.4875022768974304e-02" nType="-99"/>
            <Node pos="r" depth="3" NCoef="0" IVar="-1" Cut="0.0000000000000000e+00" cType="1" res="-4.6976259909570217e-03" rms="1.8369093537330627e-01" purity="7.6938199996948242e-01" nType="-99"/>
          </Node>
        </Node>
        <Node pos="r" depth="1" NCoef="0" IVar="7" Cut="-3.5408031195402145e-02" cType="1" res="-1.0657716542482376e-02" rms="2.1132756769657135e-01" purity="2.1523770689964294e-01" nType="0">
          <Node pos="l" depth="2" NCoef="0" IVar="-1" Cut="0.0000000000000000e+00" cType="1" res="-3.4834516700357199e-03" rms="2.1302664279937744e-01" purity="1.8871466815471649e-01" nType="-99"/>
          <Node pos="r" depth="2" NCoef="0" IVar="-1" Cut="0.0000000000000000e+00" cType="1" res="-4.5649312436580658e-02" rms="2.0896112918853760e-01" purity="2.4452494084835052e-01" nType="-99"/>
        </Node>
      </Node>
    </BinaryTree>
    <BinaryTree type="DecisionTree" boostWeight="1.0000000000000000e+00" itree="570">
      <Node pos="s" depth="0" NCoef="0" IVar="10" Cut="1.7333412170410156e+00" cType="1" res="-3.4957269235746935e-05" rms="1.8710321187973022e-01" purity="4.9818989634513855e-01" nType="0">
        <Node pos="l" depth="1" NCoef="0" IVar="8" Cut="-1.7333565950393677e+00" cType="1" res="-9.4743398949503899e-04" rms="1.8296360969543457e-01" purity="5.0408983230590820e-01" nType="0">
          <Node pos="l" depth="2" NCoef="0" IVar="-1" Cut="0.0000000000000000e+00" cType="1" res="3.4674543887376785e-02" rms="2.1670418977737427e-01" purity="1.7733404040336609e-01" nType="-99"/>
          <Node pos="r" depth="2" NCoef="0" IVar="8" Cut="-1.0857853889465332e+00" cType="1" res="-1.5809247270226479e-03" rms="1.8133169412612915e-01" purity="5.1826119422912598e-01" nType="0">
            <Node pos="l" depth="3" NCoef="0" IVar="-1" Cut="0.0000000000000000e+00" cType="1" res="-2.2006720304489136e-02" rms="2.0612981915473938e-01" purity="3.7862643599510193e-01" nType="-99"/>
            <Node pos="r" depth="3" NCoef="0" IVar="-1" Cut="0.0000000000000000e+00" cType="1" res="-2.1092121023684740e-03" rms="1.7828242480754852e-01" purity="5.3408515453338623e-01" nType="-99"/>
          </Node>
        </Node>
        <Node pos="r" depth="1" NCoef="0" IVar="1" Cut="1.6403410644531250e+03" cType="1" res="1.0429607704281807e-02" rms="2.2903537750244141e-01" purity="4.3052756786346436e-01" nType="0">
          <Node pos="l" depth="2" NCoef="0" IVar="-1" Cut="0.0000000000000000e+00" cType="1" res="-1.2237415648996830e-02" rms="1.1102591454982758e-01" purity="1.9059507176280022e-02" nType="-99"/>
          <Node pos="r" depth="2" NCoef="0" IVar="9" Cut="1.3208545744419098e-01" cType="1" res="1.7291279509663582e-02" rms="2.7226525545120239e-01" purity="6.5409904718399048e-01" nType="0">
            <Node pos="l" depth="3" NCoef="0" IVar="-1" Cut="0.0000000000000000e+00" cType="1" res="1.9461685791611671e-02" rms="2.6389920711517334e-01" purity="6.9411736726760864e-01" nType="-99"/>
            <Node pos="r" depth="3" NCoef="0" IVar="-1" Cut="0.0000000000000000e+00" cType="1" res="2.6978658512234688e-02" rms="2.8066745400428772e-01" purity="6.1228513717651367e-01" nType="-99"/>
          </Node>
        </Node>
      </Node>
    </BinaryTree>
    <BinaryTree type="DecisionTree" boostWeight="1.0000000000000000e+00" itree="571">
      <Node pos="s" depth="0" NCoef="0" IVar="7" Cut="1.4986318349838257e+00" cType="1" res="-1.1406030534999445e-04" rms="1.8267758190631866e-01" purity="5.0171530246734619e-01" nType="0">
        <Node pos="l" depth="1" NCoef="0" IVar="9" Cut="-6.6631406545639038e-01" cType="1" res="3.7607995909638703e-04" rms="1.8323434889316559e-01" purity="5.1897716522216797e-01" nType="0">
          <Node pos="l" depth="2" NCoef="0" IVar="5" Cut="2.6728390502929688e+02" cType="1" res="-3.2337361481040716e-03" rms="1.8930098414421082e-01" purity="4.6882647275924683e-01" nType="0">
            <Node pos="l" depth="3" NCoef="0" IVar="-1" Cut="0.0000000000000000e+00" cType="1" res="-1.9821284338831902e-02" rms="1.9163036346435547e-01" purity="1.9752152264118195e-01" nType="-99"/>
            <Node pos="r" depth="3" NCoef="0" IVar="-1" Cut="0.0000000000000000e+00" cType="1" res="1.3828589580953121e-02" rms="1.8529561161994934e-01" purity="8.9487451314926147e-01" nType="-99"/>
          </Node>
          <Node pos="r" depth="2" NCoef="0" IVar="6" Cut="1.2365378570556641e+02" cType="1" res="1.7816874897107482e-03" rms="1.8079756200313568e-01" purity="5.3850507736206055e-01" nType="0">
            <Node pos="l" depth="3" NCoef="0" IVar="-1" Cut="0.0000000000000000e+00" cType="1" res="1.4357498846948147e-02" rms="1.9134251773357391e-01" purity="2.2191219031810760e-01" nType="-99"/>
            <Node pos="r" depth="3" NCoef="0" IVar="-1" Cut="0.0000000000000000e+00" cType="1" res="-3.3193619456142187e-03" rms="1.7175343632698059e-01" purity="7.9431051015853882e-01" nType="-99"/>
          </Node>
        </Node>
        <Node pos="r" depth="1" NCoef="0" IVar="-1" Cut="0.0000000000000000e+00" cType="1" res="-3.2467655837535858e-02" rms="1.6863510012626648e-01" purity="9.5471829175949097e-02" nType="-99"/>
      </Node>
    </BinaryTree>
    <BinaryTree type="DecisionTree" boostWeight="1.0000000000000000e+00" itree="572">
      <Node pos="s" depth="0" NCoef="0" IVar="8" Cut="4.0007492899894714e-01" cType="1" res="-9.3406584346666932e-04" rms="1.8267372250556946e-01" purity="4.9610123038291931e-01" nType="0">
        <Node pos="l" depth="1" NCoef="0" IVar="9" Cut="1.7332367897033691e+00" cType="1" res="-3.6911729257553816e-03" rms="1.7638237774372101e-01" purity="5.1540821790695190e-01" nType="0">
          <Node pos="l" depth="2" NCoef="0" IVar="4" Cut="4.2003454589843750e+02" cType="1" res="-2.6826118119060993e-03" rms="1.7341624200344086e-01" purity="5.2809256315231323e-01" nType="0">
            <Node pos="l" depth="3" NCoef="0" IVar="-1" Cut="0.0000000000000000e+00" cType="1" res="-1.6733825206756592e-02" rms="1.8616946041584015e-01" purity="1.6724181175231934e-01" nType="-99"/>
            <Node pos="r" depth="3" NCoef="0" IVar="-1" Cut="0.0000000000000000e+00" cType="1" res="2.6389667764306068e-03" rms="1.5985982120037079e-01" purity="8.8175863027572632e-01" nType="-99"/>
          </Node>
          <Node pos="r" depth="2" NCoef="0" IVar="-1" Cut="0.0000000000000000e+00" cType="1" res="-3.6262467503547668e-02" rms="2.2146104276180267e-01" purity="2.9208466410636902e-01" nType="-99"/>
        </Node>
        <Node pos="r" depth="1" NCoef="0" IVar="2" Cut="3.8558140397071838e-02" cType="1" res="4.1925087571144104e-03" rms="1.9372546672821045e-01" purity="4.6020182967185974e-01" nType="0">
          <Node pos="l" depth="2" NCoef="0" IVar="9" Cut="4.0032598376274109e-01" cType="1" res="6.1720400117337704e-04" rms="1.9184823334217072e-01" purity="2.9197946190834045e-01" nType="0">
            <Node pos="l" depth="3" NCoef="0" IVar="-1" Cut="0.0000000000000000e+00" cType="1" res="-1.2781230732798576e-02" rms="1.8896584212779999e-01" purity="3.0615213513374329e-01" nType="-99"/>
            <Node pos="r" depth="3" NCoef="0" IVar="-1" Cut="0.0000000000000000e+00" cType="1" res="2.2576892748475075e-02" rms="1.9558122754096985e-01" purity="2.7180257439613342e-01" nType="-99"/>
          </Node>
          <Node pos="r" depth="2" NCoef="0" IVar="0" Cut="6.9380371093750000e+02" cType="1" res="8.9212218299508095e-03" rms="1.9608062505722046e-01" purity="6.8269336223602295e-01" nType="0">
            <Node pos="l" depth="3" NCoef="0" IVar="-1" Cut="0.0000000000000000e+00" cType="1" res="3.0121816322207451e-02" rms="2.5853943824768066e-01" purity="2.8741800785064697e-01" nType="-99"/>
            <Node pos="r" depth="3" NCoef="0" IVar="-1" Cut="0.0000000000000000e+00" cType="1" res="1.2694872915744781e-02" rms="1.4059562981128693e-01" purity="9.4144684076309204e-01" nType="-99"/>
          </Node>
        </Node>
      </Node>
    </BinaryTree>
    <BinaryTree type="DecisionTree" boostWeight="1.0000000000000000e+00" itree="573">
      <Node pos="s" depth="0" NCoef="0" IVar="1" Cut="2.2288681640625000e+03" cType="1" res="2.6778858155012131e-03" rms="1.9187401235103607e-01" purity="4.9287378787994385e-01" nType="0">
        <Node pos="l" depth="1" NCoef="0" IVar="3" Cut="7.8609405517578125e+02" cType="1" res="5.8897444978356361e-03" rms="2.0130202174186707e-01" purity="6.9478735327720642e-02" nType="0">
          <Node pos="l" depth="2" NCoef="0" IVar="10" Cut="1.1999748945236206e+00" cType="1" res="4.4003636576235294e-03" rms="1.9793336093425751e-01" purity="6.8461380898952484e-02" nType="0">
            <Node pos="l" depth="3" NCoef="0" IVar="-1" Cut="0.0000000000000000e+00" cType="1" res="5.0376560539007187e-03" rms="1.8662996590137482e-01" purity="6.1680249869823456e-02" nType="-99"/>
            <Node pos="r" depth="3" NCoef="0" IVar="-1" Cut="0.0000000000000000e+00" cType="1" res="3.3635776489973068e-02" rms="2.3774366080760956e-01" purity="9.5733828842639923e-02" nType="-99"/>
          </Node>
          <Node pos="r" depth="2" NCoef="0" IVar="-1" Cut="0.0000000000000000e+00" cType="1" res="8.3238199353218079e-02" rms="2.5357186794281006e-01" purity="8.8054589927196503e-02" nType="-99"/>
        </Node>
        <Node pos="r" depth="1" NCoef="0" IVar="9" Cut="-9.3338727951049805e-01" cType="1" res="-6.9035508204251528e-04" rms="1.8140044808387756e-01" purity="9.3688344955444336e-01" nType="0">
          <Node pos="l" depth="2" NCoef="0" IVar="8" Cut="-1.3869397342205048e-01" cType="1" res="9.5076756551861763e-03" rms="2.0542977750301361e-01" purity="9.2785090208053589e-01" nType="0">
            <Node pos="l" depth="3" NCoef="0" IVar="-1" Cut="0.0000000000000000e+00" cType="1" res="-3.9971484802663326e-03" rms="2.0395489037036896e-01" purity="9.1733723878860474e-01" nType="-99"/>
            <Node pos="r" depth="3" NCoef="0" IVar="-1" Cut="0.0000000000000000e+00" cType="1" res="3.8909502327442169e-02" rms="2.0614951848983765e-01" purity="9.3599963188171387e-01" nType="-99"/>
          </Node>
          <Node pos="r" depth="2" NCoef="0" IVar="4" Cut="4.1271627807617188e+02" cType="1" res="-2.8462260961532593e-03" rms="1.7582508921623230e-01" purity="9.3879300355911255e-01" nType="0">
            <Node pos="l" depth="3" NCoef="0" IVar="-1" Cut="0.0000000000000000e+00" cType="1" res="-2.3791464045643806e-02" rms="2.8562867641448975e-01" purity="7.9615330696105957e-01" nType="-99"/>
            <Node pos="r" depth="3" NCoef="0" IVar="-1" Cut="0.0000000000000000e+00" cType="1" res="-7.3430867632851005e-04" rms="1.5054002404212952e-01" purity="9.6187919378280640e-01" nType="-99"/>
          </Node>
        </Node>
      </Node>
    </BinaryTree>
    <BinaryTree type="DecisionTree" boostWeight="1.0000000000000000e+00" itree="574">
      <Node pos="s" depth="0" NCoef="0" IVar="4" Cut="4.1652841186523438e+02" cType="1" res="1.0168071603402495e-03" rms="1.8707226216793060e-01" purity="5.0116717815399170e-01" nType="0">
        <Node pos="l" depth="1" NCoef="0" IVar="5" Cut="2.4055474853515625e+02" cType="1" res="3.3180306199938059e-03" rms="1.9976623356342316e-01" purity="1.8270714581012726e-01" nType="0">
          <Node pos="l" depth="2" NCoef="0" IVar="0" Cut="8.3868682861328125e+02" cType="1" res="1.1645002523437142e-03" rms="1.7321346700191498e-01" purity="8.8409587740898132e-02" nType="0">
            <Node pos="l" depth="3" NCoef="0" IVar="-1" Cut="0.0000000000000000e+00" cType="1" res="-1.5110064996406436e-03" rms="1.4827781915664673e-01" purity="3.4485649317502975e-02" nType="-99"/>
            <Node pos="r" depth="3" NCoef="0" IVar="-1" Cut="0.0000000000000000e+00" cType="1" res="1.3432543724775314e-02" rms="3.1389293074607849e-01" purity="5.5060392618179321e-01" nType="-99"/>
          </Node>
          <Node pos="r" depth="2" NCoef="0" IVar="5" Cut="2.9828784179687500e+02" cType="1" res="1.1637916788458824e-02" rms="2.7942952513694763e-01" purity="5.4701352119445801e-01" nType="0">
            <Node pos="l" depth="3" NCoef="0" IVar="-1" Cut="0.0000000000000000e+00" cType="1" res="2.2848960012197495e-02" rms="2.9683828353881836e-01" purity="4.2383247613906860e-01" nType="-99"/>
            <Node pos="r" depth="3" NCoef="0" IVar="-1" Cut="0.0000000000000000e+00" cType="1" res="7.5038062641397119e-04" rms="2.5219494104385376e-01" purity="7.2221255302429199e-01" nType="-99"/>
          </Node>
        </Node>
        <Node pos="r" depth="1" NCoef="0" IVar="2" Cut="6.4097359776496887e-02" cType="1" res="-1.5898565761744976e-03" rms="1.7152535915374756e-01" purity="8.6189615726470947e-01" nType="0">
          <Node pos="l" depth="2" NCoef="0" IVar="1" Cut="2.4993459472656250e+03" cType="1" res="-4.1563007980585098e-03" rms="1.9957832992076874e-01" purity="7.7408254146575928e-01" nType="0">
            <Node pos="l" depth="3" NCoef="0" IVar="-1" Cut="0.0000000000000000e+00" cType="1" res="-1.6726376488804817e-02" rms="2.7452754974365234e-01" purity="2.0470094680786133e-01" nType="-99"/>
            <Node pos="r" depth="3" NCoef="0" IVar="-1" Cut="0.0000000000000000e+00" cType="1" res="-3.9759101346135139e-03" rms="1.6773277521133423e-01" purity="9.6090424060821533e-01" nType="-99"/>
          </Node>
          <Node pos="r" depth="2" NCoef="0" IVar="5" Cut="3.6114456176757812e+02" cType="1" res="1.3661803677678108e-03" rms="1.3196101784706116e-01" purity="9.6304011344909668e-01" nType="0">
            <Node pos="l" depth="3" NCoef="0" IVar="-1" Cut="0.0000000000000000e+00" cType="1" res="1.5175187028944492e-02" rms="1.9955705106258392e-01" purity="9.0412437915802002e-01" nType="-99"/>
            <Node pos="r" depth="3" NCoef="0" IVar="-1" Cut="0.0000000000000000e+00" cType="1" res="-1.2119970284402370e-02" rms="8.2029365003108978e-02" purity="9.9109238386154175e-01" nType="-99"/>
          </Node>
        </Node>
      </Node>
    </BinaryTree>
    <BinaryTree type="DecisionTree" boostWeight="1.0000000000000000e+00" itree="575">
      <Node pos="s" depth="0" NCoef="0" IVar="10" Cut="1.7333240509033203e+00" cType="1" res="1.0853472631424665e-03" rms="1.8782189488410950e-01" purity="5.0355148315429688e-01" nType="0">
        <Node pos="l" depth="1" NCoef="0" IVar="7" Cut="1.4907419681549072e+00" cType="1" res="-1.7844773537945002e-04" rms="1.8256890773773193e-01" purity="5.1005989313125610e-01" nType="0">
          <Node pos="l" depth="2" NCoef="0" IVar="10" Cut="-1.9363089799880981e+00" cType="1" res="-6.8145064869895577e-04" rms="1.8119828402996063e-01" purity="5.2610087394714355e-01" nType="0">
            <Node pos="l" depth="3" NCoef="0" IVar="-1" Cut="0.0000000000000000e+00" cType="1" res="1.7887983471155167e-02" rms="2.3270748555660248e-01" purity="4.0312960743904114e-01" nType="-99"/>
            <Node pos="r" depth="3" NCoef="0" IVar="-1" Cut="0.0000000000000000e+00" cType="1" res="-4.1611148044466972e-03" rms="1.7730027437210083e-01" purity="5.3411865234375000e-01" nType="-99"/>
          </Node>
          <Node pos="r" depth="2" NCoef="0" IVar="-1" Cut="0.0000000000000000e+00" cType="1" res="3.4639496356248856e-02" rms="2.1194811165332794e-01" purity="1.3245449960231781e-01" nType="-99"/>
        </Node>
        <Node pos="r" depth="1" NCoef="0" IVar="0" Cut="7.5837951660156250e+02" cType="1" res="1.5440878458321095e-02" rms="2.3906837403774261e-01" purity="4.2962157726287842e-01" nType="0">
          <Node pos="l" depth="2" NCoef="0" IVar="10" Cut="2.1397218704223633e+00" cType="1" res="2.5526136159896851e-02" rms="2.4804411828517914e-01" purity="2.2804138064384460e-01" nType="0">
            <Node pos="l" depth="3" NCoef="0" IVar="-1" Cut="0.0000000000000000e+00" cType="1" res="2.8695980086922646e-02" rms="2.2907082736492157e-01" purity="2.3136548697948456e-01" nType="-99"/>
            <Node pos="r" depth="3" NCoef="0" IVar="-1" Cut="0.0000000000000000e+00" cType="1" res="6.3714817166328430e-02" rms="2.6599338650703430e-01" purity="2.2460168600082397e-01" nType="-99"/>
          </Node>
          <Node pos="r" depth="2" NCoef="0" IVar="-1" Cut="0.0000000000000000e+00" cType="1" res="-9.7955362871289253e-03" rms="2.1869176626205444e-01" purity="8.3166354894638062e-01" nType="-99"/>
        </Node>
      </Node>
    </BinaryTree>
    <BinaryTree type="DecisionTree" boostWeight="1.0000000000000000e+00" itree="576">
      <Node pos="s" depth="0" NCoef="0" IVar="0" Cut="4.3884368896484375e+02" cType="1" res="8.7604867076152004e-06" rms="1.8386034667491913e-01" purity="5.0139039754867554e-01" nType="0">
        <Node pos="l" depth="1" NCoef="0" IVar="10" Cut="1.4663003683090210e+00" cType="1" res="-4.3560862541198730e-03" rms="1.2675443291664124e-01" purity="2.1288041025400162e-02" nType="0">
          <Node pos="l" depth="2" NCoef="0" IVar="10" Cut="-1.3774210214614868e+00" cType="1" res="-2.1959352307021618e-03" rms="1.2646691501140594e-01" purity="2.1554626524448395e-02" nType="0">
            <Node pos="l" depth="3" NCoef="0" IVar="-1" Cut="0.0000000000000000e+00" cType="1" res="-5.3370062261819839e-02" rms="1.1773911118507385e-01" purity="1.7088413238525391e-02" nType="-99"/>
            <Node pos="r" depth="3" NCoef="0" IVar="-1" Cut="0.0000000000000000e+00" cType="1" res="-1.3577388017438352e-04" rms="1.2807168066501617e-01" purity="2.2468749433755875e-02" nType="-99"/>
          </Node>
          <Node pos="r" depth="2" NCoef="0" IVar="-1" Cut="0.0000000000000000e+00" cType="1" res="-6.2253657728433609e-02" rms="1.2771059572696686e-01" purity="1.9629893824458122e-02" nType="-99"/>
        </Node>
        <Node pos="r" depth="1" NCoef="0" IVar="10" Cut="-1.2000248432159424e+00" cType="1" res="1.1411032173782587e-03" rms="1.9595927000045776e-01" purity="6.2594014406204224e-01" nType="0">
          <Node pos="l" depth="2" NCoef="0" IVar="4" Cut="3.2656628417968750e+02" cType="1" res="6.9511602632701397e-03" rms="2.2069643437862396e-01" purity="5.8020395040512085e-01" nType="0">
            <Node pos="l" depth="3" NCoef="0" IVar="-1" Cut="0.0000000000000000e+00" cType="1" res="-9.5142023637890816e-03" rms="2.1080902218818665e-01" purity="1.3058200478553772e-01" nType="-99"/>
            <Node pos="r" depth="3" NCoef="0" IVar="-1" Cut="0.0000000000000000e+00" cType="1" res="2.6146201416850090e-02" rms="2.2577448189258575e-01" purity="8.3144408464431763e-01" nType="-99"/>
          </Node>
          <Node pos="r" depth="2" NCoef="0" IVar="1" Cut="1.9525812988281250e+03" cType="1" res="-7.0027294896135572e-06" rms="1.9067075848579407e-01" purity="6.3497787714004517e-01" nType="0">
            <Node pos="l" depth="3" NCoef="0" IVar="-1" Cut="0.0000000000000000e+00" cType="1" res="1.6457468271255493e-02" rms="1.6824063658714294e-01" purity="4.0229052305221558e-02" nType="-99"/>
            <Node pos="r" depth="3" NCoef="0" IVar="-1" Cut="0.0000000000000000e+00" cType="1" res="-4.4800327159464359e-03" rms="1.9925649464130402e-01" purity="8.8315951824188232e-01" nType="-99"/>
          </Node>
        </Node>
      </Node>
    </BinaryTree>
    <BinaryTree type="DecisionTree" boostWeight="1.0000000000000000e+00" itree="577">
      <Node pos="s" depth="0" NCoef="0" IVar="10" Cut="-1.9998744726181030e+00" cType="1" res="-2.0660399459302425e-03" rms="1.8454848229885101e-01" purity="4.9389865994453430e-01" nType="0">
        <Node pos="l" depth="1" NCoef="0" IVar="-1" Cut="0.0000000000000000e+00" cType="1" res="-2.7687760069966316e-02" rms="2.2297951579093933e-01" purity="3.5760802030563354e-01" nType="-99"/>
        <Node pos="r" depth="1" NCoef="0" IVar="10" Cut="-1.5427350997924805e+00" cType="1" res="-1.3612646143883467e-03" rms="1.8238376080989838e-01" purity="5.0072014331817627e-01" nType="0">
          <Node pos="l" depth="2" NCoef="0" IVar="9" Cut="-1.3451640307903290e-01" cType="1" res="1.2226187624037266e-02" rms="2.1480351686477661e-01" purity="4.9037447571754456e-01" nType="0">
            <Node pos="l" depth="3" NCoef="0" IVar="-1" Cut="0.0000000000000000e+00" cType="1" res="-7.8249089419841766e-03" rms="2.0109374821186066e-01" purity="4.4148185849189758e-01" nType="-99"/>
            <Node pos="r" depth="3" NCoef="0" IVar="-1" Cut="0.0000000000000000e+00" cType="1" res="5.3510803729295731e-02" rms="2.2580890357494354e-01" purity="5.3546357154846191e-01" nType="-99"/>
          </Node>
          <Node pos="r" depth="2" NCoef="0" IVar="7" Cut="9.6843236684799194e-01" cType="1" res="-2.2713707294315100e-03" rms="1.7996706068515778e-01" purity="5.0141310691833496e-01" nType="0">
            <Node pos="l" depth="3" NCoef="0" IVar="-1" Cut="0.0000000000000000e+00" cType="1" res="-1.0018811561167240e-02" rms="1.7603914439678192e-01" purity="5.3544950485229492e-01" nType="-99"/>
            <Node pos="r" depth="3" NCoef="0" IVar="-1" Cut="0.0000000000000000e+00" cType="1" res="1.2899861671030521e-02" rms="2.0546796917915344e-01" purity="2.6057267189025879e-01" nType="-99"/>
          </Node>
        </Node>
      </Node>
    </BinaryTree>
    <BinaryTree type="DecisionTree" boostWeight="1.0000000000000000e+00" itree="578">
      <Node pos="s" depth="0" NCoef="0" IVar="10" Cut="-1.9999903440475464e+00" cType="1" res="7.0452160434797406e-04" rms="1.8503795564174652e-01" purity="5.0614553689956665e-01" nType="0">
        <Node pos="l" depth="1" NCoef="0" IVar="-1" Cut="0.0000000000000000e+00" cType="1" res="-2.1417116746306419e-02" rms="2.0756675302982330e-01" purity="3.5838386416435242e-01" nType="-99"/>
        <Node pos="r" depth="1" NCoef="0" IVar="9" Cut="-1.9998860359191895e+00" cType="1" res="1.3070412678644061e-03" rms="1.8386088311672211e-01" purity="5.1326763629913330e-01" nType="0">
          <Node pos="l" depth="2" NCoef="0" IVar="-1" Cut="0.0000000000000000e+00" cType="1" res="4.2812749743461609e-02" rms="2.5004720687866211e-01" purity="2.5709882378578186e-01" nType="-99"/>
          <Node pos="r" depth="2" NCoef="0" IVar="8" Cut="1.3333451747894287e-01" cType="1" res="6.9864717079326510e-04" rms="1.8132311105728149e-01" purity="5.2142721414566040e-01" nType="0">
            <Node pos="l" depth="3" NCoef="0" IVar="-1" Cut="0.0000000000000000e+00" cType="1" res="8.4202736616134644e-03" rms="1.8194553256034851e-01" purity="5.3356397151947021e-01" nType="-99"/>
            <Node pos="r" depth="3" NCoef="0" IVar="-1" Cut="0.0000000000000000e+00" cType="1" res="-5.8518559671938419e-03" rms="1.8050684034824371e-01" purity="5.0630497932434082e-01" nType="-99"/>
          </Node>
        </Node>
      </Node>
    </BinaryTree>
    <BinaryTree type="DecisionTree" boostWeight="1.0000000000000000e+00" itree="579">
      <Node pos="s" depth="0" NCoef="0" IVar="8" Cut="-4.0010342001914978e-01" cType="1" res="4.4261498260311782e-04" rms="1.8778061866760254e-01" purity="4.9524086713790894e-01" nType="0">
        <Node pos="l" depth="1" NCoef="0" IVar="10" Cut="1.4664753675460815e+00" cType="1" res="4.6209506690502167e-03" rms="1.9740812480449677e-01" purity="4.5520919561386108e-01" nType="0">
          <Node pos="l" depth="2" NCoef="0" IVar="1" Cut="2.6563310546875000e+03" cType="1" res="6.5782265737652779e-03" rms="1.9435857236385345e-01" purity="4.6040877699851990e-01" nType="0">
            <Node pos="l" depth="3" NCoef="0" IVar="-1" Cut="0.0000000000000000e+00" cType="1" res="2.3368075489997864e-02" rms="2.2264048457145691e-01" purity="1.6373278200626373e-01" nType="-99"/>
            <Node pos="r" depth="3" NCoef="0" IVar="-1" Cut="0.0000000000000000e+00" cType="1" res="-7.1645155549049377e-03" rms="1.3107742369174957e-01" purity="9.7606605291366577e-01" nType="-99"/>
          </Node>
          <Node pos="r" depth="2" NCoef="0" IVar="-1" Cut="0.0000000000000000e+00" cType="1" res="-2.1452803164720535e-02" rms="2.2102031111717224e-01" purity="4.1085442900657654e-01" nType="-99"/>
        </Node>
        <Node pos="r" depth="1" NCoef="0" IVar="3" Cut="3.4610580444335938e+02" cType="1" res="-1.7560034757480025e-03" rms="1.8247245252132416e-01" purity="5.1630526781082153e-01" nType="0">
          <Node pos="l" depth="2" NCoef="0" IVar="-1" Cut="0.0000000000000000e+00" cType="1" res="5.7869151234626770e-02" rms="2.0009799301624298e-01" purity="5.8066710829734802e-02" nType="-99"/>
          <Node pos="r" depth="2" NCoef="0" IVar="4" Cut="4.2007540893554688e+02" cType="1" res="-2.6173330843448639e-03" rms="1.8154913187026978e-01" purity="5.3803229331970215e-01" nType="0">
            <Node pos="l" depth="3" NCoef="0" IVar="-1" Cut="0.0000000000000000e+00" cType="1" res="-1.2855865061283112e-02" rms="1.9540926814079285e-01" purity="1.7652693390846252e-01" nType="-99"/>
            <Node pos="r" depth="3" NCoef="0" IVar="-1" Cut="0.0000000000000000e+00" cType="1" res="-2.3420173965860158e-04" rms="1.6749364137649536e-01" purity="8.7655431032180786e-01" nType="-99"/>
          </Node>
        </Node>
      </Node>
    </BinaryTree>
    <BinaryTree type="DecisionTree" boostWeight="1.0000000000000000e+00" itree="580">
      <Node pos="s" depth="0" NCoef="0" IVar="9" Cut="1.9997553825378418e+00" cType="1" res="-1.3838561717420816e-03" rms="1.8439672887325287e-01" purity="5.0178033113479614e-01" nType="0">
        <Node pos="l" depth="1" NCoef="0" IVar="8" Cut="1.4666378498077393e+00" cType="1" res="-9.2757446691393852e-04" rms="1.8365840613842010e-01" purity="5.1158457994461060e-01" nType="0">
          <Node pos="l" depth="2" NCoef="0" IVar="1" Cut="2.2266738281250000e+03" cType="1" res="-1.5586647205054760e-03" rms="1.7942544817924500e-01" purity="5.3063476085662842e-01" nType="0">
            <Node pos="l" depth="3" NCoef="0" IVar="-1" Cut="0.0000000000000000e+00" cType="1" res="-1.2498327530920506e-02" rms="1.8149673938751221e-01" purity="5.7846657931804657e-02" nType="-99"/>
            <Node pos="r" depth="3" NCoef="0" IVar="-1" Cut="0.0000000000000000e+00" cType="1" res="3.2211989164352417e-03" rms="1.7756243050098419e-01" purity="9.4206029176712036e-01" nType="-99"/>
          </Node>
          <Node pos="r" depth="2" NCoef="0" IVar="3" Cut="5.5321356201171875e+02" cType="1" res="7.4241166003048420e-03" rms="2.3236729204654694e-01" purity="2.5947988033294678e-01" nType="0">
            <Node pos="l" depth="3" NCoef="0" IVar="-1" Cut="0.0000000000000000e+00" cType="1" res="4.8721667379140854e-02" rms="2.2779704630374908e-01" purity="1.3173285126686096e-01" nType="-99"/>
            <Node pos="r" depth="3" NCoef="0" IVar="-1" Cut="0.0000000000000000e+00" cType="1" res="-9.5652481541037560e-03" rms="2.3561929166316986e-01" purity="3.7136039137840271e-01" nType="-99"/>
          </Node>
        </Node>
        <Node pos="r" depth="1" NCoef="0" IVar="-1" Cut="0.0000000000000000e+00" cType="1" res="-2.6615267619490623e-02" rms="2.0296387374401093e-01" purity="2.3659932613372803e-01" nType="-99"/>
      </Node>
    </BinaryTree>
    <BinaryTree type="DecisionTree" boostWeight="1.0000000000000000e+00" itree="581">
      <Node pos="s" depth="0" NCoef="0" IVar="9" Cut="-1.1999777555465698e+00" cType="1" res="-5.0635496154427528e-04" rms="1.8497632443904877e-01" purity="4.9579691886901855e-01" nType="0">
        <Node pos="l" depth="1" NCoef="0" IVar="5" Cut="1.8028898620605469e+02" cType="1" res="6.2415432184934616e-03" rms="2.0640653371810913e-01" purity="3.9618247747421265e-01" nType="0">
          <Node pos="l" depth="2" NCoef="0" IVar="8" Cut="-1.3173487782478333e-01" cType="1" res="-1.9720853306353092e-03" rms="1.6480648517608643e-01" purity="9.9869199097156525e-02" nType="0">
            <Node pos="l" depth="3" NCoef="0" IVar="-1" Cut="0.0000000000000000e+00" cType="1" res="-3.2179638743400574e-02" rms="1.4077587425708771e-01" purity="8.7496787309646606e-02" nType="-99"/>
            <Node pos="r" depth="3" NCoef="0" IVar="-1" Cut="0.0000000000000000e+00" cType="1" res="1.4695221558213234e-02" rms="1.8610778450965881e-01" purity="1.1263213306665421e-01" nType="-99"/>
          </Node>
          <Node pos="r" depth="2" NCoef="0" IVar="4" Cut="3.5052914428710938e+02" cType="1" res="1.3234201818704605e-02" rms="2.3589034378528595e-01" purity="6.4844822883605957e-01" nType="0">
            <Node pos="l" depth="3" NCoef="0" IVar="-1" Cut="0.0000000000000000e+00" cType="1" res="4.2110566049814224e-02" rms="2.7964568138122559e-01" purity="2.7535131573677063e-01" nType="-99"/>
            <Node pos="r" depth="3" NCoef="0" IVar="-1" Cut="0.0000000000000000e+00" cType="1" res="1.2039896100759506e-02" rms="2.0882971584796906e-01" purity="8.4469300508499146e-01" nType="-99"/>
          </Node>
        </Node>
        <Node pos="r" depth="1" NCoef="0" IVar="3" Cut="3.3558401489257812e+02" cType="1" res="-1.6380951274186373e-03" rms="1.8110938370227814e-01" purity="5.1250404119491577e-01" nType="0">
          <Node pos="l" depth="2" NCoef="0" IVar="-1" Cut="0.0000000000000000e+00" cType="1" res="-6.6234089434146881e-02" rms="1.2737050652503967e-01" purity="2.2214358672499657e-02" nType="-99"/>
          <Node pos="r" depth="2" NCoef="0" IVar="8" Cut="-1.7330486774444580e+00" cType="1" res="-9.6222502179443836e-04" rms="1.8276959657669067e-01" purity="5.3074783086776733e-01" nType="0">
            <Node pos="l" depth="3" NCoef="0" IVar="-1" Cut="0.0000000000000000e+00" cType="1" res="-3.8007546216249466e-02" rms="1.8075190484523773e-01" purity="1.7526306211948395e-01" nType="-99"/>
            <Node pos="r" depth="3" NCoef="0" IVar="-1" Cut="0.0000000000000000e+00" cType="1" res="-1.1900051031261683e-03" rms="1.8282225728034973e-01" purity="5.4424369335174561e-01" nType="-99"/>
          </Node>
        </Node>
      </Node>
    </BinaryTree>
    <BinaryTree type="DecisionTree" boostWeight="1.0000000000000000e+00" itree="582">
      <Node pos="s" depth="0" NCoef="0" IVar="8" Cut="1.7333536148071289e+00" cType="1" res="-6.1004073359072208e-04" rms="1.8635925650596619e-01" purity="4.9959397315979004e-01" nType="0">
        <Node pos="l" depth="1" NCoef="0" IVar="10" Cut="-4.0002793073654175e-01" cType="1" res="8.7850894487928599e-05" rms="1.8559348583221436e-01" purity="5.1392453908920288e-01" nType="0">
          <Node pos="l" depth="2" NCoef="0" IVar="10" Cut="-2.1142635345458984e+00" cType="1" res="-3.4621527884155512e-03" rms="1.8010459840297699e-01" purity="4.9122527241706848e-01" nType="0">
            <Node pos="l" depth="3" NCoef="0" IVar="-1" Cut="0.0000000000000000e+00" cType="1" res="1.8668003380298615e-02" rms="2.2322422266006470e-01" purity="3.6451211571693420e-01" nType="-99"/>
            <Node pos="r" depth="3" NCoef="0" IVar="-1" Cut="0.0000000000000000e+00" cType="1" res="-1.4927455224096775e-02" rms="1.7404612898826599e-01" purity="5.0670051574707031e-01" nType="-99"/>
          </Node>
          <Node pos="r" depth="2" NCoef="0" IVar="3" Cut="6.3722503662109375e+02" cType="1" res="2.1921303123235703e-03" rms="1.8874020874500275e-01" purity="5.2737957239151001e-01" nType="0">
            <Node pos="l" depth="3" NCoef="0" IVar="-1" Cut="0.0000000000000000e+00" cType="1" res="1.4459004625678062e-02" rms="2.0254273712635040e-01" purity="2.1110923588275909e-01" nType="-99"/>
            <Node pos="r" depth="3" NCoef="0" IVar="-1" Cut="0.0000000000000000e+00" cType="1" res="-1.7483109841123223e-03" rms="1.7734481394290924e-01" purity="7.7066439390182495e-01" nType="-99"/>
          </Node>
        </Node>
        <Node pos="r" depth="1" NCoef="0" IVar="-1" Cut="0.0000000000000000e+00" cType="1" res="-3.6150418221950531e-02" rms="2.0258918404579163e-01" purity="1.6833235323429108e-01" nType="-99"/>
      </Node>
    </BinaryTree>
    <BinaryTree type="DecisionTree" boostWeight="1.0000000000000000e+00" itree="583">
      <Node pos="s" depth="0" NCoef="0" IVar="9" Cut="1.4665660858154297e+00" cType="1" res="1.0742902522906661e-03" rms="1.8431943655014038e-01" purity="4.9885535240173340e-01" nType="0">
        <Node pos="l" depth="1" NCoef="0" IVar="0" Cut="5.9425061035156250e+02" cType="1" res="2.0879535004496574e-03" rms="1.8168619275093079e-01" purity="5.1550942659378052e-01" nType="0">
          <Node pos="l" depth="2" NCoef="0" IVar="4" Cut="3.3176617431640625e+02" cType="1" res="6.8343039602041245e-03" rms="1.9157534837722778e-01" purity="1.1118795722723007e-01" nType="0">
            <Node pos="l" depth="3" NCoef="0" IVar="-1" Cut="0.0000000000000000e+00" cType="1" res="4.6060783788561821e-03" rms="1.2805125117301941e-01" purity="2.5344317778944969e-02" nType="-99"/>
            <Node pos="r" depth="3" NCoef="0" IVar="-1" Cut="0.0000000000000000e+00" cType="1" res="2.4485057219862938e-02" rms="2.5621816515922546e-01" purity="2.3410354554653168e-01" nType="-99"/>
          </Node>
          <Node pos="r" depth="2" NCoef="0" IVar="6" Cut="8.6826980590820312e+01" cType="1" res="-9.5772120403125882e-04" rms="1.7497861385345459e-01" purity="7.7495747804641724e-01" nType="0">
            <Node pos="l" depth="3" NCoef="0" IVar="-1" Cut="0.0000000000000000e+00" cType="1" res="-1.5056349337100983e-02" rms="2.0298117399215698e-01" purity="3.1980842351913452e-01" nType="-99"/>
            <Node pos="r" depth="3" NCoef="0" IVar="-1" Cut="0.0000000000000000e+00" cType="1" res="2.1400949917733669e-03" rms="1.6730426251888275e-01" purity="8.8738256692886353e-01" nType="-99"/>
          </Node>
        </Node>
        <Node pos="r" depth="1" NCoef="0" IVar="7" Cut="-3.2508966326713562e-01" cType="1" res="-8.9517291635274887e-03" rms="2.0831620693206787e-01" purity="3.3413210511207581e-01" nType="0">
          <Node pos="l" depth="2" NCoef="0" IVar="-1" Cut="0.0000000000000000e+00" cType="1" res="-4.2758058756589890e-02" rms="2.0757485926151276e-01" purity="2.6853913068771362e-01" nType="-99"/>
          <Node pos="r" depth="2" NCoef="0" IVar="0" Cut="6.5740197753906250e+02" cType="1" res="-3.1736830715090036e-03" rms="2.0849797129631042e-01" purity="3.7025114893913269e-01" nType="0">
            <Node pos="l" depth="3" NCoef="0" IVar="-1" Cut="0.0000000000000000e+00" cType="1" res="-2.0585859194397926e-02" rms="1.9276735186576843e-01" purity="1.1362857371568680e-01" nType="-99"/>
            <Node pos="r" depth="3" NCoef="0" IVar="-1" Cut="0.0000000000000000e+00" cType="1" res="9.0921381488442421e-03" rms="2.2687864303588867e-01" purity="7.0036023855209351e-01" nType="-99"/>
          </Node>
        </Node>
      </Node>
    </BinaryTree>
    <BinaryTree type="DecisionTree" boostWeight="1.0000000000000000e+00" itree="584">
      <Node pos="s" depth="0" NCoef="0" IVar="10" Cut="3.9988633990287781e-01" cType="1" res="-3.7883557524764910e-05" rms="1.8436260521411896e-01" purity="4.9916464090347290e-01" nType="0">
        <Node pos="l" depth="1" NCoef="0" IVar="7" Cut="2.0499338209629059e-01" cType="1" res="2.7582987677305937e-03" rms="1.8333640694618225e-01" purity="5.0354593992233276e-01" nType="0">
          <Node pos="l" depth="2" NCoef="0" IVar="10" Cut="-2.0380933284759521e+00" cType="1" res="6.0610235668718815e-03" rms="1.8494261801242828e-01" purity="5.1458323001861572e-01" nType="0">
            <Node pos="l" depth="3" NCoef="0" IVar="-1" Cut="0.0000000000000000e+00" cType="1" res="3.9696540683507919e-02" rms="2.3440758883953094e-01" purity="4.0712040662765503e-01" nType="-99"/>
            <Node pos="r" depth="3" NCoef="0" IVar="-1" Cut="0.0000000000000000e+00" cType="1" res="1.4413185417652130e-02" rms="1.8029814958572388e-01" purity="5.2324831485748291e-01" nType="-99"/>
          </Node>
          <Node pos="r" depth="2" NCoef="0" IVar="10" Cut="-1.1238362789154053e+00" cType="1" res="-2.5007030926644802e-03" rms="1.8062475323677063e-01" purity="4.8597076535224915e-01" nType="0">
            <Node pos="l" depth="3" NCoef="0" IVar="-1" Cut="0.0000000000000000e+00" cType="1" res="-2.9195910319685936e-02" rms="1.9506099820137024e-01" purity="4.1669398546218872e-01" nType="-99"/>
            <Node pos="r" depth="3" NCoef="0" IVar="-1" Cut="0.0000000000000000e+00" cType="1" res="4.6640764921903610e-03" rms="1.7415671050548553e-01" purity="5.1458007097244263e-01" nType="-99"/>
          </Node>
        </Node>
        <Node pos="r" depth="1" NCoef="0" IVar="0" Cut="8.8815948486328125e+02" cType="1" res="-4.6541625633835793e-03" rms="1.8595241010189056e-01" purity="4.9193152785301208e-01" nType="0">
          <Node pos="l" depth="2" NCoef="0" IVar="1" Cut="1.8658355712890625e+03" cType="1" res="-7.5587015599012375e-03" rms="1.9894298911094666e-01" purity="2.6349508762359619e-01" nType="0">
            <Node pos="l" depth="3" NCoef="0" IVar="-1" Cut="0.0000000000000000e+00" cType="1" res="-1.3571127317845821e-02" rms="1.3318806886672974e-01" purity="2.3024288937449455e-02" nType="-99"/>
            <Node pos="r" depth="3" NCoef="0" IVar="-1" Cut="0.0000000000000000e+00" cType="1" res="-1.9326087087392807e-02" rms="2.7789026498794556e-01" purity="6.7912316322326660e-01" nType="-99"/>
          </Node>
          <Node pos="r" depth="2" NCoef="0" IVar="8" Cut="6.6718000173568726e-01" cType="1" res="1.0562459938228130e-03" rms="1.5715895593166351e-01" purity="9.4104421138763428e-01" nType="0">
            <Node pos="l" depth="3" NCoef="0" IVar="-1" Cut="0.0000000000000000e+00" cType="1" res="-1.3184527866542339e-02" rms="1.4234824478626251e-01" purity="9.4843560457229614e-01" nType="-99"/>
            <Node pos="r" depth="3" NCoef="0" IVar="-1" Cut="0.0000000000000000e+00" cType="1" res="3.8328856229782104e-02" rms="2.0160512626171112e-01" purity="9.1408038139343262e-01" nType="-99"/>
          </Node>
        </Node>
      </Node>
    </BinaryTree>
    <BinaryTree type="DecisionTree" boostWeight="1.0000000000000000e+00" itree="585">
      <Node pos="s" depth="0" NCoef="0" IVar="10" Cut="-1.7333121299743652e+00" cType="1" res="-7.6029094634577632e-04" rms="1.8379266560077667e-01" purity="4.9833673238754272e-01" nType="0">
        <Node pos="l" depth="1" NCoef="0" IVar="1" Cut="2.1743879394531250e+03" cType="1" res="-1.6563063487410545e-02" rms="1.9134105741977692e-01" purity="3.8035023212432861e-01" nType="0">
          <Node pos="l" depth="2" NCoef="0" IVar="-1" Cut="0.0000000000000000e+00" cType="1" res="-6.5577022731304169e-02" rms="1.7095838487148285e-01" purity="5.0318926572799683e-02" nType="-99"/>
          <Node pos="r" depth="2" NCoef="0" IVar="-1" Cut="0.0000000000000000e+00" cType="1" res="6.4617493189871311e-03" rms="2.1768048405647278e-01" purity="8.9136767387390137e-01" nType="-99"/>
        </Node>
        <Node pos="r" depth="1" NCoef="0" IVar="8" Cut="-1.4667234420776367e+00" cType="1" res="5.7296582963317633e-04" rms="1.8307919800281525e-01" purity="5.0829100608825684e-01" nType="0">
          <Node pos="l" depth="2" NCoef="0" IVar="4" Cut="3.1751049804687500e+02" cType="1" res="1.2383368797600269e-02" rms="2.2198885679244995e-01" purity="2.3488695919513702e-01" nType="0">
            <Node pos="l" depth="3" NCoef="0" IVar="-1" Cut="0.0000000000000000e+00" cType="1" res="5.9247408062219620e-02" rms="2.0917260646820068e-01" purity="1.1792855709791183e-01" nType="-99"/>
            <Node pos="r" depth="3" NCoef="0" IVar="-1" Cut="0.0000000000000000e+00" cType="1" res="-3.0538532882928848e-03" rms="2.3855406045913696e-01" purity="4.0355497598648071e-01" nType="-99"/>
          </Node>
          <Node pos="r" depth="2" NCoef="0" IVar="7" Cut="1.2003929615020752e+00" cType="1" res="-3.0944184982217848e-04" rms="1.7980326712131500e-01" purity="5.2871829271316528e-01" nType="0">
            <Node pos="l" depth="3" NCoef="0" IVar="-1" Cut="0.0000000000000000e+00" cType="1" res="-3.4939835313707590e-03" rms="1.7649017274379730e-01" purity="5.5525451898574829e-01" nType="-99"/>
            <Node pos="r" depth="3" NCoef="0" IVar="-1" Cut="0.0000000000000000e+00" cType="1" res="2.4762909859418869e-02" rms="2.1549010276794434e-01" purity="2.0921070873737335e-01" nType="-99"/>
          </Node>
        </Node>
      </Node>
    </BinaryTree>
    <BinaryTree type="DecisionTree" boostWeight="1.0000000000000000e+00" itree="586">
      <Node pos="s" depth="0" NCoef="0" IVar="9" Cut="1.9997553825378418e+00" cType="1" res="4.0702332626096904e-04" rms="1.8702399730682373e-01" purity="4.9768298864364624e-01" nType="0">
        <Node pos="l" depth="1" NCoef="0" IVar="10" Cut="-2.0000047683715820e+00" cType="1" res="8.7136880028992891e-04" rms="1.8609830737113953e-01" purity="5.0735229253768921e-01" nType="0">
          <Node pos="l" depth="2" NCoef="0" IVar="-1" Cut="0.0000000000000000e+00" cType="1" res="2.9985895380377769e-02" rms="2.2833287715911865e-01" purity="3.8397637009620667e-01" nType="-99"/>
          <Node pos="r" depth="2" NCoef="0" IVar="7" Cut="-1.6074736118316650e+00" cType="1" res="1.1542192078195512e-04" rms="1.8361192941665649e-01" purity="5.1375001668930054e-01" nType="0">
            <Node pos="l" depth="3" NCoef="0" IVar="-1" Cut="0.0000000000000000e+00" cType="1" res="5.3898118436336517e-02" rms="1.8244776129722595e-01" purity="1.0652849823236465e-01" nType="-99"/>
            <Node pos="r" depth="3" NCoef="0" IVar="-1" Cut="0.0000000000000000e+00" cType="1" res="-1.0279623093083501e-03" rms="1.8362894654273987e-01" purity="5.2665048837661743e-01" nType="-99"/>
          </Node>
        </Node>
        <Node pos="r" depth="1" NCoef="0" IVar="-1" Cut="0.0000000000000000e+00" cType="1" res="-2.6740903034806252e-02" rms="2.1250641345977783e-01" purity="2.0703145861625671e-01" nType="-99"/>
      </Node>
    </BinaryTree>
    <BinaryTree type="DecisionTree" boostWeight="1.0000000000000000e+00" itree="587">
      <Node pos="s" depth="0" NCoef="0" IVar="5" Cut="2.1269895935058594e+02" cType="1" res="1.9307575421407819e-03" rms="1.8514455854892731e-01" purity="5.0067371129989624e-01" nType="0">
        <Node pos="l" depth="1" NCoef="0" IVar="2" Cut="9.4971232116222382e-02" cType="1" res="6.2418431043624878e-03" rms="1.8721541762351990e-01" purity="1.3231004774570465e-01" nType="0">
          <Node pos="l" depth="2" NCoef="0" IVar="6" Cut="1.3495179748535156e+02" cType="1" res="3.8296624552458525e-03" rms="1.8065495789051056e-01" purity="1.2122681736946106e-01" nType="0">
            <Node pos="l" depth="3" NCoef="0" IVar="-1" Cut="0.0000000000000000e+00" cType="1" res="1.8314582994207740e-03" rms="1.6563352942466736e-01" purity="8.6787909269332886e-02" nType="-99"/>
            <Node pos="r" depth="3" NCoef="0" IVar="-1" Cut="0.0000000000000000e+00" cType="1" res="3.6875780671834946e-02" rms="2.4769741296768188e-01" purity="3.1405520439147949e-01" nType="-99"/>
          </Node>
          <Node pos="r" depth="2" NCoef="0" IVar="-1" Cut="0.0000000000000000e+00" cType="1" res="6.3623607158660889e-02" rms="2.5178885459899902e-01" purity="2.6675063371658325e-01" nType="-99"/>
        </Node>
        <Node pos="r" depth="1" NCoef="0" IVar="1" Cut="2.2268081054687500e+03" cType="1" res="-1.6229336615651846e-03" rms="1.8334372341632843e-01" purity="8.0432122945785522e-01" nType="0">
          <Node pos="l" depth="2" NCoef="0" IVar="8" Cut="1.3265316188335419e-01" cType="1" res="-1.5639364719390869e-02" rms="2.7210372686386108e-01" purity="1.5308274328708649e-01" nType="0">
            <Node pos="l" depth="3" NCoef="0" IVar="-1" Cut="0.0000000000000000e+00" cType="1" res="-3.1332619488239288e-02" rms="2.5842380523681641e-01" purity="1.3972383737564087e-01" nType="-99"/>
            <Node pos="r" depth="3" NCoef="0" IVar="-1" Cut="0.0000000000000000e+00" cType="1" res="-2.7321039233356714e-03" rms="2.8634354472160339e-01" purity="1.6832391917705536e-01" nType="-99"/>
          </Node>
          <Node pos="r" depth="2" NCoef="0" IVar="1" Cut="2.6992839355468750e+03" cType="1" res="1.9061238272115588e-03" rms="1.5288776159286499e-01" purity="9.6829009056091309e-01" nType="0">
            <Node pos="l" depth="3" NCoef="0" IVar="-1" Cut="0.0000000000000000e+00" cType="1" res="1.0385695844888687e-02" rms="3.0993077158927917e-01" purity="8.5614871978759766e-01" nType="-99"/>
            <Node pos="r" depth="3" NCoef="0" IVar="-1" Cut="0.0000000000000000e+00" cType="1" res="3.3389171585440636e-03" rms="1.0054031759500504e-01" purity="9.8873436450958252e-01" nType="-99"/>
          </Node>
        </Node>
      </Node>
    </BinaryTree>
    <BinaryTree type="DecisionTree" boostWeight="1.0000000000000000e+00" itree="588">
      <Node pos="s" depth="0" NCoef="0" IVar="10" Cut="-6.6660678386688232e-01" cType="1" res="-1.9477845635265112e-03" rms="1.8162527680397034e-01" purity="5.0362604856491089e-01" nType="0">
        <Node pos="l" depth="1" NCoef="0" IVar="1" Cut="1.9511254882812500e+03" cType="1" res="2.3565224837511778e-03" rms="1.9312344491481781e-01" purity="4.8779770731925964e-01" nType="0">
          <Node pos="l" depth="2" NCoef="0" IVar="5" Cut="1.5031834411621094e+02" cType="1" res="-3.9501511491835117e-03" rms="1.4974637329578400e-01" purity="3.0246376991271973e-02" nType="0">
            <Node pos="l" depth="3" NCoef="0" IVar="-1" Cut="0.0000000000000000e+00" cType="1" res="3.5389982163906097e-02" rms="1.1113871634006500e-01" purity="1.3813104480504990e-02" nType="-99"/>
            <Node pos="r" depth="3" NCoef="0" IVar="-1" Cut="0.0000000000000000e+00" cType="1" res="-2.6811366900801659e-02" rms="1.8143042922019958e-01" purity="4.7552905976772308e-02" nType="-99"/>
          </Node>
          <Node pos="r" depth="2" NCoef="0" IVar="0" Cut="1.0078839111328125e+03" cType="1" res="7.5522223487496376e-03" rms="2.2246268391609192e-01" purity="8.6474752426147461e-01" nType="0">
            <Node pos="l" depth="3" NCoef="0" IVar="-1" Cut="0.0000000000000000e+00" cType="1" res="1.8325855955481529e-02" rms="2.6970002055168152e-01" purity="7.8820443153381348e-01" nType="-99"/>
            <Node pos="r" depth="3" NCoef="0" IVar="-1" Cut="0.0000000000000000e+00" cType="1" res="-3.2569966278970242e-03" rms="1.4101280272006989e-01" purity="9.6182519197463989e-01" nType="-99"/>
          </Node>
        </Node>
        <Node pos="r" depth="1" NCoef="0" IVar="9" Cut="-1.3310882449150085e-01" cType="1" res="-3.7988147232681513e-03" rms="1.7641805112361908e-01" purity="5.1043289899826050e-01" nType="0">
          <Node pos="l" depth="2" NCoef="0" IVar="1" Cut="2.5918125000000000e+03" cType="1" res="-7.8688990324735641e-03" rms="1.7188034951686859e-01" purity="5.1594752073287964e-01" nType="0">
            <Node pos="l" depth="3" NCoef="0" IVar="-1" Cut="0.0000000000000000e+00" cType="1" res="-2.9004242271184921e-02" rms="1.9946570694446564e-01" purity="1.2984505295753479e-01" nType="-99"/>
            <Node pos="r" depth="3" NCoef="0" IVar="-1" Cut="0.0000000000000000e+00" cType="1" res="-4.3904976919293404e-03" rms="1.3130940496921539e-01" purity="9.7607237100601196e-01" nType="-99"/>
          </Node>
          <Node pos="r" depth="2" NCoef="0" IVar="5" Cut="2.0849307250976562e+02" cType="1" res="-5.8646209072321653e-04" rms="1.7985366284847260e-01" purity="5.0608032941818237e-01" nType="0">
            <Node pos="l" depth="3" NCoef="0" IVar="-1" Cut="0.0000000000000000e+00" cType="1" res="-1.7653355374932289e-02" rms="1.7155151069164276e-01" purity="1.1037439852952957e-01" nType="-99"/>
            <Node pos="r" depth="3" NCoef="0" IVar="-1" Cut="0.0000000000000000e+00" cType="1" res="9.0528363361954689e-03" rms="1.8569307029247284e-01" purity="7.9997330904006958e-01" nType="-99"/>
          </Node>
        </Node>
      </Node>
    </BinaryTree>
    <BinaryTree type="DecisionTree" boostWeight="1.0000000000000000e+00" itree="589">
      <Node pos="s" depth="0" NCoef="0" IVar="4" Cut="5.0404653930664062e+02" cType="1" res="1.4336556196212769e-03" rms="1.8734866380691528e-01" purity="5.0346404314041138e-01" nType="0">
        <Node pos="l" depth="1" NCoef="0" IVar="8" Cut="-1.4665751457214355e+00" cType="1" res="3.7958209868520498e-03" rms="2.0567676424980164e-01" purity="2.7407282590866089e-01" nType="0">
          <Node pos="l" depth="2" NCoef="0" IVar="9" Cut="-1.3480772078037262e-01" cType="1" res="1.7250273376703262e-02" rms="2.2745430469512939e-01" purity="2.0347908139228821e-01" nType="0">
            <Node pos="l" depth="3" NCoef="0" IVar="-1" Cut="0.0000000000000000e+00" cType="1" res="6.8707287311553955e-02" rms="2.3922908306121826e-01" purity="2.2710607945919037e-01" nType="-99"/>
            <Node pos="r" depth="3" NCoef="0" IVar="-1" Cut="0.0000000000000000e+00" cType="1" res="-7.1046683005988598e-03" rms="2.1113358438014984e-01" purity="1.7611010372638702e-01" nType="-99"/>
          </Node>
          <Node pos="r" depth="2" NCoef="0" IVar="3" Cut="1.0388651123046875e+03" cType="1" res="2.2510883864015341e-03" rms="2.0296993851661682e-01" purity="2.8217786550521851e-01" nType="0">
            <Node pos="l" depth="3" NCoef="0" IVar="-1" Cut="0.0000000000000000e+00" cType="1" res="7.8778509050607681e-03" rms="2.0251815021038055e-01" purity="2.4588830769062042e-01" nType="-99"/>
            <Node pos="r" depth="3" NCoef="0" IVar="-1" Cut="0.0000000000000000e+00" cType="1" res="-2.7626182883977890e-02" rms="2.0952957868576050e-01" purity="8.6693048477172852e-01" nType="-99"/>
          </Node>
        </Node>
        <Node pos="r" depth="1" NCoef="0" IVar="5" Cut="2.2050032043457031e+02" cType="1" res="-2.9814685694873333e-03" rms="1.4698876440525055e-01" purity="9.3221926689147949e-01" nType="0">
          <Node pos="l" depth="2" NCoef="0" IVar="-1" Cut="0.0000000000000000e+00" cType="1" res="-2.9701124876737595e-02" rms="2.6827716827392578e-01" purity="6.1722755432128906e-01" nType="-99"/>
          <Node pos="r" depth="2" NCoef="0" IVar="9" Cut="1.3596296310424805e-01" cType="1" res="-4.4459273340180516e-04" rms="1.2062356621026993e-01" purity="9.7601515054702759e-01" nType="0">
            <Node pos="l" depth="3" NCoef="0" IVar="-1" Cut="0.0000000000000000e+00" cType="1" res="7.3808347806334496e-03" rms="1.1515623331069946e-01" purity="9.7720408439636230e-01" nType="-99"/>
            <Node pos="r" depth="3" NCoef="0" IVar="-1" Cut="0.0000000000000000e+00" cType="1" res="-1.6755299642682076e-02" rms="1.2743788957595825e-01" purity="9.7444915771484375e-01" nType="-99"/>
          </Node>
        </Node>
      </Node>
    </BinaryTree>
    <BinaryTree type="DecisionTree" boostWeight="1.0000000000000000e+00" itree="590">
      <Node pos="s" depth="0" NCoef="0" IVar="9" Cut="1.7330117225646973e+00" cType="1" res="2.5594462640583515e-03" rms="1.8671116232872009e-01" purity="4.9908521771430969e-01" nType="0">
        <Node pos="l" depth="1" NCoef="0" IVar="8" Cut="-1.4665313959121704e+00" cType="1" res="1.8729993607848883e-03" rms="1.8356651067733765e-01" purity="5.1195561885833740e-01" nType="0">
          <Node pos="l" depth="2" NCoef="0" IVar="0" Cut="6.1079992675781250e+02" cType="1" res="-7.4066612869501114e-03" rms="2.0133687555789948e-01" purity="2.4881121516227722e-01" nType="0">
            <Node pos="l" depth="3" NCoef="0" IVar="-1" Cut="0.0000000000000000e+00" cType="1" res="-4.2913194745779037e-02" rms="1.6483983397483826e-01" purity="6.2428418546915054e-02" nType="-99"/>
            <Node pos="r" depth="3" NCoef="0" IVar="-1" Cut="0.0000000000000000e+00" cType="1" res="8.5669280961155891e-03" rms="2.4786318838596344e-01" purity="5.4400408267974854e-01" nType="-99"/>
          </Node>
          <Node pos="r" depth="2" NCoef="0" IVar="0" Cut="7.3323706054687500e+02" cType="1" res="2.5797178968787193e-03" rms="1.8212275207042694e-01" purity="5.3199613094329834e-01" nType="0">
            <Node pos="l" depth="3" NCoef="0" IVar="-1" Cut="0.0000000000000000e+00" cType="1" res="1.3311921618878841e-02" rms="1.9885939359664917e-01" purity="2.0161555707454681e-01" nType="-99"/>
            <Node pos="r" depth="3" NCoef="0" IVar="-1" Cut="0.0000000000000000e+00" cType="1" res="-1.9875571597367525e-03" rms="1.6197393834590912e-01" purity="8.9025902748107910e-01" nType="-99"/>
          </Node>
        </Node>
        <Node pos="r" depth="1" NCoef="0" IVar="1" Cut="1.6314608154296875e+03" cType="1" res="1.3103118166327477e-02" rms="2.2940680384635925e-01" purity="3.0139839649200439e-01" nType="0">
          <Node pos="l" depth="2" NCoef="0" IVar="-1" Cut="0.0000000000000000e+00" cType="1" res="-3.0809445306658745e-03" rms="1.1618351936340332e-01" purity="1.5517324209213257e-02" nType="-99"/>
          <Node pos="r" depth="2" NCoef="0" IVar="-1" Cut="0.0000000000000000e+00" cType="1" res="2.7898181229829788e-02" rms="2.8740987181663513e-01" purity="5.2225035429000854e-01" nType="-99"/>
        </Node>
      </Node>
    </BinaryTree>
    <BinaryTree type="DecisionTree" boostWeight="1.0000000000000000e+00" itree="591">
      <Node pos="s" depth="0" NCoef="0" IVar="7" Cut="-1.1410051584243774e+00" cType="1" res="-1.2839557894039899e-04" rms="1.8452559411525726e-01" purity="5.0151169300079346e-01" nType="0">
        <Node pos="l" depth="1" NCoef="0" IVar="5" Cut="1.7901902770996094e+02" cType="1" res="-8.4784496575593948e-03" rms="1.8119136989116669e-01" purity="1.8004794418811798e-01" nType="0">
          <Node pos="l" depth="2" NCoef="0" IVar="-1" Cut="0.0000000000000000e+00" cType="1" res="1.3476782478392124e-02" rms="1.2892854213714600e-01" purity="2.8088852763175964e-02" nType="-99"/>
          <Node pos="r" depth="2" NCoef="0" IVar="-1" Cut="0.0000000000000000e+00" cType="1" res="-3.7609573453664780e-02" rms="2.2565820813179016e-01" purity="3.5221907496452332e-01" nType="-99"/>
        </Node>
        <Node pos="r" depth="1" NCoef="0" IVar="3" Cut="5.0089886474609375e+02" cType="1" res="6.4793496858328581e-04" rms="1.8481336534023285e-01" purity="5.3139919042587280e-01" nType="0">
          <Node pos="l" depth="2" NCoef="0" IVar="1" Cut="1.8022377929687500e+03" cType="1" res="-3.9748949930071831e-03" rms="1.9213749468326569e-01" purity="1.0286145657300949e-01" nType="0">
            <Node pos="l" depth="3" NCoef="0" IVar="-1" Cut="0.0000000000000000e+00" cType="1" res="-6.9824460661038756e-04" rms="1.4816528558731079e-01" purity="2.9890429228544235e-02" nType="-99"/>
            <Node pos="r" depth="3" NCoef="0" IVar="-1" Cut="0.0000000000000000e+00" cType="1" res="-1.8816223368048668e-02" rms="3.4091883897781372e-01" purity="4.9199044704437256e-01" nType="-99"/>
          </Node>
          <Node pos="r" depth="2" NCoef="0" IVar="9" Cut="1.4661059379577637e+00" cType="1" res="1.8856037640944123e-03" rms="1.8278284370899200e-01" purity="6.4613145589828491e-01" nType="0">
            <Node pos="l" depth="3" NCoef="0" IVar="-1" Cut="0.0000000000000000e+00" cType="1" res="3.1422383617609739e-03" rms="1.7880211770534515e-01" purity="6.5986973047256470e-01" nType="-99"/>
            <Node pos="r" depth="3" NCoef="0" IVar="-1" Cut="0.0000000000000000e+00" cType="1" res="2.1942285820841789e-02" rms="2.2050860524177551e-01" purity="5.0009387731552124e-01" nType="-99"/>
          </Node>
        </Node>
      </Node>
    </BinaryTree>
    <BinaryTree type="DecisionTree" boostWeight="1.0000000000000000e+00" itree="592">
      <Node pos="s" depth="0" NCoef="0" IVar="0" Cut="5.9424890136718750e+02" cType="1" res="2.4636066882521845e-05" rms="1.8456026911735535e-01" purity="5.0241518020629883e-01" nType="0">
        <Node pos="l" depth="1" NCoef="0" IVar="5" Cut="2.4815174865722656e+02" cType="1" res="-3.4292514901608229e-03" rms="1.8595547974109650e-01" purity="9.5961891114711761e-02" nType="0">
          <Node pos="l" depth="2" NCoef="0" IVar="3" Cut="4.7466705322265625e+02" cType="1" res="1.1597350239753723e-03" rms="1.4956928789615631e-01" purity="3.4609466791152954e-02" nType="0">
            <Node pos="l" depth="3" NCoef="0" IVar="-1" Cut="0.0000000000000000e+00" cType="1" res="-3.4644097089767456e-02" rms="1.2069025635719299e-01" purity="1.5196179971098900e-02" nType="-99"/>
            <Node pos="r" depth="3" NCoef="0" IVar="-1" Cut="0.0000000000000000e+00" cType="1" res="2.0463077351450920e-02" rms="1.6166113317012787e-01" purity="4.4078968465328217e-02" nType="-99"/>
          </Node>
          <Node pos="r" depth="2" NCoef="0" IVar="9" Cut="1.3494178652763367e-01" cType="1" res="-2.3723796010017395e-02" rms="2.9675871133804321e-01" purity="3.6728960275650024e-01" nType="0">
            <Node pos="l" depth="3" NCoef="0" IVar="-1" Cut="0.0000000000000000e+00" cType="1" res="-7.4849380180239677e-03" rms="2.9647964239120483e-01" purity="3.9548397064208984e-01" nType="-99"/>
            <Node pos="r" depth="3" NCoef="0" IVar="-1" Cut="0.0000000000000000e+00" cType="1" res="-4.3296538293361664e-02" rms="2.9599234461784363e-01" purity="3.3607402443885803e-01" nType="-99"/>
          </Node>
        </Node>
        <Node pos="r" depth="1" NCoef="0" IVar="8" Cut="-9.3279725313186646e-01" cType="1" res="2.2653997875750065e-03" rms="1.8361468613147736e-01" purity="7.6610809564590454e-01" nType="0">
          <Node pos="l" depth="2" NCoef="0" IVar="1" Cut="2.3528593750000000e+03" cType="1" res="1.3304649852216244e-02" rms="2.3495264351367950e-01" purity="6.5495914220809937e-01" nType="0">
            <Node pos="l" depth="3" NCoef="0" IVar="-1" Cut="0.0000000000000000e+00" cType="1" res="4.5191589742898941e-02" rms="2.8707596659660339e-01" purity="2.1812911331653595e-01" nType="-99"/>
            <Node pos="r" depth="3" NCoef="0" IVar="-1" Cut="0.0000000000000000e+00" cType="1" res="6.8844662746414542e-04" rms="1.9247618317604065e-01" purity="9.3948882818222046e-01" nType="-99"/>
          </Node>
          <Node pos="r" depth="2" NCoef="0" IVar="9" Cut="-9.3303346633911133e-01" cType="1" res="3.8344811764545739e-04" rms="1.7328223586082458e-01" purity="7.8505659103393555e-01" nType="0">
            <Node pos="l" depth="3" NCoef="0" IVar="-1" Cut="0.0000000000000000e+00" cType="1" res="2.0152328535914421e-02" rms="1.9465848803520203e-01" purity="7.4941498041152954e-01" nType="-99"/>
            <Node pos="r" depth="3" NCoef="0" IVar="-1" Cut="0.0000000000000000e+00" cType="1" res="-4.6831108629703522e-03" rms="1.6808240115642548e-01" purity="7.9301971197128296e-01" nType="-99"/>
          </Node>
        </Node>
      </Node>
    </BinaryTree>
    <BinaryTree type="DecisionTree" boostWeight="1.0000000000000000e+00" itree="593">
      <Node pos="s" depth="0" NCoef="0" IVar="6" Cut="1.3441841125488281e+02" cType="1" res="-1.0648737661540508e-03" rms="1.8209628760814667e-01" purity="5.0105911493301392e-01" nType="0">
        <Node pos="l" depth="1" NCoef="0" IVar="9" Cut="1.9999486207962036e+00" cType="1" res="-4.2536891996860504e-03" rms="1.8444137275218964e-01" purity="2.1837510168552399e-01" nType="0">
          <Node pos="l" depth="2" NCoef="0" IVar="1" Cut="1.9190295410156250e+03" cType="1" res="-5.5291475728154182e-03" rms="1.8292979896068573e-01" purity="2.1932984888553619e-01" nType="0">
            <Node pos="l" depth="3" NCoef="0" IVar="-1" Cut="0.0000000000000000e+00" cType="1" res="-1.3624947518110275e-02" rms="1.1577137559652328e-01" purity="1.6432091593742371e-02" nType="-99"/>
            <Node pos="r" depth="3" NCoef="0" IVar="-1" Cut="0.0000000000000000e+00" cType="1" res="-1.5623206272721291e-02" rms="2.7726802229881287e-01" purity="6.5924352407455444e-01" nType="-99"/>
          </Node>
          <Node pos="r" depth="2" NCoef="0" IVar="-1" Cut="0.0000000000000000e+00" cType="1" res="3.8069590926170349e-02" rms="2.0929622650146484e-01" purity="2.0051912963390350e-01" nType="-99"/>
        </Node>
        <Node pos="r" depth="1" NCoef="0" IVar="0" Cut="5.5411071777343750e+02" cType="1" res="2.3445163387805223e-03" rms="1.7949245870113373e-01" purity="8.0329686403274536e-01" nType="0">
          <Node pos="l" depth="2" NCoef="0" IVar="1" Cut="1.7677340087890625e+03" cType="1" res="1.4488943852484226e-02" rms="2.6394307613372803e-01" purity="2.2944612801074982e-01" nType="0">
            <Node pos="l" depth="3" NCoef="0" IVar="-1" Cut="0.0000000000000000e+00" cType="1" res="9.7842095419764519e-04" rms="1.6113303601741791e-01" purity="3.2055560499429703e-02" nType="-99"/>
            <Node pos="r" depth="3" NCoef="0" IVar="-1" Cut="0.0000000000000000e+00" cType="1" res="2.5949554517865181e-02" rms="3.6157163977622986e-01" purity="5.0838822126388550e-01" nType="-99"/>
          </Node>
          <Node pos="r" depth="2" NCoef="0" IVar="9" Cut="-6.6679900884628296e-01" cType="1" res="-6.6017173230648041e-04" rms="1.5134993195533752e-01" purity="9.4527488946914673e-01" nType="0">
            <Node pos="l" depth="3" NCoef="0" IVar="-1" Cut="0.0000000000000000e+00" cType="1" res="-2.2418260574340820e-02" rms="1.6041181981563568e-01" purity="9.3240708112716675e-01" nType="-99"/>
            <Node pos="r" depth="3" NCoef="0" IVar="-1" Cut="0.0000000000000000e+00" cType="1" res="4.2084753513336182e-03" rms="1.4834368228912354e-01" purity="9.4932782649993896e-01" nType="-99"/>
          </Node>
        </Node>
      </Node>
    </BinaryTree>
    <BinaryTree type="DecisionTree" boostWeight="1.0000000000000000e+00" itree="594">
      <Node pos="s" depth="0" NCoef="0" IVar="8" Cut="-9.3330901861190796e-01" cType="1" res="5.4715265287086368e-04" rms="1.8482384085655212e-01" purity="4.9712410569190979e-01" nType="0">
        <Node pos="l" depth="1" NCoef="0" IVar="3" Cut="6.8075476074218750e+02" cType="1" res="-6.3571874052286148e-03" rms="1.9313403964042664e-01" purity="3.5560026764869690e-01" nType="0">
          <Node pos="l" depth="2" NCoef="0" IVar="5" Cut="1.3490037536621094e+02" cType="1" res="-1.2508922256529331e-02" rms="1.8267695605754852e-01" purity="1.7681896686553955e-01" nType="0">
            <Node pos="l" depth="3" NCoef="0" IVar="-1" Cut="0.0000000000000000e+00" cType="1" res="2.1825272589921951e-02" rms="1.0383307188749313e-01" purity="1.5384994447231293e-02" nType="-99"/>
            <Node pos="r" depth="3" NCoef="0" IVar="-1" Cut="0.0000000000000000e+00" cType="1" res="-3.6160334944725037e-02" rms="2.0798669755458832e-01" purity="2.4848012626171112e-01" nType="-99"/>
          </Node>
          <Node pos="r" depth="2" NCoef="0" IVar="10" Cut="1.3319127261638641e-01" cType="1" res="4.6201413497328758e-03" rms="2.1006029844284058e-01" purity="6.7462265491485596e-01" nType="0">
            <Node pos="l" depth="3" NCoef="0" IVar="-1" Cut="0.0000000000000000e+00" cType="1" res="-1.9487966783344746e-03" rms="2.0322921872138977e-01" purity="6.3386142253875732e-01" nType="-99"/>
            <Node pos="r" depth="3" NCoef="0" IVar="-1" Cut="0.0000000000000000e+00" cType="1" res="2.4991985410451889e-02" rms="2.1830672025680542e-01" purity="7.2690314054489136e-01" nType="-99"/>
          </Node>
        </Node>
        <Node pos="r" depth="1" NCoef="0" IVar="7" Cut="1.2043707370758057e+00" cType="1" res="2.0026701968163252e-03" rms="1.8299056589603424e-01" purity="5.2695900201797485e-01" nType="0">
          <Node pos="l" depth="2" NCoef="0" IVar="10" Cut="-6.6665285825729370e-01" cType="1" res="2.7108278591185808e-03" rms="1.8129320442676544e-01" purity="5.5267751216888428e-01" nType="0">
            <Node pos="l" depth="3" NCoef="0" IVar="-1" Cut="0.0000000000000000e+00" cType="1" res="1.6493072733283043e-02" rms="1.9849579036235809e-01" purity="5.4341202974319458e-01" nType="-99"/>
            <Node pos="r" depth="3" NCoef="0" IVar="-1" Cut="0.0000000000000000e+00" cType="1" res="3.6622947081923485e-03" rms="1.7379397153854370e-01" purity="5.5644255876541138e-01" nType="-99"/>
          </Node>
          <Node pos="r" depth="2" NCoef="0" IVar="8" Cut="3.1077978014945984e-01" cType="1" res="-7.4953772127628326e-03" rms="2.0416110754013062e-01" purity="1.8201416730880737e-01" nType="0">
            <Node pos="l" depth="3" NCoef="0" IVar="-1" Cut="0.0000000000000000e+00" cType="1" res="9.7497617825865746e-03" rms="2.2371521592140198e-01" purity="2.2377921640872955e-01" nType="-99"/>
            <Node pos="r" depth="3" NCoef="0" IVar="-1" Cut="0.0000000000000000e+00" cType="1" res="-5.0567254424095154e-02" rms="1.8189300596714020e-01" purity="1.4035265147686005e-01" nType="-99"/>
          </Node>
        </Node>
      </Node>
    </BinaryTree>
    <BinaryTree type="DecisionTree" boostWeight="1.0000000000000000e+00" itree="595">
      <Node pos="s" depth="0" NCoef="0" IVar="10" Cut="-1.9999470710754395e+00" cType="1" res="-1.0553067550063133e-03" rms="1.8353396654129028e-01" purity="4.9485224485397339e-01" nType="0">
        <Node pos="l" depth="1" NCoef="0" IVar="-1" Cut="0.0000000000000000e+00" cType="1" res="-2.8670160099864006e-02" rms="2.0547376573085785e-01" purity="3.3967512845993042e-01" nType="-99"/>
        <Node pos="r" depth="1" NCoef="0" IVar="2" Cut="8.2520619034767151e-02" cType="1" res="-3.5628094337880611e-04" rms="1.8230295181274414e-01" purity="5.0285941362380981e-01" nType="0">
          <Node pos="l" depth="2" NCoef="0" IVar="8" Cut="6.6669052839279175e-01" cType="1" res="1.4467387227341533e-03" rms="1.9089180231094360e-01" purity="4.1261228919029236e-01" nType="0">
            <Node pos="l" depth="3" NCoef="0" IVar="-1" Cut="0.0000000000000000e+00" cType="1" res="9.0444395318627357e-03" rms="1.8914446234703064e-01" purity="4.3811443448066711e-01" nType="-99"/>
            <Node pos="r" depth="3" NCoef="0" IVar="-1" Cut="0.0000000000000000e+00" cType="1" res="-8.0333901569247246e-03" rms="1.9533847272396088e-01" purity="3.4544432163238525e-01" nType="-99"/>
          </Node>
          <Node pos="r" depth="2" NCoef="0" IVar="1" Cut="2.1550134277343750e+03" cType="1" res="-5.9630507603287697e-03" rms="1.5239882469177246e-01" purity="7.8349667787551880e-01" nType="0">
            <Node pos="l" depth="3" NCoef="0" IVar="-1" Cut="0.0000000000000000e+00" cType="1" res="-4.0601421147584915e-02" rms="2.2400391101837158e-01" purity="9.1194190084934235e-02" nType="-99"/>
            <Node pos="r" depth="3" NCoef="0" IVar="-1" Cut="0.0000000000000000e+00" cType="1" res="-1.0166872525587678e-03" rms="1.2413954734802246e-01" purity="9.8031020164489746e-01" nType="-99"/>
          </Node>
        </Node>
      </Node>
    </BinaryTree>
    <BinaryTree type="DecisionTree" boostWeight="1.0000000000000000e+00" itree="596">
      <Node pos="s" depth="0" NCoef="0" IVar="10" Cut="2.2666020393371582e+00" cType="1" res="9.4389717560261488e-05" rms="1.8617264926433563e-01" purity="4.9602103233337402e-01" nType="0">
        <Node pos="l" depth="1" NCoef="0" IVar="8" Cut="6.6669231653213501e-01" cType="1" res="6.2514602905139327e-04" rms="1.8446819484233856e-01" purity="5.0055140256881714e-01" nType="0">
          <Node pos="l" depth="2" NCoef="0" IVar="6" Cut="1.2901866149902344e+02" cType="1" res="-9.2150340788066387e-04" rms="1.7811089754104614e-01" purity="5.2933704853057861e-01" nType="0">
            <Node pos="l" depth="3" NCoef="0" IVar="-1" Cut="0.0000000000000000e+00" cType="1" res="-1.0945204645395279e-02" rms="1.8108975887298584e-01" purity="2.2504198551177979e-01" nType="-99"/>
            <Node pos="r" depth="3" NCoef="0" IVar="-1" Cut="0.0000000000000000e+00" cType="1" res="5.4213935509324074e-03" rms="1.7536722123622894e-01" purity="8.0089098215103149e-01" nType="-99"/>
          </Node>
          <Node pos="r" depth="2" NCoef="0" IVar="8" Cut="1.0730441808700562e+00" cType="1" res="5.2049588412046432e-03" rms="2.0205420255661011e-01" purity="4.1531372070312500e-01" nType="0">
            <Node pos="l" depth="3" NCoef="0" IVar="-1" Cut="0.0000000000000000e+00" cType="1" res="3.7898276001214981e-02" rms="2.0499250292778015e-01" purity="5.1877176761627197e-01" nType="-99"/>
            <Node pos="r" depth="3" NCoef="0" IVar="-1" Cut="0.0000000000000000e+00" cType="1" res="-5.6906640529632568e-03" rms="1.9937445223331451e-01" purity="3.3359545469284058e-01" nType="-99"/>
          </Node>
        </Node>
        <Node pos="r" depth="1" NCoef="0" IVar="-1" Cut="0.0000000000000000e+00" cType="1" res="-3.5142745822668076e-02" rms="2.3737475275993347e-01" purity="3.3797335624694824e-01" nType="-99"/>
      </Node>
    </BinaryTree>
    <BinaryTree type="DecisionTree" boostWeight="1.0000000000000000e+00" itree="597">
      <Node pos="s" depth="0" NCoef="0" IVar="8" Cut="9.3341463804244995e-01" cType="1" res="1.4388894196599722e-03" rms="1.8571740388870239e-01" purity="5.0162434577941895e-01" nType="0">
        <Node pos="l" depth="1" NCoef="0" IVar="9" Cut="-9.3338727951049805e-01" cType="1" res="2.5719820987433195e-03" rms="1.8134057521820068e-01" purity="5.3560644388198853e-01" nType="0">
          <Node pos="l" depth="2" NCoef="0" IVar="4" Cut="3.2389096069335938e+02" cType="1" res="-3.9859330281615257e-03" rms="1.8712779879570007e-01" purity="4.4607424736022949e-01" nType="0">
            <Node pos="l" depth="3" NCoef="0" IVar="-1" Cut="0.0000000000000000e+00" cType="1" res="8.8210692629218102e-03" rms="1.6924801468849182e-01" purity="9.7533151507377625e-02" nType="-99"/>
            <Node pos="r" depth="3" NCoef="0" IVar="-1" Cut="0.0000000000000000e+00" cType="1" res="-1.9968265667557716e-02" rms="1.9835947453975677e-01" purity="6.8577241897583008e-01" nType="-99"/>
          </Node>
          <Node pos="r" depth="2" NCoef="0" IVar="0" Cut="5.7298376464843750e+02" cType="1" res="4.2314901947975159e-03" rms="1.7980864644050598e-01" purity="5.5826288461685181e-01" nType="0">
            <Node pos="l" depth="3" NCoef="0" IVar="-1" Cut="0.0000000000000000e+00" cType="1" res="2.6672346517443657e-02" rms="1.9594602286815643e-01" purity="9.9850341677665710e-02" nType="-99"/>
            <Node pos="r" depth="3" NCoef="0" IVar="-1" Cut="0.0000000000000000e+00" cType="1" res="4.9840626306831837e-03" rms="1.7117749154567719e-01" purity="7.8563725948333740e-01" nType="-99"/>
          </Node>
        </Node>
        <Node pos="r" depth="1" NCoef="0" IVar="2" Cut="3.0709175392985344e-02" cType="1" res="-3.8811913691461086e-03" rms="2.0493823289871216e-01" purity="3.4207212924957275e-01" nType="0">
          <Node pos="l" depth="2" NCoef="0" IVar="9" Cut="4.0026286244392395e-01" cType="1" res="1.3901654165238142e-03" rms="2.1209307014942169e-01" purity="2.1421921253204346e-01" nType="0">
            <Node pos="l" depth="3" NCoef="0" IVar="-1" Cut="0.0000000000000000e+00" cType="1" res="2.0483853295445442e-02" rms="2.2659331560134888e-01" purity="2.6208615303039551e-01" nType="-99"/>
            <Node pos="r" depth="3" NCoef="0" IVar="-1" Cut="0.0000000000000000e+00" cType="1" res="-2.6448251679539680e-02" rms="1.8912553787231445e-01" purity="1.4656139910221100e-01" nType="-99"/>
          </Node>
          <Node pos="r" depth="2" NCoef="0" IVar="-1" Cut="0.0000000000000000e+00" cType="1" res="-2.8294868767261505e-02" rms="1.9272324442863464e-01" purity="5.4530781507492065e-01" nType="-99"/>
        </Node>
      </Node>
    </BinaryTree>
    <BinaryTree type="DecisionTree" boostWeight="1.0000000000000000e+00" itree="598">
      <Node pos="s" depth="0" NCoef="0" IVar="4" Cut="4.3152114868164062e+02" cType="1" res="1.7632137751206756e-03" rms="1.8735530972480774e-01" purity="5.0076204538345337e-01" nType="0">
        <Node pos="l" depth="1" NCoef="0" IVar="1" Cut="1.6762904052734375e+03" cType="1" res="3.7363287992775440e-03" rms="2.0170056819915771e-01" purity="1.9145956635475159e-01" nType="0">
          <Node pos="l" depth="2" NCoef="0" IVar="3" Cut="4.8288821411132812e+02" cType="1" res="-3.3564807381480932e-04" rms="9.4001792371273041e-02" purity="1.0608607903122902e-02" nType="0">
            <Node pos="l" depth="3" NCoef="0" IVar="-1" Cut="0.0000000000000000e+00" cType="1" res="1.8045626580715179e-02" rms="1.2807187438011169e-01" purity="2.0133281126618385e-02" nType="-99"/>
            <Node pos="r" depth="3" NCoef="0" IVar="-1" Cut="0.0000000000000000e+00" cType="1" res="-7.5068280100822449e-02" rms="3.7757080048322678e-02" purity="1.3036095770075917e-03" nType="-99"/>
          </Node>
          <Node pos="r" depth="2" NCoef="0" IVar="3" Cut="6.5595153808593750e+02" cType="1" res="8.8729094713926315e-03" rms="2.8426894545555115e-01" purity="4.1959336400032043e-01" nType="0">
            <Node pos="l" depth="3" NCoef="0" IVar="-1" Cut="0.0000000000000000e+00" cType="1" res="1.7754172906279564e-02" rms="3.1714892387390137e-01" purity="3.4447476267814636e-01" nType="-99"/>
            <Node pos="r" depth="3" NCoef="0" IVar="-1" Cut="0.0000000000000000e+00" cType="1" res="1.3680953998118639e-03" rms="2.4902227520942688e-01" purity="4.9050146341323853e-01" nType="-99"/>
          </Node>
        </Node>
        <Node pos="r" depth="1" NCoef="0" IVar="8" Cut="6.6249459981918335e-01" cType="1" res="-6.5292546059936285e-04" rms="1.6809870302677155e-01" purity="8.7951231002807617e-01" nType="0">
          <Node pos="l" depth="2" NCoef="0" IVar="0" Cut="6.8671063232421875e+02" cType="1" res="9.3436025781556964e-04" rms="1.6155408322811127e-01" purity="8.8949173688888550e-01" nType="0">
            <Node pos="l" depth="3" NCoef="0" IVar="-1" Cut="0.0000000000000000e+00" cType="1" res="1.1434167623519897e-02" rms="2.7041956782341003e-01" purity="5.4152631759643555e-01" nType="-99"/>
            <Node pos="r" depth="3" NCoef="0" IVar="-1" Cut="0.0000000000000000e+00" cType="1" res="-6.7870914936065674e-03" rms="1.1936325579881668e-01" purity="9.7705382108688354e-01" nType="-99"/>
          </Node>
          <Node pos="r" depth="2" NCoef="0" IVar="-1" Cut="0.0000000000000000e+00" cType="1" res="-1.9690465182065964e-02" rms="1.9329997897148132e-01" purity="8.3712428808212280e-01" nType="-99"/>
        </Node>
      </Node>
    </BinaryTree>
    <BinaryTree type="DecisionTree" boostWeight="1.0000000000000000e+00" itree="599">
      <Node pos="s" depth="0" NCoef="0" IVar="3" Cut="5.0105148315429688e+02" cType="1" res="-8.2756560004781932e-06" rms="1.8773005902767181e-01" purity="4.9352064728736877e-01" nType="0">
        <Node pos="l" depth="1" NCoef="0" IVar="9" Cut="-6.6665846109390259e-01" cType="1" res="-4.9793412908911705e-03" rms="1.8741273880004883e-01" purity="9.7793482244014740e-02" nType="0">
          <Node pos="l" depth="2" NCoef="0" IVar="5" Cut="1.7655343627929688e+02" cType="1" res="-1.5678619965910912e-02" rms="1.6667008399963379e-01" purity="9.3559220433235168e-02" nType="0">
            <Node pos="l" depth="3" NCoef="0" IVar="-1" Cut="0.0000000000000000e+00" cType="1" res="-2.9349759221076965e-02" rms="1.0808110982179642e-01" purity="1.2328865006566048e-02" nType="-99"/>
            <Node pos="r" depth="3" NCoef="0" IVar="-1" Cut="0.0000000000000000e+00" cType="1" res="-4.2385876178741455e-02" rms="2.0670096576213837e-01" purity="1.7022438347339630e-01" nType="-99"/>
          </Node>
          <Node pos="r" depth="2" NCoef="0" IVar="2" Cut="5.6437555700540543e-02" cType="1" res="-2.6811231509782374e-04" rms="1.9566552340984344e-01" purity="9.9657960236072540e-02" nType="0">
            <Node pos="l" depth="3" NCoef="0" IVar="-1" Cut="0.0000000000000000e+00" cType="1" res="2.1985197439789772e-02" rms="1.8529161810874939e-01" purity="6.9564357399940491e-02" nType="-99"/>
            <Node pos="r" depth="3" NCoef="0" IVar="-1" Cut="0.0000000000000000e+00" cType="1" res="-3.0645912513136864e-02" rms="2.1598263084888458e-01" purity="1.6609172523021698e-01" nType="-99"/>
          </Node>
        </Node>
        <Node pos="r" depth="1" NCoef="0" IVar="6" Cut="1.7662754821777344e+02" cType="1" res="1.5379493124783039e-03" rms="1.8780182301998138e-01" purity="6.1660957336425781e-01" nType="0">
          <Node pos="l" depth="2" NCoef="0" IVar="5" Cut="1.4546917724609375e+02" cType="1" res="3.8047975394874811e-03" rms="2.1601736545562744e-01" purity="3.8544011116027832e-01" nType="0">
            <Node pos="l" depth="3" NCoef="0" IVar="-1" Cut="0.0000000000000000e+00" cType="1" res="-7.0680044591426849e-03" rms="1.5197022259235382e-01" purity="7.4971176683902740e-02" nType="-99"/>
            <Node pos="r" depth="3" NCoef="0" IVar="-1" Cut="0.0000000000000000e+00" cType="1" res="1.2610210105776787e-02" rms="2.4975179135799408e-01" purity="5.9289056062698364e-01" nType="-99"/>
          </Node>
          <Node pos="r" depth="2" NCoef="0" IVar="2" Cut="6.1912272125482559e-02" cType="1" res="-1.8249566201120615e-03" rms="1.3545274734497070e-01" purity="9.5955318212509155e-01" nType="0">
            <Node pos="l" depth="3" NCoef="0" IVar="-1" Cut="0.0000000000000000e+00" cType="1" res="-2.1558208391070366e-02" rms="1.6843459010124207e-01" purity="9.2980641126632690e-01" nType="-99"/>
            <Node pos="r" depth="3" NCoef="0" IVar="-1" Cut="0.0000000000000000e+00" cType="1" res="1.2467851862311363e-02" rms="1.0278505086898804e-01" purity="9.8257851600646973e-01" nType="-99"/>
          </Node>
        </Node>
      </Node>
    </BinaryTree>
    <BinaryTree type="DecisionTree" boostWeight="1.0000000000000000e+00" itree="600">
      <Node pos="s" depth="0" NCoef="0" IVar="8" Cut="-1.4666094779968262e+00" cType="1" res="-8.1135367508977652e-04" rms="1.8373760581016541e-01" purity="5.0119245052337646e-01" nType="0">
        <Node pos="l" depth="1" NCoef="0" IVar="8" Cut="-1.7840852737426758e+00" cType="1" res="-9.9007291719317436e-03" rms="2.0185555517673492e-01" purity="2.1417465806007385e-01" nType="0">
          <Node pos="l" depth="2" NCoef="0" IVar="-1" Cut="0.0000000000000000e+00" cType="1" res="-3.8881602231413126e-03" rms="1.9211703538894653e-01" purity="1.4822597801685333e-01" nType="-99"/>
          <Node pos="r" depth="2" NCoef="0" IVar="-1" Cut="0.0000000000000000e+00" cType="1" res="-4.0065627545118332e-02" rms="2.1145266294479370e-01" purity="2.8499636054039001e-01" nType="-99"/>
        </Node>
        <Node pos="r" depth="1" NCoef="0" IVar="8" Cut="-8.5712677240371704e-01" cType="1" res="-1.2315993080846965e-04" rms="1.8227405846118927e-01" purity="5.2292376756668091e-01" nType="0">
          <Node pos="l" depth="2" NCoef="0" IVar="5" Cut="1.9638151550292969e+02" cType="1" res="6.7222495563328266e-03" rms="2.1257950365543365e-01" purity="4.5263427495956421e-01" nType="0">
            <Node pos="l" depth="3" NCoef="0" IVar="-1" Cut="0.0000000000000000e+00" cType="1" res="5.5873781442642212e-02" rms="2.1515344083309174e-01" purity="1.1849557608366013e-01" nType="-99"/>
            <Node pos="r" depth="3" NCoef="0" IVar="-1" Cut="0.0000000000000000e+00" cType="1" res="-6.9587342441082001e-03" rms="2.1001553535461426e-01" purity="7.1373635530471802e-01" nType="-99"/>
          </Node>
          <Node pos="r" depth="2" NCoef="0" IVar="10" Cut="-1.9999470710754395e+00" cType="1" res="-1.1628160718828440e-03" rms="1.7719550430774689e-01" purity="5.3359907865524292e-01" nType="0">
            <Node pos="l" depth="3" NCoef="0" IVar="-1" Cut="0.0000000000000000e+00" cType="1" res="1.8010383471846581e-02" rms="2.2384516894817352e-01" purity="4.4496929645538330e-01" nType="-99"/>
            <Node pos="r" depth="3" NCoef="0" IVar="-1" Cut="0.0000000000000000e+00" cType="1" res="-5.2369334734976292e-03" rms="1.7460224032402039e-01" purity="5.3789377212524414e-01" nType="-99"/>
          </Node>
        </Node>
      </Node>
    </BinaryTree>
    <BinaryTree type="DecisionTree" boostWeight="1.0000000000000000e+00" itree="601">
      <Node pos="s" depth="0" NCoef="0" IVar="8" Cut="1.2000045776367188e+00" cType="1" res="4.8351223813369870e-04" rms="1.8175420165061951e-01" purity="5.0559639930725098e-01" nType="0">
        <Node pos="l" depth="1" NCoef="0" IVar="6" Cut="1.3441920471191406e+02" cType="1" res="-4.2041251435875893e-04" rms="1.7706839740276337e-01" purity="5.3188633918762207e-01" nType="0">
          <Node pos="l" depth="2" NCoef="0" IVar="1" Cut="1.6762941894531250e+03" cType="1" res="-4.0950211696326733e-03" rms="1.8293754756450653e-01" purity="2.3305724561214447e-01" nType="0">
            <Node pos="l" depth="3" NCoef="0" IVar="-1" Cut="0.0000000000000000e+00" cType="1" res="-7.9406425356864929e-03" rms="7.8957572579383850e-02" purity="6.7026326432824135e-03" nType="-99"/>
            <Node pos="r" depth="3" NCoef="0" IVar="-1" Cut="0.0000000000000000e+00" cType="1" res="-1.1428383179008961e-02" rms="2.4665367603302002e-01" purity="4.6078765392303467e-01" nType="-99"/>
          </Node>
          <Node pos="r" depth="2" NCoef="0" IVar="1" Cut="2.7719028320312500e+03" cType="1" res="3.1534691806882620e-03" rms="1.7109151184558868e-01" purity="8.2252407073974609e-01" nType="0">
            <Node pos="l" depth="3" NCoef="0" IVar="-1" Cut="0.0000000000000000e+00" cType="1" res="1.1097298935055733e-02" rms="2.7586099505424500e-01" purity="4.7241204977035522e-01" nType="-99"/>
            <Node pos="r" depth="3" NCoef="0" IVar="-1" Cut="0.0000000000000000e+00" cType="1" res="5.6237443350255489e-03" rms="8.0075800418853760e-02" purity="9.9326753616333008e-01" nType="-99"/>
          </Node>
        </Node>
        <Node pos="r" depth="1" NCoef="0" IVar="7" Cut="7.2070837020874023e-01" cType="1" res="7.4720978736877441e-03" rms="2.1442654728889465e-01" purity="3.0233877897262573e-01" nType="0">
          <Node pos="l" depth="2" NCoef="0" IVar="10" Cut="1.3393051922321320e-01" cType="1" res="1.8771998584270477e-03" rms="2.0432694256305695e-01" purity="3.1884720921516418e-01" nType="0">
            <Node pos="l" depth="3" NCoef="0" IVar="-1" Cut="0.0000000000000000e+00" cType="1" res="2.7969501912593842e-02" rms="2.1575219929218292e-01" purity="3.3887368440628052e-01" nType="-99"/>
            <Node pos="r" depth="3" NCoef="0" IVar="-1" Cut="0.0000000000000000e+00" cType="1" res="-2.1361133083701134e-02" rms="1.9215181469917297e-01" purity="2.9979211091995239e-01" nType="-99"/>
          </Node>
          <Node pos="r" depth="2" NCoef="0" IVar="-1" Cut="0.0000000000000000e+00" cType="1" res="5.6885994970798492e-02" rms="2.4547611176967621e-01" purity="2.4468192458152771e-01" nType="-99"/>
        </Node>
      </Node>
    </BinaryTree>
    <BinaryTree type="DecisionTree" boostWeight="1.0000000000000000e+00" itree="602">
      <Node pos="s" depth="0" NCoef="0" IVar="7" Cut="-6.5771067142486572e-01" cType="1" res="-5.3659172408515587e-05" rms="1.8555438518524170e-01" purity="5.0235146284103394e-01" nType="0">
        <Node pos="l" depth="1" NCoef="0" IVar="0" Cut="7.3324328613281250e+02" cType="1" res="5.3577669896185398e-03" rms="1.9768029451370239e-01" purity="3.5534721612930298e-01" nType="0">
          <Node pos="l" depth="2" NCoef="0" IVar="0" Cut="4.8566970825195312e+02" cType="1" res="8.8041946291923523e-03" rms="2.0086857676506042e-01" purity="1.4216729998588562e-01" nType="0">
            <Node pos="l" depth="3" NCoef="0" IVar="-1" Cut="0.0000000000000000e+00" cType="1" res="-8.7435944005846977e-03" rms="1.5406520664691925e-01" purity="3.3230610191822052e-02" nType="-99"/>
            <Node pos="r" depth="3" NCoef="0" IVar="-1" Cut="0.0000000000000000e+00" cType="1" res="3.7863008677959442e-02" rms="2.4230939149856567e-01" purity="2.6442307233810425e-01" nType="-99"/>
          </Node>
          <Node pos="r" depth="2" NCoef="0" IVar="0" Cut="9.8082769775390625e+02" cType="1" res="-1.9985120743513107e-03" rms="1.9048830866813660e-01" purity="8.1037217378616333e-01" nType="0">
            <Node pos="l" depth="3" NCoef="0" IVar="-1" Cut="0.0000000000000000e+00" cType="1" res="-1.7565198242664337e-02" rms="2.2333881258964539e-01" purity="6.4446735382080078e-01" nType="-99"/>
            <Node pos="r" depth="3" NCoef="0" IVar="-1" Cut="0.0000000000000000e+00" cType="1" res="1.2748070061206818e-02" rms="1.6002248227596283e-01" purity="9.3986237049102783e-01" nType="-99"/>
          </Node>
        </Node>
        <Node pos="r" depth="1" NCoef="0" IVar="4" Cut="3.3740432739257812e+02" cType="1" res="-1.4892717590555549e-03" rms="1.8217509984970093e-01" purity="5.4135066270828247e-01" nType="0">
          <Node pos="l" depth="2" NCoef="0" IVar="1" Cut="1.9511928710937500e+03" cType="1" res="-5.7881991378962994e-03" rms="1.7737071216106415e-01" purity="9.2102527618408203e-02" nType="0">
            <Node pos="l" depth="3" NCoef="0" IVar="-1" Cut="0.0000000000000000e+00" cType="1" res="-7.4883182533085346e-03" rms="1.2959235906600952e-01" purity="2.0932314917445183e-02" nType="-99"/>
            <Node pos="r" depth="3" NCoef="0" IVar="-1" Cut="0.0000000000000000e+00" cType="1" res="-2.6335006579756737e-02" rms="3.3505925536155701e-01" purity="4.8766306042671204e-01" nType="-99"/>
          </Node>
          <Node pos="r" depth="2" NCoef="0" IVar="0" Cut="6.8662377929687500e+02" cType="1" res="8.4671570220962167e-04" rms="1.8469139933586121e-01" purity="7.8546690940856934e-01" nType="0">
            <Node pos="l" depth="3" NCoef="0" IVar="-1" Cut="0.0000000000000000e+00" cType="1" res="9.4208186492323875e-03" rms="2.6138916611671448e-01" purity="3.6324745416641235e-01" nType="-99"/>
            <Node pos="r" depth="3" NCoef="0" IVar="-1" Cut="0.0000000000000000e+00" cType="1" res="-7.4523924849927425e-03" rms="1.4114516973495483e-01" purity="9.6033990383148193e-01" nType="-99"/>
          </Node>
        </Node>
      </Node>
    </BinaryTree>
    <BinaryTree type="DecisionTree" boostWeight="1.0000000000000000e+00" itree="603">
      <Node pos="s" depth="0" NCoef="0" IVar="7" Cut="-3.9045375585556030e-01" cType="1" res="3.0983102624304593e-04" rms="1.8543353676795959e-01" purity="5.0130170583724976e-01" nType="0">
        <Node pos="l" depth="1" NCoef="0" IVar="1" Cut="2.7433796386718750e+03" cType="1" res="-5.4553574882447720e-03" rms="1.7613254487514496e-01" purity="4.2246201634407043e-01" nType="0">
          <Node pos="l" depth="2" NCoef="0" IVar="1" Cut="1.7838066406250000e+03" cType="1" res="-8.6351288482546806e-03" rms="1.9714054465293884e-01" purity="1.5004906058311462e-01" nType="0">
            <Node pos="l" depth="3" NCoef="0" IVar="-1" Cut="0.0000000000000000e+00" cType="1" res="-1.2274452485144138e-02" rms="1.0647894442081451e-01" purity="1.2765518389642239e-02" nType="-99"/>
            <Node pos="r" depth="3" NCoef="0" IVar="-1" Cut="0.0000000000000000e+00" cType="1" res="-2.1474562585353851e-02" rms="3.0167248845100403e-01" purity="4.1147607564926147e-01" nType="-99"/>
          </Node>
          <Node pos="r" depth="2" NCoef="0" IVar="-1" Cut="0.0000000000000000e+00" cType="1" res="6.8234996870160103e-03" rms="1.2201024591922760e-01" purity="9.8081988096237183e-01" nType="-99"/>
        </Node>
        <Node pos="r" depth="1" NCoef="0" IVar="10" Cut="-1.7331657409667969e+00" cType="1" res="2.9542644042521715e-03" rms="1.8948851525783539e-01" purity="5.3746473789215088e-01" nType="0">
          <Node pos="l" depth="2" NCoef="0" IVar="9" Cut="-1.3115288317203522e-01" cType="1" res="2.2454436868429184e-02" rms="2.3779523372650146e-01" purity="5.1380485296249390e-01" nType="0">
            <Node pos="l" depth="3" NCoef="0" IVar="-1" Cut="0.0000000000000000e+00" cType="1" res="1.4285070821642876e-02" rms="2.1190381050109863e-01" purity="4.7141015529632568e-01" nType="-99"/>
            <Node pos="r" depth="3" NCoef="0" IVar="-1" Cut="0.0000000000000000e+00" cType="1" res="6.2925882637500763e-02" rms="2.5879523158073425e-01" purity="5.5331218242645264e-01" nType="-99"/>
          </Node>
          <Node pos="r" depth="2" NCoef="0" IVar="4" Cut="4.1236346435546875e+02" cType="1" res="1.2750282185152173e-03" rms="1.8464256823062897e-01" purity="5.3950214385986328e-01" nType="0">
            <Node pos="l" depth="3" NCoef="0" IVar="-1" Cut="0.0000000000000000e+00" cType="1" res="1.2776519171893597e-02" rms="2.0445421338081360e-01" purity="1.8574486672878265e-01" nType="-99"/>
            <Node pos="r" depth="3" NCoef="0" IVar="-1" Cut="0.0000000000000000e+00" cType="1" res="-8.4229893982410431e-03" rms="1.6381928324699402e-01" purity="8.7123984098434448e-01" nType="-99"/>
          </Node>
        </Node>
      </Node>
    </BinaryTree>
    <BinaryTree type="DecisionTree" boostWeight="1.0000000000000000e+00" itree="604">
      <Node pos="s" depth="0" NCoef="0" IVar="9" Cut="-1.3330715894699097e-01" cType="1" res="8.3886575885117054e-04" rms="1.8612046539783478e-01" purity="5.0383663177490234e-01" nType="0">
        <Node pos="l" depth="1" NCoef="0" IVar="5" Cut="2.4771560668945312e+02" cType="1" res="3.7572833243757486e-03" rms="1.8836528062820435e-01" purity="4.9456670880317688e-01" nType="0">
          <Node pos="l" depth="2" NCoef="0" IVar="1" Cut="1.8615611572265625e+03" cType="1" res="8.0657340586185455e-03" rms="1.9856032729148865e-01" purity="1.8493071198463440e-01" nType="0">
            <Node pos="l" depth="3" NCoef="0" IVar="-1" Cut="0.0000000000000000e+00" cType="1" res="2.2260803729295731e-02" rms="1.2896443903446198e-01" purity="1.9059494137763977e-02" nType="-99"/>
            <Node pos="r" depth="3" NCoef="0" IVar="-1" Cut="0.0000000000000000e+00" cType="1" res="2.0126659423112869e-02" rms="3.0451777577400208e-01" purity="5.7418245077133179e-01" nType="-99"/>
          </Node>
          <Node pos="r" depth="2" NCoef="0" IVar="4" Cut="4.7610180664062500e+02" cType="1" res="-1.5126283979043365e-03" rms="1.7494565248489380e-01" purity="8.7330007553100586e-01" nType="0">
            <Node pos="l" depth="3" NCoef="0" IVar="-1" Cut="0.0000000000000000e+00" cType="1" res="-1.2712975963950157e-02" rms="2.4784286320209503e-01" purity="6.5975368022918701e-01" nType="-99"/>
            <Node pos="r" depth="3" NCoef="0" IVar="-1" Cut="0.0000000000000000e+00" cType="1" res="1.0964941233396530e-02" rms="1.2681731581687927e-01" purity="9.7367727756500244e-01" nType="-99"/>
          </Node>
        </Node>
        <Node pos="r" depth="1" NCoef="0" IVar="0" Cut="4.3467996215820312e+02" cType="1" res="-1.6328011406585574e-03" rms="1.8416173756122589e-01" purity="5.1168751716613770e-01" nType="0">
          <Node pos="l" depth="2" NCoef="0" IVar="6" Cut="1.2245008850097656e+02" cType="1" res="4.4270777143537998e-03" rms="1.4307880401611328e-01" purity="3.1864080578088760e-02" nType="0">
            <Node pos="l" depth="3" NCoef="0" IVar="-1" Cut="0.0000000000000000e+00" cType="1" res="-3.8396984338760376e-02" rms="7.7976174652576447e-02" purity="6.1792237684130669e-03" nType="-99"/>
            <Node pos="r" depth="3" NCoef="0" IVar="-1" Cut="0.0000000000000000e+00" cType="1" res="4.8097606748342514e-02" rms="2.1756246685981750e-01" purity="8.0407917499542236e-02" nType="-99"/>
          </Node>
          <Node pos="r" depth="2" NCoef="0" IVar="10" Cut="1.2000296115875244e+00" cType="1" res="-3.1140726059675217e-03" rms="1.9284868240356445e-01" purity="6.2897515296936035e-01" nType="0">
            <Node pos="l" depth="3" NCoef="0" IVar="-1" Cut="0.0000000000000000e+00" cType="1" res="-1.3851042836904526e-02" rms="1.8606165051460266e-01" purity="6.4166617393493652e-01" nType="-99"/>
            <Node pos="r" depth="3" NCoef="0" IVar="-1" Cut="0.0000000000000000e+00" cType="1" res="1.1268104426562786e-02" rms="2.2097922861576080e-01" purity="5.7106173038482666e-01" nType="-99"/>
          </Node>
        </Node>
      </Node>
    </BinaryTree>
    <BinaryTree type="DecisionTree" boostWeight="1.0000000000000000e+00" itree="605">
      <Node pos="s" depth="0" NCoef="0" IVar="9" Cut="1.3333922624588013e-01" cType="1" res="-1.2846138270106167e-04" rms="1.8776698410511017e-01" purity="4.9932694435119629e-01" nType="0">
        <Node pos="l" depth="1" NCoef="0" IVar="1" Cut="2.5918151855468750e+03" cType="1" res="3.7967062089592218e-03" rms="1.9145493209362030e-01" purity="5.0909507274627686e-01" nType="0">
          <Node pos="l" depth="2" NCoef="0" IVar="2" Cut="3.8263734430074692e-02" cType="1" res="8.2615436986088753e-03" rms="2.2380927205085754e-01" purity="1.5693721175193787e-01" nType="0">
            <Node pos="l" depth="3" NCoef="0" IVar="-1" Cut="0.0000000000000000e+00" cType="1" res="5.6972643360495567e-03" rms="1.9646368920803070e-01" purity="9.0185709297657013e-02" nType="-99"/>
            <Node pos="r" depth="3" NCoef="0" IVar="-1" Cut="0.0000000000000000e+00" cType="1" res="2.9113916680216789e-02" rms="2.6927694678306580e-01" purity="2.8839373588562012e-01" nType="-99"/>
          </Node>
          <Node pos="r" depth="2" NCoef="0" IVar="5" Cut="2.6710171508789062e+02" cType="1" res="-2.0929877646267414e-03" rms="1.3737075030803680e-01" purity="9.7363644838333130e-01" nType="0">
            <Node pos="l" depth="3" NCoef="0" IVar="-1" Cut="0.0000000000000000e+00" cType="1" res="-2.3177128285169601e-02" rms="2.4013897776603699e-01" purity="9.0570044517517090e-01" nType="-99"/>
            <Node pos="r" depth="3" NCoef="0" IVar="-1" Cut="0.0000000000000000e+00" cType="1" res="8.7639543926343322e-04" rms="1.0038388520479202e-01" purity="9.8899012804031372e-01" nType="-99"/>
          </Node>
        </Node>
        <Node pos="r" depth="1" NCoef="0" IVar="10" Cut="-1.7332051992416382e+00" cType="1" res="-4.9256803467869759e-03" rms="1.8304461240768433e-01" purity="4.8738870024681091e-01" nType="0">
          <Node pos="l" depth="2" NCoef="0" IVar="-1" Cut="0.0000000000000000e+00" cType="1" res="-4.1084036231040955e-02" rms="2.1340616047382355e-01" purity="4.2558714747428894e-01" nType="-99"/>
          <Node pos="r" depth="2" NCoef="0" IVar="6" Cut="1.2090752410888672e+02" cType="1" res="-3.5208999179303646e-03" rms="1.8039436638355255e-01" purity="4.9219369888305664e-01" nType="0">
            <Node pos="l" depth="3" NCoef="0" IVar="-1" Cut="0.0000000000000000e+00" cType="1" res="4.4557363726198673e-03" rms="1.8469412624835968e-01" purity="1.8015408515930176e-01" nType="-99"/>
            <Node pos="r" depth="3" NCoef="0" IVar="-1" Cut="0.0000000000000000e+00" cType="1" res="-2.4162920191884041e-02" rms="1.7653843760490417e-01" purity="7.5790119171142578e-01" nType="-99"/>
          </Node>
        </Node>
      </Node>
    </BinaryTree>
    <BinaryTree type="DecisionTree" boostWeight="1.0000000000000000e+00" itree="606">
      <Node pos="s" depth="0" NCoef="0" IVar="9" Cut="1.3356333971023560e-01" cType="1" res="-1.7546648159623146e-03" rms="1.8175305426120758e-01" purity="4.9885803461074829e-01" nType="0">
        <Node pos="l" depth="1" NCoef="0" IVar="8" Cut="-6.6651457548141479e-01" cType="1" res="-4.7496715560555458e-03" rms="1.7981320619583130e-01" purity="4.9876049160957336e-01" nType="0">
          <Node pos="l" depth="2" NCoef="0" IVar="1" Cut="1.8331320800781250e+03" cType="1" res="-1.0641208849847317e-02" rms="1.8332715332508087e-01" purity="3.9828544855117798e-01" nType="0">
            <Node pos="l" depth="3" NCoef="0" IVar="-1" Cut="0.0000000000000000e+00" cType="1" res="-1.9259274005889893e-02" rms="1.1415997892618179e-01" purity="1.6693744808435440e-02" nType="-99"/>
            <Node pos="r" depth="3" NCoef="0" IVar="-1" Cut="0.0000000000000000e+00" cType="1" res="-3.2437525689601898e-02" rms="2.2969932854175568e-01" purity="7.5531893968582153e-01" nType="-99"/>
          </Node>
          <Node pos="r" depth="2" NCoef="0" IVar="8" Cut="4.8899066448211670e-01" cType="1" res="-2.5791211519390345e-03" rms="1.7845213413238525e-01" purity="5.3577733039855957e-01" nType="0">
            <Node pos="l" depth="3" NCoef="0" IVar="-1" Cut="0.0000000000000000e+00" cType="1" res="2.5747923646122217e-03" rms="1.6808533668518066e-01" purity="5.8995151519775391e-01" nType="-99"/>
            <Node pos="r" depth="3" NCoef="0" IVar="-1" Cut="0.0000000000000000e+00" cType="1" res="-1.9615363329648972e-02" rms="1.9309286773204803e-01" purity="4.5310837030410767e-01" nType="-99"/>
          </Node>
        </Node>
        <Node pos="r" depth="1" NCoef="0" IVar="5" Cut="2.7711819458007812e+02" cType="1" res="1.7670014640316367e-03" rms="1.8394549190998077e-01" purity="4.9897271394729614e-01" nType="0">
          <Node pos="l" depth="2" NCoef="0" IVar="8" Cut="-1.4656430482864380e+00" cType="1" res="3.1309380574384704e-05" rms="1.9793128967285156e-01" purity="2.0832821726799011e-01" nType="0">
            <Node pos="l" depth="3" NCoef="0" IVar="-1" Cut="0.0000000000000000e+00" cType="1" res="2.9239032417535782e-02" rms="2.1142576634883881e-01" purity="1.3950671255588531e-01" nType="-99"/>
            <Node pos="r" depth="3" NCoef="0" IVar="-1" Cut="0.0000000000000000e+00" cType="1" res="-3.1574165914207697e-03" rms="1.9641368091106415e-01" purity="2.1554575860500336e-01" nType="-99"/>
          </Node>
          <Node pos="r" depth="2" NCoef="0" IVar="1" Cut="2.6815651855468750e+03" cType="1" res="4.2876312509179115e-03" rms="1.6145916283130646e-01" purity="9.2105633020401001e-01" nType="0">
            <Node pos="l" depth="3" NCoef="0" IVar="-1" Cut="0.0000000000000000e+00" cType="1" res="1.7951792106032372e-02" rms="3.1779336929321289e-01" purity="6.2733817100524902e-01" nType="-99"/>
            <Node pos="r" depth="3" NCoef="0" IVar="-1" Cut="0.0000000000000000e+00" cType="1" res="1.0933684185147285e-02" rms="9.0170249342918396e-02" purity="9.9115896224975586e-01" nType="-99"/>
          </Node>
        </Node>
      </Node>
    </BinaryTree>
    <BinaryTree type="DecisionTree" boostWeight="1.0000000000000000e+00" itree="607">
      <Node pos="s" depth="0" NCoef="0" IVar="10" Cut="-6.6666829586029053e-01" cType="1" res="1.2221324723213911e-03" rms="1.8281778693199158e-01" purity="5.0488924980163574e-01" nType="0">
        <Node pos="l" depth="1" NCoef="0" IVar="1" Cut="2.7777924804687500e+03" cType="1" res="-3.9079501293599606e-03" rms="1.8319438397884369e-01" purity="4.7834745049476624e-01" nType="0">
          <Node pos="l" depth="2" NCoef="0" IVar="10" Cut="-1.0730097293853760e+00" cType="1" res="-7.5812847353518009e-03" rms="2.1296176314353943e-01" purity="1.9556915760040283e-01" nType="0">
            <Node pos="l" depth="3" NCoef="0" IVar="-1" Cut="0.0000000000000000e+00" cType="1" res="-4.8343418166041374e-03" rms="2.2278411686420441e-01" purity="2.1259154379367828e-01" nType="-99"/>
            <Node pos="r" depth="3" NCoef="0" IVar="-1" Cut="0.0000000000000000e+00" cType="1" res="-4.4473215937614441e-02" rms="1.8697784841060638e-01" purity="1.5504813194274902e-01" nType="-99"/>
          </Node>
          <Node pos="r" depth="2" NCoef="0" IVar="-1" Cut="0.0000000000000000e+00" cType="1" res="1.8435342237353325e-02" rms="1.1123675853013992e-01" purity="9.8477226495742798e-01" nType="-99"/>
        </Node>
        <Node pos="r" depth="1" NCoef="0" IVar="8" Cut="1.7333536148071289e+00" cType="1" res="3.4307711757719517e-03" rms="1.8261104822158813e-01" purity="5.1631623506546021e-01" nType="0">
          <Node pos="l" depth="2" NCoef="0" IVar="2" Cut="4.2731549590826035e-02" cType="1" res="2.4295274633914232e-03" rms="1.7995677888393402e-01" purity="5.3082168102264404e-01" nType="0">
            <Node pos="l" depth="3" NCoef="0" IVar="-1" Cut="0.0000000000000000e+00" cType="1" res="-1.2463497696444392e-03" rms="1.8588045239448547e-01" purity="3.6069077253341675e-01" nType="-99"/>
            <Node pos="r" depth="3" NCoef="0" IVar="-1" Cut="0.0000000000000000e+00" cType="1" res="1.8183549866080284e-02" rms="1.7276489734649658e-01" purity="7.2833222150802612e-01" nType="-99"/>
          </Node>
          <Node pos="r" depth="2" NCoef="0" IVar="-1" Cut="0.0000000000000000e+00" cType="1" res="5.9768047183752060e-02" rms="2.3454199731349945e-01" purity="1.8138509988784790e-01" nType="-99"/>
        </Node>
      </Node>
    </BinaryTree>
    <BinaryTree type="DecisionTree" boostWeight="1.0000000000000000e+00" itree="608">
      <Node pos="s" depth="0" NCoef="0" IVar="10" Cut="-1.7332572937011719e+00" cType="1" res="-1.8327477155253291e-03" rms="1.8174952268600464e-01" purity="4.9641495943069458e-01" nType="0">
        <Node pos="l" depth="1" NCoef="0" IVar="1" Cut="1.6581303710937500e+03" cType="1" res="-1.5868969261646271e-02" rms="2.0503722131252289e-01" purity="3.7906098365783691e-01" nType="0">
          <Node pos="l" depth="2" NCoef="0" IVar="-1" Cut="0.0000000000000000e+00" cType="1" res="1.1200032196938992e-02" rms="1.1297892779111862e-01" purity="1.5996815636754036e-02" nType="-99"/>
          <Node pos="r" depth="2" NCoef="0" IVar="-1" Cut="0.0000000000000000e+00" cType="1" res="-3.9956983178853989e-02" rms="2.4348258972167969e-01" purity="5.9647727012634277e-01" nType="-99"/>
        </Node>
        <Node pos="r" depth="1" NCoef="0" IVar="10" Cut="-6.5389472246170044e-01" cType="1" res="-6.2133476603776217e-04" rms="1.7954672873020172e-01" purity="5.0654333829879761e-01" nType="0">
          <Node pos="l" depth="2" NCoef="0" IVar="0" Cut="7.0401513671875000e+02" cType="1" res="-4.5305811800062656e-03" rms="1.7633293569087982e-01" purity="5.0156122446060181e-01" nType="0">
            <Node pos="l" depth="3" NCoef="0" IVar="-1" Cut="0.0000000000000000e+00" cType="1" res="-2.2681253030896187e-02" rms="1.8334715068340302e-01" purity="1.5649615228176117e-01" nType="-99"/>
            <Node pos="r" depth="3" NCoef="0" IVar="-1" Cut="0.0000000000000000e+00" cType="1" res="-1.5344725688919425e-03" rms="1.6850973665714264e-01" purity="8.6605250835418701e-01" nType="-99"/>
          </Node>
          <Node pos="r" depth="2" NCoef="0" IVar="5" Cut="2.7699496459960938e+02" cType="1" res="5.9725315077230334e-04" rms="1.8051952123641968e-01" purity="5.0809639692306519e-01" nType="0">
            <Node pos="l" depth="3" NCoef="0" IVar="-1" Cut="0.0000000000000000e+00" cType="1" res="6.4033740200102329e-03" rms="1.9676749408245087e-01" purity="2.1154010295867920e-01" nType="-99"/>
            <Node pos="r" depth="3" NCoef="0" IVar="-1" Cut="0.0000000000000000e+00" cType="1" res="-8.6139058694243431e-03" rms="1.5529109537601471e-01" purity="9.1728144884109497e-01" nType="-99"/>
          </Node>
        </Node>
      </Node>
    </BinaryTree>
    <BinaryTree type="DecisionTree" boostWeight="1.0000000000000000e+00" itree="609">
      <Node pos="s" depth="0" NCoef="0" IVar="0" Cut="7.3324200439453125e+02" cType="1" res="7.2373548755422235e-04" rms="1.8349194526672363e-01" purity="4.9579328298568726e-01" nType="0">
        <Node pos="l" depth="1" NCoef="0" IVar="1" Cut="2.0935681152343750e+03" cType="1" res="-1.5943606849759817e-03" rms="1.9330002367496490e-01" purity="1.7552609741687775e-01" nType="0">
          <Node pos="l" depth="2" NCoef="0" IVar="1" Cut="1.9284328613281250e+03" cType="1" res="8.9006219059228897e-04" rms="1.6320088505744934e-01" purity="4.2185775935649872e-02" nType="0">
            <Node pos="l" depth="3" NCoef="0" IVar="-1" Cut="0.0000000000000000e+00" cType="1" res="-4.8498809337615967e-03" rms="1.3580584526062012e-01" purity="2.5181204080581665e-02" nType="-99"/>
            <Node pos="r" depth="3" NCoef="0" IVar="-1" Cut="0.0000000000000000e+00" cType="1" res="1.9360737875103951e-02" rms="3.5719841718673706e-01" purity="2.5302520394325256e-01" nType="-99"/>
          </Node>
          <Node pos="r" depth="2" NCoef="0" IVar="0" Cut="5.9146026611328125e+02" cType="1" res="-1.2632093392312527e-02" rms="2.9135593771934509e-01" purity="7.6792716979980469e-01" nType="0">
            <Node pos="l" depth="3" NCoef="0" IVar="-1" Cut="0.0000000000000000e+00" cType="1" res="-2.4971790611743927e-02" rms="3.4157571196556091e-01" purity="6.2291485071182251e-01" nType="-99"/>
            <Node pos="r" depth="3" NCoef="0" IVar="-1" Cut="0.0000000000000000e+00" cType="1" res="-1.5002260915935040e-03" rms="2.5616577267646790e-01" purity="8.5417586565017700e-01" nType="-99"/>
          </Node>
        </Node>
        <Node pos="r" depth="1" NCoef="0" IVar="5" Cut="1.6351545715332031e+02" cType="1" res="3.4877483267337084e-03" rms="1.7102262377738953e-01" purity="8.7766814231872559e-01" nType="0">
          <Node pos="l" depth="2" NCoef="0" IVar="5" Cut="1.1487974548339844e+02" cType="1" res="1.5814945101737976e-02" rms="2.6974970102310181e-01" purity="3.4637016057968140e-01" nType="0">
            <Node pos="l" depth="3" NCoef="0" IVar="-1" Cut="0.0000000000000000e+00" cType="1" res="3.0568800866603851e-03" rms="2.3403781652450562e-01" purity="1.7824761569499969e-01" nType="-99"/>
            <Node pos="r" depth="3" NCoef="0" IVar="-1" Cut="0.0000000000000000e+00" cType="1" res="3.1284838914871216e-02" rms="3.0039152503013611e-01" purity="5.1317554712295532e-01" nType="-99"/>
          </Node>
          <Node pos="r" depth="2" NCoef="0" IVar="1" Cut="2.5172509765625000e+03" cType="1" res="1.6675296938046813e-03" rms="1.5098822116851807e-01" purity="9.5611900091171265e-01" nType="0">
            <Node pos="l" depth="3" NCoef="0" IVar="-1" Cut="0.0000000000000000e+00" cType="1" res="1.1492742225527763e-02" rms="3.6940580606460571e-01" purity="6.2382119894027710e-01" nType="-99"/>
            <Node pos="r" depth="3" NCoef="0" IVar="-1" Cut="0.0000000000000000e+00" cType="1" res="3.2147613819688559e-03" rms="1.1341663450002670e-01" purity="9.8510569334030151e-01" nType="-99"/>
          </Node>
        </Node>
      </Node>
    </BinaryTree>
    <BinaryTree type="DecisionTree" boostWeight="1.0000000000000000e+00" itree="610">
      <Node pos="s" depth="0" NCoef="0" IVar="10" Cut="-1.9999730587005615e+00" cType="1" res="5.7061680126935244e-04" rms="1.8390510976314545e-01" purity="5.0509345531463623e-01" nType="0">
        <Node pos="l" depth="1" NCoef="0" IVar="-1" Cut="0.0000000000000000e+00" cType="1" res="1.9607318565249443e-02" rms="2.2910210490226746e-01" purity="3.7662839889526367e-01" nType="-99"/>
        <Node pos="r" depth="1" NCoef="0" IVar="8" Cut="1.4667034149169922e+00" cType="1" res="5.2581788622774184e-05" rms="1.8129940330982208e-01" purity="5.1160424947738647e-01" nType="0">
          <Node pos="l" depth="2" NCoef="0" IVar="8" Cut="-9.7132998704910278e-01" cType="1" res="-6.4839585684239864e-04" rms="1.7653717100620270e-01" purity="5.3104519844055176e-01" nType="0">
            <Node pos="l" depth="3" NCoef="0" IVar="-1" Cut="0.0000000000000000e+00" cType="1" res="-1.5015773475170135e-02" rms="1.9828091561794281e-01" purity="3.5575881600379944e-01" nType="-99"/>
            <Node pos="r" depth="3" NCoef="0" IVar="-1" Cut="0.0000000000000000e+00" cType="1" res="1.6639683162793517e-03" rms="1.7161630094051361e-01" purity="5.6771934032440186e-01" nType="-99"/>
          </Node>
          <Node pos="r" depth="2" NCoef="0" IVar="6" Cut="9.6011878967285156e+01" cType="1" res="9.2980209738016129e-03" rms="2.3506069183349609e-01" purity="2.5519081950187683e-01" nType="0">
            <Node pos="l" depth="3" NCoef="0" IVar="-1" Cut="0.0000000000000000e+00" cType="1" res="6.8747356534004211e-02" rms="2.1028171479701996e-01" purity="9.1739431023597717e-02" nType="-99"/>
            <Node pos="r" depth="3" NCoef="0" IVar="-1" Cut="0.0000000000000000e+00" cType="1" res="-2.1060102153569460e-03" rms="2.5303068757057190e-01" purity="3.8874530792236328e-01" nType="-99"/>
          </Node>
        </Node>
      </Node>
    </BinaryTree>
    <BinaryTree type="DecisionTree" boostWeight="1.0000000000000000e+00" itree="611">
      <Node pos="s" depth="0" NCoef="0" IVar="10" Cut="1.4666264057159424e+00" cType="1" res="8.2264962838962674e-04" rms="1.8351547420024872e-01" purity="5.0612848997116089e-01" nType="0">
        <Node pos="l" depth="1" NCoef="0" IVar="8" Cut="-1.3316681981086731e-01" cType="1" res="2.2084584925323725e-03" rms="1.8103660643100739e-01" purity="5.1595199108123779e-01" nType="0">
          <Node pos="l" depth="2" NCoef="0" IVar="3" Cut="7.1686901855468750e+02" cType="1" res="5.4993405938148499e-03" rms="1.8618114292621613e-01" purity="5.0219547748565674e-01" nType="0">
            <Node pos="l" depth="3" NCoef="0" IVar="-1" Cut="0.0000000000000000e+00" cType="1" res="2.3233085870742798e-02" rms="2.0211274921894073e-01" purity="2.5741609930992126e-01" nType="-99"/>
            <Node pos="r" depth="3" NCoef="0" IVar="-1" Cut="0.0000000000000000e+00" cType="1" res="1.9510966958478093e-03" rms="1.6211496293544769e-01" purity="8.3220553398132324e-01" nType="-99"/>
          </Node>
          <Node pos="r" depth="2" NCoef="0" IVar="1" Cut="2.4495222167968750e+03" cType="1" res="-4.8239933676086366e-04" rms="1.7667324841022491e-01" purity="5.2720034122467041e-01" nType="0">
            <Node pos="l" depth="3" NCoef="0" IVar="-1" Cut="0.0000000000000000e+00" cType="1" res="-1.0216290131211281e-02" rms="2.0025236904621124e-01" purity="9.6525579690933228e-02" nType="-99"/>
            <Node pos="r" depth="3" NCoef="0" IVar="-1" Cut="0.0000000000000000e+00" cType="1" res="1.4770989306271076e-02" rms="1.4864009618759155e-01" purity="9.6754914522171021e-01" nType="-99"/>
          </Node>
        </Node>
        <Node pos="r" depth="1" NCoef="0" IVar="0" Cut="7.4112640380859375e+02" cType="1" res="-9.8511548712849617e-03" rms="2.0126979053020477e-01" purity="4.3046537041664124e-01" nType="0">
          <Node pos="l" depth="2" NCoef="0" IVar="6" Cut="9.9408897399902344e+01" cType="1" res="-1.6082569956779480e-02" rms="1.9840525090694427e-01" purity="1.6468514502048492e-01" nType="0">
            <Node pos="l" depth="3" NCoef="0" IVar="-1" Cut="0.0000000000000000e+00" cType="1" res="-6.6850455477833748e-03" rms="1.6514085233211517e-01" purity="6.7754723131656647e-02" nType="-99"/>
            <Node pos="r" depth="3" NCoef="0" IVar="-1" Cut="0.0000000000000000e+00" cType="1" res="-4.7627765685319901e-02" rms="2.2779594361782074e-01" purity="2.6849478483200073e-01" nType="-99"/>
          </Node>
          <Node pos="r" depth="2" NCoef="0" IVar="-1" Cut="0.0000000000000000e+00" cType="1" res="-2.0426305127330124e-04" rms="2.0529666543006897e-01" purity="8.4676802158355713e-01" nType="-99"/>
        </Node>
      </Node>
    </BinaryTree>
    <BinaryTree type="DecisionTree" boostWeight="1.0000000000000000e+00" itree="612">
      <Node pos="s" depth="0" NCoef="0" IVar="10" Cut="1.9999564886093140e+00" cType="1" res="-6.6870375303551555e-04" rms="1.8366098403930664e-01" purity="4.9555844068527222e-01" nType="0">
        <Node pos="l" depth="1" NCoef="0" IVar="10" Cut="-9.7137951850891113e-01" cType="1" res="-1.2356600491330028e-03" rms="1.8059378862380981e-01" purity="5.0084108114242554e-01" nType="0">
          <Node pos="l" depth="2" NCoef="0" IVar="10" Cut="-1.4067611694335938e+00" cType="1" res="3.0387002043426037e-03" rms="2.0278131961822510e-01" purity="4.6427127718925476e-01" nType="0">
            <Node pos="l" depth="3" NCoef="0" IVar="-1" Cut="0.0000000000000000e+00" cType="1" res="-4.9267797730863094e-03" rms="2.0814800262451172e-01" purity="4.3278023600578308e-01" nType="-99"/>
            <Node pos="r" depth="3" NCoef="0" IVar="-1" Cut="0.0000000000000000e+00" cType="1" res="2.8364516794681549e-02" rms="1.9511641561985016e-01" purity="5.0657385587692261e-01" nType="-99"/>
          </Node>
          <Node pos="r" depth="2" NCoef="0" IVar="4" Cut="4.9241397094726562e+02" cType="1" res="-2.5866953656077385e-03" rms="1.7296792566776276e-01" purity="5.1239997148513794e-01" nType="0">
            <Node pos="l" depth="3" NCoef="0" IVar="-1" Cut="0.0000000000000000e+00" cType="1" res="-1.3328387401998043e-02" rms="1.9135223329067230e-01" purity="2.4691371619701385e-01" nType="-99"/>
            <Node pos="r" depth="3" NCoef="0" IVar="-1" Cut="0.0000000000000000e+00" cType="1" res="6.2383287586271763e-03" rms="1.3884757459163666e-01" purity="9.3311256170272827e-01" nType="-99"/>
          </Node>
        </Node>
        <Node pos="r" depth="1" NCoef="0" IVar="-1" Cut="0.0000000000000000e+00" cType="1" res="1.9047165289521217e-02" rms="2.3677536845207214e-01" purity="3.8932466506958008e-01" nType="-99"/>
      </Node>
    </BinaryTree>
    <BinaryTree type="DecisionTree" boostWeight="1.0000000000000000e+00" itree="613">
      <Node pos="s" depth="0" NCoef="0" IVar="2" Cut="2.0478073507547379e-02" cType="1" res="-3.3735673059709370e-04" rms="1.8372143805027008e-01" purity="4.9843156337738037e-01" nType="0">
        <Node pos="l" depth="1" NCoef="0" IVar="8" Cut="-9.3347245454788208e-01" cType="1" res="3.3714252058416605e-03" rms="1.8975272774696350e-01" purity="2.5321677327156067e-01" nType="0">
          <Node pos="l" depth="2" NCoef="0" IVar="1" Cut="1.8764062500000000e+03" cType="1" res="1.3565134257078171e-02" rms="2.0562846958637238e-01" purity="1.9651874899864197e-01" nType="0">
            <Node pos="l" depth="3" NCoef="0" IVar="-1" Cut="0.0000000000000000e+00" cType="1" res="2.2439543157815933e-02" rms="1.1571829020977020e-01" purity="1.7821844667196274e-02" nType="-99"/>
            <Node pos="r" depth="3" NCoef="0" IVar="-1" Cut="0.0000000000000000e+00" cType="1" res="3.5146821290254593e-02" rms="3.2107967138290405e-01" purity="5.7732433080673218e-01" nType="-99"/>
          </Node>
          <Node pos="r" depth="2" NCoef="0" IVar="8" Cut="-4.0017694234848022e-01" cType="1" res="2.2706536401528865e-04" rms="1.8446668982505798e-01" purity="2.7070590853691101e-01" nType="0">
            <Node pos="l" depth="3" NCoef="0" IVar="-1" Cut="0.0000000000000000e+00" cType="1" res="-2.9710376635193825e-02" rms="1.7486189305782318e-01" purity="2.8582829236984253e-01" nType="-99"/>
            <Node pos="r" depth="3" NCoef="0" IVar="-1" Cut="0.0000000000000000e+00" cType="1" res="6.9827451370656490e-03" rms="1.8639977276325226e-01" purity="2.6744022965431213e-01" nType="-99"/>
          </Node>
        </Node>
        <Node pos="r" depth="1" NCoef="0" IVar="8" Cut="9.3816894292831421e-01" cType="1" res="-2.4220407940447330e-03" rms="1.8020920455455780e-01" purity="6.3626533746719360e-01" nType="0">
          <Node pos="l" depth="2" NCoef="0" IVar="5" Cut="2.2045373535156250e+02" cType="1" res="-8.3330279449000955e-04" rms="1.7822568118572235e-01" purity="6.5862649679183960e-01" nType="0">
            <Node pos="l" depth="3" NCoef="0" IVar="-1" Cut="0.0000000000000000e+00" cType="1" res="-1.2525128200650215e-02" rms="1.9558061659336090e-01" purity="1.8965785205364227e-01" nType="-99"/>
            <Node pos="r" depth="3" NCoef="0" IVar="-1" Cut="0.0000000000000000e+00" cType="1" res="4.2289411649107933e-03" rms="1.6964551806449890e-01" purity="8.7342339754104614e-01" nType="-99"/>
          </Node>
          <Node pos="r" depth="2" NCoef="0" IVar="9" Cut="-1.3199421763420105e-01" cType="1" res="-1.2824946083128452e-02" rms="1.9236928224563599e-01" purity="4.8984608054161072e-01" nType="0">
            <Node pos="l" depth="3" NCoef="0" IVar="-1" Cut="0.0000000000000000e+00" cType="1" res="-5.4147299379110336e-02" rms="1.9062042236328125e-01" purity="4.7193542122840881e-01" nType="-99"/>
            <Node pos="r" depth="3" NCoef="0" IVar="-1" Cut="0.0000000000000000e+00" cType="1" res="-1.1263316497206688e-02" rms="1.9333419203758240e-01" purity="5.0379037857055664e-01" nType="-99"/>
          </Node>
        </Node>
      </Node>
    </BinaryTree>
    <BinaryTree type="DecisionTree" boostWeight="1.0000000000000000e+00" itree="614">
      <Node pos="s" depth="0" NCoef="0" IVar="9" Cut="-1.1999777555465698e+00" cType="1" res="1.7807324184104800e-03" rms="1.8647360801696777e-01" purity="5.0355684757232666e-01" nType="0">
        <Node pos="l" depth="1" NCoef="0" IVar="7" Cut="2.1740457415580750e-01" cType="1" res="-4.6714292839169502e-03" rms="1.9771824777126312e-01" purity="3.8180214166641235e-01" nType="0">
          <Node pos="l" depth="2" NCoef="0" IVar="10" Cut="3.9994806051254272e-01" cType="1" res="-1.0047258110716939e-03" rms="1.9472940266132355e-01" purity="3.9911866188049316e-01" nType="0">
            <Node pos="l" depth="3" NCoef="0" IVar="-1" Cut="0.0000000000000000e+00" cType="1" res="-1.7934732139110565e-02" rms="1.8635769188404083e-01" purity="3.5802251100540161e-01" nType="-99"/>
            <Node pos="r" depth="3" NCoef="0" IVar="-1" Cut="0.0000000000000000e+00" cType="1" res="2.2945761680603027e-02" rms="2.1000388264656067e-01" purity="4.8109817504882812e-01" nType="-99"/>
          </Node>
          <Node pos="r" depth="2" NCoef="0" IVar="1" Cut="1.7871282958984375e+03" cType="1" res="-1.0352808050811291e-02" rms="2.0213076472282410e-01" purity="3.5497102141380310e-01" nType="0">
            <Node pos="l" depth="3" NCoef="0" IVar="-1" Cut="0.0000000000000000e+00" cType="1" res="-2.6231778785586357e-02" rms="1.2179250270128250e-01" purity="1.7025191336870193e-02" nType="-99"/>
            <Node pos="r" depth="3" NCoef="0" IVar="-1" Cut="0.0000000000000000e+00" cType="1" res="-2.2174566984176636e-02" rms="2.6028943061828613e-01" purity="7.0494556427001953e-01" nType="-99"/>
          </Node>
        </Node>
        <Node pos="r" depth="1" NCoef="0" IVar="4" Cut="3.3710794067382812e+02" cType="1" res="2.8240000829100609e-03" rms="1.8456992506980896e-01" purity="5.2324366569519043e-01" nType="0">
          <Node pos="l" depth="2" NCoef="0" IVar="0" Cut="8.7523266601562500e+02" cType="1" res="6.8073193542659283e-03" rms="1.8511943519115448e-01" purity="1.0584577172994614e-01" nType="0">
            <Node pos="l" depth="3" NCoef="0" IVar="-1" Cut="0.0000000000000000e+00" cType="1" res="1.6594119369983673e-02" rms="1.6724728047847748e-01" purity="5.1240473985671997e-02" nType="-99"/>
            <Node pos="r" depth="3" NCoef="0" IVar="-1" Cut="0.0000000000000000e+00" cType="1" res="3.0731676146388054e-02" rms="3.0778032541275024e-01" purity="6.3548612594604492e-01" nType="-99"/>
          </Node>
          <Node pos="r" depth="2" NCoef="0" IVar="4" Cut="4.1832995605468750e+02" cType="1" res="4.7594876377843320e-04" rms="1.8420489132404327e-01" purity="7.6928764581680298e-01" nType="0">
            <Node pos="l" depth="3" NCoef="0" IVar="-1" Cut="0.0000000000000000e+00" cType="1" res="-8.6600920185446739e-03" rms="2.4469622969627380e-01" purity="3.7978759407997131e-01" nType="-99"/>
            <Node pos="r" depth="3" NCoef="0" IVar="-1" Cut="0.0000000000000000e+00" cType="1" res="7.2208456695079803e-03" rms="1.6360713541507721e-01" purity="8.7666940689086914e-01" nType="-99"/>
          </Node>
        </Node>
      </Node>
    </BinaryTree>
    <BinaryTree type="DecisionTree" boostWeight="1.0000000000000000e+00" itree="615">
      <Node pos="s" depth="0" NCoef="0" IVar="6" Cut="1.3980035400390625e+02" cType="1" res="-7.4065063381567597e-04" rms="1.8398463726043701e-01" purity="4.9546244740486145e-01" nType="0">
        <Node pos="l" depth="1" NCoef="0" IVar="3" Cut="4.8012026977539062e+02" cType="1" res="2.2377779241651297e-03" rms="1.9206465780735016e-01" purity="2.2335512936115265e-01" nType="0">
          <Node pos="l" depth="2" NCoef="0" IVar="9" Cut="1.3403435051441193e-01" cType="1" res="8.8943447917699814e-03" rms="1.7319744825363159e-01" purity="4.7505591064691544e-02" nType="0">
            <Node pos="l" depth="3" NCoef="0" IVar="-1" Cut="0.0000000000000000e+00" cType="1" res="6.9775380194187164e-02" rms="1.8745554983615875e-01" purity="5.7240545749664307e-02" nType="-99"/>
            <Node pos="r" depth="3" NCoef="0" IVar="-1" Cut="0.0000000000000000e+00" cType="1" res="-7.5875399634242058e-03" rms="1.5359078347682953e-01" purity="3.5782326012849808e-02" nType="-99"/>
          </Node>
          <Node pos="r" depth="2" NCoef="0" IVar="8" Cut="1.4666606187820435e+00" cType="1" res="-1.0164287232328206e-04" rms="1.9821645319461823e-01" purity="2.8515666723251343e-01" nType="0">
            <Node pos="l" depth="3" NCoef="0" IVar="-1" Cut="0.0000000000000000e+00" cType="1" res="-4.0513374842703342e-03" rms="1.9359500706195831e-01" purity="3.0002003908157349e-01" nType="-99"/>
            <Node pos="r" depth="3" NCoef="0" IVar="-1" Cut="0.0000000000000000e+00" cType="1" res="3.8292948156595230e-02" rms="2.3945505917072296e-01" purity="1.3468015193939209e-01" nType="-99"/>
          </Node>
        </Node>
        <Node pos="r" depth="1" NCoef="0" IVar="1" Cut="2.2266862792968750e+03" cType="1" res="-4.2475690133869648e-03" rms="1.7392520606517792e-01" purity="8.1585222482681274e-01" nType="0">
          <Node pos="l" depth="2" NCoef="0" IVar="4" Cut="3.1717910766601562e+02" cType="1" res="-1.8495062366127968e-02" rms="2.7455893158912659e-01" purity="1.5133891999721527e-01" nType="0">
            <Node pos="l" depth="3" NCoef="0" IVar="-1" Cut="0.0000000000000000e+00" cType="1" res="-9.1324364766478539e-03" rms="2.2917711734771729e-01" purity="8.2281939685344696e-02" nType="-99"/>
            <Node pos="r" depth="3" NCoef="0" IVar="-1" Cut="0.0000000000000000e+00" cType="1" res="-3.0414439737796783e-02" rms="3.3237600326538086e-01" purity="2.5953915715217590e-01" nType="-99"/>
          </Node>
          <Node pos="r" depth="2" NCoef="0" IVar="1" Cut="2.6990861816406250e+03" cType="1" res="-8.4720377344638109e-04" rms="1.3935001194477081e-01" purity="9.7444772720336914e-01" nType="0">
            <Node pos="l" depth="3" NCoef="0" IVar="-1" Cut="0.0000000000000000e+00" cType="1" res="-8.2089165225625038e-03" rms="2.9747998714447021e-01" purity="8.7207955121994019e-01" nType="-99"/>
            <Node pos="r" depth="3" NCoef="0" IVar="-1" Cut="0.0000000000000000e+00" cType="1" res="2.3028927389532328e-03" rms="8.8546782732009888e-02" purity="9.9159479141235352e-01" nType="-99"/>
          </Node>
        </Node>
      </Node>
    </BinaryTree>
    <BinaryTree type="DecisionTree" boostWeight="1.0000000000000000e+00" itree="616">
      <Node pos="s" depth="0" NCoef="0" IVar="10" Cut="9.3332433700561523e-01" cType="1" res="1.0968379210680723e-03" rms="1.8448555469512939e-01" purity="5.0245618820190430e-01" nType="0">
        <Node pos="l" depth="1" NCoef="0" IVar="3" Cut="6.5123278808593750e+02" cType="1" res="2.6054105255752802e-03" rms="1.8259494006633759e-01" purity="5.1327842473983765e-01" nType="0">
          <Node pos="l" depth="2" NCoef="0" IVar="1" Cut="1.8686968994140625e+03" cType="1" res="6.7123943008482456e-03" rms="1.9748407602310181e-01" purity="2.0178325474262238e-01" nType="0">
            <Node pos="l" depth="3" NCoef="0" IVar="-1" Cut="0.0000000000000000e+00" cType="1" res="7.9824961721897125e-03" rms="1.3781189918518066e-01" purity="2.3744601756334305e-02" nType="-99"/>
            <Node pos="r" depth="3" NCoef="0" IVar="-1" Cut="0.0000000000000000e+00" cType="1" res="2.2185552865266800e-02" rms="3.1028509140014648e-01" purity="7.1416676044464111e-01" nType="-99"/>
          </Node>
          <Node pos="r" depth="2" NCoef="0" IVar="5" Cut="2.2042221069335938e+02" cType="1" res="-8.8530348148196936e-04" rms="1.6883279383182526e-01" purity="7.7803254127502441e-01" nType="0">
            <Node pos="l" depth="3" NCoef="0" IVar="-1" Cut="0.0000000000000000e+00" cType="1" res="-1.4603869058191776e-02" rms="2.1960102021694183e-01" purity="3.1215900182723999e-01" nType="-99"/>
            <Node pos="r" depth="3" NCoef="0" IVar="-1" Cut="0.0000000000000000e+00" cType="1" res="8.0129234120249748e-03" rms="1.4471416175365448e-01" purity="9.5611083507537842e-01" nType="-99"/>
          </Node>
        </Node>
        <Node pos="r" depth="1" NCoef="0" IVar="1" Cut="2.2412995605468750e+03" cType="1" res="-3.9644623175263405e-03" rms="1.9060447812080383e-01" purity="4.6614727377891541e-01" nType="0">
          <Node pos="l" depth="2" NCoef="0" IVar="6" Cut="1.0788848114013672e+02" cType="1" res="-9.5617463812232018e-03" rms="1.8961119651794434e-01" purity="6.9411262869834900e-02" nType="0">
            <Node pos="l" depth="3" NCoef="0" IVar="-1" Cut="0.0000000000000000e+00" cType="1" res="-4.8813926987349987e-03" rms="1.5925487875938416e-01" purity="4.3597571551799774e-02" nType="-99"/>
            <Node pos="r" depth="3" NCoef="0" IVar="-1" Cut="0.0000000000000000e+00" cType="1" res="-3.4446582198143005e-02" rms="2.3554193973541260e-01" purity="1.1789894849061966e-01" nType="-99"/>
          </Node>
          <Node pos="r" depth="2" NCoef="0" IVar="9" Cut="6.6591608524322510e-01" cType="1" res="2.6144920848309994e-03" rms="1.9155640900135040e-01" purity="9.3246418237686157e-01" nType="0">
            <Node pos="l" depth="3" NCoef="0" IVar="-1" Cut="0.0000000000000000e+00" cType="1" res="1.7527393996715546e-02" rms="1.8364606797695160e-01" purity="9.4215661287307739e-01" nType="-99"/>
            <Node pos="r" depth="3" NCoef="0" IVar="-1" Cut="0.0000000000000000e+00" cType="1" res="-2.1856976673007011e-02" rms="2.1397919952869415e-01" purity="9.0210121870040894e-01" nType="-99"/>
          </Node>
        </Node>
      </Node>
    </BinaryTree>
    <BinaryTree type="DecisionTree" boostWeight="1.0000000000000000e+00" itree="617">
      <Node pos="s" depth="0" NCoef="0" IVar="9" Cut="-1.7328979969024658e+00" cType="1" res="1.4656066196039319e-03" rms="1.8737567961215973e-01" purity="4.9851033091545105e-01" nType="0">
        <Node pos="l" depth="1" NCoef="0" IVar="5" Cut="1.6296087646484375e+02" cType="1" res="1.3593658804893494e-02" rms="2.3562490940093994e-01" purity="2.8999391198158264e-01" nType="0">
          <Node pos="l" depth="2" NCoef="0" IVar="-1" Cut="0.0000000000000000e+00" cType="1" res="8.5400789976119995e-03" rms="1.7099754512310028e-01" purity="9.5931127667427063e-02" nType="-99"/>
          <Node pos="r" depth="2" NCoef="0" IVar="-1" Cut="0.0000000000000000e+00" cType="1" res="3.9165154099464417e-02" rms="2.8254312276840210e-01" purity="4.7106057405471802e-01" nType="-99"/>
        </Node>
        <Node pos="r" depth="1" NCoef="0" IVar="9" Cut="1.7206240892410278e+00" cType="1" res="7.1567704435437918e-04" rms="1.8395103514194489e-01" purity="5.1140379905700684e-01" nType="0">
          <Node pos="l" depth="2" NCoef="0" IVar="9" Cut="1.2272403240203857e+00" cType="1" res="-8.3463775808922946e-05" rms="1.7981499433517456e-01" purity="5.2523463964462280e-01" nType="0">
            <Node pos="l" depth="3" NCoef="0" IVar="-1" Cut="0.0000000000000000e+00" cType="1" res="2.0243676844984293e-03" rms="1.7870396375656128e-01" purity="5.3236752748489380e-01" nType="-99"/>
            <Node pos="r" depth="3" NCoef="0" IVar="-1" Cut="0.0000000000000000e+00" cType="1" res="-2.0336819812655449e-02" rms="1.9110202789306641e-01" purity="4.4900885224342346e-01" nType="-99"/>
          </Node>
          <Node pos="r" depth="2" NCoef="0" IVar="1" Cut="1.6392528076171875e+03" cType="1" res="1.2683347798883915e-02" rms="2.3710085451602936e-01" purity="3.0427721142768860e-01" nType="0">
            <Node pos="l" depth="3" NCoef="0" IVar="-1" Cut="0.0000000000000000e+00" cType="1" res="-7.8170513734221458e-03" rms="1.1730432510375977e-01" purity="1.5211638063192368e-02" nType="-99"/>
            <Node pos="r" depth="3" NCoef="0" IVar="-1" Cut="0.0000000000000000e+00" cType="1" res="2.7313193306326866e-02" rms="2.9849794507026672e-01" purity="5.2998101711273193e-01" nType="-99"/>
          </Node>
        </Node>
      </Node>
    </BinaryTree>
    <BinaryTree type="DecisionTree" boostWeight="1.0000000000000000e+00" itree="618">
      <Node pos="s" depth="0" NCoef="0" IVar="9" Cut="-1.9998853206634521e+00" cType="1" res="-6.0587777988985181e-04" rms="1.8488155305385590e-01" purity="4.9687749147415161e-01" nType="0">
        <Node pos="l" depth="1" NCoef="0" IVar="-1" Cut="0.0000000000000000e+00" cType="1" res="-4.5171137899160385e-02" rms="2.0387811958789825e-01" purity="1.7087447643280029e-01" nType="-99"/>
        <Node pos="r" depth="1" NCoef="0" IVar="3" Cut="6.5137731933593750e+02" cType="1" res="-3.6346125398267759e-06" rms="1.8421950936317444e-01" purity="5.0713986158370972e-01" nType="0">
          <Node pos="l" depth="2" NCoef="0" IVar="5" Cut="1.6172088623046875e+02" cType="1" res="-2.6099106762558222e-03" rms="1.9381158053874969e-01" purity="1.9437453150749207e-01" nType="0">
            <Node pos="l" depth="3" NCoef="0" IVar="-1" Cut="0.0000000000000000e+00" cType="1" res="2.5433668866753578e-02" rms="1.2685120105743408e-01" purity="2.3206952959299088e-02" nType="-99"/>
            <Node pos="r" depth="3" NCoef="0" IVar="-1" Cut="0.0000000000000000e+00" cType="1" res="-1.2458703480660915e-02" rms="2.3074115812778473e-01" purity="3.1972873210906982e-01" nType="-99"/>
          </Node>
          <Node pos="r" depth="2" NCoef="0" IVar="1" Cut="3.0826250000000000e+03" cType="1" res="2.2548704873770475e-03" rms="1.7545253038406372e-01" purity="7.7817112207412720e-01" nType="0">
            <Node pos="l" depth="3" NCoef="0" IVar="-1" Cut="0.0000000000000000e+00" cType="1" res="9.5636406913399696e-03" rms="2.4295482039451599e-01" purity="5.0311750173568726e-01" nType="-99"/>
            <Node pos="r" depth="3" NCoef="0" IVar="-1" Cut="0.0000000000000000e+00" cType="1" res="-1.0464671067893505e-02" rms="9.5018446445465088e-02" purity="9.8982012271881104e-01" nType="-99"/>
          </Node>
        </Node>
      </Node>
    </BinaryTree>
    <BinaryTree type="DecisionTree" boostWeight="1.0000000000000000e+00" itree="619">
      <Node pos="s" depth="0" NCoef="0" IVar="0" Cut="4.4704034423828125e+02" cType="1" res="-7.6205155346542597e-04" rms="1.8372040987014771e-01" purity="5.0230687856674194e-01" nType="0">
        <Node pos="l" depth="1" NCoef="0" IVar="0" Cut="4.0502749633789062e+02" cType="1" res="5.2270870655775070e-03" rms="1.5432417392730713e-01" purity="3.4432265907526016e-02" nType="0">
          <Node pos="l" depth="2" NCoef="0" IVar="8" Cut="1.1972851753234863e+00" cType="1" res="-9.6458930056542158e-04" rms="1.2320177257061005e-01" purity="1.8805570900440216e-02" nType="0">
            <Node pos="l" depth="3" NCoef="0" IVar="-1" Cut="0.0000000000000000e+00" cType="1" res="-2.8009461238980293e-02" rms="1.0758461803197861e-01" purity="1.5138512477278709e-02" nType="-99"/>
            <Node pos="r" depth="3" NCoef="0" IVar="-1" Cut="0.0000000000000000e+00" cType="1" res="9.1867759823799133e-02" rms="1.7823866009712219e-01" purity="3.6042969673871994e-02" nType="-99"/>
          </Node>
          <Node pos="r" depth="2" NCoef="0" IVar="8" Cut="-1.2750031054019928e-01" cType="1" res="2.0571442320942879e-02" rms="2.1187397837638855e-01" purity="7.3158711194992065e-02" nType="0">
            <Node pos="l" depth="3" NCoef="0" IVar="-1" Cut="0.0000000000000000e+00" cType="1" res="1.2052827328443527e-01" rms="2.3592349886894226e-01" purity="1.0477577894926071e-01" nType="-99"/>
            <Node pos="r" depth="3" NCoef="0" IVar="-1" Cut="0.0000000000000000e+00" cType="1" res="-1.9157016649842262e-03" rms="1.8621253967285156e-01" purity="4.6022012829780579e-02" nType="-99"/>
          </Node>
        </Node>
        <Node pos="r" depth="1" NCoef="0" IVar="4" Cut="3.0681158447265625e+02" cType="1" res="-2.4575879797339439e-03" rms="1.9118945300579071e-01" purity="6.3476312160491943e-01" nType="0">
          <Node pos="l" depth="2" NCoef="0" IVar="5" Cut="1.8389326477050781e+02" cType="1" res="-7.2061079554259777e-03" rms="1.7879575490951538e-01" purity="9.7359679639339447e-02" nType="0">
            <Node pos="l" depth="3" NCoef="0" IVar="-1" Cut="0.0000000000000000e+00" cType="1" res="-7.2017107158899307e-03" rms="1.4574672281742096e-01" purity="4.7147054225206375e-02" nType="-99"/>
            <Node pos="r" depth="3" NCoef="0" IVar="-1" Cut="0.0000000000000000e+00" cType="1" res="-3.1724471598863602e-02" rms="2.5939825177192688e-01" purity="2.6475036144256592e-01" nType="-99"/>
          </Node>
          <Node pos="r" depth="2" NCoef="0" IVar="1" Cut="1.9511322021484375e+03" cType="1" res="-6.3317443709820509e-04" rms="1.9571201503276825e-01" purity="8.4123706817626953e-01" nType="0">
            <Node pos="l" depth="3" NCoef="0" IVar="-1" Cut="0.0000000000000000e+00" cType="1" res="2.5526473298668861e-02" rms="2.6062622666358948e-01" purity="1.0340212285518646e-01" nType="-99"/>
            <Node pos="r" depth="3" NCoef="0" IVar="-1" Cut="0.0000000000000000e+00" cType="1" res="-6.2817665748298168e-03" rms="1.8799209594726562e-01" purity="9.1427779197692871e-01" nType="-99"/>
          </Node>
        </Node>
      </Node>
    </BinaryTree>
    <BinaryTree type="DecisionTree" boostWeight="1.0000000000000000e+00" itree="620">
      <Node pos="s" depth="0" NCoef="0" IVar="1" Cut="2.2288715820312500e+03" cType="1" res="-1.5370768960565329e-03" rms="1.8125680088996887e-01" purity="5.0162506103515625e-01" nType="0">
        <Node pos="l" depth="1" NCoef="0" IVar="1" Cut="1.8736400146484375e+03" cType="1" res="-4.2984713800251484e-03" rms="1.8341277539730072e-01" purity="5.7349491864442825e-02" nType="0">
          <Node pos="l" depth="2" NCoef="0" IVar="10" Cut="1.3336342573165894e-01" cType="1" res="-2.2191955940797925e-04" rms="1.3395372033119202e-01" purity="2.4178206920623779e-02" nType="0">
            <Node pos="l" depth="3" NCoef="0" IVar="-1" Cut="0.0000000000000000e+00" cType="1" res="-1.9964411854743958e-02" rms="1.2156126648187637e-01" purity="1.9534656777977943e-02" nType="-99"/>
            <Node pos="r" depth="3" NCoef="0" IVar="-1" Cut="0.0000000000000000e+00" cType="1" res="1.8783500418066978e-02" rms="1.4702880382537842e-01" purity="2.9612915590405464e-02" nType="-99"/>
          </Node>
          <Node pos="r" depth="2" NCoef="0" IVar="2" Cut="3.7883743643760681e-02" cType="1" res="-2.4694263935089111e-02" rms="3.3417740464210510e-01" purity="2.2331197559833527e-01" nType="0">
            <Node pos="l" depth="3" NCoef="0" IVar="-1" Cut="0.0000000000000000e+00" cType="1" res="-7.5640249997377396e-03" rms="2.9765081405639648e-01" purity="1.5798452496528625e-01" nType="-99"/>
            <Node pos="r" depth="3" NCoef="0" IVar="-1" Cut="0.0000000000000000e+00" cType="1" res="-3.3827852457761765e-02" rms="3.9036285877227783e-01" purity="3.4280338883399963e-01" nType="-99"/>
          </Node>
        </Node>
        <Node pos="r" depth="1" NCoef="0" IVar="6" Cut="9.2210289001464844e+01" cType="1" res="1.1849463917315006e-03" rms="1.7906448245048523e-01" purity="9.3956625461578369e-01" nType="0">
          <Node pos="l" depth="2" NCoef="0" IVar="8" Cut="1.3320507109165192e-01" cType="1" res="9.6714738756418228e-03" rms="2.8519612550735474e-01" purity="7.8016030788421631e-01" nType="0">
            <Node pos="l" depth="3" NCoef="0" IVar="-1" Cut="0.0000000000000000e+00" cType="1" res="2.3299794644117355e-02" rms="2.8183519840240479e-01" purity="7.9588001966476440e-01" nType="-99"/>
            <Node pos="r" depth="3" NCoef="0" IVar="-1" Cut="0.0000000000000000e+00" cType="1" res="-4.9859844148159027e-03" rms="2.8925490379333496e-01" purity="7.5807029008865356e-01" nType="-99"/>
          </Node>
          <Node pos="r" depth="2" NCoef="0" IVar="8" Cut="9.3340724706649780e-01" cType="1" res="5.3977719289832748e-06" rms="1.5875841677188873e-01" purity="9.6172219514846802e-01" nType="0">
            <Node pos="l" depth="3" NCoef="0" IVar="-1" Cut="0.0000000000000000e+00" cType="1" res="3.7439588923007250e-03" rms="1.5198145806789398e-01" purity="9.6490937471389771e-01" nType="-99"/>
            <Node pos="r" depth="3" NCoef="0" IVar="-1" Cut="0.0000000000000000e+00" cType="1" res="-1.9139135256409645e-02" rms="2.0437984168529510e-01" purity="9.3655925989151001e-01" nType="-99"/>
          </Node>
        </Node>
      </Node>
    </BinaryTree>
    <BinaryTree type="DecisionTree" boostWeight="1.0000000000000000e+00" itree="621">
      <Node pos="s" depth="0" NCoef="0" IVar="8" Cut="1.7333621978759766e+00" cType="1" res="1.0222826385870576e-03" rms="1.8198217451572418e-01" purity="4.9939477443695068e-01" nType="0">
        <Node pos="l" depth="1" NCoef="0" IVar="1" Cut="1.6979556884765625e+03" cType="1" res="1.6158724902197719e-03" rms="1.8092437088489532e-01" purity="5.1478266716003418e-01" nType="0">
          <Node pos="l" depth="2" NCoef="0" IVar="6" Cut="1.4839659118652344e+02" cType="1" res="-2.0281523466110229e-03" rms="8.8816747069358826e-02" purity="9.4940401613712311e-03" nType="0">
            <Node pos="l" depth="3" NCoef="0" IVar="-1" Cut="0.0000000000000000e+00" cType="1" res="-3.2179459929466248e-02" rms="7.6079718768596649e-02" purity="6.8617244251072407e-03" nType="-99"/>
            <Node pos="r" depth="3" NCoef="0" IVar="-1" Cut="0.0000000000000000e+00" cType="1" res="2.2395757958292961e-02" rms="1.6414278745651245e-01" purity="3.3456381410360336e-02" nType="-99"/>
          </Node>
          <Node pos="r" depth="2" NCoef="0" IVar="8" Cut="-1.5035260915756226e+00" cType="1" res="3.3382123801857233e-03" rms="2.1087299287319183e-01" purity="7.5360620021820068e-01" nType="0">
            <Node pos="l" depth="3" NCoef="0" IVar="-1" Cut="0.0000000000000000e+00" cType="1" res="2.6764413341879845e-02" rms="2.9878544807434082e-01" purity="4.8516222834587097e-01" nType="-99"/>
            <Node pos="r" depth="3" NCoef="0" IVar="-1" Cut="0.0000000000000000e+00" cType="1" res="5.1644234918057919e-03" rms="2.0564103126525879e-01" purity="7.6653027534484863e-01" nType="-99"/>
          </Node>
        </Node>
        <Node pos="r" depth="1" NCoef="0" IVar="-1" Cut="0.0000000000000000e+00" cType="1" res="-2.8832213953137398e-02" rms="2.0411452651023865e-01" purity="1.4922684431076050e-01" nType="-99"/>
      </Node>
    </BinaryTree>
    <BinaryTree type="DecisionTree" boostWeight="1.0000000000000000e+00" itree="622">
      <Node pos="s" depth="0" NCoef="0" IVar="10" Cut="2.2666480541229248e+00" cType="1" res="-1.3863653875887394e-03" rms="1.8202224373817444e-01" purity="4.9763709306716919e-01" nType="0">
        <Node pos="l" depth="1" NCoef="0" IVar="10" Cut="1.7840442657470703e+00" cType="1" res="-9.6356088761240244e-04" rms="1.8027879297733307e-01" purity="5.0131195783615112e-01" nType="0">
          <Node pos="l" depth="2" NCoef="0" IVar="10" Cut="-2.1450226306915283e+00" cType="1" res="-1.6369164222851396e-03" rms="1.7849259078502655e-01" purity="5.0461584329605103e-01" nType="0">
            <Node pos="l" depth="3" NCoef="0" IVar="-1" Cut="0.0000000000000000e+00" cType="1" res="-2.8967875987291336e-02" rms="2.3118460178375244e-01" purity="3.1216996908187866e-01" nType="-99"/>
            <Node pos="r" depth="3" NCoef="0" IVar="-1" Cut="0.0000000000000000e+00" cType="1" res="-3.2892872113734484e-03" rms="1.7611165344715118e-01" purity="5.1206845045089722e-01" nType="-99"/>
          </Node>
          <Node pos="r" depth="2" NCoef="0" IVar="-1" Cut="0.0000000000000000e+00" cType="1" res="2.3605614900588989e-02" rms="2.1144370734691620e-01" purity="4.3745431303977966e-01" nType="-99"/>
        </Node>
        <Node pos="r" depth="1" NCoef="0" IVar="-1" Cut="0.0000000000000000e+00" cType="1" res="-3.2796427607536316e-02" rms="2.3727901279926300e-01" purity="3.6137422919273376e-01" nType="-99"/>
      </Node>
    </BinaryTree>
    <BinaryTree type="DecisionTree" boostWeight="1.0000000000000000e+00" itree="623">
      <Node pos="s" depth="0" NCoef="0" IVar="8" Cut="1.2000027894973755e+00" cType="1" res="1.0532916057854891e-03" rms="1.8275010585784912e-01" purity="4.9981370568275452e-01" nType="0">
        <Node pos="l" depth="1" NCoef="0" IVar="9" Cut="1.1997748613357544e+00" cType="1" res="-1.1450936290202662e-04" rms="1.7890551686286926e-01" purity="5.2520662546157837e-01" nType="0">
          <Node pos="l" depth="2" NCoef="0" IVar="10" Cut="-1.2000131607055664e+00" cType="1" res="7.3948153294622898e-04" rms="1.7440578341484070e-01" purity="5.4132032394409180e-01" nType="0">
            <Node pos="l" depth="3" NCoef="0" IVar="-1" Cut="0.0000000000000000e+00" cType="1" res="-1.2644929811358452e-02" rms="1.8405246734619141e-01" purity="4.6472138166427612e-01" nType="-99"/>
            <Node pos="r" depth="3" NCoef="0" IVar="-1" Cut="0.0000000000000000e+00" cType="1" res="5.9460964985191822e-03" rms="1.7233476042747498e-01" purity="5.5707150697708130e-01" nType="-99"/>
          </Node>
          <Node pos="r" depth="2" NCoef="0" IVar="0" Cut="5.2787457275390625e+02" cType="1" res="-5.6918626651167870e-03" rms="2.0580144226551056e-01" purity="4.1996923089027405e-01" nType="0">
            <Node pos="l" depth="3" NCoef="0" IVar="-1" Cut="0.0000000000000000e+00" cType="1" res="1.3269755989313126e-02" rms="2.0182354748249054e-01" purity="7.3752477765083313e-02" nType="-99"/>
            <Node pos="r" depth="3" NCoef="0" IVar="-1" Cut="0.0000000000000000e+00" cType="1" res="-2.5675838813185692e-02" rms="2.0784237980842590e-01" purity="6.2323617935180664e-01" nType="-99"/>
          </Node>
        </Node>
        <Node pos="r" depth="1" NCoef="0" IVar="6" Cut="1.0795436096191406e+02" cType="1" res="9.9546350538730621e-03" rms="2.0953796803951263e-01" purity="3.0626106262207031e-01" nType="0">
          <Node pos="l" depth="2" NCoef="0" IVar="8" Cut="1.7331906557083130e+00" cType="1" res="-4.3731532059609890e-03" rms="1.6611528396606445e-01" purity="1.0393044352531433e-01" nType="0">
            <Node pos="l" depth="3" NCoef="0" IVar="-1" Cut="0.0000000000000000e+00" cType="1" res="-2.6601977646350861e-02" rms="1.7100220918655396e-01" purity="1.2875668704509735e-01" nType="-99"/>
            <Node pos="r" depth="3" NCoef="0" IVar="-1" Cut="0.0000000000000000e+00" cType="1" res="1.0618060827255249e-02" rms="1.5904240310192108e-01" purity="7.0732191205024719e-02" nType="-99"/>
          </Node>
          <Node pos="r" depth="2" NCoef="0" IVar="-1" Cut="0.0000000000000000e+00" cType="1" res="4.0863774716854095e-02" rms="2.4807685613632202e-01" purity="5.3098493814468384e-01" nType="-99"/>
        </Node>
      </Node>
    </BinaryTree>
    <BinaryTree type="DecisionTree" boostWeight="1.0000000000000000e+00" itree="624">
      <Node pos="s" depth="0" NCoef="0" IVar="9" Cut="1.9998707771301270e+00" cType="1" res="-1.1968585749855265e-04" rms="1.8368002772331238e-01" purity="4.9767586588859558e-01" nType="0">
        <Node pos="l" depth="1" NCoef="0" IVar="10" Cut="-1.9999412298202515e+00" cType="1" res="-8.1189337652176619e-04" rms="1.8164603412151337e-01" purity="5.0592434406280518e-01" nType="0">
          <Node pos="l" depth="2" NCoef="0" IVar="-1" Cut="0.0000000000000000e+00" cType="1" res="-3.7710268050432205e-02" rms="1.8720583617687225e-01" purity="3.2166212797164917e-01" nType="-99"/>
          <Node pos="r" depth="2" NCoef="0" IVar="8" Cut="1.1999754905700684e+00" cType="1" res="-1.3300199498189613e-05" rms="1.8133142590522766e-01" purity="5.1495933532714844e-01" nType="0">
            <Node pos="l" depth="3" NCoef="0" IVar="-1" Cut="0.0000000000000000e+00" cType="1" res="-3.8650960195809603e-03" rms="1.7500369250774384e-01" purity="5.3792762756347656e-01" nType="-99"/>
            <Node pos="r" depth="3" NCoef="0" IVar="-1" Cut="0.0000000000000000e+00" cType="1" res="2.1769069135189056e-02" rms="2.2528770565986633e-01" purity="3.3178204298019409e-01" nType="-99"/>
          </Node>
        </Node>
        <Node pos="r" depth="1" NCoef="0" IVar="-1" Cut="0.0000000000000000e+00" cType="1" res="3.3813416957855225e-02" rms="2.3194734752178192e-01" purity="2.7081486582756042e-01" nType="-99"/>
      </Node>
    </BinaryTree>
    <BinaryTree type="DecisionTree" boostWeight="1.0000000000000000e+00" itree="625">
      <Node pos="s" depth="0" NCoef="0" IVar="8" Cut="-1.7333463430404663e+00" cType="1" res="1.4777021715417504e-03" rms="1.8418960273265839e-01" purity="4.9817469716072083e-01" nType="0">
        <Node pos="l" depth="1" NCoef="0" IVar="-1" Cut="0.0000000000000000e+00" cType="1" res="-2.7599774301052094e-02" rms="1.9287267327308655e-01" purity="1.5174303948879242e-01" nType="-99"/>
        <Node pos="r" depth="1" NCoef="0" IVar="8" Cut="1.5042210817337036e+00" cType="1" res="2.0579607225954533e-03" rms="1.8376982212066650e-01" purity="5.1368701457977295e-01" nType="0">
          <Node pos="l" depth="2" NCoef="0" IVar="8" Cut="1.1958667039871216e+00" cType="1" res="1.1796172475442290e-03" rms="1.7930191755294800e-01" purity="5.3398889303207397e-01" nType="0">
            <Node pos="l" depth="3" NCoef="0" IVar="-1" Cut="0.0000000000000000e+00" cType="1" res="5.7538109831511974e-03" rms="1.7891398072242737e-01" purity="5.4280251264572144e-01" nType="-99"/>
            <Node pos="r" depth="3" NCoef="0" IVar="-1" Cut="0.0000000000000000e+00" cType="1" res="-2.8106840327382088e-02" rms="1.8524956703186035e-01" purity="3.8502714037895203e-01" nType="-99"/>
          </Node>
          <Node pos="r" depth="2" NCoef="0" IVar="10" Cut="-1.3338325917720795e-01" cType="1" res="1.3465454801917076e-02" rms="2.3387847840785980e-01" purity="2.5001668930053711e-01" nType="0">
            <Node pos="l" depth="3" NCoef="0" IVar="-1" Cut="0.0000000000000000e+00" cType="1" res="5.0014324486255646e-02" rms="2.5412362813949585e-01" purity="2.7384519577026367e-01" nType="-99"/>
            <Node pos="r" depth="3" NCoef="0" IVar="-1" Cut="0.0000000000000000e+00" cType="1" res="7.5351600535213947e-03" rms="2.1747417747974396e-01" purity="2.3270811140537262e-01" nType="-99"/>
          </Node>
        </Node>
      </Node>
    </BinaryTree>
    <BinaryTree type="DecisionTree" boostWeight="1.0000000000000000e+00" itree="626">
      <Node pos="s" depth="0" NCoef="0" IVar="0" Cut="4.4704034423828125e+02" cType="1" res="-5.3898268379271030e-04" rms="1.8171125650405884e-01" purity="5.0015145540237427e-01" nType="0">
        <Node pos="l" depth="1" NCoef="0" IVar="1" Cut="1.7358847656250000e+03" cType="1" res="-4.7455057501792908e-03" rms="1.3248746097087860e-01" purity="2.5226294994354248e-02" nType="0">
          <Node pos="l" depth="2" NCoef="0" IVar="8" Cut="9.3365436792373657e-01" cType="1" res="-1.4035388594493270e-03" rms="9.3459129333496094e-02" purity="9.9289398640394211e-03" nType="0">
            <Node pos="l" depth="3" NCoef="0" IVar="-1" Cut="0.0000000000000000e+00" cType="1" res="7.2238966822624207e-03" rms="9.8197445273399353e-02" purity="1.1181170120835304e-02" nType="-99"/>
            <Node pos="r" depth="3" NCoef="0" IVar="-1" Cut="0.0000000000000000e+00" cType="1" res="-6.3103377819061279e-02" rms="7.5455307960510254e-02" purity="5.8211367577314377e-03" nType="-99"/>
          </Node>
          <Node pos="r" depth="2" NCoef="0" IVar="-1" Cut="0.0000000000000000e+00" cType="1" res="-2.6856685057282448e-02" rms="2.4467647075653076e-01" purity="9.9175237119197845e-02" nType="-99"/>
        </Node>
        <Node pos="r" depth="1" NCoef="0" IVar="7" Cut="-8.3071357011795044e-01" cType="1" res="6.2068976694718003e-04" rms="1.9307124614715576e-01" purity="6.3108086585998535e-01" nType="0">
          <Node pos="l" depth="2" NCoef="0" IVar="0" Cut="5.4719683837890625e+02" cType="1" res="7.7374223619699478e-03" rms="2.1523128449916840e-01" purity="4.3380165100097656e-01" nType="0">
            <Node pos="l" depth="3" NCoef="0" IVar="-1" Cut="0.0000000000000000e+00" cType="1" res="4.9756247550249100e-02" rms="2.2886456549167633e-01" purity="1.2122482806444168e-01" nType="-99"/>
            <Node pos="r" depth="3" NCoef="0" IVar="-1" Cut="0.0000000000000000e+00" cType="1" res="5.6592919863760471e-03" rms="2.1002639830112457e-01" purity="5.4302334785461426e-01" nType="-99"/>
          </Node>
          <Node pos="r" depth="2" NCoef="0" IVar="9" Cut="1.7327275276184082e+00" cType="1" res="-5.4583104792982340e-04" rms="1.8916596472263336e-01" purity="6.6341739892959595e-01" nType="0">
            <Node pos="l" depth="3" NCoef="0" IVar="-1" Cut="0.0000000000000000e+00" cType="1" res="-2.9235101465019397e-05" rms="1.8612597882747650e-01" purity="6.7514175176620483e-01" nType="-99"/>
            <Node pos="r" depth="3" NCoef="0" IVar="-1" Cut="0.0000000000000000e+00" cType="1" res="-1.6750449314713478e-02" rms="2.4066266417503357e-01" purity="4.3477052450180054e-01" nType="-99"/>
          </Node>
        </Node>
      </Node>
    </BinaryTree>
    <BinaryTree type="DecisionTree" boostWeight="1.0000000000000000e+00" itree="627">
      <Node pos="s" depth="0" NCoef="0" IVar="9" Cut="-1.9995291233062744e+00" cType="1" res="2.3357686586678028e-03" rms="1.8733994662761688e-01" purity="5.0392979383468628e-01" nType="0">
        <Node pos="l" depth="1" NCoef="0" IVar="-1" Cut="0.0000000000000000e+00" cType="1" res="-3.3850964158773422e-02" rms="2.0247113704681396e-01" purity="2.0165416598320007e-01" nType="-99"/>
        <Node pos="r" depth="1" NCoef="0" IVar="8" Cut="-1.4665453433990479e+00" cType="1" res="2.8482556808739901e-03" rms="1.8683396279811859e-01" purity="5.1317906379699707e-01" nType="0">
          <Node pos="l" depth="2" NCoef="0" IVar="0" Cut="5.2008728027343750e+02" cType="1" res="1.3757767155766487e-02" rms="2.2395798563957214e-01" purity="2.5638484954833984e-01" nType="0">
            <Node pos="l" depth="3" NCoef="0" IVar="-1" Cut="0.0000000000000000e+00" cType="1" res="7.1780614554882050e-02" rms="1.9775727391242981e-01" purity="7.7587142586708069e-02" nType="-99"/>
            <Node pos="r" depth="3" NCoef="0" IVar="-1" Cut="0.0000000000000000e+00" cType="1" res="1.0076171718537807e-02" rms="2.4506136775016785e-01" purity="4.1857323050498962e-01" nType="-99"/>
          </Node>
          <Node pos="r" depth="2" NCoef="0" IVar="3" Cut="3.3552075195312500e+02" cType="1" res="2.0439524669200182e-03" rms="1.8377481400966644e-01" purity="5.3211122751235962e-01" nType="0">
            <Node pos="l" depth="3" NCoef="0" IVar="-1" Cut="0.0000000000000000e+00" cType="1" res="-4.4514324516057968e-02" rms="1.2238949537277222e-01" purity="2.7220780029892921e-02" nType="-99"/>
            <Node pos="r" depth="3" NCoef="0" IVar="-1" Cut="0.0000000000000000e+00" cType="1" res="7.3038553819060326e-03" rms="1.8560433387756348e-01" purity="5.5045622587203979e-01" nType="-99"/>
          </Node>
        </Node>
      </Node>
    </BinaryTree>
    <BinaryTree type="DecisionTree" boostWeight="1.0000000000000000e+00" itree="628">
      <Node pos="s" depth="0" NCoef="0" IVar="4" Cut="3.2362533569335938e+02" cType="1" res="4.2735011084005237e-04" rms="1.8528227508068085e-01" purity="5.0052678585052490e-01" nType="0">
        <Node pos="l" depth="1" NCoef="0" IVar="7" Cut="1.4022552967071533e-01" cType="1" res="-4.6550226397812366e-03" rms="1.6238333284854889e-01" purity="7.8960314393043518e-02" nType="0">
          <Node pos="l" depth="2" NCoef="0" IVar="10" Cut="1.4662512540817261e+00" cType="1" res="2.8041671612299979e-04" rms="1.6549924015998840e-01" purity="8.6290113627910614e-02" nType="0">
            <Node pos="l" depth="3" NCoef="0" IVar="-1" Cut="0.0000000000000000e+00" cType="1" res="9.2512620612978935e-03" rms="1.6264481842517853e-01" purity="8.5906572639942169e-02" nType="-99"/>
            <Node pos="r" depth="3" NCoef="0" IVar="-1" Cut="0.0000000000000000e+00" cType="1" res="-4.0792036801576614e-02" rms="1.8288348615169525e-01" purity="8.8886640965938568e-02" nType="-99"/>
          </Node>
          <Node pos="r" depth="2" NCoef="0" IVar="1" Cut="1.6503559570312500e+03" cType="1" res="-1.0831571184098721e-02" rms="1.5818075835704803e-01" purity="6.9787293672561646e-02" nType="0">
            <Node pos="l" depth="3" NCoef="0" IVar="-1" Cut="0.0000000000000000e+00" cType="1" res="-4.4749315828084946e-02" rms="7.6733939349651337e-02" purity="6.1467718333005905e-03" nType="-99"/>
            <Node pos="r" depth="3" NCoef="0" IVar="-1" Cut="0.0000000000000000e+00" cType="1" res="-3.2941985875368118e-02" rms="2.4709719419479370e-01" purity="1.9041450321674347e-01" nType="-99"/>
          </Node>
        </Node>
        <Node pos="r" depth="1" NCoef="0" IVar="1" Cut="2.2231440429687500e+03" cType="1" res="3.2275686971843243e-03" rms="1.9670738279819489e-01" purity="7.3279589414596558e-01" nType="0">
          <Node pos="l" depth="2" NCoef="0" IVar="0" Cut="4.5880844116210938e+02" cType="1" res="1.5444495715200901e-02" rms="2.5688835978507996e-01" purity="1.3073192536830902e-01" nType="0">
            <Node pos="l" depth="3" NCoef="0" IVar="-1" Cut="0.0000000000000000e+00" cType="1" res="1.2374815531075001e-02" rms="1.7893311381340027e-01" purity="4.5766212046146393e-02" nType="-99"/>
            <Node pos="r" depth="3" NCoef="0" IVar="-1" Cut="0.0000000000000000e+00" cType="1" res="3.0112959444522858e-02" rms="3.4198069572448730e-01" purity="2.5947684049606323e-01" nType="-99"/>
          </Node>
          <Node pos="r" depth="2" NCoef="0" IVar="4" Cut="4.0107272338867188e+02" cType="1" res="-1.2041412992402911e-03" rms="1.6946290433406830e-01" purity="9.5119559764862061e-01" nType="0">
            <Node pos="l" depth="3" NCoef="0" IVar="-1" Cut="0.0000000000000000e+00" cType="1" res="-2.2117255255579948e-02" rms="2.6323968172073364e-01" purity="8.7121784687042236e-01" nType="-99"/>
            <Node pos="r" depth="3" NCoef="0" IVar="-1" Cut="0.0000000000000000e+00" cType="1" res="2.9866714612580836e-04" rms="1.5782333910465240e-01" purity="9.5866626501083374e-01" nType="-99"/>
          </Node>
        </Node>
      </Node>
    </BinaryTree>
    <BinaryTree type="DecisionTree" boostWeight="1.0000000000000000e+00" itree="629">
      <Node pos="s" depth="0" NCoef="0" IVar="10" Cut="-2.2666301727294922e+00" cType="1" res="-1.8634190782904625e-03" rms="1.8231594562530518e-01" purity="4.9593526124954224e-01" nType="0">
        <Node pos="l" depth="1" NCoef="0" IVar="-1" Cut="0.0000000000000000e+00" cType="1" res="3.1257640570402145e-02" rms="2.4397373199462891e-01" purity="3.3135154843330383e-01" nType="-99"/>
        <Node pos="r" depth="1" NCoef="0" IVar="8" Cut="-1.3336129486560822e-01" cType="1" res="-2.3522714618593454e-03" rms="1.8036027252674103e-01" purity="5.0031882524490356e-01" nType="0">
          <Node pos="l" depth="2" NCoef="0" IVar="1" Cut="2.6474599609375000e+03" cType="1" res="-4.8647136427462101e-03" rms="1.7900104820728302e-01" purity="4.9364292621612549e-01" nType="0">
            <Node pos="l" depth="3" NCoef="0" IVar="-1" Cut="0.0000000000000000e+00" cType="1" res="-1.7467059195041656e-02" rms="2.0677500963211060e-01" purity="1.5220014750957489e-01" nType="-99"/>
            <Node pos="r" depth="3" NCoef="0" IVar="-1" Cut="0.0000000000000000e+00" cType="1" res="2.1473919041454792e-03" rms="1.2971247732639313e-01" purity="9.7704839706420898e-01" nType="-99"/>
          </Node>
          <Node pos="r" depth="2" NCoef="0" IVar="8" Cut="1.2633206844329834e+00" cType="1" res="-3.2283118343912065e-04" rms="1.8142536282539368e-01" purity="5.0571131706237793e-01" nType="0">
            <Node pos="l" depth="3" NCoef="0" IVar="-1" Cut="0.0000000000000000e+00" cType="1" res="4.0525975637137890e-03" rms="1.7578531801700592e-01" purity="5.6002223491668701e-01" nType="-99"/>
            <Node pos="r" depth="3" NCoef="0" IVar="-1" Cut="0.0000000000000000e+00" cType="1" res="-1.6767509281635284e-02" rms="2.0443905889987946e-01" purity="2.6466020941734314e-01" nType="-99"/>
          </Node>
        </Node>
      </Node>
    </BinaryTree>
    <BinaryTree type="DecisionTree" boostWeight="1.0000000000000000e+00" itree="630">
      <Node pos="s" depth="0" NCoef="0" IVar="8" Cut="1.3341687619686127e-01" cType="1" res="1.7505958676338196e-03" rms="1.8968744575977325e-01" purity="5.0232183933258057e-01" nType="0">
        <Node pos="l" depth="1" NCoef="0" IVar="9" Cut="1.7332324981689453e+00" cType="1" res="-6.7584577482193708e-04" rms="1.8733954429626465e-01" purity="5.0576287508010864e-01" nType="0">
          <Node pos="l" depth="2" NCoef="0" IVar="5" Cut="1.5868107604980469e+02" cType="1" res="-2.0136958919465542e-03" rms="1.8276624381542206e-01" purity="5.1606822013854980e-01" nType="0">
            <Node pos="l" depth="3" NCoef="0" IVar="-1" Cut="0.0000000000000000e+00" cType="1" res="1.3734499923884869e-02" rms="1.5308928489685059e-01" purity="6.9040849804878235e-02" nType="-99"/>
            <Node pos="r" depth="3" NCoef="0" IVar="-1" Cut="0.0000000000000000e+00" cType="1" res="-1.0511860251426697e-02" rms="1.9296225905418396e-01" purity="6.8852508068084717e-01" nType="-99"/>
          </Node>
          <Node pos="r" depth="2" NCoef="0" IVar="-1" Cut="0.0000000000000000e+00" cType="1" res="3.5661235451698303e-02" rms="2.4936912953853607e-01" purity="3.3776029944419861e-01" nType="-99"/>
        </Node>
        <Node pos="r" depth="1" NCoef="0" IVar="5" Cut="1.5561840820312500e+02" cType="1" res="4.6468768268823624e-03" rms="1.9241242110729218e-01" purity="4.9821439385414124e-01" nType="0">
          <Node pos="l" depth="2" NCoef="0" IVar="1" Cut="1.6595178222656250e+03" cType="1" res="-3.9114789105951786e-03" rms="1.4668552577495575e-01" purity="6.7070059478282928e-02" nType="0">
            <Node pos="l" depth="3" NCoef="0" IVar="-1" Cut="0.0000000000000000e+00" cType="1" res="3.2659713178873062e-02" rms="7.0518001914024353e-02" purity="5.0530866719782352e-03" nType="-99"/>
            <Node pos="r" depth="3" NCoef="0" IVar="-1" Cut="0.0000000000000000e+00" cType="1" res="-2.1856583654880524e-02" rms="2.2424846887588501e-01" purity="1.7539495229721069e-01" nType="-99"/>
          </Node>
          <Node pos="r" depth="2" NCoef="0" IVar="1" Cut="2.8897729492187500e+03" cType="1" res="8.0252531915903091e-03" rms="2.0761285722255707e-01" purity="6.6840690374374390e-01" nType="0">
            <Node pos="l" depth="3" NCoef="0" IVar="-1" Cut="0.0000000000000000e+00" cType="1" res="2.1736964583396912e-02" rms="2.7274060249328613e-01" purity="3.7602099776268005e-01" nType="-99"/>
            <Node pos="r" depth="3" NCoef="0" IVar="-1" Cut="0.0000000000000000e+00" cType="1" res="-6.0844328254461288e-03" rms="9.2050701379776001e-02" purity="9.9076491594314575e-01" nType="-99"/>
          </Node>
        </Node>
      </Node>
    </BinaryTree>
    <BinaryTree type="DecisionTree" boostWeight="1.0000000000000000e+00" itree="631">
      <Node pos="s" depth="0" NCoef="0" IVar="8" Cut="1.4666378498077393e+00" cType="1" res="-1.0618962114676833e-03" rms="1.8379116058349609e-01" purity="5.0091707706451416e-01" nType="0">
        <Node pos="l" depth="1" NCoef="0" IVar="7" Cut="7.0980310440063477e-01" cType="1" res="-1.6037830209825188e-04" rms="1.8179684877395630e-01" purity="5.2198773622512817e-01" nType="0">
          <Node pos="l" depth="2" NCoef="0" IVar="9" Cut="1.7332166433334351e+00" cType="1" res="1.1012407485395670e-03" rms="1.7908182740211487e-01" purity="5.6495809555053711e-01" nType="0">
            <Node pos="l" depth="3" NCoef="0" IVar="-1" Cut="0.0000000000000000e+00" cType="1" res="5.2893212996423244e-03" rms="1.7720802128314972e-01" purity="5.7755017280578613e-01" nType="-99"/>
            <Node pos="r" depth="3" NCoef="0" IVar="-1" Cut="0.0000000000000000e+00" cType="1" res="-2.0053124055266380e-02" rms="2.1047051250934601e-01" purity="3.3175319433212280e-01" nType="-99"/>
          </Node>
          <Node pos="r" depth="2" NCoef="0" IVar="0" Cut="6.4032476806640625e+02" cType="1" res="-5.5177686735987663e-03" rms="1.9280891120433807e-01" purity="3.3951643109321594e-01" nType="0">
            <Node pos="l" depth="3" NCoef="0" IVar="-1" Cut="0.0000000000000000e+00" cType="1" res="-3.5725034773349762e-02" rms="1.6436167061328888e-01" purity="7.2694979608058929e-02" nType="-99"/>
            <Node pos="r" depth="3" NCoef="0" IVar="-1" Cut="0.0000000000000000e+00" cType="1" res="8.7918639183044434e-03" rms="2.2539220750331879e-01" purity="7.0145237445831299e-01" nType="-99"/>
          </Node>
        </Node>
        <Node pos="r" depth="1" NCoef="0" IVar="4" Cut="3.1751437377929688e+02" cType="1" res="-1.2505999766290188e-02" rms="2.0710673928260803e-01" purity="2.3344129323959351e-01" nType="0">
          <Node pos="l" depth="2" NCoef="0" IVar="-1" Cut="0.0000000000000000e+00" cType="1" res="3.0224083457142115e-04" rms="1.9054317474365234e-01" purity="9.5236510038375854e-02" nType="-99"/>
          <Node pos="r" depth="2" NCoef="0" IVar="-1" Cut="0.0000000000000000e+00" cType="1" res="-5.1689345389604568e-02" rms="2.2695297002792358e-01" purity="4.2526230216026306e-01" nType="-99"/>
        </Node>
      </Node>
    </BinaryTree>
    <BinaryTree type="DecisionTree" boostWeight="1.0000000000000000e+00" itree="632">
      <Node pos="s" depth="0" NCoef="0" IVar="10" Cut="-1.4665971994400024e+00" cType="1" res="-8.9043058687821031e-04" rms="1.8223491311073303e-01" purity="4.9738347530364990e-01" nType="0">
        <Node pos="l" depth="1" NCoef="0" IVar="0" Cut="7.2617993164062500e+02" cType="1" res="6.9924709387123585e-03" rms="2.1393497288227081e-01" purity="4.4511765241622925e-01" nType="0">
          <Node pos="l" depth="2" NCoef="0" IVar="7" Cut="2.0214036107063293e-01" cType="1" res="1.4519849792122841e-02" rms="2.3016808927059174e-01" purity="1.8767528235912323e-01" nType="0">
            <Node pos="l" depth="3" NCoef="0" IVar="-1" Cut="0.0000000000000000e+00" cType="1" res="1.0427522473037243e-02" rms="2.1084780991077423e-01" purity="2.0510877668857574e-01" nType="-99"/>
            <Node pos="r" depth="3" NCoef="0" IVar="-1" Cut="0.0000000000000000e+00" cType="1" res="5.8552946895360947e-02" rms="2.5592634081840515e-01" purity="1.6137050092220306e-01" nType="-99"/>
          </Node>
          <Node pos="r" depth="2" NCoef="0" IVar="-1" Cut="0.0000000000000000e+00" cType="1" res="-1.0873517021536827e-02" rms="1.8639676272869110e-01" purity="8.3121782541275024e-01" nType="-99"/>
        </Node>
        <Node pos="r" depth="1" NCoef="0" IVar="7" Cut="-3.3560535311698914e-01" cType="1" res="-1.9718112889677286e-03" rms="1.7741779983043671e-01" purity="5.0455331802368164e-01" nType="0">
          <Node pos="l" depth="2" NCoef="0" IVar="5" Cut="2.7319305419921875e+02" cType="1" res="-6.1684139072895050e-03" rms="1.7525611817836761e-01" purity="4.3979141116142273e-01" nType="0">
            <Node pos="l" depth="3" NCoef="0" IVar="-1" Cut="0.0000000000000000e+00" cType="1" res="-2.8111780062317848e-02" rms="1.7649784684181213e-01" purity="1.5187312662601471e-01" nType="-99"/>
            <Node pos="r" depth="3" NCoef="0" IVar="-1" Cut="0.0000000000000000e+00" cType="1" res="-8.9715125795919448e-05" rms="1.7308641970157623e-01" purity="8.9750492572784424e-01" nType="-99"/>
          </Node>
          <Node pos="r" depth="2" NCoef="0" IVar="9" Cut="-6.6662883758544922e-01" cType="1" res="1.1546181485755369e-04" rms="1.7844645678997040e-01" purity="5.3676414489746094e-01" nType="0">
            <Node pos="l" depth="3" NCoef="0" IVar="-1" Cut="0.0000000000000000e+00" cType="1" res="-1.5327638015151024e-02" rms="1.8685941398143768e-01" purity="5.0752377510070801e-01" nType="-99"/>
            <Node pos="r" depth="3" NCoef="0" IVar="-1" Cut="0.0000000000000000e+00" cType="1" res="7.0045003667473793e-03" rms="1.7527030408382416e-01" purity="5.4729110002517700e-01" nType="-99"/>
          </Node>
        </Node>
      </Node>
    </BinaryTree>
    <BinaryTree type="DecisionTree" boostWeight="1.0000000000000000e+00" itree="633">
      <Node pos="s" depth="0" NCoef="0" IVar="7" Cut="1.2231150865554810e+00" cType="1" res="-1.0509323328733444e-03" rms="1.8403214216232300e-01" purity="4.9783965945243835e-01" nType="0">
        <Node pos="l" depth="1" NCoef="0" IVar="0" Cut="4.4712588500976562e+02" cType="1" res="-6.0533115174621344e-05" rms="1.8472208082675934e-01" purity="5.2547323703765869e-01" nType="0">
          <Node pos="l" depth="2" NCoef="0" IVar="5" Cut="2.4401722717285156e+02" cType="1" res="4.9388036131858826e-03" rms="1.5650202333927155e-01" purity="3.4590519964694977e-02" nType="0">
            <Node pos="l" depth="3" NCoef="0" IVar="-1" Cut="0.0000000000000000e+00" cType="1" res="2.8356981929391623e-03" rms="1.1203320324420929e-01" purity="1.4083511196076870e-02" nType="-99"/>
            <Node pos="r" depth="3" NCoef="0" IVar="-1" Cut="0.0000000000000000e+00" cType="1" res="3.9361752569675446e-02" rms="2.8923755884170532e-01" purity="1.3728594779968262e-01" nType="-99"/>
          </Node>
          <Node pos="r" depth="2" NCoef="0" IVar="7" Cut="4.7817924618721008e-01" cType="1" res="-1.3334392569959164e-03" rms="1.9122250378131866e-01" purity="6.5045934915542603e-01" nType="0">
            <Node pos="l" depth="3" NCoef="0" IVar="-1" Cut="0.0000000000000000e+00" cType="1" res="-7.3108593933284283e-03" rms="1.8833073973655701e-01" purity="6.5718632936477661e-01" nType="-99"/>
            <Node pos="r" depth="3" NCoef="0" IVar="-1" Cut="0.0000000000000000e+00" cType="1" res="7.7856825664639473e-03" rms="2.0106939971446991e-01" purity="6.2660300731658936e-01" nType="-99"/>
          </Node>
        </Node>
        <Node pos="r" depth="1" NCoef="0" IVar="1" Cut="1.7380426025390625e+03" cType="1" res="-1.3242153450846672e-02" rms="1.7485809326171875e-01" purity="1.5768620371818542e-01" nType="0">
          <Node pos="l" depth="2" NCoef="0" IVar="-1" Cut="0.0000000000000000e+00" cType="1" res="-3.1159186735749245e-02" rms="8.8466159999370575e-02" purity="9.7246924415230751e-03" nType="-99"/>
          <Node pos="r" depth="2" NCoef="0" IVar="-1" Cut="0.0000000000000000e+00" cType="1" res="-3.9818711578845978e-02" rms="2.6576682925224304e-01" purity="4.2106455564498901e-01" nType="-99"/>
        </Node>
      </Node>
    </BinaryTree>
    <BinaryTree type="DecisionTree" boostWeight="1.0000000000000000e+00" itree="634">
      <Node pos="s" depth="0" NCoef="0" IVar="4" Cut="3.2550106811523438e+02" cType="1" res="1.2376527301967144e-03" rms="1.8491883575916290e-01" purity="5.0263035297393799e-01" nType="0">
        <Node pos="l" depth="1" NCoef="0" IVar="6" Cut="1.1226355743408203e+02" cType="1" res="5.7033146731555462e-03" rms="1.7601890861988068e-01" purity="9.5465779304504395e-02" nType="0">
          <Node pos="l" depth="2" NCoef="0" IVar="2" Cut="3.4624740481376648e-02" cType="1" res="-1.2748554581776261e-03" rms="1.3099312782287598e-01" purity="3.6190014332532883e-02" nType="0">
            <Node pos="l" depth="3" NCoef="0" IVar="-1" Cut="0.0000000000000000e+00" cType="1" res="-2.1686879917979240e-02" rms="1.1747673898935318e-01" purity="2.6883194223046303e-02" nType="-99"/>
            <Node pos="r" depth="3" NCoef="0" IVar="-1" Cut="0.0000000000000000e+00" cType="1" res="2.1861663088202477e-02" rms="1.6486765444278717e-01" purity="6.4150363206863403e-02" nType="-99"/>
          </Node>
          <Node pos="r" depth="2" NCoef="0" IVar="1" Cut="1.6686929931640625e+03" cType="1" res="1.7843512818217278e-02" rms="2.3409350216388702e-01" purity="1.9859014451503754e-01" nType="0">
            <Node pos="l" depth="3" NCoef="0" IVar="-1" Cut="0.0000000000000000e+00" cType="1" res="4.4824734330177307e-02" rms="1.4804285764694214e-01" purity="2.6124970987439156e-02" nType="-99"/>
            <Node pos="r" depth="3" NCoef="0" IVar="-1" Cut="0.0000000000000000e+00" cType="1" res="3.1300928443670273e-02" rms="3.0959954857826233e-01" purity="4.1549855470657349e-01" nType="-99"/>
          </Node>
        </Node>
        <Node pos="r" depth="1" NCoef="0" IVar="0" Cut="5.5144036865234375e+02" cType="1" res="-1.2872829101979733e-03" rms="1.8971982598304749e-01" purity="7.3284578323364258e-01" nType="0">
          <Node pos="l" depth="2" NCoef="0" IVar="10" Cut="9.3330448865890503e-01" cType="1" res="-8.3201294764876366e-03" rms="2.2304078936576843e-01" purity="1.3917249441146851e-01" nType="0">
            <Node pos="l" depth="3" NCoef="0" IVar="-1" Cut="0.0000000000000000e+00" cType="1" res="-2.6068480685353279e-02" rms="2.1584700047969818e-01" purity="1.3179175555706024e-01" nType="-99"/>
            <Node pos="r" depth="3" NCoef="0" IVar="-1" Cut="0.0000000000000000e+00" cType="1" res="1.4219968579709530e-02" rms="2.4229270219802856e-01" purity="1.6106320917606354e-01" nType="-99"/>
          </Node>
          <Node pos="r" depth="2" NCoef="0" IVar="1" Cut="2.2284504394531250e+03" cType="1" res="8.7393628200516105e-04" rms="1.7817747592926025e-01" purity="9.1528373956680298e-01" nType="0">
            <Node pos="l" depth="3" NCoef="0" IVar="-1" Cut="0.0000000000000000e+00" cType="1" res="1.3869085349142551e-02" rms="3.4398561716079712e-01" purity="3.0411845445632935e-01" nType="-99"/>
            <Node pos="r" depth="3" NCoef="0" IVar="-1" Cut="0.0000000000000000e+00" cType="1" res="-1.2789588654413819e-03" rms="1.5924531221389771e-01" purity="9.6023023128509521e-01" nType="-99"/>
          </Node>
        </Node>
      </Node>
    </BinaryTree>
    <BinaryTree type="DecisionTree" boostWeight="1.0000000000000000e+00" itree="635">
      <Node pos="s" depth="0" NCoef="0" IVar="0" Cut="4.4704034423828125e+02" cType="1" res="2.9507852741517127e-04" rms="1.8357619643211365e-01" purity="4.9763908982276917e-01" nType="0">
        <Node pos="l" depth="1" NCoef="0" IVar="1" Cut="1.6061676025390625e+03" cType="1" res="-4.2126369662582874e-03" rms="1.2967681884765625e-01" purity="2.6410367339849472e-02" nType="0">
          <Node pos="l" depth="2" NCoef="0" IVar="0" Cut="3.9801647949218750e+02" cType="1" res="-1.1086796876043081e-03" rms="7.1190387010574341e-02" purity="5.1077161915600300e-03" nType="0">
            <Node pos="l" depth="3" NCoef="0" IVar="-1" Cut="0.0000000000000000e+00" cType="1" res="1.4185501262545586e-02" rms="8.1680178642272949e-02" purity="6.7954882979393005e-03" nType="-99"/>
            <Node pos="r" depth="3" NCoef="0" IVar="-1" Cut="0.0000000000000000e+00" cType="1" res="-9.1657653450965881e-02" rms="3.0415186658501625e-02" purity="7.8302406473085284e-04" nType="-99"/>
          </Node>
          <Node pos="r" depth="2" NCoef="0" IVar="9" Cut="3.9956432580947876e-01" cType="1" res="-9.7251534461975098e-03" rms="1.9399127364158630e-01" purity="6.4243108034133911e-02" nType="0">
            <Node pos="l" depth="3" NCoef="0" IVar="-1" Cut="0.0000000000000000e+00" cType="1" res="-6.8670050241053104e-03" rms="1.9296997785568237e-01" purity="6.8940058350563049e-02" nType="-99"/>
            <Node pos="r" depth="3" NCoef="0" IVar="-1" Cut="0.0000000000000000e+00" cType="1" res="-3.9689157158136368e-02" rms="1.9519655406475067e-01" purity="5.6536734104156494e-02" nType="-99"/>
          </Node>
        </Node>
        <Node pos="r" depth="1" NCoef="0" IVar="8" Cut="-1.7332906723022461e+00" cType="1" res="1.5901816077530384e-03" rms="1.9632539153099060e-01" purity="6.3302689790725708e-01" nType="0">
          <Node pos="l" depth="2" NCoef="0" IVar="-1" Cut="0.0000000000000000e+00" cType="1" res="2.6712946593761444e-02" rms="2.4694935977458954e-01" purity="2.7048102021217346e-01" nType="-99"/>
          <Node pos="r" depth="2" NCoef="0" IVar="10" Cut="3.9999860525131226e-01" cType="1" res="1.0799457086250186e-03" rms="1.9423381984233856e-01" purity="6.4610356092453003e-01" nType="0">
            <Node pos="l" depth="3" NCoef="0" IVar="-1" Cut="0.0000000000000000e+00" cType="1" res="8.6525287479162216e-03" rms="1.9470229744911194e-01" purity="6.5118801593780518e-01" nType="-99"/>
            <Node pos="r" depth="3" NCoef="0" IVar="-1" Cut="0.0000000000000000e+00" cType="1" res="-6.1433869414031506e-03" rms="1.9342763721942902e-01" purity="6.3794493675231934e-01" nType="-99"/>
          </Node>
        </Node>
      </Node>
    </BinaryTree>
    <BinaryTree type="DecisionTree" boostWeight="1.0000000000000000e+00" itree="636">
      <Node pos="s" depth="0" NCoef="0" IVar="4" Cut="3.2574291992187500e+02" cType="1" res="-6.6225562477484345e-05" rms="1.8266706168651581e-01" purity="5.0245219469070435e-01" nType="0">
        <Node pos="l" depth="1" NCoef="0" IVar="5" Cut="2.3345050048828125e+02" cType="1" res="-3.0038291588425636e-03" rms="1.6384056210517883e-01" purity="8.0273203551769257e-02" nType="0">
          <Node pos="l" depth="2" NCoef="0" IVar="3" Cut="7.0372082519531250e+02" cType="1" res="-1.1903203558176756e-03" rms="1.4983059465885162e-01" purity="5.4630454629659653e-02" nType="0">
            <Node pos="l" depth="3" NCoef="0" IVar="-1" Cut="0.0000000000000000e+00" cType="1" res="6.3568465411663055e-03" rms="1.3542476296424866e-01" purity="3.1040912494063377e-02" nType="-99"/>
            <Node pos="r" depth="3" NCoef="0" IVar="-1" Cut="0.0000000000000000e+00" cType="1" res="-2.6327811181545258e-02" rms="2.0969197154045105e-01" purity="1.7926277220249176e-01" nType="-99"/>
          </Node>
          <Node pos="r" depth="2" NCoef="0" IVar="-1" Cut="0.0000000000000000e+00" cType="1" res="-2.3206435143947601e-02" rms="2.4106772243976593e-01" purity="2.6385924220085144e-01" nType="-99"/>
        </Node>
        <Node pos="r" depth="1" NCoef="0" IVar="1" Cut="1.9959171142578125e+03" cType="1" res="1.5766767319291830e-03" rms="1.9237494468688965e-01" purity="7.3856258392333984e-01" nType="0">
          <Node pos="l" depth="2" NCoef="0" IVar="9" Cut="4.0014651417732239e-01" cType="1" res="1.0822935029864311e-02" rms="2.1711993217468262e-01" purity="6.8941265344619751e-02" nType="0">
            <Node pos="l" depth="3" NCoef="0" IVar="-1" Cut="0.0000000000000000e+00" cType="1" res="4.8808518797159195e-02" rms="2.2729553282260895e-01" purity="7.5070165097713470e-02" nType="-99"/>
            <Node pos="r" depth="3" NCoef="0" IVar="-1" Cut="0.0000000000000000e+00" cType="1" res="-8.5111893713474274e-03" rms="1.9896274805068970e-01" purity="5.9165596961975098e-02" nType="-99"/>
          </Node>
          <Node pos="r" depth="2" NCoef="0" IVar="1" Cut="2.2655136718750000e+03" cType="1" res="-8.9935451978817582e-04" rms="1.8510974943637848e-01" purity="9.1787874698638916e-01" nType="0">
            <Node pos="l" depth="3" NCoef="0" IVar="-1" Cut="0.0000000000000000e+00" cType="1" res="-1.6181070357561111e-02" rms="3.7777504324913025e-01" purity="3.8606238365173340e-01" nType="-99"/>
            <Node pos="r" depth="3" NCoef="0" IVar="-1" Cut="0.0000000000000000e+00" cType="1" res="3.1799951102584600e-03" rms="1.6172564029693604e-01" purity="9.5742726325988770e-01" nType="-99"/>
          </Node>
        </Node>
      </Node>
    </BinaryTree>
    <BinaryTree type="DecisionTree" boostWeight="1.0000000000000000e+00" itree="637">
      <Node pos="s" depth="0" NCoef="0" IVar="8" Cut="3.9987039566040039e-01" cType="1" res="1.5068453503772616e-03" rms="1.8693596124649048e-01" purity="4.9865987896919250e-01" nType="0">
        <Node pos="l" depth="1" NCoef="0" IVar="4" Cut="3.1672714233398438e+02" cType="1" res="-5.2931933896616101e-04" rms="1.7849272489547729e-01" purity="5.2003562450408936e-01" nType="0">
          <Node pos="l" depth="2" NCoef="0" IVar="4" Cut="2.7902825927734375e+02" cType="1" res="3.7910181563347578e-03" rms="1.6803701221942902e-01" purity="8.3901643753051758e-02" nType="0">
            <Node pos="l" depth="3" NCoef="0" IVar="-1" Cut="0.0000000000000000e+00" cType="1" res="-3.0756178312003613e-03" rms="1.4417865872383118e-01" purity="5.1688786596059799e-02" nType="-99"/>
            <Node pos="r" depth="3" NCoef="0" IVar="-1" Cut="0.0000000000000000e+00" cType="1" res="3.5822138190269470e-02" rms="2.2822333872318268e-01" purity="1.8822184205055237e-01" nType="-99"/>
          </Node>
          <Node pos="r" depth="2" NCoef="0" IVar="9" Cut="-1.3321974873542786e-01" cType="1" res="-2.6119009125977755e-03" rms="1.8328355252742767e-01" purity="7.3027014732360840e-01" nType="0">
            <Node pos="l" depth="3" NCoef="0" IVar="-1" Cut="0.0000000000000000e+00" cType="1" res="-2.0276837050914764e-02" rms="1.8201906979084015e-01" purity="7.0339375734329224e-01" nType="-99"/>
            <Node pos="r" depth="3" NCoef="0" IVar="-1" Cut="0.0000000000000000e+00" cType="1" res="3.2778664026409388e-03" rms="1.8420593440532684e-01" purity="7.5183749198913574e-01" nType="-99"/>
          </Node>
        </Node>
        <Node pos="r" depth="1" NCoef="0" IVar="5" Cut="2.0841720581054688e+02" cType="1" res="5.2388953045010567e-03" rms="2.0144155621528625e-01" purity="4.5948070287704468e-01" nType="0">
          <Node pos="l" depth="2" NCoef="0" IVar="7" Cut="-8.3010546863079071e-02" cType="1" res="1.3181637972593307e-02" rms="2.0440970361232758e-01" purity="1.3223962485790253e-01" nType="0">
            <Node pos="l" depth="3" NCoef="0" IVar="-1" Cut="0.0000000000000000e+00" cType="1" res="3.4633243922144175e-03" rms="1.7896440625190735e-01" purity="9.5911018550395966e-02" nType="-99"/>
            <Node pos="r" depth="3" NCoef="0" IVar="-1" Cut="0.0000000000000000e+00" cType="1" res="5.8785084635019302e-02" rms="2.2326837480068207e-01" purity="1.6313683986663818e-01" nType="-99"/>
          </Node>
          <Node pos="r" depth="2" NCoef="0" IVar="6" Cut="1.5670285034179688e+02" cType="1" res="-2.0617686677724123e-03" rms="1.9839395582675934e-01" purity="7.6026809215545654e-01" nType="0">
            <Node pos="l" depth="3" NCoef="0" IVar="-1" Cut="0.0000000000000000e+00" cType="1" res="-1.6117816790938377e-02" rms="2.3966498672962189e-01" purity="5.1847100257873535e-01" nType="-99"/>
            <Node pos="r" depth="3" NCoef="0" IVar="-1" Cut="0.0000000000000000e+00" cType="1" res="5.8410055935382843e-03" rms="1.7208248376846313e-01" purity="8.9005243778228760e-01" nType="-99"/>
          </Node>
        </Node>
      </Node>
    </BinaryTree>
    <BinaryTree type="DecisionTree" boostWeight="1.0000000000000000e+00" itree="638">
      <Node pos="s" depth="0" NCoef="0" IVar="6" Cut="1.2492407226562500e+02" cType="1" res="-9.4369216822087765e-04" rms="1.8255575001239777e-01" purity="4.9901995062828064e-01" nType="0">
        <Node pos="l" depth="1" NCoef="0" IVar="6" Cut="1.1778726959228516e+02" cType="1" res="-3.8207601755857468e-03" rms="1.7911939322948456e-01" purity="1.9786469638347626e-01" nType="0">
          <Node pos="l" depth="2" NCoef="0" IVar="1" Cut="1.6755997314453125e+03" cType="1" res="-5.0599146634340286e-03" rms="1.7388835549354553e-01" purity="1.8431833386421204e-01" nType="0">
            <Node pos="l" depth="3" NCoef="0" IVar="-1" Cut="0.0000000000000000e+00" cType="1" res="-5.9582181274890900e-03" rms="7.7459469437599182e-02" purity="6.6184438765048981e-03" nType="-99"/>
            <Node pos="r" depth="3" NCoef="0" IVar="-1" Cut="0.0000000000000000e+00" cType="1" res="-1.6035726293921471e-02" rms="2.4324828386306763e-01" purity="3.9686244726181030e-01" nType="-99"/>
          </Node>
          <Node pos="r" depth="2" NCoef="0" IVar="-1" Cut="0.0000000000000000e+00" cType="1" res="2.7582023292779922e-02" rms="2.3892924189567566e-01" purity="3.8355723023414612e-01" nType="-99"/>
        </Node>
        <Node pos="r" depth="1" NCoef="0" IVar="1" Cut="1.9496365966796875e+03" cType="1" res="1.6940068453550339e-03" rms="1.8561114370822906e-01" purity="7.7511942386627197e-01" nType="0">
          <Node pos="l" depth="2" NCoef="0" IVar="1" Cut="1.6355645751953125e+03" cType="1" res="1.3616755604743958e-02" rms="2.2993122041225433e-01" purity="8.4501400589942932e-02" nType="0">
            <Node pos="l" depth="3" NCoef="0" IVar="-1" Cut="0.0000000000000000e+00" cType="1" res="-1.3307529501616955e-02" rms="1.2107344716787338e-01" purity="1.6993159428238869e-02" nType="-99"/>
            <Node pos="r" depth="3" NCoef="0" IVar="-1" Cut="0.0000000000000000e+00" cType="1" res="3.6467701196670532e-02" rms="3.1789252161979675e-01" purity="1.7095743119716644e-01" nType="-99"/>
          </Node>
          <Node pos="r" depth="2" NCoef="0" IVar="0" Cut="5.9239739990234375e+02" cType="1" res="-1.1474946513772011e-03" rms="1.7326374351978302e-01" purity="9.3971168994903564e-01" nType="0">
            <Node pos="l" depth="3" NCoef="0" IVar="-1" Cut="0.0000000000000000e+00" cType="1" res="-8.7487092241644859e-03" rms="3.6035186052322388e-01" purity="6.3727360963821411e-01" nType="-99"/>
            <Node pos="r" depth="3" NCoef="0" IVar="-1" Cut="0.0000000000000000e+00" cType="1" res="-9.8059244919568300e-04" rms="1.4473362267017365e-01" purity="9.6716421842575073e-01" nType="-99"/>
          </Node>
        </Node>
      </Node>
    </BinaryTree>
    <BinaryTree type="DecisionTree" boostWeight="1.0000000000000000e+00" itree="639">
      <Node pos="s" depth="0" NCoef="0" IVar="3" Cut="6.5123278808593750e+02" cType="1" res="-9.6326239872723818e-04" rms="1.8252523243427277e-01" purity="4.9895983934402466e-01" nType="0">
        <Node pos="l" depth="1" NCoef="0" IVar="4" Cut="3.6570932006835938e+02" cType="1" res="-3.9442423731088638e-03" rms="1.9163645803928375e-01" purity="1.9162972271442413e-01" nType="0">
          <Node pos="l" depth="2" NCoef="0" IVar="5" Cut="2.2941014099121094e+02" cType="1" res="-5.6793773546814919e-04" rms="1.7224363982677460e-01" purity="6.7470423877239227e-02" nType="0">
            <Node pos="l" depth="3" NCoef="0" IVar="-1" Cut="0.0000000000000000e+00" cType="1" res="7.4145556427538395e-03" rms="1.4720863103866577e-01" purity="3.7750408053398132e-02" nType="-99"/>
            <Node pos="r" depth="3" NCoef="0" IVar="-1" Cut="0.0000000000000000e+00" cType="1" res="-1.5062367543578148e-02" rms="2.6060685515403748e-01" purity="2.1012082695960999e-01" nType="-99"/>
          </Node>
          <Node pos="r" depth="2" NCoef="0" IVar="1" Cut="2.0154906005859375e+03" cType="1" res="-1.1507127434015274e-02" rms="2.2901667654514313e-01" purity="4.6974518895149231e-01" nType="0">
            <Node pos="l" depth="3" NCoef="0" IVar="-1" Cut="0.0000000000000000e+00" cType="1" res="-4.1450258344411850e-02" rms="1.9736471772193909e-01" purity="4.6789828687906265e-02" nType="-99"/>
            <Node pos="r" depth="3" NCoef="0" IVar="-1" Cut="0.0000000000000000e+00" cType="1" res="-5.7054734788835049e-03" rms="2.5514259934425354e-01" purity="8.7011778354644775e-01" nType="-99"/>
          </Node>
        </Node>
        <Node pos="r" depth="1" NCoef="0" IVar="5" Cut="3.1397695922851562e+02" cType="1" res="1.6836586873978376e-03" rms="1.7399288713932037e-01" purity="7.7184945344924927e-01" nType="0">
          <Node pos="l" depth="2" NCoef="0" IVar="2" Cut="1.9322864711284637e-02" cType="1" res="4.7389296814799309e-03" rms="2.2463719546794891e-01" purity="5.2689427137374878e-01" nType="0">
            <Node pos="l" depth="3" NCoef="0" IVar="-1" Cut="0.0000000000000000e+00" cType="1" res="-4.2586009949445724e-03" rms="2.1713182330131531e-01" purity="2.9500424861907959e-01" nType="-99"/>
            <Node pos="r" depth="3" NCoef="0" IVar="-1" Cut="0.0000000000000000e+00" cType="1" res="1.9401112571358681e-02" rms="2.3111078143119812e-01" purity="7.3926186561584473e-01" nType="-99"/>
          </Node>
          <Node pos="r" depth="2" NCoef="0" IVar="3" Cut="8.7282043457031250e+02" cType="1" res="-9.2208280693739653e-04" rms="1.1419626325368881e-01" purity="9.8076391220092773e-01" nType="0">
            <Node pos="l" depth="3" NCoef="0" IVar="-1" Cut="0.0000000000000000e+00" cType="1" res="-1.4044281095266342e-02" rms="1.3708537817001343e-01" purity="9.6950465440750122e-01" nType="-99"/>
            <Node pos="r" depth="3" NCoef="0" IVar="-1" Cut="0.0000000000000000e+00" cType="1" res="1.9545578397810459e-03" rms="9.4584852457046509e-02" purity="9.8877340555191040e-01" nType="-99"/>
          </Node>
        </Node>
      </Node>
    </BinaryTree>
    <BinaryTree type="DecisionTree" boostWeight="1.0000000000000000e+00" itree="640">
      <Node pos="s" depth="0" NCoef="0" IVar="7" Cut="-8.5840100049972534e-01" cType="1" res="4.0827598422765732e-04" rms="1.8721447885036469e-01" purity="4.9763134121894836e-01" nType="0">
        <Node pos="l" depth="1" NCoef="0" IVar="7" Cut="-1.0325354337692261e+00" cType="1" res="-5.0001549534499645e-03" rms="1.9210512936115265e-01" purity="2.6138731837272644e-01" nType="0">
          <Node pos="l" depth="2" NCoef="0" IVar="10" Cut="4.0047934651374817e-01" cType="1" res="-7.9076952533796430e-04" rms="1.9421237707138062e-01" purity="2.1669298410415649e-01" nType="0">
            <Node pos="l" depth="3" NCoef="0" IVar="-1" Cut="0.0000000000000000e+00" cType="1" res="7.9704746603965759e-03" rms="1.9470663368701935e-01" purity="2.2409681975841522e-01" nType="-99"/>
            <Node pos="r" depth="3" NCoef="0" IVar="-1" Cut="0.0000000000000000e+00" cType="1" res="-2.1723566576838493e-02" rms="1.9299116730690002e-01" purity="2.0185984671115875e-01" nType="-99"/>
          </Node>
          <Node pos="r" depth="2" NCoef="0" IVar="-1" Cut="0.0000000000000000e+00" cType="1" res="-4.4613976031541824e-02" rms="1.8558703362941742e-01" purity="3.8623905181884766e-01" nType="-99"/>
        </Node>
        <Node pos="r" depth="1" NCoef="0" IVar="8" Cut="-1.4665313959121704e+00" cType="1" res="1.3231672346591949e-03" rms="1.8635897338390350e-01" purity="5.3759443759918213e-01" nType="0">
          <Node pos="l" depth="2" NCoef="0" IVar="9" Cut="-1.3652229309082031e-01" cType="1" res="1.3117048889398575e-02" rms="2.2824263572692871e-01" purity="2.7091193199157715e-01" nType="0">
            <Node pos="l" depth="3" NCoef="0" IVar="-1" Cut="0.0000000000000000e+00" cType="1" res="5.7544328272342682e-02" rms="2.4400009214878082e-01" purity="2.9047867655754089e-01" nType="-99"/>
            <Node pos="r" depth="3" NCoef="0" IVar="-1" Cut="0.0000000000000000e+00" cType="1" res="-2.7870459016412497e-03" rms="2.1059812605381012e-01" purity="2.5167712569236755e-01" nType="-99"/>
          </Node>
          <Node pos="r" depth="2" NCoef="0" IVar="9" Cut="-1.1995675563812256e+00" cType="1" res="4.2181654134765267e-04" rms="1.8273229897022247e-01" purity="5.5797570943832397e-01" nType="0">
            <Node pos="l" depth="3" NCoef="0" IVar="-1" Cut="0.0000000000000000e+00" cType="1" res="1.4421820640563965e-02" rms="2.0380178093910217e-01" purity="4.6431782841682434e-01" nType="-99"/>
            <Node pos="r" depth="3" NCoef="0" IVar="-1" Cut="0.0000000000000000e+00" cType="1" res="-1.3607584405690432e-03" rms="1.7928494513034821e-01" purity="5.7226246595382690e-01" nType="-99"/>
          </Node>
        </Node>
      </Node>
    </BinaryTree>
    <BinaryTree type="DecisionTree" boostWeight="1.0000000000000000e+00" itree="641">
      <Node pos="s" depth="0" NCoef="0" IVar="1" Cut="1.9525828857421875e+03" cType="1" res="-9.1510743368417025e-04" rms="1.8037481606006622e-01" purity="4.9700638651847839e-01" nType="0">
        <Node pos="l" depth="1" NCoef="0" IVar="1" Cut="1.7683854980468750e+03" cType="1" res="-3.8449629209935665e-03" rms="1.4043597877025604e-01" purity="2.5282591581344604e-02" nType="0">
          <Node pos="l" depth="2" NCoef="0" IVar="10" Cut="-1.7332572937011719e+00" cType="1" res="-5.8163574431091547e-04" rms="1.1004025489091873e-01" purity="1.4400272630155087e-02" nType="0">
            <Node pos="l" depth="3" NCoef="0" IVar="-1" Cut="0.0000000000000000e+00" cType="1" res="4.7797020524740219e-02" rms="1.6354686021804810e-01" purity="3.4608371555805206e-02" nType="-99"/>
            <Node pos="r" depth="3" NCoef="0" IVar="-1" Cut="0.0000000000000000e+00" cType="1" res="-1.4166656881570816e-02" rms="1.0229375958442688e-01" purity="1.2148882262408733e-02" nType="-99"/>
          </Node>
          <Node pos="r" depth="2" NCoef="0" IVar="3" Cut="5.4944903564453125e+02" cType="1" res="-2.1828841418027878e-02" rms="2.4758209288120270e-01" purity="8.5253991186618805e-02" nType="0">
            <Node pos="l" depth="3" NCoef="0" IVar="-1" Cut="0.0000000000000000e+00" cType="1" res="-3.8647361099720001e-02" rms="3.1641489267349243e-01" purity="1.4249967038631439e-01" nType="-99"/>
            <Node pos="r" depth="3" NCoef="0" IVar="-1" Cut="0.0000000000000000e+00" cType="1" res="-1.3026633299887180e-02" rms="1.9286337494850159e-01" purity="5.0705436617136002e-02" nType="-99"/>
          </Node>
        </Node>
        <Node pos="r" depth="1" NCoef="0" IVar="3" Cut="5.1384973144531250e+02" cType="1" res="1.3999179936945438e-03" rms="2.0651143789291382e-01" purity="8.6973887681961060e-01" nType="0">
          <Node pos="l" depth="2" NCoef="0" IVar="-1" Cut="0.0000000000000000e+00" cType="1" res="2.6753008365631104e-02" rms="3.4207713603973389e-01" purity="7.3178011178970337e-01" nType="-99"/>
          <Node pos="r" depth="2" NCoef="0" IVar="5" Cut="2.6707254028320312e+02" cType="1" res="-3.3947607153095305e-04" rms="1.9643424451351166e-01" purity="8.7716150283813477e-01" nType="0">
            <Node pos="l" depth="3" NCoef="0" IVar="-1" Cut="0.0000000000000000e+00" cType="1" res="-8.3297807723283768e-03" rms="2.8918170928955078e-01" purity="6.4135283231735229e-01" nType="-99"/>
            <Node pos="r" depth="3" NCoef="0" IVar="-1" Cut="0.0000000000000000e+00" cType="1" res="9.6868649125099182e-03" rms="1.4799955487251282e-01" purity="9.6438020467758179e-01" nType="-99"/>
          </Node>
        </Node>
      </Node>
    </BinaryTree>
    <BinaryTree type="DecisionTree" boostWeight="1.0000000000000000e+00" itree="642">
      <Node pos="s" depth="0" NCoef="0" IVar="9" Cut="-1.9998511075973511e+00" cType="1" res="-6.8758788984268904e-04" rms="1.7975893616676331e-01" purity="4.9892327189445496e-01" nType="0">
        <Node pos="l" depth="1" NCoef="0" IVar="-1" Cut="0.0000000000000000e+00" cType="1" res="-4.3943941593170166e-02" rms="1.9539995491504669e-01" purity="1.9099622964859009e-01" nType="-99"/>
        <Node pos="r" depth="1" NCoef="0" IVar="10" Cut="2.2666442394256592e+00" cType="1" res="-1.1574300151551142e-04" rms="1.7921273410320282e-01" purity="5.0865226984024048e-01" nType="0">
          <Node pos="l" depth="2" NCoef="0" IVar="7" Cut="4.0639474987983704e-01" cType="1" res="-5.2970706019550562e-04" rms="1.7699469625949860e-01" purity="5.1224368810653687e-01" nType="0">
            <Node pos="l" depth="3" NCoef="0" IVar="-1" Cut="0.0000000000000000e+00" cType="1" res="3.3844695426523685e-03" rms="1.7434814572334290e-01" purity="5.4498362541198730e-01" nType="-99"/>
            <Node pos="r" depth="3" NCoef="0" IVar="-1" Cut="0.0000000000000000e+00" cType="1" res="-1.1791585013270378e-02" rms="1.8278524279594421e-01" purity="4.3819099664688110e-01" nType="-99"/>
          </Node>
          <Node pos="r" depth="2" NCoef="0" IVar="-1" Cut="0.0000000000000000e+00" cType="1" res="2.6962710544466972e-02" rms="2.4611423909664154e-01" purity="3.7825188040733337e-01" nType="-99"/>
        </Node>
      </Node>
    </BinaryTree>
    <BinaryTree type="DecisionTree" boostWeight="1.0000000000000000e+00" itree="643">
      <Node pos="s" depth="0" NCoef="0" IVar="2" Cut="4.0955927222967148e-02" cType="1" res="2.8574655880220234e-04" rms="1.8075548112392426e-01" purity="4.9864593148231506e-01" nType="0">
        <Node pos="l" depth="1" NCoef="0" IVar="1" Cut="1.6979570312500000e+03" cType="1" res="3.4186556003987789e-03" rms="1.9254553318023682e-01" purity="3.2408344745635986e-01" nType="0">
          <Node pos="l" depth="2" NCoef="0" IVar="10" Cut="-1.4666181802749634e+00" cType="1" res="-2.1530743688344955e-03" rms="7.3981367051601410e-02" purity="5.8715310879051685e-03" nType="0">
            <Node pos="l" depth="3" NCoef="0" IVar="-1" Cut="0.0000000000000000e+00" cType="1" res="-8.2113832235336304e-02" rms="5.3786981850862503e-02" purity="2.5702477432787418e-03" nType="-99"/>
            <Node pos="r" depth="3" NCoef="0" IVar="-1" Cut="0.0000000000000000e+00" cType="1" res="-1.5903465449810028e-02" rms="7.6689541339874268e-02" purity="6.4032170921564102e-03" nType="-99"/>
          </Node>
          <Node pos="r" depth="2" NCoef="0" IVar="3" Cut="6.3545172119140625e+02" cType="1" res="7.9998010769486427e-03" rms="2.5101718306541443e-01" purity="5.8572119474411011e-01" nType="0">
            <Node pos="l" depth="3" NCoef="0" IVar="-1" Cut="0.0000000000000000e+00" cType="1" res="2.5476131588220596e-02" rms="3.1762516498565674e-01" purity="3.4512811899185181e-01" nType="-99"/>
            <Node pos="r" depth="3" NCoef="0" IVar="-1" Cut="0.0000000000000000e+00" cType="1" res="4.7753131948411465e-03" rms="2.2445909678936005e-01" purity="6.6516071557998657e-01" nType="-99"/>
          </Node>
        </Node>
        <Node pos="r" depth="1" NCoef="0" IVar="1" Cut="2.2412998046875000e+03" cType="1" res="-3.4379833377897739e-03" rms="1.6557706892490387e-01" purity="7.0612841844558716e-01" nType="0">
          <Node pos="l" depth="2" NCoef="0" IVar="1" Cut="1.8406796875000000e+03" cType="1" res="-1.2976956553757191e-02" rms="2.1680681407451630e-01" purity="1.0132875293493271e-01" nType="0">
            <Node pos="l" depth="3" NCoef="0" IVar="-1" Cut="0.0000000000000000e+00" cType="1" res="-1.7236618325114250e-02" rms="1.4437024295330048e-01" purity="3.0673436820507050e-02" nType="-99"/>
            <Node pos="r" depth="3" NCoef="0" IVar="-1" Cut="0.0000000000000000e+00" cType="1" res="-2.5935256853699684e-02" rms="3.7360835075378418e-01" purity="3.5421699285507202e-01" nType="-99"/>
          </Node>
          <Node pos="r" depth="2" NCoef="0" IVar="1" Cut="2.7220373535156250e+03" cType="1" res="8.1880058860406280e-04" rms="1.3643762469291687e-01" purity="9.7602128982543945e-01" nType="0">
            <Node pos="l" depth="3" NCoef="0" IVar="-1" Cut="0.0000000000000000e+00" cType="1" res="1.0318117216229439e-02" rms="2.7913969755172729e-01" purity="8.9204984903335571e-01" nType="-99"/>
            <Node pos="r" depth="3" NCoef="0" IVar="-1" Cut="0.0000000000000000e+00" cType="1" res="-1.0028246790170670e-02" rms="8.4718413650989532e-02" purity="9.9219739437103271e-01" nType="-99"/>
          </Node>
        </Node>
      </Node>
    </BinaryTree>
    <BinaryTree type="DecisionTree" boostWeight="1.0000000000000000e+00" itree="644">
      <Node pos="s" depth="0" NCoef="0" IVar="0" Cut="5.9424890136718750e+02" cType="1" res="1.5845162561163306e-03" rms="1.8510963022708893e-01" purity="5.0121539831161499e-01" nType="0">
        <Node pos="l" depth="1" NCoef="0" IVar="5" Cut="1.8708288574218750e+02" cType="1" res="5.6937015615403652e-03" rms="1.9385586678981781e-01" purity="1.0136106610298157e-01" nType="0">
          <Node pos="l" depth="2" NCoef="0" IVar="2" Cut="1.7716910690069199e-02" cType="1" res="5.8114918647333980e-04" rms="1.1644763499498367e-01" purity="1.7531190067529678e-02" nType="0">
            <Node pos="l" depth="3" NCoef="0" IVar="-1" Cut="0.0000000000000000e+00" cType="1" res="3.7001933902502060e-02" rms="1.0595000535249710e-01" purity="1.5686219558119774e-02" nType="-99"/>
            <Node pos="r" depth="3" NCoef="0" IVar="-1" Cut="0.0000000000000000e+00" cType="1" res="-1.7505181953310966e-02" rms="1.2777015566825867e-01" purity="1.9736139103770256e-02" nType="-99"/>
          </Node>
          <Node pos="r" depth="2" NCoef="0" IVar="7" Cut="4.6460932493209839e-01" cType="1" res="1.3181646354496479e-02" rms="2.6956626772880554e-01" purity="2.2413992881774902e-01" nType="0">
            <Node pos="l" depth="3" NCoef="0" IVar="-1" Cut="0.0000000000000000e+00" cType="1" res="8.2758218050003052e-03" rms="2.6332905888557434e-01" purity="2.3191958665847778e-01" nType="-99"/>
            <Node pos="r" depth="3" NCoef="0" IVar="-1" Cut="0.0000000000000000e+00" cType="1" res="4.1481804102659225e-02" rms="2.8118923306465149e-01" purity="2.0835155248641968e-01" nType="-99"/>
          </Node>
        </Node>
        <Node pos="r" depth="1" NCoef="0" IVar="4" Cut="4.1370495605468750e+02" cType="1" res="-1.1041542747989297e-03" rms="1.7910495400428772e-01" purity="7.6284313201904297e-01" nType="0">
          <Node pos="l" depth="2" NCoef="0" IVar="8" Cut="-9.3346744775772095e-01" cType="1" res="-6.6560329869389534e-03" rms="2.3604176938533783e-01" purity="3.4567147493362427e-01" nType="0">
            <Node pos="l" depth="3" NCoef="0" IVar="-1" Cut="0.0000000000000000e+00" cType="1" res="1.1553805321455002e-02" rms="2.6482501626014709e-01" purity="3.5201296210289001e-01" nType="-99"/>
            <Node pos="r" depth="3" NCoef="0" IVar="-1" Cut="0.0000000000000000e+00" cType="1" res="-1.9434845075011253e-02" rms="2.2673760354518890e-01" purity="3.4381371736526489e-01" nType="-99"/>
          </Node>
          <Node pos="r" depth="2" NCoef="0" IVar="1" Cut="2.7748249511718750e+03" cType="1" res="1.5303975669667125e-03" rms="1.4436206221580505e-01" purity="9.6080499887466431e-01" nType="0">
            <Node pos="l" depth="3" NCoef="0" IVar="-1" Cut="0.0000000000000000e+00" cType="1" res="1.2124998494982719e-02" rms="2.8568500280380249e-01" purity="8.0105471611022949e-01" nType="-99"/>
            <Node pos="r" depth="3" NCoef="0" IVar="-1" Cut="0.0000000000000000e+00" cType="1" res="-5.1886256551370025e-04" rms="1.0360077023506165e-01" purity="9.8732584714889526e-01" nType="-99"/>
          </Node>
        </Node>
      </Node>
    </BinaryTree>
    <BinaryTree type="DecisionTree" boostWeight="1.0000000000000000e+00" itree="645">
      <Node pos="s" depth="0" NCoef="0" IVar="6" Cut="1.3980041503906250e+02" cType="1" res="1.8542100442573428e-03" rms="1.8785776197910309e-01" purity="4.9499443173408508e-01" nType="0">
        <Node pos="l" depth="1" NCoef="0" IVar="1" Cut="2.2288715820312500e+03" cType="1" res="4.9210162833333015e-03" rms="1.9502763450145721e-01" purity="2.2504954040050507e-01" nType="0">
          <Node pos="l" depth="2" NCoef="0" IVar="5" Cut="1.4037579345703125e+02" cType="1" res="1.6074724262580276e-03" rms="1.6047485172748566e-01" purity="3.7109214812517166e-02" nType="0">
            <Node pos="l" depth="3" NCoef="0" IVar="-1" Cut="0.0000000000000000e+00" cType="1" res="-3.5075731575489044e-02" rms="8.8344037532806396e-02" purity="8.3364648744463921e-03" nType="-99"/>
            <Node pos="r" depth="3" NCoef="0" IVar="-1" Cut="0.0000000000000000e+00" cType="1" res="1.7229199409484863e-02" rms="2.1222063899040222e-01" purity="6.8123057484626770e-02" nType="-99"/>
          </Node>
          <Node pos="r" depth="2" NCoef="0" IVar="6" Cut="1.0986688995361328e+02" cType="1" res="1.5582387335598469e-02" rms="2.7822554111480713e-01" purity="8.2975006103515625e-01" nType="0">
            <Node pos="l" depth="3" NCoef="0" IVar="-1" Cut="0.0000000000000000e+00" cType="1" res="3.0210388824343681e-02" rms="2.9444578289985657e-01" purity="7.9707801342010498e-01" nType="-99"/>
            <Node pos="r" depth="3" NCoef="0" IVar="-1" Cut="0.0000000000000000e+00" cType="1" res="-1.6314361244440079e-02" rms="2.4163709580898285e-01" purity="8.9339381456375122e-01" nType="-99"/>
          </Node>
        </Node>
        <Node pos="r" depth="1" NCoef="0" IVar="0" Cut="4.4442437744140625e+02" cType="1" res="-1.7572185024619102e-03" rms="1.7897951602935791e-01" purity="8.1287783384323120e-01" nType="0">
          <Node pos="l" depth="2" NCoef="0" IVar="4" Cut="2.9108670043945312e+02" cType="1" res="9.8381107673048973e-03" rms="2.3220220208168030e-01" purity="9.4597637653350830e-02" nType="0">
            <Node pos="l" depth="3" NCoef="0" IVar="-1" Cut="0.0000000000000000e+00" cType="1" res="3.3948193304240704e-03" rms="1.4960786700248718e-01" purity="2.6998264715075493e-02" nType="-99"/>
            <Node pos="r" depth="3" NCoef="0" IVar="-1" Cut="0.0000000000000000e+00" cType="1" res="2.1711466833949089e-02" rms="2.9207488894462585e-01" purity="1.6223840415477753e-01" nType="-99"/>
          </Node>
          <Node pos="r" depth="2" NCoef="0" IVar="0" Cut="7.1949792480468750e+02" cType="1" res="-3.1991398427635431e-03" rms="1.7115341126918793e-01" purity="9.0219855308532715e-01" nType="0">
            <Node pos="l" depth="3" NCoef="0" IVar="-1" Cut="0.0000000000000000e+00" cType="1" res="-1.5971569344401360e-02" rms="2.8231886029243469e-01" purity="6.5552961826324463e-01" nType="-99"/>
            <Node pos="r" depth="3" NCoef="0" IVar="-1" Cut="0.0000000000000000e+00" cType="1" res="-1.6271212371066213e-03" rms="1.1655531823635101e-01" purity="9.7888004779815674e-01" nType="-99"/>
          </Node>
        </Node>
      </Node>
    </BinaryTree>
    <BinaryTree type="DecisionTree" boostWeight="1.0000000000000000e+00" itree="646">
      <Node pos="s" depth="0" NCoef="0" IVar="8" Cut="1.4667071104049683e+00" cType="1" res="-2.1548881195485592e-03" rms="1.8102547526359558e-01" purity="4.9485552310943604e-01" nType="0">
        <Node pos="l" depth="1" NCoef="0" IVar="8" Cut="-1.7840014696121216e+00" cType="1" res="-1.2759938836097717e-03" rms="1.7947751283645630e-01" purity="5.1639235019683838e-01" nType="0">
          <Node pos="l" depth="2" NCoef="0" IVar="-1" Cut="0.0000000000000000e+00" cType="1" res="-3.0560096725821495e-02" rms="1.8486890196800232e-01" purity="1.7161595821380615e-01" nType="-99"/>
          <Node pos="r" depth="2" NCoef="0" IVar="8" Cut="-1.3196033239364624e+00" cType="1" res="-7.7312276698648930e-04" rms="1.7922151088714600e-01" purity="5.3144937753677368e-01" nType="0">
            <Node pos="l" depth="3" NCoef="0" IVar="-1" Cut="0.0000000000000000e+00" cType="1" res="2.6009568944573402e-02" rms="2.3122483491897583e-01" purity="3.4602272510528564e-01" nType="-99"/>
            <Node pos="r" depth="3" NCoef="0" IVar="-1" Cut="0.0000000000000000e+00" cType="1" res="-5.1742265932261944e-03" rms="1.7521354556083679e-01" purity="5.4367560148239136e-01" nType="-99"/>
          </Node>
        </Node>
        <Node pos="r" depth="1" NCoef="0" IVar="1" Cut="1.6082631835937500e+03" cType="1" res="-1.3595975935459137e-02" rms="1.9973395764827728e-01" purity="2.1449716389179230e-01" nType="0">
          <Node pos="l" depth="2" NCoef="0" IVar="-1" Cut="0.0000000000000000e+00" cType="1" res="2.0663930103182793e-02" rms="1.0462862253189087e-01" purity="1.2771841138601303e-02" nType="-99"/>
          <Node pos="r" depth="2" NCoef="0" IVar="-1" Cut="0.0000000000000000e+00" cType="1" res="-3.6998488008975983e-02" rms="2.5357466936111450e-01" purity="3.8731178641319275e-01" nType="-99"/>
        </Node>
      </Node>
    </BinaryTree>
    <BinaryTree type="DecisionTree" boostWeight="1.0000000000000000e+00" itree="647">
      <Node pos="s" depth="0" NCoef="0" IVar="10" Cut="-1.7332351207733154e+00" cType="1" res="-3.4911670809378847e-05" rms="1.8318603932857513e-01" purity="4.9544784426689148e-01" nType="0">
        <Node pos="l" depth="1" NCoef="0" IVar="5" Cut="1.7885470581054688e+02" cType="1" res="1.0566662065684795e-02" rms="2.1491251885890961e-01" purity="4.2462319135665894e-01" nType="0">
          <Node pos="l" depth="2" NCoef="0" IVar="-1" Cut="0.0000000000000000e+00" cType="1" res="2.0748961251229048e-03" rms="1.8893790245056152e-01" purity="1.0034579038619995e-01" nType="-99"/>
          <Node pos="r" depth="2" NCoef="0" IVar="-1" Cut="0.0000000000000000e+00" cType="1" res="3.0540358275175095e-02" rms="2.3313005268573761e-01" purity="6.8116104602813721e-01" nType="-99"/>
        </Node>
        <Node pos="r" depth="1" NCoef="0" IVar="9" Cut="-1.9999409914016724e+00" cType="1" res="-9.9705287721008062e-04" rms="1.7999929189682007e-01" purity="5.0187551975250244e-01" nType="0">
          <Node pos="l" depth="2" NCoef="0" IVar="-1" Cut="0.0000000000000000e+00" cType="1" res="3.8321364670991898e-02" rms="2.4204738438129425e-01" purity="2.3978734016418457e-01" nType="-99"/>
          <Node pos="r" depth="2" NCoef="0" IVar="8" Cut="1.4668507575988770e+00" cType="1" res="-1.6097464831545949e-03" rms="1.7765049636363983e-01" purity="5.1016032695770264e-01" nType="0">
            <Node pos="l" depth="3" NCoef="0" IVar="-1" Cut="0.0000000000000000e+00" cType="1" res="-2.5228776503354311e-03" rms="1.7607435584068298e-01" purity="5.3101289272308350e-01" nType="-99"/>
            <Node pos="r" depth="3" NCoef="0" IVar="-1" Cut="0.0000000000000000e+00" cType="1" res="-2.7755368500947952e-02" rms="1.9799456000328064e-01" purity="2.1963959932327271e-01" nType="-99"/>
          </Node>
        </Node>
      </Node>
    </BinaryTree>
    <BinaryTree type="DecisionTree" boostWeight="1.0000000000000000e+00" itree="648">
      <Node pos="s" depth="0" NCoef="0" IVar="8" Cut="1.1997121572494507e+00" cType="1" res="1.9106590189039707e-03" rms="1.8503579497337341e-01" purity="4.9788492918014526e-01" nType="0">
        <Node pos="l" depth="1" NCoef="0" IVar="9" Cut="1.7332166433334351e+00" cType="1" res="5.4833776084706187e-04" rms="1.7874538898468018e-01" purity="5.2325564622879028e-01" nType="0">
          <Node pos="l" depth="2" NCoef="0" IVar="9" Cut="1.3014341592788696e+00" cType="1" res="1.2173894792795181e-03" rms="1.7641781270503998e-01" purity="5.3661906719207764e-01" nType="0">
            <Node pos="l" depth="3" NCoef="0" IVar="-1" Cut="0.0000000000000000e+00" cType="1" res="1.2521876487880945e-03" rms="1.7474903166294098e-01" purity="5.3931945562362671e-01" nType="-99"/>
            <Node pos="r" depth="3" NCoef="0" IVar="-1" Cut="0.0000000000000000e+00" cType="1" res="2.8324315324425697e-02" rms="1.9761957228183746e-01" purity="4.9945583939552307e-01" nType="-99"/>
          </Node>
          <Node pos="r" depth="2" NCoef="0" IVar="-1" Cut="0.0000000000000000e+00" cType="1" res="-2.2749394178390503e-02" rms="2.1568664908409119e-01" purity="2.8529030084609985e-01" nType="-99"/>
        </Node>
        <Node pos="r" depth="1" NCoef="0" IVar="0" Cut="5.3898211669921875e+02" cType="1" res="1.2136651203036308e-02" rms="2.2648765146732330e-01" purity="3.0744454264640808e-01" nType="0">
          <Node pos="l" depth="2" NCoef="0" IVar="1" Cut="1.5694295654296875e+03" cType="1" res="2.4329489096999168e-02" rms="2.1427333354949951e-01" purity="8.5212871432304382e-02" nType="0">
            <Node pos="l" depth="3" NCoef="0" IVar="-1" Cut="0.0000000000000000e+00" cType="1" res="6.0505680739879608e-02" rms="1.1411848664283752e-01" purity="1.3570199720561504e-02" nType="-99"/>
            <Node pos="r" depth="3" NCoef="0" IVar="-1" Cut="0.0000000000000000e+00" cType="1" res="7.2058491408824921e-02" rms="2.9022011160850525e-01" purity="1.7080426216125488e-01" nType="-99"/>
          </Node>
          <Node pos="r" depth="2" NCoef="0" IVar="7" Cut="-4.2105740867555141e-03" cType="1" res="9.6419762121513486e-04" rms="2.3657697439193726e-01" purity="5.1107823848724365e-01" nType="0">
            <Node pos="l" depth="3" NCoef="0" IVar="-1" Cut="0.0000000000000000e+00" cType="1" res="1.5798537060618401e-02" rms="2.4216505885124207e-01" purity="5.4032462835311890e-01" nType="-99"/>
            <Node pos="r" depth="3" NCoef="0" IVar="-1" Cut="0.0000000000000000e+00" cType="1" res="-1.2221475131809711e-02" rms="2.3042890429496765e-01" purity="4.8103901743888855e-01" nType="-99"/>
          </Node>
        </Node>
      </Node>
    </BinaryTree>
    <BinaryTree type="DecisionTree" boostWeight="1.0000000000000000e+00" itree="649">
      <Node pos="s" depth="0" NCoef="0" IVar="8" Cut="-1.4665572643280029e+00" cType="1" res="-1.8153466498915805e-06" rms="1.8260425329208374e-01" purity="5.0398832559585571e-01" nType="0">
        <Node pos="l" depth="1" NCoef="0" IVar="7" Cut="-5.4216146469116211e-02" cType="1" res="-1.1138717643916607e-02" rms="1.9709260761737823e-01" purity="2.2231930494308472e-01" nType="0">
          <Node pos="l" depth="2" NCoef="0" IVar="-1" Cut="0.0000000000000000e+00" cType="1" res="-4.3969023972749710e-03" rms="2.0704643428325653e-01" purity="2.3231084644794464e-01" nType="-99"/>
          <Node pos="r" depth="2" NCoef="0" IVar="-1" Cut="0.0000000000000000e+00" cType="1" res="-4.2248837649822235e-02" rms="1.8829672038555145e-01" purity="2.1420848369598389e-01" nType="-99"/>
        </Node>
        <Node pos="r" depth="1" NCoef="0" IVar="7" Cut="4.0542760491371155e-01" cType="1" res="8.0432381946593523e-04" rms="1.8148410320281982e-01" purity="5.2437674999237061e-01" nType="0">
          <Node pos="l" depth="2" NCoef="0" IVar="0" Cut="4.4712588500976562e+02" cType="1" res="-5.2217306802049279e-04" rms="1.7199563980102539e-01" purity="5.5521410703659058e-01" nType="0">
            <Node pos="l" depth="3" NCoef="0" IVar="-1" Cut="0.0000000000000000e+00" cType="1" res="-2.5584457442164421e-02" rms="1.2844370305538177e-01" purity="2.3356936872005463e-02" nType="-99"/>
            <Node pos="r" depth="3" NCoef="0" IVar="-1" Cut="0.0000000000000000e+00" cType="1" res="1.8431915668770671e-03" rms="1.8089197576045990e-01" purity="6.8310362100601196e-01" nType="-99"/>
          </Node>
          <Node pos="r" depth="2" NCoef="0" IVar="10" Cut="6.6656482219696045e-01" cType="1" res="3.9026748854666948e-03" rms="2.0188313722610474e-01" purity="4.5234873890876770e-01" nType="0">
            <Node pos="l" depth="3" NCoef="0" IVar="-1" Cut="0.0000000000000000e+00" cType="1" res="1.9882200285792351e-02" rms="2.0687298476696014e-01" purity="4.8049548268318176e-01" nType="-99"/>
            <Node pos="r" depth="3" NCoef="0" IVar="-1" Cut="0.0000000000000000e+00" cType="1" res="-9.7786113619804382e-03" rms="1.9093982875347137e-01" purity="3.9425715804100037e-01" nType="-99"/>
          </Node>
        </Node>
      </Node>
    </BinaryTree>
    <BinaryTree type="DecisionTree" boostWeight="1.0000000000000000e+00" itree="650">
      <Node pos="s" depth="0" NCoef="0" IVar="7" Cut="1.2218483686447144e+00" cType="1" res="1.0389705421403050e-03" rms="1.8307928740978241e-01" purity="5.0529676675796509e-01" nType="0">
        <Node pos="l" depth="1" NCoef="0" IVar="10" Cut="-1.9998457431793213e+00" cType="1" res="2.2533026640303433e-04" rms="1.8033912777900696e-01" purity="5.2956408262252808e-01" nType="0">
          <Node pos="l" depth="2" NCoef="0" IVar="-1" Cut="0.0000000000000000e+00" cType="1" res="2.1416237577795982e-02" rms="2.3288999497890472e-01" purity="4.2350399494171143e-01" nType="-99"/>
          <Node pos="r" depth="2" NCoef="0" IVar="10" Cut="5.1432818174362183e-01" cType="1" res="-3.5716546699404716e-04" rms="1.7723278701305389e-01" purity="5.3495472669601440e-01" nType="0">
            <Node pos="l" depth="3" NCoef="0" IVar="-1" Cut="0.0000000000000000e+00" cType="1" res="-7.5560789555311203e-03" rms="1.6907559335231781e-01" purity="5.3720676898956299e-01" nType="-99"/>
            <Node pos="r" depth="3" NCoef="0" IVar="-1" Cut="0.0000000000000000e+00" cType="1" res="8.3047300577163696e-03" rms="1.9082123041152954e-01" purity="5.3095197677612305e-01" nType="-99"/>
          </Node>
        </Node>
        <Node pos="r" depth="1" NCoef="0" IVar="3" Cut="4.6405920410156250e+02" cType="1" res="1.1199150234460831e-02" rms="2.1410681307315826e-01" purity="2.0226325094699860e-01" nType="0">
          <Node pos="l" depth="2" NCoef="0" IVar="-1" Cut="0.0000000000000000e+00" cType="1" res="7.0538103580474854e-02" rms="2.3799529671669006e-01" purity="9.7380749881267548e-02" nType="-99"/>
          <Node pos="r" depth="2" NCoef="0" IVar="-1" Cut="0.0000000000000000e+00" cType="1" res="6.3174450770020485e-03" rms="2.0000134408473969e-01" purity="2.5675359368324280e-01" nType="-99"/>
        </Node>
      </Node>
    </BinaryTree>
    <BinaryTree type="DecisionTree" boostWeight="1.0000000000000000e+00" itree="651">
      <Node pos="s" depth="0" NCoef="0" IVar="7" Cut="-1.1200408935546875e+00" cType="1" res="-9.0252498921472579e-05" rms="1.8389569222927094e-01" purity="4.9849054217338562e-01" nType="0">
        <Node pos="l" depth="1" NCoef="0" IVar="8" Cut="6.7084628343582153e-01" cType="1" res="-6.5712761133909225e-03" rms="1.7970627546310425e-01" purity="1.8686999380588531e-01" nType="0">
          <Node pos="l" depth="2" NCoef="0" IVar="1" Cut="1.5947017822265625e+03" cType="1" res="-1.3045950792729855e-02" rms="1.7606393992900848e-01" purity="2.0007224380970001e-01" nType="0">
            <Node pos="l" depth="3" NCoef="0" IVar="-1" Cut="0.0000000000000000e+00" cType="1" res="-5.1839477382600307e-03" rms="7.9082205891609192e-02" purity="6.1316690407693386e-03" nType="-99"/>
            <Node pos="r" depth="3" NCoef="0" IVar="-1" Cut="0.0000000000000000e+00" cType="1" res="-4.2262759059667587e-02" rms="2.2344802320003510e-01" purity="3.5018804669380188e-01" nType="-99"/>
          </Node>
          <Node pos="r" depth="2" NCoef="0" IVar="-1" Cut="0.0000000000000000e+00" cType="1" res="2.1767949685454369e-02" rms="1.8661104142665863e-01" purity="1.5815034508705139e-01" nType="-99"/>
        </Node>
        <Node pos="r" depth="1" NCoef="0" IVar="9" Cut="1.1999083757400513e+00" cType="1" res="5.7182618184015155e-04" rms="1.8430547416210175e-01" purity="5.3032463788986206e-01" nType="0">
          <Node pos="l" depth="2" NCoef="0" IVar="2" Cut="3.8919057697057724e-02" cType="1" res="-2.9197454568929970e-04" rms="1.7948143184185028e-01" purity="5.4708820581436157e-01" nType="0">
            <Node pos="l" depth="3" NCoef="0" IVar="-1" Cut="0.0000000000000000e+00" cType="1" res="-8.3179045468568802e-03" rms="1.8871928751468658e-01" purity="3.5182598233222961e-01" nType="-99"/>
            <Node pos="r" depth="3" NCoef="0" IVar="-1" Cut="0.0000000000000000e+00" cType="1" res="7.7749346382915974e-03" rms="1.7044109106063843e-01" purity="7.2786927223205566e-01" nType="-99"/>
          </Node>
          <Node pos="r" depth="2" NCoef="0" IVar="10" Cut="-1.3235747814178467e-01" cType="1" res="5.7814382016658783e-03" rms="2.1099972724914551e-01" purity="4.2922285199165344e-01" nType="0">
            <Node pos="l" depth="3" NCoef="0" IVar="-1" Cut="0.0000000000000000e+00" cType="1" res="-1.0543396696448326e-02" rms="2.0777012407779694e-01" purity="4.4790664315223694e-01" nType="-99"/>
            <Node pos="r" depth="3" NCoef="0" IVar="-1" Cut="0.0000000000000000e+00" cType="1" res="2.9489833861589432e-02" rms="2.1291698515415192e-01" purity="4.1610580682754517e-01" nType="-99"/>
          </Node>
        </Node>
      </Node>
    </BinaryTree>
    <BinaryTree type="DecisionTree" boostWeight="1.0000000000000000e+00" itree="652">
      <Node pos="s" depth="0" NCoef="0" IVar="7" Cut="1.4857951402664185e+00" cType="1" res="1.7581934807822108e-03" rms="1.8629868328571320e-01" purity="5.0414294004440308e-01" nType="0">
        <Node pos="l" depth="1" NCoef="0" IVar="3" Cut="4.9901644897460938e+02" cType="1" res="2.4025547318160534e-03" rms="1.8667751550674438e-01" purity="5.2189391851425171e-01" nType="0">
          <Node pos="l" depth="2" NCoef="0" IVar="1" Cut="1.6165585937500000e+03" cType="1" res="8.0063575878739357e-03" rms="2.0462615787982941e-01" purity="1.2179782986640930e-01" nType="0">
            <Node pos="l" depth="3" NCoef="0" IVar="-1" Cut="0.0000000000000000e+00" cType="1" res="1.3620786368846893e-02" rms="1.1223182827234268e-01" purity="1.3956420123577118e-02" nType="-99"/>
            <Node pos="r" depth="3" NCoef="0" IVar="-1" Cut="0.0000000000000000e+00" cType="1" res="2.0871622487902641e-02" rms="3.0897119641304016e-01" purity="3.2000383734703064e-01" nType="-99"/>
          </Node>
          <Node pos="r" depth="2" NCoef="0" IVar="5" Cut="1.6356753540039062e+02" cType="1" res="8.0356316175311804e-04" rms="1.8119858205318451e-01" purity="6.3605755567550659e-01" nType="0">
            <Node pos="l" depth="3" NCoef="0" IVar="-1" Cut="0.0000000000000000e+00" cType="1" res="1.7162585631012917e-02" rms="1.7340286076068878e-01" purity="1.1146491765975952e-01" nType="-99"/>
            <Node pos="r" depth="3" NCoef="0" IVar="-1" Cut="0.0000000000000000e+00" cType="1" res="-2.6239231228828430e-03" rms="1.8402688205242157e-01" purity="8.3415091037750244e-01" nType="-99"/>
          </Node>
        </Node>
        <Node pos="r" depth="1" NCoef="0" IVar="-1" Cut="0.0000000000000000e+00" cType="1" res="-4.2394299060106277e-02" rms="1.7675615847110748e-01" purity="9.7470134496688843e-02" nType="-99"/>
      </Node>
    </BinaryTree>
    <BinaryTree type="DecisionTree" boostWeight="1.0000000000000000e+00" itree="653">
      <Node pos="s" depth="0" NCoef="0" IVar="8" Cut="-1.3290901482105255e-01" cType="1" res="-9.6155406208708882e-04" rms="1.8368995189666748e-01" purity="4.9820673465728760e-01" nType="0">
        <Node pos="l" depth="1" NCoef="0" IVar="7" Cut="-5.5383032560348511e-01" cType="1" res="3.1278452370315790e-03" rms="1.8687845766544342e-01" purity="4.9035358428955078e-01" nType="0">
          <Node pos="l" depth="2" NCoef="0" IVar="9" Cut="4.0035083889961243e-01" cType="1" res="1.0919366031885147e-02" rms="1.9643916189670563e-01" purity="4.0166136622428894e-01" nType="0">
            <Node pos="l" depth="3" NCoef="0" IVar="-1" Cut="0.0000000000000000e+00" cType="1" res="6.6841575317084789e-03" rms="1.7956371605396271e-01" purity="3.7617322802543640e-01" nType="-99"/>
            <Node pos="r" depth="3" NCoef="0" IVar="-1" Cut="0.0000000000000000e+00" cType="1" res="6.0126245021820068e-02" rms="2.2543589770793915e-01" purity="4.5253121852874756e-01" nType="-99"/>
          </Node>
          <Node pos="r" depth="2" NCoef="0" IVar="9" Cut="3.9976570010185242e-01" cType="1" res="3.9749246207065880e-04" rms="1.8333190679550171e-01" purity="5.2143371105194092e-01" nType="0">
            <Node pos="l" depth="3" NCoef="0" IVar="-1" Cut="0.0000000000000000e+00" cType="1" res="1.0381470434367657e-02" rms="1.7844936251640320e-01" purity="5.2170836925506592e-01" nType="-99"/>
            <Node pos="r" depth="3" NCoef="0" IVar="-1" Cut="0.0000000000000000e+00" cType="1" res="-1.2779739685356617e-02" rms="1.9185665249824524e-01" purity="5.2092891931533813e-01" nType="-99"/>
          </Node>
        </Node>
        <Node pos="r" depth="1" NCoef="0" IVar="1" Cut="2.7779763183593750e+03" cType="1" res="-4.3451352976262569e-03" rms="1.8093945086002350e-01" purity="5.0470441579818726e-01" nType="0">
          <Node pos="l" depth="2" NCoef="0" IVar="0" Cut="8.4177746582031250e+02" cType="1" res="-7.3421769775450230e-03" rms="2.1357348561286926e-01" purity="1.7872092127799988e-01" nType="0">
            <Node pos="l" depth="3" NCoef="0" IVar="-1" Cut="0.0000000000000000e+00" cType="1" res="-9.8396297544240952e-03" rms="2.0240631699562073e-01" purity="1.4227445423603058e-01" nType="-99"/>
            <Node pos="r" depth="3" NCoef="0" IVar="-1" Cut="0.0000000000000000e+00" cType="1" res="-4.1689705103635788e-02" rms="3.0605798959732056e-01" purity="5.6472283601760864e-01" nType="-99"/>
          </Node>
          <Node pos="r" depth="2" NCoef="0" IVar="3" Cut="1.0193610229492188e+03" cType="1" res="5.1684684876818210e-05" rms="1.1755391210317612e-01" purity="9.8293966054916382e-01" nType="0">
            <Node pos="l" depth="3" NCoef="0" IVar="-1" Cut="0.0000000000000000e+00" cType="1" res="-2.0976781845092773e-02" rms="1.0591869056224823e-01" purity="9.8760551214218140e-01" nType="-99"/>
            <Node pos="r" depth="3" NCoef="0" IVar="-1" Cut="0.0000000000000000e+00" cType="1" res="1.6930295154452324e-02" rms="1.3359361886978149e-01" purity="9.7568082809448242e-01" nType="-99"/>
          </Node>
        </Node>
      </Node>
    </BinaryTree>
    <BinaryTree type="DecisionTree" boostWeight="1.0000000000000000e+00" itree="654">
      <Node pos="s" depth="0" NCoef="0" IVar="8" Cut="1.2000027894973755e+00" cType="1" res="-9.1155598056502640e-05" rms="1.8225255608558655e-01" purity="4.9889662861824036e-01" nType="0">
        <Node pos="l" depth="1" NCoef="0" IVar="0" Cut="8.8816284179687500e+02" cType="1" res="-1.3678254326805472e-03" rms="1.7599920928478241e-01" purity="5.2613735198974609e-01" nType="0">
          <Node pos="l" depth="2" NCoef="0" IVar="0" Cut="4.9605715942382812e+02" cType="1" res="-3.8391924463212490e-03" rms="1.9214521348476410e-01" purity="2.8428894281387329e-01" nType="0">
            <Node pos="l" depth="3" NCoef="0" IVar="-1" Cut="0.0000000000000000e+00" cType="1" res="-3.3572684973478317e-02" rms="1.4493559300899506e-01" purity="3.5995375365018845e-02" nType="-99"/>
            <Node pos="r" depth="3" NCoef="0" IVar="-1" Cut="0.0000000000000000e+00" cType="1" res="-2.1337879297789186e-04" rms="2.1994872391223907e-01" purity="4.6357834339141846e-01" nType="-99"/>
          </Node>
          <Node pos="r" depth="2" NCoef="0" IVar="5" Cut="1.6365209960937500e+02" cType="1" res="2.9469982255250216e-03" rms="1.4341741800308228e-01" purity="9.4838678836822510e-01" nType="0">
            <Node pos="l" depth="3" NCoef="0" IVar="-1" Cut="0.0000000000000000e+00" cType="1" res="2.3742150515317917e-02" rms="3.0571451783180237e-01" purity="5.9022206068038940e-01" nType="-99"/>
            <Node pos="r" depth="3" NCoef="0" IVar="-1" Cut="0.0000000000000000e+00" cType="1" res="7.3908800259232521e-03" rms="1.1925709992647171e-01" purity="9.7935932874679565e-01" nType="-99"/>
          </Node>
        </Node>
        <Node pos="r" depth="1" NCoef="0" IVar="10" Cut="1.3336011767387390e-01" cType="1" res="9.2782191932201385e-03" rms="2.2261497378349304e-01" purity="2.9897910356521606e-01" nType="0">
          <Node pos="l" depth="2" NCoef="0" IVar="6" Cut="1.0059427642822266e+02" cType="1" res="2.0674480125308037e-02" rms="2.4566064774990082e-01" purity="3.3635658025741577e-01" nType="0">
            <Node pos="l" depth="3" NCoef="0" IVar="-1" Cut="0.0000000000000000e+00" cType="1" res="8.5547424852848053e-02" rms="2.3579505085945129e-01" purity="1.4125640690326691e-01" nType="-99"/>
            <Node pos="r" depth="3" NCoef="0" IVar="-1" Cut="0.0000000000000000e+00" cType="1" res="7.7910725958645344e-03" rms="2.5263765454292297e-01" purity="5.0173509120941162e-01" nType="-99"/>
          </Node>
          <Node pos="r" depth="2" NCoef="0" IVar="9" Cut="-1.3317565619945526e-01" cType="1" res="-1.0978808859363198e-03" rms="1.9876076281070709e-01" purity="2.6494750380516052e-01" nType="0">
            <Node pos="l" depth="3" NCoef="0" IVar="-1" Cut="0.0000000000000000e+00" cType="1" res="3.2004199922084808e-02" rms="2.2371017932891846e-01" purity="3.0719435214996338e-01" nType="-99"/>
            <Node pos="r" depth="3" NCoef="0" IVar="-1" Cut="0.0000000000000000e+00" cType="1" res="-3.6321423947811127e-02" rms="1.7757596075534821e-01" purity="2.3443911969661713e-01" nType="-99"/>
          </Node>
        </Node>
      </Node>
    </BinaryTree>
    <BinaryTree type="DecisionTree" boostWeight="1.0000000000000000e+00" itree="655">
      <Node pos="s" depth="0" NCoef="0" IVar="6" Cut="8.9509536743164062e+01" cType="1" res="-1.0489858686923981e-04" rms="1.7973186075687408e-01" purity="4.9863278865814209e-01" nType="0">
        <Node pos="l" depth="1" NCoef="0" IVar="4" Cut="3.3703079223632812e+02" cType="1" res="-4.5306435786187649e-03" rms="1.6450558602809906e-01" purity="1.4606653153896332e-01" nType="0">
          <Node pos="l" depth="2" NCoef="0" IVar="6" Cut="7.8219261169433594e+01" cType="1" res="-7.6344743138179183e-04" rms="1.2031401693820953e-01" purity="3.2998070120811462e-02" nType="0">
            <Node pos="l" depth="3" NCoef="0" IVar="-1" Cut="0.0000000000000000e+00" cType="1" res="-2.0827278494834900e-02" rms="1.0611440241336823e-01" purity="2.6818955317139626e-02" nType="-99"/>
            <Node pos="r" depth="3" NCoef="0" IVar="-1" Cut="0.0000000000000000e+00" cType="1" res="3.0204923823475838e-02" rms="1.5706448256969452e-01" purity="5.2746236324310303e-02" nType="-99"/>
          </Node>
          <Node pos="r" depth="2" NCoef="0" IVar="9" Cut="1.3342984020709991e-01" cType="1" res="-1.0059289634227753e-02" rms="2.1326632797718048e-01" purity="3.1200307607650757e-01" nType="0">
            <Node pos="l" depth="3" NCoef="0" IVar="-1" Cut="0.0000000000000000e+00" cType="1" res="-3.2889191061258316e-02" rms="2.0565201342105865e-01" purity="3.2299250364303589e-01" nType="-99"/>
            <Node pos="r" depth="3" NCoef="0" IVar="-1" Cut="0.0000000000000000e+00" cType="1" res="-5.9010363183915615e-03" rms="2.2126556932926178e-01" purity="2.9971843957901001e-01" nType="-99"/>
          </Node>
        </Node>
        <Node pos="r" depth="1" NCoef="0" IVar="9" Cut="1.4661157131195068e+00" cType="1" res="1.7620947910472751e-03" rms="1.8574954569339752e-01" purity="6.4736229181289673e-01" nType="0">
          <Node pos="l" depth="2" NCoef="0" IVar="1" Cut="1.9496329345703125e+03" cType="1" res="6.9533486384898424e-04" rms="1.8075686693191528e-01" purity="6.5906375646591187e-01" nType="0">
            <Node pos="l" depth="3" NCoef="0" IVar="-1" Cut="0.0000000000000000e+00" cType="1" res="-1.5883903950452805e-02" rms="1.6291062533855438e-01" purity="3.6087691783905029e-02" nType="-99"/>
            <Node pos="r" depth="3" NCoef="0" IVar="-1" Cut="0.0000000000000000e+00" cType="1" res="8.6793089285492897e-03" rms="1.8762323260307312e-01" purity="9.1798186302185059e-01" nType="-99"/>
          </Node>
          <Node pos="r" depth="2" NCoef="0" IVar="-1" Cut="0.0000000000000000e+00" cType="1" res="2.3575307801365852e-02" rms="2.3324663937091827e-01" purity="5.1914536952972412e-01" nType="-99"/>
        </Node>
      </Node>
    </BinaryTree>
    <BinaryTree type="DecisionTree" boostWeight="1.0000000000000000e+00" itree="656">
      <Node pos="s" depth="0" NCoef="0" IVar="9" Cut="-1.9999409914016724e+00" cType="1" res="2.5245558936148882e-04" rms="1.8439774215221405e-01" purity="5.0247484445571899e-01" nType="0">
        <Node pos="l" depth="1" NCoef="0" IVar="-1" Cut="0.0000000000000000e+00" cType="1" res="4.0800344198942184e-02" rms="2.4886161088943481e-01" purity="2.3254361748695374e-01" nType="-99"/>
        <Node pos="r" depth="1" NCoef="0" IVar="2" Cut="8.5462562739849091e-02" cType="1" res="-3.9088391349650919e-04" rms="1.8182177841663361e-01" purity="5.1146823167800903e-01" nType="0">
          <Node pos="l" depth="2" NCoef="0" IVar="9" Cut="1.8855972290039062e+00" cType="1" res="-1.9098690245300531e-03" rms="1.8714800477027893e-01" purity="4.2058235406875610e-01" nType="0">
            <Node pos="l" depth="3" NCoef="0" IVar="-1" Cut="0.0000000000000000e+00" cType="1" res="-7.4371155351400375e-03" rms="1.8377766013145447e-01" purity="4.3077319860458374e-01" nType="-99"/>
            <Node pos="r" depth="3" NCoef="0" IVar="-1" Cut="0.0000000000000000e+00" cType="1" res="2.3506045341491699e-02" rms="2.4155846238136292e-01" purity="2.2862458229064941e-01" nType="-99"/>
          </Node>
          <Node pos="r" depth="2" NCoef="0" IVar="0" Cut="5.0740802001953125e+02" cType="1" res="4.4636190868914127e-03" rms="1.6354693472385406e-01" purity="8.0192899703979492e-01" nType="0">
            <Node pos="l" depth="3" NCoef="0" IVar="-1" Cut="0.0000000000000000e+00" cType="1" res="3.5996034741401672e-02" rms="2.5781637430191040e-01" purity="1.7640992999076843e-01" nType="-99"/>
            <Node pos="r" depth="3" NCoef="0" IVar="-1" Cut="0.0000000000000000e+00" cType="1" res="8.1618297845125198e-03" rms="1.4281751215457916e-01" purity="9.0109646320343018e-01" nType="-99"/>
          </Node>
        </Node>
      </Node>
    </BinaryTree>
    <BinaryTree type="DecisionTree" boostWeight="1.0000000000000000e+00" itree="657">
      <Node pos="s" depth="0" NCoef="0" IVar="9" Cut="1.9998841285705566e+00" cType="1" res="1.6191978938877583e-03" rms="1.8548598885536194e-01" purity="4.9987575411796570e-01" nType="0">
        <Node pos="l" depth="1" NCoef="0" IVar="10" Cut="3.9986875653266907e-01" cType="1" res="2.3385004606097937e-03" rms="1.8461702764034271e-01" purity="5.0958967208862305e-01" nType="0">
          <Node pos="l" depth="2" NCoef="0" IVar="8" Cut="-1.7336772680282593e+00" cType="1" res="4.6450432273559272e-04" rms="1.7914153635501862e-01" purity="5.0906169414520264e-01" nType="0">
            <Node pos="l" depth="3" NCoef="0" IVar="-1" Cut="0.0000000000000000e+00" cType="1" res="2.5637026876211166e-02" rms="1.8643070757389069e-01" purity="1.8481478095054626e-01" nType="-99"/>
            <Node pos="r" depth="3" NCoef="0" IVar="-1" Cut="0.0000000000000000e+00" cType="1" res="1.7738225869834423e-04" rms="1.7879265546798706e-01" purity="5.2379435300827026e-01" nType="-99"/>
          </Node>
          <Node pos="r" depth="2" NCoef="0" IVar="8" Cut="1.2000676393508911e+00" cType="1" res="5.4569062776863575e-03" rms="1.9334490597248077e-01" purity="5.1046824455261230e-01" nType="0">
            <Node pos="l" depth="3" NCoef="0" IVar="-1" Cut="0.0000000000000000e+00" cType="1" res="9.2071639373898506e-03" rms="1.8747399747371674e-01" purity="5.4052060842514038e-01" nType="-99"/>
            <Node pos="r" depth="3" NCoef="0" IVar="-1" Cut="0.0000000000000000e+00" cType="1" res="3.9654001593589783e-02" rms="2.2684404253959656e-01" purity="3.1829896569252014e-01" nType="-99"/>
          </Node>
        </Node>
        <Node pos="r" depth="1" NCoef="0" IVar="-1" Cut="0.0000000000000000e+00" cType="1" res="-4.0988452732563019e-02" rms="2.0866547524929047e-01" purity="2.0948851108551025e-01" nType="-99"/>
      </Node>
    </BinaryTree>
    <BinaryTree type="DecisionTree" boostWeight="1.0000000000000000e+00" itree="658">
      <Node pos="s" depth="0" NCoef="0" IVar="10" Cut="1.1999958753585815e+00" cType="1" res="-6.3893217884469777e-05" rms="1.8275596201419830e-01" purity="5.0102370977401733e-01" nType="0">
        <Node pos="l" depth="1" NCoef="0" IVar="9" Cut="-9.3325453996658325e-01" cType="1" res="9.6516619669273496e-04" rms="1.7889267206192017e-01" purity="5.1327270269393921e-01" nType="0">
          <Node pos="l" depth="2" NCoef="0" IVar="9" Cut="-1.1110225915908813e+00" cType="1" res="5.6687812320888042e-03" rms="1.9118899106979370e-01" purity="4.5114716887474060e-01" nType="0">
            <Node pos="l" depth="3" NCoef="0" IVar="-1" Cut="0.0000000000000000e+00" cType="1" res="6.8665421567857265e-03" rms="1.9189843535423279e-01" purity="4.2013707756996155e-01" nType="-99"/>
            <Node pos="r" depth="3" NCoef="0" IVar="-1" Cut="0.0000000000000000e+00" cType="1" res="4.4088114053010941e-02" rms="1.8836793303489685e-01" purity="5.5741816759109497e-01" nType="-99"/>
          </Node>
          <Node pos="r" depth="2" NCoef="0" IVar="9" Cut="1.1999437808990479e+00" cType="1" res="-3.2539910171180964e-04" rms="1.7534612119197845e-01" purity="5.3031855821609497e-01" nType="0">
            <Node pos="l" depth="3" NCoef="0" IVar="-1" Cut="0.0000000000000000e+00" cType="1" res="-6.3283247873187065e-03" rms="1.6610462963581085e-01" purity="5.5532145500183105e-01" nType="-99"/>
            <Node pos="r" depth="3" NCoef="0" IVar="-1" Cut="0.0000000000000000e+00" cType="1" res="1.6012288630008698e-02" rms="2.1345645189285278e-01" purity="4.1240197420120239e-01" nType="-99"/>
          </Node>
        </Node>
        <Node pos="r" depth="1" NCoef="0" IVar="1" Cut="1.8806837158203125e+03" cType="1" res="-5.0651081837713718e-03" rms="2.0039889216423035e-01" purity="4.4149386882781982e-01" nType="0">
          <Node pos="l" depth="2" NCoef="0" IVar="8" Cut="6.6490745544433594e-01" cType="1" res="4.0762736462056637e-03" rms="1.6526566445827484e-01" purity="3.6603212356567383e-02" nType="0">
            <Node pos="l" depth="3" NCoef="0" IVar="-1" Cut="0.0000000000000000e+00" cType="1" res="4.4366899877786636e-02" rms="1.8652929365634918e-01" purity="4.9532402306795120e-02" nType="-99"/>
            <Node pos="r" depth="3" NCoef="0" IVar="-1" Cut="0.0000000000000000e+00" cType="1" res="-4.0639162063598633e-02" rms="1.2490050494670868e-01" purity="1.6866805031895638e-02" nType="-99"/>
          </Node>
          <Node pos="r" depth="2" NCoef="0" IVar="1" Cut="2.7504455566406250e+03" cType="1" res="-1.3531720265746117e-02" rms="2.2783616185188293e-01" purity="8.1649768352508545e-01" nType="0">
            <Node pos="l" depth="3" NCoef="0" IVar="-1" Cut="0.0000000000000000e+00" cType="1" res="-3.2100945711135864e-02" rms="3.3461093902587891e-01" purity="5.4850602149963379e-01" nType="-99"/>
            <Node pos="r" depth="3" NCoef="0" IVar="-1" Cut="0.0000000000000000e+00" cType="1" res="6.5986835397779942e-03" rms="1.2107309699058533e-01" purity="9.8021644353866577e-01" nType="-99"/>
          </Node>
        </Node>
      </Node>
    </BinaryTree>
    <BinaryTree type="DecisionTree" boostWeight="1.0000000000000000e+00" itree="659">
      <Node pos="s" depth="0" NCoef="0" IVar="7" Cut="1.2031041383743286e+00" cType="1" res="2.0835262257605791e-03" rms="1.8459235131740570e-01" purity="5.0063174962997437e-01" nType="0">
        <Node pos="l" depth="1" NCoef="0" IVar="8" Cut="-1.7332901954650879e+00" cType="1" res="1.1738619068637490e-03" rms="1.8223138153553009e-01" purity="5.2732390165328979e-01" nType="0">
          <Node pos="l" depth="2" NCoef="0" IVar="-1" Cut="0.0000000000000000e+00" cType="1" res="-2.7329195290803909e-02" rms="1.8766874074935913e-01" purity="1.8042515218257904e-01" nType="-99"/>
          <Node pos="r" depth="2" NCoef="0" IVar="7" Cut="-3.1529390811920166e-01" cType="1" res="1.6968473792076111e-03" rms="1.8198920786380768e-01" purity="5.4132068157196045e-01" nType="0">
            <Node pos="l" depth="3" NCoef="0" IVar="-1" Cut="0.0000000000000000e+00" cType="1" res="-5.3665647283196449e-03" rms="1.8327352404594421e-01" purity="4.4620648026466370e-01" nType="-99"/>
            <Node pos="r" depth="3" NCoef="0" IVar="-1" Cut="0.0000000000000000e+00" cType="1" res="1.0951290838420391e-02" rms="1.8118624389171600e-01" purity="5.9799790382385254e-01" nType="-99"/>
          </Node>
        </Node>
        <Node pos="r" depth="1" NCoef="0" IVar="3" Cut="5.5119653320312500e+02" cType="1" res="1.2647344730794430e-02" rms="2.0978696644306183e-01" purity="1.9065998494625092e-01" nType="0">
          <Node pos="l" depth="2" NCoef="0" IVar="-1" Cut="0.0000000000000000e+00" cType="1" res="5.3931966423988342e-02" rms="2.2193662822246552e-01" purity="1.2881237268447876e-01" nType="-99"/>
          <Node pos="r" depth="2" NCoef="0" IVar="-1" Cut="0.0000000000000000e+00" cType="1" res="-2.5691950577311218e-04" rms="1.9239713251590729e-01" purity="2.6971408724784851e-01" nType="-99"/>
        </Node>
      </Node>
    </BinaryTree>
    <BinaryTree type="DecisionTree" boostWeight="1.0000000000000000e+00" itree="660">
      <Node pos="s" depth="0" NCoef="0" IVar="7" Cut="1.2036660909652710e+00" cType="1" res="3.7893332773819566e-05" rms="1.8730300664901733e-01" purity="4.9519371986389160e-01" nType="0">
        <Node pos="l" depth="1" NCoef="0" IVar="0" Cut="4.3884851074218750e+02" cType="1" res="1.0264520533382893e-03" rms="1.8848024308681488e-01" purity="5.2257341146469116e-01" nType="0">
          <Node pos="l" depth="2" NCoef="0" IVar="1" Cut="1.6618634033203125e+03" cType="1" res="8.1495121121406555e-03" rms="1.6089212894439697e-01" purity="3.9940699934959412e-02" nType="0">
            <Node pos="l" depth="3" NCoef="0" IVar="-1" Cut="0.0000000000000000e+00" cType="1" res="2.3883492685854435e-03" rms="8.7321154773235321e-02" purity="9.6217701211571693e-03" nType="-99"/>
            <Node pos="r" depth="3" NCoef="0" IVar="-1" Cut="0.0000000000000000e+00" cType="1" res="4.8902980983257294e-02" rms="2.7495241165161133e-01" purity="1.2356429547071457e-01" nType="-99"/>
          </Node>
          <Node pos="r" depth="2" NCoef="0" IVar="7" Cut="-1.0742610692977905e+00" cType="1" res="-6.8761571310460567e-04" rms="1.9449688494205475e-01" purity="6.3871234655380249e-01" nType="0">
            <Node pos="l" depth="3" NCoef="0" IVar="-1" Cut="0.0000000000000000e+00" cType="1" res="1.7228860408067703e-02" rms="2.1924456954002380e-01" purity="3.1793114542961121e-01" nType="-99"/>
            <Node pos="r" depth="3" NCoef="0" IVar="-1" Cut="0.0000000000000000e+00" cType="1" res="-4.1393744759261608e-03" rms="1.9186224043369293e-01" purity="6.7033898830413818e-01" nType="-99"/>
          </Node>
        </Node>
        <Node pos="r" depth="1" NCoef="0" IVar="1" Cut="1.7685378417968750e+03" cType="1" res="-1.1515398509800434e-02" rms="1.7253221571445465e-01" purity="1.7520770430564880e-01" nType="0">
          <Node pos="l" depth="2" NCoef="0" IVar="10" Cut="1.3328137993812561e-01" cType="1" res="-3.9672739803791046e-03" rms="1.0375957190990448e-01" purity="1.3887146487832069e-02" nType="0">
            <Node pos="l" depth="3" NCoef="0" IVar="-1" Cut="0.0000000000000000e+00" cType="1" res="2.2586109116673470e-02" rms="1.2841871380805969e-01" purity="2.3752007633447647e-02" nType="-99"/>
            <Node pos="r" depth="3" NCoef="0" IVar="-1" Cut="0.0000000000000000e+00" cType="1" res="-8.7674602866172791e-02" rms="6.8096809089183807e-02" purity="3.5444952081888914e-03" nType="-99"/>
          </Node>
          <Node pos="r" depth="2" NCoef="0" IVar="-1" Cut="0.0000000000000000e+00" cType="1" res="-3.4259550273418427e-02" rms="2.5803992152214050e-01" purity="4.9057900905609131e-01" nType="-99"/>
        </Node>
      </Node>
    </BinaryTree>
    <BinaryTree type="DecisionTree" boostWeight="1.0000000000000000e+00" itree="661">
      <Node pos="s" depth="0" NCoef="0" IVar="7" Cut="1.2290111780166626e+00" cType="1" res="-1.6958150081336498e-03" rms="1.8354399502277374e-01" purity="4.9163880944252014e-01" nType="0">
        <Node pos="l" depth="1" NCoef="0" IVar="9" Cut="-6.6637569665908813e-01" cType="1" res="-2.4245062377303839e-03" rms="1.8110390007495880e-01" purity="5.1577353477478027e-01" nType="0">
          <Node pos="l" depth="2" NCoef="0" IVar="8" Cut="1.2000693082809448e+00" cType="1" res="-6.4968373626470566e-03" rms="1.8347726762294769e-01" purity="4.6393033862113953e-01" nType="0">
            <Node pos="l" depth="3" NCoef="0" IVar="-1" Cut="0.0000000000000000e+00" cType="1" res="-1.2379821389913559e-02" rms="1.7884844541549683e-01" purity="4.8580294847488403e-01" nType="-99"/>
            <Node pos="r" depth="3" NCoef="0" IVar="-1" Cut="0.0000000000000000e+00" cType="1" res="-4.6880159527063370e-02" rms="2.1686676144599915e-01" purity="2.8520208597183228e-01" nType="-99"/>
          </Node>
          <Node pos="r" depth="2" NCoef="0" IVar="10" Cut="1.4666309356689453e+00" cType="1" res="-8.3731749327853322e-04" rms="1.8014548718929291e-01" purity="5.3597944974899292e-01" nType="0">
            <Node pos="l" depth="3" NCoef="0" IVar="-1" Cut="0.0000000000000000e+00" cType="1" res="-6.5319170244038105e-03" rms="1.7555506527423859e-01" purity="5.4612344503402710e-01" nType="-99"/>
            <Node pos="r" depth="3" NCoef="0" IVar="-1" Cut="0.0000000000000000e+00" cType="1" res="1.6917994245886803e-02" rms="2.0947794616222382e-01" purity="4.6446740627288818e-01" nType="-99"/>
          </Node>
        </Node>
        <Node pos="r" depth="1" NCoef="0" IVar="3" Cut="4.7317709350585938e+02" cType="1" res="7.5060063973069191e-03" rms="2.1173803508281708e-01" purity="1.8686875700950623e-01" nType="0">
          <Node pos="l" depth="2" NCoef="0" IVar="-1" Cut="0.0000000000000000e+00" cType="1" res="4.7655906528234482e-02" rms="2.3105502128601074e-01" purity="1.0889408737421036e-01" nType="-99"/>
          <Node pos="r" depth="2" NCoef="0" IVar="-1" Cut="0.0000000000000000e+00" cType="1" res="4.9587356625124812e-04" rms="1.9956876337528229e-01" purity="2.3114804923534393e-01" nType="-99"/>
        </Node>
      </Node>
    </BinaryTree>
    <BinaryTree type="DecisionTree" boostWeight="1.0000000000000000e+00" itree="662">
      <Node pos="s" depth="0" NCoef="0" IVar="9" Cut="-1.4662661552429199e+00" cType="1" res="8.3323800936341286e-04" rms="1.8379957973957062e-01" purity="4.9869680404663086e-01" nType="0">
        <Node pos="l" depth="1" NCoef="0" IVar="1" Cut="1.8482292480468750e+03" cType="1" res="8.8974209502339363e-03" rms="2.2150120139122009e-01" purity="3.3336570858955383e-01" nType="0">
          <Node pos="l" depth="2" NCoef="0" IVar="9" Cut="-1.9105969667434692e+00" cType="1" res="2.0750493276864290e-03" rms="1.5074345469474792e-01" purity="3.0274221673607826e-02" nType="0">
            <Node pos="l" depth="3" NCoef="0" IVar="-1" Cut="0.0000000000000000e+00" cType="1" res="-2.2811839357018471e-02" rms="1.4064452052116394e-01" purity="2.1949931979179382e-02" nType="-99"/>
            <Node pos="r" depth="3" NCoef="0" IVar="-1" Cut="0.0000000000000000e+00" cType="1" res="3.8104839622974396e-02" rms="1.5937013924121857e-01" purity="3.8114659488201141e-02" nType="-99"/>
          </Node>
          <Node pos="r" depth="2" NCoef="0" IVar="-1" Cut="0.0000000000000000e+00" cType="1" res="2.3609083145856857e-02" rms="2.9074946045875549e-01" purity="7.4325984716415405e-01" nType="-99"/>
        </Node>
        <Node pos="r" depth="1" NCoef="0" IVar="10" Cut="2.0000016689300537e+00" cType="1" res="-1.3437855159281753e-05" rms="1.7936111986637115e-01" purity="5.1605528593063354e-01" nType="0">
          <Node pos="l" depth="2" NCoef="0" IVar="10" Cut="-1.6569764614105225e+00" cType="1" res="5.9534894535318017e-04" rms="1.7763659358024597e-01" purity="5.2377367019653320e-01" nType="0">
            <Node pos="l" depth="3" NCoef="0" IVar="-1" Cut="0.0000000000000000e+00" cType="1" res="1.5983555465936661e-02" rms="2.2773911058902740e-01" purity="4.4573235511779785e-01" nType="-99"/>
            <Node pos="r" depth="3" NCoef="0" IVar="-1" Cut="0.0000000000000000e+00" cType="1" res="-4.9492542166262865e-04" rms="1.7159417271614075e-01" purity="5.3185874223709106e-01" nType="-99"/>
          </Node>
          <Node pos="r" depth="2" NCoef="0" IVar="-1" Cut="0.0000000000000000e+00" cType="1" res="-2.5220967829227448e-02" rms="2.1092325448989868e-01" purity="3.5962051153182983e-01" nType="-99"/>
        </Node>
      </Node>
    </BinaryTree>
    <BinaryTree type="DecisionTree" boostWeight="1.0000000000000000e+00" itree="663">
      <Node pos="s" depth="0" NCoef="0" IVar="4" Cut="3.2846682739257812e+02" cType="1" res="-4.8454072384629399e-05" rms="1.8220601975917816e-01" purity="5.0330179929733276e-01" nType="0">
        <Node pos="l" depth="1" NCoef="0" IVar="1" Cut="2.2267927246093750e+03" cType="1" res="4.1123307310044765e-03" rms="1.7736543715000153e-01" purity="9.0885616838932037e-02" nType="0">
          <Node pos="l" depth="2" NCoef="0" IVar="5" Cut="2.3484619140625000e+02" cType="1" res="2.4387782905250788e-03" rms="1.5626993775367737e-01" purity="3.8534786552190781e-02" nType="0">
            <Node pos="l" depth="3" NCoef="0" IVar="-1" Cut="0.0000000000000000e+00" cType="1" res="2.1026806905865669e-02" rms="1.4561574161052704e-01" purity="3.2345436513423920e-02" nType="-99"/>
            <Node pos="r" depth="3" NCoef="0" IVar="-1" Cut="0.0000000000000000e+00" cType="1" res="-2.1951463073492050e-02" rms="2.3601968586444855e-01" purity="9.9362760782241821e-02" nType="-99"/>
          </Node>
          <Node pos="r" depth="2" NCoef="0" IVar="-1" Cut="0.0000000000000000e+00" cType="1" res="2.0225895568728447e-02" rms="3.3679318428039551e-01" purity="7.0369309186935425e-01" nType="-99"/>
        </Node>
        <Node pos="r" depth="1" NCoef="0" IVar="1" Cut="2.4495310058593750e+03" cType="1" res="-2.4196368176490068e-03" rms="1.8486605584621429e-01" purity="7.3833304643630981e-01" nType="0">
          <Node pos="l" depth="2" NCoef="0" IVar="1" Cut="2.2496079101562500e+03" cType="1" res="-9.4362357631325722e-03" rms="2.6125648617744446e-01" purity="1.9770599901676178e-01" nType="0">
            <Node pos="l" depth="3" NCoef="0" IVar="-1" Cut="0.0000000000000000e+00" cType="1" res="-8.5234707221388817e-03" rms="2.3666712641716003e-01" purity="1.2397100031375885e-01" nType="-99"/>
            <Node pos="r" depth="3" NCoef="0" IVar="-1" Cut="0.0000000000000000e+00" cType="1" res="-2.4152126163244247e-02" rms="3.7898865342140198e-01" purity="6.5604400634765625e-01" nType="-99"/>
          </Node>
          <Node pos="r" depth="2" NCoef="0" IVar="5" Cut="2.0857661437988281e+02" cType="1" res="6.1534019187092781e-04" rms="1.3929867744445801e-01" purity="9.7217720746994019e-01" nType="0">
            <Node pos="l" depth="3" NCoef="0" IVar="-1" Cut="0.0000000000000000e+00" cType="1" res="1.0167725384235382e-02" rms="2.6998069882392883e-01" purity="8.5983598232269287e-01" nType="-99"/>
            <Node pos="r" depth="3" NCoef="0" IVar="-1" Cut="0.0000000000000000e+00" cType="1" res="-7.0581398904323578e-04" rms="1.2038133293390274e-01" purity="9.8248249292373657e-01" nType="-99"/>
          </Node>
        </Node>
      </Node>
    </BinaryTree>
    <BinaryTree type="DecisionTree" boostWeight="1.0000000000000000e+00" itree="664">
      <Node pos="s" depth="0" NCoef="0" IVar="9" Cut="1.4665778875350952e+00" cType="1" res="8.8043871801346540e-04" rms="1.8349787592887878e-01" purity="5.0199323892593384e-01" nType="0">
        <Node pos="l" depth="1" NCoef="0" IVar="2" Cut="2.0896827802062035e-02" cType="1" res="2.5678635574877262e-03" rms="1.8075972795486450e-01" purity="5.1748609542846680e-01" nType="0">
          <Node pos="l" depth="2" NCoef="0" IVar="2" Cut="1.4926150441169739e-02" cType="1" res="5.9917899779975414e-03" rms="1.9022284448146820e-01" purity="2.6682695746421814e-01" nType="0">
            <Node pos="l" depth="3" NCoef="0" IVar="-1" Cut="0.0000000000000000e+00" cType="1" res="9.1064414009451866e-03" rms="1.8020449578762054e-01" purity="2.2971434891223907e-01" nType="-99"/>
            <Node pos="r" depth="3" NCoef="0" IVar="-1" Cut="0.0000000000000000e+00" cType="1" res="3.5766292363405228e-02" rms="2.2301474213600159e-01" purity="4.0388020873069763e-01" nType="-99"/>
          </Node>
          <Node pos="r" depth="2" NCoef="0" IVar="1" Cut="1.9195728759765625e+03" cType="1" res="6.7176931770518422e-04" rms="1.7527085542678833e-01" purity="6.5629553794860840e-01" nType="0">
            <Node pos="l" depth="3" NCoef="0" IVar="-1" Cut="0.0000000000000000e+00" cType="1" res="-1.7266577109694481e-02" rms="1.5341940522193909e-01" purity="2.9050678014755249e-02" nType="-99"/>
            <Node pos="r" depth="3" NCoef="0" IVar="-1" Cut="0.0000000000000000e+00" cType="1" res="8.3592077717185020e-03" rms="1.8370240926742554e-01" purity="9.2213153839111328e-01" nType="-99"/>
          </Node>
        </Node>
        <Node pos="r" depth="1" NCoef="0" IVar="1" Cut="1.8432514648437500e+03" cType="1" res="-1.5085369348526001e-02" rms="2.0694582164287567e-01" purity="3.5540497303009033e-01" nType="0">
          <Node pos="l" depth="2" NCoef="0" IVar="-1" Cut="0.0000000000000000e+00" cType="1" res="-2.0857799798250198e-02" rms="1.4316838979721069e-01" purity="2.7126681059598923e-02" nType="-99"/>
          <Node pos="r" depth="2" NCoef="0" IVar="-1" Cut="0.0000000000000000e+00" cType="1" res="-3.5117600113153458e-02" rms="2.5849783420562744e-01" purity="7.1129858493804932e-01" nType="-99"/>
        </Node>
      </Node>
    </BinaryTree>
    <BinaryTree type="DecisionTree" boostWeight="1.0000000000000000e+00" itree="665">
      <Node pos="s" depth="0" NCoef="0" IVar="8" Cut="-1.7332906723022461e+00" cType="1" res="3.7649829755537212e-04" rms="1.8407310545444489e-01" purity="5.0072550773620605e-01" nType="0">
        <Node pos="l" depth="1" NCoef="0" IVar="-1" Cut="0.0000000000000000e+00" cType="1" res="3.9087787270545959e-02" rms="2.1280999481678009e-01" purity="1.8698348104953766e-01" nType="-99"/>
        <Node pos="r" depth="1" NCoef="0" IVar="7" Cut="-1.2511946260929108e-01" cType="1" res="-3.5358479362912476e-04" rms="1.8262621760368347e-01" purity="5.1498353481292725e-01" nType="0">
          <Node pos="l" depth="2" NCoef="0" IVar="8" Cut="-1.3014889955520630e+00" cType="1" res="2.8876550495624542e-03" rms="1.8637840449810028e-01" purity="4.9987459182739258e-01" nType="0">
            <Node pos="l" depth="3" NCoef="0" IVar="-1" Cut="0.0000000000000000e+00" cType="1" res="3.6859311163425446e-02" rms="2.3720970749855042e-01" purity="3.7961313128471375e-01" nType="-99"/>
            <Node pos="r" depth="3" NCoef="0" IVar="-1" Cut="0.0000000000000000e+00" cType="1" res="5.6735388934612274e-03" rms="1.8266725540161133e-01" purity="5.0742900371551514e-01" nType="-99"/>
          </Node>
          <Node pos="r" depth="2" NCoef="0" IVar="8" Cut="-2.2190149128437042e-01" cType="1" res="-2.9354819562286139e-03" rms="1.7953935265541077e-01" purity="5.2701902389526367e-01" nType="0">
            <Node pos="l" depth="3" NCoef="0" IVar="-1" Cut="0.0000000000000000e+00" cType="1" res="-2.3096190765500069e-02" rms="1.7766647040843964e-01" purity="5.1188874244689941e-01" nType="-99"/>
            <Node pos="r" depth="3" NCoef="0" IVar="-1" Cut="0.0000000000000000e+00" cType="1" res="2.5269872276112437e-04" rms="1.8063634634017944e-01" purity="5.3649151325225830e-01" nType="-99"/>
          </Node>
        </Node>
      </Node>
    </BinaryTree>
    <BinaryTree type="DecisionTree" boostWeight="1.0000000000000000e+00" itree="666">
      <Node pos="s" depth="0" NCoef="0" IVar="6" Cut="9.2209350585937500e+01" cType="1" res="1.1448806617408991e-03" rms="1.8288916349411011e-01" purity="5.0328755378723145e-01" nType="0">
        <Node pos="l" depth="1" NCoef="0" IVar="5" Cut="9.7205024719238281e+01" cType="1" res="5.1670176908373833e-03" rms="1.7818205058574677e-01" purity="1.6680197417736053e-01" nType="0">
          <Node pos="l" depth="2" NCoef="0" IVar="1" Cut="1.6355301513671875e+03" cType="1" res="-5.5088703520596027e-03" rms="9.1747932136058807e-02" purity="2.2261710837483406e-02" nType="0">
            <Node pos="l" depth="3" NCoef="0" IVar="-1" Cut="0.0000000000000000e+00" cType="1" res="-9.2053487896919250e-02" rms="1.2206329964101315e-02" purity="1.3461364142131060e-04" nType="-99"/>
            <Node pos="r" depth="3" NCoef="0" IVar="-1" Cut="0.0000000000000000e+00" cType="1" res="-3.7875555455684662e-02" rms="1.4752462506294250e-01" purity="5.8170724660158157e-02" nType="-99"/>
          </Node>
          <Node pos="r" depth="2" NCoef="0" IVar="9" Cut="-3.9974465966224670e-01" cType="1" res="9.6598528325557709e-03" rms="2.0371392369270325e-01" purity="2.2763022780418396e-01" nType="0">
            <Node pos="l" depth="3" NCoef="0" IVar="-1" Cut="0.0000000000000000e+00" cType="1" res="4.4907335191965103e-02" rms="2.2493165731430054e-01" purity="2.3660013079643250e-01" nType="-99"/>
            <Node pos="r" depth="3" NCoef="0" IVar="-1" Cut="0.0000000000000000e+00" cType="1" res="7.9661617055535316e-03" rms="1.8909090757369995e-01" purity="2.2207936644554138e-01" nType="-99"/>
          </Node>
        </Node>
        <Node pos="r" depth="1" NCoef="0" IVar="9" Cut="6.6632443666458130e-01" cType="1" res="-6.9908413570374250e-04" rms="1.8497790396213531e-01" purity="6.5755069255828857e-01" nType="0">
          <Node pos="l" depth="2" NCoef="0" IVar="5" Cut="2.4903506469726562e+02" cType="1" res="-3.0344577971845865e-03" rms="1.7677076160907745e-01" purity="6.7321282625198364e-01" nType="0">
            <Node pos="l" depth="3" NCoef="0" IVar="-1" Cut="0.0000000000000000e+00" cType="1" res="-1.8515687435865402e-02" rms="2.0170800387859344e-01" purity="2.5047299265861511e-01" nType="-99"/>
            <Node pos="r" depth="3" NCoef="0" IVar="-1" Cut="0.0000000000000000e+00" cType="1" res="3.6874413490295410e-04" rms="1.6061677038669586e-01" purity="9.1612303256988525e-01" nType="-99"/>
          </Node>
          <Node pos="r" depth="2" NCoef="0" IVar="0" Cut="6.6440136718750000e+02" cType="1" res="5.6195296347141266e-03" rms="2.0541396737098694e-01" purity="6.1517506837844849e-01" nType="0">
            <Node pos="l" depth="3" NCoef="0" IVar="-1" Cut="0.0000000000000000e+00" cType="1" res="2.5898005813360214e-02" rms="2.4703583121299744e-01" purity="2.5555074214935303e-01" nType="-99"/>
            <Node pos="r" depth="3" NCoef="0" IVar="-1" Cut="0.0000000000000000e+00" cType="1" res="-1.0445830412209034e-02" rms="1.6207231581211090e-01" purity="9.1624110937118530e-01" nType="-99"/>
          </Node>
        </Node>
      </Node>
    </BinaryTree>
    <BinaryTree type="DecisionTree" boostWeight="1.0000000000000000e+00" itree="667">
      <Node pos="s" depth="0" NCoef="0" IVar="10" Cut="1.9999912977218628e+00" cType="1" res="-8.0113240983337164e-04" rms="1.8455378711223602e-01" purity="5.0311046838760376e-01" nType="0">
        <Node pos="l" depth="1" NCoef="0" IVar="10" Cut="-1.8855991363525391e+00" cType="1" res="-8.6942513007670641e-05" rms="1.8339984118938446e-01" purity="5.0995731353759766e-01" nType="0">
          <Node pos="l" depth="2" NCoef="0" IVar="3" Cut="6.6904742431640625e+02" cType="1" res="-1.4233900234103203e-02" rms="2.1333023905754089e-01" purity="3.7659513950347900e-01" nType="0">
            <Node pos="l" depth="3" NCoef="0" IVar="-1" Cut="0.0000000000000000e+00" cType="1" res="-4.3048512190580368e-02" rms="2.0650728046894073e-01" purity="1.4714522659778595e-01" nType="-99"/>
            <Node pos="r" depth="3" NCoef="0" IVar="-1" Cut="0.0000000000000000e+00" cType="1" res="-7.4397702701389790e-03" rms="2.2111019492149353e-01" purity="6.6296011209487915e-01" nType="-99"/>
          </Node>
          <Node pos="r" depth="2" NCoef="0" IVar="1" Cut="1.6755983886718750e+03" cType="1" res="8.2938215928152204e-04" rms="1.8125280737876892e-01" purity="5.1859539747238159e-01" nType="0">
            <Node pos="l" depth="3" NCoef="0" IVar="-1" Cut="0.0000000000000000e+00" cType="1" res="-3.0497414991259575e-02" rms="7.7968835830688477e-02" purity="6.9439732469618320e-03" nType="-99"/>
            <Node pos="r" depth="3" NCoef="0" IVar="-1" Cut="0.0000000000000000e+00" cType="1" res="5.2607776597142220e-03" rms="2.1075469255447388e-01" purity="7.3975449800491333e-01" nType="-99"/>
          </Node>
        </Node>
        <Node pos="r" depth="1" NCoef="0" IVar="-1" Cut="0.0000000000000000e+00" cType="1" res="-3.2862272113561630e-02" rms="2.0657254755496979e-01" purity="3.6049526929855347e-01" nType="-99"/>
      </Node>
    </BinaryTree>
    <BinaryTree type="DecisionTree" boostWeight="1.0000000000000000e+00" itree="668">
      <Node pos="s" depth="0" NCoef="0" IVar="9" Cut="9.3325734138488770e-01" cType="1" res="-4.3682835530489683e-04" rms="1.8242575228214264e-01" purity="5.0129622220993042e-01" nType="0">
        <Node pos="l" depth="1" NCoef="0" IVar="9" Cut="-1.7332869768142700e+00" cType="1" res="1.2536136200651526e-03" rms="1.7876456677913666e-01" purity="5.2334910631179810e-01" nType="0">
          <Node pos="l" depth="2" NCoef="0" IVar="8" Cut="-1.3258191943168640e-01" cType="1" res="-9.0225022286176682e-03" rms="1.9947272539138794e-01" purity="3.0070802569389343e-01" nType="0">
            <Node pos="l" depth="3" NCoef="0" IVar="-1" Cut="0.0000000000000000e+00" cType="1" res="5.0729648210108280e-03" rms="2.0628264546394348e-01" purity="3.0227974057197571e-01" nType="-99"/>
            <Node pos="r" depth="3" NCoef="0" IVar="-1" Cut="0.0000000000000000e+00" cType="1" res="-4.5394390821456909e-02" rms="1.9205565750598907e-01" purity="2.9919061064720154e-01" nType="-99"/>
          </Node>
          <Node pos="r" depth="2" NCoef="0" IVar="0" Cut="7.4112036132812500e+02" cType="1" res="2.0675153937190771e-03" rms="1.7699541151523590e-01" purity="5.4098302125930786e-01" nType="0">
            <Node pos="l" depth="3" NCoef="0" IVar="-1" Cut="0.0000000000000000e+00" cType="1" res="1.3705234974622726e-02" rms="1.9526053965091705e-01" purity="2.0362135767936707e-01" nType="-99"/>
            <Node pos="r" depth="3" NCoef="0" IVar="-1" Cut="0.0000000000000000e+00" cType="1" res="-5.8259801007807255e-03" rms="1.5526440739631653e-01" purity="8.9805543422698975e-01" nType="-99"/>
          </Node>
        </Node>
        <Node pos="r" depth="1" NCoef="0" IVar="10" Cut="-9.3335741758346558e-01" cType="1" res="-7.0326244458556175e-03" rms="1.9591884315013885e-01" purity="4.1524988412857056e-01" nType="0">
          <Node pos="l" depth="2" NCoef="0" IVar="-1" Cut="0.0000000000000000e+00" cType="1" res="-3.6325722932815552e-02" rms="2.0485538244247437e-01" purity="4.2703613638877869e-01" nType="-99"/>
          <Node pos="r" depth="2" NCoef="0" IVar="10" Cut="1.3316591084003448e-01" cType="1" res="-4.0404545143246651e-03" rms="1.9327116012573242e-01" purity="4.1199502348899841e-01" nType="0">
            <Node pos="l" depth="3" NCoef="0" IVar="-1" Cut="0.0000000000000000e+00" cType="1" res="9.3255173414945602e-03" rms="1.9242742657661438e-01" purity="4.5082777738571167e-01" nType="-99"/>
            <Node pos="r" depth="3" NCoef="0" IVar="-1" Cut="0.0000000000000000e+00" cType="1" res="-2.0243929699063301e-02" rms="1.9362324476242065e-01" purity="3.8994067907333374e-01" nType="-99"/>
          </Node>
        </Node>
      </Node>
    </BinaryTree>
    <BinaryTree type="DecisionTree" boostWeight="1.0000000000000000e+00" itree="669">
      <Node pos="s" depth="0" NCoef="0" IVar="8" Cut="-3.9985984563827515e-01" cType="1" res="2.8403691248968244e-04" rms="1.8025553226470947e-01" purity="5.0034415721893311e-01" nType="0">
        <Node pos="l" depth="1" NCoef="0" IVar="1" Cut="2.4050664062500000e+03" cType="1" res="-3.6220115143805742e-03" rms="1.7615449428558350e-01" purity="4.5953810214996338e-01" nType="0">
          <Node pos="l" depth="2" NCoef="0" IVar="1" Cut="1.6871549072265625e+03" cType="1" res="-7.9447785392403603e-03" rms="1.8534636497497559e-01" purity="9.5745638012886047e-02" nType="0">
            <Node pos="l" depth="3" NCoef="0" IVar="-1" Cut="0.0000000000000000e+00" cType="1" res="-8.4002865478396416e-03" rms="9.1381952166557312e-02" purity="1.0521791875362396e-02" nType="-99"/>
            <Node pos="r" depth="3" NCoef="0" IVar="-1" Cut="0.0000000000000000e+00" cType="1" res="-2.0503146573901176e-02" rms="2.7650648355484009e-01" purity="2.3444400727748871e-01" nType="-99"/>
          </Node>
          <Node pos="r" depth="2" NCoef="0" IVar="4" Cut="4.9467025756835938e+02" cType="1" res="2.3109251633286476e-03" rms="1.6250838339328766e-01" purity="9.5883804559707642e-01" nType="0">
            <Node pos="l" depth="3" NCoef="0" IVar="-1" Cut="0.0000000000000000e+00" cType="1" res="2.0561013370752335e-02" rms="2.0961479842662811e-01" purity="9.2812144756317139e-01" nType="-99"/>
            <Node pos="r" depth="3" NCoef="0" IVar="-1" Cut="0.0000000000000000e+00" cType="1" res="-8.6781382560729980e-03" rms="1.3484820723533630e-01" purity="9.7317409515380859e-01" nType="-99"/>
          </Node>
        </Node>
        <Node pos="r" depth="1" NCoef="0" IVar="6" Cut="1.2492418670654297e+02" cType="1" res="2.3961211554706097e-03" rms="1.8239980936050415e-01" purity="5.2240890264511108e-01" nType="0">
          <Node pos="l" depth="2" NCoef="0" IVar="2" Cut="6.4097024500370026e-02" cType="1" res="7.8211622312664986e-03" rms="1.9419050216674805e-01" purity="2.3533321917057037e-01" nType="0">
            <Node pos="l" depth="3" NCoef="0" IVar="-1" Cut="0.0000000000000000e+00" cType="1" res="1.3878013938665390e-02" rms="1.8586112558841705e-01" purity="1.8750248849391937e-01" nType="-99"/>
            <Node pos="r" depth="3" NCoef="0" IVar="-1" Cut="0.0000000000000000e+00" cType="1" res="4.6455025672912598e-02" rms="2.2759200632572174e-01" purity="4.5212537050247192e-01" nType="-99"/>
          </Node>
          <Node pos="r" depth="2" NCoef="0" IVar="0" Cut="5.9425408935546875e+02" cType="1" res="-2.5555186439305544e-03" rms="1.7077912390232086e-01" purity="7.8443378210067749e-01" nType="0">
            <Node pos="l" depth="3" NCoef="0" IVar="-1" Cut="0.0000000000000000e+00" cType="1" res="-2.1196644753217697e-02" rms="2.3516424000263214e-01" purity="2.2013807296752930e-01" nType="-99"/>
            <Node pos="r" depth="3" NCoef="0" IVar="-1" Cut="0.0000000000000000e+00" cType="1" res="4.3220142833888531e-03" rms="1.4645208418369293e-01" purity="9.4988775253295898e-01" nType="-99"/>
          </Node>
        </Node>
      </Node>
    </BinaryTree>
    <BinaryTree type="DecisionTree" boostWeight="1.0000000000000000e+00" itree="670">
      <Node pos="s" depth="0" NCoef="0" IVar="7" Cut="2.0662930607795715e-01" cType="1" res="9.9006132222712040e-04" rms="1.8485832214355469e-01" purity="5.0168675184249878e-01" nType="0">
        <Node pos="l" depth="1" NCoef="0" IVar="3" Cut="4.9158251953125000e+02" cType="1" res="-1.2634078739210963e-03" rms="1.7881701886653900e-01" purity="5.2337563037872314e-01" nType="0">
          <Node pos="l" depth="2" NCoef="0" IVar="1" Cut="1.6296531982421875e+03" cType="1" res="4.7741699963808060e-03" rms="1.9265590608119965e-01" purity="9.9692635238170624e-02" nType="0">
            <Node pos="l" depth="3" NCoef="0" IVar="-1" Cut="0.0000000000000000e+00" cType="1" res="-1.1493507772684097e-02" rms="9.5923148095607758e-02" purity="9.9456822499632835e-03" nType="-99"/>
            <Node pos="r" depth="3" NCoef="0" IVar="-1" Cut="0.0000000000000000e+00" cType="1" res="1.8585642799735069e-02" rms="3.1264644861221313e-01" purity="2.9542076587677002e-01" nType="-99"/>
          </Node>
          <Node pos="r" depth="2" NCoef="0" IVar="0" Cut="7.4113922119140625e+02" cType="1" res="-2.7642806526273489e-03" rms="1.7517498135566711e-01" purity="6.2869840860366821e-01" nType="0">
            <Node pos="l" depth="3" NCoef="0" IVar="-1" Cut="0.0000000000000000e+00" cType="1" res="-1.5734517946839333e-02" rms="1.9881355762481689e-01" purity="2.5751391053199768e-01" nType="-99"/>
            <Node pos="r" depth="3" NCoef="0" IVar="-1" Cut="0.0000000000000000e+00" cType="1" res="1.2089569354429841e-03" rms="1.5468265116214752e-01" purity="9.1160064935684204e-01" nType="-99"/>
          </Node>
        </Node>
        <Node pos="r" depth="1" NCoef="0" IVar="10" Cut="1.1998839378356934e+00" cType="1" res="4.4063962996006012e-03" rms="1.9360800087451935e-01" purity="4.6880564093589783e-01" nType="0">
          <Node pos="l" depth="2" NCoef="0" IVar="10" Cut="4.3801516294479370e-01" cType="1" res="2.2742077708244324e-03" rms="1.8873408436775208e-01" purity="4.7836932539939880e-01" nType="0">
            <Node pos="l" depth="3" NCoef="0" IVar="-1" Cut="0.0000000000000000e+00" cType="1" res="1.3295019045472145e-02" rms="1.9340401887893677e-01" purity="4.8583352565765381e-01" nType="-99"/>
            <Node pos="r" depth="3" NCoef="0" IVar="-1" Cut="0.0000000000000000e+00" cType="1" res="-1.4604485593736172e-02" rms="1.7426601052284241e-01" purity="4.5671531558036804e-01" nType="-99"/>
          </Node>
          <Node pos="r" depth="2" NCoef="0" IVar="9" Cut="1.3417851924896240e-01" cType="1" res="1.3339961878955364e-02" rms="2.1258652210235596e-01" purity="4.2873513698577881e-01" nType="0">
            <Node pos="l" depth="3" NCoef="0" IVar="-1" Cut="0.0000000000000000e+00" cType="1" res="5.1493933424353600e-03" rms="1.9774876534938812e-01" purity="4.6064203977584839e-01" nType="-99"/>
            <Node pos="r" depth="3" NCoef="0" IVar="-1" Cut="0.0000000000000000e+00" cType="1" res="5.0386212766170502e-02" rms="2.2487248480319977e-01" purity="3.9946243166923523e-01" nType="-99"/>
          </Node>
        </Node>
      </Node>
    </BinaryTree>
    <BinaryTree type="DecisionTree" boostWeight="1.0000000000000000e+00" itree="671">
      <Node pos="s" depth="0" NCoef="0" IVar="10" Cut="2.2663304805755615e+00" cType="1" res="1.1794934980571270e-03" rms="1.8366982042789459e-01" purity="5.0595593452453613e-01" nType="0">
        <Node pos="l" depth="1" NCoef="0" IVar="7" Cut="4.6568915247917175e-01" cType="1" res="6.5618590451776981e-04" rms="1.8173062801361084e-01" purity="5.0848644971847534e-01" nType="0">
          <Node pos="l" depth="2" NCoef="0" IVar="8" Cut="1.4670786857604980e+00" cType="1" res="1.9604624249041080e-03" rms="1.7960149049758911e-01" purity="5.4396677017211914e-01" nType="0">
            <Node pos="l" depth="3" NCoef="0" IVar="-1" Cut="0.0000000000000000e+00" cType="1" res="3.4842733293771744e-03" rms="1.7462092638015747e-01" purity="5.6531786918640137e-01" nType="-99"/>
            <Node pos="r" depth="3" NCoef="0" IVar="-1" Cut="0.0000000000000000e+00" cType="1" res="2.5550197809934616e-02" rms="2.3486332595348358e-01" purity="2.6519709825515747e-01" nType="-99"/>
          </Node>
          <Node pos="r" depth="2" NCoef="0" IVar="0" Cut="7.2966876220703125e+02" cType="1" res="-2.7558971196413040e-03" rms="1.8714311718940735e-01" purity="4.1566732525825500e-01" nType="0">
            <Node pos="l" depth="3" NCoef="0" IVar="-1" Cut="0.0000000000000000e+00" cType="1" res="-1.9356833770871162e-02" rms="1.8449148535728455e-01" purity="1.2982448935508728e-01" nType="-99"/>
            <Node pos="r" depth="3" NCoef="0" IVar="-1" Cut="0.0000000000000000e+00" cType="1" res="1.1497829109430313e-02" rms="1.9085291028022766e-01" purity="8.4588956832885742e-01" nType="-99"/>
          </Node>
        </Node>
        <Node pos="r" depth="1" NCoef="0" IVar="-1" Cut="0.0000000000000000e+00" cType="1" res="3.6499377340078354e-02" rms="2.4529168009757996e-01" purity="4.1011479496955872e-01" nType="-99"/>
      </Node>
    </BinaryTree>
    <BinaryTree type="DecisionTree" boostWeight="1.0000000000000000e+00" itree="672">
      <Node pos="s" depth="0" NCoef="0" IVar="9" Cut="1.9998749494552612e+00" cType="1" res="8.8388344738632441e-04" rms="1.8422630429267883e-01" purity="5.0272572040557861e-01" nType="0">
        <Node pos="l" depth="1" NCoef="0" IVar="8" Cut="-1.4665570259094238e+00" cType="1" res="1.4199353754520416e-03" rms="1.8378873169422150e-01" purity="5.1334339380264282e-01" nType="0">
          <Node pos="l" depth="2" NCoef="0" IVar="2" Cut="9.6685113385319710e-03" cType="1" res="-9.3343118205666542e-03" rms="1.9562481343746185e-01" purity="2.3445300757884979e-01" nType="0">
            <Node pos="l" depth="3" NCoef="0" IVar="-1" Cut="0.0000000000000000e+00" cType="1" res="-1.2514835689216852e-03" rms="1.6100403666496277e-01" purity="8.9285232126712799e-02" nType="-99"/>
            <Node pos="r" depth="3" NCoef="0" IVar="-1" Cut="0.0000000000000000e+00" cType="1" res="-2.8563356027007103e-02" rms="2.1617119014263153e-01" purity="3.3504018187522888e-01" nType="-99"/>
          </Node>
          <Node pos="r" depth="2" NCoef="0" IVar="9" Cut="1.5427329540252686e+00" cType="1" res="2.2528790868818760e-03" rms="1.8281362950801849e-01" purity="5.3494411706924438e-01" nType="0">
            <Node pos="l" depth="3" NCoef="0" IVar="-1" Cut="0.0000000000000000e+00" cType="1" res="4.7987499274313450e-03" rms="1.8018592894077301e-01" purity="5.4228162765502930e-01" nType="-99"/>
            <Node pos="r" depth="3" NCoef="0" IVar="-1" Cut="0.0000000000000000e+00" cType="1" res="3.2126825302839279e-02" rms="2.2693540155887604e-01" purity="3.9454245567321777e-01" nType="-99"/>
          </Node>
        </Node>
        <Node pos="r" depth="1" NCoef="0" IVar="-1" Cut="0.0000000000000000e+00" cType="1" res="-3.0134169384837151e-02" rms="1.9576916098594666e-01" purity="1.9729538261890411e-01" nType="-99"/>
      </Node>
    </BinaryTree>
    <BinaryTree type="DecisionTree" boostWeight="1.0000000000000000e+00" itree="673">
      <Node pos="s" depth="0" NCoef="0" IVar="6" Cut="1.2172878265380859e+02" cType="1" res="2.8326832762104459e-05" rms="1.8219293653964996e-01" purity="5.0333285331726074e-01" nType="0">
        <Node pos="l" depth="1" NCoef="0" IVar="0" Cut="8.8815887451171875e+02" cType="1" res="-2.8226824942976236e-03" rms="1.8142338097095490e-01" purity="2.0144639909267426e-01" nType="0">
          <Node pos="l" depth="2" NCoef="0" IVar="5" Cut="2.1959088134765625e+02" cType="1" res="-7.9727044794708490e-04" rms="1.7006120085716248e-01" purity="8.1338308751583099e-02" nType="0">
            <Node pos="l" depth="3" NCoef="0" IVar="-1" Cut="0.0000000000000000e+00" cType="1" res="9.6719022840261459e-03" rms="1.4329139888286591e-01" purity="3.7544064223766327e-02" nType="-99"/>
            <Node pos="r" depth="3" NCoef="0" IVar="-1" Cut="0.0000000000000000e+00" cType="1" res="-1.9375931471586227e-02" rms="2.6479923725128174e-01" purity="2.9759281873703003e-01" nType="-99"/>
          </Node>
          <Node pos="r" depth="2" NCoef="0" IVar="1" Cut="2.9462956542968750e+03" cType="1" res="-1.2964532710611820e-02" rms="2.2975721955299377e-01" purity="8.0286383628845215e-01" nType="0">
            <Node pos="l" depth="3" NCoef="0" IVar="-1" Cut="0.0000000000000000e+00" cType="1" res="-3.8112744688987732e-02" rms="3.1288763880729675e-01" purity="5.0581347942352295e-01" nType="-99"/>
            <Node pos="r" depth="3" NCoef="0" IVar="-1" Cut="0.0000000000000000e+00" cType="1" res="7.8258411958813667e-03" rms="1.6546691954135895e-01" purity="9.6588760614395142e-01" nType="-99"/>
          </Node>
        </Node>
        <Node pos="r" depth="1" NCoef="0" IVar="1" Cut="2.5217331542968750e+03" cType="1" res="2.5002169422805309e-03" rms="1.8282155692577362e-01" purity="7.6507532596588135e-01" nType="0">
          <Node pos="l" depth="2" NCoef="0" IVar="0" Cut="4.8707281494140625e+02" cType="1" res="9.1702472418546677e-03" rms="2.7847713232040405e-01" purity="2.8580203652381897e-01" nType="0">
            <Node pos="l" depth="3" NCoef="0" IVar="-1" Cut="0.0000000000000000e+00" cType="1" res="-8.6854770779609680e-03" rms="2.1219521760940552e-01" purity="8.7460838258266449e-02" nType="-99"/>
            <Node pos="r" depth="3" NCoef="0" IVar="-1" Cut="0.0000000000000000e+00" cType="1" res="2.0808350294828415e-02" rms="3.3835357427597046e-01" purity="5.1382905244827271e-01" nType="-99"/>
          </Node>
          <Node pos="r" depth="2" NCoef="0" IVar="3" Cut="8.1924243164062500e+02" cType="1" res="-5.6647567544132471e-04" rms="1.1448171734809875e-01" purity="9.8543167114257812e-01" nType="0">
            <Node pos="l" depth="3" NCoef="0" IVar="-1" Cut="0.0000000000000000e+00" cType="1" res="-2.0117990672588348e-02" rms="1.2771607935428619e-01" purity="9.8257207870483398e-01" nType="-99"/>
            <Node pos="r" depth="3" NCoef="0" IVar="-1" Cut="0.0000000000000000e+00" cType="1" res="7.9317176714539528e-03" rms="1.0464490950107574e-01" purity="9.8735004663467407e-01" nType="-99"/>
          </Node>
        </Node>
      </Node>
    </BinaryTree>
    <BinaryTree type="DecisionTree" boostWeight="1.0000000000000000e+00" itree="674">
      <Node pos="s" depth="0" NCoef="0" IVar="7" Cut="4.0496683120727539e-01" cType="1" res="1.4155904063954949e-03" rms="1.8489813804626465e-01" purity="5.0758183002471924e-01" nType="0">
        <Node pos="l" depth="1" NCoef="0" IVar="9" Cut="-3.9963790774345398e-01" cType="1" res="-8.5298484191298485e-04" rms="1.7379973828792572e-01" purity="5.4214954376220703e-01" nType="0">
          <Node pos="l" depth="2" NCoef="0" IVar="9" Cut="-7.4246007204055786e-01" cType="1" res="-5.2710026502609253e-03" rms="1.7539240419864655e-01" purity="5.0158488750457764e-01" nType="0">
            <Node pos="l" depth="3" NCoef="0" IVar="-1" Cut="0.0000000000000000e+00" cType="1" res="-6.7123123444616795e-03" rms="1.8223905563354492e-01" purity="4.7641721367835999e-01" nType="-99"/>
            <Node pos="r" depth="3" NCoef="0" IVar="-1" Cut="0.0000000000000000e+00" cType="1" res="-4.5785691589117050e-02" rms="1.5693646669387817e-01" purity="5.6388968229293823e-01" nType="-99"/>
          </Node>
          <Node pos="r" depth="2" NCoef="0" IVar="1" Cut="1.9959088134765625e+03" cType="1" res="1.6873617423698306e-03" rms="1.7282618582248688e-01" purity="5.6547415256500244e-01" nType="0">
            <Node pos="l" depth="3" NCoef="0" IVar="-1" Cut="0.0000000000000000e+00" cType="1" res="-1.0029625147581100e-02" rms="1.4073805510997772e-01" purity="3.0074216425418854e-02" nType="-99"/>
            <Node pos="r" depth="3" NCoef="0" IVar="-1" Cut="0.0000000000000000e+00" cType="1" res="1.1394157074391842e-02" rms="1.9038045406341553e-01" purity="9.0565508604049683e-01" nType="-99"/>
          </Node>
        </Node>
        <Node pos="r" depth="1" NCoef="0" IVar="1" Cut="2.7777883300781250e+03" cType="1" res="6.6351369023323059e-03" rms="2.0810496807098389e-01" purity="4.2804825305938721e-01" nType="0">
          <Node pos="l" depth="2" NCoef="0" IVar="5" Cut="1.5679165649414062e+02" cType="1" res="1.0628430172801018e-02" rms="2.3395459353923798e-01" purity="1.8819525837898254e-01" nType="0">
            <Node pos="l" depth="3" NCoef="0" IVar="-1" Cut="0.0000000000000000e+00" cType="1" res="4.3374458327889442e-03" rms="1.4309336245059967e-01" purity="3.7874832749366760e-02" nType="-99"/>
            <Node pos="r" depth="3" NCoef="0" IVar="-1" Cut="0.0000000000000000e+00" cType="1" res="2.4576557800173759e-02" rms="2.8687995672225952e-01" purity="3.0975297093391418e-01" nType="-99"/>
          </Node>
          <Node pos="r" depth="2" NCoef="0" IVar="-1" Cut="0.0000000000000000e+00" cType="1" res="-1.6594691202044487e-02" rms="1.3035488128662109e-01" purity="9.7787714004516602e-01" nType="-99"/>
        </Node>
      </Node>
    </BinaryTree>
    <BinaryTree type="DecisionTree" boostWeight="1.0000000000000000e+00" itree="675">
      <Node pos="s" depth="0" NCoef="0" IVar="0" Cut="5.9425396728515625e+02" cType="1" res="1.0392327094450593e-03" rms="1.8538603186607361e-01" purity="5.0181955099105835e-01" nType="0">
        <Node pos="l" depth="1" NCoef="0" IVar="2" Cut="5.7837095111608505e-02" cType="1" res="4.2520500719547272e-03" rms="1.9177253544330597e-01" purity="1.0104248672723770e-01" nType="0">
          <Node pos="l" depth="2" NCoef="0" IVar="6" Cut="1.5924006652832031e+02" cType="1" res="1.2533167609944940e-03" rms="1.7032316327095032e-01" purity="6.4171805977821350e-02" nType="0">
            <Node pos="l" depth="3" NCoef="0" IVar="-1" Cut="0.0000000000000000e+00" cType="1" res="1.5107315964996815e-02" rms="1.5253464877605438e-01" purity="3.8501262664794922e-02" nType="-99"/>
            <Node pos="r" depth="3" NCoef="0" IVar="-1" Cut="0.0000000000000000e+00" cType="1" res="-1.8507873639464378e-02" rms="2.6972702145576477e-01" purity="2.6102545857429504e-01" nType="-99"/>
          </Node>
          <Node pos="r" depth="2" NCoef="0" IVar="8" Cut="-3.9781525731086731e-01" cType="1" res="1.5292862430214882e-02" rms="2.5537702441215515e-01" purity="2.3679389059543610e-01" nType="0">
            <Node pos="l" depth="3" NCoef="0" IVar="-1" Cut="0.0000000000000000e+00" cType="1" res="5.2684675902128220e-02" rms="2.6496049761772156e-01" purity="2.6767265796661377e-01" nType="-99"/>
            <Node pos="r" depth="3" NCoef="0" IVar="-1" Cut="0.0000000000000000e+00" cType="1" res="1.0194600559771061e-02" rms="2.4947080016136169e-01" purity="2.1986775100231171e-01" nType="-99"/>
          </Node>
        </Node>
        <Node pos="r" depth="1" NCoef="0" IVar="8" Cut="-1.4659359455108643e+00" cType="1" res="-1.0902406647801399e-03" rms="1.8099749088287354e-01" purity="7.6745688915252686e-01" nType="0">
          <Node pos="l" depth="2" NCoef="0" IVar="-1" Cut="0.0000000000000000e+00" cType="1" res="2.4161262437701225e-02" rms="2.5123777985572815e-01" purity="5.2077555656433105e-01" nType="-99"/>
          <Node pos="r" depth="2" NCoef="0" IVar="1" Cut="2.5918122558593750e+03" cType="1" res="-1.9802027381956577e-03" rms="1.7660041153430939e-01" purity="7.8010082244873047e-01" nType="0">
            <Node pos="l" depth="3" NCoef="0" IVar="-1" Cut="0.0000000000000000e+00" cType="1" res="-1.2845835648477077e-02" rms="2.6279354095458984e-01" purity="2.7658757567405701e-01" nType="-99"/>
            <Node pos="r" depth="3" NCoef="0" IVar="-1" Cut="0.0000000000000000e+00" cType="1" res="4.9985367804765701e-03" rms="1.2753564119338989e-01" purity="9.7812360525131226e-01" nType="-99"/>
          </Node>
        </Node>
      </Node>
    </BinaryTree>
    <BinaryTree type="DecisionTree" boostWeight="1.0000000000000000e+00" itree="676">
      <Node pos="s" depth="0" NCoef="0" IVar="8" Cut="-1.4666815996170044e+00" cType="1" res="-5.1075685769319534e-04" rms="1.8464019894599915e-01" purity="5.0137925148010254e-01" nType="0">
        <Node pos="l" depth="1" NCoef="0" IVar="5" Cut="1.7365203857421875e+02" cType="1" res="-1.1532433331012726e-02" rms="2.0264101028442383e-01" purity="2.0705343782901764e-01" nType="0">
          <Node pos="l" depth="2" NCoef="0" IVar="-1" Cut="0.0000000000000000e+00" cType="1" res="4.2793620377779007e-03" rms="1.5755215287208557e-01" purity="5.9119261801242828e-02" nType="-99"/>
          <Node pos="r" depth="2" NCoef="0" IVar="-1" Cut="0.0000000000000000e+00" cType="1" res="-4.0101118385791779e-02" rms="2.4393138289451599e-01" purity="3.7864780426025391e-01" nType="-99"/>
        </Node>
        <Node pos="r" depth="1" NCoef="0" IVar="4" Cut="4.1980609130859375e+02" cType="1" res="3.1495100120082498e-04" rms="1.8319374322891235e-01" purity="5.2342921495437622e-01" nType="0">
          <Node pos="l" depth="2" NCoef="0" IVar="6" Cut="1.3310166931152344e+02" cType="1" res="3.5490260925143957e-03" rms="2.0275126397609711e-01" purity="1.8640843033790588e-01" nType="0">
            <Node pos="l" depth="3" NCoef="0" IVar="-1" Cut="0.0000000000000000e+00" cType="1" res="2.0279617980122566e-02" rms="1.8005849421024323e-01" purity="8.6421400308609009e-02" nType="-99"/>
            <Node pos="r" depth="3" NCoef="0" IVar="-1" Cut="0.0000000000000000e+00" cType="1" res="-4.4279191642999649e-03" rms="2.4890933930873871e-01" purity="4.2703431844711304e-01" nType="-99"/>
          </Node>
          <Node pos="r" depth="2" NCoef="0" IVar="0" Cut="5.9436914062500000e+02" cType="1" res="-3.0645465012639761e-03" rms="1.6015639901161194e-01" purity="8.7560427188873291e-01" nType="0">
            <Node pos="l" depth="3" NCoef="0" IVar="-1" Cut="0.0000000000000000e+00" cType="1" res="-2.2230185568332672e-02" rms="2.5951215624809265e-01" purity="3.2523041963577271e-01" nType="-99"/>
            <Node pos="r" depth="3" NCoef="0" IVar="-1" Cut="0.0000000000000000e+00" cType="1" res="-4.2184148915112019e-03" rms="1.3713730871677399e-01" purity="9.6544790267944336e-01" nType="-99"/>
          </Node>
        </Node>
      </Node>
    </BinaryTree>
    <BinaryTree type="DecisionTree" boostWeight="1.0000000000000000e+00" itree="677">
      <Node pos="s" depth="0" NCoef="0" IVar="1" Cut="1.6979534912109375e+03" cType="1" res="-9.8070537205785513e-04" rms="1.8317189812660217e-01" purity="4.9809655547142029e-01" nType="0">
        <Node pos="l" depth="1" NCoef="0" IVar="4" Cut="3.0961120605468750e+02" cType="1" res="2.6039839722216129e-03" rms="1.0922937095165253e-01" purity="1.5045796521008015e-02" nType="0">
          <Node pos="l" depth="2" NCoef="0" IVar="2" Cut="7.4792444705963135e-02" cType="1" res="-8.0961041385307908e-04" rms="8.9780531823635101e-02" purity="9.7542190924286842e-03" nType="0">
            <Node pos="l" depth="3" NCoef="0" IVar="-1" Cut="0.0000000000000000e+00" cType="1" res="6.1710402369499207e-03" rms="8.9673392474651337e-02" purity="9.5518017187714577e-03" nType="-99"/>
            <Node pos="r" depth="3" NCoef="0" IVar="-1" Cut="0.0000000000000000e+00" cType="1" res="-5.5353660136461258e-02" rms="8.9987710118293762e-02" purity="1.1171566322445869e-02" nType="-99"/>
          </Node>
          <Node pos="r" depth="2" NCoef="0" IVar="0" Cut="4.0104998779296875e+02" cType="1" res="1.0834862478077412e-02" rms="1.4549161493778229e-01" purity="2.7804877609014511e-02" nType="0">
            <Node pos="l" depth="3" NCoef="0" IVar="-1" Cut="0.0000000000000000e+00" cType="1" res="-2.7066361159086227e-02" rms="8.6844846606254578e-02" purity="7.6092104427516460e-03" nType="-99"/>
            <Node pos="r" depth="3" NCoef="0" IVar="-1" Cut="0.0000000000000000e+00" cType="1" res="1.4216038584709167e-01" rms="2.0732519030570984e-01" purity="6.1319552361965179e-02" nType="-99"/>
          </Node>
        </Node>
        <Node pos="r" depth="1" NCoef="0" IVar="6" Cut="8.7462120056152344e+01" cType="1" res="-2.8083883225917816e-03" rms="2.1110574901103973e-01" purity="7.4438387155532837e-01" nType="0">
          <Node pos="l" depth="2" NCoef="0" IVar="9" Cut="3.9997062087059021e-01" cType="1" res="-1.3127433136105537e-02" rms="2.4488535523414612e-01" purity="3.5715600848197937e-01" nType="0">
            <Node pos="l" depth="3" NCoef="0" IVar="-1" Cut="0.0000000000000000e+00" cType="1" res="-3.5633325576782227e-02" rms="2.3221400380134583e-01" purity="3.6083161830902100e-01" nType="-99"/>
            <Node pos="r" depth="3" NCoef="0" IVar="-1" Cut="0.0000000000000000e+00" cType="1" res="1.6712453216314316e-03" rms="2.6371669769287109e-01" purity="3.5113143920898438e-01" nType="-99"/>
          </Node>
          <Node pos="r" depth="2" NCoef="0" IVar="5" Cut="1.9263099670410156e+02" cType="1" res="-6.4750073943287134e-04" rms="2.0325629413127899e-01" purity="8.2547235488891602e-01" nType="0">
            <Node pos="l" depth="3" NCoef="0" IVar="-1" Cut="0.0000000000000000e+00" cType="1" res="-1.6420355066657066e-02" rms="2.8525659441947937e-01" purity="3.6812052130699158e-01" nType="-99"/>
            <Node pos="r" depth="3" NCoef="0" IVar="-1" Cut="0.0000000000000000e+00" cType="1" res="3.5833392757922411e-03" rms="1.8876849114894867e-01" purity="8.8996869325637817e-01" nType="-99"/>
          </Node>
        </Node>
      </Node>
    </BinaryTree>
    <BinaryTree type="DecisionTree" boostWeight="1.0000000000000000e+00" itree="678">
      <Node pos="s" depth="0" NCoef="0" IVar="4" Cut="5.2629669189453125e+02" cType="1" res="1.6515571624040604e-03" rms="1.8622800707817078e-01" purity="5.0742614269256592e-01" nType="0">
        <Node pos="l" depth="1" NCoef="0" IVar="4" Cut="2.7807397460937500e+02" cType="1" res="3.4459773451089859e-03" rms="2.0281772315502167e-01" purity="2.9983380436897278e-01" nType="0">
          <Node pos="l" depth="2" NCoef="0" IVar="2" Cut="7.2112381458282471e-02" cType="1" res="-1.3075732858851552e-03" rms="1.4675132930278778e-01" purity="5.9238776564598083e-02" nType="0">
            <Node pos="l" depth="3" NCoef="0" IVar="-1" Cut="0.0000000000000000e+00" cType="1" res="2.2449835669249296e-03" rms="1.4775048196315765e-01" purity="5.7463020086288452e-02" nType="-99"/>
            <Node pos="r" depth="3" NCoef="0" IVar="-1" Cut="0.0000000000000000e+00" cType="1" res="-4.5528508722782135e-02" rms="1.3827405869960785e-01" purity="7.2519972920417786e-02" nType="-99"/>
          </Node>
          <Node pos="r" depth="2" NCoef="0" IVar="9" Cut="-1.7332340478897095e+00" cType="1" res="6.4027886837720871e-03" rms="2.3087503015995026e-01" purity="4.4948911666870117e-01" nType="0">
            <Node pos="l" depth="3" NCoef="0" IVar="-1" Cut="0.0000000000000000e+00" cType="1" res="3.9963789284229279e-02" rms="2.7423191070556641e-01" purity="3.6135759949684143e-01" nType="-99"/>
            <Node pos="r" depth="3" NCoef="0" IVar="-1" Cut="0.0000000000000000e+00" cType="1" res="9.4902608543634415e-03" rms="2.2755031287670135e-01" purity="4.5551905035972595e-01" nType="-99"/>
          </Node>
        </Node>
        <Node pos="r" depth="1" NCoef="0" IVar="0" Cut="7.1809185791015625e+02" cType="1" res="-2.0962979178875685e-03" rms="1.4553293585777283e-01" purity="9.4100677967071533e-01" nType="0">
          <Node pos="l" depth="2" NCoef="0" IVar="-1" Cut="0.0000000000000000e+00" cType="1" res="-1.6264673322439194e-02" rms="2.6256039738655090e-01" purity="7.1808224916458130e-01" nType="-99"/>
          <Node pos="r" depth="2" NCoef="0" IVar="2" Cut="4.1793942451477051e-02" cType="1" res="-2.6208060444332659e-04" rms="1.0820274055004120e-01" purity="9.8512500524520874e-01" nType="0">
            <Node pos="l" depth="3" NCoef="0" IVar="-1" Cut="0.0000000000000000e+00" cType="1" res="-1.2560579925775528e-02" rms="1.5727183222770691e-01" purity="9.6613848209381104e-01" nType="-99"/>
            <Node pos="r" depth="3" NCoef="0" IVar="-1" Cut="0.0000000000000000e+00" cType="1" res="1.6143299639225006e-02" rms="7.3113664984703064e-02" purity="9.9439167976379395e-01" nType="-99"/>
          </Node>
        </Node>
      </Node>
    </BinaryTree>
    <BinaryTree type="DecisionTree" boostWeight="1.0000000000000000e+00" itree="679">
      <Node pos="s" depth="0" NCoef="0" IVar="7" Cut="-8.7951701879501343e-01" cType="1" res="-1.4515342190861702e-03" rms="1.8550588190555573e-01" purity="4.9542784690856934e-01" nType="0">
        <Node pos="l" depth="1" NCoef="0" IVar="6" Cut="1.1064466857910156e+02" cType="1" res="6.1749569140374660e-03" rms="1.9387859106063843e-01" purity="2.8133860230445862e-01" nType="0">
          <Node pos="l" depth="2" NCoef="0" IVar="10" Cut="4.0047934651374817e-01" cType="1" res="-3.7116047460585833e-03" rms="1.4601346850395203e-01" purity="7.2719320654869080e-02" nType="0">
            <Node pos="l" depth="3" NCoef="0" IVar="-1" Cut="0.0000000000000000e+00" cType="1" res="-3.6751262843608856e-02" rms="1.3009147346019745e-01" purity="6.2200315296649933e-02" nType="-99"/>
            <Node pos="r" depth="3" NCoef="0" IVar="-1" Cut="0.0000000000000000e+00" cType="1" res="1.6785398125648499e-02" rms="1.7214486002922058e-01" purity="9.2879690229892731e-02" nType="-99"/>
          </Node>
          <Node pos="r" depth="2" NCoef="0" IVar="7" Cut="-1.3170859813690186e+00" cType="1" res="1.6364485025405884e-02" rms="2.3270553350448608e-01" purity="4.9635091423988342e-01" nType="0">
            <Node pos="l" depth="3" NCoef="0" IVar="-1" Cut="0.0000000000000000e+00" cType="1" res="2.0862327888607979e-02" rms="2.4694119393825531e-01" purity="2.4235780537128448e-01" nType="-99"/>
            <Node pos="r" depth="3" NCoef="0" IVar="-1" Cut="0.0000000000000000e+00" cType="1" res="4.1657075285911560e-02" rms="2.2380474209785461e-01" purity="6.4595311880111694e-01" nType="-99"/>
          </Node>
        </Node>
        <Node pos="r" depth="1" NCoef="0" IVar="9" Cut="-9.3338727951049805e-01" cType="1" res="-2.7658718172460794e-03" rms="1.8399253487586975e-01" purity="5.3232365846633911e-01" nType="0">
          <Node pos="l" depth="2" NCoef="0" IVar="7" Cut="6.9544124603271484e-01" cType="1" res="3.6173469852656126e-03" rms="2.0294983685016632e-01" purity="4.7552374005317688e-01" nType="0">
            <Node pos="l" depth="3" NCoef="0" IVar="-1" Cut="0.0000000000000000e+00" cType="1" res="-1.6113690799102187e-03" rms="1.8896201252937317e-01" purity="5.3363722562789917e-01" nType="-99"/>
            <Node pos="r" depth="3" NCoef="0" IVar="-1" Cut="0.0000000000000000e+00" cType="1" res="3.1737696379423141e-02" rms="2.4058592319488525e-01" purity="2.9615116119384766e-01" nType="-99"/>
          </Node>
          <Node pos="r" depth="2" NCoef="0" IVar="8" Cut="1.7323220968246460e+00" cType="1" res="-4.4248360209167004e-03" rms="1.7869943380355835e-01" purity="5.4708564281463623e-01" nType="0">
            <Node pos="l" depth="3" NCoef="0" IVar="-1" Cut="0.0000000000000000e+00" cType="1" res="-1.5984266996383667e-02" rms="1.7571076750755310e-01" purity="5.5921036005020142e-01" nType="-99"/>
            <Node pos="r" depth="3" NCoef="0" IVar="-1" Cut="0.0000000000000000e+00" cType="1" res="2.3272406309843063e-02" rms="2.4220101535320282e-01" purity="2.3764897882938385e-01" nType="-99"/>
          </Node>
        </Node>
      </Node>
    </BinaryTree>
    <BinaryTree type="DecisionTree" boostWeight="1.0000000000000000e+00" itree="680">
      <Node pos="s" depth="0" NCoef="0" IVar="2" Cut="2.1365730091929436e-02" cType="1" res="3.2970542088150978e-04" rms="1.8326503038406372e-01" purity="5.0219124555587769e-01" nType="0">
        <Node pos="l" depth="1" NCoef="0" IVar="2" Cut="7.1218945086002350e-03" cType="1" res="4.5773144811391830e-03" rms="1.9575355947017670e-01" purity="2.6265650987625122e-01" nType="0">
          <Node pos="l" depth="2" NCoef="0" IVar="7" Cut="-1.1878659725189209e+00" cType="1" res="-2.2069385740906000e-03" rms="1.6510924696922302e-01" purity="1.7244015634059906e-01" nType="0">
            <Node pos="l" depth="3" NCoef="0" IVar="-1" Cut="0.0000000000000000e+00" cType="1" res="-7.3794923722743988e-02" rms="1.0531535744667053e-01" purity="3.2803468406200409e-02" nType="-99"/>
            <Node pos="r" depth="3" NCoef="0" IVar="-1" Cut="0.0000000000000000e+00" cType="1" res="1.4262588229030371e-04" rms="1.7664405703544617e-01" purity="2.0670573413372040e-01" nType="-99"/>
          </Node>
          <Node pos="r" depth="2" NCoef="0" IVar="2" Cut="1.8652403727173805e-02" cType="1" res="9.5062972977757454e-03" rms="2.1516506373882294e-01" purity="3.2820168137550354e-01" nType="0">
            <Node pos="l" depth="3" NCoef="0" IVar="-1" Cut="0.0000000000000000e+00" cType="1" res="2.9905943199992180e-02" rms="2.1887677907943726e-01" purity="3.1750005483627319e-01" nType="-99"/>
            <Node pos="r" depth="3" NCoef="0" IVar="-1" Cut="0.0000000000000000e+00" cType="1" res="-2.3920880630612373e-02" rms="1.9355575740337372e-01" purity="3.8398015499114990e-01" nType="-99"/>
          </Node>
        </Node>
        <Node pos="r" depth="1" NCoef="0" IVar="6" Cut="1.6048423767089844e+02" cType="1" res="-2.1571698598563671e-03" rms="1.7549370229244232e-01" purity="6.4243322610855103e-01" nType="0">
          <Node pos="l" depth="2" NCoef="0" IVar="5" Cut="2.6155072021484375e+02" cType="1" res="-6.3209761865437031e-03" rms="1.9424358010292053e-01" purity="3.5393825173377991e-01" nType="0">
            <Node pos="l" depth="3" NCoef="0" IVar="-1" Cut="0.0000000000000000e+00" cType="1" res="-2.5334889069199562e-02" rms="1.8588185310363770e-01" purity="1.7531742155551910e-01" nType="-99"/>
            <Node pos="r" depth="3" NCoef="0" IVar="-1" Cut="0.0000000000000000e+00" cType="1" res="8.0167660489678383e-03" rms="2.1330101788043976e-01" purity="7.9861575365066528e-01" nType="-99"/>
          </Node>
          <Node pos="r" depth="2" NCoef="0" IVar="4" Cut="3.3756146240234375e+02" cType="1" res="1.4934448990970850e-03" rms="1.5713503956794739e-01" purity="8.9537101984024048e-01" nType="0">
            <Node pos="l" depth="3" NCoef="0" IVar="-1" Cut="0.0000000000000000e+00" cType="1" res="2.4009941145777702e-02" rms="2.8171262145042419e-01" purity="3.7973824143409729e-01" nType="-99"/>
            <Node pos="r" depth="3" NCoef="0" IVar="-1" Cut="0.0000000000000000e+00" cType="1" res="-3.9712176658213139e-03" rms="1.3247801363468170e-01" purity="9.6232980489730835e-01" nType="-99"/>
          </Node>
        </Node>
      </Node>
    </BinaryTree>
    <BinaryTree type="DecisionTree" boostWeight="1.0000000000000000e+00" itree="681">
      <Node pos="s" depth="0" NCoef="0" IVar="8" Cut="1.4667034149169922e+00" cType="1" res="-6.4137071603909135e-04" rms="1.8567390739917755e-01" purity="4.9588051438331604e-01" nType="0">
        <Node pos="l" depth="1" NCoef="0" IVar="7" Cut="-1.3813232183456421e+00" cType="1" res="3.0404509743675590e-04" rms="1.8375916779041290e-01" purity="5.1715683937072754e-01" nType="0">
          <Node pos="l" depth="2" NCoef="0" IVar="-1" Cut="0.0000000000000000e+00" cType="1" res="-4.9274366348981857e-02" rms="1.5081380307674408e-01" purity="9.5390990376472473e-02" nType="-99"/>
          <Node pos="r" depth="2" NCoef="0" IVar="9" Cut="1.4665625095367432e+00" cType="1" res="9.7006384748965502e-04" rms="1.8528959155082703e-01" purity="5.3911119699478149e-01" nType="0">
            <Node pos="l" depth="3" NCoef="0" IVar="-1" Cut="0.0000000000000000e+00" cType="1" res="1.6980471627903171e-05" rms="1.8014001846313477e-01" purity="5.5385041236877441e-01" nType="-99"/>
            <Node pos="r" depth="3" NCoef="0" IVar="-1" Cut="0.0000000000000000e+00" cType="1" res="2.1089863032102585e-02" rms="2.3018252849578857e-01" purity="3.9222592115402222e-01" nType="-99"/>
          </Node>
        </Node>
        <Node pos="r" depth="1" NCoef="0" IVar="5" Cut="1.6739498901367188e+02" cType="1" res="-1.2746650725603104e-02" rms="2.0826435089111328e-01" purity="2.2345483303070068e-01" nType="0">
          <Node pos="l" depth="2" NCoef="0" IVar="-1" Cut="0.0000000000000000e+00" cType="1" res="7.7771843643859029e-04" rms="1.5994819998741150e-01" purity="6.3701197504997253e-02" nType="-99"/>
          <Node pos="r" depth="2" NCoef="0" IVar="-1" Cut="0.0000000000000000e+00" cType="1" res="-4.0202178061008453e-02" rms="2.4976366758346558e-01" purity="3.9758527278900146e-01" nType="-99"/>
        </Node>
      </Node>
    </BinaryTree>
    <BinaryTree type="DecisionTree" boostWeight="1.0000000000000000e+00" itree="682">
      <Node pos="s" depth="0" NCoef="0" IVar="7" Cut="9.3856668472290039e-01" cType="1" res="-6.3781824428588152e-04" rms="1.8352763354778290e-01" purity="4.9299493432044983e-01" nType="0">
        <Node pos="l" depth="1" NCoef="0" IVar="10" Cut="6.6670525074005127e-01" cType="1" res="6.2975415494292974e-04" rms="1.8325781822204590e-01" purity="5.3034627437591553e-01" nType="0">
          <Node pos="l" depth="2" NCoef="0" IVar="6" Cut="8.5864540100097656e+01" cType="1" res="-1.6611097380518913e-03" rms="1.7555516958236694e-01" purity="5.2729839086532593e-01" nType="0">
            <Node pos="l" depth="3" NCoef="0" IVar="-1" Cut="0.0000000000000000e+00" cType="1" res="1.1480863206088543e-02" rms="1.7111039161682129e-01" purity="1.6187597811222076e-01" nType="-99"/>
            <Node pos="r" depth="3" NCoef="0" IVar="-1" Cut="0.0000000000000000e+00" cType="1" res="-1.0613427497446537e-02" rms="1.7707379162311554e-01" purity="6.5724492073059082e-01" nType="-99"/>
          </Node>
          <Node pos="r" depth="2" NCoef="0" IVar="1" Cut="2.2413142089843750e+03" cType="1" res="5.9875515289604664e-03" rms="2.0001588761806488e-01" purity="5.3747445344924927e-01" nType="0">
            <Node pos="l" depth="3" NCoef="0" IVar="-1" Cut="0.0000000000000000e+00" cType="1" res="2.9483456164598465e-02" rms="2.2131721675395966e-01" purity="1.0389287769794464e-01" nType="-99"/>
            <Node pos="r" depth="3" NCoef="0" IVar="-1" Cut="0.0000000000000000e+00" cType="1" res="-4.7408491373062134e-03" rms="1.7743083834648132e-01" purity="9.4370055198669434e-01" nType="-99"/>
          </Node>
        </Node>
        <Node pos="r" depth="1" NCoef="0" IVar="1" Cut="1.6029902343750000e+03" cType="1" res="-9.2464927583932877e-03" rms="1.8512022495269775e-01" purity="2.3932456970214844e-01" nType="0">
          <Node pos="l" depth="2" NCoef="0" IVar="9" Cut="1.3268129527568817e-01" cType="1" res="-4.2349211071268655e-06" rms="9.5189079642295837e-02" purity="9.4990916550159454e-03" nType="0">
            <Node pos="l" depth="3" NCoef="0" IVar="-1" Cut="0.0000000000000000e+00" cType="1" res="4.7062892466783524e-02" rms="1.1780572682619095e-01" purity="1.4836750924587250e-02" nType="-99"/>
            <Node pos="r" depth="3" NCoef="0" IVar="-1" Cut="0.0000000000000000e+00" cType="1" res="-5.8960750699043274e-02" rms="6.2640219926834106e-02" purity="3.8575346115976572e-03" nType="-99"/>
          </Node>
          <Node pos="r" depth="2" NCoef="0" IVar="3" Cut="5.8148925781250000e+02" cType="1" res="-1.5963481739163399e-02" rms="2.2909188270568848e-01" purity="4.0635463595390320e-01" nType="0">
            <Node pos="l" depth="3" NCoef="0" IVar="-1" Cut="0.0000000000000000e+00" cType="1" res="-3.4625548869371414e-02" rms="2.5478735566139221e-01" purity="2.3576524853706360e-01" nType="-99"/>
            <Node pos="r" depth="3" NCoef="0" IVar="-1" Cut="0.0000000000000000e+00" cType="1" res="-1.7917264252901077e-02" rms="2.1223421394824982e-01" purity="5.0612831115722656e-01" nType="-99"/>
          </Node>
        </Node>
      </Node>
    </BinaryTree>
    <BinaryTree type="DecisionTree" boostWeight="1.0000000000000000e+00" itree="683">
      <Node pos="s" depth="0" NCoef="0" IVar="8" Cut="1.2000445127487183e+00" cType="1" res="9.4210455426946282e-04" rms="1.8434028327465057e-01" purity="4.9368810653686523e-01" nType="0">
        <Node pos="l" depth="1" NCoef="0" IVar="2" Cut="1.4627401530742645e-01" cType="1" res="1.8721360247582197e-03" rms="1.8112067878246307e-01" purity="5.1959419250488281e-01" nType="0">
          <Node pos="l" depth="2" NCoef="0" IVar="9" Cut="-9.3325299024581909e-01" cType="1" res="2.7440604753792286e-03" rms="1.8501818180084229e-01" purity="4.8625633120536804e-01" nType="0">
            <Node pos="l" depth="3" NCoef="0" IVar="-1" Cut="0.0000000000000000e+00" cType="1" res="1.9098240882158279e-02" rms="2.0102371275424957e-01" purity="4.1798388957977295e-01" nType="-99"/>
            <Node pos="r" depth="3" NCoef="0" IVar="-1" Cut="0.0000000000000000e+00" cType="1" res="4.1810688562691212e-03" rms="1.8050016462802887e-01" purity="5.0441062450408936e-01" nType="-99"/>
          </Node>
          <Node pos="r" depth="2" NCoef="0" IVar="-1" Cut="0.0000000000000000e+00" cType="1" res="-2.9955895617604256e-02" rms="1.3837255537509918e-01" purity="8.3688515424728394e-01" nType="-99"/>
        </Node>
        <Node pos="r" depth="1" NCoef="0" IVar="9" Cut="-3.9938744902610779e-01" cType="1" res="-6.2101362273097038e-03" rms="2.0729748904705048e-01" purity="2.9446217417716980e-01" nType="0">
          <Node pos="l" depth="2" NCoef="0" IVar="-1" Cut="0.0000000000000000e+00" cType="1" res="-3.4088999032974243e-02" rms="2.1693100035190582e-01" purity="2.8042364120483398e-01" nType="-99"/>
          <Node pos="r" depth="2" NCoef="0" IVar="7" Cut="1.2448065727949142e-01" cType="1" res="-1.3772130478173494e-04" rms="2.0198135077953339e-01" purity="3.0155888199806213e-01" nType="0">
            <Node pos="l" depth="3" NCoef="0" IVar="-1" Cut="0.0000000000000000e+00" cType="1" res="-2.9486089944839478e-02" rms="1.7163527011871338e-01" purity="2.8868588805198669e-01" nType="-99"/>
            <Node pos="r" depth="3" NCoef="0" IVar="-1" Cut="0.0000000000000000e+00" cType="1" res="2.8060901910066605e-02" rms="2.3451170325279236e-01" purity="3.1808879971504211e-01" nType="-99"/>
          </Node>
        </Node>
      </Node>
    </BinaryTree>
    <BinaryTree type="DecisionTree" boostWeight="1.0000000000000000e+00" itree="684">
      <Node pos="s" depth="0" NCoef="0" IVar="3" Cut="4.9901644897460938e+02" cType="1" res="-1.2514273403212428e-03" rms="1.8579973280429840e-01" purity="4.9381238222122192e-01" nType="0">
        <Node pos="l" depth="1" NCoef="0" IVar="1" Cut="1.7862905273437500e+03" cType="1" res="-6.7983251065015793e-03" rms="1.9072912633419037e-01" purity="9.7175523638725281e-02" nType="0">
          <Node pos="l" depth="2" NCoef="0" IVar="0" Cut="4.0176409912109375e+02" cType="1" res="-1.4237198047339916e-03" rms="1.4672744274139404e-01" purity="2.7002334594726562e-02" nType="0">
            <Node pos="l" depth="3" NCoef="0" IVar="-1" Cut="0.0000000000000000e+00" cType="1" res="3.7636328488588333e-02" rms="1.4613169431686401e-01" purity="2.3031331598758698e-02" nType="-99"/>
            <Node pos="r" depth="3" NCoef="0" IVar="-1" Cut="0.0000000000000000e+00" cType="1" res="-1.8399817869067192e-02" rms="1.4688685536384583e-01" purity="2.8946036472916603e-02" nType="-99"/>
          </Node>
          <Node pos="r" depth="2" NCoef="0" IVar="-1" Cut="0.0000000000000000e+00" cType="1" res="-2.7678146958351135e-02" rms="3.3583596348762512e-01" purity="4.6268743276596069e-01" nType="-99"/>
        </Node>
        <Node pos="r" depth="1" NCoef="0" IVar="9" Cut="-1.1999777555465698e+00" cType="1" res="4.2334623867645860e-04" rms="1.8425266444683075e-01" purity="6.1356884241104126e-01" nType="0">
          <Node pos="l" depth="2" NCoef="0" IVar="1" Cut="1.9496871337890625e+03" cType="1" res="-7.3343953117728233e-03" rms="1.9900013506412506e-01" purity="4.8758396506309509e-01" nType="0">
            <Node pos="l" depth="3" NCoef="0" IVar="-1" Cut="0.0000000000000000e+00" cType="1" res="-8.7297689169645309e-03" rms="1.3392031192779541e-01" purity="2.4551261216402054e-02" nType="-99"/>
            <Node pos="r" depth="3" NCoef="0" IVar="-1" Cut="0.0000000000000000e+00" cType="1" res="-1.9491164013743401e-02" rms="2.3460443317890167e-01" purity="8.1830614805221558e-01" nType="-99"/>
          </Node>
          <Node pos="r" depth="2" NCoef="0" IVar="5" Cut="2.1286595153808594e+02" cType="1" res="1.5719467774033546e-03" rms="1.8193951249122620e-01" purity="6.3222199678421021e-01" nType="0">
            <Node pos="l" depth="3" NCoef="0" IVar="-1" Cut="0.0000000000000000e+00" cType="1" res="1.4280697330832481e-02" rms="2.0022208988666534e-01" purity="1.7340178787708282e-01" nType="-99"/>
            <Node pos="r" depth="3" NCoef="0" IVar="-1" Cut="0.0000000000000000e+00" cType="1" res="-2.6492369361221790e-03" rms="1.7021101713180542e-01" purity="9.0247356891632080e-01" nType="-99"/>
          </Node>
        </Node>
      </Node>
    </BinaryTree>
    <BinaryTree type="DecisionTree" boostWeight="1.0000000000000000e+00" itree="685">
      <Node pos="s" depth="0" NCoef="0" IVar="8" Cut="6.6669052839279175e-01" cType="1" res="-1.2251067673787475e-03" rms="1.8159151077270508e-01" purity="4.9968779087066650e-01" nType="0">
        <Node pos="l" depth="1" NCoef="0" IVar="10" Cut="1.1998839378356934e+00" cType="1" res="-3.0802569817751646e-03" rms="1.7457631230354309e-01" purity="5.2817440032958984e-01" nType="0">
          <Node pos="l" depth="2" NCoef="0" IVar="9" Cut="9.3328934907913208e-01" cType="1" res="-9.6838106401264668e-04" rms="1.7189495265483856e-01" purity="5.3267496824264526e-01" nType="0">
            <Node pos="l" depth="3" NCoef="0" IVar="-1" Cut="0.0000000000000000e+00" cType="1" res="-9.3653136864304543e-03" rms="1.6340340673923492e-01" purity="5.4154580831527710e-01" nType="-99"/>
            <Node pos="r" depth="3" NCoef="0" IVar="-1" Cut="0.0000000000000000e+00" cType="1" res="1.5003440901637077e-02" rms="2.0395685732364655e-01" purity="4.9493286013603210e-01" nType="-99"/>
          </Node>
          <Node pos="r" depth="2" NCoef="0" IVar="1" Cut="2.3891840820312500e+03" cType="1" res="-1.4292613603174686e-02" rms="1.8777590990066528e-01" purity="5.0428003072738647e-01" nType="0">
            <Node pos="l" depth="3" NCoef="0" IVar="-1" Cut="0.0000000000000000e+00" cType="1" res="-3.7863258272409439e-02" rms="2.0888765156269073e-01" purity="1.1233434826135635e-01" nType="-99"/>
            <Node pos="r" depth="3" NCoef="0" IVar="-1" Cut="0.0000000000000000e+00" cType="1" res="-2.5166692212224007e-02" rms="1.5981513261795044e-01" purity="9.5343160629272461e-01" nType="-99"/>
          </Node>
        </Node>
        <Node pos="r" depth="1" NCoef="0" IVar="8" Cut="1.7841382026672363e+00" cType="1" res="4.1621923446655273e-03" rms="2.0048016309738159e-01" purity="4.1696348786354065e-01" nType="0">
          <Node pos="l" depth="2" NCoef="0" IVar="4" Cut="4.6781652832031250e+02" cType="1" res="6.6161137074232101e-03" rms="2.0191706717014313e-01" purity="4.5987358689308167e-01" nType="0">
            <Node pos="l" depth="3" NCoef="0" IVar="-1" Cut="0.0000000000000000e+00" cType="1" res="2.2337077185511589e-02" rms="2.1205094456672668e-01" purity="2.5882080197334290e-01" nType="-99"/>
            <Node pos="r" depth="3" NCoef="0" IVar="-1" Cut="0.0000000000000000e+00" cType="1" res="-2.5483199860900640e-03" rms="1.7803433537483215e-01" purity="8.9086711406707764e-01" nType="-99"/>
          </Node>
          <Node pos="r" depth="2" NCoef="0" IVar="-1" Cut="0.0000000000000000e+00" cType="1" res="-2.5011381134390831e-02" rms="1.9098411500453949e-01" purity="1.5981525182723999e-01" nType="-99"/>
        </Node>
      </Node>
    </BinaryTree>
    <BinaryTree type="DecisionTree" boostWeight="1.0000000000000000e+00" itree="686">
      <Node pos="s" depth="0" NCoef="0" IVar="9" Cut="-9.3325299024581909e-01" cType="1" res="-9.8725641146302223e-04" rms="1.8166568875312805e-01" purity="4.9479737877845764e-01" nType="0">
        <Node pos="l" depth="1" NCoef="0" IVar="0" Cut="9.7224658203125000e+02" cType="1" res="-6.3902307301759720e-03" rms="1.8742962181568146e-01" purity="4.2306384444236755e-01" nType="0">
          <Node pos="l" depth="2" NCoef="0" IVar="1" Cut="1.7242541503906250e+03" cType="1" res="-1.1260883882641792e-02" rms="1.9490982592105865e-01" purity="2.5267818570137024e-01" nType="0">
            <Node pos="l" depth="3" NCoef="0" IVar="-1" Cut="0.0000000000000000e+00" cType="1" res="-2.3183111101388931e-02" rms="1.0340669006109238e-01" purity="1.2672417797148228e-02" nType="-99"/>
            <Node pos="r" depth="3" NCoef="0" IVar="-1" Cut="0.0000000000000000e+00" cType="1" res="-2.6496764272451401e-02" rms="2.6395592093467712e-01" purity="5.3265613317489624e-01" nType="-99"/>
          </Node>
          <Node pos="r" depth="2" NCoef="0" IVar="-1" Cut="0.0000000000000000e+00" cType="1" res="2.9461508616805077e-02" rms="1.6103993356227875e-01" purity="9.5286422967910767e-01" nType="-99"/>
        </Node>
        <Node pos="r" depth="1" NCoef="0" IVar="2" Cut="2.1365804597735405e-02" cType="1" res="4.1672826046124101e-04" rms="1.8011118471622467e-01" purity="5.1343762874603271e-01" nType="0">
          <Node pos="l" depth="2" NCoef="0" IVar="10" Cut="-1.4666129350662231e+00" cType="1" res="-3.9776405319571495e-03" rms="1.7948503792285919e-01" purity="2.5911387801170349e-01" nType="0">
            <Node pos="l" depth="3" NCoef="0" IVar="-1" Cut="0.0000000000000000e+00" cType="1" res="-4.0351293981075287e-02" rms="1.9661507010459900e-01" purity="1.8374466896057129e-01" nType="-99"/>
            <Node pos="r" depth="3" NCoef="0" IVar="-1" Cut="0.0000000000000000e+00" cType="1" res="-5.8101210743188858e-03" rms="1.7729751765727997e-01" purity="2.6779538393020630e-01" nType="-99"/>
          </Node>
          <Node pos="r" depth="2" NCoef="0" IVar="9" Cut="1.5554882287979126e+00" cType="1" res="2.9122007545083761e-03" rms="1.8041816353797913e-01" purity="6.5786296129226685e-01" nType="0">
            <Node pos="l" depth="3" NCoef="0" IVar="-1" Cut="0.0000000000000000e+00" cType="1" res="3.9473916403949261e-03" rms="1.7272143065929413e-01" purity="6.7589628696441650e-01" nType="-99"/>
            <Node pos="r" depth="3" NCoef="0" IVar="-1" Cut="0.0000000000000000e+00" cType="1" res="3.5666238516569138e-02" rms="2.4365034699440002e-01" purity="4.7792044281959534e-01" nType="-99"/>
          </Node>
        </Node>
      </Node>
    </BinaryTree>
    <BinaryTree type="DecisionTree" boostWeight="1.0000000000000000e+00" itree="687">
      <Node pos="s" depth="0" NCoef="0" IVar="9" Cut="1.3328893482685089e-01" cType="1" res="1.5650147106498480e-03" rms="1.8515592813491821e-01" purity="5.0127267837524414e-01" nType="0">
        <Node pos="l" depth="1" NCoef="0" IVar="8" Cut="-3.9914566278457642e-01" cType="1" res="3.7072850391268730e-03" rms="1.8510720133781433e-01" purity="5.0844222307205200e-01" nType="0">
          <Node pos="l" depth="2" NCoef="0" IVar="0" Cut="5.2047442626953125e+02" cType="1" res="-9.8208396229892969e-04" rms="1.8528811633586884e-01" purity="4.3800455331802368e-01" nType="0">
            <Node pos="l" depth="3" NCoef="0" IVar="-1" Cut="0.0000000000000000e+00" cType="1" res="2.7000283822417259e-02" rms="1.7652665078639984e-01" purity="6.8232655525207520e-02" nType="-99"/>
            <Node pos="r" depth="3" NCoef="0" IVar="-1" Cut="0.0000000000000000e+00" cType="1" res="-1.6152750700712204e-02" rms="1.8979662656784058e-01" purity="6.4386981725692749e-01" nType="-99"/>
          </Node>
          <Node pos="r" depth="2" NCoef="0" IVar="1" Cut="3.0488779296875000e+03" cType="1" res="6.3016125932335854e-03" rms="1.8495595455169678e-01" purity="5.4741084575653076e-01" nType="0">
            <Node pos="l" depth="3" NCoef="0" IVar="-1" Cut="0.0000000000000000e+00" cType="1" res="1.8945625051856041e-02" rms="2.2127345204353333e-01" purity="2.9706352949142456e-01" nType="-99"/>
            <Node pos="r" depth="3" NCoef="0" IVar="-1" Cut="0.0000000000000000e+00" cType="1" res="9.5537919551134109e-03" rms="8.9312359690666199e-02" purity="9.9171721935272217e-01" nType="-99"/>
          </Node>
        </Node>
        <Node pos="r" depth="1" NCoef="0" IVar="3" Cut="5.8101269531250000e+02" cType="1" res="-1.0161199606955051e-03" rms="1.8518172204494476e-01" purity="4.9263441562652588e-01" nType="0">
          <Node pos="l" depth="2" NCoef="0" IVar="1" Cut="1.7839770507812500e+03" cType="1" res="2.9943839181214571e-03" rms="1.9907860457897186e-01" purity="1.5528458356857300e-01" nType="0">
            <Node pos="l" depth="3" NCoef="0" IVar="-1" Cut="0.0000000000000000e+00" cType="1" res="-1.9717441871762276e-02" rms="1.2267862260341644e-01" purity="2.0585564896464348e-02" nType="-99"/>
            <Node pos="r" depth="3" NCoef="0" IVar="-1" Cut="0.0000000000000000e+00" cType="1" res="2.2541375830769539e-02" rms="3.4154000878334045e-01" purity="5.8075886964797974e-01" nType="-99"/>
          </Node>
          <Node pos="r" depth="2" NCoef="0" IVar="10" Cut="1.4662675857543945e+00" cType="1" res="-3.3071928191930056e-03" rms="1.7671233415603638e-01" purity="6.8535155057907104e-01" nType="0">
            <Node pos="l" depth="3" NCoef="0" IVar="-1" Cut="0.0000000000000000e+00" cType="1" res="-6.3729872927069664e-03" rms="1.7460854351520538e-01" purity="6.9980418682098389e-01" nType="-99"/>
            <Node pos="r" depth="3" NCoef="0" IVar="-1" Cut="0.0000000000000000e+00" cType="1" res="-3.2441470772027969e-02" rms="1.9184660911560059e-01" purity="5.7396644353866577e-01" nType="-99"/>
          </Node>
        </Node>
      </Node>
    </BinaryTree>
    <BinaryTree type="DecisionTree" boostWeight="1.0000000000000000e+00" itree="688">
      <Node pos="s" depth="0" NCoef="0" IVar="8" Cut="9.3323105573654175e-01" cType="1" res="5.2319455426186323e-04" rms="1.8493486940860748e-01" purity="5.0292617082595825e-01" nType="0">
        <Node pos="l" depth="1" NCoef="0" IVar="7" Cut="4.6625289320945740e-01" cType="1" res="2.3929302114993334e-03" rms="1.8181975185871124e-01" purity="5.3371804952621460e-01" nType="0">
          <Node pos="l" depth="2" NCoef="0" IVar="4" Cut="5.2661779785156250e+02" cType="1" res="2.4017697433009744e-04" rms="1.7299370467662811e-01" purity="5.7212507724761963e-01" nType="0">
            <Node pos="l" depth="3" NCoef="0" IVar="-1" Cut="0.0000000000000000e+00" cType="1" res="-5.1726126112043858e-03" rms="1.9169205427169800e-01" purity="3.2930570840835571e-01" nType="-99"/>
            <Node pos="r" depth="3" NCoef="0" IVar="-1" Cut="0.0000000000000000e+00" cType="1" res="2.0385237410664558e-02" rms="1.3837605714797974e-01" purity="9.5522075891494751e-01" nType="-99"/>
          </Node>
          <Node pos="r" depth="2" NCoef="0" IVar="10" Cut="1.2005399465560913e+00" cType="1" res="7.9813646152615547e-03" rms="2.0284138619899750e-01" purity="4.3401551246643066e-01" nType="0">
            <Node pos="l" depth="3" NCoef="0" IVar="-1" Cut="0.0000000000000000e+00" cType="1" res="1.4068215154111385e-02" rms="1.9632260501384735e-01" purity="4.4215455651283264e-01" nType="-99"/>
            <Node pos="r" depth="3" NCoef="0" IVar="-1" Cut="0.0000000000000000e+00" cType="1" res="4.3728172779083252e-02" rms="2.3013639450073242e-01" purity="3.9637050032615662e-01" nType="-99"/>
          </Node>
        </Node>
        <Node pos="r" depth="1" NCoef="0" IVar="0" Cut="4.2657019042968750e+02" cType="1" res="-8.4711685776710510e-03" rms="1.9899524748325348e-01" purity="3.5480177402496338e-01" nType="0">
          <Node pos="l" depth="2" NCoef="0" IVar="-1" Cut="0.0000000000000000e+00" cType="1" res="1.4283857308328152e-02" rms="1.5879487991333008e-01" purity="3.0677979812026024e-02" nType="-99"/>
          <Node pos="r" depth="2" NCoef="0" IVar="0" Cut="9.0871099853515625e+02" cType="1" res="-1.2260151095688343e-02" rms="2.1030013263225555e-01" purity="4.6038755774497986e-01" nType="0">
            <Node pos="l" depth="3" NCoef="0" IVar="-1" Cut="0.0000000000000000e+00" cType="1" res="-3.2147992402315140e-02" rms="2.1956022083759308e-01" purity="2.7195399999618530e-01" nType="-99"/>
            <Node pos="r" depth="3" NCoef="0" IVar="-1" Cut="0.0000000000000000e+00" cType="1" res="-7.8129849862307310e-04" rms="1.8586270511150360e-01" purity="9.0904170274734497e-01" nType="-99"/>
          </Node>
        </Node>
      </Node>
    </BinaryTree>
    <BinaryTree type="DecisionTree" boostWeight="1.0000000000000000e+00" itree="689">
      <Node pos="s" depth="0" NCoef="0" IVar="10" Cut="2.2665681838989258e+00" cType="1" res="1.8414172809571028e-03" rms="1.8507942557334900e-01" purity="5.0161260366439819e-01" nType="0">
        <Node pos="l" depth="1" NCoef="0" IVar="10" Cut="-1.5935682058334351e+00" cType="1" res="1.1340050259605050e-03" rms="1.8240161240100861e-01" purity="5.0437790155410767e-01" nType="0">
          <Node pos="l" depth="2" NCoef="0" IVar="10" Cut="-1.8233444690704346e+00" cType="1" res="1.1518262326717377e-02" rms="2.2941809892654419e-01" purity="4.2533776164054871e-01" nType="0">
            <Node pos="l" depth="3" NCoef="0" IVar="-1" Cut="0.0000000000000000e+00" cType="1" res="5.5865747854113579e-03" rms="2.2625811398029327e-01" purity="3.9284074306488037e-01" nType="-99"/>
            <Node pos="r" depth="3" NCoef="0" IVar="-1" Cut="0.0000000000000000e+00" cType="1" res="6.2700368463993073e-02" rms="2.3505279421806335e-01" purity="4.9631869792938232e-01" nType="-99"/>
          </Node>
          <Node pos="r" depth="2" NCoef="0" IVar="9" Cut="-1.7332019805908203e+00" cType="1" res="-5.5185737437568605e-05" rms="1.7617957293987274e-01" purity="5.1342952251434326e-01" nType="0">
            <Node pos="l" depth="3" NCoef="0" IVar="-1" Cut="0.0000000000000000e+00" cType="1" res="-2.4112613871693611e-02" rms="1.9774323701858521e-01" purity="2.8809538483619690e-01" nType="-99"/>
            <Node pos="r" depth="3" NCoef="0" IVar="-1" Cut="0.0000000000000000e+00" cType="1" res="1.4848114224150777e-03" rms="1.7486946284770966e-01" purity="5.2613383531570435e-01" nType="-99"/>
          </Node>
        </Node>
        <Node pos="r" depth="1" NCoef="0" IVar="-1" Cut="0.0000000000000000e+00" cType="1" res="4.3519608676433563e-02" rms="2.6136785745620728e-01" purity="4.0410304069519043e-01" nType="-99"/>
      </Node>
    </BinaryTree>
    <BinaryTree type="DecisionTree" boostWeight="1.0000000000000000e+00" itree="690">
      <Node pos="s" depth="0" NCoef="0" IVar="7" Cut="-7.6186984777450562e-02" cType="1" res="-1.3353120302781463e-03" rms="1.8441893160343170e-01" purity="5.0398945808410645e-01" nType="0">
        <Node pos="l" depth="1" NCoef="0" IVar="1" Cut="1.6763106689453125e+03" cType="1" res="-5.4512573406100273e-03" rms="1.7550945281982422e-01" purity="4.8420000076293945e-01" nType="0">
          <Node pos="l" depth="2" NCoef="0" IVar="1" Cut="1.5973575439453125e+03" cType="1" res="-5.5233981584024150e-06" rms="8.6160182952880859e-02" purity="9.4642927870154381e-03" nType="0">
            <Node pos="l" depth="3" NCoef="0" IVar="-1" Cut="0.0000000000000000e+00" cType="1" res="-3.8120239973068237e-02" rms="5.6558106094598770e-02" purity="3.7212909664958715e-03" nType="-99"/>
            <Node pos="r" depth="3" NCoef="0" IVar="-1" Cut="0.0000000000000000e+00" cType="1" res="4.0399253368377686e-02" rms="1.5680561959743500e-01" purity="3.2918076962232590e-02" nType="-99"/>
          </Node>
          <Node pos="r" depth="2" NCoef="0" IVar="4" Cut="3.2820120239257812e+02" cType="1" res="-8.0631971359252930e-03" rms="2.0492994785308838e-01" purity="7.1189773082733154e-01" nType="0">
            <Node pos="l" depth="3" NCoef="0" IVar="-1" Cut="0.0000000000000000e+00" cType="1" res="-3.5317812114953995e-02" rms="2.4450695514678955e-01" purity="1.9947849214076996e-01" nType="-99"/>
            <Node pos="r" depth="3" NCoef="0" IVar="-1" Cut="0.0000000000000000e+00" cType="1" res="-1.1801682412624359e-02" rms="1.9531597197055817e-01" purity="8.2082265615463257e-01" nType="-99"/>
          </Node>
        </Node>
        <Node pos="r" depth="1" NCoef="0" IVar="5" Cut="1.5559698486328125e+02" cType="1" res="2.1102472674101591e-03" rms="1.9149087369441986e-01" purity="5.2055579423904419e-01" nType="0">
          <Node pos="l" depth="2" NCoef="0" IVar="4" Cut="3.0123571777343750e+02" cType="1" res="-4.6580838970839977e-03" rms="1.5055853128433228e-01" purity="7.0319212973117828e-02" nType="0">
            <Node pos="l" depth="3" NCoef="0" IVar="-1" Cut="0.0000000000000000e+00" cType="1" res="9.7228772938251495e-03" rms="1.1958623677492142e-01" purity="2.6253519579768181e-02" nType="-99"/>
            <Node pos="r" depth="3" NCoef="0" IVar="-1" Cut="0.0000000000000000e+00" cType="1" res="-3.3829137682914734e-02" rms="1.8855288624763489e-01" purity="1.3894920051097870e-01" nType="-99"/>
          </Node>
          <Node pos="r" depth="2" NCoef="0" IVar="1" Cut="2.2938708496093750e+03" cType="1" res="4.6048937365412712e-03" rms="2.0446525514125824e-01" purity="6.8650233745574951e-01" nType="0">
            <Node pos="l" depth="3" NCoef="0" IVar="-1" Cut="0.0000000000000000e+00" cType="1" res="2.1195728331804276e-02" rms="2.7621719241142273e-01" purity="1.5688651800155640e-01" nType="-99"/>
            <Node pos="r" depth="3" NCoef="0" IVar="-1" Cut="0.0000000000000000e+00" cType="1" res="-3.7275191862136126e-03" rms="1.5331842005252838e-01" purity="9.6616011857986450e-01" nType="-99"/>
          </Node>
        </Node>
      </Node>
    </BinaryTree>
    <BinaryTree type="DecisionTree" boostWeight="1.0000000000000000e+00" itree="691">
      <Node pos="s" depth="0" NCoef="0" IVar="9" Cut="-4.0001460909843445e-01" cType="1" res="1.6738328849896789e-04" rms="1.8396300077438354e-01" purity="4.9411451816558838e-01" nType="0">
        <Node pos="l" depth="1" NCoef="0" IVar="0" Cut="7.0334600830078125e+02" cType="1" res="4.9080406315624714e-03" rms="1.9498658180236816e-01" purity="4.6157726645469666e-01" nType="0">
          <Node pos="l" depth="2" NCoef="0" IVar="1" Cut="1.7750321044921875e+03" cType="1" res="1.0527667589485645e-02" rms="2.0667743682861328e-01" purity="1.6880697011947632e-01" nType="0">
            <Node pos="l" depth="3" NCoef="0" IVar="-1" Cut="0.0000000000000000e+00" cType="1" res="1.8593676388263702e-02" rms="1.3402131199836731e-01" purity="2.1659636870026588e-02" nType="-99"/>
            <Node pos="r" depth="3" NCoef="0" IVar="-1" Cut="0.0000000000000000e+00" cType="1" res="2.7608510106801987e-02" rms="3.1170082092285156e-01" purity="4.9483352899551392e-01" nType="-99"/>
          </Node>
          <Node pos="r" depth="2" NCoef="0" IVar="6" Cut="1.3980145263671875e+02" cType="1" res="-2.3301588371396065e-03" rms="1.7854526638984680e-01" purity="8.3867162466049194e-01" nType="0">
            <Node pos="l" depth="3" NCoef="0" IVar="-1" Cut="0.0000000000000000e+00" cType="1" res="-1.6781693324446678e-02" rms="2.4965582787990570e-01" purity="5.9398114681243896e-01" nType="-99"/>
            <Node pos="r" depth="3" NCoef="0" IVar="-1" Cut="0.0000000000000000e+00" cType="1" res="1.1551080271601677e-02" rms="1.2193728983402252e-01" purity="9.7494620084762573e-01" nType="-99"/>
          </Node>
        </Node>
        <Node pos="r" depth="1" NCoef="0" IVar="0" Cut="7.3323834228515625e+02" cType="1" res="-2.5827379431575537e-03" rms="1.7719601094722748e-01" purity="5.1298987865447998e-01" nType="0">
          <Node pos="l" depth="2" NCoef="0" IVar="5" Cut="2.5531173706054688e+02" cType="1" res="-6.3191219232976437e-03" rms="1.8803505599498749e-01" purity="1.7127090692520142e-01" nType="0">
            <Node pos="l" depth="3" NCoef="0" IVar="-1" Cut="0.0000000000000000e+00" cType="1" res="-4.1246819309890270e-03" rms="1.6104540228843689e-01" purity="5.0959061831235886e-02" nType="-99"/>
            <Node pos="r" depth="3" NCoef="0" IVar="-1" Cut="0.0000000000000000e+00" cType="1" res="-3.3376622945070267e-02" rms="2.6163125038146973e-01" purity="5.9934443235397339e-01" nType="-99"/>
          </Node>
          <Node pos="r" depth="2" NCoef="0" IVar="6" Cut="8.9510231018066406e+01" cType="1" res="1.4840401709079742e-03" rms="1.6449278593063354e-01" purity="8.8492572307586670e-01" nType="0">
            <Node pos="l" depth="3" NCoef="0" IVar="-1" Cut="0.0000000000000000e+00" cType="1" res="1.9371779635548592e-02" rms="2.4894793331623077e-01" purity="5.3099006414413452e-01" nType="-99"/>
            <Node pos="r" depth="3" NCoef="0" IVar="-1" Cut="0.0000000000000000e+00" cType="1" res="-3.2125343568623066e-03" rms="1.4319860935211182e-01" purity="9.5104271173477173e-01" nType="-99"/>
          </Node>
        </Node>
      </Node>
    </BinaryTree>
    <BinaryTree type="DecisionTree" boostWeight="1.0000000000000000e+00" itree="692">
      <Node pos="s" depth="0" NCoef="0" IVar="3" Cut="5.0089886474609375e+02" cType="1" res="2.1655106684193015e-04" rms="1.8349829316139221e-01" purity="5.0358349084854126e-01" nType="0">
        <Node pos="l" depth="1" NCoef="0" IVar="1" Cut="1.6343801269531250e+03" cType="1" res="-6.0432977043092251e-03" rms="1.8126061558723450e-01" purity="9.8465897142887115e-02" nType="0">
          <Node pos="l" depth="2" NCoef="0" IVar="5" Cut="2.0830789184570312e+02" cType="1" res="-1.2635728344321251e-03" rms="1.0096848756074905e-01" purity="1.3250828720629215e-02" nType="0">
            <Node pos="l" depth="3" NCoef="0" IVar="-1" Cut="0.0000000000000000e+00" cType="1" res="-3.8577932864427567e-02" rms="7.8937530517578125e-02" purity="7.4654961936175823e-03" nType="-99"/>
            <Node pos="r" depth="3" NCoef="0" IVar="-1" Cut="0.0000000000000000e+00" cType="1" res="3.5755969583988190e-02" rms="1.4705903828144073e-01" purity="3.0076108872890472e-02" nType="-99"/>
          </Node>
          <Node pos="r" depth="2" NCoef="0" IVar="6" Cut="1.5839624023437500e+02" cType="1" res="-1.6995301470160484e-02" rms="2.9087245464324951e-01" purity="2.9372310638427734e-01" nType="0">
            <Node pos="l" depth="3" NCoef="0" IVar="-1" Cut="0.0000000000000000e+00" cType="1" res="-2.7318572625517845e-02" rms="2.7358791232109070e-01" purity="1.3721971213817596e-01" nType="-99"/>
            <Node pos="r" depth="3" NCoef="0" IVar="-1" Cut="0.0000000000000000e+00" cType="1" res="-6.3356752507388592e-03" rms="3.1071352958679199e-01" purity="4.8826718330383301e-01" nType="-99"/>
          </Node>
        </Node>
        <Node pos="r" depth="1" NCoef="0" IVar="8" Cut="-1.7332519292831421e+00" cType="1" res="2.1116775460541248e-03" rms="1.8412841856479645e-01" purity="6.2623006105422974e-01" nType="0">
          <Node pos="l" depth="2" NCoef="0" IVar="-1" Cut="0.0000000000000000e+00" cType="1" res="4.7223351895809174e-02" rms="2.3015838861465454e-01" purity="2.7496027946472168e-01" nType="-99"/>
          <Node pos="r" depth="2" NCoef="0" IVar="0" Cut="5.9424951171875000e+02" cType="1" res="1.4217286370694637e-03" rms="1.8233124911785126e-01" purity="6.3809311389923096e-01" nType="0">
            <Node pos="l" depth="3" NCoef="0" IVar="-1" Cut="0.0000000000000000e+00" cType="1" res="1.6400868073105812e-02" rms="2.0736874639987946e-01" purity="1.4713697135448456e-01" nType="-99"/>
            <Node pos="r" depth="3" NCoef="0" IVar="-1" Cut="0.0000000000000000e+00" cType="1" res="-3.2452605664730072e-03" rms="1.7056089639663696e-01" purity="8.4613585472106934e-01" nType="-99"/>
          </Node>
        </Node>
      </Node>
    </BinaryTree>
    <BinaryTree type="DecisionTree" boostWeight="1.0000000000000000e+00" itree="693">
      <Node pos="s" depth="0" NCoef="0" IVar="7" Cut="7.0783823728561401e-01" cType="1" res="2.2508809342980385e-03" rms="1.8650035560131073e-01" purity="4.9725022912025452e-01" nType="0">
        <Node pos="l" depth="1" NCoef="0" IVar="7" Cut="-1.2324923276901245e+00" cType="1" res="3.6291838623583317e-03" rms="1.8292637169361115e-01" purity="5.3522831201553345e-01" nType="0">
          <Node pos="l" depth="2" NCoef="0" IVar="9" Cut="1.3363312184810638e-01" cType="1" res="1.4762660488486290e-02" rms="2.0225110650062561e-01" purity="1.6573166847229004e-01" nType="0">
            <Node pos="l" depth="3" NCoef="0" IVar="-1" Cut="0.0000000000000000e+00" cType="1" res="6.7058331333100796e-03" rms="1.7508046329021454e-01" purity="1.4791022241115570e-01" nType="-99"/>
            <Node pos="r" depth="3" NCoef="0" IVar="-1" Cut="0.0000000000000000e+00" cType="1" res="8.0906420946121216e-02" rms="2.3005080223083496e-01" purity="1.8737162649631500e-01" nType="-99"/>
          </Node>
          <Node pos="r" depth="2" NCoef="0" IVar="8" Cut="1.3376899063587189e-01" cType="1" res="2.5311475619673729e-03" rms="1.8087156116962433e-01" purity="5.7166987657546997e-01" nType="0">
            <Node pos="l" depth="3" NCoef="0" IVar="-1" Cut="0.0000000000000000e+00" cType="1" res="1.5807235613465309e-02" rms="1.8128323554992676e-01" purity="5.8669596910476685e-01" nType="-99"/>
            <Node pos="r" depth="3" NCoef="0" IVar="-1" Cut="0.0000000000000000e+00" cType="1" res="-2.0797571633011103e-03" rms="1.8029719591140747e-01" purity="5.5267304182052612e-01" nType="-99"/>
          </Node>
        </Node>
        <Node pos="r" depth="1" NCoef="0" IVar="4" Cut="2.0100495910644531e+02" cType="1" res="-3.5004324745386839e-03" rms="2.0062592625617981e-01" purity="3.3877691626548767e-01" nType="0">
          <Node pos="l" depth="2" NCoef="0" IVar="-1" Cut="0.0000000000000000e+00" cType="1" res="1.0260330140590668e-01" rms="1.5785998106002808e-01" purity="3.8859438151121140e-02" nType="-99"/>
          <Node pos="r" depth="2" NCoef="0" IVar="9" Cut="1.1987569332122803e+00" cType="1" res="-6.5391622483730316e-03" rms="2.0668627321720123e-01" purity="3.8834050297737122e-01" nType="0">
            <Node pos="l" depth="3" NCoef="0" IVar="-1" Cut="0.0000000000000000e+00" cType="1" res="-8.9174630120396614e-03" rms="2.0554146170616150e-01" purity="4.0952926874160767e-01" nType="-99"/>
            <Node pos="r" depth="3" NCoef="0" IVar="-1" Cut="0.0000000000000000e+00" cType="1" res="-3.7996314465999603e-02" rms="2.1211412549018860e-01" purity="2.7644231915473938e-01" nType="-99"/>
          </Node>
        </Node>
      </Node>
    </BinaryTree>
    <BinaryTree type="DecisionTree" boostWeight="1.0000000000000000e+00" itree="694">
      <Node pos="s" depth="0" NCoef="0" IVar="7" Cut="1.8634465336799622e-01" cType="1" res="-1.5404871664941311e-03" rms="1.8296167254447937e-01" purity="5.0116783380508423e-01" nType="0">
        <Node pos="l" depth="1" NCoef="0" IVar="1" Cut="2.5023818359375000e+03" cType="1" res="1.7768718535080552e-03" rms="1.8353334069252014e-01" purity="5.2364516258239746e-01" nType="0">
          <Node pos="l" depth="2" NCoef="0" IVar="3" Cut="7.1611407470703125e+02" cType="1" res="5.1717730239033699e-03" rms="2.1222746372222900e-01" purity="1.2732890248298645e-01" nType="0">
            <Node pos="l" depth="3" NCoef="0" IVar="-1" Cut="0.0000000000000000e+00" cType="1" res="2.1714020986109972e-03" rms="1.9961474835872650e-01" purity="1.0764519125223160e-01" nType="-99"/>
            <Node pos="r" depth="3" NCoef="0" IVar="-1" Cut="0.0000000000000000e+00" cType="1" res="3.6809910088777542e-02" rms="2.7354848384857178e-01" purity="2.4301242828369141e-01" nType="-99"/>
          </Node>
          <Node pos="r" depth="2" NCoef="0" IVar="5" Cut="2.2025521850585938e+02" cType="1" res="-2.0381032954901457e-03" rms="1.4455386996269226e-01" purity="9.6900039911270142e-01" nType="0">
            <Node pos="l" depth="3" NCoef="0" IVar="-1" Cut="0.0000000000000000e+00" cType="1" res="-1.8532473593950272e-02" rms="2.8487378358840942e-01" purity="8.3741641044616699e-01" nType="-99"/>
            <Node pos="r" depth="3" NCoef="0" IVar="-1" Cut="0.0000000000000000e+00" cType="1" res="-5.1683904603123665e-03" rms="1.1972258985042572e-01" purity="9.8329085111618042e-01" nType="-99"/>
          </Node>
        </Node>
        <Node pos="r" depth="1" NCoef="0" IVar="1" Cut="2.5918151855468750e+03" cType="1" res="-6.4089447259902954e-03" rms="1.8201002478599548e-01" purity="4.6818080544471741e-01" nType="0">
          <Node pos="l" depth="2" NCoef="0" IVar="2" Cut="5.5606678128242493e-02" cType="1" res="-1.0153185576200485e-02" rms="2.0419482886791229e-01" purity="1.3385853171348572e-01" nType="0">
            <Node pos="l" depth="3" NCoef="0" IVar="-1" Cut="0.0000000000000000e+00" cType="1" res="-1.3793545775115490e-02" rms="1.9282761216163635e-01" purity="9.8875582218170166e-02" nType="-99"/>
            <Node pos="r" depth="3" NCoef="0" IVar="-1" Cut="0.0000000000000000e+00" cType="1" res="-3.6764729768037796e-02" rms="2.4351204931735992e-01" purity="2.7308297157287598e-01" nType="-99"/>
          </Node>
          <Node pos="r" depth="2" NCoef="0" IVar="8" Cut="-3.9920249581336975e-01" cType="1" res="-7.6801516115665436e-04" rms="1.4200937747955322e-01" purity="9.7185790538787842e-01" nType="0">
            <Node pos="l" depth="3" NCoef="0" IVar="-1" Cut="0.0000000000000000e+00" cType="1" res="-3.0945301055908203e-02" rms="1.6067586839199066e-01" purity="9.6273994445800781e-01" nType="-99"/>
            <Node pos="r" depth="3" NCoef="0" IVar="-1" Cut="0.0000000000000000e+00" cType="1" res="1.0128707624971867e-02" rms="1.3260768353939056e-01" purity="9.7598588466644287e-01" nType="-99"/>
          </Node>
        </Node>
      </Node>
    </BinaryTree>
    <BinaryTree type="DecisionTree" boostWeight="1.0000000000000000e+00" itree="695">
      <Node pos="s" depth="0" NCoef="0" IVar="9" Cut="9.3327575922012329e-01" cType="1" res="-2.2123283706605434e-03" rms="1.8068337440490723e-01" purity="4.9683153629302979e-01" nType="0">
        <Node pos="l" depth="1" NCoef="0" IVar="9" Cut="-3.1110039353370667e-01" cType="1" res="-2.9323188937269151e-04" rms="1.7832180857658386e-01" purity="5.1913368701934814e-01" nType="0">
          <Node pos="l" depth="2" NCoef="0" IVar="0" Cut="5.9407983398437500e+02" cType="1" res="-4.4319676235318184e-03" rms="1.8551810085773468e-01" purity="4.7059741616249084e-01" nType="0">
            <Node pos="l" depth="3" NCoef="0" IVar="-1" Cut="0.0000000000000000e+00" cType="1" res="-2.5045465677976608e-02" rms="1.7898541688919067e-01" purity="8.1318229436874390e-02" nType="-99"/>
            <Node pos="r" depth="3" NCoef="0" IVar="-1" Cut="0.0000000000000000e+00" cType="1" res="-2.4235295131802559e-03" rms="1.8996822834014893e-01" purity="7.4882632493972778e-01" nType="-99"/>
          </Node>
          <Node pos="r" depth="2" NCoef="0" IVar="10" Cut="1.1999062299728394e+00" cType="1" res="3.6715599708259106e-03" rms="1.7105051875114441e-01" purity="5.6563013792037964e-01" nType="0">
            <Node pos="l" depth="3" NCoef="0" IVar="-1" Cut="0.0000000000000000e+00" cType="1" res="7.5053870677947998e-03" rms="1.6306601464748383e-01" purity="5.7069426774978638e-01" nType="-99"/>
            <Node pos="r" depth="3" NCoef="0" IVar="-1" Cut="0.0000000000000000e+00" cType="1" res="2.7464149519801140e-02" rms="2.0666325092315674e-01" purity="5.3996485471725464e-01" nType="-99"/>
          </Node>
        </Node>
        <Node pos="r" depth="1" NCoef="0" IVar="3" Cut="6.2042749023437500e+02" cType="1" res="-9.8111322149634361e-03" rms="1.8955510854721069e-01" purity="4.0852448344230652e-01" nType="0">
          <Node pos="l" depth="2" NCoef="0" IVar="1" Cut="1.6867324218750000e+03" cType="1" res="-1.5444299206137657e-02" rms="1.8903928995132446e-01" purity="1.4462526142597198e-01" nType="0">
            <Node pos="l" depth="3" NCoef="0" IVar="-1" Cut="0.0000000000000000e+00" cType="1" res="-3.9394356310367584e-02" rms="9.8089963197708130e-02" purity="1.0814799927175045e-02" nType="-99"/>
            <Node pos="r" depth="3" NCoef="0" IVar="-1" Cut="0.0000000000000000e+00" cType="1" res="-3.7827979773283005e-02" rms="3.0131316184997559e-01" purity="4.2986539006233215e-01" nType="-99"/>
          </Node>
          <Node pos="r" depth="2" NCoef="0" IVar="3" Cut="7.4026885986328125e+02" cType="1" res="-4.4245459139347076e-03" rms="1.8989080190658569e-01" purity="6.6087198257446289e-01" nType="0">
            <Node pos="l" depth="3" NCoef="0" IVar="-1" Cut="0.0000000000000000e+00" cType="1" res="9.9463835358619690e-03" rms="1.8511988222599030e-01" purity="4.3311724066734314e-01" nType="-99"/>
            <Node pos="r" depth="3" NCoef="0" IVar="-1" Cut="0.0000000000000000e+00" cType="1" res="-2.5399167090654373e-02" rms="1.9232340157032013e-01" purity="7.8781002759933472e-01" nType="-99"/>
          </Node>
        </Node>
      </Node>
    </BinaryTree>
    <BinaryTree type="DecisionTree" boostWeight="1.0000000000000000e+00" itree="696">
      <Node pos="s" depth="0" NCoef="0" IVar="9" Cut="-1.7332606315612793e+00" cType="1" res="-5.5620976490899920e-04" rms="1.7990621924400330e-01" purity="4.9997085332870483e-01" nType="0">
        <Node pos="l" depth="1" NCoef="0" IVar="9" Cut="-2.0380485057830811e+00" cType="1" res="8.4542725235223770e-03" rms="2.2132891416549683e-01" purity="2.9381480813026428e-01" nType="0">
          <Node pos="l" depth="2" NCoef="0" IVar="-1" Cut="0.0000000000000000e+00" cType="1" res="-4.0044249035418034e-03" rms="2.2086581587791443e-01" purity="1.9593122601509094e-01" nType="-99"/>
          <Node pos="r" depth="2" NCoef="0" IVar="-1" Cut="0.0000000000000000e+00" cType="1" res="3.6271106451749802e-02" rms="2.2132365405559540e-01" purity="3.8828814029693604e-01" nType="-99"/>
        </Node>
        <Node pos="r" depth="1" NCoef="0" IVar="5" Cut="2.7707589721679688e+02" cType="1" res="-1.1176764965057373e-03" rms="1.7698933184146881e-01" purity="5.1281696557998657e-01" nType="0">
          <Node pos="l" depth="2" NCoef="0" IVar="4" Cut="5.1165286254882812e+02" cType="1" res="-3.1891108956187963e-03" rms="1.9030243158340454e-01" purity="2.0450736582279205e-01" nType="0">
            <Node pos="l" depth="3" NCoef="0" IVar="-1" Cut="0.0000000000000000e+00" cType="1" res="-1.3018382713198662e-02" rms="1.8280906975269318e-01" purity="1.2643198668956757e-01" nType="-99"/>
            <Node pos="r" depth="3" NCoef="0" IVar="-1" Cut="0.0000000000000000e+00" cType="1" res="1.3513748534023762e-02" rms="2.3765182495117188e-01" purity="7.7450460195541382e-01" nType="-99"/>
          </Node>
          <Node pos="r" depth="2" NCoef="0" IVar="3" Cut="5.4429376220703125e+02" cType="1" res="1.6307701589539647e-03" rms="1.5755647420883179e-01" purity="9.2189222574234009e-01" nType="0">
            <Node pos="l" depth="3" NCoef="0" IVar="-1" Cut="0.0000000000000000e+00" cType="1" res="1.9222410395741463e-02" rms="2.8606912493705750e-01" purity="5.5401504039764404e-01" nType="-99"/>
            <Node pos="r" depth="3" NCoef="0" IVar="-1" Cut="0.0000000000000000e+00" cType="1" res="9.7831078164745122e-05" rms="1.3582183420658112e-01" purity="9.6287029981613159e-01" nType="-99"/>
          </Node>
        </Node>
      </Node>
    </BinaryTree>
    <BinaryTree type="DecisionTree" boostWeight="1.0000000000000000e+00" itree="697">
      <Node pos="s" depth="0" NCoef="0" IVar="8" Cut="1.4666378498077393e+00" cType="1" res="7.6338229700922966e-04" rms="1.8085882067680359e-01" purity="5.0274026393890381e-01" nType="0">
        <Node pos="l" depth="1" NCoef="0" IVar="2" Cut="1.5738071501255035e-01" cType="1" res="1.5230724820867181e-03" rms="1.7921668291091919e-01" purity="5.2459043264389038e-01" nType="0">
          <Node pos="l" depth="2" NCoef="0" IVar="1" Cut="2.2266738281250000e+03" cType="1" res="8.2235428271815181e-04" rms="1.8128669261932373e-01" purity="4.9541822075843811e-01" nType="0">
            <Node pos="l" depth="3" NCoef="0" IVar="-1" Cut="0.0000000000000000e+00" cType="1" res="-6.5001882612705231e-03" rms="1.7806145548820496e-01" purity="5.7849816977977753e-02" nType="-99"/>
            <Node pos="r" depth="3" NCoef="0" IVar="-1" Cut="0.0000000000000000e+00" cType="1" res="1.0778998956084251e-02" rms="1.8442815542221069e-01" purity="9.3638962507247925e-01" nType="-99"/>
          </Node>
          <Node pos="r" depth="2" NCoef="0" IVar="-1" Cut="0.0000000000000000e+00" cType="1" res="4.1119903326034546e-02" rms="1.5327230095863342e-01" purity="8.5906207561492920e-01" nType="-99"/>
        </Node>
        <Node pos="r" depth="1" NCoef="0" IVar="5" Cut="1.5356817626953125e+02" cType="1" res="-9.1699790209531784e-03" rms="2.0083628594875336e-01" purity="2.1703708171844482e-01" nType="0">
          <Node pos="l" depth="2" NCoef="0" IVar="-1" Cut="0.0000000000000000e+00" cType="1" res="-3.7808755878359079e-03" rms="1.3971571624279022e-01" purity="4.6654202044010162e-02" nType="-99"/>
          <Node pos="r" depth="2" NCoef="0" IVar="-1" Cut="0.0000000000000000e+00" cType="1" res="-2.5934852659702301e-02" rms="2.3599188029766083e-01" purity="3.4345903992652893e-01" nType="-99"/>
        </Node>
      </Node>
    </BinaryTree>
    <BinaryTree type="DecisionTree" boostWeight="1.0000000000000000e+00" itree="698">
      <Node pos="s" depth="0" NCoef="0" IVar="8" Cut="1.7333621978759766e+00" cType="1" res="-5.7578796986490488e-04" rms="1.8181511759757996e-01" purity="4.9884352087974548e-01" nType="0">
        <Node pos="l" depth="1" NCoef="0" IVar="7" Cut="-1.2511946260929108e-01" cType="1" res="-1.2437896803021431e-03" rms="1.7997086048126221e-01" purity="5.1311546564102173e-01" nType="0">
          <Node pos="l" depth="2" NCoef="0" IVar="7" Cut="-8.8442569971084595e-01" cType="1" res="1.4737371820956469e-03" rms="1.8162241578102112e-01" purity="4.8879316449165344e-01" nType="0">
            <Node pos="l" depth="3" NCoef="0" IVar="-1" Cut="0.0000000000000000e+00" cType="1" res="-1.2353939004242420e-02" rms="1.7937192320823669e-01" purity="2.6165857911109924e-01" nType="-99"/>
            <Node pos="r" depth="3" NCoef="0" IVar="-1" Cut="0.0000000000000000e+00" cType="1" res="1.3126149773597717e-02" rms="1.8260721862316132e-01" purity="5.9577047824859619e-01" nType="-99"/>
          </Node>
          <Node pos="r" depth="2" NCoef="0" IVar="10" Cut="1.7332710027694702e+00" cType="1" res="-3.3128252252936363e-03" rms="1.7867547273635864e-01" purity="5.3163355588912964e-01" nType="0">
            <Node pos="l" depth="3" NCoef="0" IVar="-1" Cut="0.0000000000000000e+00" cType="1" res="-7.5419158674776554e-03" rms="1.7662610113620758e-01" purity="5.4179656505584717e-01" nType="-99"/>
            <Node pos="r" depth="3" NCoef="0" IVar="-1" Cut="0.0000000000000000e+00" cType="1" res="-2.8723893687129021e-02" rms="2.0127584040164948e-01" purity="4.1017347574234009e-01" nType="-99"/>
          </Node>
        </Node>
        <Node pos="r" depth="1" NCoef="0" IVar="-1" Cut="0.0000000000000000e+00" cType="1" res="2.9940754175186157e-02" rms="2.1813201904296875e-01" purity="1.8328271806240082e-01" nType="-99"/>
      </Node>
    </BinaryTree>
    <BinaryTree type="DecisionTree" boostWeight="1.0000000000000000e+00" itree="699">
      <Node pos="s" depth="0" NCoef="0" IVar="7" Cut="9.6043509244918823e-01" cType="1" res="-5.0168714551546145e-06" rms="1.8432216346263885e-01" purity="4.9115628004074097e-01" nType="0">
        <Node pos="l" depth="1" NCoef="0" IVar="10" Cut="9.3333441019058228e-01" cType="1" res="-1.2454165844246745e-03" rms="1.8188357353210449e-01" purity="5.2614802122116089e-01" nType="0">
          <Node pos="l" depth="2" NCoef="0" IVar="10" Cut="5.7777255773544312e-01" cType="1" res="6.3229812076315284e-04" rms="1.7936557531356812e-01" purity="5.3472149372100830e-01" nType="0">
            <Node pos="l" depth="3" NCoef="0" IVar="-1" Cut="0.0000000000000000e+00" cType="1" res="-1.5995524590834975e-03" rms="1.7761059105396271e-01" purity="5.3028160333633423e-01" nType="-99"/>
            <Node pos="r" depth="3" NCoef="0" IVar="-1" Cut="0.0000000000000000e+00" cType="1" res="2.7344582602381706e-02" rms="1.9148828089237213e-01" purity="5.6715697050094604e-01" nType="-99"/>
          </Node>
          <Node pos="r" depth="2" NCoef="0" IVar="8" Cut="-9.3353575468063354e-01" cType="1" res="-7.6237889006733894e-03" rms="1.9004960358142853e-01" purity="4.9702486395835876e-01" nType="0">
            <Node pos="l" depth="3" NCoef="0" IVar="-1" Cut="0.0000000000000000e+00" cType="1" res="-3.6338586360216141e-02" rms="2.1690946817398071e-01" purity="3.9883425831794739e-01" nType="-99"/>
            <Node pos="r" depth="3" NCoef="0" IVar="-1" Cut="0.0000000000000000e+00" cType="1" res="-1.3614828698337078e-02" rms="1.8440389633178711e-01" purity="5.1567953824996948e-01" nType="-99"/>
          </Node>
        </Node>
        <Node pos="r" depth="1" NCoef="0" IVar="9" Cut="-4.0055403113365173e-01" cType="1" res="8.2125272601842880e-03" rms="1.9953233003616333e-01" purity="2.5933924317359924e-01" nType="0">
          <Node pos="l" depth="2" NCoef="0" IVar="-1" Cut="0.0000000000000000e+00" cType="1" res="-9.6857249736785889e-03" rms="1.9515092670917511e-01" purity="2.4098536372184753e-01" nType="-99"/>
          <Node pos="r" depth="2" NCoef="0" IVar="1" Cut="1.6030080566406250e+03" cType="1" res="1.5072437934577465e-02" rms="2.0162305235862732e-01" purity="2.6963114738464355e-01" nType="0">
            <Node pos="l" depth="3" NCoef="0" IVar="-1" Cut="0.0000000000000000e+00" cType="1" res="-2.6787493377923965e-02" rms="6.7300766706466675e-02" purity="4.8133404925465584e-03" nType="-99"/>
            <Node pos="r" depth="3" NCoef="0" IVar="-1" Cut="0.0000000000000000e+00" cType="1" res="4.2855035513639450e-02" rms="2.5346717238426208e-01" purity="4.4485744833946228e-01" nType="-99"/>
          </Node>
        </Node>
      </Node>
    </BinaryTree>
    <BinaryTree type="DecisionTree" boostWeight="1.0000000000000000e+00" itree="700">
      <Node pos="s" depth="0" NCoef="0" IVar="8" Cut="1.4666644334793091e+00" cType="1" res="2.8402274474501610e-03" rms="1.8489831686019897e-01" purity="5.0545608997344971e-01" nType="0">
        <Node pos="l" depth="1" NCoef="0" IVar="7" Cut="1.2024570703506470e+00" cType="1" res="1.8722475506365299e-03" rms="1.8152175843715668e-01" purity="5.2459633350372314e-01" nType="0">
          <Node pos="l" depth="2" NCoef="0" IVar="7" Cut="8.2281255722045898e-01" cType="1" res="8.4750115638598800e-04" rms="1.7840963602066040e-01" purity="5.5116724967956543e-01" nType="0">
            <Node pos="l" depth="3" NCoef="0" IVar="-1" Cut="0.0000000000000000e+00" cType="1" res="5.1495195366442204e-03" rms="1.7694963514804840e-01" purity="5.6460094451904297e-01" nType="-99"/>
            <Node pos="r" depth="3" NCoef="0" IVar="-1" Cut="0.0000000000000000e+00" cType="1" res="-2.0536191761493683e-02" rms="1.9346471130847931e-01" purity="4.0391269326210022e-01" nType="-99"/>
          </Node>
          <Node pos="r" depth="2" NCoef="0" IVar="0" Cut="4.8489172363281250e+02" cType="1" res="1.4030000194907188e-02" rms="2.1466150879859924e-01" purity="2.0935447514057159e-01" nType="0">
            <Node pos="l" depth="3" NCoef="0" IVar="-1" Cut="0.0000000000000000e+00" cType="1" res="1.1264310451224446e-03" rms="1.3766942918300629e-01" purity="2.6204319670796394e-02" nType="-99"/>
            <Node pos="r" depth="3" NCoef="0" IVar="-1" Cut="0.0000000000000000e+00" cType="1" res="4.6894468367099762e-02" rms="2.6364356279373169e-01" purity="3.6964911222457886e-01" nType="-99"/>
          </Node>
        </Node>
        <Node pos="r" depth="1" NCoef="0" IVar="6" Cut="1.0119781494140625e+02" cType="1" res="1.5207012183964252e-02" rms="2.2322469949722290e-01" purity="2.6092281937599182e-01" nType="0">
          <Node pos="l" depth="2" NCoef="0" IVar="-1" Cut="0.0000000000000000e+00" cType="1" res="-2.3043537512421608e-02" rms="1.6162282228469849e-01" purity="6.3084475696086884e-02" nType="-99"/>
          <Node pos="r" depth="2" NCoef="0" IVar="-1" Cut="0.0000000000000000e+00" cType="1" res="5.4002668708562851e-02" rms="2.6789718866348267e-01" purity="4.5142039656639099e-01" nType="-99"/>
        </Node>
      </Node>
    </BinaryTree>
    <BinaryTree type="DecisionTree" boostWeight="1.0000000000000000e+00" itree="701">
      <Node pos="s" depth="0" NCoef="0" IVar="2" Cut="4.1260495781898499e-02" cType="1" res="4.7854759031906724e-05" rms="1.8223634362220764e-01" purity="4.9881485104560852e-01" nType="0">
        <Node pos="l" depth="1" NCoef="0" IVar="3" Cut="4.9901644897460938e+02" cType="1" res="-2.8241032268851995e-03" rms="1.8525551259517670e-01" purity="3.2209366559982300e-01" nType="0">
          <Node pos="l" depth="2" NCoef="0" IVar="4" Cut="3.1428631591796875e+02" cType="1" res="-8.2696080207824707e-03" rms="1.5109950304031372e-01" purity="4.9831941723823547e-02" nType="0">
            <Node pos="l" depth="3" NCoef="0" IVar="-1" Cut="0.0000000000000000e+00" cType="1" res="-1.1573820374906063e-02" rms="1.2878431379795074e-01" purity="2.9777739197015762e-02" nType="-99"/>
            <Node pos="r" depth="3" NCoef="0" IVar="-1" Cut="0.0000000000000000e+00" cType="1" res="-4.0800739079713821e-02" rms="1.8524590134620667e-01" purity="8.7284684181213379e-02" nType="-99"/>
          </Node>
          <Node pos="r" depth="2" NCoef="0" IVar="8" Cut="-9.3333512544631958e-01" cType="1" res="-1.0396814905107021e-03" rms="1.9511881470680237e-01" purity="4.1131034493446350e-01" nType="0">
            <Node pos="l" depth="3" NCoef="0" IVar="-1" Cut="0.0000000000000000e+00" cType="1" res="-2.1040942519903183e-02" rms="2.0017188787460327e-01" purity="3.1943979859352112e-01" nType="-99"/>
            <Node pos="r" depth="3" NCoef="0" IVar="-1" Cut="0.0000000000000000e+00" cType="1" res="2.8328432235866785e-03" rms="1.9375796616077423e-01" purity="4.3461236357688904e-01" nType="-99"/>
          </Node>
        </Node>
        <Node pos="r" depth="1" NCoef="0" IVar="9" Cut="4.0033289790153503e-01" cType="1" res="3.5001509822905064e-03" rms="1.7847838997840881e-01" purity="7.1124619245529175e-01" nType="0">
          <Node pos="l" depth="2" NCoef="0" IVar="6" Cut="1.2173600006103516e+02" cType="1" res="7.2738379240036011e-03" rms="1.7802760004997253e-01" purity="7.2235137224197388e-01" nType="0">
            <Node pos="l" depth="3" NCoef="0" IVar="-1" Cut="0.0000000000000000e+00" cType="1" res="4.8457182943820953e-02" rms="2.3212198913097382e-01" purity="3.5872665047645569e-01" nType="-99"/>
            <Node pos="r" depth="3" NCoef="0" IVar="-1" Cut="0.0000000000000000e+00" cType="1" res="8.5688903927803040e-03" rms="1.5527030825614929e-01" purity="8.4497034549713135e-01" nType="-99"/>
          </Node>
          <Node pos="r" depth="2" NCoef="0" IVar="2" Cut="9.4384156167507172e-02" cType="1" res="-3.5329479724168777e-03" rms="1.7910346388816833e-01" purity="6.9054907560348511e-01" nType="0">
            <Node pos="l" depth="3" NCoef="0" IVar="-1" Cut="0.0000000000000000e+00" cType="1" res="-2.0508470013737679e-02" rms="1.8919646739959717e-01" purity="6.0150897502899170e-01" nType="-99"/>
            <Node pos="r" depth="3" NCoef="0" IVar="-1" Cut="0.0000000000000000e+00" cType="1" res="6.2930546700954437e-03" rms="1.6600342094898224e-01" purity="7.9763799905776978e-01" nType="-99"/>
          </Node>
        </Node>
      </Node>
    </BinaryTree>
    <BinaryTree type="DecisionTree" boostWeight="1.0000000000000000e+00" itree="702">
      <Node pos="s" depth="0" NCoef="0" IVar="8" Cut="-1.1998401880264282e+00" cType="1" res="8.7266834452748299e-04" rms="1.8225032091140747e-01" purity="5.0149101018905640e-01" nType="0">
        <Node pos="l" depth="1" NCoef="0" IVar="5" Cut="2.2451045227050781e+02" cType="1" res="8.6946412920951843e-03" rms="2.0804107189178467e-01" purity="3.1598049402236938e-01" nType="0">
          <Node pos="l" depth="2" NCoef="0" IVar="7" Cut="-2.5949567556381226e-01" cType="1" res="3.8695079274475574e-04" rms="1.7200143635272980e-01" purity="1.0830782353878021e-01" nType="0">
            <Node pos="l" depth="3" NCoef="0" IVar="-1" Cut="0.0000000000000000e+00" cType="1" res="-3.4035660326480865e-02" rms="1.4473946392536163e-01" purity="8.2338646054267883e-02" nType="-99"/>
            <Node pos="r" depth="3" NCoef="0" IVar="-1" Cut="0.0000000000000000e+00" cType="1" res="1.8556527793407440e-02" rms="1.8551820516586304e-01" purity="1.2316449731588364e-01" nType="-99"/>
          </Node>
          <Node pos="r" depth="2" NCoef="0" IVar="-1" Cut="0.0000000000000000e+00" cType="1" res="3.5511955618858337e-02" rms="2.5782105326652527e-01" purity="6.7248511314392090e-01" nType="-99"/>
        </Node>
        <Node pos="r" depth="1" NCoef="0" IVar="9" Cut="-6.6662883758544922e-01" cType="1" res="-1.6262792632915080e-04" rms="1.7853210866451263e-01" purity="5.2604478597640991e-01" nType="0">
          <Node pos="l" depth="2" NCoef="0" IVar="1" Cut="1.9608731689453125e+03" cType="1" res="-3.6002271808683872e-03" rms="1.8069250881671906e-01" purity="4.8738315701484680e-01" nType="0">
            <Node pos="l" depth="3" NCoef="0" IVar="-1" Cut="0.0000000000000000e+00" cType="1" res="-3.9934217929840088e-02" rms="1.2709292769432068e-01" purity="2.0526057109236717e-02" nType="-99"/>
            <Node pos="r" depth="3" NCoef="0" IVar="-1" Cut="0.0000000000000000e+00" cType="1" res="3.1542212236672640e-03" rms="2.1505863964557648e-01" purity="8.7389659881591797e-01" nType="-99"/>
          </Node>
          <Node pos="r" depth="2" NCoef="0" IVar="1" Cut="2.2938605957031250e+03" cType="1" res="1.1266107903793454e-03" rms="1.7769795656204224e-01" purity="5.4054445028305054e-01" nType="0">
            <Node pos="l" depth="3" NCoef="0" IVar="-1" Cut="0.0000000000000000e+00" cType="1" res="1.1342680081725121e-02" rms="1.9081151485443115e-01" purity="7.8054226934909821e-02" nType="-99"/>
            <Node pos="r" depth="3" NCoef="0" IVar="-1" Cut="0.0000000000000000e+00" cType="1" res="-6.0911555774509907e-03" rms="1.6512086987495422e-01" purity="9.5164191722869873e-01" nType="-99"/>
          </Node>
        </Node>
      </Node>
    </BinaryTree>
    <BinaryTree type="DecisionTree" boostWeight="1.0000000000000000e+00" itree="703">
      <Node pos="s" depth="0" NCoef="0" IVar="10" Cut="-1.9999798536300659e+00" cType="1" res="3.9268587715923786e-04" rms="1.8406292796134949e-01" purity="4.9999251961708069e-01" nType="0">
        <Node pos="l" depth="1" NCoef="0" IVar="-1" Cut="0.0000000000000000e+00" cType="1" res="-2.9178587719798088e-02" rms="2.0535479485988617e-01" purity="3.5621306300163269e-01" nType="-99"/>
        <Node pos="r" depth="1" NCoef="0" IVar="7" Cut="1.2043707370758057e+00" cType="1" res="1.1870069429278374e-03" rms="1.8286134302616119e-01" purity="5.0741493701934814e-01" nType="0">
          <Node pos="l" depth="2" NCoef="0" IVar="3" Cut="3.3998333740234375e+02" cType="1" res="4.1709598735906184e-04" rms="1.7987562716007233e-01" purity="5.3382587432861328e-01" nType="0">
            <Node pos="l" depth="3" NCoef="0" IVar="-1" Cut="0.0000000000000000e+00" cType="1" res="-5.9725083410739899e-02" rms="1.1718532443046570e-01" purity="1.8198834732174873e-02" nType="-99"/>
            <Node pos="r" depth="3" NCoef="0" IVar="-1" Cut="0.0000000000000000e+00" cType="1" res="2.6529435999691486e-03" rms="1.8184711039066315e-01" purity="5.5375462770462036e-01" nType="-99"/>
          </Node>
          <Node pos="r" depth="2" NCoef="0" IVar="9" Cut="6.6683453321456909e-01" cType="1" res="1.0164074599742889e-02" rms="2.1442665159702301e-01" purity="1.9946749508380890e-01" nType="0">
            <Node pos="l" depth="3" NCoef="0" IVar="-1" Cut="0.0000000000000000e+00" cType="1" res="7.7125420793890953e-03" rms="2.0147170126438141e-01" purity="2.0566082000732422e-01" nType="-99"/>
            <Node pos="r" depth="3" NCoef="0" IVar="-1" Cut="0.0000000000000000e+00" cType="1" res="5.8243572711944580e-02" rms="2.3653934895992279e-01" purity="1.8768072128295898e-01" nType="-99"/>
          </Node>
        </Node>
      </Node>
    </BinaryTree>
    <BinaryTree type="DecisionTree" boostWeight="1.0000000000000000e+00" itree="704">
      <Node pos="s" depth="0" NCoef="0" IVar="7" Cut="-8.7921816110610962e-01" cType="1" res="1.5440789284184575e-03" rms="1.8455104529857635e-01" purity="5.0217318534851074e-01" nType="0">
        <Node pos="l" depth="1" NCoef="0" IVar="6" Cut="1.1064466857910156e+02" cType="1" res="1.0650906711816788e-02" rms="2.0247255265712738e-01" purity="2.9073762893676758e-01" nType="0">
          <Node pos="l" depth="2" NCoef="0" IVar="9" Cut="1.3356743752956390e-01" cType="1" res="5.7642586762085557e-04" rms="1.4665250480175018e-01" purity="8.3585374057292938e-02" nType="0">
            <Node pos="l" depth="3" NCoef="0" IVar="-1" Cut="0.0000000000000000e+00" cType="1" res="2.0641453564167023e-02" rms="1.5868750214576721e-01" purity="8.7702572345733643e-02" nType="-99"/>
            <Node pos="r" depth="3" NCoef="0" IVar="-1" Cut="0.0000000000000000e+00" cType="1" res="-2.1601982414722443e-02" rms="1.2911757826805115e-01" purity="7.8234411776065826e-02" nType="-99"/>
          </Node>
          <Node pos="r" depth="2" NCoef="0" IVar="8" Cut="1.4117653667926788e-01" cType="1" res="2.1423444151878357e-02" rms="2.4821174144744873e-01" purity="5.1224339008331299e-01" nType="0">
            <Node pos="l" depth="3" NCoef="0" IVar="-1" Cut="0.0000000000000000e+00" cType="1" res="1.8343074247241020e-02" rms="2.2344438731670380e-01" purity="5.2788442373275757e-01" nType="-99"/>
            <Node pos="r" depth="3" NCoef="0" IVar="-1" Cut="0.0000000000000000e+00" cType="1" res="5.8115046471357346e-02" rms="2.7483686804771423e-01" purity="4.9299445748329163e-01" nType="-99"/>
          </Node>
        </Node>
        <Node pos="r" depth="1" NCoef="0" IVar="10" Cut="1.1998249292373657e+00" cType="1" res="2.5060347979888320e-05" rms="1.8134501576423645e-01" purity="5.3744059801101685e-01" nType="0">
          <Node pos="l" depth="2" NCoef="0" IVar="9" Cut="1.7333081960678101e+00" cType="1" res="-9.8130840342491865e-04" rms="1.7635585367679596e-01" purity="5.4649412631988525e-01" nType="0">
            <Node pos="l" depth="3" NCoef="0" IVar="-1" Cut="0.0000000000000000e+00" cType="1" res="-5.1950155757367611e-03" rms="1.7292946577072144e-01" purity="5.5709254741668701e-01" nType="-99"/>
            <Node pos="r" depth="3" NCoef="0" IVar="-1" Cut="0.0000000000000000e+00" cType="1" res="2.0263535901904106e-02" rms="2.2820974886417389e-01" purity="3.5953843593597412e-01" nType="-99"/>
          </Node>
          <Node pos="r" depth="2" NCoef="0" IVar="6" Cut="1.0216188049316406e+02" cType="1" res="4.6902494505047798e-03" rms="2.0281147956848145e-01" purity="4.9547153711318970e-01" nType="0">
            <Node pos="l" depth="3" NCoef="0" IVar="-1" Cut="0.0000000000000000e+00" cType="1" res="-1.0520705021917820e-02" rms="1.9398230314254761e-01" purity="2.2309155762195587e-01" nType="-99"/>
            <Node pos="r" depth="3" NCoef="0" IVar="-1" Cut="0.0000000000000000e+00" cType="1" res="2.2497564554214478e-02" rms="2.0831979811191559e-01" purity="6.7843419313430786e-01" nType="-99"/>
          </Node>
        </Node>
      </Node>
    </BinaryTree>
    <BinaryTree type="DecisionTree" boostWeight="1.0000000000000000e+00" itree="705">
      <Node pos="s" depth="0" NCoef="0" IVar="8" Cut="6.6669231653213501e-01" cType="1" res="1.1247462825849652e-03" rms="1.8514961004257202e-01" purity="5.0127547979354858e-01" nType="0">
        <Node pos="l" depth="1" NCoef="0" IVar="1" Cut="2.5051630859375000e+03" cType="1" res="2.9780624900013208e-03" rms="1.8021373450756073e-01" purity="5.3740620613098145e-01" nType="0">
          <Node pos="l" depth="2" NCoef="0" IVar="1" Cut="1.7683929443359375e+03" cType="1" res="6.2736594118177891e-03" rms="2.1162842214107513e-01" purity="1.3724668323993683e-01" nType="0">
            <Node pos="l" depth="3" NCoef="0" IVar="-1" Cut="0.0000000000000000e+00" cType="1" res="-6.5673193894326687e-03" rms="1.0479418933391571e-01" purity="1.3323072344064713e-02" nType="-99"/>
            <Node pos="r" depth="3" NCoef="0" IVar="-1" Cut="0.0000000000000000e+00" cType="1" res="1.7822030931711197e-02" rms="3.2923287153244019e-01" purity="3.7142589688301086e-01" nType="-99"/>
          </Node>
          <Node pos="r" depth="2" NCoef="0" IVar="7" Cut="4.9345508217811584e-01" cType="1" res="-5.9634243370965123e-04" rms="1.3820795714855194e-01" purity="9.7141933441162109e-01" nType="0">
            <Node pos="l" depth="3" NCoef="0" IVar="-1" Cut="0.0000000000000000e+00" cType="1" res="6.0351956635713577e-03" rms="1.3217338919639587e-01" purity="9.7484672069549561e-01" nType="-99"/>
            <Node pos="r" depth="3" NCoef="0" IVar="-1" Cut="0.0000000000000000e+00" cType="1" res="-3.2702535390853882e-02" rms="1.5986031293869019e-01" purity="9.5774227380752563e-01" nType="-99"/>
          </Node>
        </Node>
        <Node pos="r" depth="1" NCoef="0" IVar="9" Cut="1.3352294266223907e-01" cType="1" res="-4.4284272007644176e-03" rms="1.9910505414009094e-01" purity="3.9301538467407227e-01" nType="0">
          <Node pos="l" depth="2" NCoef="0" IVar="0" Cut="4.2470648193359375e+02" cType="1" res="-9.3553820624947548e-03" rms="2.0108368992805481e-01" purity="4.2489755153656006e-01" nType="0">
            <Node pos="l" depth="3" NCoef="0" IVar="-1" Cut="0.0000000000000000e+00" cType="1" res="3.9170477539300919e-02" rms="1.8505266308784485e-01" purity="4.1608013212680817e-02" nType="-99"/>
            <Node pos="r" depth="3" NCoef="0" IVar="-1" Cut="0.0000000000000000e+00" cType="1" res="-3.1386066228151321e-02" rms="2.0519773662090302e-01" purity="5.3694951534271240e-01" nType="-99"/>
          </Node>
          <Node pos="r" depth="2" NCoef="0" IVar="7" Cut="1.3165198266506195e-01" cType="1" res="8.3070027176290751e-04" rms="1.9683507084846497e-01" purity="3.5898375511169434e-01" nType="0">
            <Node pos="l" depth="3" NCoef="0" IVar="-1" Cut="0.0000000000000000e+00" cType="1" res="-3.2189656049013138e-02" rms="1.8423965573310852e-01" purity="3.4547677636146545e-01" nType="-99"/>
            <Node pos="r" depth="3" NCoef="0" IVar="-1" Cut="0.0000000000000000e+00" cType="1" res="3.3206403255462646e-02" rms="2.0951128005981445e-01" purity="3.7445521354675293e-01" nType="-99"/>
          </Node>
        </Node>
      </Node>
    </BinaryTree>
    <BinaryTree type="DecisionTree" boostWeight="1.0000000000000000e+00" itree="706">
      <Node pos="s" depth="0" NCoef="0" IVar="3" Cut="4.7988818359375000e+02" cType="1" res="5.5063795298337936e-04" rms="1.8443253636360168e-01" purity="4.9915540218353271e-01" nType="0">
        <Node pos="l" depth="1" NCoef="0" IVar="9" Cut="-6.6735780239105225e-01" cType="1" res="4.9546230584383011e-03" rms="1.9965347647666931e-01" purity="1.0245680063962936e-01" nType="0">
          <Node pos="l" depth="2" NCoef="0" IVar="5" Cut="1.7013433837890625e+02" cType="1" res="1.4451365917921066e-02" rms="2.2225636243820190e-01" purity="1.1938467621803284e-01" nType="0">
            <Node pos="l" depth="3" NCoef="0" IVar="-1" Cut="0.0000000000000000e+00" cType="1" res="-1.4797428622841835e-02" rms="1.1031585931777954e-01" purity="1.5821045264601707e-02" nType="-99"/>
            <Node pos="r" depth="3" NCoef="0" IVar="-1" Cut="0.0000000000000000e+00" cType="1" res="4.4241663068532944e-02" rms="2.7440592646598816e-01" purity="1.9235338270664215e-01" nType="-99"/>
          </Node>
          <Node pos="r" depth="2" NCoef="0" IVar="0" Cut="6.1949114990234375e+02" cType="1" res="7.8426901018247008e-04" rms="1.8872401118278503e-01" purity="9.5023185014724731e-02" nType="0">
            <Node pos="l" depth="3" NCoef="0" IVar="-1" Cut="0.0000000000000000e+00" cType="1" res="-1.4978312887251377e-02" rms="1.5562357008457184e-01" purity="4.4313702732324600e-02" nType="-99"/>
            <Node pos="r" depth="3" NCoef="0" IVar="-1" Cut="0.0000000000000000e+00" cType="1" res="2.6599016040563583e-02" rms="2.6096618175506592e-01" purity="2.4090597033500671e-01" nType="-99"/>
          </Node>
        </Node>
        <Node pos="r" depth="1" NCoef="0" IVar="9" Cut="-3.9968961477279663e-01" cType="1" res="-6.0276250587776303e-04" rms="1.8021611869335175e-01" purity="6.0305041074752808e-01" nType="0">
          <Node pos="l" depth="2" NCoef="0" IVar="0" Cut="7.9935858154296875e+02" cType="1" res="-4.2831189930438995e-03" rms="1.8317630887031555e-01" purity="5.7103794813156128e-01" nType="0">
            <Node pos="l" depth="3" NCoef="0" IVar="-1" Cut="0.0000000000000000e+00" cType="1" res="-2.2926883772015572e-02" rms="2.0165227353572845e-01" purity="2.5016897916793823e-01" nType="-99"/>
            <Node pos="r" depth="3" NCoef="0" IVar="-1" Cut="0.0000000000000000e+00" cType="1" res="7.8884167596697807e-03" rms="1.6036534309387207e-01" purity="9.2123323678970337e-01" nType="-99"/>
          </Node>
          <Node pos="r" depth="2" NCoef="0" IVar="0" Cut="5.9426702880859375e+02" cType="1" res="1.4286611694842577e-03" rms="1.7852869629859924e-01" purity="6.2072014808654785e-01" nType="0">
            <Node pos="l" depth="3" NCoef="0" IVar="-1" Cut="0.0000000000000000e+00" cType="1" res="1.7185507342219353e-02" rms="2.0120766758918762e-01" purity="1.4161278307437897e-01" nType="-99"/>
            <Node pos="r" depth="3" NCoef="0" IVar="-1" Cut="0.0000000000000000e+00" cType="1" res="-3.2186300959438086e-03" rms="1.6731831431388855e-01" purity="8.3538413047790527e-01" nType="-99"/>
          </Node>
        </Node>
      </Node>
    </BinaryTree>
    <BinaryTree type="DecisionTree" boostWeight="1.0000000000000000e+00" itree="707">
      <Node pos="s" depth="0" NCoef="0" IVar="2" Cut="8.3585202693939209e-02" cType="1" res="5.2270467858761549e-04" rms="1.8332639336585999e-01" purity="5.0367420911788940e-01" nType="0">
        <Node pos="l" depth="1" NCoef="0" IVar="7" Cut="4.3406167626380920e-01" cType="1" res="1.6642750706523657e-03" rms="1.9170349836349487e-01" purity="4.1702964901924133e-01" nType="0">
          <Node pos="l" depth="2" NCoef="0" IVar="9" Cut="-1.4661271572113037e+00" cType="1" res="3.3494050148874521e-03" rms="1.8860207498073578e-01" purity="4.5069164037704468e-01" nType="0">
            <Node pos="l" depth="3" NCoef="0" IVar="-1" Cut="0.0000000000000000e+00" cType="1" res="-2.0041402429342270e-02" rms="1.9643940031528473e-01" purity="3.0348056554794312e-01" nType="-99"/>
            <Node pos="r" depth="3" NCoef="0" IVar="-1" Cut="0.0000000000000000e+00" cType="1" res="1.2822829186916351e-02" rms="1.8768870830535889e-01" purity="4.6666768193244934e-01" nType="-99"/>
          </Node>
          <Node pos="r" depth="2" NCoef="0" IVar="3" Cut="4.3876239013671875e+02" cType="1" res="-1.8903826130554080e-03" rms="1.9803951680660248e-01" purity="3.4602209925651550e-01" nType="0">
            <Node pos="l" depth="3" NCoef="0" IVar="-1" Cut="0.0000000000000000e+00" cType="1" res="-3.9904858916997910e-02" rms="1.7092974483966827e-01" purity="4.5253511518239975e-02" nType="-99"/>
            <Node pos="r" depth="3" NCoef="0" IVar="-1" Cut="0.0000000000000000e+00" cType="1" res="1.8151799449697137e-03" rms="2.0324537158012390e-01" purity="4.1004279255867004e-01" nType="-99"/>
          </Node>
        </Node>
        <Node pos="r" depth="1" NCoef="0" IVar="0" Cut="6.1104608154296875e+02" cType="1" res="-3.2489637378603220e-03" rms="1.5234892070293427e-01" purity="7.8994190692901611e-01" nType="0">
          <Node pos="l" depth="2" NCoef="0" IVar="-1" Cut="0.0000000000000000e+00" cType="1" res="-3.2328844070434570e-02" rms="2.2067280113697052e-01" purity="2.4936737120151520e-01" nType="-99"/>
          <Node pos="r" depth="2" NCoef="0" IVar="5" Cut="2.6245706176757812e+02" cType="1" res="8.0564757809042931e-04" rms="1.2662050127983093e-01" purity="9.4057828187942505e-01" nType="0">
            <Node pos="l" depth="3" NCoef="0" IVar="-1" Cut="0.0000000000000000e+00" cType="1" res="1.9970359280705452e-02" rms="2.3526103794574738e-01" purity="6.9201856851577759e-01" nType="-99"/>
            <Node pos="r" depth="3" NCoef="0" IVar="-1" Cut="0.0000000000000000e+00" cType="1" res="-1.9414981827139854e-02" rms="9.1424293816089630e-02" purity="9.8889970779418945e-01" nType="-99"/>
          </Node>
        </Node>
      </Node>
    </BinaryTree>
    <BinaryTree type="DecisionTree" boostWeight="1.0000000000000000e+00" itree="708">
      <Node pos="s" depth="0" NCoef="0" IVar="7" Cut="9.3624305725097656e-01" cType="1" res="4.8489618347957730e-04" rms="1.8248291313648224e-01" purity="5.0550055503845215e-01" nType="0">
        <Node pos="l" depth="1" NCoef="0" IVar="0" Cut="4.4704656982421875e+02" cType="1" res="2.1200438495725393e-03" rms="1.8191483616828918e-01" purity="5.4266381263732910e-01" nType="0">
          <Node pos="l" depth="2" NCoef="0" IVar="1" Cut="1.7436214599609375e+03" cType="1" res="-3.5993359051644802e-03" rms="1.4025981724262238e-01" purity="3.1426254659891129e-02" nType="0">
            <Node pos="l" depth="3" NCoef="0" IVar="-1" Cut="0.0000000000000000e+00" cType="1" res="1.1593082919716835e-02" rms="1.0319010913372040e-01" purity="1.3168030418455601e-02" nType="-99"/>
            <Node pos="r" depth="3" NCoef="0" IVar="-1" Cut="0.0000000000000000e+00" cType="1" res="-3.0032534152269363e-02" rms="2.4592924118041992e-01" purity="1.1518647521734238e-01" nType="-99"/>
          </Node>
          <Node pos="r" depth="2" NCoef="0" IVar="8" Cut="1.4668053388595581e+00" cType="1" res="3.5600634291768074e-03" rms="1.9094926118850708e-01" purity="6.7138272523880005e-01" nType="0">
            <Node pos="l" depth="3" NCoef="0" IVar="-1" Cut="0.0000000000000000e+00" cType="1" res="7.1163442917168140e-03" rms="1.8574017286300659e-01" purity="6.8902099132537842e-01" nType="-99"/>
            <Node pos="r" depth="3" NCoef="0" IVar="-1" Cut="0.0000000000000000e+00" cType="1" res="3.2229784876108170e-02" rms="2.6103362441062927e-01" purity="3.8421079516410828e-01" nType="-99"/>
          </Node>
        </Node>
        <Node pos="r" depth="1" NCoef="0" IVar="1" Cut="1.8164893798828125e+03" cType="1" res="-1.0585640557110310e-02" rms="1.8590548634529114e-01" purity="2.5389212369918823e-01" nType="0">
          <Node pos="l" depth="2" NCoef="0" IVar="3" Cut="4.4805664062500000e+02" cType="1" res="-1.0265308665111661e-03" rms="1.2399072945117950e-01" purity="2.1468330174684525e-02" nType="0">
            <Node pos="l" depth="3" NCoef="0" IVar="-1" Cut="0.0000000000000000e+00" cType="1" res="-3.7474442273378372e-02" rms="1.3368311524391174e-01" purity="2.4028632789850235e-02" nType="-99"/>
            <Node pos="r" depth="3" NCoef="0" IVar="-1" Cut="0.0000000000000000e+00" cType="1" res="3.9219945669174194e-02" rms="1.1707602441310883e-01" purity="1.9852958619594574e-02" nType="-99"/>
          </Node>
          <Node pos="r" depth="2" NCoef="0" IVar="-1" Cut="0.0000000000000000e+00" cType="1" res="-3.6504514515399933e-02" rms="2.5295379757881165e-01" purity="6.1471551656723022e-01" nType="-99"/>
        </Node>
      </Node>
    </BinaryTree>
    <BinaryTree type="DecisionTree" boostWeight="1.0000000000000000e+00" itree="709">
      <Node pos="s" depth="0" NCoef="0" IVar="0" Cut="5.8410919189453125e+02" cType="1" res="1.6293087974190712e-03" rms="1.8675090372562408e-01" purity="4.9551162123680115e-01" nType="0">
        <Node pos="l" depth="1" NCoef="0" IVar="7" Cut="-6.1602097749710083e-01" cType="1" res="5.0354236736893654e-03" rms="1.9306547939777374e-01" purity="9.6785217523574829e-02" nType="0">
          <Node pos="l" depth="2" NCoef="0" IVar="9" Cut="4.0103784203529358e-01" cType="1" res="-4.9108108505606651e-03" rms="1.7102777957916260e-01" purity="6.6356129944324493e-02" nType="0">
            <Node pos="l" depth="3" NCoef="0" IVar="-1" Cut="0.0000000000000000e+00" cType="1" res="1.3494841754436493e-02" rms="1.6793893277645111e-01" purity="7.5359091162681580e-02" nType="-99"/>
            <Node pos="r" depth="3" NCoef="0" IVar="-1" Cut="0.0000000000000000e+00" cType="1" res="-6.5140902996063232e-02" rms="1.7516151070594788e-01" purity="5.0927668809890747e-02" nType="-99"/>
          </Node>
          <Node pos="r" depth="2" NCoef="0" IVar="6" Cut="1.5663432312011719e+02" cType="1" res="9.0269763022661209e-03" rms="2.0109373331069946e-01" purity="1.0899680107831955e-01" nType="0">
            <Node pos="l" depth="3" NCoef="0" IVar="-1" Cut="0.0000000000000000e+00" cType="1" res="1.6399208456277847e-02" rms="1.7234435677528381e-01" purity="5.1398903131484985e-02" nType="-99"/>
            <Node pos="r" depth="3" NCoef="0" IVar="-1" Cut="0.0000000000000000e+00" cType="1" res="3.3084657043218613e-02" rms="2.9906085133552551e-01" purity="3.7453776597976685e-01" nType="-99"/>
          </Node>
        </Node>
        <Node pos="r" depth="1" NCoef="0" IVar="0" Cut="7.1264166259765625e+02" cType="1" res="-5.9220206458121538e-04" rms="1.8248052895069122e-01" purity="7.5556594133377075e-01" nType="0">
          <Node pos="l" depth="2" NCoef="0" IVar="8" Cut="4.0060806274414062e-01" cType="1" res="-7.0272036828100681e-03" rms="2.1158160269260406e-01" purity="3.7793073058128357e-01" nType="0">
            <Node pos="l" depth="3" NCoef="0" IVar="-1" Cut="0.0000000000000000e+00" cType="1" res="-2.3083768784999847e-02" rms="2.0699879527091980e-01" purity="3.9475846290588379e-01" nType="-99"/>
            <Node pos="r" depth="3" NCoef="0" IVar="-1" Cut="0.0000000000000000e+00" cType="1" res="4.0337597602047026e-04" rms="2.1944452822208405e-01" purity="3.4748834371566772e-01" nType="-99"/>
          </Node>
          <Node pos="r" depth="2" NCoef="0" IVar="2" Cut="2.0896477624773979e-02" cType="1" res="1.2357964878901839e-03" rms="1.7328132688999176e-01" purity="8.6284124851226807e-01" nType="0">
            <Node pos="l" depth="3" NCoef="0" IVar="-1" Cut="0.0000000000000000e+00" cType="1" res="1.6774710267782211e-02" rms="2.3939819633960724e-01" purity="6.5440487861633301e-01" nType="-99"/>
            <Node pos="r" depth="3" NCoef="0" IVar="-1" Cut="0.0000000000000000e+00" cType="1" res="-6.3158725388348103e-03" rms="1.4524343609809875e-01" purity="9.3085771799087524e-01" nType="-99"/>
          </Node>
        </Node>
      </Node>
    </BinaryTree>
    <BinaryTree type="DecisionTree" boostWeight="1.0000000000000000e+00" itree="710">
      <Node pos="s" depth="0" NCoef="0" IVar="5" Cut="2.6119680786132812e+02" cType="1" res="-1.1356285540387034e-04" rms="1.8279996514320374e-01" purity="4.9911764264106750e-01" nType="0">
        <Node pos="l" depth="1" NCoef="0" IVar="5" Cut="2.4109814453125000e+02" cType="1" res="2.6335378643125296e-03" rms="1.9599430263042450e-01" purity="1.8795256316661835e-01" nType="0">
          <Node pos="l" depth="2" NCoef="0" IVar="0" Cut="8.8815948486328125e+02" cType="1" res="1.2451524380594492e-03" rms="1.8802613019943237e-01" purity="1.6027098894119263e-01" nType="0">
            <Node pos="l" depth="3" NCoef="0" IVar="-1" Cut="0.0000000000000000e+00" cType="1" res="-2.6471971068531275e-03" rms="1.7003117501735687e-01" purity="6.4530566334724426e-02" nType="-99"/>
            <Node pos="r" depth="3" NCoef="0" IVar="-1" Cut="0.0000000000000000e+00" cType="1" res="1.7988145351409912e-02" rms="2.7608880400657654e-01" purity="7.7047115564346313e-01" nType="-99"/>
          </Node>
          <Node pos="r" depth="2" NCoef="0" IVar="-1" Cut="0.0000000000000000e+00" cType="1" res="2.7739934623241425e-02" rms="2.7651402354240417e-01" purity="5.3509676456451416e-01" nType="-99"/>
        </Node>
        <Node pos="r" depth="1" NCoef="0" IVar="4" Cut="3.4686114501953125e+02" cType="1" res="-3.6272723227739334e-03" rms="1.6432029008865356e-01" purity="8.9711683988571167e-01" nType="0">
          <Node pos="l" depth="2" NCoef="0" IVar="-1" Cut="0.0000000000000000e+00" cType="1" res="-4.1935708373785019e-02" rms="2.4935892224311829e-01" purity="3.9470568299293518e-01" nType="-99"/>
          <Node pos="r" depth="2" NCoef="0" IVar="2" Cut="2.0634617656469345e-02" cType="1" res="-1.4966255985200405e-03" rms="1.5590256452560425e-01" purity="9.3468177318572998e-01" nType="0">
            <Node pos="l" depth="3" NCoef="0" IVar="-1" Cut="0.0000000000000000e+00" cType="1" res="-2.4001957848668098e-02" rms="2.1895435452461243e-01" purity="8.1968545913696289e-01" nType="-99"/>
            <Node pos="r" depth="3" NCoef="0" IVar="-1" Cut="0.0000000000000000e+00" cType="1" res="1.4251767424866557e-03" rms="1.4183886349201202e-01" purity="9.5495092868804932e-01" nType="-99"/>
          </Node>
        </Node>
      </Node>
    </BinaryTree>
    <BinaryTree type="DecisionTree" boostWeight="1.0000000000000000e+00" itree="711">
      <Node pos="s" depth="0" NCoef="0" IVar="9" Cut="1.9999507665634155e+00" cType="1" res="-6.1787804588675499e-04" rms="1.8419958651065826e-01" purity="4.9703469872474670e-01" nType="0">
        <Node pos="l" depth="1" NCoef="0" IVar="9" Cut="-1.8852162361145020e+00" cType="1" res="1.1201720190001652e-04" rms="1.8393769860267639e-01" purity="5.0689303874969482e-01" nType="0">
          <Node pos="l" depth="2" NCoef="0" IVar="-1" Cut="0.0000000000000000e+00" cType="1" res="3.1979419291019440e-02" rms="2.3544044792652130e-01" purity="2.6982912421226501e-01" nType="-99"/>
          <Node pos="r" depth="2" NCoef="0" IVar="2" Cut="2.1365951746702194e-02" cType="1" res="-5.8033206732943654e-04" rms="1.8114821612834930e-01" purity="5.1795256137847900e-01" nType="0">
            <Node pos="l" depth="3" NCoef="0" IVar="-1" Cut="0.0000000000000000e+00" cType="1" res="-1.1430857703089714e-02" rms="1.7765131592750549e-01" purity="2.6117536425590515e-01" nType="-99"/>
            <Node pos="r" depth="3" NCoef="0" IVar="-1" Cut="0.0000000000000000e+00" cType="1" res="4.0276381187140942e-03" rms="1.8303793668746948e-01" purity="6.6093569993972778e-01" nType="-99"/>
          </Node>
        </Node>
        <Node pos="r" depth="1" NCoef="0" IVar="-1" Cut="0.0000000000000000e+00" cType="1" res="-5.2490442991256714e-02" rms="1.9083143770694733e-01" purity="1.8719217181205750e-01" nType="-99"/>
      </Node>
    </BinaryTree>
    <BinaryTree type="DecisionTree" boostWeight="1.0000000000000000e+00" itree="712">
      <Node pos="s" depth="0" NCoef="0" IVar="1" Cut="1.9959074707031250e+03" cType="1" res="-1.6875857545528561e-04" rms="1.8341559171676636e-01" purity="4.9823346734046936e-01" nType="0">
        <Node pos="l" depth="1" NCoef="0" IVar="10" Cut="-1.7331066131591797e+00" cType="1" res="2.6747107040137053e-03" rms="1.5899232029914856e-01" purity="3.6432262510061264e-02" nType="0">
          <Node pos="l" depth="2" NCoef="0" IVar="-1" Cut="0.0000000000000000e+00" cType="1" res="4.4897954910993576e-02" rms="2.1680152416229248e-01" purity="6.6178008913993835e-02" nType="-99"/>
          <Node pos="r" depth="2" NCoef="0" IVar="10" Cut="1.9363985061645508e+00" cType="1" res="1.1543870205059648e-03" rms="1.5111067891120911e-01" purity="3.3117245882749557e-02" nType="0">
            <Node pos="l" depth="3" NCoef="0" IVar="-1" Cut="0.0000000000000000e+00" cType="1" res="-1.0009842226281762e-03" rms="1.4450615644454956e-01" purity="2.8036059811711311e-02" nType="-99"/>
            <Node pos="r" depth="3" NCoef="0" IVar="-1" Cut="0.0000000000000000e+00" cType="1" res="3.5938601940870285e-02" rms="2.1162372827529907e-01" purity="9.0935148298740387e-02" nType="-99"/>
          </Node>
        </Node>
        <Node pos="r" depth="1" NCoef="0" IVar="0" Cut="5.9750860595703125e+02" cType="1" res="-2.5404361076653004e-03" rms="2.0150454342365265e-01" purity="8.8341212272644043e-01" nType="0">
          <Node pos="l" depth="2" NCoef="0" IVar="-1" Cut="0.0000000000000000e+00" cType="1" res="-1.6380039975047112e-02" rms="3.3414670825004578e-01" purity="5.5573391914367676e-01" nType="-99"/>
          <Node pos="r" depth="2" NCoef="0" IVar="7" Cut="4.8042392730712891e-01" cType="1" res="-6.3489202875643969e-04" rms="1.8136683106422424e-01" purity="9.1879910230636597e-01" nType="0">
            <Node pos="l" depth="3" NCoef="0" IVar="-1" Cut="0.0000000000000000e+00" cType="1" res="3.5494531039148569e-03" rms="1.7148116230964661e-01" purity="9.2709720134735107e-01" nType="-99"/>
            <Node pos="r" depth="3" NCoef="0" IVar="-1" Cut="0.0000000000000000e+00" cType="1" res="-1.6389286145567894e-02" rms="2.1282382309436798e-01" purity="8.8918447494506836e-01" nType="-99"/>
          </Node>
        </Node>
      </Node>
    </BinaryTree>
    <BinaryTree type="DecisionTree" boostWeight="1.0000000000000000e+00" itree="713">
      <Node pos="s" depth="0" NCoef="0" IVar="10" Cut="-1.4665282964706421e+00" cType="1" res="-6.9263833574950695e-04" rms="1.8315304815769196e-01" purity="4.9873107671737671e-01" nType="0">
        <Node pos="l" depth="1" NCoef="0" IVar="1" Cut="1.6740700683593750e+03" cType="1" res="-1.4713476411998272e-02" rms="1.9710448384284973e-01" purity="4.2510801553726196e-01" nType="0">
          <Node pos="l" depth="2" NCoef="0" IVar="-1" Cut="0.0000000000000000e+00" cType="1" res="-2.7860289439558983e-02" rms="1.0263638198375702e-01" purity="1.1976782232522964e-02" nType="-99"/>
          <Node pos="r" depth="2" NCoef="0" IVar="1" Cut="2.4571604003906250e+03" cType="1" res="-2.0748769864439964e-02" rms="2.3382773995399475e-01" purity="6.5747529268264771e-01" nType="0">
            <Node pos="l" depth="3" NCoef="0" IVar="-1" Cut="0.0000000000000000e+00" cType="1" res="-3.9773944765329361e-02" rms="2.9617476463317871e-01" purity="2.5764903426170349e-01" nType="-99"/>
            <Node pos="r" depth="3" NCoef="0" IVar="-1" Cut="0.0000000000000000e+00" cType="1" res="-2.1011687815189362e-02" rms="1.7226959764957428e-01" purity="9.5336395502090454e-01" nType="-99"/>
          </Node>
        </Node>
        <Node pos="r" depth="1" NCoef="0" IVar="2" Cut="4.1792735457420349e-02" cType="1" res="1.1847482528537512e-03" rms="1.8112105131149292e-01" purity="5.0858920812606812e-01" nType="0">
          <Node pos="l" depth="2" NCoef="0" IVar="7" Cut="-1.1195874214172363e+00" cType="1" res="5.0215115770697594e-03" rms="1.9189712405204773e-01" purity="3.4086513519287109e-01" nType="0">
            <Node pos="l" depth="3" NCoef="0" IVar="-1" Cut="0.0000000000000000e+00" cType="1" res="-1.6574846580624580e-02" rms="1.5988796949386597e-01" purity="1.3226188719272614e-01" nType="-99"/>
            <Node pos="r" depth="3" NCoef="0" IVar="-1" Cut="0.0000000000000000e+00" cType="1" res="1.6884721815586090e-02" rms="1.9614490866661072e-01" purity="3.7170025706291199e-01" nType="-99"/>
          </Node>
          <Node pos="r" depth="2" NCoef="0" IVar="0" Cut="5.3302648925781250e+02" cType="1" res="-3.5488309804350138e-03" rms="1.6674838960170746e-01" purity="7.1551752090454102e-01" nType="0">
            <Node pos="l" depth="3" NCoef="0" IVar="-1" Cut="0.0000000000000000e+00" cType="1" res="-2.8389064595103264e-02" rms="2.0515435934066772e-01" purity="1.1506558209657669e-01" nType="-99"/>
            <Node pos="r" depth="3" NCoef="0" IVar="-1" Cut="0.0000000000000000e+00" cType="1" res="-3.7398466374725103e-03" rms="1.5513539314270020e-01" purity="8.7123286724090576e-01" nType="-99"/>
          </Node>
        </Node>
      </Node>
    </BinaryTree>
    <BinaryTree type="DecisionTree" boostWeight="1.0000000000000000e+00" itree="714">
      <Node pos="s" depth="0" NCoef="0" IVar="7" Cut="-1.4041074514389038e+00" cType="1" res="-7.7320775017142296e-04" rms="1.8060953915119171e-01" purity="4.9797350168228149e-01" nType="0">
        <Node pos="l" depth="1" NCoef="0" IVar="-1" Cut="0.0000000000000000e+00" cType="1" res="2.8821496292948723e-02" rms="1.7646895349025726e-01" purity="1.1113933473825455e-01" nType="-99"/>
        <Node pos="r" depth="1" NCoef="0" IVar="9" Cut="1.4665912389755249e+00" cType="1" res="-1.2117184232920408e-03" rms="1.8081332743167877e-01" purity="5.1825422048568726e-01" nType="0">
          <Node pos="l" depth="2" NCoef="0" IVar="8" Cut="-9.3321532011032104e-01" cType="1" res="-1.9572584424167871e-03" rms="1.7639203369617462e-01" purity="5.3441023826599121e-01" nType="0">
            <Node pos="l" depth="3" NCoef="0" IVar="-1" Cut="0.0000000000000000e+00" cType="1" res="-1.7365412786602974e-02" rms="1.9212074577808380e-01" purity="3.6821702122688293e-01" nType="-99"/>
            <Node pos="r" depth="3" NCoef="0" IVar="-1" Cut="0.0000000000000000e+00" cType="1" res="-2.7948378119617701e-03" rms="1.7279386520385742e-01" purity="5.7025545835494995e-01" nType="-99"/>
          </Node>
          <Node pos="r" depth="2" NCoef="0" IVar="10" Cut="-6.6662085056304932e-01" cType="1" res="6.0660704039037228e-03" rms="2.1920746564865112e-01" purity="3.6054307222366333e-01" nType="0">
            <Node pos="l" depth="3" NCoef="0" IVar="-1" Cut="0.0000000000000000e+00" cType="1" res="4.3136950582265854e-02" rms="2.5781330466270447e-01" purity="4.1432011127471924e-01" nType="-99"/>
            <Node pos="r" depth="3" NCoef="0" IVar="-1" Cut="0.0000000000000000e+00" cType="1" res="-3.8379246834665537e-03" rms="2.0138375461101532e-01" purity="3.3928167819976807e-01" nType="-99"/>
          </Node>
        </Node>
      </Node>
    </BinaryTree>
    <BinaryTree type="DecisionTree" boostWeight="1.0000000000000000e+00" itree="715">
      <Node pos="s" depth="0" NCoef="0" IVar="8" Cut="-1.7332005500793457e+00" cType="1" res="7.2804326191544533e-04" rms="1.8410970270633698e-01" purity="4.9934035539627075e-01" nType="0">
        <Node pos="l" depth="1" NCoef="0" IVar="-1" Cut="0.0000000000000000e+00" cType="1" res="3.6926835775375366e-02" rms="2.3120863735675812e-01" purity="2.0045630633831024e-01" nType="-99"/>
        <Node pos="r" depth="1" NCoef="0" IVar="6" Cut="1.3980041503906250e+02" cType="1" res="3.7194458855083212e-05" rms="1.8172600865364075e-01" purity="5.1249164342880249e-01" nType="0">
          <Node pos="l" depth="2" NCoef="0" IVar="4" Cut="3.2795935058593750e+02" cType="1" res="-2.7318375650793314e-03" rms="1.8690201640129089e-01" purity="2.3395159840583801e-01" nType="0">
            <Node pos="l" depth="3" NCoef="0" IVar="-1" Cut="0.0000000000000000e+00" cType="1" res="2.8386220801621675e-03" rms="1.4955458045005798e-01" purity="4.9479417502880096e-02" nType="-99"/>
            <Node pos="r" depth="3" NCoef="0" IVar="-1" Cut="0.0000000000000000e+00" cType="1" res="-1.1953991837799549e-02" rms="2.2139748930931091e-01" purity="4.4112202525138855e-01" nType="-99"/>
          </Node>
          <Node pos="r" depth="2" NCoef="0" IVar="0" Cut="4.2571609497070312e+02" cType="1" res="3.1522393692284822e-03" rms="1.7566892504692078e-01" purity="8.2583761215209961e-01" nType="0">
            <Node pos="l" depth="3" NCoef="0" IVar="-1" Cut="0.0000000000000000e+00" cType="1" res="4.5854456722736359e-02" rms="2.3504187166690826e-01" purity="7.9037919640541077e-02" nType="-99"/>
            <Node pos="r" depth="3" NCoef="0" IVar="-1" Cut="0.0000000000000000e+00" cType="1" res="4.8968973569571972e-03" rms="1.6839146614074707e-01" purity="9.0158867835998535e-01" nType="-99"/>
          </Node>
        </Node>
      </Node>
    </BinaryTree>
    <BinaryTree type="DecisionTree" boostWeight="1.0000000000000000e+00" itree="716">
      <Node pos="s" depth="0" NCoef="0" IVar="9" Cut="1.9998813867568970e+00" cType="1" res="8.7357766460627317e-04" rms="1.8434856832027435e-01" purity="4.9983730912208557e-01" nType="0">
        <Node pos="l" depth="1" NCoef="0" IVar="10" Cut="-2.2666356563568115e+00" cType="1" res="1.4711587937199511e-05" rms="1.8269626796245575e-01" purity="5.0804978609085083e-01" nType="0">
          <Node pos="l" depth="2" NCoef="0" IVar="-1" Cut="0.0000000000000000e+00" cType="1" res="3.6905471235513687e-02" rms="2.4048006534576416e-01" purity="3.6175578832626343e-01" nType="-99"/>
          <Node pos="r" depth="2" NCoef="0" IVar="7" Cut="-1.1878659725189209e+00" cType="1" res="-5.9472979046404362e-04" rms="1.8075302243232727e-01" purity="5.1219451427459717e-01" nType="0">
            <Node pos="l" depth="3" NCoef="0" IVar="-1" Cut="0.0000000000000000e+00" cType="1" res="3.5235684365034103e-02" rms="1.9525507092475891e-01" purity="1.9152086973190308e-01" nType="-99"/>
            <Node pos="r" depth="3" NCoef="0" IVar="-1" Cut="0.0000000000000000e+00" cType="1" res="-4.9566677771508694e-03" rms="1.7939949035644531e-01" purity="5.4001736640930176e-01" nType="-99"/>
          </Node>
        </Node>
        <Node pos="r" depth="1" NCoef="0" IVar="-1" Cut="0.0000000000000000e+00" cType="1" res="4.5182682573795319e-02" rms="2.2361248731613159e-01" purity="2.7518007159233093e-01" nType="-99"/>
      </Node>
    </BinaryTree>
    <BinaryTree type="DecisionTree" boostWeight="1.0000000000000000e+00" itree="717">
      <Node pos="s" depth="0" NCoef="0" IVar="7" Cut="9.5925283432006836e-01" cType="1" res="-2.1578832529485226e-03" rms="1.8292136490345001e-01" purity="4.9879711866378784e-01" nType="0">
        <Node pos="l" depth="1" NCoef="0" IVar="1" Cut="1.6748160400390625e+03" cType="1" res="-3.1224833801388741e-03" rms="1.7920257151126862e-01" purity="5.3474849462509155e-01" nType="0">
          <Node pos="l" depth="2" NCoef="0" IVar="2" Cut="5.6093961000442505e-02" cType="1" res="7.5115822255611420e-04" rms="9.6471421420574188e-02" purity="1.1691039428114891e-02" nType="0">
            <Node pos="l" depth="3" NCoef="0" IVar="-1" Cut="0.0000000000000000e+00" cType="1" res="-2.5765208527445793e-02" rms="7.2601892054080963e-02" purity="6.1778626404702663e-03" nType="-99"/>
            <Node pos="r" depth="3" NCoef="0" IVar="-1" Cut="0.0000000000000000e+00" cType="1" res="5.9060171246528625e-02" rms="1.5734353661537170e-01" purity="3.2979305833578110e-02" nType="-99"/>
          </Node>
          <Node pos="r" depth="2" NCoef="0" IVar="5" Cut="2.7711721801757812e+02" cType="1" res="-4.6987561509013176e-03" rms="2.0343448221683502e-01" purity="7.4759244918823242e-01" nType="0">
            <Node pos="l" depth="3" NCoef="0" IVar="-1" Cut="0.0000000000000000e+00" cType="1" res="-1.5888888388872147e-02" rms="2.6316154003143311e-01" purity="4.3937018513679504e-01" nType="-99"/>
            <Node pos="r" depth="3" NCoef="0" IVar="-1" Cut="0.0000000000000000e+00" cType="1" res="-1.3468801043927670e-03" rms="1.5372455120086670e-01" purity="9.4340938329696655e-01" nType="-99"/>
          </Node>
        </Node>
        <Node pos="r" depth="1" NCoef="0" IVar="9" Cut="6.6681075096130371e-01" cType="1" res="4.4873575679957867e-03" rms="2.0660826563835144e-01" purity="2.5112429261207581e-01" nType="0">
          <Node pos="l" depth="2" NCoef="0" IVar="7" Cut="1.3969485759735107e+00" cType="1" res="-1.6754661919549108e-03" rms="1.9121655821800232e-01" purity="2.6917609572410583e-01" nType="0">
            <Node pos="l" depth="3" NCoef="0" IVar="-1" Cut="0.0000000000000000e+00" cType="1" res="7.3391301557421684e-03" rms="2.0417423546314240e-01" purity="3.6433574557304382e-01" nType="-99"/>
            <Node pos="r" depth="3" NCoef="0" IVar="-1" Cut="0.0000000000000000e+00" cType="1" res="-2.7740981429815292e-02" rms="1.6900241374969482e-01" purity="1.2224651128053665e-01" nType="-99"/>
          </Node>
          <Node pos="r" depth="2" NCoef="0" IVar="-1" Cut="0.0000000000000000e+00" cType="1" res="3.9832614362239838e-02" rms="2.3558293282985687e-01" purity="2.1260340511798859e-01" nType="-99"/>
        </Node>
      </Node>
    </BinaryTree>
    <BinaryTree type="DecisionTree" boostWeight="1.0000000000000000e+00" itree="718">
      <Node pos="s" depth="0" NCoef="0" IVar="10" Cut="1.7332602739334106e+00" cType="1" res="2.6863906532526016e-04" rms="1.8386648595333099e-01" purity="4.9895611405372620e-01" nType="0">
        <Node pos="l" depth="1" NCoef="0" IVar="3" Cut="3.4007958984375000e+02" cType="1" res="1.0584949050098658e-03" rms="1.8167276680469513e-01" purity="5.0772213935852051e-01" nType="0">
          <Node pos="l" depth="2" NCoef="0" IVar="-1" Cut="0.0000000000000000e+00" cType="1" res="5.3808271884918213e-02" rms="1.7809450626373291e-01" purity="4.9085065722465515e-02" nType="-99"/>
          <Node pos="r" depth="2" NCoef="0" IVar="9" Cut="1.4664598703384399e+00" cType="1" res="5.4144032765179873e-04" rms="1.8180507421493530e-01" purity="5.2719318866729736e-01" nType="0">
            <Node pos="l" depth="3" NCoef="0" IVar="-1" Cut="0.0000000000000000e+00" cType="1" res="-9.8995037842541933e-04" rms="1.7631208896636963e-01" purity="5.4318839311599731e-01" nType="-99"/>
            <Node pos="r" depth="3" NCoef="0" IVar="-1" Cut="0.0000000000000000e+00" cType="1" res="1.9111255183815956e-02" rms="2.3109522461891174e-01" purity="3.6098822951316833e-01" nType="-99"/>
          </Node>
        </Node>
        <Node pos="r" depth="1" NCoef="0" IVar="9" Cut="-1.3401336967945099e-01" cType="1" res="-9.1335829347372055e-03" rms="2.0798198878765106e-01" purity="3.9460745453834534e-01" nType="0">
          <Node pos="l" depth="2" NCoef="0" IVar="-1" Cut="0.0000000000000000e+00" cType="1" res="-3.9693437516689301e-02" rms="2.1489688754081726e-01" purity="4.1023543477058411e-01" nType="-99"/>
          <Node pos="r" depth="2" NCoef="0" IVar="-1" Cut="0.0000000000000000e+00" cType="1" res="-3.9916755631566048e-03" rms="2.0272898674011230e-01" purity="3.8372895121574402e-01" nType="-99"/>
        </Node>
      </Node>
    </BinaryTree>
    <BinaryTree type="DecisionTree" boostWeight="1.0000000000000000e+00" itree="719">
      <Node pos="s" depth="0" NCoef="0" IVar="10" Cut="1.9999970197677612e+00" cType="1" res="7.7502202475443482e-04" rms="1.8396432697772980e-01" purity="4.9737364053726196e-01" nType="0">
        <Node pos="l" depth="1" NCoef="0" IVar="7" Cut="1.8454548716545105e-01" cType="1" res="1.2035207328153774e-04" rms="1.8163937330245972e-01" purity="5.0226813554763794e-01" nType="0">
          <Node pos="l" depth="2" NCoef="0" IVar="7" Cut="-7.7288538217544556e-01" cType="1" res="-2.0208556670695543e-03" rms="1.7644651234149933e-01" purity="5.2042019367218018e-01" nType="0">
            <Node pos="l" depth="3" NCoef="0" IVar="-1" Cut="0.0000000000000000e+00" cType="1" res="9.3308500945568085e-03" rms="1.8837501108646393e-01" purity="3.1527462601661682e-01" nType="-99"/>
            <Node pos="r" depth="3" NCoef="0" IVar="-1" Cut="0.0000000000000000e+00" cType="1" res="-1.4191809110343456e-02" rms="1.7097598314285278e-01" purity="6.0923624038696289e-01" nType="-99"/>
          </Node>
          <Node pos="r" depth="2" NCoef="0" IVar="0" Cut="7.4137329101562500e+02" cType="1" res="3.1811418011784554e-03" rms="1.8877239525318146e-01" purity="4.7632041573524475e-01" nType="0">
            <Node pos="l" depth="3" NCoef="0" IVar="-1" Cut="0.0000000000000000e+00" cType="1" res="1.7102077603340149e-02" rms="1.9917696714401245e-01" purity="1.8436968326568604e-01" nType="-99"/>
            <Node pos="r" depth="3" NCoef="0" IVar="-1" Cut="0.0000000000000000e+00" cType="1" res="-7.2233388200402260e-03" rms="1.7357181012630463e-01" purity="8.7103116512298584e-01" nType="-99"/>
          </Node>
        </Node>
        <Node pos="r" depth="1" NCoef="0" IVar="-1" Cut="0.0000000000000000e+00" cType="1" res="2.3898787796497345e-02" rms="2.2327621281147003e-01" purity="4.0424826741218567e-01" nType="-99"/>
      </Node>
    </BinaryTree>
    <BinaryTree type="DecisionTree" boostWeight="1.0000000000000000e+00" itree="720">
      <Node pos="s" depth="0" NCoef="0" IVar="10" Cut="2.2666387557983398e+00" cType="1" res="-2.1478078269865364e-04" rms="1.8212026357650757e-01" purity="5.0084781646728516e-01" nType="0">
        <Node pos="l" depth="1" NCoef="0" IVar="0" Cut="4.4441311645507812e+02" cType="1" res="2.7064437745139003e-04" rms="1.8079529702663422e-01" purity="5.0510603189468384e-01" nType="0">
          <Node pos="l" depth="2" NCoef="0" IVar="5" Cut="1.7542715454101562e+02" cType="1" res="-5.3533143363893032e-03" rms="1.2690688669681549e-01" purity="2.3963194340467453e-02" nType="0">
            <Node pos="l" depth="3" NCoef="0" IVar="-1" Cut="0.0000000000000000e+00" cType="1" res="1.3721046969294548e-02" rms="8.3325847983360291e-02" purity="9.4427112489938736e-03" nType="-99"/>
            <Node pos="r" depth="3" NCoef="0" IVar="-1" Cut="0.0000000000000000e+00" cType="1" res="-3.3834233880043030e-02" rms="1.5997797250747681e-01" purity="3.9134867489337921e-02" nType="-99"/>
          </Node>
          <Node pos="r" depth="2" NCoef="0" IVar="8" Cut="1.4666360616683960e+00" cType="1" res="1.7923200502991676e-03" rms="1.9277590513229370e-01" purity="6.3528895378112793e-01" nType="0">
            <Node pos="l" depth="3" NCoef="0" IVar="-1" Cut="0.0000000000000000e+00" cType="1" res="2.3170975036919117e-03" rms="1.8776372075080872e-01" purity="6.5221953392028809e-01" nType="-99"/>
            <Node pos="r" depth="3" NCoef="0" IVar="-1" Cut="0.0000000000000000e+00" cType="1" res="2.6921160519123077e-02" rms="2.5916576385498047e-01" purity="3.6682027578353882e-01" nType="-99"/>
          </Node>
        </Node>
        <Node pos="r" depth="1" NCoef="0" IVar="-1" Cut="0.0000000000000000e+00" cType="1" res="-3.5299852490425110e-02" rms="2.2439861297607422e-01" purity="3.4580519795417786e-01" nType="-99"/>
      </Node>
    </BinaryTree>
    <BinaryTree type="DecisionTree" boostWeight="1.0000000000000000e+00" itree="721">
      <Node pos="s" depth="0" NCoef="0" IVar="10" Cut="-1.9999636411666870e+00" cType="1" res="1.6413849079981446e-03" rms="1.8364562094211578e-01" purity="5.0175350904464722e-01" nType="0">
        <Node pos="l" depth="1" NCoef="0" IVar="-1" Cut="0.0000000000000000e+00" cType="1" res="3.0960591509938240e-02" rms="2.3312766849994659e-01" purity="3.7281244993209839e-01" nType="-99"/>
        <Node pos="r" depth="1" NCoef="0" IVar="6" Cut="9.2209823608398438e+01" cType="1" res="8.9165341341868043e-04" rms="1.8078157305717468e-01" purity="5.0820565223693848e-01" nType="0">
          <Node pos="l" depth="2" NCoef="0" IVar="1" Cut="1.6762973632812500e+03" cType="1" res="-2.6776348240673542e-03" rms="1.6750608384609222e-01" purity="1.5472762286663055e-01" nType="0">
            <Node pos="l" depth="3" NCoef="0" IVar="-1" Cut="0.0000000000000000e+00" cType="1" res="2.9262529686093330e-02" rms="7.7596530318260193e-02" purity="7.8487386927008629e-03" nType="-99"/>
            <Node pos="r" depth="3" NCoef="0" IVar="-1" Cut="0.0000000000000000e+00" cType="1" res="-1.3860692270100117e-02" rms="2.3994554579257965e-01" purity="3.5184597969055176e-01" nType="-99"/>
          </Node>
          <Node pos="r" depth="2" NCoef="0" IVar="7" Cut="1.2427027225494385e+00" cType="1" res="2.4954914115369320e-03" rms="1.8641702830791473e-01" purity="6.6703879833221436e-01" nType="0">
            <Node pos="l" depth="3" NCoef="0" IVar="-1" Cut="0.0000000000000000e+00" cType="1" res="9.4072557985782623e-03" rms="1.8478788435459137e-01" purity="6.9201046228408813e-01" nType="-99"/>
            <Node pos="r" depth="3" NCoef="0" IVar="-1" Cut="0.0000000000000000e+00" cType="1" res="-2.0000627264380455e-02" rms="2.1036876738071442e-01" purity="2.6761692762374878e-01" nType="-99"/>
          </Node>
        </Node>
      </Node>
    </BinaryTree>
    <BinaryTree type="DecisionTree" boostWeight="1.0000000000000000e+00" itree="722">
      <Node pos="s" depth="0" NCoef="0" IVar="10" Cut="-1.9999257326126099e+00" cType="1" res="1.0908817639574409e-03" rms="1.8528391420841217e-01" purity="5.0292229652404785e-01" nType="0">
        <Node pos="l" depth="1" NCoef="0" IVar="0" Cut="6.0396069335937500e+02" cType="1" res="1.6468724235892296e-02" rms="2.3041534423828125e-01" purity="4.0200489759445190e-01" nType="0">
          <Node pos="l" depth="2" NCoef="0" IVar="-1" Cut="0.0000000000000000e+00" cType="1" res="4.3376710265874863e-02" rms="2.3771065473556519e-01" purity="1.3725577294826508e-01" nType="-99"/>
          <Node pos="r" depth="2" NCoef="0" IVar="-1" Cut="0.0000000000000000e+00" cType="1" res="1.6501262784004211e-02" rms="2.2251203656196594e-01" purity="6.7089992761611938e-01" nType="-99"/>
        </Node>
        <Node pos="r" depth="1" NCoef="0" IVar="10" Cut="-1.5427772998809814e+00" cType="1" res="2.6750555844046175e-04" rms="1.8251647055149078e-01" purity="5.0832569599151611e-01" nType="0">
          <Node pos="l" depth="2" NCoef="0" IVar="8" Cut="-1.3158500194549561e-01" cType="1" res="-7.9542296007275581e-03" rms="1.9194807112216949e-01" purity="4.7574758529663086e-01" nType="0">
            <Node pos="l" depth="3" NCoef="0" IVar="-1" Cut="0.0000000000000000e+00" cType="1" res="-2.8540722560137510e-03" rms="1.8613216280937195e-01" purity="4.3128821253776550e-01" nType="-99"/>
            <Node pos="r" depth="3" NCoef="0" IVar="-1" Cut="0.0000000000000000e+00" cType="1" res="-3.6846362054347992e-02" rms="1.9763514399528503e-01" purity="5.2257871627807617e-01" nType="-99"/>
          </Node>
          <Node pos="r" depth="2" NCoef="0" IVar="10" Cut="-1.3359719514846802e+00" cType="1" res="8.1228837370872498e-04" rms="1.8186111748218536e-01" purity="5.1048439741134644e-01" nType="0">
            <Node pos="l" depth="3" NCoef="0" IVar="-1" Cut="0.0000000000000000e+00" cType="1" res="4.2351298034191132e-02" rms="2.1084441244602203e-01" purity="4.8725029826164246e-01" nType="-99"/>
            <Node pos="r" depth="3" NCoef="0" IVar="-1" Cut="0.0000000000000000e+00" cType="1" res="7.3453929508104920e-04" rms="1.8056033551692963e-01" purity="5.1142990589141846e-01" nType="-99"/>
          </Node>
        </Node>
      </Node>
    </BinaryTree>
    <BinaryTree type="DecisionTree" boostWeight="1.0000000000000000e+00" itree="723">
      <Node pos="s" depth="0" NCoef="0" IVar="10" Cut="-1.7332875728607178e+00" cType="1" res="1.0385473615315277e-05" rms="1.8188497424125671e-01" purity="4.9991163611412048e-01" nType="0">
        <Node pos="l" depth="1" NCoef="0" IVar="0" Cut="5.1105447387695312e+02" cType="1" res="-1.2463930062949657e-02" rms="2.0240695774555206e-01" purity="3.9048013091087341e-01" nType="0">
          <Node pos="l" depth="2" NCoef="0" IVar="-1" Cut="0.0000000000000000e+00" cType="1" res="-6.0171823948621750e-02" rms="1.5626581013202667e-01" purity="4.3710947036743164e-02" nType="-99"/>
          <Node pos="r" depth="2" NCoef="0" IVar="10" Cut="-2.0888352394104004e+00" cType="1" res="-5.3485138341784477e-03" rms="2.2366978228092194e-01" purity="5.8327794075012207e-01" nType="0">
            <Node pos="l" depth="3" NCoef="0" IVar="-1" Cut="0.0000000000000000e+00" cType="1" res="-2.6868656277656555e-03" rms="2.3692011833190918e-01" purity="5.1907438039779663e-01" nType="-99"/>
            <Node pos="r" depth="3" NCoef="0" IVar="-1" Cut="0.0000000000000000e+00" cType="1" res="-1.8489694222807884e-02" rms="2.1008995175361633e-01" purity="6.4498150348663330e-01" nType="-99"/>
          </Node>
        </Node>
        <Node pos="r" depth="1" NCoef="0" IVar="6" Cut="9.4900230407714844e+01" cType="1" res="1.0935096070170403e-03" rms="1.7995192110538483e-01" purity="5.0941342115402222e-01" nType="0">
          <Node pos="l" depth="2" NCoef="0" IVar="1" Cut="2.2288701171875000e+03" cType="1" res="3.9360551163554192e-03" rms="1.7251083254814148e-01" purity="1.6147851943969727e-01" nType="0">
            <Node pos="l" depth="3" NCoef="0" IVar="-1" Cut="0.0000000000000000e+00" cType="1" res="4.0064491331577301e-03" rms="1.3159464299678802e-01" purity="2.4426354095339775e-02" nType="-99"/>
            <Node pos="r" depth="3" NCoef="0" IVar="-1" Cut="0.0000000000000000e+00" cType="1" res="1.9859137013554573e-02" rms="2.9119578003883362e-01" purity="7.7042090892791748e-01" nType="-99"/>
          </Node>
          <Node pos="r" depth="2" NCoef="0" IVar="9" Cut="1.7327353954315186e+00" cType="1" res="-2.4644951918162405e-04" rms="1.8333962559700012e-01" purity="6.7342782020568848e-01" nType="0">
            <Node pos="l" depth="3" NCoef="0" IVar="-1" Cut="0.0000000000000000e+00" cType="1" res="1.3999519869685173e-03" rms="1.8066443502902985e-01" purity="6.8586951494216919e-01" nType="-99"/>
            <Node pos="r" depth="3" NCoef="0" IVar="-1" Cut="0.0000000000000000e+00" cType="1" res="-2.7849350124597549e-02" rms="2.3459510505199432e-01" purity="3.9632710814476013e-01" nType="-99"/>
          </Node>
        </Node>
      </Node>
    </BinaryTree>
    <BinaryTree type="DecisionTree" boostWeight="1.0000000000000000e+00" itree="724">
      <Node pos="s" depth="0" NCoef="0" IVar="6" Cut="1.3441853332519531e+02" cType="1" res="1.7598574049770832e-04" rms="1.8347525596618652e-01" purity="5.0225496292114258e-01" nType="0">
        <Node pos="l" depth="1" NCoef="0" IVar="5" Cut="1.5556632995605469e+02" cType="1" res="3.1017186120152473e-03" rms="1.9308555126190186e-01" purity="2.2619283199310303e-01" nType="0">
          <Node pos="l" depth="2" NCoef="0" IVar="9" Cut="-3.9968532323837280e-01" cType="1" res="-1.5288819558918476e-03" rms="1.4290547370910645e-01" purity="5.8877795934677124e-02" nType="0">
            <Node pos="l" depth="3" NCoef="0" IVar="-1" Cut="0.0000000000000000e+00" cType="1" res="1.7567994073033333e-02" rms="1.5696603059768677e-01" purity="6.4564526081085205e-02" nType="-99"/>
            <Node pos="r" depth="3" NCoef="0" IVar="-1" Cut="0.0000000000000000e+00" cType="1" res="-2.3705760017037392e-02" rms="1.3337685167789459e-01" purity="5.5370762944221497e-02" nType="-99"/>
          </Node>
          <Node pos="r" depth="2" NCoef="0" IVar="1" Cut="2.1659077148437500e+03" cType="1" res="8.1017361953854561e-03" rms="2.3545484244823456e-01" purity="4.0685582160949707e-01" nType="0">
            <Node pos="l" depth="3" NCoef="0" IVar="-1" Cut="0.0000000000000000e+00" cType="1" res="2.9735697433352470e-02" rms="2.2584864497184753e-01" purity="8.1017978489398956e-02" nType="-99"/>
            <Node pos="r" depth="3" NCoef="0" IVar="-1" Cut="0.0000000000000000e+00" cType="1" res="-7.2525050200056285e-05" rms="2.4853894114494324e-01" purity="8.8073253631591797e-01" nType="-99"/>
          </Node>
        </Node>
        <Node pos="r" depth="1" NCoef="0" IVar="1" Cut="2.2938754882812500e+03" cType="1" res="-2.9641748405992985e-03" rms="1.7251096665859222e-01" purity="7.9854971170425415e-01" nType="0">
          <Node pos="l" depth="2" NCoef="0" IVar="6" Cut="1.8249996948242188e+02" cType="1" res="-1.3916729949414730e-02" rms="2.6491373777389526e-01" purity="1.8224023282527924e-01" nType="0">
            <Node pos="l" depth="3" NCoef="0" IVar="-1" Cut="0.0000000000000000e+00" cType="1" res="-7.2718043811619282e-03" rms="2.4404628574848175e-01" purity="1.2998192012310028e-01" nType="-99"/>
            <Node pos="r" depth="3" NCoef="0" IVar="-1" Cut="0.0000000000000000e+00" cType="1" res="-2.8922198340296745e-02" rms="3.0471298098564148e-01" purity="2.9651105403900146e-01" nType="-99"/>
          </Node>
          <Node pos="r" depth="2" NCoef="0" IVar="7" Cut="-5.7368140667676926e-02" cType="1" res="2.1866882161702961e-04" rms="1.3404886424541473e-01" purity="9.7765105962753296e-01" nType="0">
            <Node pos="l" depth="3" NCoef="0" IVar="-1" Cut="0.0000000000000000e+00" cType="1" res="-1.5062801539897919e-02" rms="1.3634721934795380e-01" purity="9.7581243515014648e-01" nType="-99"/>
            <Node pos="r" depth="3" NCoef="0" IVar="-1" Cut="0.0000000000000000e+00" cType="1" res="1.4230322092771530e-02" rms="1.3197433948516846e-01" purity="9.7924661636352539e-01" nType="-99"/>
          </Node>
        </Node>
      </Node>
    </BinaryTree>
    <BinaryTree type="DecisionTree" boostWeight="1.0000000000000000e+00" itree="725">
      <Node pos="s" depth="0" NCoef="0" IVar="8" Cut="-1.7332795858383179e+00" cType="1" res="5.2978907478973269e-04" rms="1.8478393554687500e-01" purity="5.0203865766525269e-01" nType="0">
        <Node pos="l" depth="1" NCoef="0" IVar="-1" Cut="0.0000000000000000e+00" cType="1" res="-3.3788777887821198e-02" rms="1.7861613631248474e-01" purity="1.6576004028320312e-01" nType="-99"/>
        <Node pos="r" depth="1" NCoef="0" IVar="9" Cut="1.4666804075241089e+00" cType="1" res="1.1271401308476925e-03" rms="1.8501840531826019e-01" purity="5.1635831594467163e-01" nType="0">
          <Node pos="l" depth="2" NCoef="0" IVar="2" Cut="4.1260410100221634e-02" cType="1" res="2.0373486913740635e-03" rms="1.8188610672950745e-01" purity="5.3324687480926514e-01" nType="0">
            <Node pos="l" depth="3" NCoef="0" IVar="-1" Cut="0.0000000000000000e+00" cType="1" res="1.2861144728958607e-02" rms="1.9249799847602844e-01" purity="3.6081868410110474e-01" nType="-99"/>
            <Node pos="r" depth="3" NCoef="0" IVar="-1" Cut="0.0000000000000000e+00" cType="1" res="-3.6133921239525080e-03" rms="1.6941756010055542e-01" purity="7.2253781557083130e-01" nType="-99"/>
          </Node>
          <Node pos="r" depth="2" NCoef="0" IVar="8" Cut="6.4117270708084106e-01" cType="1" res="-7.7981064096093178e-03" rms="2.1310393512248993e-01" purity="3.5075411200523376e-01" nType="0">
            <Node pos="l" depth="3" NCoef="0" IVar="-1" Cut="0.0000000000000000e+00" cType="1" res="-2.9508419334888458e-02" rms="2.1219004690647125e-01" purity="3.9918285608291626e-01" nType="-99"/>
            <Node pos="r" depth="3" NCoef="0" IVar="-1" Cut="0.0000000000000000e+00" cType="1" res="1.6599524766206741e-02" rms="2.1413929760456085e-01" purity="2.5360780954360962e-01" nType="-99"/>
          </Node>
        </Node>
      </Node>
    </BinaryTree>
    <BinaryTree type="DecisionTree" boostWeight="1.0000000000000000e+00" itree="726">
      <Node pos="s" depth="0" NCoef="0" IVar="8" Cut="3.9999517798423767e-01" cType="1" res="-8.6429307702928782e-04" rms="1.8176423013210297e-01" purity="4.9930399656295776e-01" nType="0">
        <Node pos="l" depth="1" NCoef="0" IVar="0" Cut="7.0407043457031250e+02" cType="1" res="1.4247063081711531e-03" rms="1.8161572515964508e-01" purity="5.2630132436752319e-01" nType="0">
          <Node pos="l" depth="2" NCoef="0" IVar="2" Cut="1.0911011695861816e-01" cType="1" res="5.6031034328043461e-03" rms="1.9654519855976105e-01" purity="1.8246231973171234e-01" nType="0">
            <Node pos="l" depth="3" NCoef="0" IVar="-1" Cut="0.0000000000000000e+00" cType="1" res="7.4163288809359074e-03" rms="1.8801409006118774e-01" purity="1.5278689563274384e-01" nType="-99"/>
            <Node pos="r" depth="3" NCoef="0" IVar="-1" Cut="0.0000000000000000e+00" cType="1" res="5.0648517906665802e-02" rms="2.6058515906333923e-01" purity="4.5393615961074829e-01" nType="-99"/>
          </Node>
          <Node pos="r" depth="2" NCoef="0" IVar="1" Cut="3.2374572753906250e+03" cType="1" res="-2.7211019769310951e-03" rms="1.6537247598171234e-01" purity="8.6745864152908325e-01" nType="0">
            <Node pos="l" depth="3" NCoef="0" IVar="-1" Cut="0.0000000000000000e+00" cType="1" res="-1.4058186672627926e-02" rms="2.3318307101726532e-01" purity="7.0161944627761841e-01" nType="-99"/>
            <Node pos="r" depth="3" NCoef="0" IVar="-1" Cut="0.0000000000000000e+00" cType="1" res="1.2461223639547825e-02" rms="8.2968354225158691e-02" purity="9.9284875392913818e-01" nType="-99"/>
          </Node>
        </Node>
        <Node pos="r" depth="1" NCoef="0" IVar="3" Cut="6.3756640625000000e+02" cType="1" res="-5.1980032585561275e-03" rms="1.8196620047092438e-01" purity="4.4819051027297974e-01" nType="0">
          <Node pos="l" depth="2" NCoef="0" IVar="1" Cut="1.6924156494140625e+03" cType="1" res="-1.1420599184930325e-02" rms="1.7865224182605743e-01" purity="1.4980632066726685e-01" nType="0">
            <Node pos="l" depth="3" NCoef="0" IVar="-1" Cut="0.0000000000000000e+00" cType="1" res="-2.3046832531690598e-02" rms="1.0406529158353806e-01" purity="1.2975669465959072e-02" nType="-99"/>
            <Node pos="r" depth="3" NCoef="0" IVar="-1" Cut="0.0000000000000000e+00" cType="1" res="-3.2200407236814499e-02" rms="2.7406427264213562e-01" purity="4.3276944756507874e-01" nType="-99"/>
          </Node>
          <Node pos="r" depth="2" NCoef="0" IVar="9" Cut="1.3165695965290070e-01" cType="1" res="4.2182113975286484e-04" rms="1.8472804129123688e-01" purity="7.1767073869705200e-01" nType="0">
            <Node pos="l" depth="3" NCoef="0" IVar="-1" Cut="0.0000000000000000e+00" cType="1" res="1.5512355603277683e-02" rms="1.9067743420600891e-01" purity="7.5139671564102173e-01" nType="-99"/>
            <Node pos="r" depth="3" NCoef="0" IVar="-1" Cut="0.0000000000000000e+00" cType="1" res="-1.6331737861037254e-02" rms="1.7711769044399261e-01" purity="6.7718446254730225e-01" nType="-99"/>
          </Node>
        </Node>
      </Node>
    </BinaryTree>
    <BinaryTree type="DecisionTree" boostWeight="1.0000000000000000e+00" itree="727">
      <Node pos="s" depth="0" NCoef="0" IVar="5" Cut="1.6351545715332031e+02" cType="1" res="2.1364778149290942e-05" rms="1.8508067727088928e-01" purity="4.9776467680931091e-01" nType="0">
        <Node pos="l" depth="1" NCoef="0" IVar="4" Cut="4.7600347900390625e+02" cType="1" res="4.2965747416019440e-03" rms="1.6430467367172241e-01" purity="7.7712364494800568e-02" nType="0">
          <Node pos="l" depth="2" NCoef="0" IVar="2" Cut="5.6093860417604446e-02" cType="1" res="2.1991757676005363e-03" rms="1.4388290047645569e-01" purity="4.1570279747247696e-02" nType="0">
            <Node pos="l" depth="3" NCoef="0" IVar="-1" Cut="0.0000000000000000e+00" cType="1" res="7.3413149220868945e-04" rms="1.3352946937084198e-01" purity="3.5032112151384354e-02" nType="-99"/>
            <Node pos="r" depth="3" NCoef="0" IVar="-1" Cut="0.0000000000000000e+00" cType="1" res="4.9844458699226379e-02" rms="1.9965007901191711e-01" purity="8.5692815482616425e-02" nType="-99"/>
          </Node>
          <Node pos="r" depth="2" NCoef="0" IVar="-1" Cut="0.0000000000000000e+00" cType="1" res="3.0692797154188156e-02" rms="2.9676386713981628e-01" purity="4.3108761310577393e-01" nType="-99"/>
        </Node>
        <Node pos="r" depth="1" NCoef="0" IVar="5" Cut="2.1485247802734375e+02" cType="1" res="-1.8853672081604600e-03" rms="1.9359877705574036e-01" purity="6.8510681390762329e-01" nType="0">
          <Node pos="l" depth="2" NCoef="0" IVar="9" Cut="-1.1999652385711670e+00" cType="1" res="-8.6894081905484200e-03" rms="2.1573595702648163e-01" purity="2.2560621798038483e-01" nType="0">
            <Node pos="l" depth="3" NCoef="0" IVar="-1" Cut="0.0000000000000000e+00" cType="1" res="1.4255441725254059e-02" rms="2.3855496942996979e-01" purity="2.5835290551185608e-01" nType="-99"/>
            <Node pos="r" depth="3" NCoef="0" IVar="-1" Cut="0.0000000000000000e+00" cType="1" res="-2.3890953510999680e-02" rms="2.1032062172889709e-01" purity="2.1854062378406525e-01" nType="-99"/>
          </Node>
          <Node pos="r" depth="2" NCoef="0" IVar="7" Cut="-8.3520895242691040e-01" cType="1" res="-1.8171378542319871e-05" rms="1.8702298402786255e-01" purity="8.1120502948760986e-01" nType="0">
            <Node pos="l" depth="3" NCoef="0" IVar="-1" Cut="0.0000000000000000e+00" cType="1" res="1.8559832125902176e-02" rms="2.4495652318000793e-01" purity="6.5061223506927490e-01" nType="-99"/>
            <Node pos="r" depth="3" NCoef="0" IVar="-1" Cut="0.0000000000000000e+00" cType="1" res="-4.0741334669291973e-03" rms="1.7814679443836212e-01" purity="8.3190256357192993e-01" nType="-99"/>
          </Node>
        </Node>
      </Node>
    </BinaryTree>
    <BinaryTree type="DecisionTree" boostWeight="1.0000000000000000e+00" itree="728">
      <Node pos="s" depth="0" NCoef="0" IVar="10" Cut="-2.2666356563568115e+00" cType="1" res="-7.8162201680243015e-04" rms="1.7837786674499512e-01" purity="4.9729546904563904e-01" nType="0">
        <Node pos="l" depth="1" NCoef="0" IVar="-1" Cut="0.0000000000000000e+00" cType="1" res="-4.1177574545145035e-02" rms="2.1251662075519562e-01" purity="2.9148393869400024e-01" nType="-99"/>
        <Node pos="r" depth="1" NCoef="0" IVar="6" Cut="1.7662754821777344e+02" cType="1" res="-2.4721695808693767e-04" rms="1.7737624049186707e-01" purity="5.0261634588241577e-01" nType="0">
          <Node pos="l" depth="2" NCoef="0" IVar="7" Cut="6.7166483402252197e-01" cType="1" res="-1.9346433691680431e-03" rms="1.9040893018245697e-01" purity="2.8153854608535767e-01" nType="0">
            <Node pos="l" depth="3" NCoef="0" IVar="-1" Cut="0.0000000000000000e+00" cType="1" res="-1.6854888235684484e-04" rms="1.9204530119895935e-01" purity="3.1535694003105164e-01" nType="-99"/>
            <Node pos="r" depth="3" NCoef="0" IVar="-1" Cut="0.0000000000000000e+00" cType="1" res="-2.1117005497217178e-02" rms="1.8478412926197052e-01" purity="1.7016747593879700e-01" nType="-99"/>
          </Node>
          <Node pos="r" depth="2" NCoef="0" IVar="3" Cut="5.9920001220703125e+02" cType="1" res="2.8816310223191977e-03" rms="1.5019847452640533e-01" purity="9.1254168748855591e-01" nType="0">
            <Node pos="l" depth="3" NCoef="0" IVar="-1" Cut="0.0000000000000000e+00" cType="1" res="1.6387069597840309e-02" rms="2.6268857717514038e-01" purity="6.3567262887954712e-01" nType="-99"/>
            <Node pos="r" depth="3" NCoef="0" IVar="-1" Cut="0.0000000000000000e+00" cType="1" res="4.9793724901974201e-03" rms="1.0689771920442581e-01" purity="9.7875034809112549e-01" nType="-99"/>
          </Node>
        </Node>
      </Node>
    </BinaryTree>
    <BinaryTree type="DecisionTree" boostWeight="1.0000000000000000e+00" itree="729">
      <Node pos="s" depth="0" NCoef="0" IVar="7" Cut="4.4664025306701660e-01" cType="1" res="4.2665426735766232e-04" rms="1.8621295690536499e-01" purity="4.9901238083839417e-01" nType="0">
        <Node pos="l" depth="1" NCoef="0" IVar="9" Cut="9.3341428041458130e-01" cType="1" res="-1.4457425568252802e-03" rms="1.7927195131778717e-01" purity="5.3323262929916382e-01" nType="0">
          <Node pos="l" depth="2" NCoef="0" IVar="0" Cut="5.9409197998046875e+02" cType="1" res="-9.4182205430115573e-06" rms="1.7631572484970093e-01" purity="5.5451214313507080e-01" nType="0">
            <Node pos="l" depth="3" NCoef="0" IVar="-1" Cut="0.0000000000000000e+00" cType="1" res="1.2338007800281048e-02" rms="1.9329705834388733e-01" purity="1.1218541860580444e-01" nType="-99"/>
            <Node pos="r" depth="3" NCoef="0" IVar="-1" Cut="0.0000000000000000e+00" cType="1" res="-9.0543013066053391e-03" rms="1.6612336039543152e-01" purity="7.9922044277191162e-01" nType="-99"/>
          </Node>
          <Node pos="r" depth="2" NCoef="0" IVar="1" Cut="1.8785029296875000e+03" cType="1" res="-7.3007955215871334e-03" rms="1.9073761999607086e-01" purity="4.4648870825767517e-01" nType="0">
            <Node pos="l" depth="3" NCoef="0" IVar="-1" Cut="0.0000000000000000e+00" cType="1" res="-1.2470415793359280e-02" rms="1.3768528401851654e-01" purity="2.7099739760160446e-02" nType="-99"/>
            <Node pos="r" depth="3" NCoef="0" IVar="-1" Cut="0.0000000000000000e+00" cType="1" res="-2.0225249230861664e-02" rms="2.2664469480514526e-01" purity="8.0798012018203735e-01" nType="-99"/>
          </Node>
        </Node>
        <Node pos="r" depth="1" NCoef="0" IVar="6" Cut="8.5137863159179688e+01" cType="1" res="5.0404048524796963e-03" rms="2.0222839713096619e-01" purity="4.1469052433967590e-01" nType="0">
          <Node pos="l" depth="2" NCoef="0" IVar="8" Cut="-1.3606631755828857e-01" cType="1" res="1.1742378585040569e-02" rms="1.9596071541309357e-01" purity="1.3054639101028442e-01" nType="0">
            <Node pos="l" depth="3" NCoef="0" IVar="-1" Cut="0.0000000000000000e+00" cType="1" res="5.5402377620339394e-03" rms="1.6480538249015808e-01" purity="1.2166813760995865e-01" nType="-99"/>
            <Node pos="r" depth="3" NCoef="0" IVar="-1" Cut="0.0000000000000000e+00" cType="1" res="5.7940550148487091e-02" rms="2.1781449019908905e-01" purity="1.3780964910984039e-01" nType="-99"/>
          </Node>
          <Node pos="r" depth="2" NCoef="0" IVar="5" Cut="2.3275781250000000e+02" cType="1" res="2.0730968099087477e-03" rms="2.0487219095230103e-01" purity="5.4049575328826904e-01" nType="0">
            <Node pos="l" depth="3" NCoef="0" IVar="-1" Cut="0.0000000000000000e+00" cType="1" res="-9.8562939092516899e-03" rms="2.0636619627475739e-01" purity="1.6396823525428772e-01" nType="-99"/>
            <Node pos="r" depth="3" NCoef="0" IVar="-1" Cut="0.0000000000000000e+00" cType="1" res="1.7065363004803658e-02" rms="2.0354722440242767e-01" purity="8.3550965785980225e-01" nType="-99"/>
          </Node>
        </Node>
      </Node>
    </BinaryTree>
    <BinaryTree type="DecisionTree" boostWeight="1.0000000000000000e+00" itree="730">
      <Node pos="s" depth="0" NCoef="0" IVar="8" Cut="1.7333439588546753e+00" cType="1" res="8.0560694914311171e-04" rms="1.8295691907405853e-01" purity="5.0288927555084229e-01" nType="0">
        <Node pos="l" depth="1" NCoef="0" IVar="3" Cut="5.0089886474609375e+02" cType="1" res="1.3471473939716816e-03" rms="1.8222081661224365e-01" purity="5.1826310157775879e-01" nType="0">
          <Node pos="l" depth="2" NCoef="0" IVar="1" Cut="1.9150640869140625e+03" cType="1" res="6.3054314814507961e-03" rms="2.0156423747539520e-01" purity="1.1732728779315948e-01" nType="0">
            <Node pos="l" depth="3" NCoef="0" IVar="-1" Cut="0.0000000000000000e+00" cType="1" res="9.8770372569561005e-03" rms="1.6994820535182953e-01" purity="3.7929683923721313e-02" nType="-99"/>
            <Node pos="r" depth="3" NCoef="0" IVar="-1" Cut="0.0000000000000000e+00" cType="1" res="2.5049990043044090e-02" rms="3.5361272096633911e-01" purity="6.9307523965835571e-01" nType="-99"/>
          </Node>
          <Node pos="r" depth="2" NCoef="0" IVar="8" Cut="8.6989194154739380e-01" cType="1" res="-9.4331757281906903e-05" rms="1.7617310583591461e-01" purity="6.3482373952865601e-01" nType="0">
            <Node pos="l" depth="3" NCoef="0" IVar="-1" Cut="0.0000000000000000e+00" cType="1" res="-2.5338269770145416e-03" rms="1.7166909575462341e-01" purity="6.4904677867889404e-01" nType="-99"/>
            <Node pos="r" depth="3" NCoef="0" IVar="-1" Cut="0.0000000000000000e+00" cType="1" res="9.4032781198620796e-03" rms="2.0008175075054169e-01" purity="5.5298489332199097e-01" nType="-99"/>
          </Node>
        </Node>
        <Node pos="r" depth="1" NCoef="0" IVar="-1" Cut="0.0000000000000000e+00" cType="1" res="-2.6642369106411934e-02" rms="1.9894582033157349e-01" purity="1.4413389563560486e-01" nType="-99"/>
      </Node>
    </BinaryTree>
    <BinaryTree type="DecisionTree" boostWeight="1.0000000000000000e+00" itree="731">
      <Node pos="s" depth="0" NCoef="0" IVar="10" Cut="-1.9999412298202515e+00" cType="1" res="4.1028452687896788e-04" rms="1.8178749084472656e-01" purity="4.9739888310432434e-01" nType="0">
        <Node pos="l" depth="1" NCoef="0" IVar="-1" Cut="0.0000000000000000e+00" cType="1" res="2.5964774191379547e-02" rms="2.3613627254962921e-01" purity="4.0078321099281311e-01" nType="-99"/>
        <Node pos="r" depth="1" NCoef="0" IVar="9" Cut="1.9998800754547119e+00" cType="1" res="-3.3896040986292064e-04" rms="1.7849190533161163e-01" purity="5.0240087509155273e-01" nType="0">
          <Node pos="l" depth="2" NCoef="0" IVar="10" Cut="1.2000089883804321e+00" cType="1" res="-9.4486842863261700e-04" rms="1.7698404192924500e-01" purity="5.1195740699768066e-01" nType="0">
            <Node pos="l" depth="3" NCoef="0" IVar="-1" Cut="0.0000000000000000e+00" cType="1" res="-7.1032163687050343e-03" rms="1.7043820023536682e-01" purity="5.1876634359359741e-01" nType="-99"/>
            <Node pos="r" depth="3" NCoef="0" IVar="-1" Cut="0.0000000000000000e+00" cType="1" res="1.0888079181313515e-02" rms="2.0436836779117584e-01" purity="4.8057407140731812e-01" nType="-99"/>
          </Node>
          <Node pos="r" depth="2" NCoef="0" IVar="-1" Cut="0.0000000000000000e+00" cType="1" res="3.1719889491796494e-02" rms="2.1415311098098755e-01" purity="2.4794036149978638e-01" nType="-99"/>
        </Node>
      </Node>
    </BinaryTree>
    <BinaryTree type="DecisionTree" boostWeight="1.0000000000000000e+00" itree="732">
      <Node pos="s" depth="0" NCoef="0" IVar="10" Cut="-1.4666184186935425e+00" cType="1" res="7.8424147795885801e-04" rms="1.8565487861633301e-01" purity="5.0485062599182129e-01" nType="0">
        <Node pos="l" depth="1" NCoef="0" IVar="4" Cut="2.6949810791015625e+02" cType="1" res="1.0768260806798935e-02" rms="2.1987643837928772e-01" purity="4.5085570216178894e-01" nType="0">
          <Node pos="l" depth="2" NCoef="0" IVar="-1" Cut="0.0000000000000000e+00" cType="1" res="-1.1638039723038673e-02" rms="1.5701520442962646e-01" purity="5.4619211703538895e-02" nType="-99"/>
          <Node pos="r" depth="2" NCoef="0" IVar="3" Cut="6.1898669433593750e+02" cType="1" res="1.6085339710116386e-02" rms="2.3925890028476715e-01" purity="6.0140776634216309e-01" nType="0">
            <Node pos="l" depth="3" NCoef="0" IVar="-1" Cut="0.0000000000000000e+00" cType="1" res="5.1740832626819611e-02" rms="2.8710594773292542e-01" purity="2.8653579950332642e-01" nType="-99"/>
            <Node pos="r" depth="3" NCoef="0" IVar="-1" Cut="0.0000000000000000e+00" cType="1" res="1.0255903936922550e-02" rms="2.0122207701206207e-01" purity="8.0675965547561646e-01" nType="-99"/>
          </Node>
        </Node>
        <Node pos="r" depth="1" NCoef="0" IVar="7" Cut="-1.3484927415847778e+00" cType="1" res="-6.0248631052672863e-04" rms="1.8034520745277405e-01" purity="5.1235026121139526e-01" nType="0">
          <Node pos="l" depth="2" NCoef="0" IVar="-1" Cut="0.0000000000000000e+00" cType="1" res="-3.3468917012214661e-02" rms="1.6584897041320801e-01" purity="1.1879855394363403e-01" nType="-99"/>
          <Node pos="r" depth="2" NCoef="0" IVar="2" Cut="6.4096949994564056e-02" cType="1" res="-1.0456729069119319e-04" rms="1.8109986186027527e-01" purity="5.3411144018173218e-01" nType="0">
            <Node pos="l" depth="3" NCoef="0" IVar="-1" Cut="0.0000000000000000e+00" cType="1" res="4.0163486264646053e-03" rms="1.9275359809398651e-01" purity="4.1951394081115723e-01" nType="-99"/>
            <Node pos="r" depth="3" NCoef="0" IVar="-1" Cut="0.0000000000000000e+00" cType="1" res="-1.3200637884438038e-02" rms="1.5463066101074219e-01" purity="7.6742643117904663e-01" nType="-99"/>
          </Node>
        </Node>
      </Node>
    </BinaryTree>
    <BinaryTree type="DecisionTree" boostWeight="1.0000000000000000e+00" itree="733">
      <Node pos="s" depth="0" NCoef="0" IVar="5" Cut="1.0279655456542969e+02" cType="1" res="-6.7710992880165577e-04" rms="1.8376503884792328e-01" purity="4.9921095371246338e-01" nType="0">
        <Node pos="l" depth="1" NCoef="0" IVar="1" Cut="1.7977664794921875e+03" cType="1" res="6.7336107604205608e-03" rms="1.2897282838821411e-01" purity="4.6833533793687820e-02" nType="0">
          <Node pos="l" depth="2" NCoef="0" IVar="5" Cut="9.0242164611816406e+01" cType="1" res="9.7448070300742984e-04" rms="6.1891719698905945e-02" purity="3.8888959679752588e-03" nType="0">
            <Node pos="l" depth="3" NCoef="0" IVar="-1" Cut="0.0000000000000000e+00" cType="1" res="-9.6778914332389832e-02" rms="1.3280253857374191e-02" purity="1.2962314940523356e-04" nType="-99"/>
            <Node pos="r" depth="3" NCoef="0" IVar="-1" Cut="0.0000000000000000e+00" cType="1" res="1.8120089173316956e-01" rms="1.0596671700477600e-01" purity="1.1561749503016472e-02" nType="-99"/>
          </Node>
          <Node pos="r" depth="2" NCoef="0" IVar="-1" Cut="0.0000000000000000e+00" cType="1" res="4.0516670793294907e-02" rms="2.4318452179431915e-01" purity="1.9102886319160461e-01" nType="-99"/>
        </Node>
        <Node pos="r" depth="1" NCoef="0" IVar="7" Cut="-6.5837937593460083e-01" cType="1" res="-1.6459980979561806e-03" rms="1.8974141776561737e-01" purity="5.5835545063018799e-01" nType="0">
          <Node pos="l" depth="2" NCoef="0" IVar="4" Cut="3.4492758178710938e+02" cType="1" res="-5.9578311629593372e-03" rms="1.9501930475234985e-01" purity="3.9552524685859680e-01" nType="0">
            <Node pos="l" depth="3" NCoef="0" IVar="-1" Cut="0.0000000000000000e+00" cType="1" res="-1.1728118406608701e-03" rms="1.7814284563064575e-01" purity="9.7008846700191498e-02" nType="-99"/>
            <Node pos="r" depth="3" NCoef="0" IVar="-1" Cut="0.0000000000000000e+00" cType="1" res="-2.5061717256903648e-02" rms="2.0957580208778381e-01" purity="6.7738533020019531e-01" nType="-99"/>
          </Node>
          <Node pos="r" depth="2" NCoef="0" IVar="3" Cut="4.6645388793945312e+02" cType="1" res="-5.4245238425210118e-04" rms="1.8835099041461945e-01" purity="6.0002928972244263e-01" nType="0">
            <Node pos="l" depth="3" NCoef="0" IVar="-1" Cut="0.0000000000000000e+00" cType="1" res="-1.3770853169262409e-02" rms="1.9608409702777863e-01" purity="9.2524528503417969e-02" nType="-99"/>
            <Node pos="r" depth="3" NCoef="0" IVar="-1" Cut="0.0000000000000000e+00" cType="1" res="1.4739105245098472e-03" rms="1.8671549856662750e-01" purity="7.0358985662460327e-01" nType="-99"/>
          </Node>
        </Node>
      </Node>
    </BinaryTree>
    <BinaryTree type="DecisionTree" boostWeight="1.0000000000000000e+00" itree="734">
      <Node pos="s" depth="0" NCoef="0" IVar="4" Cut="3.2219796752929688e+02" cType="1" res="-4.4372206320986152e-04" rms="1.8447294831275940e-01" purity="4.9841848015785217e-01" nType="0">
        <Node pos="l" depth="1" NCoef="0" IVar="9" Cut="6.6618305444717407e-01" cType="1" res="3.1256368383765221e-03" rms="1.7614290118217468e-01" purity="9.0868987143039703e-02" nType="0">
          <Node pos="l" depth="2" NCoef="0" IVar="0" Cut="7.4111938476562500e+02" cType="1" res="7.6205059885978699e-03" rms="1.7938277125358582e-01" purity="9.3865327537059784e-02" nType="0">
            <Node pos="l" depth="3" NCoef="0" IVar="-1" Cut="0.0000000000000000e+00" cType="1" res="2.0341813564300537e-02" rms="1.4536909759044647e-01" purity="3.3076614141464233e-02" nType="-99"/>
            <Node pos="r" depth="3" NCoef="0" IVar="-1" Cut="0.0000000000000000e+00" cType="1" res="3.2277509570121765e-02" rms="2.9382118582725525e-01" purity="3.9405831694602966e-01" nType="-99"/>
          </Node>
          <Node pos="r" depth="2" NCoef="0" IVar="7" Cut="-3.9327603578567505e-01" cType="1" res="-6.7952950485050678e-03" rms="1.6834773123264313e-01" purity="8.4255568683147430e-02" nType="0">
            <Node pos="l" depth="3" NCoef="0" IVar="-1" Cut="0.0000000000000000e+00" cType="1" res="1.2699902988970280e-02" rms="1.7159509658813477e-01" purity="7.9956859350204468e-02" nType="-99"/>
            <Node pos="r" depth="3" NCoef="0" IVar="-1" Cut="0.0000000000000000e+00" cType="1" res="-3.4742742776870728e-02" rms="1.6637863218784332e-01" purity="8.6475774645805359e-02" nType="-99"/>
          </Node>
        </Node>
        <Node pos="r" depth="1" NCoef="0" IVar="3" Cut="4.4992401123046875e+02" cType="1" res="-2.4271118454635143e-03" rms="1.8891389667987823e-01" purity="7.2488206624984741e-01" nType="0">
          <Node pos="l" depth="2" NCoef="0" IVar="-1" Cut="0.0000000000000000e+00" cType="1" res="-2.4307832121849060e-02" rms="2.2006569802761078e-01" purity="1.5505757927894592e-01" nType="-99"/>
          <Node pos="r" depth="2" NCoef="0" IVar="7" Cut="-7.6535803079605103e-01" cType="1" res="-1.5630867565050721e-03" rms="1.8629513680934906e-01" purity="7.6835763454437256e-01" nType="0">
            <Node pos="l" depth="3" NCoef="0" IVar="-1" Cut="0.0000000000000000e+00" cType="1" res="-1.9015142694115639e-02" rms="2.0600134134292603e-01" purity="5.8892482519149780e-01" nType="-99"/>
            <Node pos="r" depth="3" NCoef="0" IVar="-1" Cut="0.0000000000000000e+00" cType="1" res="-1.2892332160845399e-03" rms="1.8298293650150299e-01" purity="7.9653048515319824e-01" nType="-99"/>
          </Node>
        </Node>
      </Node>
    </BinaryTree>
    <BinaryTree type="DecisionTree" boostWeight="1.0000000000000000e+00" itree="735">
      <Node pos="s" depth="0" NCoef="0" IVar="9" Cut="-1.7328989505767822e+00" cType="1" res="-4.4415672891773283e-04" rms="1.8446312844753265e-01" purity="4.9896985292434692e-01" nType="0">
        <Node pos="l" depth="1" NCoef="0" IVar="8" Cut="-1.3465626537799835e-01" cType="1" res="-1.0841892100870609e-02" rms="2.0468531548976898e-01" purity="2.7928271889686584e-01" nType="0">
          <Node pos="l" depth="2" NCoef="0" IVar="-1" Cut="0.0000000000000000e+00" cType="1" res="-6.8489648401737213e-02" rms="1.7626170814037323e-01" purity="2.6145884394645691e-01" nType="-99"/>
          <Node pos="r" depth="2" NCoef="0" IVar="-1" Cut="0.0000000000000000e+00" cType="1" res="8.1840874627232552e-03" rms="2.2954902052879333e-01" purity="2.9777729511260986e-01" nType="-99"/>
        </Node>
        <Node pos="r" depth="1" NCoef="0" IVar="10" Cut="1.3338306546211243e-01" cType="1" res="1.8379978428129107e-04" rms="1.8315145373344421e-01" purity="5.1223748922348022e-01" nType="0">
          <Node pos="l" depth="2" NCoef="0" IVar="8" Cut="-1.4669783115386963e+00" cType="1" res="-1.9352700328454375e-03" rms="1.7936281859874725e-01" purity="5.0776267051696777e-01" nType="0">
            <Node pos="l" depth="3" NCoef="0" IVar="-1" Cut="0.0000000000000000e+00" cType="1" res="3.6198750138282776e-02" rms="2.1233946084976196e-01" purity="2.2830356657505035e-01" nType="-99"/>
            <Node pos="r" depth="3" NCoef="0" IVar="-1" Cut="0.0000000000000000e+00" cType="1" res="-1.0178826749324799e-02" rms="1.7617678642272949e-01" purity="5.3164815902709961e-01" nType="-99"/>
          </Node>
          <Node pos="r" depth="2" NCoef="0" IVar="3" Cut="7.8295025634765625e+02" cType="1" res="2.6193119119852781e-03" rms="1.8738168478012085e-01" purity="5.1738065481185913e-01" nType="0">
            <Node pos="l" depth="3" NCoef="0" IVar="-1" Cut="0.0000000000000000e+00" cType="1" res="1.4694047160446644e-02" rms="2.0019684731960297e-01" purity="3.1587937474250793e-01" nType="-99"/>
            <Node pos="r" depth="3" NCoef="0" IVar="-1" Cut="0.0000000000000000e+00" cType="1" res="-1.0751626454293728e-02" rms="1.6168327629566193e-01" purity="8.7927490472793579e-01" nType="-99"/>
          </Node>
        </Node>
      </Node>
    </BinaryTree>
    <BinaryTree type="DecisionTree" boostWeight="1.0000000000000000e+00" itree="736">
      <Node pos="s" depth="0" NCoef="0" IVar="7" Cut="6.9775503873825073e-01" cType="1" res="-1.2345249997451901e-03" rms="1.8401893973350525e-01" purity="4.9387109279632568e-01" nType="0">
        <Node pos="l" depth="1" NCoef="0" IVar="3" Cut="5.0095898437500000e+02" cType="1" res="4.4774808338843286e-04" rms="1.8286958336830139e-01" purity="5.3409647941589355e-01" nType="0">
          <Node pos="l" depth="2" NCoef="0" IVar="9" Cut="6.6653382778167725e-01" cType="1" res="6.6276281140744686e-03" rms="1.9684389233589172e-01" purity="1.1173605173826218e-01" nType="0">
            <Node pos="l" depth="3" NCoef="0" IVar="-1" Cut="0.0000000000000000e+00" cType="1" res="2.9291254468262196e-03" rms="1.8137367069721222e-01" purity="9.3194372951984406e-02" nType="-99"/>
            <Node pos="r" depth="3" NCoef="0" IVar="-1" Cut="0.0000000000000000e+00" cType="1" res="4.5596886426210403e-02" rms="2.2968643903732300e-01" purity="1.5698017179965973e-01" nType="-99"/>
          </Node>
          <Node pos="r" depth="2" NCoef="0" IVar="10" Cut="1.1997621059417725e+00" cType="1" res="-1.2741353129968047e-03" rms="1.7874345183372498e-01" purity="6.5177762508392334e-01" nType="0">
            <Node pos="l" depth="3" NCoef="0" IVar="-1" Cut="0.0000000000000000e+00" cType="1" res="-7.9705175012350082e-03" rms="1.7422679066658020e-01" purity="6.5560263395309448e-01" nType="-99"/>
            <Node pos="r" depth="3" NCoef="0" IVar="-1" Cut="0.0000000000000000e+00" cType="1" res="1.1154582723975182e-02" rms="2.0044128596782684e-01" purity="6.3193529844284058e-01" nType="-99"/>
          </Node>
        </Node>
        <Node pos="r" depth="1" NCoef="0" IVar="1" Cut="2.6219316406250000e+03" cType="1" res="-8.1265745684504509e-03" rms="1.8849790096282959e-01" purity="3.2907310128211975e-01" nType="0">
          <Node pos="l" depth="2" NCoef="0" IVar="5" Cut="2.3444387817382812e+02" cType="1" res="-1.2318785302340984e-02" rms="1.9278861582279205e-01" purity="1.0427887737751007e-01" nType="0">
            <Node pos="l" depth="3" NCoef="0" IVar="-1" Cut="0.0000000000000000e+00" cType="1" res="-2.6612076908349991e-02" rms="1.5749488770961761e-01" purity="4.8607401549816132e-02" nType="-99"/>
            <Node pos="r" depth="3" NCoef="0" IVar="-1" Cut="0.0000000000000000e+00" cType="1" res="-2.6978742331266403e-02" rms="2.9934626817703247e-01" purity="3.4180679917335510e-01" nType="-99"/>
          </Node>
          <Node pos="r" depth="2" NCoef="0" IVar="-1" Cut="0.0000000000000000e+00" cType="1" res="1.2944547459483147e-02" rms="1.7535644769668579e-01" purity="9.6026897430419922e-01" nType="-99"/>
        </Node>
      </Node>
    </BinaryTree>
    <BinaryTree type="DecisionTree" boostWeight="1.0000000000000000e+00" itree="737">
      <Node pos="s" depth="0" NCoef="0" IVar="10" Cut="-2.2666027545928955e+00" cType="1" res="6.1566790100187063e-04" rms="1.8238003551959991e-01" purity="5.0243991613388062e-01" nType="0">
        <Node pos="l" depth="1" NCoef="0" IVar="-1" Cut="0.0000000000000000e+00" cType="1" res="-3.2195284962654114e-02" rms="2.3327739536762238e-01" purity="3.1208777427673340e-01" nType="-99"/>
        <Node pos="r" depth="1" NCoef="0" IVar="7" Cut="-1.1412870883941650e+00" cType="1" res="1.0922180954366922e-03" rms="1.8081274628639221e-01" purity="5.0748246908187866e-01" nType="0">
          <Node pos="l" depth="2" NCoef="0" IVar="6" Cut="1.0314798736572266e+02" cType="1" res="-7.3621929623186588e-03" rms="1.7336884140968323e-01" purity="1.8426771461963654e-01" nType="0">
            <Node pos="l" depth="3" NCoef="0" IVar="-1" Cut="0.0000000000000000e+00" cType="1" res="1.9528807606548071e-03" rms="1.2091634422540665e-01" purity="3.7462405860424042e-02" nType="-99"/>
            <Node pos="r" depth="3" NCoef="0" IVar="-1" Cut="0.0000000000000000e+00" cType="1" res="-2.9698727652430534e-02" rms="2.1087886393070221e-01" purity="3.2237991690635681e-01" nType="-99"/>
          </Node>
          <Node pos="r" depth="2" NCoef="0" IVar="7" Cut="-9.5368945598602295e-01" cType="1" res="1.8898289417847991e-03" rms="1.8147893249988556e-01" purity="5.3797537088394165e-01" nType="0">
            <Node pos="l" depth="3" NCoef="0" IVar="-1" Cut="0.0000000000000000e+00" cType="1" res="3.8573157042264938e-02" rms="2.1033427119255066e-01" purity="4.2712256312370300e-01" nType="-99"/>
            <Node pos="r" depth="3" NCoef="0" IVar="-1" Cut="0.0000000000000000e+00" cType="1" res="3.6132724490016699e-03" rms="1.8013955652713776e-01" purity="5.4262411594390869e-01" nType="-99"/>
          </Node>
        </Node>
      </Node>
    </BinaryTree>
    <BinaryTree type="DecisionTree" boostWeight="1.0000000000000000e+00" itree="738">
      <Node pos="s" depth="0" NCoef="0" IVar="10" Cut="-1.7332710027694702e+00" cType="1" res="1.2381566921249032e-04" rms="1.8142735958099365e-01" purity="4.9687623977661133e-01" nType="0">
        <Node pos="l" depth="1" NCoef="0" IVar="9" Cut="1.3458630442619324e-01" cType="1" res="-5.6530027650296688e-03" rms="2.1253718435764313e-01" purity="3.9001017808914185e-01" nType="0">
          <Node pos="l" depth="2" NCoef="0" IVar="-1" Cut="0.0000000000000000e+00" cType="1" res="-2.9006520286202431e-02" rms="2.0323601365089417e-01" purity="3.3722600340843201e-01" nType="-99"/>
          <Node pos="r" depth="2" NCoef="0" IVar="-1" Cut="0.0000000000000000e+00" cType="1" res="7.7253542840480804e-03" rms="2.2403107583522797e-01" purity="4.6077823638916016e-01" nType="-99"/>
        </Node>
        <Node pos="r" depth="1" NCoef="0" IVar="7" Cut="9.3678063154220581e-01" cType="1" res="6.1213050503283739e-04" rms="1.7854078114032745e-01" purity="5.0590968132019043e-01" nType="0">
          <Node pos="l" depth="2" NCoef="0" IVar="7" Cut="4.0542235970497131e-01" cType="1" res="-8.1900943769142032e-05" rms="1.7615093290805817e-01" purity="5.3993809223175049e-01" nType="0">
            <Node pos="l" depth="3" NCoef="0" IVar="-1" Cut="0.0000000000000000e+00" cType="1" res="4.1798981837928295e-03" rms="1.7471204698085785e-01" purity="5.4121214151382446e-01" nType="-99"/>
            <Node pos="r" depth="3" NCoef="0" IVar="-1" Cut="0.0000000000000000e+00" cType="1" res="-1.5825917944312096e-02" rms="1.8169339001178741e-01" purity="5.3483176231384277e-01" nType="-99"/>
          </Node>
          <Node pos="r" depth="2" NCoef="0" IVar="1" Cut="1.9977452392578125e+03" cType="1" res="5.2363369613885880e-03" rms="1.9364918768405914e-01" purity="2.7918389439582825e-01" nType="0">
            <Node pos="l" depth="3" NCoef="0" IVar="-1" Cut="0.0000000000000000e+00" cType="1" res="-5.7199159637093544e-03" rms="1.5096826851367950e-01" purity="3.0518090352416039e-02" nType="-99"/>
            <Node pos="r" depth="3" NCoef="0" IVar="-1" Cut="0.0000000000000000e+00" cType="1" res="2.5658980011940002e-02" rms="2.5900456309318542e-01" purity="7.8389084339141846e-01" nType="-99"/>
          </Node>
        </Node>
      </Node>
    </BinaryTree>
    <BinaryTree type="DecisionTree" boostWeight="1.0000000000000000e+00" itree="739">
      <Node pos="s" depth="0" NCoef="0" IVar="7" Cut="6.9714432954788208e-01" cType="1" res="-9.2542869970202446e-04" rms="1.8241398036479950e-01" purity="4.9538692831993103e-01" nType="0">
        <Node pos="l" depth="1" NCoef="0" IVar="8" Cut="1.7333580255508423e+00" cType="1" res="-3.0625094659626484e-03" rms="1.7613391578197479e-01" purity="5.3128081560134888e-01" nType="0">
          <Node pos="l" depth="2" NCoef="0" IVar="7" Cut="5.3627371788024902e-01" cType="1" res="-2.5382617022842169e-03" rms="1.7580072581768036e-01" purity="5.4652351140975952e-01" nType="0">
            <Node pos="l" depth="3" NCoef="0" IVar="-1" Cut="0.0000000000000000e+00" cType="1" res="-9.8773436620831490e-03" rms="1.7432282865047455e-01" purity="5.4589015245437622e-01" nType="-99"/>
            <Node pos="r" depth="3" NCoef="0" IVar="-1" Cut="0.0000000000000000e+00" cType="1" res="1.6755977645516396e-02" rms="1.9401933252811432e-01" purity="5.5486983060836792e-01" nType="-99"/>
          </Node>
          <Node pos="r" depth="2" NCoef="0" IVar="-1" Cut="0.0000000000000000e+00" cType="1" res="-3.8785222917795181e-02" rms="1.8362799286842346e-01" purity="1.5858538448810577e-01" nType="-99"/>
        </Node>
        <Node pos="r" depth="1" NCoef="0" IVar="10" Cut="-6.6665518283843994e-01" cType="1" res="7.5552859343588352e-03" rms="2.0523251593112946e-01" purity="3.5294681787490845e-01" nType="0">
          <Node pos="l" depth="2" NCoef="0" IVar="8" Cut="-1.3324116170406342e-01" cType="1" res="1.9838610664010048e-02" rms="2.2900672256946564e-01" purity="3.8712146878242493e-01" nType="0">
            <Node pos="l" depth="3" NCoef="0" IVar="-1" Cut="0.0000000000000000e+00" cType="1" res="2.1888269111514091e-02" rms="2.1011167764663696e-01" purity="3.3965015411376953e-01" nType="-99"/>
            <Node pos="r" depth="3" NCoef="0" IVar="-1" Cut="0.0000000000000000e+00" cType="1" res="5.9082634747028351e-02" rms="2.4526509642601013e-01" purity="4.3241468071937561e-01" nType="-99"/>
          </Node>
          <Node pos="r" depth="2" NCoef="0" IVar="8" Cut="1.3291589915752411e-01" cType="1" res="2.6200523134320974e-03" rms="1.9464716315269470e-01" purity="3.3921602368354797e-01" nType="0">
            <Node pos="l" depth="3" NCoef="0" IVar="-1" Cut="0.0000000000000000e+00" cType="1" res="3.0702795833349228e-02" rms="2.0551539957523346e-01" purity="3.6305096745491028e-01" nType="-99"/>
            <Node pos="r" depth="3" NCoef="0" IVar="-1" Cut="0.0000000000000000e+00" cType="1" res="-2.3344077169895172e-02" rms="1.8018433451652527e-01" purity="3.1080579757690430e-01" nType="-99"/>
          </Node>
        </Node>
      </Node>
    </BinaryTree>
    <BinaryTree type="DecisionTree" boostWeight="1.0000000000000000e+00" itree="740">
      <Node pos="s" depth="0" NCoef="0" IVar="0" Cut="5.9424890136718750e+02" cType="1" res="-9.5868442440405488e-04" rms="1.7893636226654053e-01" purity="4.9492090940475464e-01" nType="0">
        <Node pos="l" depth="1" NCoef="0" IVar="7" Cut="1.7146608233451843e-01" cType="1" res="-4.0857787244021893e-03" rms="1.7759254574775696e-01" purity="9.2334747314453125e-02" nType="0">
          <Node pos="l" depth="2" NCoef="0" IVar="7" Cut="-1.4791448116302490e+00" cType="1" res="-7.8907655552029610e-04" rms="1.8128269910812378e-01" purity="1.0066098719835281e-01" nType="0">
            <Node pos="l" depth="3" NCoef="0" IVar="-1" Cut="0.0000000000000000e+00" cType="1" res="-8.1177063286304474e-02" rms="8.9543677866458893e-02" purity="9.7976243123412132e-03" nType="-99"/>
            <Node pos="r" depth="3" NCoef="0" IVar="-1" Cut="0.0000000000000000e+00" cType="1" res="3.1508051324635744e-03" rms="1.9149716198444366e-01" purity="1.1469322443008423e-01" nType="-99"/>
          </Node>
          <Node pos="r" depth="2" NCoef="0" IVar="5" Cut="2.2373403930664062e+02" cType="1" res="-8.2638235762715340e-03" rms="1.7271229624748230e-01" purity="8.1782579421997070e-02" nType="0">
            <Node pos="l" depth="3" NCoef="0" IVar="-1" Cut="0.0000000000000000e+00" cType="1" res="-1.5970783308148384e-02" rms="1.3196809589862823e-01" purity="2.4400481954216957e-02" nType="-99"/>
            <Node pos="r" depth="3" NCoef="0" IVar="-1" Cut="0.0000000000000000e+00" cType="1" res="-2.7763191610574722e-02" rms="2.5998619198799133e-01" purity="2.5777319073677063e-01" nType="-99"/>
          </Node>
        </Node>
        <Node pos="r" depth="1" NCoef="0" IVar="10" Cut="-1.7333418130874634e+00" cType="1" res="1.1181589215993881e-03" rms="1.7979326844215393e-01" purity="7.6229637861251831e-01" nType="0">
          <Node pos="l" depth="2" NCoef="0" IVar="-1" Cut="0.0000000000000000e+00" cType="1" res="-1.7978427931666374e-02" rms="2.0015750825405121e-01" purity="6.4945757389068604e-01" nType="-99"/>
          <Node pos="r" depth="2" NCoef="0" IVar="6" Cut="9.2209289550781250e+01" cType="1" res="1.8880929565057158e-03" rms="1.7814801633358002e-01" purity="7.7076089382171631e-01" nType="0">
            <Node pos="l" depth="3" NCoef="0" IVar="-1" Cut="0.0000000000000000e+00" cType="1" res="1.7124857753515244e-02" rms="2.2194714844226837e-01" purity="3.3110225200653076e-01" nType="-99"/>
            <Node pos="r" depth="3" NCoef="0" IVar="-1" Cut="0.0000000000000000e+00" cType="1" res="-2.8666345315286890e-05" rms="1.6329051554203033e-01" purity="8.9763367176055908e-01" nType="-99"/>
          </Node>
        </Node>
      </Node>
    </BinaryTree>
    <BinaryTree type="DecisionTree" boostWeight="1.0000000000000000e+00" itree="741">
      <Node pos="s" depth="0" NCoef="0" IVar="8" Cut="-6.6662615537643433e-01" cType="1" res="-1.7442628450226039e-04" rms="1.8168316781520844e-01" purity="5.0447773933410645e-01" nType="0">
        <Node pos="l" depth="1" NCoef="0" IVar="2" Cut="1.8707931041717529e-02" cType="1" res="6.2273312360048294e-03" rms="2.0002859830856323e-01" purity="4.2971643805503845e-01" nType="0">
          <Node pos="l" depth="2" NCoef="0" IVar="2" Cut="8.0176899209618568e-03" cType="1" res="-1.6448586247861385e-03" rms="1.8277381360530853e-01" purity="1.9978825747966766e-01" nType="0">
            <Node pos="l" depth="3" NCoef="0" IVar="-1" Cut="0.0000000000000000e+00" cType="1" res="-4.3808676302433014e-02" rms="1.5677355229854584e-01" purity="1.1192426830530167e-01" nType="-99"/>
            <Node pos="r" depth="3" NCoef="0" IVar="-1" Cut="0.0000000000000000e+00" cType="1" res="2.1256264299154282e-02" rms="2.0654246211051941e-01" purity="2.9453444480895996e-01" nType="-99"/>
          </Node>
          <Node pos="r" depth="2" NCoef="0" IVar="3" Cut="7.1069055175781250e+02" cType="1" res="1.1601956561207771e-02" rms="2.1083129942417145e-01" purity="5.8669656515121460e-01" nType="0">
            <Node pos="l" depth="3" NCoef="0" IVar="-1" Cut="0.0000000000000000e+00" cType="1" res="3.6315124481916428e-02" rms="2.3644846677780151e-01" purity="3.8878491520881653e-01" nType="-99"/>
            <Node pos="r" depth="3" NCoef="0" IVar="-1" Cut="0.0000000000000000e+00" cType="1" res="-8.0598043277859688e-03" rms="1.5940830111503601e-01" purity="9.1017949581146240e-01" nType="-99"/>
          </Node>
        </Node>
        <Node pos="r" depth="1" NCoef="0" IVar="1" Cut="2.4746979980468750e+03" cType="1" res="-2.3663947358727455e-03" rms="1.7490629851818085e-01" purity="5.3007608652114868e-01" nType="0">
          <Node pos="l" depth="2" NCoef="0" IVar="5" Cut="2.5841702270507812e+02" cType="1" res="-4.8122811131179333e-03" rms="2.0136725902557373e-01" purity="9.8951674997806549e-02" nType="0">
            <Node pos="l" depth="3" NCoef="0" IVar="-1" Cut="0.0000000000000000e+00" cType="1" res="-3.1613656319677830e-03" rms="1.7618948221206665e-01" purity="6.1253953725099564e-02" nType="-99"/>
            <Node pos="r" depth="3" NCoef="0" IVar="-1" Cut="0.0000000000000000e+00" cType="1" res="-2.5584159418940544e-02" rms="3.2201001048088074e-01" purity="3.5228142142295837e-01" nType="-99"/>
          </Node>
          <Node pos="r" depth="2" NCoef="0" IVar="7" Cut="-5.5283319950103760e-01" cType="1" res="1.2346975563559681e-04" rms="1.4298370480537415e-01" purity="9.6895235776901245e-01" nType="0">
            <Node pos="l" depth="3" NCoef="0" IVar="-1" Cut="0.0000000000000000e+00" cType="1" res="-3.1360577791929245e-02" rms="1.6388829052448273e-01" purity="9.5240265130996704e-01" nType="-99"/>
            <Node pos="r" depth="3" NCoef="0" IVar="-1" Cut="0.0000000000000000e+00" cType="1" res="9.0701216831803322e-03" rms="1.3797879219055176e-01" purity="9.7253715991973877e-01" nType="-99"/>
          </Node>
        </Node>
      </Node>
    </BinaryTree>
    <BinaryTree type="DecisionTree" boostWeight="1.0000000000000000e+00" itree="742">
      <Node pos="s" depth="0" NCoef="0" IVar="8" Cut="1.2000027894973755e+00" cType="1" res="1.0272063082084060e-03" rms="1.8121191859245300e-01" purity="5.0939768552780151e-01" nType="0">
        <Node pos="l" depth="1" NCoef="0" IVar="7" Cut="1.5016996860504150e+00" cType="1" res="-7.8601174755021930e-04" rms="1.7504575848579407e-01" purity="5.3338283300399780e-01" nType="0">
          <Node pos="l" depth="2" NCoef="0" IVar="3" Cut="4.9879882812500000e+02" cType="1" res="-1.3698398834094405e-03" rms="1.7407153546810150e-01" purity="5.4986548423767090e-01" nType="0">
            <Node pos="l" depth="3" NCoef="0" IVar="-1" Cut="0.0000000000000000e+00" cType="1" res="-2.0364934578537941e-02" rms="1.7682071030139923e-01" purity="1.0387279838323593e-01" nType="-99"/>
            <Node pos="r" depth="3" NCoef="0" IVar="-1" Cut="0.0000000000000000e+00" cType="1" res="7.0323253748938441e-04" rms="1.7333613336086273e-01" purity="6.6213142871856689e-01" nType="-99"/>
          </Node>
          <Node pos="r" depth="2" NCoef="0" IVar="-1" Cut="0.0000000000000000e+00" cType="1" res="4.0563609451055527e-02" rms="1.9712106883525848e-01" purity="1.2466972321271896e-01" nType="-99"/>
        </Node>
        <Node pos="r" depth="1" NCoef="0" IVar="1" Cut="1.6686855468750000e+03" cType="1" res="1.5120276249945164e-02" rms="2.2290714085102081e-01" purity="3.2297489047050476e-01" nType="0">
          <Node pos="l" depth="2" NCoef="0" IVar="4" Cut="2.5850164794921875e+02" cType="1" res="-2.2928563412278891e-03" rms="1.0118935257196426e-01" purity="1.2717138044536114e-02" nType="0">
            <Node pos="l" depth="3" NCoef="0" IVar="-1" Cut="0.0000000000000000e+00" cType="1" res="2.4982810020446777e-02" rms="1.1416400223970413e-01" purity="1.7550159245729446e-02" nType="-99"/>
            <Node pos="r" depth="3" NCoef="0" IVar="-1" Cut="0.0000000000000000e+00" cType="1" res="-6.1069175601005554e-02" rms="8.2646921277046204e-02" purity="6.9563086144626141e-03" nType="-99"/>
          </Node>
          <Node pos="r" depth="2" NCoef="0" IVar="1" Cut="2.4363327636718750e+03" cType="1" res="3.0532885342836380e-02" rms="2.8999641537666321e-01" purity="5.9758841991424561e-01" nType="0">
            <Node pos="l" depth="3" NCoef="0" IVar="-1" Cut="0.0000000000000000e+00" cType="1" res="5.0662118941545486e-02" rms="3.5051193833351135e-01" purity="2.9395270347595215e-01" nType="-99"/>
            <Node pos="r" depth="3" NCoef="0" IVar="-1" Cut="0.0000000000000000e+00" cType="1" res="7.9187573865056038e-03" rms="1.9770179688930511e-01" purity="9.3933510780334473e-01" nType="-99"/>
          </Node>
        </Node>
      </Node>
    </BinaryTree>
    <BinaryTree type="DecisionTree" boostWeight="1.0000000000000000e+00" itree="743">
      <Node pos="s" depth="0" NCoef="0" IVar="10" Cut="-1.3338586688041687e-01" cType="1" res="1.9930002745240927e-03" rms="1.8276157975196838e-01" purity="5.0529199838638306e-01" nType="0">
        <Node pos="l" depth="1" NCoef="0" IVar="10" Cut="-1.9110794067382812e+00" cType="1" res="4.8501649871468544e-03" rms="1.8958444893360138e-01" purity="4.9699634313583374e-01" nType="0">
          <Node pos="l" depth="2" NCoef="0" IVar="3" Cut="6.1990911865234375e+02" cType="1" res="-6.2025068327784538e-03" rms="2.0845721662044525e-01" purity="3.9605358242988586e-01" nType="0">
            <Node pos="l" depth="3" NCoef="0" IVar="-1" Cut="0.0000000000000000e+00" cType="1" res="-3.0935941264033318e-02" rms="2.0425096154212952e-01" purity="1.7534089088439941e-01" nType="-99"/>
            <Node pos="r" depth="3" NCoef="0" IVar="-1" Cut="0.0000000000000000e+00" cType="1" res="6.8180253729224205e-03" rms="2.1190863847732544e-01" purity="6.0535633563995361e-01" nType="-99"/>
          </Node>
          <Node pos="r" depth="2" NCoef="0" IVar="0" Cut="1.0102782592773438e+03" cType="1" res="6.4174737781286240e-03" rms="1.8670092523097992e-01" purity="5.1131045818328857e-01" nType="0">
            <Node pos="l" depth="3" NCoef="0" IVar="-1" Cut="0.0000000000000000e+00" cType="1" res="2.5773664936423302e-02" rms="2.0518837869167328e-01" purity="3.4462839365005493e-01" nType="-99"/>
            <Node pos="r" depth="3" NCoef="0" IVar="-1" Cut="0.0000000000000000e+00" cType="1" res="-2.1931100636720657e-02" rms="1.2207310646772385e-01" purity="9.6737688779830933e-01" nType="-99"/>
          </Node>
        </Node>
        <Node pos="r" depth="1" NCoef="0" IVar="0" Cut="5.9408056640625000e+02" cType="1" res="-3.7926129880361259e-04" rms="1.7686173319816589e-01" purity="5.1217961311340332e-01" nType="0">
          <Node pos="l" depth="2" NCoef="0" IVar="9" Cut="-4.0029993653297424e-01" cType="1" res="-5.4438933730125427e-03" rms="1.7236547172069550e-01" purity="9.5396012067794800e-02" nType="0">
            <Node pos="l" depth="3" NCoef="0" IVar="-1" Cut="0.0000000000000000e+00" cType="1" res="-3.0663834884762764e-02" rms="1.6751615703105927e-01" purity="9.5348425209522247e-02" nType="-99"/>
            <Node pos="r" depth="3" NCoef="0" IVar="-1" Cut="0.0000000000000000e+00" cType="1" res="-5.4050055332481861e-03" rms="1.7466111481189728e-01" purity="9.5420077443122864e-02" nType="-99"/>
          </Node>
          <Node pos="r" depth="2" NCoef="0" IVar="9" Cut="1.2000691890716553e+00" cType="1" res="2.8479369357228279e-03" rms="1.7959359288215637e-01" purity="7.7775537967681885e-01" nType="0">
            <Node pos="l" depth="3" NCoef="0" IVar="-1" Cut="0.0000000000000000e+00" cType="1" res="2.2472701966762543e-03" rms="1.7165447771549225e-01" purity="7.9421740770339966e-01" nType="-99"/>
            <Node pos="r" depth="3" NCoef="0" IVar="-1" Cut="0.0000000000000000e+00" cType="1" res="3.1767014414072037e-02" rms="2.2615370154380798e-01" purity="6.6474241018295288e-01" nType="-99"/>
          </Node>
        </Node>
      </Node>
    </BinaryTree>
    <BinaryTree type="DecisionTree" boostWeight="1.0000000000000000e+00" itree="744">
      <Node pos="s" depth="0" NCoef="0" IVar="9" Cut="-1.9998503923416138e+00" cType="1" res="1.0215716902166605e-03" rms="1.8354906141757965e-01" purity="5.0422382354736328e-01" nType="0">
        <Node pos="l" depth="1" NCoef="0" IVar="-1" Cut="0.0000000000000000e+00" cType="1" res="4.3956827372312546e-02" rms="2.5083526968955994e-01" purity="2.4365702271461487e-01" nType="-99"/>
        <Node pos="r" depth="1" NCoef="0" IVar="9" Cut="1.6571000814437866e+00" cType="1" res="4.3845575419254601e-04" rms="1.8093487620353699e-01" purity="5.1262116432189941e-01" nType="0">
          <Node pos="l" depth="2" NCoef="0" IVar="3" Cut="3.4998648071289062e+02" cType="1" res="1.2587830424308777e-03" rms="1.7939640581607819e-01" purity="5.2868467569351196e-01" nType="0">
            <Node pos="l" depth="3" NCoef="0" IVar="-1" Cut="0.0000000000000000e+00" cType="1" res="6.0024004429578781e-02" rms="1.8203379213809967e-01" purity="5.9845574200153351e-02" nType="-99"/>
            <Node pos="r" depth="3" NCoef="0" IVar="-1" Cut="0.0000000000000000e+00" cType="1" res="1.5347911976277828e-03" rms="1.7922951281070709e-01" purity="5.5259400606155396e-01" nType="-99"/>
          </Node>
          <Node pos="r" depth="2" NCoef="0" IVar="5" Cut="1.8142498779296875e+02" cType="1" res="-1.0850208811461926e-02" rms="2.0057246088981628e-01" purity="2.9156836867332458e-01" nType="0">
            <Node pos="l" depth="3" NCoef="0" IVar="-1" Cut="0.0000000000000000e+00" cType="1" res="-6.1023021116852760e-03" rms="1.7760446667671204e-01" purity="1.3723565638065338e-01" nType="-99"/>
            <Node pos="r" depth="3" NCoef="0" IVar="-1" Cut="0.0000000000000000e+00" cType="1" res="-3.8115482777357101e-02" rms="2.2802129387855530e-01" purity="5.0488781929016113e-01" nType="-99"/>
          </Node>
        </Node>
      </Node>
    </BinaryTree>
    <BinaryTree type="DecisionTree" boostWeight="1.0000000000000000e+00" itree="745">
      <Node pos="s" depth="0" NCoef="0" IVar="10" Cut="-9.3320876359939575e-01" cType="1" res="1.2750935275107622e-03" rms="1.8412917852401733e-01" purity="5.0033819675445557e-01" nType="0">
        <Node pos="l" depth="1" NCoef="0" IVar="8" Cut="-3.9978900551795959e-01" cType="1" res="7.2144321165978909e-03" rms="2.0286546647548676e-01" purity="4.7637933492660522e-01" nType="0">
          <Node pos="l" depth="2" NCoef="0" IVar="1" Cut="1.6228312988281250e+03" cType="1" res="-4.2382786050438881e-03" rms="1.8894213438034058e-01" purity="3.8503682613372803e-01" nType="0">
            <Node pos="l" depth="3" NCoef="0" IVar="-1" Cut="0.0000000000000000e+00" cType="1" res="8.7019711732864380e-02" rms="1.2151805311441422e-01" purity="2.0966380834579468e-02" nType="-99"/>
            <Node pos="r" depth="3" NCoef="0" IVar="-1" Cut="0.0000000000000000e+00" cType="1" res="-2.2635346278548241e-02" rms="2.1784019470214844e-01" purity="5.9225422143936157e-01" nType="-99"/>
          </Node>
          <Node pos="r" depth="2" NCoef="0" IVar="8" Cut="8.1918776035308838e-01" cType="1" res="1.4388129115104675e-02" rms="2.1080279350280762e-01" purity="5.3359413146972656e-01" nType="0">
            <Node pos="l" depth="3" NCoef="0" IVar="-1" Cut="0.0000000000000000e+00" cType="1" res="5.5534336715936661e-02" rms="2.1023055911064148e-01" purity="5.9535050392150879e-01" nType="-99"/>
            <Node pos="r" depth="3" NCoef="0" IVar="-1" Cut="0.0000000000000000e+00" cType="1" res="-6.9840643554925919e-03" rms="2.1095561981201172e-01" purity="3.9814144372940063e-01" nType="-99"/>
          </Node>
        </Node>
        <Node pos="r" depth="1" NCoef="0" IVar="9" Cut="-1.3336022198200226e-01" cType="1" res="-5.2644364768639207e-04" rms="1.7801758646965027e-01" purity="5.0760543346405029e-01" nType="0">
          <Node pos="l" depth="2" NCoef="0" IVar="0" Cut="5.9425396728515625e+02" cType="1" res="3.5193162038922310e-03" rms="1.8587264418601990e-01" purity="5.1421016454696655e-01" nType="0">
            <Node pos="l" depth="3" NCoef="0" IVar="-1" Cut="0.0000000000000000e+00" cType="1" res="2.9863514006137848e-02" rms="1.9808378815650940e-01" purity="1.1403561383485794e-01" nType="-99"/>
            <Node pos="r" depth="3" NCoef="0" IVar="-1" Cut="0.0000000000000000e+00" cType="1" res="-5.0244345329701900e-03" rms="1.7725399136543274e-01" purity="7.7577251195907593e-01" nType="-99"/>
          </Node>
          <Node pos="r" depth="2" NCoef="0" IVar="3" Cut="6.9602270507812500e+02" cType="1" res="-3.8062268868088722e-03" rms="1.7131558060646057e-01" purity="5.0225126743316650e-01" nType="0">
            <Node pos="l" depth="3" NCoef="0" IVar="-1" Cut="0.0000000000000000e+00" cType="1" res="-2.1894479170441628e-02" rms="1.7554163932800293e-01" purity="2.1874327957630157e-01" nType="-99"/>
            <Node pos="r" depth="3" NCoef="0" IVar="-1" Cut="0.0000000000000000e+00" cType="1" res="1.5270542353391647e-03" rms="1.6630607843399048e-01" purity="8.2274478673934937e-01" nType="-99"/>
          </Node>
        </Node>
      </Node>
    </BinaryTree>
    <BinaryTree type="DecisionTree" boostWeight="1.0000000000000000e+00" itree="746">
      <Node pos="s" depth="0" NCoef="0" IVar="10" Cut="-6.6654098033905029e-01" cType="1" res="-1.2470368528738618e-04" rms="1.8301025032997131e-01" purity="5.0615352392196655e-01" nType="0">
        <Node pos="l" depth="1" NCoef="0" IVar="4" Cut="4.1982745361328125e+02" cType="1" res="4.0629883296787739e-03" rms="1.9795045256614685e-01" purity="4.8756617307662964e-01" nType="0">
          <Node pos="l" depth="2" NCoef="0" IVar="4" Cut="3.4984722900390625e+02" cType="1" res="8.7318131700158119e-03" rms="2.1725706756114960e-01" purity="1.9877199828624725e-01" nType="0">
            <Node pos="l" depth="3" NCoef="0" IVar="-1" Cut="0.0000000000000000e+00" cType="1" res="9.2145055532455444e-03" rms="1.9734449684619904e-01" purity="1.2092208862304688e-01" nType="-99"/>
            <Node pos="r" depth="3" NCoef="0" IVar="-1" Cut="0.0000000000000000e+00" cType="1" res="3.7978097796440125e-02" rms="2.7370107173919678e-01" purity="4.6387013792991638e-01" nType="-99"/>
          </Node>
          <Node pos="r" depth="2" NCoef="0" IVar="2" Cut="2.0630681887269020e-02" cType="1" res="-1.9132955931127071e-03" rms="1.6988126933574677e-01" purity="8.5723435878753662e-01" nType="0">
            <Node pos="l" depth="3" NCoef="0" IVar="-1" Cut="0.0000000000000000e+00" cType="1" res="-2.5611121207475662e-02" rms="2.3332075774669647e-01" purity="5.8693450689315796e-01" nType="-99"/>
            <Node pos="r" depth="3" NCoef="0" IVar="-1" Cut="0.0000000000000000e+00" cType="1" res="4.4549042358994484e-03" rms="1.4928334951400757e-01" purity="9.2623889446258545e-01" nType="-99"/>
          </Node>
        </Node>
        <Node pos="r" depth="1" NCoef="0" IVar="10" Cut="2.1396782398223877e+00" cType="1" res="-1.9182515097782016e-03" rms="1.7619408667087555e-01" purity="5.1411432027816772e-01" nType="0">
          <Node pos="l" depth="2" NCoef="0" IVar="6" Cut="1.8470036315917969e+02" cType="1" res="-2.6398794725537300e-03" rms="1.7172251641750336e-01" purity="5.2107614278793335e-01" nType="0">
            <Node pos="l" depth="3" NCoef="0" IVar="-1" Cut="0.0000000000000000e+00" cType="1" res="-1.2419376522302628e-02" rms="1.8473519384860992e-01" purity="2.9606196284294128e-01" nType="-99"/>
            <Node pos="r" depth="3" NCoef="0" IVar="-1" Cut="0.0000000000000000e+00" cType="1" res="5.3083105012774467e-03" rms="1.4493189752101898e-01" purity="9.3153250217437744e-01" nType="-99"/>
          </Node>
          <Node pos="r" depth="2" NCoef="0" IVar="-1" Cut="0.0000000000000000e+00" cType="1" res="2.0979672670364380e-02" rms="2.4439403414726257e-01" purity="3.8490819931030273e-01" nType="-99"/>
        </Node>
      </Node>
    </BinaryTree>
    <BinaryTree type="DecisionTree" boostWeight="1.0000000000000000e+00" itree="747">
      <Node pos="s" depth="0" NCoef="0" IVar="6" Cut="1.3980029296875000e+02" cType="1" res="-3.4192050225101411e-04" rms="1.8037891387939453e-01" purity="5.0350940227508545e-01" nType="0">
        <Node pos="l" depth="1" NCoef="0" IVar="6" Cut="7.5656379699707031e+01" cType="1" res="2.5350854266434908e-03" rms="1.9105634093284607e-01" purity="2.3298978805541992e-01" nType="0">
          <Node pos="l" depth="2" NCoef="0" IVar="1" Cut="1.9190476074218750e+03" cType="1" res="-2.1580287721008062e-03" rms="1.6134253144264221e-01" purity="1.3623432815074921e-01" nType="0">
            <Node pos="l" depth="3" NCoef="0" IVar="-1" Cut="0.0000000000000000e+00" cType="1" res="7.6073822565376759e-03" rms="1.0389645397663116e-01" purity="1.3014259748160839e-02" nType="-99"/>
            <Node pos="r" depth="3" NCoef="0" IVar="-1" Cut="0.0000000000000000e+00" cType="1" res="-1.3055489398539066e-02" rms="2.6834693551063538e-01" purity="5.0892657041549683e-01" nType="-99"/>
          </Node>
          <Node pos="r" depth="2" NCoef="0" IVar="7" Cut="7.1085089445114136e-01" cType="1" res="5.4318848997354507e-03" rms="2.0722879469394684e-01" purity="2.9271152615547180e-01" nType="0">
            <Node pos="l" depth="3" NCoef="0" IVar="-1" Cut="0.0000000000000000e+00" cType="1" res="4.5911679044365883e-03" rms="2.0070293545722961e-01" purity="3.2216203212738037e-01" nType="-99"/>
            <Node pos="r" depth="3" NCoef="0" IVar="-1" Cut="0.0000000000000000e+00" cType="1" res="3.6589633673429489e-02" rms="2.2798262536525726e-01" purity="1.9078530371189117e-01" nType="-99"/>
          </Node>
        </Node>
        <Node pos="r" depth="1" NCoef="0" IVar="1" Cut="2.2938671875000000e+03" cType="1" res="-3.6574013065546751e-03" rms="1.6716939210891724e-01" purity="8.1525802612304688e-01" nType="0">
          <Node pos="l" depth="2" NCoef="0" IVar="10" Cut="6.6197460889816284e-01" cType="1" res="-1.5390711836516857e-02" rms="2.7149888873100281e-01" purity="1.8174678087234497e-01" nType="0">
            <Node pos="l" depth="3" NCoef="0" IVar="-1" Cut="0.0000000000000000e+00" cType="1" res="-4.9934494309127331e-03" rms="2.7681332826614380e-01" purity="1.7727331817150116e-01" nType="-99"/>
            <Node pos="r" depth="3" NCoef="0" IVar="-1" Cut="0.0000000000000000e+00" cType="1" res="-4.4681236147880554e-02" rms="2.5796258449554443e-01" purity="1.9140018522739410e-01" nType="-99"/>
          </Node>
          <Node pos="r" depth="2" NCoef="0" IVar="2" Cut="4.0458112955093384e-02" cType="1" res="-6.1522255418822169e-04" rms="1.2662766873836517e-01" purity="9.7951298952102661e-01" nType="0">
            <Node pos="l" depth="3" NCoef="0" IVar="-1" Cut="0.0000000000000000e+00" cType="1" res="-1.7733965069055557e-02" rms="1.7273102700710297e-01" purity="9.5767486095428467e-01" nType="-99"/>
            <Node pos="r" depth="3" NCoef="0" IVar="-1" Cut="0.0000000000000000e+00" cType="1" res="8.7184915319085121e-03" rms="1.0407085716724396e-01" purity="9.8773145675659180e-01" nType="-99"/>
          </Node>
        </Node>
      </Node>
    </BinaryTree>
    <BinaryTree type="DecisionTree" boostWeight="1.0000000000000000e+00" itree="748">
      <Node pos="s" depth="0" NCoef="0" IVar="10" Cut="-9.3330907821655273e-01" cType="1" res="1.2824243167415261e-03" rms="1.8514519929885864e-01" purity="5.0111520290374756e-01" nType="0">
        <Node pos="l" depth="1" NCoef="0" IVar="0" Cut="8.6822833251953125e+02" cType="1" res="-5.3719468414783478e-03" rms="1.9240279495716095e-01" purity="4.5277667045593262e-01" nType="0">
          <Node pos="l" depth="2" NCoef="0" IVar="5" Cut="2.2433000183105469e+02" cType="1" res="-8.7429033592343330e-03" rms="2.0291417837142944e-01" purity="2.3519967496395111e-01" nType="0">
            <Node pos="l" depth="3" NCoef="0" IVar="-1" Cut="0.0000000000000000e+00" cType="1" res="-8.4574399515986443e-03" rms="1.7927488684654236e-01" purity="6.2946639955043793e-02" nType="-99"/>
            <Node pos="r" depth="3" NCoef="0" IVar="-1" Cut="0.0000000000000000e+00" cType="1" res="-3.1558640301227570e-02" rms="2.4470336735248566e-01" purity="5.9624779224395752e-01" nType="-99"/>
          </Node>
          <Node pos="r" depth="2" NCoef="0" IVar="7" Cut="2.2080340981483459e-01" cType="1" res="1.9999104551970959e-03" rms="1.6689054667949677e-01" purity="9.2859005928039551e-01" nType="0">
            <Node pos="l" depth="3" NCoef="0" IVar="-1" Cut="0.0000000000000000e+00" cType="1" res="-8.0619473010301590e-03" rms="1.5503136813640594e-01" purity="9.2691498994827271e-01" nType="-99"/>
            <Node pos="r" depth="3" NCoef="0" IVar="-1" Cut="0.0000000000000000e+00" cType="1" res="2.7030318975448608e-02" rms="1.8521033227443695e-01" purity="9.3145281076431274e-01" nType="-99"/>
          </Node>
        </Node>
        <Node pos="r" depth="1" NCoef="0" IVar="8" Cut="-1.7330898046493530e+00" cType="1" res="3.2237365376204252e-03" rms="1.8292807042598724e-01" purity="5.1521724462509155e-01" nType="0">
          <Node pos="l" depth="2" NCoef="0" IVar="-1" Cut="0.0000000000000000e+00" cType="1" res="-3.9484161883592606e-02" rms="1.8776585161685944e-01" purity="1.7075614631175995e-01" nType="-99"/>
          <Node pos="r" depth="2" NCoef="0" IVar="4" Cut="3.9128659057617188e+02" cType="1" res="3.9845746941864491e-03" rms="1.8269281089305878e-01" purity="5.2881062030792236e-01" nType="0">
            <Node pos="l" depth="3" NCoef="0" IVar="-1" Cut="0.0000000000000000e+00" cType="1" res="2.0084612071514130e-02" rms="1.9916413724422455e-01" purity="1.5289647877216339e-01" nType="-99"/>
            <Node pos="r" depth="3" NCoef="0" IVar="-1" Cut="0.0000000000000000e+00" cType="1" res="3.1227974686771631e-03" rms="1.6746714711189270e-01" purity="8.4624898433685303e-01" nType="-99"/>
          </Node>
        </Node>
      </Node>
    </BinaryTree>
    <BinaryTree type="DecisionTree" boostWeight="1.0000000000000000e+00" itree="749">
      <Node pos="s" depth="0" NCoef="0" IVar="10" Cut="-1.7333155870437622e+00" cType="1" res="1.1564625892788172e-03" rms="1.8481147289276123e-01" purity="4.9811297655105591e-01" nType="0">
        <Node pos="l" depth="1" NCoef="0" IVar="9" Cut="1.3360926508903503e-01" cType="1" res="9.4336029142141342e-03" rms="2.3134940862655640e-01" purity="4.0152695775032043e-01" nType="0">
          <Node pos="l" depth="2" NCoef="0" IVar="-1" Cut="0.0000000000000000e+00" cType="1" res="3.8879524916410446e-02" rms="2.4155123531818390e-01" purity="3.8831228017807007e-01" nType="-99"/>
          <Node pos="r" depth="2" NCoef="0" IVar="-1" Cut="0.0000000000000000e+00" cType="1" res="-8.5817659273743629e-03" rms="2.1444807946681976e-01" purity="4.2127162218093872e-01" nType="-99"/>
        </Node>
        <Node pos="r" depth="1" NCoef="0" IVar="9" Cut="-1.9999415874481201e+00" cType="1" res="4.6042818576097488e-04" rms="1.8033419549465179e-01" purity="5.0623506307601929e-01" nType="0">
          <Node pos="l" depth="2" NCoef="0" IVar="-1" Cut="0.0000000000000000e+00" cType="1" res="2.6726495474576950e-02" rms="2.4470064043998718e-01" purity="2.4309666454792023e-01" nType="-99"/>
          <Node pos="r" depth="2" NCoef="0" IVar="6" Cut="1.3441952514648438e+02" cType="1" res="6.4690837461967021e-05" rms="1.7790277302265167e-01" purity="5.1456373929977417e-01" nType="0">
            <Node pos="l" depth="3" NCoef="0" IVar="-1" Cut="0.0000000000000000e+00" cType="1" res="-7.0788874290883541e-03" rms="1.7996636033058167e-01" purity="2.1374535560607910e-01" nType="-99"/>
            <Node pos="r" depth="3" NCoef="0" IVar="-1" Cut="0.0000000000000000e+00" cType="1" res="8.1968931481242180e-03" rms="1.7580509185791016e-01" purity="8.1144595146179199e-01" nType="-99"/>
          </Node>
        </Node>
      </Node>
    </BinaryTree>
    <BinaryTree type="DecisionTree" boostWeight="1.0000000000000000e+00" itree="750">
      <Node pos="s" depth="0" NCoef="0" IVar="7" Cut="-7.6727285981178284e-02" cType="1" res="1.0064485832117498e-04" rms="1.7951409518718719e-01" purity="5.0361549854278564e-01" nType="0">
        <Node pos="l" depth="1" NCoef="0" IVar="4" Cut="5.0402642822265625e+02" cType="1" res="3.8106648717075586e-03" rms="1.8445949256420135e-01" purity="4.9159657955169678e-01" nType="0">
          <Node pos="l" depth="2" NCoef="0" IVar="1" Cut="1.6686833496093750e+03" cType="1" res="6.4174169674515724e-03" rms="2.0152848958969116e-01" purity="2.6699760556221008e-01" nType="0">
            <Node pos="l" depth="3" NCoef="0" IVar="-1" Cut="0.0000000000000000e+00" cType="1" res="-1.1957819573581219e-02" rms="7.8893356025218964e-02" purity="9.6844015643000603e-03" nType="-99"/>
            <Node pos="r" depth="3" NCoef="0" IVar="-1" Cut="0.0000000000000000e+00" cType="1" res="1.8835535272955894e-02" rms="2.6894152164459229e-01" purity="5.0505608320236206e-01" nType="-99"/>
          </Node>
          <Node pos="r" depth="2" NCoef="0" IVar="5" Cut="2.5313285827636719e+02" cType="1" res="-1.2413996737450361e-03" rms="1.4566326141357422e-01" purity="9.2688488960266113e-01" nType="0">
            <Node pos="l" depth="3" NCoef="0" IVar="-1" Cut="0.0000000000000000e+00" cType="1" res="-2.4267751723527908e-02" rms="2.3382218182086945e-01" purity="6.8275094032287598e-01" nType="-99"/>
            <Node pos="r" depth="3" NCoef="0" IVar="-1" Cut="0.0000000000000000e+00" cType="1" res="9.8859192803502083e-03" rms="1.1943390965461731e-01" purity="9.7731012105941772e-01" nType="-99"/>
          </Node>
        </Node>
        <Node pos="r" depth="1" NCoef="0" IVar="1" Cut="2.4992536621093750e+03" cType="1" res="-3.0760397203266621e-03" rms="1.7510624229907990e-01" purity="5.1390659809112549e-01" nType="0">
          <Node pos="l" depth="2" NCoef="0" IVar="1" Cut="1.8711069335937500e+03" cType="1" res="-6.7264819517731667e-03" rms="1.9842015206813812e-01" purity="1.1434331536293030e-01" nType="0">
            <Node pos="l" depth="3" NCoef="0" IVar="-1" Cut="0.0000000000000000e+00" cType="1" res="-1.5315537340939045e-02" rms="1.2669055163860321e-01" purity="2.1755585446953773e-02" nType="-99"/>
            <Node pos="r" depth="3" NCoef="0" IVar="-1" Cut="0.0000000000000000e+00" cType="1" res="-1.3877836987376213e-02" rms="3.3349716663360596e-01" purity="4.0026262402534485e-01" nType="-99"/>
          </Node>
          <Node pos="r" depth="2" NCoef="0" IVar="5" Cut="2.0836709594726562e+02" cType="1" res="1.0978414211422205e-03" rms="1.4377927780151367e-01" purity="9.7076350450515747e-01" nType="0">
            <Node pos="l" depth="3" NCoef="0" IVar="-1" Cut="0.0000000000000000e+00" cType="1" res="2.0497025921940804e-02" rms="2.7439969778060913e-01" purity="8.6210042238235474e-01" nType="-99"/>
            <Node pos="r" depth="3" NCoef="0" IVar="-1" Cut="0.0000000000000000e+00" cType="1" res="-5.1325829699635506e-03" rms="1.2025073170661926e-01" purity="9.8305851221084595e-01" nType="-99"/>
          </Node>
        </Node>
      </Node>
    </BinaryTree>
    <BinaryTree type="DecisionTree" boostWeight="1.0000000000000000e+00" itree="751">
      <Node pos="s" depth="0" NCoef="0" IVar="10" Cut="2.2662398815155029e+00" cType="1" res="3.4205842530354857e-04" rms="1.8308775126934052e-01" purity="4.9831277132034302e-01" nType="0">
        <Node pos="l" depth="1" NCoef="0" IVar="9" Cut="-1.9999409914016724e+00" cType="1" res="8.0871046520769596e-04" rms="1.8145203590393066e-01" purity="5.0318676233291626e-01" nType="0">
          <Node pos="l" depth="2" NCoef="0" IVar="-1" Cut="0.0000000000000000e+00" cType="1" res="-3.1112331897020340e-02" rms="2.0549654960632324e-01" purity="1.9245149195194244e-01" nType="-99"/>
          <Node pos="r" depth="2" NCoef="0" IVar="8" Cut="1.7334703207015991e+00" cType="1" res="1.2464103056117892e-03" rms="1.8060109019279480e-01" purity="5.1327282190322876e-01" nType="0">
            <Node pos="l" depth="3" NCoef="0" IVar="-1" Cut="0.0000000000000000e+00" cType="1" res="4.9667181447148323e-03" rms="1.8032881617546082e-01" purity="5.2751249074935913e-01" nType="-99"/>
            <Node pos="r" depth="3" NCoef="0" IVar="-1" Cut="0.0000000000000000e+00" cType="1" res="-2.6791030541062355e-02" rms="1.8716330826282501e-01" purity="1.4158274233341217e-01" nType="-99"/>
          </Node>
        </Node>
        <Node pos="r" depth="1" NCoef="0" IVar="-1" Cut="0.0000000000000000e+00" cType="1" res="-3.1252156943082809e-02" rms="2.3650023341178894e-01" purity="3.1246998906135559e-01" nType="-99"/>
      </Node>
    </BinaryTree>
    <BinaryTree type="DecisionTree" boostWeight="1.0000000000000000e+00" itree="752">
      <Node pos="s" depth="0" NCoef="0" IVar="10" Cut="-2.2666027545928955e+00" cType="1" res="1.0810090461745858e-03" rms="1.8499180674552917e-01" purity="5.0746917724609375e-01" nType="0">
        <Node pos="l" depth="1" NCoef="0" IVar="-1" Cut="0.0000000000000000e+00" cType="1" res="3.3914297819137573e-02" rms="2.4692785739898682e-01" purity="3.6921221017837524e-01" nType="-99"/>
        <Node pos="r" depth="1" NCoef="0" IVar="9" Cut="6.6643899679183960e-01" cType="1" res="5.9242988936603069e-04" rms="1.8303848803043365e-01" purity="5.1113671064376831e-01" nType="0">
          <Node pos="l" depth="2" NCoef="0" IVar="9" Cut="-1.8095313310623169e+00" cType="1" res="-1.1689797975122929e-03" rms="1.7671759426593781e-01" purity="5.2687919139862061e-01" nType="0">
            <Node pos="l" depth="3" NCoef="0" IVar="-1" Cut="0.0000000000000000e+00" cType="1" res="2.4126492440700531e-02" rms="2.2652623057365417e-01" purity="3.1204172968864441e-01" nType="-99"/>
            <Node pos="r" depth="3" NCoef="0" IVar="-1" Cut="0.0000000000000000e+00" cType="1" res="-6.7221545614302158e-03" rms="1.7236033082008362e-01" purity="5.4300761222839355e-01" nType="-99"/>
          </Node>
          <Node pos="r" depth="2" NCoef="0" IVar="7" Cut="6.8858337402343750e-01" cType="1" res="5.0265337340533733e-03" rms="1.9799003005027771e-01" purity="4.7150734066963196e-01" nType="0">
            <Node pos="l" depth="3" NCoef="0" IVar="-1" Cut="0.0000000000000000e+00" cType="1" res="2.1328423172235489e-02" rms="1.9964143633842468e-01" purity="5.1659375429153442e-01" nType="-99"/>
            <Node pos="r" depth="3" NCoef="0" IVar="-1" Cut="0.0000000000000000e+00" cType="1" res="-1.7992159351706505e-02" rms="1.9139105081558228e-01" purity="3.0849552154541016e-01" nType="-99"/>
          </Node>
        </Node>
      </Node>
    </BinaryTree>
    <BinaryTree type="DecisionTree" boostWeight="1.0000000000000000e+00" itree="753">
      <Node pos="s" depth="0" NCoef="0" IVar="9" Cut="-1.9998860359191895e+00" cType="1" res="-1.0481659555807710e-03" rms="1.8301162123680115e-01" purity="4.9607276916503906e-01" nType="0">
        <Node pos="l" depth="1" NCoef="0" IVar="-1" Cut="0.0000000000000000e+00" cType="1" res="-4.0475416928529739e-02" rms="2.1331647038459778e-01" purity="1.9707480072975159e-01" nType="-99"/>
        <Node pos="r" depth="1" NCoef="0" IVar="3" Cut="8.0170318603515625e+02" cType="1" res="-5.0941645167768002e-04" rms="1.8190288543701172e-01" purity="5.0591814517974854e-01" nType="0">
          <Node pos="l" depth="2" NCoef="0" IVar="1" Cut="2.0426845703125000e+03" cType="1" res="1.5054361429065466e-03" rms="1.8966506421566010e-01" purity="3.1884142756462097e-01" nType="0">
            <Node pos="l" depth="3" NCoef="0" IVar="-1" Cut="0.0000000000000000e+00" cType="1" res="-2.6631045620888472e-03" rms="1.6214558482170105e-01" purity="3.8980890065431595e-02" nType="-99"/>
            <Node pos="r" depth="3" NCoef="0" IVar="-1" Cut="0.0000000000000000e+00" cType="1" res="1.0170877911150455e-02" rms="2.3514069616794586e-01" purity="8.7815016508102417e-01" nType="-99"/>
          </Node>
          <Node pos="r" depth="2" NCoef="0" IVar="1" Cut="2.8295703125000000e+03" cType="1" res="-4.5053479261696339e-03" rms="1.6536214947700500e-01" purity="8.7693589925765991e-01" nType="0">
            <Node pos="l" depth="3" NCoef="0" IVar="-1" Cut="0.0000000000000000e+00" cType="1" res="-2.0638369023799896e-02" rms="2.9547157883644104e-01" purity="3.8454797863960266e-01" nType="-99"/>
            <Node pos="r" depth="3" NCoef="0" IVar="-1" Cut="0.0000000000000000e+00" cType="1" res="-8.9910514652729034e-03" rms="1.2089468538761139e-01" purity="9.8096859455108643e-01" nType="-99"/>
          </Node>
        </Node>
      </Node>
    </BinaryTree>
    <BinaryTree type="DecisionTree" boostWeight="1.0000000000000000e+00" itree="754">
      <Node pos="s" depth="0" NCoef="0" IVar="9" Cut="-1.1999315023422241e+00" cType="1" res="4.3741037370637059e-04" rms="1.8158756196498871e-01" purity="5.0010687112808228e-01" nType="0">
        <Node pos="l" depth="1" NCoef="0" IVar="7" Cut="4.4948154687881470e-01" cType="1" res="-5.8056334964931011e-03" rms="1.9451220333576202e-01" purity="3.6913251876831055e-01" nType="0">
          <Node pos="l" depth="2" NCoef="0" IVar="1" Cut="2.1027927246093750e+03" cType="1" res="-8.2951906369999051e-04" rms="1.9059695303440094e-01" purity="4.0849092602729797e-01" nType="0">
            <Node pos="l" depth="3" NCoef="0" IVar="-1" Cut="0.0000000000000000e+00" cType="1" res="-2.6618568226695061e-02" rms="1.5438458323478699e-01" purity="3.3376123756170273e-02" nType="-99"/>
            <Node pos="r" depth="3" NCoef="0" IVar="-1" Cut="0.0000000000000000e+00" cType="1" res="1.3855597004294395e-02" rms="2.2838152945041656e-01" purity="8.8782089948654175e-01" nType="-99"/>
          </Node>
          <Node pos="r" depth="2" NCoef="0" IVar="-1" Cut="0.0000000000000000e+00" cType="1" res="-4.1064690798521042e-02" rms="2.0330967009067535e-01" purity="2.7227044105529785e-01" nType="-99"/>
        </Node>
        <Node pos="r" depth="1" NCoef="0" IVar="9" Cut="-4.3803560733795166e-01" cType="1" res="1.4367991825565696e-03" rms="1.7941197752952576e-01" purity="5.2107334136962891e-01" nType="0">
          <Node pos="l" depth="2" NCoef="0" IVar="0" Cut="7.2616430664062500e+02" cType="1" res="5.9962584637105465e-03" rms="1.9290025532245636e-01" purity="5.3444755077362061e-01" nType="0">
            <Node pos="l" depth="3" NCoef="0" IVar="-1" Cut="0.0000000000000000e+00" cType="1" res="2.8784757480025291e-02" rms="2.1091783046722412e-01" purity="2.2267499566078186e-01" nType="-99"/>
            <Node pos="r" depth="3" NCoef="0" IVar="-1" Cut="0.0000000000000000e+00" cType="1" res="-5.5022155866026878e-03" rms="1.7018523812294006e-01" purity="8.8339745998382568e-01" nType="-99"/>
          </Node>
          <Node pos="r" depth="2" NCoef="0" IVar="7" Cut="-1.1881479024887085e+00" cType="1" res="-4.3061656469944865e-05" rms="1.7478495836257935e-01" purity="5.1673245429992676e-01" nType="0">
            <Node pos="l" depth="3" NCoef="0" IVar="-1" Cut="0.0000000000000000e+00" cType="1" res="-3.6830585449934006e-02" rms="1.6925056278705597e-01" purity="1.6640992462635040e-01" nType="-99"/>
            <Node pos="r" depth="3" NCoef="0" IVar="-1" Cut="0.0000000000000000e+00" cType="1" res="2.4515199474990368e-03" rms="1.7517098784446716e-01" purity="5.4347461462020874e-01" nType="-99"/>
          </Node>
        </Node>
      </Node>
    </BinaryTree>
    <BinaryTree type="DecisionTree" boostWeight="1.0000000000000000e+00" itree="755">
      <Node pos="s" depth="0" NCoef="0" IVar="7" Cut="9.6990388631820679e-01" cType="1" res="-6.4835365628823638e-04" rms="1.8264038860797882e-01" purity="5.0055450201034546e-01" nType="0">
        <Node pos="l" depth="1" NCoef="0" IVar="8" Cut="-4.0004879236221313e-01" cType="1" res="-1.7823019297793508e-03" rms="1.7881606519222260e-01" purity="5.3459089994430542e-01" nType="0">
          <Node pos="l" depth="2" NCoef="0" IVar="7" Cut="-1.0952472686767578e+00" cType="1" res="2.5886334478855133e-03" rms="1.8706002831459045e-01" purity="5.0036752223968506e-01" nType="0">
            <Node pos="l" depth="3" NCoef="0" IVar="-1" Cut="0.0000000000000000e+00" cType="1" res="-3.2535806298255920e-02" rms="1.8087816238403320e-01" purity="1.8403412401676178e-01" nType="-99"/>
            <Node pos="r" depth="3" NCoef="0" IVar="-1" Cut="0.0000000000000000e+00" cType="1" res="1.1488733813166618e-02" rms="1.8777263164520264e-01" purity="5.4117542505264282e-01" nType="-99"/>
          </Node>
          <Node pos="r" depth="2" NCoef="0" IVar="10" Cut="-1.9999412298202515e+00" cType="1" res="-4.0843673050403595e-03" rms="1.7427344620227814e-01" purity="5.5261558294296265e-01" nType="0">
            <Node pos="l" depth="3" NCoef="0" IVar="-1" Cut="0.0000000000000000e+00" cType="1" res="-4.1524723172187805e-02" rms="2.1911336481571198e-01" purity="4.3775758147239685e-01" nType="-99"/>
            <Node pos="r" depth="3" NCoef="0" IVar="-1" Cut="0.0000000000000000e+00" cType="1" res="-9.8608918488025665e-03" rms="1.7168499529361725e-01" purity="5.5831813812255859e-01" nType="-99"/>
          </Node>
        </Node>
        <Node pos="r" depth="1" NCoef="0" IVar="1" Cut="1.9977458496093750e+03" cType="1" res="7.2106360457837582e-03" rms="2.0704403519630432e-01" purity="2.6466009020805359e-01" nType="0">
          <Node pos="l" depth="2" NCoef="0" IVar="4" Cut="2.9323626708984375e+02" cType="1" res="-3.7874554982408881e-04" rms="1.6384218633174896e-01" purity="3.6407440900802612e-02" nType="0">
            <Node pos="l" depth="3" NCoef="0" IVar="-1" Cut="0.0000000000000000e+00" cType="1" res="-3.6327335983514786e-02" rms="1.1564750969409943e-01" purity="1.5359254553914070e-02" nType="-99"/>
            <Node pos="r" depth="3" NCoef="0" IVar="-1" Cut="0.0000000000000000e+00" cType="1" res="2.0166577771306038e-02" rms="2.1560306847095490e-01" purity="6.7299604415893555e-02" nType="-99"/>
          </Node>
          <Node pos="r" depth="2" NCoef="0" IVar="-1" Cut="0.0000000000000000e+00" cType="1" res="3.1050425022840500e-02" rms="2.7954250574111938e-01" purity="7.7308863401412964e-01" nType="-99"/>
        </Node>
      </Node>
    </BinaryTree>
    <BinaryTree type="DecisionTree" boostWeight="1.0000000000000000e+00" itree="756">
      <Node pos="s" depth="0" NCoef="0" IVar="9" Cut="-1.9995298385620117e+00" cType="1" res="-3.0523858731612563e-04" rms="1.8271596729755402e-01" purity="5.0404632091522217e-01" nType="0">
        <Node pos="l" depth="1" NCoef="0" IVar="-1" Cut="0.0000000000000000e+00" cType="1" res="3.4716255962848663e-02" rms="2.4372608959674835e-01" purity="2.3526580631732941e-01" nType="-99"/>
        <Node pos="r" depth="1" NCoef="0" IVar="7" Cut="-1.1160708665847778e+00" cType="1" res="-8.3463307237252593e-04" rms="1.8038541078567505e-01" purity="5.1269572973251343e-01" nType="0">
          <Node pos="l" depth="2" NCoef="0" IVar="4" Cut="3.5723724365234375e+02" cType="1" res="7.2720837779343128e-03" rms="1.9059173762798309e-01" purity="2.0205050706863403e-01" nType="0">
            <Node pos="l" depth="3" NCoef="0" IVar="-1" Cut="0.0000000000000000e+00" cType="1" res="-6.9991755299270153e-03" rms="1.5240582823753357e-01" purity="4.8016402870416641e-02" nType="-99"/>
            <Node pos="r" depth="3" NCoef="0" IVar="-1" Cut="0.0000000000000000e+00" cType="1" res="3.8754474371671677e-02" rms="2.4479939043521881e-01" purity="4.8446464538574219e-01" nType="-99"/>
          </Node>
          <Node pos="r" depth="2" NCoef="0" IVar="2" Cut="8.5462562739849091e-02" cType="1" res="-1.6719797858968377e-03" rms="1.7927721142768860e-01" purity="5.4478240013122559e-01" nType="0">
            <Node pos="l" depth="3" NCoef="0" IVar="-1" Cut="0.0000000000000000e+00" cType="1" res="-7.8525859862565994e-03" rms="1.8737369775772095e-01" purity="4.5187541842460632e-01" nType="-99"/>
            <Node pos="r" depth="3" NCoef="0" IVar="-1" Cut="0.0000000000000000e+00" cType="1" res="7.2623481974005699e-03" rms="1.5404291450977325e-01" purity="8.0749928951263428e-01" nType="-99"/>
          </Node>
        </Node>
      </Node>
    </BinaryTree>
    <BinaryTree type="DecisionTree" boostWeight="1.0000000000000000e+00" itree="757">
      <Node pos="s" depth="0" NCoef="0" IVar="8" Cut="4.0060669183731079e-01" cType="1" res="3.2156603992916644e-04" rms="1.8501096963882446e-01" purity="4.9772050976753235e-01" nType="0">
        <Node pos="l" depth="1" NCoef="0" IVar="0" Cut="4.4206808471679688e+02" cType="1" res="-1.8891354557126760e-03" rms="1.8054182827472687e-01" purity="5.1810359954833984e-01" nType="0">
          <Node pos="l" depth="2" NCoef="0" IVar="1" Cut="1.6649847412109375e+03" cType="1" res="5.2937832660973072e-03" rms="1.4667797088623047e-01" purity="3.1545810401439667e-02" nType="0">
            <Node pos="l" depth="3" NCoef="0" IVar="-1" Cut="0.0000000000000000e+00" cType="1" res="-2.0067539066076279e-02" rms="7.4928440153598785e-02" purity="6.6860113292932510e-03" nType="-99"/>
            <Node pos="r" depth="3" NCoef="0" IVar="-1" Cut="0.0000000000000000e+00" cType="1" res="4.5551650226116180e-02" rms="2.5785598158836365e-01" purity="1.0266353189945221e-01" nType="-99"/>
          </Node>
          <Node pos="r" depth="2" NCoef="0" IVar="1" Cut="2.8021640625000000e+03" cType="1" res="-3.7483780179172754e-03" rms="1.8827307224273682e-01" purity="6.4404535293579102e-01" nType="0">
            <Node pos="l" depth="3" NCoef="0" IVar="-1" Cut="0.0000000000000000e+00" cType="1" res="-1.1645914986729622e-02" rms="2.4298609793186188e-01" purity="2.8897854685783386e-01" nType="-99"/>
            <Node pos="r" depth="3" NCoef="0" IVar="-1" Cut="0.0000000000000000e+00" cType="1" res="-3.9129797369241714e-03" rms="1.1318563669919968e-01" purity="9.8433905839920044e-01" nType="-99"/>
          </Node>
        </Node>
        <Node pos="r" depth="1" NCoef="0" IVar="9" Cut="-1.1992172002792358e+00" cType="1" res="4.4431821443140507e-03" rms="1.9299958646297455e-01" purity="4.5971831679344177e-01" nType="0">
          <Node pos="l" depth="2" NCoef="0" IVar="-1" Cut="0.0000000000000000e+00" cType="1" res="3.7540338933467865e-02" rms="2.4230121076107025e-01" purity="3.5744512081146240e-01" nType="-99"/>
          <Node pos="r" depth="2" NCoef="0" IVar="3" Cut="4.7203909301757812e+02" cType="1" res="2.1537351422011852e-03" rms="1.8395556509494781e-01" purity="4.7578093409538269e-01" nType="0">
            <Node pos="l" depth="3" NCoef="0" IVar="-1" Cut="0.0000000000000000e+00" cType="1" res="-1.9185801967978477e-02" rms="1.6973052918910980e-01" purity="7.4497438967227936e-02" nType="-99"/>
            <Node pos="r" depth="3" NCoef="0" IVar="-1" Cut="0.0000000000000000e+00" cType="1" res="1.1378476396203041e-02" rms="1.8716861307621002e-01" purity="5.7281064987182617e-01" nType="-99"/>
          </Node>
        </Node>
      </Node>
    </BinaryTree>
    <BinaryTree type="DecisionTree" boostWeight="1.0000000000000000e+00" itree="758">
      <Node pos="s" depth="0" NCoef="0" IVar="8" Cut="-1.7332022190093994e+00" cType="1" res="7.5560866389423609e-04" rms="1.8193367123603821e-01" purity="5.0310438871383667e-01" nType="0">
        <Node pos="l" depth="1" NCoef="0" IVar="-1" Cut="0.0000000000000000e+00" cType="1" res="3.7748418748378754e-02" rms="2.1729998290538788e-01" purity="1.9571436941623688e-01" nType="-99"/>
        <Node pos="r" depth="1" NCoef="0" IVar="10" Cut="-1.7332279682159424e+00" cType="1" res="5.1412411266937852e-05" rms="1.8013107776641846e-01" purity="5.1706469058990479e-01" nType="0">
          <Node pos="l" depth="2" NCoef="0" IVar="1" Cut="1.9481524658203125e+03" cType="1" res="-8.9712906628847122e-03" rms="1.9677665829658508e-01" purity="4.3489590287208557e-01" nType="0">
            <Node pos="l" depth="3" NCoef="0" IVar="-1" Cut="0.0000000000000000e+00" cType="1" res="-6.0796458274126053e-02" rms="1.5298862755298615e-01" purity="2.5655269622802734e-02" nType="-99"/>
            <Node pos="r" depth="3" NCoef="0" IVar="-1" Cut="0.0000000000000000e+00" cType="1" res="4.8547005280852318e-03" rms="2.3117257654666901e-01" purity="8.3602154254913330e-01" nType="-99"/>
          </Node>
          <Node pos="r" depth="2" NCoef="0" IVar="3" Cut="5.0089886474609375e+02" cType="1" res="8.3712692139670253e-04" rms="1.7858655750751495e-01" purity="5.2422010898590088e-01" nType="0">
            <Node pos="l" depth="3" NCoef="0" IVar="-1" Cut="0.0000000000000000e+00" cType="1" res="1.9540559500455856e-02" rms="1.9907742738723755e-01" purity="1.1648687720298767e-01" nType="-99"/>
            <Node pos="r" depth="3" NCoef="0" IVar="-1" Cut="0.0000000000000000e+00" cType="1" res="-3.4634908661246300e-03" rms="1.7224828898906708e-01" purity="6.4047157764434814e-01" nType="-99"/>
          </Node>
        </Node>
      </Node>
    </BinaryTree>
    <BinaryTree type="DecisionTree" boostWeight="1.0000000000000000e+00" itree="759">
      <Node pos="s" depth="0" NCoef="0" IVar="8" Cut="1.4666807651519775e+00" cType="1" res="-7.8658404527232051e-04" rms="1.8502579629421234e-01" purity="4.9697506427764893e-01" nType="0">
        <Node pos="l" depth="1" NCoef="0" IVar="10" Cut="-3.9997270703315735e-01" cType="1" res="-1.5702071832492948e-03" rms="1.8089285492897034e-01" purity="5.1678198575973511e-01" nType="0">
          <Node pos="l" depth="2" NCoef="0" IVar="3" Cut="6.1992968750000000e+02" cType="1" res="-5.3734509274363518e-03" rms="1.7877306044101715e-01" purity="4.9199101328849792e-01" nType="0">
            <Node pos="l" depth="3" NCoef="0" IVar="-1" Cut="0.0000000000000000e+00" cType="1" res="-3.2748624682426453e-02" rms="1.8458746373653412e-01" purity="1.5830710530281067e-01" nType="-99"/>
            <Node pos="r" depth="3" NCoef="0" IVar="-1" Cut="0.0000000000000000e+00" cType="1" res="-2.0897516515105963e-03" rms="1.7428711056709290e-01" purity="7.3376202583312988e-01" nType="-99"/>
          </Node>
          <Node pos="r" depth="2" NCoef="0" IVar="8" Cut="1.0603138208389282e+00" cType="1" res="7.1348634082823992e-04" rms="1.8211570382118225e-01" purity="5.3166794776916504e-01" nType="0">
            <Node pos="l" depth="3" NCoef="0" IVar="-1" Cut="0.0000000000000000e+00" cType="1" res="-1.0412958217784762e-03" rms="1.8005715310573578e-01" purity="5.4251223802566528e-01" nType="-99"/>
            <Node pos="r" depth="3" NCoef="0" IVar="-1" Cut="0.0000000000000000e+00" cType="1" res="2.8859671205282211e-02" rms="2.0255956053733826e-01" purity="4.1525927186012268e-01" nType="-99"/>
          </Node>
        </Node>
        <Node pos="r" depth="1" NCoef="0" IVar="2" Cut="9.4138467684388161e-03" cType="1" res="9.2720352113246918e-03" rms="2.3138208687305450e-01" purity="2.4273261427879333e-01" nType="0">
          <Node pos="l" depth="2" NCoef="0" IVar="-1" Cut="0.0000000000000000e+00" cType="1" res="8.1875048577785492e-02" rms="2.4286852777004242e-01" purity="1.2093241512775421e-01" nType="-99"/>
          <Node pos="r" depth="2" NCoef="0" IVar="-1" Cut="0.0000000000000000e+00" cType="1" res="-5.5574113503098488e-03" rms="2.2308249771595001e-01" purity="3.1812286376953125e-01" nType="-99"/>
        </Node>
      </Node>
    </BinaryTree>
    <BinaryTree type="DecisionTree" boostWeight="1.0000000000000000e+00" itree="760">
      <Node pos="s" depth="0" NCoef="0" IVar="8" Cut="-1.1998733282089233e+00" cType="1" res="-4.8869056627154350e-04" rms="1.8220961093902588e-01" purity="5.0365787744522095e-01" nType="0">
        <Node pos="l" depth="1" NCoef="0" IVar="10" Cut="-6.6569733619689941e-01" cType="1" res="-8.6573660373687744e-03" rms="1.9400765001773834e-01" purity="2.8056001663208008e-01" nType="0">
          <Node pos="l" depth="2" NCoef="0" IVar="-1" Cut="0.0000000000000000e+00" cType="1" res="1.1214069090783596e-03" rms="1.9499205052852631e-01" purity="2.3104956746101379e-01" nType="-99"/>
          <Node pos="r" depth="2" NCoef="0" IVar="5" Cut="1.9593977355957031e+02" cType="1" res="-1.3271123170852661e-02" rms="1.9334526360034943e-01" purity="3.0552247166633606e-01" nType="0">
            <Node pos="l" depth="3" NCoef="0" IVar="-1" Cut="0.0000000000000000e+00" cType="1" res="-2.1635342389345169e-02" rms="1.5204352140426636e-01" purity="7.9752445220947266e-02" nType="-99"/>
            <Node pos="r" depth="3" NCoef="0" IVar="-1" Cut="0.0000000000000000e+00" cType="1" res="-4.0863439440727234e-02" rms="2.3596057295799255e-01" purity="5.9747397899627686e-01" nType="-99"/>
          </Node>
        </Node>
        <Node pos="r" depth="1" NCoef="0" IVar="3" Cut="3.4014285278320312e+02" cType="1" res="5.9182767290621996e-04" rms="1.8056362867355347e-01" purity="5.3316831588745117e-01" nType="0">
          <Node pos="l" depth="2" NCoef="0" IVar="-1" Cut="0.0000000000000000e+00" cType="1" res="5.3935438394546509e-02" rms="1.8813681602478027e-01" purity="4.9250047653913498e-02" nType="-99"/>
          <Node pos="r" depth="2" NCoef="0" IVar="8" Cut="1.4667230844497681e+00" cType="1" res="9.6564581326674670e-05" rms="1.8023170530796051e-01" purity="5.5283516645431519e-01" nType="0">
            <Node pos="l" depth="3" NCoef="0" IVar="-1" Cut="0.0000000000000000e+00" cType="1" res="2.9840862844139338e-03" rms="1.7721402645111084e-01" purity="5.7868528366088867e-01" nType="-99"/>
            <Node pos="r" depth="3" NCoef="0" IVar="-1" Cut="0.0000000000000000e+00" cType="1" res="-2.2030593827366829e-02" rms="2.1297198534011841e-01" purity="2.4140527844429016e-01" nType="-99"/>
          </Node>
        </Node>
      </Node>
    </BinaryTree>
    <BinaryTree type="DecisionTree" boostWeight="1.0000000000000000e+00" itree="761">
      <Node pos="s" depth="0" NCoef="0" IVar="10" Cut="1.7333518266677856e+00" cType="1" res="-1.7887842841446400e-04" rms="1.8311920762062073e-01" purity="4.9382853507995605e-01" nType="0">
        <Node pos="l" depth="1" NCoef="0" IVar="7" Cut="-1.1878659725189209e+00" cType="1" res="8.1542943371459842e-04" rms="1.8047884106636047e-01" purity="5.0282573699951172e-01" nType="0">
          <Node pos="l" depth="2" NCoef="0" IVar="0" Cut="4.9653128051757812e+02" cType="1" res="8.7936567142605782e-03" rms="1.8859228491783142e-01" purity="1.7203226685523987e-01" nType="0">
            <Node pos="l" depth="3" NCoef="0" IVar="-1" Cut="0.0000000000000000e+00" cType="1" res="-3.2085198909044266e-03" rms="1.2047417461872101e-01" purity="1.7131375148892403e-02" nType="-99"/>
            <Node pos="r" depth="3" NCoef="0" IVar="-1" Cut="0.0000000000000000e+00" cType="1" res="3.6804359406232834e-02" rms="2.4036075174808502e-01" purity="3.3679413795471191e-01" nType="-99"/>
          </Node>
          <Node pos="r" depth="2" NCoef="0" IVar="7" Cut="-4.8697438091039658e-02" cType="1" res="1.0205934813711792e-04" rms="1.7971828579902649e-01" purity="5.3240346908569336e-01" nType="0">
            <Node pos="l" depth="3" NCoef="0" IVar="-1" Cut="0.0000000000000000e+00" cType="1" res="-1.0960047133266926e-02" rms="1.7424899339675903e-01" purity="5.6551921367645264e-01" nType="-99"/>
            <Node pos="r" depth="3" NCoef="0" IVar="-1" Cut="0.0000000000000000e+00" cType="1" res="8.3340443670749664e-03" rms="1.8382215499877930e-01" purity="5.0658100843429565e-01" nType="-99"/>
          </Node>
        </Node>
        <Node pos="r" depth="1" NCoef="0" IVar="4" Cut="3.3799133300781250e+02" cType="1" res="-1.2390992604196072e-02" rms="2.1251471340656281e-01" purity="3.8332486152648926e-01" nType="0">
          <Node pos="l" depth="2" NCoef="0" IVar="-1" Cut="0.0000000000000000e+00" cType="1" res="-4.5431787148118019e-03" rms="2.0132273435592651e-01" purity="1.3207432627677917e-01" nType="-99"/>
          <Node pos="r" depth="2" NCoef="0" IVar="-1" Cut="0.0000000000000000e+00" cType="1" res="-4.6443238854408264e-02" rms="2.2275786101818085e-01" purity="6.3675069808959961e-01" nType="-99"/>
        </Node>
      </Node>
    </BinaryTree>
    <BinaryTree type="DecisionTree" boostWeight="1.0000000000000000e+00" itree="762">
      <Node pos="s" depth="0" NCoef="0" IVar="10" Cut="-2.2666027545928955e+00" cType="1" res="1.3592530740424991e-03" rms="1.8562075495719910e-01" purity="5.0329703092575073e-01" nType="0">
        <Node pos="l" depth="1" NCoef="0" IVar="-1" Cut="0.0000000000000000e+00" cType="1" res="3.5906419157981873e-02" rms="2.5519424676895142e-01" purity="3.7801712751388550e-01" nType="-99"/>
        <Node pos="r" depth="1" NCoef="0" IVar="10" Cut="2.0761771202087402e+00" cType="1" res="8.4929564036428928e-04" rms="1.8329647183418274e-01" purity="5.0676023960113525e-01" nType="0">
          <Node pos="l" depth="2" NCoef="0" IVar="9" Cut="1.7332123517990112e+00" cType="1" res="1.4104632427915931e-03" rms="1.8207298219203949e-01" purity="5.1431250572204590e-01" nType="0">
            <Node pos="l" depth="3" NCoef="0" IVar="-1" Cut="0.0000000000000000e+00" cType="1" res="6.2662316486239433e-03" rms="1.8051467835903168e-01" purity="5.2721273899078369e-01" nType="-99"/>
            <Node pos="r" depth="3" NCoef="0" IVar="-1" Cut="0.0000000000000000e+00" cType="1" res="-2.0066171884536743e-02" rms="2.0569957792758942e-01" purity="3.0231046676635742e-01" nType="-99"/>
          </Node>
          <Node pos="r" depth="2" NCoef="0" IVar="-1" Cut="0.0000000000000000e+00" cType="1" res="-2.2745160385966301e-02" rms="2.0871728658676147e-01" purity="3.3554533123970032e-01" nType="-99"/>
        </Node>
      </Node>
    </BinaryTree>
    <BinaryTree type="DecisionTree" boostWeight="1.0000000000000000e+00" itree="763">
      <Node pos="s" depth="0" NCoef="0" IVar="10" Cut="1.7331861257553101e+00" cType="1" res="4.1500345105305314e-04" rms="1.8244291841983795e-01" purity="5.0072228908538818e-01" nType="0">
        <Node pos="l" depth="1" NCoef="0" IVar="7" Cut="1.7187820374965668e-01" cType="1" res="-2.4053679953794926e-04" rms="1.7816494405269623e-01" purity="5.0762081146240234e-01" nType="0">
          <Node pos="l" depth="2" NCoef="0" IVar="3" Cut="4.7992810058593750e+02" cType="1" res="-1.8340460956096649e-03" rms="1.7357915639877319e-01" purity="5.2128529548645020e-01" nType="0">
            <Node pos="l" depth="3" NCoef="0" IVar="-1" Cut="0.0000000000000000e+00" cType="1" res="-2.5168821215629578e-02" rms="1.6378948092460632e-01" purity="7.7679648995399475e-02" nType="-99"/>
            <Node pos="r" depth="3" NCoef="0" IVar="-1" Cut="0.0000000000000000e+00" cType="1" res="-1.1453850893303752e-03" rms="1.7572407424449921e-01" purity="6.2346380949020386e-01" nType="-99"/>
          </Node>
          <Node pos="r" depth="2" NCoef="0" IVar="8" Cut="1.2002182006835938e+00" cType="1" res="2.0193804521113634e-03" rms="1.8444952368736267e-01" purity="4.8824176192283630e-01" nType="0">
            <Node pos="l" depth="3" NCoef="0" IVar="-1" Cut="0.0000000000000000e+00" cType="1" res="1.3896463206037879e-03" rms="1.7685274779796600e-01" purity="5.0568878650665283e-01" nType="-99"/>
            <Node pos="r" depth="3" NCoef="0" IVar="-1" Cut="0.0000000000000000e+00" cType="1" res="2.6987718418240547e-02" rms="2.3633748292922974e-01" purity="3.4835812449455261e-01" nType="-99"/>
          </Node>
        </Node>
        <Node pos="r" depth="1" NCoef="0" IVar="7" Cut="4.3944972753524780e-01" cType="1" res="7.8172488138079643e-03" rms="2.2504521906375885e-01" purity="4.2282533645629883e-01" nType="0">
          <Node pos="l" depth="2" NCoef="0" IVar="8" Cut="1.3400417566299438e-01" cType="1" res="1.4633689075708389e-02" rms="2.3200021684169769e-01" purity="4.8666810989379883e-01" nType="0">
            <Node pos="l" depth="3" NCoef="0" IVar="-1" Cut="0.0000000000000000e+00" cType="1" res="3.8221530616283417e-02" rms="2.3849061131477356e-01" purity="5.5217677354812622e-01" nType="-99"/>
            <Node pos="r" depth="3" NCoef="0" IVar="-1" Cut="0.0000000000000000e+00" cType="1" res="1.3924230821430683e-02" rms="2.2449593245983124e-01" purity="4.1567876935005188e-01" nType="-99"/>
          </Node>
          <Node pos="r" depth="2" NCoef="0" IVar="-1" Cut="0.0000000000000000e+00" cType="1" res="-1.4649945311248302e-02" rms="2.0781320333480835e-01" purity="2.7979147434234619e-01" nType="-99"/>
        </Node>
      </Node>
    </BinaryTree>
    <BinaryTree type="DecisionTree" boostWeight="1.0000000000000000e+00" itree="764">
      <Node pos="s" depth="0" NCoef="0" IVar="9" Cut="-1.9995310306549072e+00" cType="1" res="1.1215476552024484e-03" rms="1.8412123620510101e-01" purity="4.9969941377639771e-01" nType="0">
        <Node pos="l" depth="1" NCoef="0" IVar="-1" Cut="0.0000000000000000e+00" cType="1" res="3.8392469286918640e-02" rms="2.5049090385437012e-01" purity="2.4698603153228760e-01" nType="-99"/>
        <Node pos="r" depth="1" NCoef="0" IVar="10" Cut="1.3339093327522278e-01" cType="1" res="5.6977709755301476e-04" rms="1.8154014647006989e-01" purity="5.0788313150405884e-01" nType="0">
          <Node pos="l" depth="2" NCoef="0" IVar="3" Cut="4.7182147216796875e+02" cType="1" res="-1.8022152362391353e-03" rms="1.7613972723484039e-01" purity="5.0855225324630737e-01" nType="0">
            <Node pos="l" depth="3" NCoef="0" IVar="-1" Cut="0.0000000000000000e+00" cType="1" res="-2.5158796459436417e-02" rms="1.7117670178413391e-01" purity="8.2515351474285126e-02" nType="-99"/>
            <Node pos="r" depth="3" NCoef="0" IVar="-1" Cut="0.0000000000000000e+00" cType="1" res="-2.7186048100702465e-04" rms="1.7721991240978241e-01" purity="6.0676211118698120e-01" nType="-99"/>
          </Node>
          <Node pos="r" depth="2" NCoef="0" IVar="6" Cut="1.9181513977050781e+02" cType="1" res="3.2760635949671268e-03" rms="1.8747514486312866e-01" purity="5.0711971521377563e-01" nType="0">
            <Node pos="l" depth="3" NCoef="0" IVar="-1" Cut="0.0000000000000000e+00" cType="1" res="1.5052228234708309e-02" rms="2.0365869998931885e-01" purity="3.2073876261711121e-01" nType="-99"/>
            <Node pos="r" depth="3" NCoef="0" IVar="-1" Cut="0.0000000000000000e+00" cType="1" res="-1.8835430964827538e-02" rms="1.4325098693370819e-01" purity="9.3563407659530640e-01" nType="-99"/>
          </Node>
        </Node>
      </Node>
    </BinaryTree>
    <BinaryTree type="DecisionTree" boostWeight="1.0000000000000000e+00" itree="765">
      <Node pos="s" depth="0" NCoef="0" IVar="8" Cut="1.3333451747894287e-01" cType="1" res="-1.1605011532083154e-03" rms="1.8252697587013245e-01" purity="5.0007933378219604e-01" nType="0">
        <Node pos="l" depth="1" NCoef="0" IVar="10" Cut="1.4665490388870239e+00" cType="1" res="1.1718546738848090e-03" rms="1.8012355268001556e-01" purity="5.1359963417053223e-01" nType="0">
          <Node pos="l" depth="2" NCoef="0" IVar="10" Cut="-9.7139132022857666e-01" cType="1" res="9.8796372185461223e-06" rms="1.7668254673480988e-01" purity="5.1564210653305054e-01" nType="0">
            <Node pos="l" depth="3" NCoef="0" IVar="-1" Cut="0.0000000000000000e+00" cType="1" res="1.4192966744303703e-02" rms="1.9886785745620728e-01" purity="4.4364497065544128e-01" nType="-99"/>
            <Node pos="r" depth="3" NCoef="0" IVar="-1" Cut="0.0000000000000000e+00" cType="1" res="-6.4772297628223896e-03" rms="1.6805870831012726e-01" purity="5.4121571779251099e-01" nType="-99"/>
          </Node>
          <Node pos="r" depth="2" NCoef="0" IVar="8" Cut="-5.6463181972503662e-01" cType="1" res="1.0183344595134258e-02" rms="2.0463278889656067e-01" purity="4.9775925278663635e-01" nType="0">
            <Node pos="l" depth="3" NCoef="0" IVar="-1" Cut="0.0000000000000000e+00" cType="1" res="-1.1649008374661207e-03" rms="2.0841588079929352e-01" purity="4.0490305423736572e-01" nType="-99"/>
            <Node pos="r" depth="3" NCoef="0" IVar="-1" Cut="0.0000000000000000e+00" cType="1" res="4.6696458011865616e-02" rms="1.9963614642620087e-01" purity="6.0146850347518921e-01" nType="-99"/>
          </Node>
        </Node>
        <Node pos="r" depth="1" NCoef="0" IVar="7" Cut="-3.9599350094795227e-01" cType="1" res="-4.0765288285911083e-03" rms="1.8544681370258331e-01" purity="4.8317566514015198e-01" nType="0">
          <Node pos="l" depth="2" NCoef="0" IVar="10" Cut="-9.3228101730346680e-01" cType="1" res="2.5531211867928505e-03" rms="1.9583916664123535e-01" purity="4.0043240785598755e-01" nType="0">
            <Node pos="l" depth="3" NCoef="0" IVar="-1" Cut="0.0000000000000000e+00" cType="1" res="3.5631157457828522e-02" rms="2.2982384264469147e-01" purity="3.7913691997528076e-01" nType="-99"/>
            <Node pos="r" depth="3" NCoef="0" IVar="-1" Cut="0.0000000000000000e+00" cType="1" res="-4.6777809038758278e-03" rms="1.8358194828033447e-01" purity="4.0717393159866333e-01" nType="-99"/>
          </Node>
          <Node pos="r" depth="2" NCoef="0" IVar="10" Cut="-1.4665753841400146e+00" cType="1" res="-7.0598870515823364e-03" rms="1.8049576878547668e-01" purity="5.2041035890579224e-01" nType="0">
            <Node pos="l" depth="3" NCoef="0" IVar="-1" Cut="0.0000000000000000e+00" cType="1" res="-4.6248536556959152e-02" rms="2.0916673541069031e-01" purity="4.8942148685455322e-01" nType="-99"/>
            <Node pos="r" depth="3" NCoef="0" IVar="-1" Cut="0.0000000000000000e+00" cType="1" res="-1.5741875395178795e-02" rms="1.7662176489830017e-01" purity="5.2417254447937012e-01" nType="-99"/>
          </Node>
        </Node>
      </Node>
    </BinaryTree>
    <BinaryTree type="DecisionTree" boostWeight="1.0000000000000000e+00" itree="766">
      <Node pos="s" depth="0" NCoef="0" IVar="10" Cut="-9.3333536386489868e-01" cType="1" res="-5.6034448789432645e-04" rms="1.8383675813674927e-01" purity="4.9593061208724976e-01" nType="0">
        <Node pos="l" depth="1" NCoef="0" IVar="3" Cut="4.6904016113281250e+02" cType="1" res="-5.6286789476871490e-03" rms="1.9014333188533783e-01" purity="4.5620408654212952e-01" nType="0">
          <Node pos="l" depth="2" NCoef="0" IVar="-1" Cut="0.0000000000000000e+00" cType="1" res="-4.1032444685697556e-02" rms="1.7600490152835846e-01" purity="7.0986010134220123e-02" nType="-99"/>
          <Node pos="r" depth="2" NCoef="0" IVar="7" Cut="-5.3178113698959351e-01" cType="1" res="-2.8453879058361053e-03" rms="1.9324865937232971e-01" purity="5.4779803752899170e-01" nType="0">
            <Node pos="l" depth="3" NCoef="0" IVar="-1" Cut="0.0000000000000000e+00" cType="1" res="-3.3746249973773956e-02" rms="1.8089538812637329e-01" purity="3.9804771542549133e-01" nType="-99"/>
            <Node pos="r" depth="3" NCoef="0" IVar="-1" Cut="0.0000000000000000e+00" cType="1" res="1.1846265988424420e-03" rms="1.9726653397083282e-01" purity="6.0000258684158325e-01" nType="-99"/>
          </Node>
        </Node>
        <Node pos="r" depth="1" NCoef="0" IVar="9" Cut="9.3347162008285522e-01" cType="1" res="9.5051986863836646e-04" rms="1.8188714981079102e-01" purity="5.0777304172515869e-01" nType="0">
          <Node pos="l" depth="2" NCoef="0" IVar="9" Cut="-1.9105093479156494e+00" cType="1" res="-8.0658122897148132e-04" rms="1.7335811257362366e-01" purity="5.3234243392944336e-01" nType="0">
            <Node pos="l" depth="3" NCoef="0" IVar="-1" Cut="0.0000000000000000e+00" cType="1" res="2.5989454239606857e-02" rms="2.5135621428489685e-01" purity="2.5467810034751892e-01" nType="-99"/>
            <Node pos="r" depth="3" NCoef="0" IVar="-1" Cut="0.0000000000000000e+00" cType="1" res="-4.3481281027197838e-03" rms="1.6893731057643890e-01" purity="5.4496878385543823e-01" nType="-99"/>
          </Node>
          <Node pos="r" depth="2" NCoef="0" IVar="0" Cut="7.3324438476562500e+02" cType="1" res="7.5587220489978790e-03" rms="2.1076686680316925e-01" purity="4.1537132859230042e-01" nType="0">
            <Node pos="l" depth="3" NCoef="0" IVar="-1" Cut="0.0000000000000000e+00" cType="1" res="3.4106940031051636e-02" rms="2.1700970828533173e-01" purity="1.6732069849967957e-01" nType="-99"/>
            <Node pos="r" depth="3" NCoef="0" IVar="-1" Cut="0.0000000000000000e+00" cType="1" res="-8.5143549367785454e-03" rms="1.9933800399303436e-01" purity="8.3299267292022705e-01" nType="-99"/>
          </Node>
        </Node>
      </Node>
    </BinaryTree>
    <BinaryTree type="DecisionTree" boostWeight="1.0000000000000000e+00" itree="767">
      <Node pos="s" depth="0" NCoef="0" IVar="10" Cut="-9.3329048156738281e-01" cType="1" res="-4.0999334305524826e-04" rms="1.8340604007244110e-01" purity="5.0058871507644653e-01" nType="0">
        <Node pos="l" depth="1" NCoef="0" IVar="7" Cut="1.7187820374965668e-01" cType="1" res="4.3773707002401352e-03" rms="2.0291052758693695e-01" purity="4.6910184621810913e-01" nType="0">
          <Node pos="l" depth="2" NCoef="0" IVar="2" Cut="3.8919046521186829e-02" cType="1" res="1.0735813528299332e-02" rms="2.0625631511211395e-01" purity="4.8169651627540588e-01" nType="0">
            <Node pos="l" depth="3" NCoef="0" IVar="-1" Cut="0.0000000000000000e+00" cType="1" res="5.1388349384069443e-02" rms="2.1379163861274719e-01" purity="3.1171590089797974e-01" nType="-99"/>
            <Node pos="r" depth="3" NCoef="0" IVar="-1" Cut="0.0000000000000000e+00" cType="1" res="-3.5706723574548960e-03" rms="1.9708077609539032e-01" purity="6.6553342342376709e-01" nType="-99"/>
          </Node>
          <Node pos="r" depth="2" NCoef="0" IVar="6" Cut="1.1188487243652344e+02" cType="1" res="-5.7508642785251141e-03" rms="1.9704078137874603e-01" purity="4.4903990626335144e-01" nType="0">
            <Node pos="l" depth="3" NCoef="0" IVar="-1" Cut="0.0000000000000000e+00" cType="1" res="-3.6469839513301849e-02" rms="1.7668505012989044e-01" purity="1.8030022084712982e-01" nType="-99"/>
            <Node pos="r" depth="3" NCoef="0" IVar="-1" Cut="0.0000000000000000e+00" cType="1" res="3.7342987488955259e-03" rms="2.1310642361640930e-01" purity="6.8607938289642334e-01" nType="-99"/>
          </Node>
        </Node>
        <Node pos="r" depth="1" NCoef="0" IVar="7" Cut="-5.9815162420272827e-01" cType="1" res="-1.8275213660672307e-03" rms="1.7719456553459167e-01" purity="5.0991189479827881e-01" nType="0">
          <Node pos="l" depth="2" NCoef="0" IVar="5" Cut="2.3940893554687500e+02" cType="1" res="-6.8929828703403473e-03" rms="1.7496715486049652e-01" purity="3.8322934508323669e-01" nType="0">
            <Node pos="l" depth="3" NCoef="0" IVar="-1" Cut="0.0000000000000000e+00" cType="1" res="-3.9934266358613968e-02" rms="1.4579710364341736e-01" purity="9.4825409352779388e-02" nType="-99"/>
            <Node pos="r" depth="3" NCoef="0" IVar="-1" Cut="0.0000000000000000e+00" cType="1" res="-8.0115708988159895e-04" rms="2.0849768817424774e-01" purity="7.8182196617126465e-01" nType="-99"/>
          </Node>
          <Node pos="r" depth="2" NCoef="0" IVar="7" Cut="6.9542586803436279e-01" cType="1" res="-3.6231958074495196e-04" rms="1.7780673503875732e-01" purity="5.4655522108078003e-01" nType="0">
            <Node pos="l" depth="3" NCoef="0" IVar="-1" Cut="0.0000000000000000e+00" cType="1" res="4.5687700621783733e-03" rms="1.7198079824447632e-01" purity="6.1579394340515137e-01" nType="-99"/>
            <Node pos="r" depth="3" NCoef="0" IVar="-1" Cut="0.0000000000000000e+00" cType="1" res="-1.4021219685673714e-02" rms="1.9339227676391602e-01" purity="3.4876024723052979e-01" nType="-99"/>
          </Node>
        </Node>
      </Node>
    </BinaryTree>
    <BinaryTree type="DecisionTree" boostWeight="1.0000000000000000e+00" itree="768">
      <Node pos="s" depth="0" NCoef="0" IVar="6" Cut="8.7462944030761719e+01" cType="1" res="8.7725149933248758e-04" rms="1.8268173933029175e-01" purity="4.9917143583297729e-01" nType="0">
        <Node pos="l" depth="1" NCoef="0" IVar="4" Cut="5.2629669189453125e+02" cType="1" res="-3.2376402523368597e-03" rms="1.6297353804111481e-01" purity="1.4847351610660553e-01" nType="0">
          <Node pos="l" depth="2" NCoef="0" IVar="3" Cut="7.3899920654296875e+02" cType="1" res="-5.3131808526813984e-03" rms="1.4501217007637024e-01" purity="6.2773950397968292e-02" nType="0">
            <Node pos="l" depth="3" NCoef="0" IVar="-1" Cut="0.0000000000000000e+00" cType="1" res="-1.5163525007665157e-02" rms="1.2347719818353653e-01" purity="3.3046789467334747e-02" nType="-99"/>
            <Node pos="r" depth="3" NCoef="0" IVar="-1" Cut="0.0000000000000000e+00" cType="1" res="-2.9663907364010811e-02" rms="2.2498337924480438e-01" purity="2.1588316559791565e-01" nType="-99"/>
          </Node>
          <Node pos="r" depth="2" NCoef="0" IVar="-1" Cut="0.0000000000000000e+00" cType="1" res="1.6660990193486214e-02" rms="2.5226473808288574e-01" purity="7.2635805606842041e-01" nType="-99"/>
        </Node>
        <Node pos="r" depth="1" NCoef="0" IVar="1" Cut="2.2244543457031250e+03" cType="1" res="2.5181279052048922e-03" rms="1.8994645774364471e-01" purity="6.3901764154434204e-01" nType="0">
          <Node pos="l" depth="2" NCoef="0" IVar="1" Cut="1.7533265380859375e+03" cType="1" res="7.1057947352528572e-03" rms="2.2800695896148682e-01" purity="1.0456098616123199e-01" nType="0">
            <Node pos="l" depth="3" NCoef="0" IVar="-1" Cut="0.0000000000000000e+00" cType="1" res="5.1671466790139675e-03" rms="1.3256888091564178e-01" purity="2.2788703441619873e-02" nType="-99"/>
            <Node pos="r" depth="3" NCoef="0" IVar="-1" Cut="0.0000000000000000e+00" cType="1" res="1.6175473108887672e-02" rms="3.5372939705848694e-01" purity="2.7894967794418335e-01" nType="-99"/>
          </Node>
          <Node pos="r" depth="2" NCoef="0" IVar="1" Cut="2.4600559082031250e+03" cType="1" res="-2.2536249889526516e-04" rms="1.6293133795261383e-01" purity="9.5863038301467896e-01" nType="0">
            <Node pos="l" depth="3" NCoef="0" IVar="-1" Cut="0.0000000000000000e+00" cType="1" res="-7.8269112855195999e-03" rms="3.6726859211921692e-01" purity="7.2199547290802002e-01" nType="-99"/>
            <Node pos="r" depth="3" NCoef="0" IVar="-1" Cut="0.0000000000000000e+00" cType="1" res="3.5056741908192635e-03" rms="1.3415585458278656e-01" purity="9.7728085517883301e-01" nType="-99"/>
          </Node>
        </Node>
      </Node>
    </BinaryTree>
    <BinaryTree type="DecisionTree" boostWeight="1.0000000000000000e+00" itree="769">
      <Node pos="s" depth="0" NCoef="0" IVar="9" Cut="-1.7328200340270996e+00" cType="1" res="-2.5597919011488557e-04" rms="1.8132767081260681e-01" purity="4.9859109520912170e-01" nType="0">
        <Node pos="l" depth="1" NCoef="0" IVar="8" Cut="-1.3327609002590179e-01" cType="1" res="-1.1561486870050430e-02" rms="2.0096544921398163e-01" purity="2.7933347225189209e-01" nType="0">
          <Node pos="l" depth="2" NCoef="0" IVar="-1" Cut="0.0000000000000000e+00" cType="1" res="-7.5213741511106491e-03" rms="1.9188253581523895e-01" purity="2.8757354617118835e-01" nType="-99"/>
          <Node pos="r" depth="2" NCoef="0" IVar="-1" Cut="0.0000000000000000e+00" cType="1" res="-4.3718047440052032e-02" rms="2.0895841717720032e-01" purity="2.7146059274673462e-01" nType="-99"/>
        </Node>
        <Node pos="r" depth="1" NCoef="0" IVar="3" Cut="5.0109103393554688e+02" cType="1" res="4.4483874808065593e-04" rms="1.8001648783683777e-01" purity="5.1218259334564209e-01" nType="0">
          <Node pos="l" depth="2" NCoef="0" IVar="1" Cut="1.7515545654296875e+03" cType="1" res="5.2390354685485363e-03" rms="1.9427244365215302e-01" purity="1.1680598556995392e-01" nType="0">
            <Node pos="l" depth="3" NCoef="0" IVar="-1" Cut="0.0000000000000000e+00" cType="1" res="-6.1264808755367994e-04" rms="1.2842404842376709e-01" purity="1.9976975396275520e-02" nType="-99"/>
            <Node pos="r" depth="3" NCoef="0" IVar="-1" Cut="0.0000000000000000e+00" cType="1" res="2.1340761333703995e-02" rms="3.4725236892700195e-01" purity="4.9682530760765076e-01" nType="-99"/>
          </Node>
          <Node pos="r" depth="2" NCoef="0" IVar="0" Cut="5.9425018310546875e+02" cType="1" res="-9.9021836649626493e-04" rms="1.7549873888492584e-01" purity="6.3053160905838013e-01" nType="0">
            <Node pos="l" depth="3" NCoef="0" IVar="-1" Cut="0.0000000000000000e+00" cType="1" res="-1.3086953200399876e-02" rms="1.8842905759811401e-01" purity="1.2759509682655334e-01" nType="-99"/>
            <Node pos="r" depth="3" NCoef="0" IVar="-1" Cut="0.0000000000000000e+00" cType="1" res="2.8431743849068880e-03" rms="1.6974560916423798e-01" purity="8.4159326553344727e-01" nType="-99"/>
          </Node>
        </Node>
      </Node>
    </BinaryTree>
    <BinaryTree type="DecisionTree" boostWeight="1.0000000000000000e+00" itree="770">
      <Node pos="s" depth="0" NCoef="0" IVar="10" Cut="1.9999970197677612e+00" cType="1" res="1.1582252045627683e-04" rms="1.8543966114521027e-01" purity="4.9436724185943604e-01" nType="0">
        <Node pos="l" depth="1" NCoef="0" IVar="10" Cut="-1.6569977998733521e+00" cType="1" res="-8.0694956704974174e-04" rms="1.8186713755130768e-01" purity="5.0015413761138916e-01" nType="0">
          <Node pos="l" depth="2" NCoef="0" IVar="8" Cut="4.0042158961296082e-01" cType="1" res="1.0373048484325409e-02" rms="2.2576591372489929e-01" purity="4.1773959994316101e-01" nType="0">
            <Node pos="l" depth="3" NCoef="0" IVar="-1" Cut="0.0000000000000000e+00" cType="1" res="2.0061091054230928e-03" rms="2.0339849591255188e-01" purity="4.1894677281379700e-01" nType="-99"/>
            <Node pos="r" depth="3" NCoef="0" IVar="-1" Cut="0.0000000000000000e+00" cType="1" res="5.3847778588533401e-02" rms="2.6416841149330139e-01" purity="4.1530418395996094e-01" nType="-99"/>
          </Node>
          <Node pos="r" depth="2" NCoef="0" IVar="10" Cut="-1.4828047752380371e+00" cType="1" res="-2.0002780947834253e-03" rms="1.7649605870246887e-01" purity="5.0895088911056519e-01" nType="0">
            <Node pos="l" depth="3" NCoef="0" IVar="-1" Cut="0.0000000000000000e+00" cType="1" res="-3.1467098742723465e-02" rms="1.7663358151912689e-01" purity="5.0390166044235229e-01" nType="-99"/>
            <Node pos="r" depth="3" NCoef="0" IVar="-1" Cut="0.0000000000000000e+00" cType="1" res="-5.3393607959151268e-03" rms="1.7648383975028992e-01" purity="5.0911635160446167e-01" nType="-99"/>
          </Node>
        </Node>
        <Node pos="r" depth="1" NCoef="0" IVar="-1" Cut="0.0000000000000000e+00" cType="1" res="3.2538134604692459e-02" rms="2.4504256248474121e-01" purity="3.7966474890708923e-01" nType="-99"/>
      </Node>
    </BinaryTree>
    <BinaryTree type="DecisionTree" boostWeight="1.0000000000000000e+00" itree="771">
      <Node pos="s" depth="0" NCoef="0" IVar="9" Cut="-1.7332606315612793e+00" cType="1" res="-2.4106465571094304e-04" rms="1.8169173598289490e-01" purity="5.0047385692596436e-01" nType="0">
        <Node pos="l" depth="1" NCoef="0" IVar="1" Cut="1.6585163574218750e+03" cType="1" res="-1.6362277790904045e-02" rms="2.0118732750415802e-01" purity="2.5954470038414001e-01" nType="0">
          <Node pos="l" depth="2" NCoef="0" IVar="-1" Cut="0.0000000000000000e+00" cType="1" res="1.3328546192497015e-03" rms="1.0839858651161194e-01" purity="1.3616101816296577e-02" nType="-99"/>
          <Node pos="r" depth="2" NCoef="0" IVar="-1" Cut="0.0000000000000000e+00" cType="1" res="-4.9005348235368729e-02" rms="2.6081070303916931e-01" purity="4.9988833069801331e-01" nType="-99"/>
        </Node>
        <Node pos="r" depth="1" NCoef="0" IVar="7" Cut="1.4694231748580933e+00" cType="1" res="7.1525538805872202e-04" rms="1.8042382597923279e-01" purity="5.1476591825485229e-01" nType="0">
          <Node pos="l" depth="2" NCoef="0" IVar="7" Cut="2.5452879071235657e-01" cType="1" res="1.2291962048038840e-03" rms="1.8091836571693420e-01" purity="5.3218561410903931e-01" nType="0">
            <Node pos="l" depth="3" NCoef="0" IVar="-1" Cut="0.0000000000000000e+00" cType="1" res="-2.4847453460097313e-03" rms="1.7451336979866028e-01" purity="5.3715789318084717e-01" nType="-99"/>
            <Node pos="r" depth="3" NCoef="0" IVar="-1" Cut="0.0000000000000000e+00" cType="1" res="1.3198796659708023e-02" rms="1.9230222702026367e-01" purity="5.2285730838775635e-01" nType="-99"/>
          </Node>
          <Node pos="r" depth="2" NCoef="0" IVar="-1" Cut="0.0000000000000000e+00" cType="1" res="-3.3353202044963837e-02" rms="1.6807375848293304e-01" purity="1.0972528159618378e-01" nType="-99"/>
        </Node>
      </Node>
    </BinaryTree>
    <BinaryTree type="DecisionTree" boostWeight="1.0000000000000000e+00" itree="772">
      <Node pos="s" depth="0" NCoef="0" IVar="8" Cut="-1.4666295051574707e+00" cType="1" res="9.7083626314997673e-04" rms="1.8369913101196289e-01" purity="4.9824419617652893e-01" nType="0">
        <Node pos="l" depth="1" NCoef="0" IVar="7" Cut="-2.6068329811096191e-01" cType="1" res="1.1315368115901947e-02" rms="2.1760390698909760e-01" purity="2.3043267428874969e-01" nType="0">
          <Node pos="l" depth="2" NCoef="0" IVar="-1" Cut="0.0000000000000000e+00" cType="1" res="2.9650221113115549e-03" rms="1.9815996289253235e-01" purity="2.0195147395133972e-01" nType="-99"/>
          <Node pos="r" depth="2" NCoef="0" IVar="-1" Cut="0.0000000000000000e+00" cType="1" res="3.4621290862560272e-02" rms="2.2776103019714355e-01" purity="2.4669432640075684e-01" nType="-99"/>
        </Node>
        <Node pos="r" depth="1" NCoef="0" IVar="0" Cut="5.8410919189453125e+02" cType="1" res="1.7518525419291109e-04" rms="1.8080374598503113e-01" purity="5.1884293556213379e-01" nType="0">
          <Node pos="l" depth="2" NCoef="0" IVar="1" Cut="1.7677185058593750e+03" cType="1" res="4.1334060952067375e-03" rms="1.8795703351497650e-01" purity="1.0641168802976608e-01" nType="0">
            <Node pos="l" depth="3" NCoef="0" IVar="-1" Cut="0.0000000000000000e+00" cType="1" res="-3.3759807702153921e-03" rms="1.0736947506666183e-01" purity="1.4859850518405437e-02" nType="-99"/>
            <Node pos="r" depth="3" NCoef="0" IVar="-1" Cut="0.0000000000000000e+00" cType="1" res="1.6267316415905952e-02" rms="3.2192006707191467e-01" purity="3.7006798386573792e-01" nType="-99"/>
          </Node>
          <Node pos="r" depth="2" NCoef="0" IVar="1" Cut="2.5051586914062500e+03" cType="1" res="-2.1972146350890398e-03" rms="1.7633475363254547e-01" purity="7.6603788137435913e-01" nType="0">
            <Node pos="l" depth="3" NCoef="0" IVar="-1" Cut="0.0000000000000000e+00" cType="1" res="-1.2624720111489296e-02" rms="2.5506851077079773e-01" purity="2.0726522803306580e-01" nType="-99"/>
            <Node pos="r" depth="3" NCoef="0" IVar="-1" Cut="0.0000000000000000e+00" cType="1" res="9.9719432182610035e-04" rms="1.3600040972232819e-01" purity="9.7293752431869507e-01" nType="-99"/>
          </Node>
        </Node>
      </Node>
    </BinaryTree>
    <BinaryTree type="DecisionTree" boostWeight="1.0000000000000000e+00" itree="773">
      <Node pos="s" depth="0" NCoef="0" IVar="10" Cut="-1.7333043813705444e+00" cType="1" res="-5.9454509755596519e-04" rms="1.8113726377487183e-01" purity="4.9671006202697754e-01" nType="0">
        <Node pos="l" depth="1" NCoef="0" IVar="7" Cut="2.1825933456420898e-01" cType="1" res="7.9733654856681824e-03" rms="2.2038328647613525e-01" purity="4.2859321832656860e-01" nType="0">
          <Node pos="l" depth="2" NCoef="0" IVar="0" Cut="6.4725097656250000e+02" cType="1" res="1.7563711153343320e-03" rms="2.0800414681434631e-01" purity="4.4457828998565674e-01" nType="0">
            <Node pos="l" depth="3" NCoef="0" IVar="-1" Cut="0.0000000000000000e+00" cType="1" res="-8.3896266296505928e-03" rms="2.0643003284931183e-01" purity="1.5441197156906128e-01" nType="-99"/>
            <Node pos="r" depth="3" NCoef="0" IVar="-1" Cut="0.0000000000000000e+00" cType="1" res="1.5864038839936256e-02" rms="2.0943386852741241e-01" purity="7.3827517032623291e-01" nType="-99"/>
          </Node>
          <Node pos="r" depth="2" NCoef="0" IVar="-1" Cut="0.0000000000000000e+00" cType="1" res="3.3042721450328827e-02" rms="2.3873291909694672e-01" purity="4.0270462632179260e-01" nType="-99"/>
        </Node>
        <Node pos="r" depth="1" NCoef="0" IVar="5" Cut="1.0683052825927734e+02" cType="1" res="-1.3541710795834661e-03" rms="1.7721883952617645e-01" purity="5.0274920463562012e-01" nType="0">
          <Node pos="l" depth="2" NCoef="0" IVar="6" Cut="6.6165664672851562e+01" cType="1" res="4.6356664970517159e-03" rms="1.3125696778297424e-01" purity="4.0585070848464966e-02" nType="0">
            <Node pos="l" depth="3" NCoef="0" IVar="-1" Cut="0.0000000000000000e+00" cType="1" res="-2.7785681188106537e-02" rms="9.3085303902626038e-02" purity="2.5906840339303017e-02" nType="-99"/>
            <Node pos="r" depth="3" NCoef="0" IVar="-1" Cut="0.0000000000000000e+00" cType="1" res="7.2157762944698334e-02" rms="1.6330461204051971e-01" purity="5.7041112333536148e-02" nType="-99"/>
          </Node>
          <Node pos="r" depth="2" NCoef="0" IVar="4" Cut="4.5666265869140625e+02" cType="1" res="-2.2058405447751284e-03" rms="1.8280212581157684e-01" purity="5.6846237182617188e-01" nType="0">
            <Node pos="l" depth="3" NCoef="0" IVar="-1" Cut="0.0000000000000000e+00" cType="1" res="-1.1837942525744438e-02" rms="2.0714762806892395e-01" purity="2.4970069527626038e-01" nType="-99"/>
            <Node pos="r" depth="3" NCoef="0" IVar="-1" Cut="0.0000000000000000e+00" cType="1" res="5.4780375212430954e-03" rms="1.5046784281730652e-01" purity="9.2949146032333374e-01" nType="-99"/>
          </Node>
        </Node>
      </Node>
    </BinaryTree>
    <BinaryTree type="DecisionTree" boostWeight="1.0000000000000000e+00" itree="774">
      <Node pos="s" depth="0" NCoef="0" IVar="8" Cut="-1.1999695301055908e+00" cType="1" res="2.9004982025071513e-06" rms="1.8257512152194977e-01" purity="4.9856960773468018e-01" nType="0">
        <Node pos="l" depth="1" NCoef="0" IVar="1" Cut="1.6279660644531250e+03" cType="1" res="-7.9058986157178879e-03" rms="2.0072977244853973e-01" purity="2.9672890901565552e-01" nType="0">
          <Node pos="l" depth="2" NCoef="0" IVar="-1" Cut="0.0000000000000000e+00" cType="1" res="2.4052474647760391e-02" rms="1.0010524094104767e-01" purity="1.4140488579869270e-02" nType="-99"/>
          <Node pos="r" depth="2" NCoef="0" IVar="3" Cut="6.4992199707031250e+02" cType="1" res="-1.4787659049034119e-02" rms="2.4546507000923157e-01" purity="4.8417365550994873e-01" nType="0">
            <Node pos="l" depth="3" NCoef="0" IVar="-1" Cut="0.0000000000000000e+00" cType="1" res="-3.0290158465504646e-02" rms="2.6944464445114136e-01" purity="3.3473965525627136e-01" nType="-99"/>
            <Node pos="r" depth="3" NCoef="0" IVar="-1" Cut="0.0000000000000000e+00" cType="1" res="-1.3339906930923462e-02" rms="2.2318086028099060e-01" purity="6.0886543989181519e-01" nType="-99"/>
          </Node>
        </Node>
        <Node pos="r" depth="1" NCoef="0" IVar="2" Cut="2.0896477624773979e-02" cType="1" res="1.0185098508372903e-03" rms="1.8008609116077423e-01" purity="5.2448904514312744e-01" nType="0">
          <Node pos="l" depth="2" NCoef="0" IVar="8" Cut="-2.4776907265186310e-01" cType="1" res="-3.0783563852310181e-03" rms="1.7760652303695679e-01" purity="2.6578146219253540e-01" nType="0">
            <Node pos="l" depth="3" NCoef="0" IVar="-1" Cut="0.0000000000000000e+00" cType="1" res="1.1041897349059582e-02" rms="1.7902387678623199e-01" purity="3.0269637703895569e-01" nType="-99"/>
            <Node pos="r" depth="3" NCoef="0" IVar="-1" Cut="0.0000000000000000e+00" cType="1" res="-1.7187666147947311e-02" rms="1.7690940201282501e-01" purity="2.4993884563446045e-01" nType="-99"/>
          </Node>
          <Node pos="r" depth="2" NCoef="0" IVar="1" Cut="2.5217346191406250e+03" cType="1" res="3.0963928438723087e-03" rms="1.8129536509513855e-01" purity="6.5570253133773804e-01" nType="0">
            <Node pos="l" depth="3" NCoef="0" IVar="-1" Cut="0.0000000000000000e+00" cType="1" res="1.3534177094697952e-02" rms="2.4558262526988983e-01" purity="1.9875401258468628e-01" nType="-99"/>
            <Node pos="r" depth="3" NCoef="0" IVar="-1" Cut="0.0000000000000000e+00" cType="1" res="-5.0764228217303753e-03" rms="1.1430750042200089e-01" purity="9.8486649990081787e-01" nType="-99"/>
          </Node>
        </Node>
      </Node>
    </BinaryTree>
    <BinaryTree type="DecisionTree" boostWeight="1.0000000000000000e+00" itree="775">
      <Node pos="s" depth="0" NCoef="0" IVar="7" Cut="9.6789479255676270e-01" cType="1" res="-9.2196505283936858e-04" rms="1.8043798208236694e-01" purity="5.0254231691360474e-01" nType="0">
        <Node pos="l" depth="1" NCoef="0" IVar="0" Cut="5.9425018310546875e+02" cType="1" res="1.7159680282929912e-05" rms="1.7868597805500031e-01" purity="5.3496903181076050e-01" nType="0">
          <Node pos="l" depth="2" NCoef="0" IVar="6" Cut="1.8505633544921875e+02" cType="1" res="-3.1004119664430618e-03" rms="1.8191625177860260e-01" purity="1.0492593050003052e-01" nType="0">
            <Node pos="l" depth="3" NCoef="0" IVar="-1" Cut="0.0000000000000000e+00" cType="1" res="-1.7080666497349739e-02" rms="1.6135028004646301e-01" purity="5.1989924162626266e-02" nType="-99"/>
            <Node pos="r" depth="3" NCoef="0" IVar="-1" Cut="0.0000000000000000e+00" cType="1" res="1.3658035546541214e-02" rms="3.0290690064430237e-01" purity="5.4715240001678467e-01" nType="-99"/>
          </Node>
          <Node pos="r" depth="2" NCoef="0" IVar="10" Cut="-1.4666882753372192e+00" cType="1" res="1.8659955821931362e-03" rms="1.7671644687652588e-01" purity="7.9000061750411987e-01" nType="0">
            <Node pos="l" depth="3" NCoef="0" IVar="-1" Cut="0.0000000000000000e+00" cType="1" res="2.9495989903807640e-02" rms="2.0590816438198090e-01" purity="7.4499243497848511e-01" nType="-99"/>
            <Node pos="r" depth="3" NCoef="0" IVar="-1" Cut="0.0000000000000000e+00" cType="1" res="1.4047455042600632e-03" rms="1.7246903479099274e-01" purity="7.9590600728988647e-01" nType="-99"/>
          </Node>
        </Node>
        <Node pos="r" depth="1" NCoef="0" IVar="1" Cut="1.6030006103515625e+03" cType="1" res="-7.8255366533994675e-03" rms="1.9268855452537537e-01" purity="2.6417160034179688e-01" nType="0">
          <Node pos="l" depth="2" NCoef="0" IVar="-1" Cut="0.0000000000000000e+00" cType="1" res="2.3674646392464638e-02" rms="9.6606791019439697e-02" purity="9.8628858104348183e-03" nType="-99"/>
          <Node pos="r" depth="2" NCoef="0" IVar="9" Cut="4.0025591850280762e-01" cType="1" res="-1.4135655947029591e-02" rms="2.3498806357383728e-01" purity="4.3060457706451416e-01" nType="0">
            <Node pos="l" depth="3" NCoef="0" IVar="-1" Cut="0.0000000000000000e+00" cType="1" res="-9.5595009624958038e-03" rms="2.3792169988155365e-01" purity="4.5845243334770203e-01" nType="-99"/>
            <Node pos="r" depth="3" NCoef="0" IVar="-1" Cut="0.0000000000000000e+00" cType="1" res="-4.3681610375642776e-02" rms="2.2992625832557678e-01" purity="3.8908815383911133e-01" nType="-99"/>
          </Node>
        </Node>
      </Node>
    </BinaryTree>
    <BinaryTree type="DecisionTree" boostWeight="1.0000000000000000e+00" itree="776">
      <Node pos="s" depth="0" NCoef="0" IVar="10" Cut="-1.1999785900115967e+00" cType="1" res="7.1960402419790626e-04" rms="1.8318687379360199e-01" purity="5.0437331199645996e-01" nType="0">
        <Node pos="l" depth="1" NCoef="0" IVar="6" Cut="1.1582007598876953e+02" cType="1" res="-4.9636862240731716e-03" rms="1.9880737364292145e-01" purity="4.4923627376556396e-01" nType="0">
          <Node pos="l" depth="2" NCoef="0" IVar="9" Cut="-3.9986127614974976e-01" cType="1" res="1.2598019093275070e-03" rms="1.9909700751304626e-01" purity="2.2873355448246002e-01" nType="0">
            <Node pos="l" depth="3" NCoef="0" IVar="-1" Cut="0.0000000000000000e+00" cType="1" res="-1.7798200249671936e-02" rms="1.8430687487125397e-01" purity="1.9795459508895874e-01" nType="-99"/>
            <Node pos="r" depth="3" NCoef="0" IVar="-1" Cut="0.0000000000000000e+00" cType="1" res="1.7623852938413620e-02" rms="2.0987075567245483e-01" purity="2.5316134095191956e-01" nType="-99"/>
          </Node>
          <Node pos="r" depth="2" NCoef="0" IVar="-1" Cut="0.0000000000000000e+00" cType="1" res="-2.8849387541413307e-02" rms="1.9831387698650360e-01" purity="6.7284989356994629e-01" nType="-99"/>
        </Node>
        <Node pos="r" depth="1" NCoef="0" IVar="10" Cut="2.2285459041595459e+00" cType="1" res="1.8721411470323801e-03" rms="1.7983183264732361e-01" purity="5.1555478572845459e-01" nType="0">
          <Node pos="l" depth="2" NCoef="0" IVar="7" Cut="-1.3817454576492310e+00" cType="1" res="2.4008257314562798e-03" rms="1.7789274454116821e-01" purity="5.2071559429168701e-01" nType="0">
            <Node pos="l" depth="3" NCoef="0" IVar="-1" Cut="0.0000000000000000e+00" cType="1" res="5.4180264472961426e-02" rms="2.0068931579589844e-01" purity="1.4016197621822357e-01" nType="-99"/>
            <Node pos="r" depth="3" NCoef="0" IVar="-1" Cut="0.0000000000000000e+00" cType="1" res="5.1703248172998428e-03" rms="1.7658922076225281e-01" purity="5.4068350791931152e-01" nType="-99"/>
          </Node>
          <Node pos="r" depth="2" NCoef="0" IVar="-1" Cut="0.0000000000000000e+00" cType="1" res="-2.2591257467865944e-02" rms="2.2794279456138611e-01" purity="3.6782979965209961e-01" nType="-99"/>
        </Node>
      </Node>
    </BinaryTree>
    <BinaryTree type="DecisionTree" boostWeight="1.0000000000000000e+00" itree="777">
      <Node pos="s" depth="0" NCoef="0" IVar="8" Cut="1.2000445127487183e+00" cType="1" res="7.0620258338749409e-04" rms="1.8428260087966919e-01" purity="5.0312900543212891e-01" nType="0">
        <Node pos="l" depth="1" NCoef="0" IVar="9" Cut="1.7330261468887329e+00" cType="1" res="-5.3085730178281665e-04" rms="1.7844223976135254e-01" purity="5.2679562568664551e-01" nType="0">
          <Node pos="l" depth="2" NCoef="0" IVar="7" Cut="9.7021842002868652e-01" cType="1" res="-1.4013517647981644e-03" rms="1.7439794540405273e-01" purity="5.3918081521987915e-01" nType="0">
            <Node pos="l" depth="3" NCoef="0" IVar="-1" Cut="0.0000000000000000e+00" cType="1" res="-7.8613255172967911e-03" rms="1.7127743363380432e-01" purity="5.7515597343444824e-01" nType="-99"/>
            <Node pos="r" depth="3" NCoef="0" IVar="-1" Cut="0.0000000000000000e+00" cType="1" res="1.7575982958078384e-02" rms="1.9524821639060974e-01" purity="2.7986752986907959e-01" nType="-99"/>
          </Node>
          <Node pos="r" depth="2" NCoef="0" IVar="-1" Cut="0.0000000000000000e+00" cType="1" res="2.6629179716110229e-02" rms="2.3725134134292603e-01" purity="3.1253573298454285e-01" nType="-99"/>
        </Node>
        <Node pos="r" depth="1" NCoef="0" IVar="7" Cut="-2.6696613058447838e-02" cType="1" res="1.0097669437527657e-02" rms="2.2347934544086456e-01" purity="3.2345750927925110e-01" nType="0">
          <Node pos="l" depth="2" NCoef="0" IVar="3" Cut="6.1028686523437500e+02" cType="1" res="5.2842870354652405e-04" rms="2.0775255560874939e-01" purity="2.8041326999664307e-01" nType="0">
            <Node pos="l" depth="3" NCoef="0" IVar="-1" Cut="0.0000000000000000e+00" cType="1" res="1.6589079052209854e-02" rms="2.0358803868293762e-01" purity="1.2869510054588318e-01" nType="-99"/>
            <Node pos="r" depth="3" NCoef="0" IVar="-1" Cut="0.0000000000000000e+00" cType="1" res="-1.3470932841300964e-02" rms="2.1250717341899872e-01" purity="4.6518227458000183e-01" nType="-99"/>
          </Node>
          <Node pos="r" depth="2" NCoef="0" IVar="7" Cut="6.4185285568237305e-01" cType="1" res="1.9414717331528664e-02" rms="2.3742412030696869e-01" purity="3.6536735296249390e-01" nType="0">
            <Node pos="l" depth="3" NCoef="0" IVar="-1" Cut="0.0000000000000000e+00" cType="1" res="2.0851213485002518e-02" rms="2.1742564439773560e-01" purity="4.3780398368835449e-01" nType="-99"/>
            <Node pos="r" depth="3" NCoef="0" IVar="-1" Cut="0.0000000000000000e+00" cType="1" res="4.9170270562171936e-02" rms="2.5693207979202271e-01" purity="2.8725129365921021e-01" nType="-99"/>
          </Node>
        </Node>
      </Node>
    </BinaryTree>
    <BinaryTree type="DecisionTree" boostWeight="1.0000000000000000e+00" itree="778">
      <Node pos="s" depth="0" NCoef="0" IVar="7" Cut="-6.5625780820846558e-01" cType="1" res="7.8364275395870209e-04" rms="1.8273539841175079e-01" purity="5.0315189361572266e-01" nType="0">
        <Node pos="l" depth="1" NCoef="0" IVar="4" Cut="3.5735568237304688e+02" cType="1" res="7.0389290340244770e-03" rms="1.9512555003166199e-01" purity="3.5562133789062500e-01" nType="0">
          <Node pos="l" depth="2" NCoef="0" IVar="9" Cut="3.9952039718627930e-01" cType="1" res="-9.7651890246197581e-04" rms="1.6149222850799561e-01" purity="8.0160021781921387e-02" nType="0">
            <Node pos="l" depth="3" NCoef="0" IVar="-1" Cut="0.0000000000000000e+00" cType="1" res="-2.7642166242003441e-02" rms="1.4647394418716431e-01" purity="6.9619581103324890e-02" nType="-99"/>
            <Node pos="r" depth="3" NCoef="0" IVar="-1" Cut="0.0000000000000000e+00" cType="1" res="3.2640472054481506e-02" rms="1.8444292247295380e-01" purity="9.8719939589500427e-02" nType="-99"/>
          </Node>
          <Node pos="r" depth="2" NCoef="0" IVar="0" Cut="6.5493713378906250e+02" cType="1" res="1.6188304871320724e-02" rms="2.2717387974262238e-01" purity="6.7005151510238647e-01" nType="0">
            <Node pos="l" depth="3" NCoef="0" IVar="-1" Cut="0.0000000000000000e+00" cType="1" res="5.5265624076128006e-02" rms="2.7962052822113037e-01" purity="3.0521947145462036e-01" nType="-99"/>
            <Node pos="r" depth="3" NCoef="0" IVar="-1" Cut="0.0000000000000000e+00" cType="1" res="1.7283309716731310e-03" rms="1.8015643954277039e-01" purity="9.2476212978363037e-01" nType="-99"/>
          </Node>
        </Node>
        <Node pos="r" depth="1" NCoef="0" IVar="1" Cut="2.2267873535156250e+03" cType="1" res="-9.0656097745522857e-04" rms="1.7920313775539398e-01" purity="5.4301518201828003e-01" nType="0">
          <Node pos="l" depth="2" NCoef="0" IVar="2" Cut="7.7116183936595917e-02" cType="1" res="-3.9816321805119514e-03" rms="1.8337868154048920e-01" purity="6.3050441443920135e-02" nType="0">
            <Node pos="l" depth="3" NCoef="0" IVar="-1" Cut="0.0000000000000000e+00" cType="1" res="-6.6889342851936817e-03" rms="1.7227648198604584e-01" purity="5.2059769630432129e-02" nType="-99"/>
            <Node pos="r" depth="3" NCoef="0" IVar="-1" Cut="0.0000000000000000e+00" cType="1" res="-2.0947314798831940e-02" rms="2.3988896608352661e-01" purity="1.2999758124351501e-01" nType="-99"/>
          </Node>
          <Node pos="r" depth="2" NCoef="0" IVar="1" Cut="2.4630222167968750e+03" cType="1" res="1.6684652073308825e-03" rms="1.7558881640434265e-01" purity="9.4493162631988525e-01" nType="0">
            <Node pos="l" depth="3" NCoef="0" IVar="-1" Cut="0.0000000000000000e+00" cType="1" res="1.5204827301204205e-02" rms="3.6616423726081848e-01" purity="6.7499226331710815e-01" nType="-99"/>
            <Node pos="r" depth="3" NCoef="0" IVar="-1" Cut="0.0000000000000000e+00" cType="1" res="-6.9168256595730782e-04" rms="1.4688852429389954e-01" purity="9.6902477741241455e-01" nType="-99"/>
          </Node>
        </Node>
      </Node>
    </BinaryTree>
    <BinaryTree type="DecisionTree" boostWeight="1.0000000000000000e+00" itree="779">
      <Node pos="s" depth="0" NCoef="0" IVar="10" Cut="-1.9999953508377075e+00" cType="1" res="6.0667316574836150e-05" rms="1.8251778185367584e-01" purity="4.9804776906967163e-01" nType="0">
        <Node pos="l" depth="1" NCoef="0" IVar="-1" Cut="0.0000000000000000e+00" cType="1" res="-2.6064129546284676e-02" rms="2.1141459047794342e-01" purity="3.4262895584106445e-01" nType="-99"/>
        <Node pos="r" depth="1" NCoef="0" IVar="9" Cut="3.9956527948379517e-01" cType="1" res="7.2681478923186660e-04" rms="1.8092070519924164e-01" purity="5.0584578514099121e-01" nType="0">
          <Node pos="l" depth="2" NCoef="0" IVar="10" Cut="2.1136560440063477e+00" cType="1" res="2.6424734387546778e-03" rms="1.8149144947528839e-01" purity="5.2520138025283813e-01" nType="0">
            <Node pos="l" depth="3" NCoef="0" IVar="-1" Cut="0.0000000000000000e+00" cType="1" res="5.8369552716612816e-03" rms="1.7735221982002258e-01" purity="5.2992272377014160e-01" nType="-99"/>
            <Node pos="r" depth="3" NCoef="0" IVar="-1" Cut="0.0000000000000000e+00" cType="1" res="3.9637420326471329e-02" rms="2.5894138216972351e-01" purity="4.1569721698760986e-01" nType="-99"/>
          </Node>
          <Node pos="r" depth="2" NCoef="0" IVar="4" Cut="4.1753445434570312e+02" cType="1" res="-2.5981161743402481e-03" rms="1.7987735569477081e-01" purity="4.7225093841552734e-01" nType="0">
            <Node pos="l" depth="3" NCoef="0" IVar="-1" Cut="0.0000000000000000e+00" cType="1" res="-2.0112659782171249e-02" rms="1.8340751528739929e-01" purity="1.5518786013126373e-01" nType="-99"/>
            <Node pos="r" depth="3" NCoef="0" IVar="-1" Cut="0.0000000000000000e+00" cType="1" res="1.0825568810105324e-02" rms="1.7539918422698975e-01" purity="8.4930509328842163e-01" nType="-99"/>
          </Node>
        </Node>
      </Node>
    </BinaryTree>
    <BinaryTree type="DecisionTree" boostWeight="1.0000000000000000e+00" itree="780">
      <Node pos="s" depth="0" NCoef="0" IVar="10" Cut="9.3333441019058228e-01" cType="1" res="1.7455948982387781e-03" rms="1.8506996333599091e-01" purity="5.0168347358703613e-01" nType="0">
        <Node pos="l" depth="1" NCoef="0" IVar="10" Cut="-2.0888350009918213e+00" cType="1" res="4.2565030162222683e-04" rms="1.7806161940097809e-01" purity="5.0960373878479004e-01" nType="0">
          <Node pos="l" depth="2" NCoef="0" IVar="-1" Cut="0.0000000000000000e+00" cType="1" res="-2.4368673563003540e-02" rms="2.1706056594848633e-01" purity="3.2506412267684937e-01" nType="-99"/>
          <Node pos="r" depth="2" NCoef="0" IVar="10" Cut="-1.2253255844116211e+00" cType="1" res="1.0677902027964592e-03" rms="1.7580054700374603e-01" purity="5.1908463239669800e-01" nType="0">
            <Node pos="l" depth="3" NCoef="0" IVar="-1" Cut="0.0000000000000000e+00" cType="1" res="1.5737859532237053e-02" rms="2.0108193159103394e-01" purity="4.9289366602897644e-01" nType="-99"/>
            <Node pos="r" depth="3" NCoef="0" IVar="-1" Cut="0.0000000000000000e+00" cType="1" res="-8.8319044152740389e-05" rms="1.7008422315120697e-01" purity="5.2450031042098999e-01" nType="-99"/>
          </Node>
        </Node>
        <Node pos="r" depth="1" NCoef="0" IVar="6" Cut="1.2492418670654297e+02" cType="1" res="6.0749487020075321e-03" rms="2.0633408427238464e-01" purity="4.7570547461509705e-01" nType="0">
          <Node pos="l" depth="2" NCoef="0" IVar="3" Cut="7.6330700683593750e+02" cType="1" res="1.1302342638373375e-02" rms="2.1513816714286804e-01" purity="2.4855373799800873e-01" nType="0">
            <Node pos="l" depth="3" NCoef="0" IVar="-1" Cut="0.0000000000000000e+00" cType="1" res="4.5638211071491241e-02" rms="2.0319785177707672e-01" purity="1.2635096907615662e-01" nType="-99"/>
            <Node pos="r" depth="3" NCoef="0" IVar="-1" Cut="0.0000000000000000e+00" cType="1" res="-1.2074793688952923e-02" rms="2.4822971224784851e-01" purity="6.3469159603118896e-01" nType="-99"/>
          </Node>
          <Node pos="r" depth="2" NCoef="0" IVar="2" Cut="3.8657251745462418e-02" cType="1" res="3.1447845685761422e-05" rms="1.9548822939395905e-01" purity="7.3832041025161743e-01" nType="0">
            <Node pos="l" depth="3" NCoef="0" IVar="-1" Cut="0.0000000000000000e+00" cType="1" res="-1.5763865783810616e-02" rms="2.2817909717559814e-01" purity="5.4388856887817383e-01" nType="-99"/>
            <Node pos="r" depth="3" NCoef="0" IVar="-1" Cut="0.0000000000000000e+00" cType="1" res="1.4445907436311245e-02" rms="1.7647017538547516e-01" purity="8.3670943975448608e-01" nType="-99"/>
          </Node>
        </Node>
      </Node>
    </BinaryTree>
    <BinaryTree type="DecisionTree" boostWeight="1.0000000000000000e+00" itree="781">
      <Node pos="s" depth="0" NCoef="0" IVar="9" Cut="-6.6666901111602783e-01" cType="1" res="-8.5972726810723543e-04" rms="1.8190097808837891e-01" purity="5.0498580932617188e-01" nType="0">
        <Node pos="l" depth="1" NCoef="0" IVar="10" Cut="1.4657784700393677e+00" cType="1" res="-5.7110949419438839e-03" rms="1.8586023151874542e-01" purity="4.5262688398361206e-01" nType="0">
          <Node pos="l" depth="2" NCoef="0" IVar="4" Cut="3.2217535400390625e+02" cType="1" res="-3.6839952226728201e-03" rms="1.8612295389175415e-01" purity="4.6297511458396912e-01" nType="0">
            <Node pos="l" depth="3" NCoef="0" IVar="-1" Cut="0.0000000000000000e+00" cType="1" res="1.2287312187254429e-02" rms="1.7424097657203674e-01" purity="1.0793177783489227e-01" nType="-99"/>
            <Node pos="r" depth="3" NCoef="0" IVar="-1" Cut="0.0000000000000000e+00" cType="1" res="-2.2093430161476135e-02" rms="1.9325627386569977e-01" purity="6.9252574443817139e-01" nType="-99"/>
          </Node>
          <Node pos="r" depth="2" NCoef="0" IVar="-1" Cut="0.0000000000000000e+00" cType="1" res="-4.9682859331369400e-02" rms="1.8269972503185272e-01" purity="3.6452597379684448e-01" nType="-99"/>
        </Node>
        <Node pos="r" depth="1" NCoef="0" IVar="7" Cut="-1.1886314153671265e+00" cType="1" res="9.9145201966166496e-04" rms="1.8033291399478912e-01" purity="5.2496480941772461e-01" nType="0">
          <Node pos="l" depth="2" NCoef="0" IVar="6" Cut="1.0696064758300781e+02" cType="1" res="1.6195587813854218e-02" rms="2.0666269958019257e-01" purity="2.0989277958869934e-01" nType="0">
            <Node pos="l" depth="3" NCoef="0" IVar="-1" Cut="0.0000000000000000e+00" cType="1" res="1.2290024012327194e-01" rms="1.9474695622920990e-01" purity="8.5426844656467438e-02" nType="-99"/>
            <Node pos="r" depth="3" NCoef="0" IVar="-1" Cut="0.0000000000000000e+00" cType="1" res="7.5988792814314365e-03" rms="2.1794053912162781e-01" purity="3.4253749251365662e-01" nType="-99"/>
          </Node>
          <Node pos="r" depth="2" NCoef="0" IVar="8" Cut="-1.4659574031829834e+00" cType="1" res="-2.2373349929694086e-04" rms="1.7800453305244446e-01" purity="5.5014687776565552e-01" nType="0">
            <Node pos="l" depth="3" NCoef="0" IVar="-1" Cut="0.0000000000000000e+00" cType="1" res="3.3077765256166458e-02" rms="2.2748506069183350e-01" purity="3.0282682180404663e-01" nType="-99"/>
            <Node pos="r" depth="3" NCoef="0" IVar="-1" Cut="0.0000000000000000e+00" cType="1" res="-4.3520159088075161e-03" rms="1.7397668957710266e-01" purity="5.6736958026885986e-01" nType="-99"/>
          </Node>
        </Node>
      </Node>
    </BinaryTree>
    <BinaryTree type="DecisionTree" boostWeight="1.0000000000000000e+00" itree="782">
      <Node pos="s" depth="0" NCoef="0" IVar="8" Cut="1.7333439588546753e+00" cType="1" res="1.7887926660478115e-03" rms="1.8377806246280670e-01" purity="5.0557839870452881e-01" nType="0">
        <Node pos="l" depth="1" NCoef="0" IVar="5" Cut="2.6705654907226562e+02" cType="1" res="1.2118461309000850e-03" rms="1.8155804276466370e-01" purity="5.1974844932556152e-01" nType="0">
          <Node pos="l" depth="2" NCoef="0" IVar="3" Cut="7.9736657714843750e+02" cType="1" res="-8.8661134941503406e-04" rms="1.9535785913467407e-01" purity="2.0192161202430725e-01" nType="0">
            <Node pos="l" depth="3" NCoef="0" IVar="-1" Cut="0.0000000000000000e+00" cType="1" res="1.8633776344358921e-03" rms="1.8123295903205872e-01" purity="1.0643046349287033e-01" nType="-99"/>
            <Node pos="r" depth="3" NCoef="0" IVar="-1" Cut="0.0000000000000000e+00" cType="1" res="-1.2105568312108517e-02" rms="2.5006410479545593e-01" purity="6.4042508602142334e-01" nType="-99"/>
          </Node>
          <Node pos="r" depth="2" NCoef="0" IVar="1" Cut="2.2416584472656250e+03" cType="1" res="3.7913657724857330e-03" rms="1.6296471655368805e-01" purity="9.1043567657470703e-01" nType="0">
            <Node pos="l" depth="3" NCoef="0" IVar="-1" Cut="0.0000000000000000e+00" cType="1" res="2.0499862730503082e-02" rms="3.3485269546508789e-01" purity="2.8810641169548035e-01" nType="-99"/>
            <Node pos="r" depth="3" NCoef="0" IVar="-1" Cut="0.0000000000000000e+00" cType="1" res="8.9248176664113998e-03" rms="1.3100898265838623e-01" purity="9.7840696573257446e-01" nType="-99"/>
          </Node>
        </Node>
        <Node pos="r" depth="1" NCoef="0" IVar="-1" Cut="0.0000000000000000e+00" cType="1" res="3.0909601598978043e-02" rms="2.2757579386234283e-01" purity="1.8775425851345062e-01" nType="-99"/>
      </Node>
    </BinaryTree>
    <BinaryTree type="DecisionTree" boostWeight="1.0000000000000000e+00" itree="783">
      <Node pos="s" depth="0" NCoef="0" IVar="9" Cut="1.1999045610427856e+00" cType="1" res="-1.2074031401425600e-03" rms="1.7939361929893494e-01" purity="5.0521886348724365e-01" nType="0">
        <Node pos="l" depth="1" NCoef="0" IVar="5" Cut="2.7699496459960938e+02" cType="1" res="-2.1751418244093657e-03" rms="1.7385825514793396e-01" purity="5.2159434556961060e-01" nType="0">
          <Node pos="l" depth="2" NCoef="0" IVar="5" Cut="1.5810865783691406e+02" cType="1" res="-4.7112875618040562e-03" rms="1.8576818704605103e-01" purity="2.0657299458980560e-01" nType="0">
            <Node pos="l" depth="3" NCoef="0" IVar="-1" Cut="0.0000000000000000e+00" cType="1" res="-2.2794303949922323e-03" rms="1.4260010421276093e-01" purity="6.7134849727153778e-02" nType="-99"/>
            <Node pos="r" depth="3" NCoef="0" IVar="-1" Cut="0.0000000000000000e+00" cType="1" res="-1.6139199957251549e-02" rms="2.1857602894306183e-01" purity="3.3738183975219727e-01" nType="-99"/>
          </Node>
          <Node pos="r" depth="2" NCoef="0" IVar="0" Cut="5.9426403808593750e+02" cType="1" res="1.0595269268378615e-03" rms="1.5730611979961395e-01" purity="9.2338109016418457e-01" nType="0">
            <Node pos="l" depth="3" NCoef="0" IVar="-1" Cut="0.0000000000000000e+00" cType="1" res="1.4566675759851933e-02" rms="3.1604358553886414e-01" purity="5.0467878580093384e-01" nType="-99"/>
            <Node pos="r" depth="3" NCoef="0" IVar="-1" Cut="0.0000000000000000e+00" cType="1" res="-5.8721452951431274e-03" rms="1.2169016897678375e-01" purity="9.7857707738876343e-01" nType="-99"/>
          </Node>
        </Node>
        <Node pos="r" depth="1" NCoef="0" IVar="10" Cut="-6.6672962903976440e-01" cType="1" res="4.6074842102825642e-03" rms="2.0950408279895782e-01" purity="4.0682259202003479e-01" nType="0">
          <Node pos="l" depth="2" NCoef="0" IVar="-1" Cut="0.0000000000000000e+00" cType="1" res="3.5663586109876633e-02" rms="2.3986601829528809e-01" purity="4.6111267805099487e-01" nType="-99"/>
          <Node pos="r" depth="2" NCoef="0" IVar="10" Cut="1.1489267349243164e+00" cType="1" res="-1.1743344366550446e-03" rms="1.9546508789062500e-01" purity="3.8465875387191772e-01" nType="0">
            <Node pos="l" depth="3" NCoef="0" IVar="-1" Cut="0.0000000000000000e+00" cType="1" res="8.8941762223839760e-03" rms="1.9493021070957184e-01" purity="4.1258567571640015e-01" nType="-99"/>
            <Node pos="r" depth="3" NCoef="0" IVar="-1" Cut="0.0000000000000000e+00" cType="1" res="-2.3379733785986900e-02" rms="1.9627550244331360e-01" purity="3.2017639279365540e-01" nType="-99"/>
          </Node>
        </Node>
      </Node>
    </BinaryTree>
    <BinaryTree type="DecisionTree" boostWeight="1.0000000000000000e+00" itree="784">
      <Node pos="s" depth="0" NCoef="0" IVar="7" Cut="-1.6665531396865845e+00" cType="1" res="-1.0148542933166027e-03" rms="1.8409909307956696e-01" purity="5.0094550848007202e-01" nType="0">
        <Node pos="l" depth="1" NCoef="0" IVar="-1" Cut="0.0000000000000000e+00" cType="1" res="-8.3200283348560333e-02" rms="1.2574701011180878e-01" purity="5.0068791955709457e-02" nType="-99"/>
        <Node pos="r" depth="1" NCoef="0" IVar="9" Cut="1.1999117136001587e+00" cType="1" res="-5.4830196313560009e-04" rms="1.8542088568210602e-01" purity="5.1332879066467285e-01" nType="0">
          <Node pos="l" depth="2" NCoef="0" IVar="1" Cut="2.2938605957031250e+03" cType="1" res="5.9699185658246279e-04" rms="1.8198609352111816e-01" purity="5.3296989202499390e-01" nType="0">
            <Node pos="l" depth="3" NCoef="0" IVar="-1" Cut="0.0000000000000000e+00" cType="1" res="8.6093265563249588e-03" rms="1.9496089220046997e-01" purity="7.8021876513957977e-02" nType="-99"/>
            <Node pos="r" depth="3" NCoef="0" IVar="-1" Cut="0.0000000000000000e+00" cType="1" res="-6.8840188905596733e-03" rms="1.6920453310012817e-01" purity="9.4928389787673950e-01" nType="-99"/>
          </Node>
          <Node pos="r" depth="2" NCoef="0" IVar="1" Cut="1.6443912353515625e+03" cType="1" res="-7.4309776537120342e-03" rms="2.0471800863742828e-01" purity="3.9529481530189514e-01" nType="0">
            <Node pos="l" depth="3" NCoef="0" IVar="-1" Cut="0.0000000000000000e+00" cType="1" res="5.3458414971828461e-02" rms="1.3368865847587585e-01" purity="2.2188857197761536e-02" nType="-99"/>
            <Node pos="r" depth="3" NCoef="0" IVar="-1" Cut="0.0000000000000000e+00" cType="1" res="-2.6097360998392105e-02" rms="2.3599639534950256e-01" purity="6.1230772733688354e-01" nType="-99"/>
          </Node>
        </Node>
      </Node>
    </BinaryTree>
    <BinaryTree type="DecisionTree" boostWeight="1.0000000000000000e+00" itree="785">
      <Node pos="s" depth="0" NCoef="0" IVar="9" Cut="-3.9963790774345398e-01" cType="1" res="1.0154382325708866e-03" rms="1.8656128644943237e-01" purity="5.0141495466232300e-01" nType="0">
        <Node pos="l" depth="1" NCoef="0" IVar="7" Cut="9.8236089944839478e-01" cType="1" res="4.6612787991762161e-03" rms="1.9384194910526276e-01" purity="4.8455986380577087e-01" nType="0">
          <Node pos="l" depth="2" NCoef="0" IVar="5" Cut="1.4479783630371094e+02" cType="1" res="6.6974279470741749e-03" rms="1.9362157583236694e-01" purity="5.1729840040206909e-01" nType="0">
            <Node pos="l" depth="3" NCoef="0" IVar="-1" Cut="0.0000000000000000e+00" cType="1" res="-1.3509107753634453e-02" rms="1.3971222937107086e-01" purity="5.6688733398914337e-02" nType="-99"/>
            <Node pos="r" depth="3" NCoef="0" IVar="-1" Cut="0.0000000000000000e+00" cType="1" res="2.3271735757589340e-02" rms="2.0779350399971008e-01" purity="6.6410440206527710e-01" nType="-99"/>
          </Node>
          <Node pos="r" depth="2" NCoef="0" IVar="-1" Cut="0.0000000000000000e+00" cType="1" res="-2.5981891900300980e-02" rms="1.9481043517589569e-01" purity="2.3854078352451324e-01" nType="-99"/>
        </Node>
        <Node pos="r" depth="1" NCoef="0" IVar="7" Cut="1.4850434064865112e+00" cType="1" res="-1.1270203394815326e-03" rms="1.8211308121681213e-01" purity="5.1131975650787354e-01" nType="0">
          <Node pos="l" depth="2" NCoef="0" IVar="10" Cut="-1.4666125774383545e+00" cType="1" res="-1.8361945403739810e-03" rms="1.8103808164596558e-01" purity="5.2994430065155029e-01" nType="0">
            <Node pos="l" depth="3" NCoef="0" IVar="-1" Cut="0.0000000000000000e+00" cType="1" res="1.7361529171466827e-02" rms="2.2639532387256622e-01" purity="5.0779193639755249e-01" nType="-99"/>
            <Node pos="r" depth="3" NCoef="0" IVar="-1" Cut="0.0000000000000000e+00" cType="1" res="-1.0030444711446762e-02" rms="1.7440421879291534e-01" purity="5.3275245428085327e-01" nType="-99"/>
          </Node>
          <Node pos="r" depth="2" NCoef="0" IVar="-1" Cut="0.0000000000000000e+00" cType="1" res="4.3197482824325562e-02" rms="2.0312231779098511e-01" purity="1.1374911665916443e-01" nType="-99"/>
        </Node>
      </Node>
    </BinaryTree>
    <BinaryTree type="DecisionTree" boostWeight="1.0000000000000000e+00" itree="786">
      <Node pos="s" depth="0" NCoef="0" IVar="8" Cut="6.6672456264495850e-01" cType="1" res="-2.0659888105001301e-04" rms="1.7969611287117004e-01" purity="5.0123488903045654e-01" nType="0">
        <Node pos="l" depth="1" NCoef="0" IVar="9" Cut="-6.6660743951797485e-01" cType="1" res="1.9385530613362789e-03" rms="1.7695684731006622e-01" purity="5.3275918960571289e-01" nType="0">
          <Node pos="l" depth="2" NCoef="0" IVar="5" Cut="2.3783947753906250e+02" cType="1" res="6.9251433014869690e-03" rms="1.8640705943107605e-01" purity="4.7360166907310486e-01" nType="0">
            <Node pos="l" depth="3" NCoef="0" IVar="-1" Cut="0.0000000000000000e+00" cType="1" res="3.2173298299312592e-02" rms="1.9315426051616669e-01" purity="1.6914011538028717e-01" nType="-99"/>
            <Node pos="r" depth="3" NCoef="0" IVar="-1" Cut="0.0000000000000000e+00" cType="1" res="1.8075235420837998e-03" rms="1.7748224735260010e-01" purity="8.5129940509796143e-01" nType="-99"/>
          </Node>
          <Node pos="r" depth="2" NCoef="0" IVar="10" Cut="-1.4665000438690186e+00" cType="1" res="-8.7012260337360203e-05" rms="1.7292970418930054e-01" purity="5.5678910017013550e-01" nType="0">
            <Node pos="l" depth="3" NCoef="0" IVar="-1" Cut="0.0000000000000000e+00" cType="1" res="1.5855008736252785e-02" rms="2.1335963904857635e-01" purity="4.9134314060211182e-01" nType="-99"/>
            <Node pos="r" depth="3" NCoef="0" IVar="-1" Cut="0.0000000000000000e+00" cType="1" res="-3.2621456775814295e-03" rms="1.6710257530212402e-01" purity="5.6506288051605225e-01" nType="-99"/>
          </Node>
        </Node>
        <Node pos="r" depth="1" NCoef="0" IVar="3" Cut="6.0782281494140625e+02" cType="1" res="-6.6515766084194183e-03" rms="1.8753813207149506e-01" purity="4.0652197599411011e-01" nType="0">
          <Node pos="l" depth="2" NCoef="0" IVar="1" Cut="1.6924156494140625e+03" cType="1" res="-1.3775400817394257e-02" rms="1.7512513697147369e-01" purity="1.3178171217441559e-01" nType="0">
            <Node pos="l" depth="3" NCoef="0" IVar="-1" Cut="0.0000000000000000e+00" cType="1" res="-3.0561152845621109e-02" rms="9.3292765319347382e-02" purity="1.2050393968820572e-02" nType="-99"/>
            <Node pos="r" depth="3" NCoef="0" IVar="-1" Cut="0.0000000000000000e+00" cType="1" res="-3.8304928690195084e-02" rms="2.8678238391876221e-01" purity="4.1676035523414612e-01" nType="-99"/>
          </Node>
          <Node pos="r" depth="2" NCoef="0" IVar="9" Cut="3.9976271986961365e-01" cType="1" res="-6.9589680060744286e-04" rms="1.9711978733539581e-01" purity="6.3621115684509277e-01" nType="0">
            <Node pos="l" depth="3" NCoef="0" IVar="-1" Cut="0.0000000000000000e+00" cType="1" res="-1.1655190028250217e-02" rms="1.9007988274097443e-01" purity="6.7549359798431396e-01" nType="-99"/>
            <Node pos="r" depth="3" NCoef="0" IVar="-1" Cut="0.0000000000000000e+00" cType="1" res="1.3505830429494381e-02" rms="2.0818074047565460e-01" purity="5.7062834501266479e-01" nType="-99"/>
          </Node>
        </Node>
      </Node>
    </BinaryTree>
    <BinaryTree type="DecisionTree" boostWeight="1.0000000000000000e+00" itree="787">
      <Node pos="s" depth="0" NCoef="0" IVar="10" Cut="1.4664615392684937e+00" cType="1" res="2.3581099230796099e-03" rms="1.8723207712173462e-01" purity="5.0075143575668335e-01" nType="0">
        <Node pos="l" depth="1" NCoef="0" IVar="2" Cut="8.5462749004364014e-02" cType="1" res="3.6535353865474463e-03" rms="1.8669652938842773e-01" purity="5.0956225395202637e-01" nType="0">
          <Node pos="l" depth="2" NCoef="0" IVar="4" Cut="5.1165286254882812e+02" cType="1" res="5.4072006605565548e-03" rms="1.9499510526657104e-01" purity="4.2517584562301636e-01" nType="0">
            <Node pos="l" depth="3" NCoef="0" IVar="-1" Cut="0.0000000000000000e+00" cType="1" res="1.9697239622473717e-02" rms="2.0532493293285370e-01" purity="2.2618353366851807e-01" nType="-99"/>
            <Node pos="r" depth="3" NCoef="0" IVar="-1" Cut="0.0000000000000000e+00" cType="1" res="-2.1864466834813356e-03" rms="1.6696842014789581e-01" purity="9.1087931394577026e-01" nType="-99"/>
          </Node>
          <Node pos="r" depth="2" NCoef="0" IVar="5" Cut="2.9983703613281250e+02" cType="1" res="-2.3206667974591255e-03" rms="1.5497970581054688e-01" purity="7.9704082012176514e-01" nType="0">
            <Node pos="l" depth="3" NCoef="0" IVar="-1" Cut="0.0000000000000000e+00" cType="1" res="-1.9866263493895531e-02" rms="2.1962799131870270e-01" purity="4.4361147284507751e-01" nType="-99"/>
            <Node pos="r" depth="3" NCoef="0" IVar="-1" Cut="0.0000000000000000e+00" cType="1" res="1.3474352657794952e-02" rms="1.0776293277740479e-01" purity="9.7740888595581055e-01" nType="-99"/>
          </Node>
        </Node>
        <Node pos="r" depth="1" NCoef="0" IVar="1" Cut="2.2268061523437500e+03" cType="1" res="-6.8596815690398216e-03" rms="1.9074566662311554e-01" purity="4.3805667757987976e-01" nType="0">
          <Node pos="l" depth="2" NCoef="0" IVar="1" Cut="1.5968243408203125e+03" cType="1" res="-1.7345843836665154e-02" rms="1.8427483737468719e-01" purity="6.7923530936241150e-02" nType="0">
            <Node pos="l" depth="3" NCoef="0" IVar="-1" Cut="0.0000000000000000e+00" cType="1" res="1.8591780215501785e-02" rms="1.0948324948549271e-01" purity="1.6448812559247017e-02" nType="-99"/>
            <Node pos="r" depth="3" NCoef="0" IVar="-1" Cut="0.0000000000000000e+00" cType="1" res="-4.6846404671669006e-02" rms="2.3926986753940582e-01" purity="1.2459935247898102e-01" nType="-99"/>
          </Node>
          <Node pos="r" depth="2" NCoef="0" IVar="-1" Cut="0.0000000000000000e+00" cType="1" res="1.6507826745510101e-02" rms="1.9816851615905762e-01" purity="9.3035286664962769e-01" nType="-99"/>
        </Node>
      </Node>
    </BinaryTree>
    <BinaryTree type="DecisionTree" boostWeight="1.0000000000000000e+00" itree="788">
      <Node pos="s" depth="0" NCoef="0" IVar="2" Cut="1.0682816803455353e-01" cType="1" res="1.0085076792165637e-03" rms="1.8374729156494141e-01" purity="5.0035029649734497e-01" nType="0">
        <Node pos="l" depth="1" NCoef="0" IVar="2" Cut="8.6476743221282959e-02" cType="1" res="2.3366871755570173e-03" rms="1.9082783162593842e-01" purity="4.3972390890121460e-01" nType="0">
          <Node pos="l" depth="2" NCoef="0" IVar="2" Cut="4.5296814292669296e-02" cType="1" res="1.3980931835249066e-03" rms="1.9112309813499451e-01" purity="4.1353729367256165e-01" nType="0">
            <Node pos="l" depth="3" NCoef="0" IVar="-1" Cut="0.0000000000000000e+00" cType="1" res="8.2752825692296028e-03" rms="1.9501133263111115e-01" purity="3.3535954356193542e-01" nType="-99"/>
            <Node pos="r" depth="3" NCoef="0" IVar="-1" Cut="0.0000000000000000e+00" cType="1" res="-1.1095187626779079e-02" rms="1.7931288480758667e-01" purity="6.3930851221084595e-01" nType="-99"/>
          </Node>
          <Node pos="r" depth="2" NCoef="0" IVar="-1" Cut="0.0000000000000000e+00" cType="1" res="3.7198141217231750e-02" rms="1.8688283860683441e-01" purity="7.5383651256561279e-01" nType="-99"/>
        </Node>
        <Node pos="r" depth="1" NCoef="0" IVar="1" Cut="2.6062656250000000e+03" cType="1" res="-5.7150013744831085e-03" rms="1.4241832494735718e-01" purity="8.0725365877151489e-01" nType="0">
          <Node pos="l" depth="2" NCoef="0" IVar="-1" Cut="0.0000000000000000e+00" cType="1" res="-2.9700091108679771e-02" rms="2.4667429924011230e-01" purity="3.2199588418006897e-01" nType="-99"/>
          <Node pos="r" depth="2" NCoef="0" IVar="-1" Cut="0.0000000000000000e+00" cType="1" res="-7.6503038872033358e-04" rms="6.6654860973358154e-02" purity="9.9535757303237915e-01" nType="-99"/>
        </Node>
      </Node>
    </BinaryTree>
    <BinaryTree type="DecisionTree" boostWeight="1.0000000000000000e+00" itree="789">
      <Node pos="s" depth="0" NCoef="0" IVar="8" Cut="-1.4663884639739990e+00" cType="1" res="-3.1349065247923136e-03" rms="1.8005950748920441e-01" purity="4.9457389116287231e-01" nType="0">
        <Node pos="l" depth="1" NCoef="0" IVar="1" Cut="1.5951083984375000e+03" cType="1" res="-1.5514291822910309e-02" rms="1.9062200188636780e-01" purity="2.1168851852416992e-01" nType="0">
          <Node pos="l" depth="2" NCoef="0" IVar="-1" Cut="0.0000000000000000e+00" cType="1" res="-3.8200035691261292e-02" rms="7.7286109328269958e-02" purity="7.3999138548970222e-03" nType="-99"/>
          <Node pos="r" depth="2" NCoef="0" IVar="-1" Cut="0.0000000000000000e+00" cType="1" res="-3.5833586007356644e-02" rms="2.4469637870788574e-01" purity="3.7132072448730469e-01" nType="-99"/>
        </Node>
        <Node pos="r" depth="1" NCoef="0" IVar="2" Cut="1.0682830214500427e-01" cType="1" res="-2.1851649507880211e-03" rms="1.7918813228607178e-01" purity="5.1627677679061890e-01" nType="0">
          <Node pos="l" depth="2" NCoef="0" IVar="1" Cut="2.5918090820312500e+03" cType="1" res="-3.3223317004740238e-03" rms="1.8409058451652527e-01" purity="4.4845855236053467e-01" nType="0">
            <Node pos="l" depth="3" NCoef="0" IVar="-1" Cut="0.0000000000000000e+00" cType="1" res="-1.2268640100955963e-02" rms="2.0059199631214142e-01" purity="1.1641570180654526e-01" nType="-99"/>
            <Node pos="r" depth="3" NCoef="0" IVar="-1" Cut="0.0000000000000000e+00" cType="1" res="-3.0173905543051660e-04" rms="1.5477129817008972e-01" purity="9.6724361181259155e-01" nType="-99"/>
          </Node>
          <Node pos="r" depth="2" NCoef="0" IVar="0" Cut="6.4032415771484375e+02" cType="1" res="2.9338037129491568e-03" rms="1.5511079132556915e-01" purity="8.2156097888946533e-01" nType="0">
            <Node pos="l" depth="3" NCoef="0" IVar="-1" Cut="0.0000000000000000e+00" cType="1" res="2.3177767172455788e-02" rms="2.5186878442764282e-01" purity="3.5276746749877930e-01" nType="-99"/>
            <Node pos="r" depth="3" NCoef="0" IVar="-1" Cut="0.0000000000000000e+00" cType="1" res="-9.2472700634971261e-04" rms="1.1205320060253143e-01" purity="9.5801281929016113e-01" nType="-99"/>
          </Node>
        </Node>
      </Node>
    </BinaryTree>
    <BinaryTree type="DecisionTree" boostWeight="1.0000000000000000e+00" itree="790">
      <Node pos="s" depth="0" NCoef="0" IVar="9" Cut="1.2000763416290283e+00" cType="1" res="2.2108572011347860e-04" rms="1.8349975347518921e-01" purity="4.9890226125717163e-01" nType="0">
        <Node pos="l" depth="1" NCoef="0" IVar="9" Cut="-8.9486658573150635e-01" cType="1" res="-8.8216247968375683e-04" rms="1.7757464945316315e-01" purity="5.1579731702804565e-01" nType="0">
          <Node pos="l" depth="2" NCoef="0" IVar="2" Cut="7.7837891876697540e-02" cType="1" res="3.9886189624667168e-03" rms="1.9954006373882294e-01" purity="4.3154379725456238e-01" nType="0">
            <Node pos="l" depth="3" NCoef="0" IVar="-1" Cut="0.0000000000000000e+00" cType="1" res="1.6399963351432234e-04" rms="2.0261716842651367e-01" purity="3.2438445091247559e-01" nType="-99"/>
            <Node pos="r" depth="3" NCoef="0" IVar="-1" Cut="0.0000000000000000e+00" cType="1" res="4.2545683681964874e-02" rms="1.8936863541603088e-01" purity="7.5770974159240723e-01" nType="-99"/>
          </Node>
          <Node pos="r" depth="2" NCoef="0" IVar="0" Cut="7.4137451171875000e+02" cType="1" res="-2.5570138823240995e-03" rms="1.6933239996433258e-01" purity="5.4476845264434814e-01" nType="0">
            <Node pos="l" depth="3" NCoef="0" IVar="-1" Cut="0.0000000000000000e+00" cType="1" res="-1.6162900254130363e-02" rms="1.8071779608726501e-01" purity="1.9132672250270844e-01" nType="-99"/>
            <Node pos="r" depth="3" NCoef="0" IVar="-1" Cut="0.0000000000000000e+00" cType="1" res="3.9642201736569405e-03" rms="1.5693062543869019e-01" purity="9.0140753984451294e-01" nType="-99"/>
          </Node>
        </Node>
        <Node pos="r" depth="1" NCoef="0" IVar="6" Cut="1.0780560302734375e+02" cType="1" res="6.8674641661345959e-03" rms="2.1565994620323181e-01" purity="3.9712026715278625e-01" nType="0">
          <Node pos="l" depth="2" NCoef="0" IVar="8" Cut="-1.3521683216094971e-01" cType="1" res="-4.9956082366406918e-03" rms="1.8110543489456177e-01" purity="1.6321806609630585e-01" nType="0">
            <Node pos="l" depth="3" NCoef="0" IVar="-1" Cut="0.0000000000000000e+00" cType="1" res="-5.1074665039777756e-02" rms="1.7450627684593201e-01" purity="1.3684338331222534e-01" nType="-99"/>
            <Node pos="r" depth="3" NCoef="0" IVar="-1" Cut="0.0000000000000000e+00" cType="1" res="1.3086792081594467e-02" rms="1.8487724661827087e-01" purity="1.8154056370258331e-01" nType="-99"/>
          </Node>
          <Node pos="r" depth="2" NCoef="0" IVar="8" Cut="1.3655407726764679e-01" cType="1" res="1.7918938770890236e-02" rms="2.4295689165592194e-01" purity="6.1502039432525635e-01" nType="0">
            <Node pos="l" depth="3" NCoef="0" IVar="-1" Cut="0.0000000000000000e+00" cType="1" res="2.2984445095062256e-02" rms="2.3626142740249634e-01" purity="6.3182216882705688e-01" nType="-99"/>
            <Node pos="r" depth="3" NCoef="0" IVar="-1" Cut="0.0000000000000000e+00" cType="1" res="5.0478864461183548e-02" rms="2.5026422739028931e-01" purity="5.9577208757400513e-01" nType="-99"/>
          </Node>
        </Node>
      </Node>
    </BinaryTree>
    <BinaryTree type="DecisionTree" boostWeight="1.0000000000000000e+00" itree="791">
      <Node pos="s" depth="0" NCoef="0" IVar="6" Cut="8.9509971618652344e+01" cType="1" res="4.2311116703785956e-04" rms="1.8345162272453308e-01" purity="5.0160664319992065e-01" nType="0">
        <Node pos="l" depth="1" NCoef="0" IVar="1" Cut="1.9525828857421875e+03" cType="1" res="-3.2345138024538755e-03" rms="1.6764080524444580e-01" purity="1.5545032918453217e-01" nType="0">
          <Node pos="l" depth="2" NCoef="0" IVar="4" Cut="3.5337216186523438e+02" cType="1" res="-2.1579411986749619e-04" rms="1.0633367300033569e-01" purity="1.4667280949652195e-02" nType="0">
            <Node pos="l" depth="3" NCoef="0" IVar="-1" Cut="0.0000000000000000e+00" cType="1" res="-2.8942877426743507e-02" rms="7.9831555485725403e-02" purity="8.3506209775805473e-03" nType="-99"/>
            <Node pos="r" depth="3" NCoef="0" IVar="-1" Cut="0.0000000000000000e+00" cType="1" res="3.3849533647298813e-02" rms="1.6083082556724548e-01" purity="3.3403951674699783e-02" nType="-99"/>
          </Node>
          <Node pos="r" depth="2" NCoef="0" IVar="1" Cut="2.7025126953125000e+03" cType="1" res="-1.2282002717256546e-02" rms="2.7988532185554504e-01" purity="5.7739508152008057e-01" nType="0">
            <Node pos="l" depth="3" NCoef="0" IVar="-1" Cut="0.0000000000000000e+00" cType="1" res="-2.3659871891140938e-02" rms="3.1346976757049561e-01" purity="2.6259160041809082e-01" nType="-99"/>
            <Node pos="r" depth="3" NCoef="0" IVar="-1" Cut="0.0000000000000000e+00" cType="1" res="5.6253164075314999e-03" rms="2.3797406256198883e-01" purity="9.1293245553970337e-01" nType="-99"/>
          </Node>
        </Node>
        <Node pos="r" depth="1" NCoef="0" IVar="0" Cut="4.4712454223632812e+02" cType="1" res="1.9834402482956648e-03" rms="1.8977464735507965e-01" purity="6.4927566051483154e-01" nType="0">
          <Node pos="l" depth="2" NCoef="0" IVar="4" Cut="3.4148001098632812e+02" cType="1" res="7.7548804692924023e-03" rms="1.8087883293628693e-01" purity="5.0078541040420532e-02" nType="0">
            <Node pos="l" depth="3" NCoef="0" IVar="-1" Cut="0.0000000000000000e+00" cType="1" res="9.1457562521100044e-03" rms="1.3403719663619995e-01" purity="2.1592948585748672e-02" nType="-99"/>
            <Node pos="r" depth="3" NCoef="0" IVar="-1" Cut="0.0000000000000000e+00" cType="1" res="3.7546716630458832e-02" rms="2.5787293910980225e-01" purity="1.1588164418935776e-01" nType="-99"/>
          </Node>
          <Node pos="r" depth="2" NCoef="0" IVar="1" Cut="1.6979831542968750e+03" cType="1" res="6.5018661553040147e-04" rms="1.9174627959728241e-01" purity="7.8769552707672119e-01" nType="0">
            <Node pos="l" depth="3" NCoef="0" IVar="-1" Cut="0.0000000000000000e+00" cType="1" res="3.5828098654747009e-02" rms="1.5488269925117493e-01" purity="3.5820983350276947e-02" nType="-99"/>
            <Node pos="r" depth="3" NCoef="0" IVar="-1" Cut="0.0000000000000000e+00" cType="1" res="-5.0099508371204138e-04" rms="1.9544017314910889e-01" purity="8.7226718664169312e-01" nType="-99"/>
          </Node>
        </Node>
      </Node>
    </BinaryTree>
    <BinaryTree type="DecisionTree" boostWeight="1.0000000000000000e+00" itree="792">
      <Node pos="s" depth="0" NCoef="0" IVar="1" Cut="1.9959053955078125e+03" cType="1" res="3.2434990862384439e-04" rms="1.8305432796478271e-01" purity="5.0092262029647827e-01" nType="0">
        <Node pos="l" depth="1" NCoef="0" IVar="1" Cut="1.7121256103515625e+03" cType="1" res="2.8880948666483164e-03" rms="1.5800964832305908e-01" purity="3.7780657410621643e-02" nType="0">
          <Node pos="l" depth="2" NCoef="0" IVar="10" Cut="-1.7328782081604004e+00" cType="1" res="-5.0030008424073458e-04" rms="1.0025820881128311e-01" purity="1.2967265211045742e-02" nType="0">
            <Node pos="l" depth="3" NCoef="0" IVar="-1" Cut="0.0000000000000000e+00" cType="1" res="5.7113684713840485e-02" rms="1.6119566559791565e-01" purity="3.2541472464799881e-02" nType="-99"/>
            <Node pos="r" depth="3" NCoef="0" IVar="-1" Cut="0.0000000000000000e+00" cType="1" res="-1.5989277511835098e-02" rms="9.0869009494781494e-02" purity="1.0781759396195412e-02" nType="-99"/>
          </Node>
          <Node pos="r" depth="2" NCoef="0" IVar="8" Cut="-1.3066241145133972e-01" cType="1" res="1.3473451137542725e-02" rms="2.6723527908325195e-01" purity="1.1529776453971863e-01" nType="0">
            <Node pos="l" depth="3" NCoef="0" IVar="-1" Cut="0.0000000000000000e+00" cType="1" res="-1.2622840004041791e-03" rms="2.4256888031959534e-01" purity="1.0013938695192337e-01" nType="-99"/>
            <Node pos="r" depth="3" NCoef="0" IVar="-1" Cut="0.0000000000000000e+00" cType="1" res="3.5158481448888779e-02" rms="2.8564131259918213e-01" purity="1.2794366478919983e-01" nType="-99"/>
          </Node>
        </Node>
        <Node pos="r" depth="1" NCoef="0" IVar="1" Cut="2.2654821777343750e+03" cType="1" res="-1.8022767035290599e-03" rms="2.0145560801029205e-01" purity="8.8509881496429443e-01" nType="0">
          <Node pos="l" depth="2" NCoef="0" IVar="7" Cut="-2.3053305223584175e-02" cType="1" res="-1.8649999052286148e-02" rms="3.7135642766952515e-01" purity="3.2906475663185120e-01" nType="0">
            <Node pos="l" depth="3" NCoef="0" IVar="-1" Cut="0.0000000000000000e+00" cType="1" res="-2.6154918596148491e-03" rms="3.8091009855270386e-01" purity="3.4780722856521606e-01" nType="-99"/>
            <Node pos="r" depth="3" NCoef="0" IVar="-1" Cut="0.0000000000000000e+00" cType="1" res="-2.3499563336372375e-02" rms="3.6061757802963257e-01" purity="3.0978158116340637e-01" nType="-99"/>
          </Node>
          <Node pos="r" depth="2" NCoef="0" IVar="4" Cut="4.1686959838867188e+02" cType="1" res="-1.3148332982382271e-06" rms="1.7363031208515167e-01" purity="9.4453692436218262e-01" nType="0">
            <Node pos="l" depth="3" NCoef="0" IVar="-1" Cut="0.0000000000000000e+00" cType="1" res="-9.2900069430470467e-03" rms="2.6785433292388916e-01" purity="8.3896130323410034e-01" nType="-99"/>
            <Node pos="r" depth="3" NCoef="0" IVar="-1" Cut="0.0000000000000000e+00" cType="1" res="5.3789075464010239e-03" rms="1.5018656849861145e-01" purity="9.6377909183502197e-01" nType="-99"/>
          </Node>
        </Node>
      </Node>
    </BinaryTree>
    <BinaryTree type="DecisionTree" boostWeight="1.0000000000000000e+00" itree="793">
      <Node pos="s" depth="0" NCoef="0" IVar="10" Cut="-1.9999538660049438e+00" cType="1" res="5.0932611338794231e-04" rms="1.8162670731544495e-01" purity="5.0490814447402954e-01" nType="0">
        <Node pos="l" depth="1" NCoef="0" IVar="-1" Cut="0.0000000000000000e+00" cType="1" res="3.0782850459218025e-02" rms="2.4063839018344879e-01" purity="3.9132514595985413e-01" nType="-99"/>
        <Node pos="r" depth="1" NCoef="0" IVar="7" Cut="9.7004461288452148e-01" cType="1" res="-3.4761443384923041e-04" rms="1.7795528471469879e-01" purity="5.1085847616195679e-01" nType="0">
          <Node pos="l" depth="2" NCoef="0" IVar="10" Cut="1.8856387138366699e+00" cType="1" res="7.0055760443210602e-04" rms="1.7690174281597137e-01" purity="5.4729884862899780e-01" nType="0">
            <Node pos="l" depth="3" NCoef="0" IVar="-1" Cut="0.0000000000000000e+00" cType="1" res="-3.7067887024022639e-04" rms="1.7254050076007843e-01" purity="5.5427777767181396e-01" nType="-99"/>
            <Node pos="r" depth="3" NCoef="0" IVar="-1" Cut="0.0000000000000000e+00" cType="1" res="2.4250918999314308e-02" rms="2.3381826281547546e-01" purity="4.3946543335914612e-01" nType="-99"/>
          </Node>
